{"!": 10, "!!": 11, "!!!": 12, "!\"": 13, "!)": 16, "!\u00bb": 15, "!\u201d": 14, "\"": 45, "\")": 50, "\"),": 51, "\").": 52, "\",": 46, "\".": 49, "\":": 47, "\"?": 48, "$": 80, "$0": 147, "$1": 289, "%": 82, "%)": 84, "%,": 83, "&": 81, "'": 37, "''": 39, "')": 40, "'.": 38, "(": 67, "(0": 146, "(1": 284, "(1)": 285, "(1)(": 286, "(2)": 773, "(2)(": 774, "(3)": 1110, "(4)": 1253, "(5)": 1366, "(6)": 1468, ")": 68, "),": 69, ").": 73, "):": 71, ");": 70, ")?": 72, "+": 85, "++": 86, "+1": 290, ",": 4, ",\"": 5, ",0%": 143, ",000+": 167, ",000,000": 177, ",995,": 1769, ",\u201d": 6, "-": 1, "-(": 3, "-(2-": 768, "-(3-": 1106, "-(4-": 1248, "--": 2, "-0": 142, "-01": 202, "-02": 214, "-03": 225, "-1": 274, "-1)": 277, "-1,": 276, "-1,3-": 455, "-1-": 275, "-10": 313, "-100": 332, "-11": 377, "-11-13": 400, "-12": 413, "-13": 454, "-14": 486, "-15": 518, "-16": 551, "-17": 579, "-18": 600, "-19": 624, "-2": 767, "-2-": 769, "-20": 798, "-200": 814, "-2015": 922, "-21": 968, "-22": 987, "-23": 1006, "-24": 1019, "-25": 1035, "-26": 1064, "-27": 1077, "-28": 1087, "-29": 1097, "-3": 1105, "-3-": 1107, "-30": 1135, "-35": 1205, "-4": 1247, "-4-": 1249, "-40": 1277, "-5": 1360, "-5-": 1361, "-50": 1388, "-6": 1465, "-60": 1488, "-7": 1549, "-750": 1605, "-8": 1627, "-9": 1696, ".": 25, ".\"": 33, ".'\"": 31, "...": 26, "...\"": 28, "...+": 30, ".........": 27, "...\u201d": 29, ".0%": 145, ".000.000": 178, ".1%": 283, ".11": 380, ".25": 1038, ".5": 1364, ".7%": 1552, ".9%": 1698, ".[": 36, ".[1": 281, ".[1]": 282, ".[2": 771, ".[2]": 772, ".[3]": 1109, ".[4]": 1252, ".[5]": 1365, ".\u00bb": 35, ".\u2019\u201d": 32, ".\u201d": 34, "/": 24, "/0": 144, "/00": 162, "/01": 203, "/02": 215, "/03": 226, "/03/": 227, "/04": 233, "/05": 240, "/05/": 241, "/06": 251, "/07/2016": 261, "/08": 263, "/09": 269, "/1": 280, "/10": 315, "/100": 333, "/11": 379, "/12": 415, "/13": 456, "/14": 488, "/15": 520, "/16": 553, "/17": 581, "/18": 602, "/19": 626, "/1999": 762, "/2": 770, "/20": 800, "/2000/": 820, "/2001": 836, "/2001/": 837, "/2002/": 843, "/2003": 849, "/2004/": 855, "/2005": 861, "/2006": 867, "/2008": 878, "/2009": 885, "/2010": 892, "/2011": 898, "/2012": 904, "/2013": 910, "/2014": 916, "/2015": 923, "/2016": 929, "/2017": 935, "/2018": 942, "/2019": 947, "/22": 989, "/24": 1021, "/25": 1037, "/3": 1108, "/4": 1251, "/5": 1363, "/55/": 1438, "/56/": 1447, "/57/": 1453, "/58/": 1457, "/59/": 1461, "/6": 1467, "/60/": 1489, "/61/": 1508, "/62/": 1513, "/63/": 1518, "/7": 1551, "/8": 1628, "/94": 1740, "0": 141, "0%": 159, "0,": 157, "0,00": 170, "0,000": 174, "0,1": 211, "0,5": 248, "0-250": 223, "0.0": 165, "0.00": 171, "0.000": 175, "0.01": 187, "0.05": 198, "0.1": 212, "0.3": 231, "0.4": 237, "0.5": 249, "0.6": 255, "0.7": 259, "0.8": 267, "0/": 158, "00": 160, "000": 166, "0000": 172, "001": 183, "002": 188, "004": 192, "005": 194, "007": 200, "00:00": 176, "00:00:00": 179, "01": 201, "02": 213, "03": 224, "04": 232, "05": 239, "06": 250, "07": 256, "08": 262, "09": 268, "0\u00b0": 156, "1": 273, "1%": 310, "1%)": 311, "1)": 308, "1).": 309, "1,": 305, "1,0": 326, "1,000": 347, "1,5": 533, "1-": 304, "1-1": 393, "1-2": 431, "1-3": 471, "1-4": 502, "1-6": 564, "1.": 307, "1.0": 327, "1.00": 339, "1.000": 348, "1.1": 394, "1.2": 433, "1.3": 472, "1.4": 503, "1.5": 534, "1.6": 565, "1.7": 589, "1.8": 611, "1/": 306, "1/2": 432, "10": 312, "10%": 330, "10)": 329, "10,": 328, "10.000": 352, "100": 331, "100%": 340, "1000": 341, "101": 356, "102": 359, "103": 361, "104": 363, "105": 365, "106": 367, "107": 369, "108": 371, "109": 374, "11": 376, "110": 395, "111": 398, "112": 401, "114": 404, "115": 406, "12": 412, "120": 434, "123": 443, "125": 446, "128": 450, "13": 453, "13)": 473, "130": 474, "14": 485, "140": 504, "15": 517, "150": 535, "16": 550, "16)": 566, "160": 567, "16:19": 570, "17": 578, "170": 590, "175": 594, "18": 599, "180": 612, "19": 623, "190": 633, "197": 705, "198": 716, "1990": 730, "1991": 734, "1992": 737, "1994": 744, "1996": 750, "1997": 753, "1998": 757, "1999": 761, "1\u00b0": 303, "2": 766, "2%": 795, "2%)": 796, "2)": 792, "2),": 793, "2).": 794, "2,": 789, "2,000": 828, "2,5": 1049, "2,500": 1059, "2,7": 1083, "2-": 788, "2.": 791, "2.0": 810, "2.00": 818, "2.000": 829, "2.1": 977, "2.2": 997, "2.3": 1013, "2.4": 1030, "2.5": 1050, "2.5%": 1051, "2.6": 1072, "2.7": 1084, "2.8": 1094, "2.9": 1103, "2/": 790, "20": 797, "20%": 812, "20)": 811, "20.000": 832, "200": 813, "2000": 819, "2001": 835, "2002": 842, "2003": 848, "2004": 854, "2005": 860, "2006": 866, "2007": 872, "2008": 877, "2009": 884, "2010": 891, "2011": 897, "2012": 903, "2013": 909, "2014": 915, "2015": 921, "2016": 928, "2017": 934, "2018": 941, "2019": 946, "2020": 953, "21": 967, "210": 978, "22": 986, "220": 998, "23": 1005, "23)": 1014, "24": 1018, "240": 1031, "25": 1034, "250": 1052, "26": 1063, "260": 1073, "264": 1075, "27": 1076, "28": 1086, "29": 1096, "2:30": 1016, "2\u00b0": 787, "3": 1104, "3%": 1132, "3%)": 1133, "3)": 1130, "3).": 1131, "3,": 1127, "3,000": 1155, "3,5": 1213, "3-": 1126, "3.": 1129, "3.0": 1147, "3.000": 1156, "3.1": 1174, "3.2": 1185, "3.3": 1193, "3.4": 1202, "3.5": 1214, "3.6": 1222, "3.7": 1232, "3.8": 1239, "3.9": 1245, "3/": 1128, "30": 1134, "30)": 1148, "30.000": 1159, "300": 1149, "31": 1168, "31)": 1175, "32": 1179, "320": 1186, "33": 1188, "330": 1194, "34": 1196, "35": 1204, "350": 1215, "36": 1218, "360": 1223, "365": 1225, "37": 1227, "370": 1233, "375": 1234, "38": 1235, "380": 1240, "39": 1242, "3\u00b0": 1125, "4": 1246, "4%": 1275, "4)": 1272, "4).": 1273, "4,": 1269, "4,000": 1291, "4,5": 1331, "4,6": 1340, "4-": 1268, "4.": 1271, "4.0": 1285, "4.000": 1292, "4.1": 1306, "4.3": 1316, "4.4": 1322, "4.5": 1332, "4.6": 1341, "4.7": 1346, "4.8": 1351, "4.9": 1357, "4.99": 1358, "4/": 1270, "40": 1276, "40.000": 1295, "400": 1286, "41": 1301, "42": 1308, "43": 1313, "44": 1318, "45": 1324, "450": 1333, "46": 1335, "47": 1342, "48": 1347, "485": 1352, "49": 1353, "4]": 1274, "4\u00b0": 1267, "5": 1359, "5%": 1386, "5)": 1384, "5).": 1385, "5,": 1381, "5,0": 1396, "5,000": 1409, "5,5": 1442, "5,6": 1449, "5-": 1380, "5.": 1383, "5.0": 1397, "5.00": 1404, "5.000": 1410, "5.1": 1423, "5.4": 1436, "5.5": 1443, "5.6": 1450, "5.7": 1455, "5.8": 1459, "5.9": 1463, "5/": 1382, "50": 1387, "50%": 1399, "50,000": 1414, "50.000": 1415, "500": 1400, "50\u00b0": 1398, "51": 1419, "52": 1427, "53": 1431, "54": 1434, "55": 1437, "550": 1444, "56": 1446, "560": 1451, "57": 1452, "58": 1456, "59": 1460, "5:00": 1403, "5\u00b0": 1379, "6": 1464, "6%": 1486, "6)": 1484, "6,": 1481, "6,000": 1502, "6,7": 1538, "6-": 1480, "6.": 1483, "6.0": 1496, "6.000": 1503, "6.1": 1511, "6.3": 1521, "6.4": 1524, "6.5": 1529, "6.6": 1534, "6.7": 1539, "6.8": 1543, "6.9": 1547, "6/": 1482, "60": 1487, "60.000": 1505, "600": 1497, "61": 1507, "62": 1512, "63": 1517, "64": 1522, "65": 1525, "650": 1530, "66": 1532, "660": 1535, "67": 1536, "670": 1540, "68": 1541, "680": 1544, "69": 1545, "6]": 1485, "6\u00b0": 1479, "7": 1548, "7%": 1569, "7)": 1567, "7).": 1568, "7,": 1564, "7,000": 1578, "7,5": 1601, "7,500": 1607, "7,8": 1621, "7-": 1563, "7.": 1566, "7.0": 1574, "7.000": 1579, "7.1": 1585, "7.3": 1592, "7.4": 1596, "7.5": 1602, "7.5%": 1603, "7.6": 1611, "7.7": 1615, "7.8": 1622, "7.9": 1625, "7/": 1565, "70": 1570, "70.000": 1581, "700": 1575, "71": 1582, "72": 1586, "73": 1590, "74": 1593, "75": 1597, "75,000": 1608, "750": 1604, "76": 1609, "760": 1612, "77": 1613, "770": 1616, "777": 1618, "78": 1619, "79": 1623, "7\u00b0": 1562, "8": 1626, "8%": 1645, "8%)": 1646, "8)": 1644, "8,": 1641, "8,000": 1658, "8,5": 1677, "8-": 1640, "8.": 1643, "8.0": 1653, "8.000": 1659, "8.3": 1669, "8.4": 1672, "8.5": 1678, "8.6": 1682, "8.7": 1685, "8.8": 1689, "8.9": 1694, "8/": 1642, "80": 1647, "80.000": 1660, "800": 1654, "81": 1662, "82": 1665, "83": 1667, "84": 1670, "85": 1673, "86": 1680, "87": 1683, "877": 1686, "88": 1687, "880": 1690, "888": 1691, "89": 1692, "8\u00b0": 1639, "9": 1695, "9%": 1711, "9)": 1710, "9,": 1707, "9,000": 1721, "9,5": 1745, "9,9": 1766, "9,99": 1771, "9.": 1709, "9.0": 1716, "9.00": 1720, "9.000": 1722, "9.1": 1729, "9.3": 1737, "9.5": 1746, "9.6": 1752, "9.7": 1757, "9.8": 1761, "9.9": 1767, "9.99": 1772, "9/": 1708, "90": 1712, "90.000": 1723, "900": 1717, "9001": 1724, "91": 1726, "92": 1732, "93": 1735, "94": 1739, "95": 1742, "95%": 1747, "950": 1748, "96": 1749, "960": 1753, "97": 1754, "98": 1758, "980": 1762, "99": 1763, "990": 1768, "999": 1770, "9:30": 1738, "9\u00b0": 1706, ":": 8, "://": 9, ":00": 161, ":1": 278, ":10": 314, ":11": 378, ":12": 414, ":14": 487, ":15": 519, ":16": 552, ":17": 580, ":18": 601, ":19": 625, ":20": 799, ":21": 969, ":22": 988, ":23": 1007, ":24": 1020, ":25": 1036, ":26": 1065, ":28": 1088, ":29": 1098, ":30": 1136, ":4": 1250, ":45": 1325, ":5": 1362, ":6": 1466, ":7": 1550, ":9": 1697, ";": 7, "</s>": 44893, "<s>": 44894, "<unk>": 52312, "?": 18, "?\"": 19, "?\u00bb": 22, "?\u201d": 20, "?\u201d.": 21, "A": 1775, "AA": 1781, "AB": 1789, "ABILITY": 1862, "ABLE": 1868, "AC": 2015, "ACC": 2052, "ACE": 2192, "ACH": 2258, "ACI": 2270, "ACION": 2287, "ACIONES": 2290, "ACK": 2292, "ACT": 2402, "ACTIV": 2417, "AD": 2557, "ADA": 2560, "ADE": 2627, "ADN": 2794, "ADO": 2798, "ADOR": 2831, "ADOS": 2842, "AE": 2971, "AF": 3006, "AG": 3130, "AGE": 3146, "AH": 3314, "AI": 3337, "AIDS": 3343, "AIR": 3356, "AL": 3432, "ALES": 3563, "ALI": 3616, "ALL": 3697, "AM": 3913, "AMA": 3918, "AMI": 4035, "AMIENTO": 4045, "AMP": 4105, "AMS": 4141, "AN": 4156, "ANA": 4162, "ANCE": 4253, "ANCIA": 4267, "AND": 4283, "ANDO": 4302, "ANG": 4346, "ANGE": 4348, "ANN": 4436, "ANO": 4469, "ANS": 4501, "ANT": 4514, "ANTE": 4530, "ANTES": 4555, "ANTI": 4565, "AP": 4693, "APP": 4862, "AR": 5061, "ARA": 5066, "ARC": 5110, "ARD": 5154, "ARE": 5165, "ARIA": 5210, "ARIO": 5222, "ARN": 5284, "ART": 5407, "ARY": 5481, "AS": 5490, "ASE": 5521, "AST": 5759, "AT": 5817, "ATA": 5820, "ATCC": 5840, "ATE": 5843, "ATED": 5845, "ATION": 5888, "ATIVE": 5891, "AU": 6038, "AV": 6267, "AVE": 6301, "AY": 6399, "AZ": 6433, "Ab": 1787, "About": 1903, "Abrir": 1934, "Ac": 2013, "Acaso": 2050, "Accept": 2072, "Access": 2092, "According": 2155, "Acepta": 2214, "Act": 2400, "Ad": 2555, "Add": 2597, "Adem\u00e1s": 2649, "Adopted": 2824, "Adv": 2886, "Affinity": 3048, "Africa": 3103, "After": 3119, "Agencia": 3151, "Ah": 3312, "Ahora": 3324, "Air": 3354, "Al": 3430, "Alarm": 3451, "Aldrich": 3515, "Alemania": 3542, "Alene": 3544, "Alerts": 3560, "Alguien": 3601, "Alguna": 3605, "Algunos": 3611, "All": 3695, "Alpes": 3797, "Also": 3831, "Alternativamente": 3861, "Although": 3874, "Alyzer": 3905, "Am": 3911, "America": 4015, "American": 4020, "An": 4154, "And": 4281, "Anime": 4423, "Ann": 4434, "Anti": 4563, "Any": 4676, "Apartamento": 4737, "Apartment": 4747, "App": 4860, "April": 4980, "Aquitaine": 5057, "Aqu\u00ed": 5054, "Ar": 5059, "Arab": 5068, "Are": 5163, "Argent": 5184, "Argentina": 5186, "Argument": 5201, "Art": 5405, "Article": 5431, "Art\u00edculo": 5450, "As": 5488, "Asociaci\u00f3n": 5643, "Assad": 5678, "Assembl": 5691, "Associa": 5731, "As\u00ed": 5585, "At": 5815, "Atrapa": 5945, "Au": 6036, "August": 6083, "Auhelawa": 6088, "Aunque": 6114, "Australia": 6134, "Auto": 6177, "Avg": 6327, "Ayuda": 6406, "Azur": 6460, "A\u00f1adi": 4173, "A\u00fan": 6110, "B": 6466, "BA": 6472, "BAN": 6644, "BAR": 6711, "BB": 6913, "BC": 6922, "BE": 6929, "BEL": 7057, "BER": 7182, "BG": 7247, "BI": 7254, "BIO": 7381, "BIT": 7464, "BL": 7479, "BLE": 7525, "BM": 7622, "BN": 7625, "BO": 7630, "BP": 7919, "BR": 7924, "BRA": 7929, "BRE": 7988, "BRI": 8041, "BS": 8205, "BT": 8207, "BU": 8215, "BUSINESS": 8410, "BY": 8465, "Ba": 6470, "Back": 6495, "Bank": 6682, "Bar": 6709, "Barcelona": 6736, "Base": 6802, "Based": 6808, "Be": 6927, "Because": 6988, "Before": 7018, "Behold": 7043, "Benz": 7169, "Best": 7212, "Bi": 7252, "Bien": 7298, "Bienvenido": 7310, "Big": 7317, "Bio": 7379, "Bissau": 7459, "Black": 7485, "Blood": 7585, "Blue": 7613, "Bluff": 7618, "Bo": 7628, "Book": 7766, "Box": 7906, "Br": 7922, "Brasil": 7966, "Brazil": 7980, "Break": 7996, "Brien": 8059, "British": 8103, "Bu": 8213, "Buena": 8254, "Bueno": 8260, "Build": 8278, "Bur": 8330, "Busca": 8383, "Buscas": 8399, "Busc\u00e1": 8385, "Business": 8408, "But": 8424, "Buy": 8449, "By": 8463, "C": 8472, "CA": 8478, "CAD": 8535, "CAG": 8574, "CAM": 8728, "CAN": 8839, "CAP": 8966, "CAR": 9058, "CAS": 9284, "CAT": 9358, "CC": 9520, "CCI": 9527, "CD": 9533, "CE": 9541, "CEE": 9561, "CEL": 9568, "CEP": 9732, "CER": 9744, "CF": 9842, "CFSP": 9845, "CG": 9846, "CH": 9851, "CHE": 10016, "CHI": 10091, "CHR": 10206, "CI": 10261, "CIA": 10265, "CID": 10307, "CION": 10422, "CIONES": 10429, "CL": 10587, "CLE": 10703, "CM": 10877, "CMV": 10880, "CN": 10881, "CNN": 10884, "CO": 10891, "COM": 11240, "CON": 11920, "CONNECT": 12343, "COP": 13153, "COST": 13401, "COUNT": 13464, "CP": 13542, "CR": 13547, "CRA": 13552, "CRI": 13735, "CRP": 13869, "CS": 13927, "CSF": 13929, "CSI": 13930, "CT": 13934, "CTA": 13937, "CTO": 13946, "CU": 13955, "CULO": 14140, "CV": 14339, "CY": 14344, "Ca": 8476, "Cada": 8539, "Cal": 8601, "California": 8690, "Call": 8696, "Cam": 8726, "Camp": 8795, "Can": 8837, "Canada": 8846, "Canad\u00e1": 8848, "Cap": 8964, "Car": 9056, "Care": 9154, "Cast": 9332, "Cat": 9356, "Category": 9421, "Categor\u00eda": 9411, "Catholic": 9435, "Cause": 9477, "Celebr": 9573, "Central": 9690, "Centro": 9718, "Ch": 9849, "Cha": 9855, "Chair": 9865, "Change": 9916, "Che": 10014, "Check": 10027, "Chi": 10089, "Chief": 10109, "Children": 10121, "Chile": 10123, "China": 10142, "Chinese": 10146, "Christ": 10209, "Christian": 10215, "Ci": 10259, "Ciertamente": 10353, "City": 10541, "Ciudad": 10546, "Cl": 10585, "Clar": 10614, "Claramente": 10619, "Claro": 10635, "Class": 10663, "Claude": 10680, "Clear": 10716, "Click": 10747, "Closet": 10833, "Cloud": 10847, "Club": 10856, "Co": 10889, "Coffee": 11000, "Col": 11046, "Cola": 11051, "Colombia": 11169, "Color": 11198, "Com": 11238, "Come": 11292, "Comisi\u00f3n": 11381, "Commerce": 11419, "Commission": 11426, "Communication": 11462, "Community": 11478, "Como": 11483, "Comp": 11501, "Compart": 11555, "Comprueba": 11838, "Con": 11918, "Connect": 12341, "Connor": 12362, "Conoce": 12366, "Consecuentemente": 12424, "Consejo": 12439, "Considera": 12479, "Consulta": 12652, "Contact": 12711, "Contenido": 12794, "Content": 12800, "Continental": 12832, "Control": 12961, "Cor": 13184, "Cortez": 13363, "Costa": 13404, "Count": 13462, "Courtesy": 13509, "Crea": 13599, "Credit": 13673, "Cree": 13687, "Creemos": 13692, "Crees": 13700, "Creo": 13710, "Crypt": 13913, "Cu": 13953, "Cualquier": 13988, "Cuando": 13997, "Cuantas": 14005, "Cuanto": 14016, "Cuba": 14041, "Cumpli": 14194, "Current": 14261, "Custom": 14308, "Cu\u00e1l": 13975, "Cu\u00e1les": 13978, "Cu\u00e1n": 13994, "Cu\u00e1ndo": 14001, "Cu\u00e1ntas": 14007, "Cu\u00e1nto": 14020, "Cu\u00e1ntos": 14023, "C\u00f3mo": 11488, "D": 14399, "DA": 14405, "DAC": 14408, "DAR": 14503, "DAS": 14528, "DB": 14579, "DC": 14581, "DD": 14585, "DE": 14594, "DEN": 15138, "DER": 15289, "DES": 15353, "DEX": 15943, "DF": 15947, "DH": 15950, "DI": 15963, "DIRECT": 16370, "DIS": 16440, "DL": 16967, "DM": 16974, "DMA": 16976, "DN": 16980, "DNA": 16981, "DO": 16988, "DOS": 17206, "DP": 17264, "DR": 17270, "DRO": 17367, "DS": 17405, "DT": 17408, "DU": 17413, "DV": 17545, "DY": 17555, "Da": 14403, "Daniel": 14485, "Data": 14535, "David": 14558, "Davidson": 14560, "Day": 14569, "De": 14592, "Dear": 14623, "Debe": 14640, "Debemos": 14643, "Deber\u00eda": 14654, "Debido": 14668, "December": 14707, "Decid": 14722, "Definitivamente": 14931, "Des": 15351, "Descargar": 15437, "Descubri": 15512, "Desde": 15529, "Desea": 15532, "Desgraciadamente": 15592, "Design": 15602, "Despu\u00e9s": 15712, "Detalle": 15801, "Deuteronomio": 15885, "Deuteronomy": 15886, "Develop": 15902, "Di": 15961, "Did": 16103, "Digital": 16225, "Dios": 16328, "DirecTV": 16412, "Direct": 16368, "Dis": 16438, "Disfrut": 16612, "Do": 16986, "Document": 17026, "Domingo": 17116, "Don": 17131, "Donald": 17139, "Donde": 17151, "Donnell": 17167, "Double": 17227, "Down": 17241, "Download": 17246, "Dr": 17268, "Dream": 17321, "Drive": 17355, "Du": 17411, "Dur": 17497, "Durante": 17513, "During": 17527, "D\u00e9jame": 14968, "D\u00f3nde": 17155, "E": 17573, "EA": 17579, "EAM": 17591, "EAR": 17597, "EC": 17657, "ECA": 17660, "ECHA": 17672, "ECHO": 17677, "ECO": 17692, "ED": 17765, "EE": 17854, "EEC": 17858, "EEN": 17860, "EEUU": 17862, "EF": 17866, "EG": 17929, "EI": 17954, "EL": 18031, "ELEC": 18071, "ELL": 18248, "ELLE": 18255, "ELO": 18268, "EM": 18292, "EMA": 18295, "EN": 18579, "ENA": 18583, "ENCE": 18639, "ENCIA": 18650, "END": 18731, "ENDI": 18744, "ENE": 18778, "ENER": 18786, "ENS": 18987, "ENT": 19029, "ENTA": 19031, "ENTE": 19039, "ENTES": 19070, "ENTO": 19096, "EO": 19239, "EP": 19246, "EPA": 19248, "ER": 19347, "ERA": 19354, "ERIA": 19389, "ERN": 19403, "ERO": 19408, "ERRA": 19422, "ERS": 19436, "ERT": 19439, "ES": 19452, "ESS": 19804, "EST": 19819, "ESTA": 19824, "ET": 20142, "ETA": 20145, "ETH": 20174, "EU": 20249, "EUR": 20260, "EV": 20294, "EVE": 20354, "EVEN": 20359, "EVER": 20378, "EVO": 20424, "EX": 20449, "EY": 21101, "EZ": 21111, "Each": 17583, "Earth": 17616, "East": 17632, "Ed": 17763, "Edit": 17802, "Education": 17840, "Efesios": 17886, "Ejemplo": 18004, "El": 18029, "Elect": 18077, "Ella": 18251, "Ellos": 18265, "En": 18577, "Enciclopedia": 18653, "Encuentra": 18712, "Energy": 18807, "English": 18895, "Enhorabuena": 18914, "Entonces": 19099, "Entre": 19122, "Entrepreneurship": 19149, "Ephesians": 19250, "Equipped": 19329, "Era": 19352, "Eres": 19378, "Es": 19450, "Escuch": 19576, "Eso": 19629, "Espa\u00f1a": 19657, "Espa\u00f1ol": 19662, "Especificaciones": 19704, "Espera": 19737, "Espero": 19754, "Est": 19817, "Esta": 19822, "Estaba": 19833, "Estados": 19900, "Estamos": 19913, "Este": 19963, "Esto": 20035, "Estos": 20044, "Estoy": 20049, "Estupenda": 20128, "Est\u00e1": 19830, "Est\u00e1n": 19920, "Est\u00e1s": 19948, "Eucharistic": 20254, "Euro": 20264, "Europa": 20268, "Europe": 20271, "European": 20277, "Evangeli": 20327, "Even": 20357, "Every": 20383, "Everyone": 20389, "Everything": 20392, "Ex": 20447, "Example": 20487, "Excelente": 20514, "Excellent": 20521, "Existe": 20680, "Experiment": 20789, "Explora": 20863, "Express": 20946, "Extraordinary": 21065, "Ezekiel": 21114, "F": 21118, "FA": 21124, "FAE": 21235, "FC": 21481, "FCCC": 21484, "FE": 21491, "FER": 21619, "FF": 21696, "FI": 21707, "FIC": 21737, "FIG": 21787, "FIL": 21835, "FL": 22103, "FM": 22294, "FO": 22300, "FOR": 22396, "FORM": 22463, "FP": 22656, "FR": 22660, "FRA": 22664, "FS": 22913, "FSA": 22915, "FT": 22918, "FTA": 22919, "FU": 22924, "FUL": 22979, "FX": 23145, "Fa": 21122, "Facebook": 21162, "Factory": 21217, "Family": 21324, "Father": 21438, "Fe": 21489, "Febrero": 21515, "February": 21517, "Felicit": 21566, "Felicitaciones": 21568, "Feliz": 21574, "Female": 21585, "Fi": 21705, "Fig": 21785, "Figura": 21804, "Figure": 21814, "Film": 21871, "Find": 21964, "Finder": 21967, "First": 22036, "Follow": 22345, "Food": 22375, "For": 22394, "Form": 22461, "Foro": 22541, "Four": 22647, "Fran": 22708, "France": 22715, "Francia": 22726, "Frank": 22737, "Free": 22778, "French": 22801, "Friend": 22847, "From": 22871, "Front": 22876, "Fue": 22931, "Fuente": 22942, "Full": 22988, "G": 23150, "GA": 23156, "GAL": 23185, "GAR": 23285, "GB": 23391, "GC": 23394, "GE": 23400, "GEN": 23424, "GER": 23596, "GF": 23645, "GFP": 23646, "GG": 23648, "GH": 23658, "GI": 23670, "GL": 23756, "GM": 23873, "GN": 23880, "GO": 23894, "GP": 24031, "GR": 24038, "GRA": 24043, "GRAPH": 24178, "GRE": 24232, "GS": 24378, "GT": 24380, "GU": 24385, "GUA": 24389, "GUE": 24449, "GUI": 24479, "GW": 24571, "Ga": 23154, "Galatians": 23196, "Game": 23242, "Games": 23247, "Gen": 23422, "Gene": 23431, "General": 23449, "Genesis": 23498, "George": 23587, "Germain": 23604, "German": 23606, "Germany": 23609, "Get": 23637, "Girl": 23733, "Given": 23749, "Global": 23806, "Go": 23892, "GoOpti": 23976, "God": 23920, "Good": 23966, "Google": 23974, "Governing": 24014, "Government": 24017, "Gracias": 24061, "Gran": 24132, "Grand": 24138, "Great": 24236, "Green": 24253, "Group": 24344, "Grupo": 24373, "Gu": 24383, "Guangdong": 24402, "Guard": 24416, "Gurus": 24545, "H": 24580, "HA": 24586, "HAM": 24771, "HAN": 24793, "HC": 24983, "HCO": 24986, "HCl": 24984, "HD": 24988, "HE": 24997, "HEN": 25154, "HER": 25176, "HI": 25304, "HIV": 25525, "HL": 25531, "HO": 25540, "HOUSE": 25850, "HP": 25875, "HR": 25882, "HRC": 25885, "HS": 25889, "HT": 25892, "HU": 25902, "HY": 26054, "Ha": 24584, "Hab\u00eda": 24598, "Hace": 24664, "Han": 24791, "Har": 24845, "Has": 24912, "Hasta": 24921, "Haul": 24935, "Hav": 24941, "Have": 24946, "Hay": 24965, "Haz": 24973, "He": 24995, "Health": 25023, "Hebreos": 25068, "Hechos": 25078, "Help": 25127, "Hemos": 25149, "Her": 25174, "Here": 25191, "Herzegovina": 25263, "Hewlett": 25284, "Hey": 25294, "Hi": 25302, "High": 25378, "Hijo": 25404, "Hill": 25417, "His": 25477, "Hispanic": 25480, "Historia": 25492, "History": 25515, "Ho": 25538, "Hodgkin": 25551, "Hola": 25568, "Hombre": 25616, "Home": 25624, "Honestly": 25678, "Hotel": 25822, "Hour": 25840, "House": 25848, "How": 25864, "However": 25869, "Hoy": 25872, "Hu": 25900, "Hub": 25909, "Human": 25956, "Hz": 26125, "H\u00e1bitat": 24631, "I": 26129, "IA": 26133, "IAL": 26141, "IAN": 26145, "IB": 26157, "IC": 26186, "ICA": 26189, "ICAL": 26191, "ICAN": 26194, "ICE": 26201, "ICI": 26211, "ICK": 26223, "ICO": 26226, "ICOS": 26240, "ICS": 26243, "ICT": 26244, "ID": 26254, "IDA": 26258, "IDAD": 26261, "IDE": 26268, "IDO": 26346, "IE": 26359, "IEN": 26365, "IENTE": 26379, "IER": 26383, "IES": 26391, "IF": 26402, "IFIC": 26411, "IG": 26438, "II": 26492, "III": 26496, "IL": 26511, "ILE": 26518, "ILL": 26537, "ILLA": 26539, "ILO": 26579, "IM": 26609, "IMA": 26611, "IMO": 26702, "IN": 26940, "INA": 26944, "IND": 27177, "INE": 27334, "INFO": 27467, "ING": 27530, "INI": 27610, "INO": 27758, "INS": 27788, "INT": 28005, "IO": 28548, "ION": 28557, "IONS": 28569, "IP": 28577, "IPO": 28584, "IPS": 28587, "IR": 28594, "IRA": 28598, "IRE": 28612, "IS": 28664, "ISA": 28669, "ISE": 28683, "ISH": 28687, "ISI": 28692, "ISMO": 28726, "ISO": 28732, "ISS": 28764, "IST": 28777, "ISTA": 28779, "IT": 28799, "ITA": 28802, "ITE": 28827, "ITO": 28854, "ITU": 28865, "ITY": 28871, "IU": 28874, "IV": 28879, "IVA": 28882, "IVE": 28888, "IX": 28900, "IZA": 28907, "IZACI": 28909, "IZE": 28926, "If": 26400, "Im": 26607, "In": 26938, "Incluso": 27071, "Incre\u00edble": 27147, "India": 27213, "Industr": 27317, "Info": 27465, "Informaci\u00f3n": 27477, "Information": 27495, "Informe": 27502, "Ingl\u00e9s": 27556, "Instead": 27928, "Institut": 27941, "Instrument": 27970, "Integr": 28014, "Inter": 28117, "International": 28235, "Internet": 28239, "Invest": 28453, "IoT": 28572, "Isaiah": 28672, "Isla": 28700, "Islam": 28703, "Islamic": 28706, "Island": 28714, "Israel": 28755, "Israeli": 28757, "It": 28797, "Italia": 28804, "Italian": 28806, "Italy": 28813, "Ivoire": 28895, "J": 28942, "JA": 28948, "JE": 29035, "JFK": 29114, "JO": 29138, "Ja": 28946, "Jack": 28955, "James": 28983, "January": 28993, "Japan": 28995, "Japanese": 28997, "Jap\u00f3n": 28999, "Je": 29033, "Jean": 29039, "Jesus": 29092, "Jes\u00fas": 29094, "Jet": 29098, "Jewish": 29111, "Jo": 29136, "Job": 29146, "John": 29156, "Ju": 29226, "Juan": 29229, "Juego": 29272, "Jul": 29303, "July": 29312, "June": 29323, "Just": 29370, "K": 29405, "KA": 29411, "KE": 29473, "KER": 29503, "KG": 29530, "KJV": 29630, "KK": 29632, "KO": 29680, "KY": 29742, "Ka": 29409, "Keep": 29478, "Key": 29517, "Ki": 29543, "Know": 29663, "L": 29749, "LA": 29755, "LAC": 29796, "LAN": 29889, "LAND": 29898, "LAR": 29959, "LAS": 29987, "LAX": 30106, "LC": 30123, "LD": 30127, "LDPE": 30130, "LE": 30135, "LED": 30213, "LER": 30346, "LES": 30351, "LET": 30379, "LEX": 30440, "LF": 30455, "LG": 30458, "LI": 30468, "LIA": 30472, "LIC": 30547, "LIGHT": 30641, "LIM": 30668, "LIN": 30722, "LINE": 30737, "LING": 30764, "LINK": 30775, "LIS": 30829, "LL": 30946, "LM": 31059, "LN": 31063, "LO": 31069, "LOG": 31153, "LON": 31207, "LOR": 31259, "LOS": 31275, "LOW": 31331, "LP": 31342, "LR": 31345, "LS": 31347, "LT": 31349, "LU": 31364, "LV": 31489, "LY": 31494, "La": 29753, "Lab": 29760, "Land": 29896, "Las": 29985, "Last": 29996, "Latin": 30027, "Law": 30093, "Le": 30133, "Learn": 30171, "Learning": 30177, "Leave": 30186, "Leste": 30374, "Let": 30377, "Level": 30424, "Lev\u00e1ntate": 30418, "Ley": 30446, "Li": 30466, "Life": 30603, "Light": 30639, "Like": 30655, "Line": 30735, "Link": 30773, "Little": 30902, "Live": 30917, "Llega": 30985, "Lo": 31067, "Log": 31151, "London": 31210, "Look": 31239, "Lord": 31263, "Los": 31273, "Louis": 31303, "Lounge": 31308, "Love": 31316, "Low": 31329, "Ltd": 31352, "Lu": 31362, "Luc": 31376, "Lucas": 31378, "Luego": 31411, "Luke": 31431, "M": 31517, "MA": 31523, "MAD": 31566, "MAN": 31793, "MAP": 31979, "MAR": 32004, "MAS": 32184, "MAT": 32243, "MAX": 32335, "MB": 32384, "MC": 32400, "MD": 32415, "MDGs": 32417, "ME": 32422, "MED": 32486, "MEM": 32647, "MEN": 32687, "MENT": 32727, "MENTE": 32744, "MER": 32771, "MET": 32867, "MEX": 32991, "MF": 33018, "MG": 33021, "MH": 33025, "MI": 33032, "MIENTO": 33121, "MIN": 33238, "MINU": 33344, "MIS": 33388, "MIT": 33463, "ML": 33506, "MM": 33512, "MN": 33518, "MO": 33524, "MOBIL": 33531, "MON": 33721, "MOS": 33924, "MOZ": 34077, "MP": 34083, "MR": 34097, "MS": 34104, "MT": 34108, "MU": 34115, "MV": 34370, "MW": 34371, "MX": 34374, "MY": 34380, "Ma": 31521, "Mac": 31529, "Mad": 31564, "Madrid": 31586, "Mag": 31606, "Mail": 31664, "Mainland": 31673, "Make": 31703, "Mal": 31718, "Male": 31741, "Man": 31791, "Mania": 31862, "Many": 31970, "Map": 31977, "Mar": 32002, "Marble": 32019, "March": 32036, "Marie": 32069, "Mark": 32101, "Market": 32108, "Mart": 32145, "Martin": 32155, "Master": 32229, "Mat": 32241, "Mateo": 32265, "Matt": 32312, "Matthew": 32318, "Max": 32333, "May": 32356, "Maybe": 32364, "Mbps": 32394, "Me": 32420, "Media": 32499, "Medic": 32523, "Medical": 32531, "Mejor": 32612, "Member": 32650, "Men": 32685, "Mer": 32769, "Met": 32865, "Mexico": 32999, "MgS": 33023, "MgSO": 33024, "Mi": 33030, "Michael": 33044, "Michel": 33046, "Mientras": 33125, "Mill": 33203, "Mira": 33364, "Mo": 33522, "Mobile": 33534, "Modern": 33588, "Mon": 33719, "Money": 33754, "Monroe": 33803, "Mont": 33814, "Moonroof": 33862, "More": 33886, "Most": 33942, "Mostrar": 33960, "Mr": 34095, "Mu": 34113, "Muchas": 34127, "Muchos": 34136, "Mujer": 34177, "Multi": 34190, "Music": 34319, "Muslim": 34331, "Muy": 34368, "My": 34378, "M\u00e1s": 32187, "M\u00e9xico": 33001, "N": 34407, "NA": 34414, "NAC": 34417, "NAP": 34501, "NAS": 34532, "NASDAQ": 34539, "NB": 34639, "NC": 34643, "NCI": 34648, "NCO": 34653, "ND": 34656, "NE": 34670, "NER": 34826, "NES": 34841, "NET": 34852, "NF": 34945, "NG": 34951, "NGO": 34956, "NH": 34961, "NI": 34968, "NIA": 34973, "NIC": 34976, "NIO": 35074, "NK": 35109, "NL": 35112, "NN": 35117, "NO": 35126, "NOS": 35262, "NOVA": 35339, "NP": 35378, "NR": 35379, "NS": 35382, "NT": 35390, "NTA": 35393, "NU": 35405, "NV": 35532, "NY": 35537, "NYC": 35540, "NYSE": 35543, "NZ": 35545, "Na": 34412, "Nadie": 34454, "Nasdaq": 34538, "National": 34558, "Ne": 34668, "Necesita": 34701, "Necesitamos": 34708, "Negoci": 34768, "Neighbor": 34794, "Neill": 34804, "Net": 34850, "Network": 34862, "Never": 34906, "New": 34914, "News": 34926, "Next": 34938, "Ni": 34966, "Ning\u00fan": 35058, "No": 35124, "Nobody": 35138, "North": 35242, "Nos": 35260, "Nosotros": 35268, "Not": 35273, "Note": 35288, "Nothing": 35299, "Noticias": 35308, "November": 35354, "Now": 35368, "Nu": 35403, "Nuestra": 35438, "Nuestro": 35443, "Nuestros": 35446, "Nueva": 35450, "Nuevo": 35459, "Number": 35473, "Nunca": 35495, "N\u00famero": 35484, "O": 35549, "OC": 35741, "OCK": 35802, "OD": 35855, "OE": 35869, "OF": 35879, "OFF": 35895, "OG": 35969, "OH": 35989, "OJ": 36009, "OK": 36018, "OL": 36030, "OLA": 36034, "OLD": 36041, "OLOG": 36084, "OM": 36121, "OMA": 36123, "OMS": 36162, "ON": 36170, "ONA": 36174, "ONE": 36189, "ONES": 36193, "ONG": 36196, "ONU": 36220, "OOD": 36227, "OOM": 36232, "OP": 36239, "OPE": 36257, "OPS": 36382, "OR": 36441, "ORD": 36471, "ORDER": 36492, "ORE": 36507, "ORES": 36513, "OS": 36680, "OST": 36730, "OT": 36740, "OTA": 36742, "OTT": 36788, "OU": 36796, "OUR": 36811, "OUS": 36814, "OUT": 36819, "OVE": 36874, "OVER": 36883, "OW": 36929, "OX": 36952, "Observ": 35646, "October": 35812, "Of": 35877, "Oferta": 35887, "Off": 35893, "Office": 35914, "Oh": 35987, "Ojal\u00e1": 36011, "Old": 36039, "Olvid": 36103, "On": 36168, "Once": 36178, "One": 36187, "Online": 36206, "Only": 36210, "Op": 36237, "Open": 36262, "Opini\u00f3n": 36336, "Option": 36422, "Or": 36439, "Organ": 36518, "Original": 36626, "Other": 36749, "Our": 36809, "Out": 36817, "Over": 36881, "Owned": 36942, "P": 36999, "PA": 37005, "PAC": 37013, "PACE": 37015, "PAGE": 37086, "PAGES": 37089, "PAN": 37198, "PAR": 37268, "PBMC": 37727, "PC": 37730, "PCR": 37734, "PD": 37737, "PDF": 37741, "PE": 37747, "PEG": 37816, "PER": 37977, "PESC": 38318, "PF": 38380, "PG": 38381, "PH": 38388, "PI": 38535, "PIC": 38549, "PL": 38803, "PLA": 38809, "PM": 39068, "PMI": 39070, "PN": 39072, "PO": 39081, "POL": 39182, "PORT": 39452, "POSICI": 39530, "PP": 39674, "PPE": 39678, "PR": 39691, "PRE": 39751, "PRESS": 40118, "PRO": 40402, "PS": 41166, "PT": 41215, "PU": 41226, "PV": 41496, "PY": 41501, "Pa": 37003, "Pacific": 37022, "Packard": 37040, "Pac\u00edfico": 37027, "Padre": 37062, "Page": 37084, "Palestinian": 37167, "Para": 37272, "Parece": 37335, "Paris": 37366, "Park": 37376, "Parquet": 37402, "Part": 37412, "Parte": 37418, "Par\u00eds": 37368, "Pass": 37562, "Paul": 37689, "Pay": 37710, "Pe": 37745, "Peace": 37753, "Pedimos": 37804, "Pensa": 37905, "People": 37943, "Per": 37975, "Perfect": 38037, "Perhaps": 38071, "Pero": 38186, "Persona": 38234, "Personal": 38241, "Perspectiva": 38275, "Peter": 38350, "Ph": 38386, "Phil": 38435, "Philippians": 38442, "Philosoph": 38448, "Photo": 38483, "Phys": 38512, "Pi": 38533, "Picture": 38571, "Pierre": 38622, "Pla": 38807, "Plan": 38836, "Planet": 38854, "Play": 38963, "Please": 39000, "Plus": 39060, "Po": 39079, "Pod": 39111, "Podemos": 39118, "Podr\u00eda": 39144, "Point": 39163, "Pol\u00edtica": 39258, "Pop": 39394, "Por": 39417, "Porque": 39444, "Port": 39450, "Portugal": 39492, "Post": 39579, "Power": 39660, "Pre": 39749, "Precio": 39781, "Preguntas": 39913, "Preliminary": 39930, "President": 40085, "Presidente": 40092, "Press": 40116, "Previous": 40217, "Pri": 40232, "Prices": 40242, "Prince": 40297, "Print": 40331, "Pro": 40400, "Produced": 40525, "Product": 40545, "Producto": 40562, "Program": 40643, "Programa": 40647, "Project": 40698, "Proliferation": 40719, "Proposed": 40905, "Protect": 40981, "Provence": 41063, "Proverbios": 41071, "Proverbs": 41072, "Proyecto": 41148, "Psalm": 41170, "Psych": 41195, "Pu": 41224, "Public": 41236, "Publish": 41277, "Puede": 41306, "Pueden": 41311, "Puedes": 41314, "Puedo": 41318, "Puerto": 41329, "Pues": 41334, "P\u00e1gina": 37093, "Q": 41527, "QUA": 41547, "QUE": 41602, "QUI": 41686, "Qaeda": 41530, "Qaida": 41532, "Qu": 41542, "Que": 41600, "Queremos": 41644, "Querido": 41655, "Quer\u00e9": 41642, "Quer\u00eda": 41649, "Quest": 41666, "Qui": 41684, "Quien": 41696, "Quiere": 41710, "Quieres": 41713, "Quiero": 41715, "Quiz\u00e1": 41780, "Qui\u00e9n": 41700, "Qui\u00e9nes": 41703, "Qu\u00e9": 41606, "R": 41801, "RA": 41807, "RAIN": 41921, "RAL": 41943, "RAM": 41953, "RAN": 41977, "RAR": 42040, "RAS": 42051, "RAT": 42070, "RB": 42143, "RC": 42145, "RCA": 42148, "RD": 42153, "RE": 42159, "REA": 42164, "RED": 42672, "REE": 42739, "REFERRED": 42787, "REG": 42895, "REM": 43213, "REN": 43291, "RES": 43581, "RF": 44164, "RG": 44168, "RH": 44179, "RI": 44197, "RIA": 44201, "RIC": 44219, "RIES": 44275, "RIO": 44346, "RIOS": 44352, "RIS": 44366, "RIT": 44389, "RK": 44424, "RL": 44426, "RM": 44433, "RMA": 44436, "RN": 44440, "RNA": 44442, "RO": 44449, "ROM": 44575, "RON": 44613, "ROS": 44646, "ROW": 44720, "RP": 44732, "RQ": 44736, "RR": 44738, "RS": 44748, "RT": 44754, "RU": 44763, "RUZAFA": 44879, "RV": 44881, "RY": 44886, "Ra": 41805, "Radio": 41879, "Re": 42157, "Read": 42200, "Real": 42226, "Realmente": 42274, "Recibir\u00e1": 42406, "Recuerda": 42634, "Recupera": 42644, "Red": 42670, "Redirect": 42695, "Redirigi": 42696, "Ref": 42759, "Reference": 42766, "Regarding": 42905, "Regi": 42917, "Region": 42930, "Reino": 43063, "Remember": 43236, "Report": 43436, "Rep\u00fablica": 43525, "Res": 43579, "Reserva": 43614, "Reserve": 43629, "Responde": 43771, "Respuesta": 43807, "Restaur": 43820, "Restaurant": 43827, "Reuters": 44036, "Rev": 44041, "Revelation": 44060, "Reviewed": 44091, "Ri": 44195, "Right": 44293, "Ro": 44447, "Robert": 44472, "Rock": 44503, "Roman": 44579, "Romanos": 44591, "Room": 44628, "Royce": 44730, "Ru": 44761, "Runner": 44829, "Rusia": 44853, "Russia": 44859, "Russian": 44861, "Ryokan": 44890, "S": 44895, "SA": 44901, "SAT": 45256, "SC": 45337, "SD": 45527, "SDG": 45529, "SE": 45537, "SEC": 45592, "SEQ": 46030, "SET": 46157, "SF": 46223, "SH": 46233, "SI": 46491, "SIA": 46498, "SIDA": 46511, "SIGN": 46574, "SINES": 46773, "SION": 46822, "SIS": 46849, "SK": 46930, "SL": 46975, "SM": 47051, "SMA": 47053, "SME": 47070, "SN": 47097, "SO": 47127, "SON": 47423, "SP": 47570, "SPECT": 47659, "SQL": 47812, "SR": 47827, "SRP": 47831, "SS": 47832, "SSA": 47835, "SSI": 47839, "ST": 47846, "STA": 47851, "STAR": 47927, "STE": 48001, "STER": 48042, "STI": 48068, "STN": 48113, "STO": 48116, "STR": 48166, "SU": 48350, "SUR": 48884, "SV": 49046, "SY": 49112, "SYS": 49183, "Sa": 44899, "Sabe": 44911, "Sabemos": 44914, "Sabes": 44921, "Sab\u00eda": 44924, "Saharan": 45013, "Saig\u00f3n": 45019, "Saint": 45028, "Sal": 45040, "Sal\u00f3n": 45100, "San": 45161, "Save": 45312, "Saxon": 45326, "School": 45418, "Science": 45431, "Score": 45457, "Script": 45508, "Se": 45535, "Sea": 45545, "Search": 45565, "Second": 45610, "Secretary": 45633, "See": 45695, "Seg\u00fan": 45746, "Select": 45801, "Self": 45822, "Semitic": 45873, "Semitism": 45875, "September": 46019, "Ser": 46044, "Serv": 46096, "Service": 46114, "Servicio": 46124, "Ser\u00e1": 46048, "Ser\u00eda": 46068, "Se\u00f1or": 45918, "Sha": 46237, "Share": 46284, "She": 46314, "Sheikh": 46328, "Shi": 46354, "Shirt": 46389, "Should": 46443, "Show": 46454, "Si": 46489, "Siempre": 46533, "Sight": 46559, "Sign": 46572, "Simplemente": 46704, "Sin": 46745, "Since": 46753, "Sistema": 46855, "Site": 46876, "Sitio": 46885, "Small": 47056, "Smart": 47062, "Smoking": 47087, "So": 47125, "Sobre": 47141, "Social": 47168, "Soft": 47231, "Software": 47238, "Sol": 47247, "Solo": 47327, "Some": 47386, "Sometimes": 47410, "Somos": 47417, "Son": 47421, "Source": 47538, "South": 47544, "Soviet": 47558, "Soy": 47564, "Space": 47577, "Spain": 47586, "Spanish": 47593, "Special": 47623, "Speed": 47678, "Spring": 47793, "St": 47844, "Standard": 47907, "Star": 47925, "State": 47954, "Step": 48033, "Street": 48222, "Su": 48348, "Sub": 48360, "Suite": 48645, "Super": 48755, "Support": 48850, "Sur": 48882, "Surrounded": 48944, "Sync": 49146, "Syria": 49178, "System": 49186, "S\u00e9": 45541, "S\u00ed": 46495, "S\u00f3lo": 47331, "T": 49196, "TA": 49202, "TAIN": 49287, "TAL": 49311, "TAR": 49431, "TAS": 49465, "TB": 49510, "TC": 49513, "TE": 49521, "TEA": 49528, "TEC": 49556, "TECH": 49562, "TEL": 49636, "TEM": 49685, "TEN": 49754, "TER": 49863, "TEX": 50061, "TF": 50079, "TG": 50081, "TH": 50086, "THE": 50119, "THER": 50149, "TI": 50349, "TIC": 50368, "TICA": 50371, "TICO": 50382, "TIN": 50488, "TING": 50494, "TION": 50510, "TIVA": 50596, "TIVO": 50604, "TL": 50610, "TM": 50617, "TO": 50626, "TOM": 50713, "TON": 50749, "TOR": 50810, "TORY": 50862, "TOS": 50865, "TP": 50950, "TR": 50955, "TRA": 50961, "TRI": 51463, "TRO": 51570, "TRU": 51620, "TS": 51665, "TT": 51672, "TU": 51686, "TULO": 51718, "TUR": 51752, "TURE": 51767, "TV": 51835, "TX": 51863, "TY": 51867, "TZ": 51893, "Ta": 49200, "Tabla": 49221, "Table": 49227, "Take": 49299, "Tal": 49309, "Talk": 49331, "Tambi\u00e9n": 49364, "Tatuaje": 49486, "Te": 49519, "Team": 49541, "Tech": 49560, "Tell": 49677, "Temp": 49704, "Tendr\u00eda": 49784, "Tenemos": 49790, "Tengo": 49805, "Ten\u00eda": 49810, "Term": 49903, "Terr": 49956, "Terrorism": 49999, "Test": 50023, "Text": 50065, "Th": 50084, "Thank": 50100, "That": 50111, "The": 50117, "Then": 50138, "There": 50161, "Therefore": 50168, "These": 50192, "They": 50197, "Things": 50218, "Think": 50222, "Third": 50234, "This": 50246, "Those": 50264, "Though": 50270, "Three": 50296, "Through": 50317, "Thus": 50337, "Ti": 50347, "Tiene": 50411, "Tienes": 50417, "Time": 50468, "To": 50624, "Toda": 50647, "Todas": 50650, "Todav\u00eda": 50654, "Today": 50657, "Todo": 50663, "Todos": 50669, "Toggle": 50676, "Tom": 50711, "Top": 50792, "Total": 50875, "Totales": 50878, "Touch": 50887, "Tour": 50901, "Townhouse": 50927, "Tr": 50953, "Tra": 50959, "Trabaj": 50964, "Trabaja": 50967, "Track": 51007, "Trade": 51024, "Tradicionalmente": 51037, "Trans": 51141, "Travel": 51365, "Tree": 51427, "Tri": 51461, "True": 51634, "Trump": 51640, "Tu": 51684, "Turkey": 51783, "Turkish": 51785, "Two": 51861, "Type": 51872, "T\u00e9rminos": 49940, "T\u00fa": 51690, "U": 51896, "UA": 51900, "UAL": 51905, "UB": 51911, "UC": 51936, "UCI": 51946, "UD": 51956, "UE": 51965, "UF": 51973, "UG": 51977, "UI": 51989, "UK": 51994, "UL": 52005, "ULA": 52009, "ULAR": 52012, "ULT": 52030, "UM": 52057, "UMA": 52059, "UN": 52079, "UNA": 52086, "UNE": 52178, "UNI": 52213, "UNT": 52382, "UP": 52407, "UR": 52453, "URA": 52455, "URE": 52473, "US": 52517, "USA": 52523, "USD": 52551, "USE": 52556, "UT": 52615, "UTE": 52621, "UU": 52694, "UV": 52697, "UX": 52704, "Un": 52077, "Una": 52084, "Under": 52137, "Unfortunately": 52202, "Uni": 52211, "United": 52280, "Univers": 52287, "Universal": 52289, "University": 52306, "Uno": 52338, "Up": 52405, "User": 52568, "Usted": 52595, "Utiliza": 52655, "V": 52713, "VA": 52719, "VAL": 52770, "VE": 52953, "VEL": 53027, "VER": 53150, "VERS": 53207, "VERY": 53255, "VI": 53296, "VIA": 53302, "VIDEO": 53381, "VIEW": 53428, "VII": 53459, "VIII": 53461, "VIS": 53602, "VM": 53734, "VO": 53739, "VP": 53891, "VPN": 53894, "VR": 53896, "Va": 52717, "Val": 52768, "Vamos": 52846, "Ve": 52951, "Velocidad": 53040, "Velocidade": 53042, "Ven": 53051, "Ver": 53148, "Very": 53253, "Vi": 53294, "Video": 53379, "Vietnam": 53420, "View": 53426, "Vision": 53620, "Vivimos": 53723, "Vol": 53767, "Volviendo": 53843, "Voy": 53883, "V\u00e9ase": 52965, "W": 53941, "WA": 53946, "WAY": 54110, "WC": 54115, "WD": 54117, "WE": 54122, "WEB": 54154, "WESTERN": 54237, "WF": 54241, "WG": 54242, "WHO": 54320, "WI": 54339, "WO": 54510, "WORKS": 54585, "WP": 54632, "WR": 54634, "WS": 54671, "WT": 54673, "WW": 54678, "Walk": 53979, "War": 54016, "Watch": 54078, "Water": 54087, "Wave": 54100, "We": 54120, "Web": 54152, "Welcome": 54196, "Well": 54210, "West": 54231, "Western": 54235, "What": 54250, "When": 54269, "Where": 54275, "Whether": 54286, "Which": 54293, "While": 54297, "White": 54313, "Who": 54318, "Why": 54334, "Wi": 54337, "Wiki": 54377, "Will": 54395, "Win": 54407, "Windows": 54418, "With": 54478, "Without": 54491, "Women": 54526, "Word": 54554, "Work": 54563, "World": 54593, "Would": 54623, "X": 54692, "XCO": 54699, "XI": 54708, "XL": 54728, "XT": 54736, "XX": 54742, "XXX": 54746, "Xinhua": 54724, "Y": 54751, "YO": 54832, "YP": 54873, "Ya": 54755, "Yeah": 54786, "Year": 54790, "Yes": 54805, "Yo": 54830, "You": 54852, "Your": 54862, "Z": 54890, "ZA": 54894, "ZAR": 54921, "ZO": 54983, "ZY": 55019, "[": 74, "[...]": 75, "[1": 287, "[10]": 316, "[11]": 381, "[12]": 416, "[13]": 457, "[14]": 489, "[15]": 521, "[16]": 554, "[17]": 582, "[18]": 603, "[19]": 627, "[1]": 288, "[20]": 801, "[21]": 970, "[22]": 990, "[23]": 1008, "[24]": 1022, "[25]": 1039, "[26]": 1066, "[27]": 1078, "[28]": 1089, "[29]": 1099, "[2]": 775, "[30]": 1137, "[31]": 1169, "[32]": 1180, "[33]": 1189, "[34]": 1197, "[35]": 1206, "[37]": 1228, "[38]": 1236, "[39]": 1243, "[3]": 1111, "[40]": 1278, "[41]": 1302, "[42]": 1309, "[44]": 1319, "[45]": 1326, "[46]": 1336, "[4]": 1254, "[50]": 1389, "[5]": 1367, "[6]": 1469, "[7]": 1553, "[8]": 1629, "[9]": 1699, "]": 76, "].": 77, "][": 78, "]]": 79, "a": 1773, "aaS": 1785, "ab": 1786, "aba": 1791, "aban": 1798, "abaque": 1810, "abe": 1830, "abel": 1835, "abertura": 1839, "abi": 1842, "abierta": 1846, "abierto": 1851, "abil": 1855, "abilidad": 1856, "abilities": 1857, "ability": 1859, "able": 1866, "ables": 1869, "ably": 1870, "abor": 1890, "about": 1901, "above": 1906, "absolut": 1948, "absolute": 1952, "absorb": 1957, "absorbent": 1963, "absorbente": 1965, "absorci\u00f3n": 1971, "ab\u00e9is": 1832, "ac": 2012, "aca": 2018, "accept": 2070, "acceptable": 2074, "acceso": 2084, "access": 2090, "accion": 2114, "acciones": 2124, "acci\u00f3n": 2115, "according": 2153, "account": 2160, "ace": 2190, "aceae": 2194, "aceite": 2196, "acelera": 2200, "aceous": 2211, "acepta": 2212, "acetate": 2241, "acetato": 2243, "acetic": 2245, "acetil": 2249, "acetyl": 2255, "ach": 2257, "ache": 2259, "achi": 2260, "aci": 2269, "acid": 2271, "acil": 2284, "acion": 2286, "aciones": 2289, "aci\u00f3n": 2288, "ack": 2291, "aco": 2307, "acopla": 2339, "acoplamiento": 2343, "acre": 2373, "acrilamida": 2381, "acrilato": 2382, "acrilonitrilo": 2386, "acrylamide": 2391, "acrylate": 2392, "acrylic": 2394, "acrylonitrile": 2397, "acr\u00edlico": 2384, "act": 2398, "acting": 2406, "action": 2408, "activ": 2415, "activa": 2418, "activate": 2428, "activated": 2431, "activating": 2433, "activation": 2435, "active": 2439, "actividad": 2443, "activity": 2456, "activo": 2459, "activos": 2462, "activ\u00f3": 2461, "acto": 2464, "actual": 2484, "acuerdo": 2525, "acyl": 2551, "ac\u00e9tico": 2247, "ad": 2553, "ada": 2559, "adapt": 2565, "adapta": 2568, "adas": 2594, "add": 2595, "added": 2599, "address": 2617, "addy": 2625, "ade": 2626, "adecuada": 2629, "adecuado": 2633, "adem\u00e1s": 2647, "adero": 2659, "adhesive": 2675, "adhesivo": 2678, "adi": 2682, "adicional": 2688, "adilla": 2700, "adjusted": 2723, "admin": 2730, "administered": 2734, "administra": 2737, "administraciones": 2743, "administraci\u00f3n": 2740, "administration": 2753, "ado": 2797, "ador": 2830, "adora": 2832, "adores": 2838, "ados": 2841, "ads": 2862, "adura": 2885, "adyuvante": 2968, "ae": 2970, "af": 3004, "afec": 3009, "aff": 3029, "affe": 3033, "affiliated": 3043, "after": 3117, "ag": 3128, "aga": 3132, "agan": 3138, "age": 3143, "aged": 3147, "agency": 3156, "agent": 3161, "agente": 3164, "ages": 3170, "agged": 3173, "agger": 3174, "aggio": 3175, "agh": 3186, "agi": 3187, "aging": 3194, "agna": 3207, "ago": 3208, "agon": 3211, "agonista": 3214, "agra": 3221, "agrega": 3252, "agua": 3292, "ague": 3303, "ah": 3311, "ahora": 3322, "ahu": 3335, "ai": 3336, "aid": 3339, "ail": 3345, "aine": 3351, "air": 3352, "aire": 3363, "ais": 3383, "aj": 3395, "aja": 3396, "aje": 3398, "ajuste": 3411, "ak": 3416, "aka": 3419, "ake": 3420, "aker": 3421, "akh": 3422, "aki": 3423, "akka": 3424, "ako": 3425, "aku": 3427, "al": 3428, "ala": 3435, "alanina": 3444, "alanine": 3445, "alcohol": 3499, "alcoxi": 3507, "aldehyde": 3513, "aldeh\u00eddo": 3512, "ale": 3516, "ales": 3562, "alfa": 3573, "alfine": 3578, "algo": 3591, "algunos": 3609, "ali": 3614, "alia": 3617, "alienta": 3635, "alif\u00e1tico": 3638, "aligned": 3641, "alimenta": 3645, "alimentaci\u00f3n": 3649, "aliphatic": 3673, "ality": 3676, "alkane": 3683, "alkano": 3684, "alkenyl": 3685, "alkoxy": 3687, "alkyl": 3689, "alkylene": 3691, "all": 3693, "alla": 3699, "alle": 3704, "allow": 3732, "ally": 3743, "almacena": 3748, "almacenamiento": 3755, "alo": 3775, "alojamiento": 3782, "alone": 3790, "alpha": 3799, "alquenil": 3807, "alquil": 3809, "alquileno": 3814, "alquilo": 3819, "alrededor": 3824, "also": 3829, "alta": 3834, "alter": 3842, "alternativa": 3858, "althiest": 3871, "although": 3872, "alto": 3878, "alu": 3886, "aluminio": 3890, "am": 3909, "ama": 3915, "amanecer": 3930, "amba": 3954, "ambi": 3962, "ambiental": 3971, "ambiente": 3975, "ambo": 3988, "ambu": 3991, "ame": 3997, "amente": 4013, "america": 4014, "american": 4019, "americana": 4022, "americano": 4025, "ami": 4033, "amic": 4036, "amida": 4039, "amide": 4041, "amido": 4043, "amiento": 4044, "amilasa": 4052, "amiloide": 4053, "amina": 4054, "amine": 4056, "amino": 4059, "ammonium": 4072, "amo": 4080, "amonio": 4088, "amor": 4090, "amos": 4099, "amp": 4103, "amphetamine": 4109, "amplia": 4113, "amplifica": 4125, "amycin": 4149, "amylase": 4150, "an": 4152, "ana": 4160, "analysis": 4223, "anas": 4243, "anca": 4251, "ance": 4252, "ancia": 4266, "ancy": 4278, "and": 4279, "anda": 4285, "ander": 4297, "ando": 4301, "andro": 4319, "ane": 4325, "anfetamina": 4340, "ang": 4344, "anga": 4347, "angiogeni": 4364, "angle": 4366, "angling": 4371, "ango": 4374, "ani": 4392, "ania": 4393, "anillo": 4397, "animal": 4409, "ann": 4433, "anna": 4437, "anne": 4440, "annon": 4452, "annual": 4461, "ano": 4468, "anonymous": 4485, "anos": 4491, "ans": 4500, "ant": 4512, "anta": 4515, "antal\u00f3n": 4521, "ante": 4527, "anterior": 4544, "anteriormente": 4549, "antes": 4552, "anti": 4561, "anticuerpo": 4591, "antiinflamatorio": 4614, "anto": 4638, "ants": 4647, "ant\u00edgeno": 4603, "anu": 4649, "any": 4674, "anza": 4689, "an\u00e1lisis": 4190, "ao": 4690, "ap": 4691, "apa": 4695, "aparato": 4702, "aparici\u00f3n": 4726, "apart": 4730, "apertura": 4768, "aplicaciones": 4791, "aplicaci\u00f3n": 4788, "apocalyptic": 4811, "app": 4858, "appear": 4877, "application": 4901, "appointed": 4913, "appropriate": 4929, "approval": 4934, "approved": 4938, "approximately": 4944, "aprox": 5005, "aproximadamente": 5010, "aq": 5030, "aquellos": 5046, "aqueous": 5050, "aqu\u00ed": 5052, "ar": 5058, "ara": 5064, "arc": 5107, "arch": 5115, "ard": 5153, "ardo": 5157, "are": 5161, "area": 5167, "ares": 5181, "ari": 5207, "aria": 5209, "arian": 5211, "arias": 5213, "aries": 5216, "aril": 5217, "arilo": 5218, "arily": 5220, "ario": 5221, "arios": 5223, "arium": 5235, "arius": 5236, "arm": 5241, "arma": 5244, "arnish": 5286, "aro": 5289, "aromatic": 5292, "arom\u00e1tico": 5295, "aron": 5298, "aroom": 5299, "around": 5301, "arra": 5320, "arri": 5358, "arriba": 5360, "arro": 5373, "arrow": 5384, "ars": 5395, "arse": 5396, "art": 5403, "arte": 5409, "article": 5429, "articula": 5437, "articular": 5442, "art\u00edculo": 5448, "ary": 5480, "aryl": 5482, "ar\u00e1": 5067, "as": 5486, "asa": 5493, "asco": 5517, "asc\u00f3rbico": 5519, "ase": 5520, "asegura": 5524, "ash": 5571, "ashi": 5578, "asi": 5580, "asia": 5587, "asigna": 5603, "asociado": 5649, "assa": 5677, "asse": 5690, "assembly": 5696, "asser": 5699, "assi": 5713, "assisted": 5726, "asso": 5730, "associated": 5734, "assu": 5744, "ast": 5758, "asta": 5760, "aste": 5761, "aster": 5762, "astic": 5766, "astro": 5776, "as\u00ed": 5583, "at": 5813, "ata": 5819, "atan": 5831, "ataque": 5833, "atch": 5841, "ate": 5842, "ated": 5844, "ates": 5865, "ath": 5867, "atha": 5868, "ather": 5873, "ati": 5880, "atic": 5881, "ating": 5885, "atio": 5886, "ation": 5887, "ations": 5889, "ative": 5890, "ato": 5911, "atom": 5912, "atomic": 5914, "ator": 5926, "ators": 5928, "atory": 5929, "ats": 5970, "atsu": 5971, "att": 5972, "atta": 5973, "attach": 5974, "attack": 5981, "atti": 6009, "atu": 6029, "atur": 6032, "atura": 6033, "ature": 6034, "au": 6035, "aud": 6044, "audi": 6049, "augh": 6078, "aught": 6079, "ault": 6090, "aumenta": 6091, "aunque": 6112, "aunt": 6116, "author": 6154, "auto": 6175, "automatic": 6198, "autor": 6237, "aux": 6260, "av": 6265, "ava": 6269, "availability": 6272, "available": 6275, "avan": 6280, "ave": 6299, "aven": 6303, "aver": 6314, "average": 6315, "avi": 6329, "avia": 6332, "aving": 6340, "avo": 6351, "aw": 6358, "awa": 6359, "awaited": 6361, "away": 6377, "ax": 6385, "axial": 6388, "axis": 6393, "ay": 6397, "aya": 6400, "ayuda": 6404, "az": 6431, "aza": 6435, "azar": 6436, "aze": 6438, "azi": 6441, "azina": 6442, "azine": 6443, "azo": 6444, "azole": 6445, "azul": 6455, "azz": 6462, "azza": 6463, "a\u00f1a": 4163, "a\u00f1o": 4470, "b": 6464, "ba": 6468, "bac": 6486, "bach": 6488, "back": 6493, "backed": 6499, "bacter": 6516, "bacteria": 6518, "bacterium": 6526, "bad": 6527, "bag": 6534, "bah": 6541, "bai": 6552, "baja": 6564, "bajo": 6572, "bak": 6578, "bal": 6590, "balance": 6595, "ball": 6618, "ban": 6641, "band": 6659, "banda": 6662, "bank": 6680, "bar": 6707, "bas": 6784, "base": 6800, "based": 6806, "basic": 6816, "bat": 6852, "bate": 6861, "bath": 6867, "bati": 6879, "bau": 6895, "bay": 6904, "bb": 6912, "bba": 6915, "bber": 6917, "bble": 6918, "bby": 6921, "be": 6925, "beam": 6941, "bear": 6946, "bearing": 6950, "beat": 6957, "bec": 6981, "because": 6986, "beck": 6990, "bed": 6997, "bedroom": 7001, "bee": 7007, "before": 7016, "bei": 7045, "being": 7048, "bel": 7055, "believe": 7072, "bell": 7081, "ben": 7106, "benceno": 7109, "bencil": 7114, "benefit": 7149, "benz": 7168, "benzene": 7170, "benzo": 7172, "benzoato": 7174, "benzoic": 7175, "benzoico": 7176, "benzoyl": 7177, "benzyl": 7178, "ber": 7180, "berg": 7183, "berger": 7187, "berries": 7199, "berry": 7200, "bert": 7202, "bes": 7204, "best": 7210, "bet": 7217, "beta": 7220, "between": 7235, "bi": 7250, "bia": 7257, "bian": 7258, "bib": 7262, "bica": 7274, "bid": 7284, "bida": 7287, "bidden": 7288, "bie": 7293, "bien": 7296, "big": 7315, "bike": 7322, "bil": 7328, "bile": 7333, "bili": 7335, "bilidad": 7337, "bility": 7340, "billion": 7350, "bin": 7360, "bina": 7363, "binding": 7371, "bing": 7375, "bio": 7377, "biological": 7399, "biology": 7409, "biolog\u00eda": 7394, "bios": 7424, "biotic": 7428, "bir": 7432, "bird": 7434, "birth": 7442, "bis": 7448, "bit": 7461, "bito": 7469, "biz": 7474, "bl": 7478, "bla": 7481, "black": 7483, "blan": 7500, "blanc": 7501, "blanco": 7506, "blast": 7519, "blasto": 7521, "ble": 7524, "blemente": 7531, "bles": 7537, "bli": 7545, "blind": 7546, "bling": 7551, "blo": 7556, "block": 7559, "blog": 7570, "blogged": 7573, "blogspot": 7580, "blood": 7583, "bloque": 7593, "bloqueo": 7601, "blown": 7608, "blue": 7611, "bn": 7624, "bo": 7626, "board": 7632, "boat": 7639, "boats": 7642, "bodied": 7655, "body": 7660, "bol": 7678, "boli": 7692, "bolsa": 7702, "bomb": 7716, "bomba": 7719, "bon": 7735, "bond": 7739, "bone": 7747, "book": 7764, "books": 7773, "bor": 7789, "borato": 7792, "bord": 7793, "borde": 7795, "border": 7799, "borg": 7807, "born": 7811, "borne": 7814, "boro": 7816, "borough": 7819, "bos": 7831, "bot": 7842, "both": 7852, "bottom": 7863, "bou": 7867, "bound": 7873, "boundary": 7877, "bour": 7881, "bourg": 7884, "bourne": 7888, "bow": 7897, "box": 7904, "boy": 7911, "br": 7921, "bra": 7926, "brain": 7941, "bran": 7949, "branch": 7951, "brand": 7956, "brazo": 7983, "bre": 7986, "break": 7994, "breaking": 8003, "breath": 8012, "bri": 8038, "bridge": 8049, "bro": 8107, "broken": 8128, "bromo": 8140, "bron": 8143, "brook": 8152, "brother": 8160, "bru": 8178, "bten\u00e9": 8210, "bt\u00e9n": 8209, "bu": 8211, "buck": 8227, "bud": 8234, "buena": 8252, "bueno": 8258, "bug": 8272, "build": 8276, "building": 8283, "built": 8288, "bul": 8291, "bula": 8293, "bull": 8302, "bulo": 8310, "bun": 8314, "bund": 8317, "bur": 8328, "burg": 8342, "burgh": 8346, "burgo": 8348, "burguesa": 8351, "buri": 8355, "burn": 8363, "burst": 8374, "bury": 8378, "bus": 8379, "business": 8406, "but": 8422, "butadiene": 8426, "butadieno": 8427, "butano": 8428, "butanol": 8429, "butene": 8430, "buteno": 8431, "butil": 8432, "butileno": 8433, "butilo": 8434, "butyl": 8444, "butylene": 8446, "buy": 8447, "by": 8461, "byte": 8468, "b\u00e1": 6474, "b\u00e9": 6931, "b\u00ed": 7256, "b\u00fa": 8217, "c": 8470, "ca": 8474, "cab": 8480, "caba": 8483, "cabeza": 8503, "cabez\u00f3": 8508, "cable": 8516, "cabo": 8521, "caci\u00f3n": 8532, "cad": 8533, "cada": 8537, "cade": 8543, "cadena": 8544, "cado": 8554, "caja": 8587, "cake": 8596, "cal": 8599, "cala": 8604, "calc": 8610, "calcul": 8616, "cale": 8640, "calentado": 8652, "calentamiento": 8655, "calidad": 8670, "call": 8694, "called": 8700, "calo": 8711, "calor": 8712, "cam": 8724, "cama": 8730, "cambia": 8741, "cambio": 8754, "came": 8765, "camera": 8770, "camp": 8793, "campo": 8822, "can": 8835, "cana": 8842, "canal": 8854, "cancer": 8878, "cancer\u00edgena": 8884, "cancer\u00edgeno": 8885, "cano": 8924, "cant": 8936, "canta": 8937, "cante": 8944, "cantidad": 8947, "cap": 8962, "capa": 8968, "capacidad": 8975, "capacit": 8979, "capacity": 8989, "capital": 9001, "capitalist": 9008, "capsula": 9024, "capsule": 9029, "car": 9054, "cara": 9061, "caracterizado": 9079, "caracter\u00edstica": 9071, "carb": 9087, "carbamate": 9088, "carbamato": 9089, "carbo": 9091, "carbon": 9095, "carbonate": 9099, "carbonato": 9101, "carbonil": 9103, "carbonilo": 9104, "carbono": 9105, "carbonyl": 9107, "carboxi": 9109, "carboxilato": 9111, "carboxy": 9115, "carboxylate": 9118, "carboxylic": 9119, "carbox\u00edlico": 9112, "card": 9131, "cardi": 9137, "cardiovasculares": 9149, "care": 9152, "carga": 9170, "cargo": 9180, "cari": 9186, "carnitina": 9211, "carnitine": 9212, "carotene": 9220, "caroteno": 9221, "carrier": 9240, "carrying": 9256, "cas": 9282, "casa": 9286, "case": 9301, "cash": 9308, "casi": 9311, "caso": 9320, "cast": 9330, "cat": 9354, "cata": 9360, "catalizador": 9372, "catalyst": 9384, "catch": 9398, "cate": 9403, "category": 9419, "categor\u00eda": 9409, "catering": 9425, "cation": 9439, "cau": 9455, "causa": 9463, "cause": 9475, "causing": 9482, "cavidad": 9502, "cc": 9519, "cca": 9522, "cce": 9523, "cchi": 9524, "cchio": 9525, "cci": 9526, "ccio": 9528, "cciones": 9530, "cci\u00f3n": 9529, "cco": 9531, "ce": 9538, "cea": 9544, "ced": 9555, "ceda": 9556, "cediendo": 9560, "cel": 9566, "cela": 9569, "cele": 9572, "cell": 9606, "cellular": 9613, "cellulose": 9617, "celo": 9620, "celular": 9627, "celulosa": 9636, "celul\u00f3sico": 9638, "cen": 9644, "cena": 9645, "cenas": 9649, "cencia": 9650, "cene": 9651, "ceno": 9654, "censor": 9657, "cent": 9662, "cente": 9668, "center": 9673, "centered": 9676, "centes": 9680, "centr": 9684, "central": 9688, "centre": 9702, "centric": 9706, "centro": 9716, "century": 9726, "ceo": 9729, "cep": 9731, "cepci\u00f3n": 9735, "cept": 9738, "ception": 9739, "cepto": 9740, "cer": 9741, "cera": 9745, "cerca": 9751, "cero": 9775, "cerra": 9777, "cert": 9788, "certain": 9789, "certified": 9811, "ces": 9822, "cesi\u00f3n": 9829, "ceso": 9830, "cess": 9832, "cession": 9834, "ceta": 9837, "ceto": 9838, "cetona": 9839, "cf": 9841, "ch": 9847, "cha": 9853, "chado": 9858, "chain": 9859, "chair": 9863, "chal": 9874, "challenge": 9880, "chan": 9901, "chang": 9912, "change": 9914, "changing": 9921, "channel": 9924, "char": 9944, "character": 9948, "characterization": 9955, "charge": 9960, "charged": 9963, "charging": 9968, "chart": 9988, "chas": 9994, "chat": 10000, "che": 10012, "check": 10025, "ched": 10036, "chel": 10044, "chem": 10047, "chemical": 10049, "chemistry": 10055, "chemotherapeutic": 10059, "chen": 10061, "cheng": 10063, "chenko": 10065, "cher": 10068, "ches": 10075, "chester": 10079, "chet": 10081, "chev": 10082, "chi": 10087, "chia": 10092, "chief": 10107, "child": 10113, "children": 10119, "chill": 10128, "chin": 10138, "china": 10140, "ching": 10148, "chlor": 10162, "chloride": 10165, "chloro": 10169, "cho": 10172, "choline": 10186, "chon": 10187, "chos": 10203, "christ": 10208, "chroma": 10226, "chrome": 10229, "chron": 10234, "cht": 10241, "chu": 10242, "church": 10249, "chy": 10256, "ch\u00e9": 10017, "ch\u00f3": 10175, "ci": 10257, "cia": 10264, "ciado": 10268, "cial": 10269, "ciales": 10270, "cian": 10272, "ciana": 10273, "ciano": 10274, "ciar": 10276, "cibi": 10281, "cible": 10282, "cic": 10283, "ciclina": 10290, "ciclo": 10295, "ciclodextrina": 10299, "ciclohexano": 10300, "ciclohexil": 10301, "cid": 10306, "cida": 10308, "cidad": 10309, "cidas": 10310, "cido": 10313, "cidos": 10314, "cie": 10315, "cien": 10321, "ciencia": 10323, "ciendo": 10328, "cient": 10329, "ciente": 10330, "cientos": 10339, "cient\u00edfico": 10334, "cier": 10342, "ciera": 10343, "cieron": 10344, "cierre": 10347, "cierta": 10350, "cierto": 10357, "cigarette": 10367, "cil": 10373, "cili": 10374, "cilindro": 10377, "cilla": 10380, "cillo": 10381, "cima": 10382, "cimiento": 10384, "cimo": 10386, "cin": 10387, "cina": 10389, "cine": 10397, "cing": 10408, "cino": 10410, "cinta": 10411, "cio": 10419, "cion": 10421, "cionado": 10424, "cional": 10425, "cionales": 10426, "cionar": 10427, "ciones": 10428, "cionistas": 10430, "cios": 10431, "cious": 10432, "cip": 10433, "cir": 10434, "circ": 10437, "circuit": 10445, "circuito": 10449, "circular": 10458, "cis": 10491, "cision": 10494, "cita": 10498, "citabine": 10501, "citado": 10503, "citation": 10509, "cite": 10511, "citizen": 10519, "cito": 10526, "citos": 10530, "city": 10539, "ciudad": 10544, "civil": 10561, "ci\u00f3": 10420, "ci\u00f3n": 10423, "ck": 10577, "cke": 10578, "cken": 10579, "cker": 10580, "cket": 10581, "cks": 10582, "cl": 10583, "cla": 10589, "claim": 10594, "clar": 10613, "clara": 10615, "clare": 10621, "clasificaci\u00f3n": 10649, "class": 10661, "classic": 10667, "clav": 10690, "clave": 10692, "cle": 10701, "clean": 10704, "clear": 10714, "cler": 10730, "clerosis": 10737, "cles": 10738, "cli": 10741, "click": 10745, "client": 10750, "cliff": 10757, "clima": 10760, "climate": 10763, "clinical": 10785, "clo": 10799, "clock": 10803, "clockwise": 10806, "clon": 10807, "cloro": 10818, "cloruro": 10821, "close": 10823, "closed": 10826, "cloth": 10838, "cloud": 10845, "clu": 10853, "club": 10854, "clude": 10860, "cluida": 10863, "cluir": 10864, "clusiva": 10867, "clusivo": 10868, "clusi\u00f3n": 10866, "cl\u00ednic": 10782, "cm": 10875, "co": 10887, "coagul": 10898, "coast": 10909, "coat": 10915, "coated": 10918, "cock": 10948, "code": 10962, "coded": 10965, "codificacion": 10970, "codificaci\u00f3n": 10971, "codificada": 10973, "codificador": 10976, "coding": 10986, "cogiendo": 11006, "cogieron": 11007, "cogimiento": 11008, "coin": 11028, "col": 11044, "cola": 11049, "cold": 11071, "colectivamente": 11081, "coli": 11097, "collect": 11126, "collectively": 11136, "colo": 11151, "colog\u00eda": 11164, "colombia": 11168, "colon": 11175, "colonial": 11182, "color": 11196, "colored": 11206, "colour": 11220, "columna": 11230, "com": 11236, "combinaci\u00f3n": 11264, "combustible": 11285, "comedor": 11296, "comercial": 11325, "comercializaci\u00f3n": 11330, "coming": 11372, "commerce": 11417, "commercial": 11421, "common": 11445, "communicable": 11455, "communication": 11460, "como": 11481, "comp": 11499, "company": 11523, "comparaci\u00f3n": 11533, "compatibilidad": 11580, "compatible": 11585, "competent": 11609, "competitive": 11624, "complejo": 11654, "complement": 11658, "completa": 11673, "complete": 11680, "compliance": 11697, "component": 11722, "componente": 11725, "componentes": 11728, "composiciones": 11745, "composici\u00f3n": 11742, "compra": 11760, "comprehensible": 11776, "comprende": 11782, "compuesto": 11843, "compuestos": 11846, "computer": 11863, "comunica": 11880, "comunicaciones": 11886, "comunicaci\u00f3n": 11883, "con": 11916, "conazol": 11923, "conazole": 11924, "concentraci\u00f3n": 11944, "concept": 11965, "concern": 11974, "condens": 12057, "condiciona": 12069, "condicionamiento": 12072, "condiciones": 12073, "condition": 12076, "conditioned": 12080, "conditioning": 12083, "conductive": 12112, "conducto": 12116, "conductor": 12118, "conectada": 12131, "conectado": 12134, "conectar": 12138, "conexiones": 12152, "conexi\u00f3n": 12149, "conf": 12156, "confidence": 12189, "confidencialidad": 12193, "config": 12201, "configuraci\u00f3n": 12205, "conflict": 12245, "congela": 12281, "conjugado": 12316, "conjugate": 12318, "conjunto": 12326, "connect": 12339, "connected": 12344, "connection": 12350, "conoce": 12364, "conocida": 12375, "conocido": 12378, "conocimiento": 12385, "conscious": 12412, "consecuentemente": 12423, "consider": 12474, "considera": 12477, "conspirator": 12558, "constante": 12564, "constitution": 12593, "construcci\u00f3n": 12609, "construct": 12613, "construction": 12618, "consumer": 12685, "consuming": 12695, "consumption": 12700, "contact": 12709, "contacto": 12725, "contained": 12738, "containing": 12743, "contaminaci\u00f3n": 12748, "contaminating": 12756, "contamination": 12757, "contenido": 12792, "content": 12798, "continent": 12827, "continental": 12830, "continente": 12834, "continua": 12844, "continuaci\u00f3n": 12850, "continue": 12864, "continued": 12868, "continuo": 12875, "contra": 12885, "contract": 12892, "contraproducente": 12914, "control": 12959, "controlado": 12967, "controlled": 12978, "conv": 12990, "convencional": 13000, "convenient": 13010, "convenientemente": 13014, "convert": 13045, "cookies": 13106, "cool": 13111, "cop": 13150, "copia": 13161, "copy": 13175, "cor": 13182, "cora": 13187, "cord": 13196, "core": 13208, "corn": 13220, "corneal": 13225, "corp": 13242, "corporat": 13249, "corporeal": 13260, "corre": 13267, "correct": 13274, "correspondiente": 13313, "corriente": 13323, "corro": 13329, "corrupci\u00f3n": 13336, "corruption": 13342, "cort": 13347, "corta": 13348, "corte": 13355, "cos": 13376, "cosa": 13378, "cost": 13398, "costa": 13402, "cot": 13432, "cott": 13439, "could": 13448, "count": 13460, "counter": 13466, "country": 13478, "coupled": 13489, "course": 13500, "court": 13505, "cover": 13522, "covered": 13527, "cr": 13545, "cra": 13549, "cracia": 13554, "craft": 13563, "cre": 13593, "crea": 13597, "cream": 13612, "create": 13622, "created": 13625, "creating": 13630, "creation": 13634, "creative": 13639, "crecimiento": 13661, "credit": 13671, "creta": 13719, "crete": 13721, "crew": 13723, "cri": 13732, "crime": 13748, "crimin": 13755, "criminal": 13756, "cristal": 13773, "cristiano": 13787, "crit": 13796, "critical": 13808, "cro": 13826, "cromato": 13836, "cromatograf\u00eda": 13837, "cromo": 13839, "cross": 13851, "cru": 13870, "crypt": 13912, "cryptocurrencies": 13916, "crystal": 13919, "crystalline": 13922, "cr\u00e9dito": 13678, "cr\u00edtica": 13804, "cr\u00f3nica": 13842, "ct": 13933, "cta": 13936, "cti": 13938, "ctica": 13939, "ctil": 13940, "ctin": 13941, "ction": 13942, "ctiva": 13943, "cto": 13945, "ctor": 13947, "ctuando": 13950, "cu": 13951, "cua": 13958, "cuadro": 13967, "cual": 13971, "cualquier": 13986, "cualquiera": 13990, "cuando": 13995, "cuar": 14024, "cuatro": 14035, "cuba": 14040, "cubierta": 14052, "cubierto": 14056, "cubrir": 14066, "cuenta": 14078, "cuente": 14083, "cuerpo": 14093, "cuidado": 14112, "cul": 14124, "cula": 14126, "cular": 14127, "culares": 14128, "culate": 14129, "cule": 14130, "culo": 14138, "culos": 14141, "cult": 14148, "cultivo": 14159, "cultura": 14164, "cultural": 14167, "culture": 14173, "cum": 14181, "cumenical": 14186, "cumul": 14205, "cup": 14214, "cur": 14222, "cura": 14225, "cure": 14240, "curren": 14254, "currency": 14256, "current": 14259, "curricular": 14266, "currido": 14271, "currir": 14273, "curri\u00f3": 14272, "curso": 14278, "cus": 14298, "cussion": 14301, "custom": 14306, "cut": 14323, "cutaneous": 14327, "cutting": 14332, "cu\u00e1l": 13973, "cu\u00e1ndo": 13999, "cu\u00e1nto": 14018, "cu\u00f1a": 14209, "cy": 14341, "cyan": 14345, "cycl": 14354, "cycle": 14355, "cyclic": 14359, "cyclo": 14364, "cycloalkyl": 14367, "cyclodextrin": 14369, "cyclohex": 14370, "cyclohexane": 14371, "cyclohexyl": 14372, "cyclopropyl": 14374, "cylinder": 14375, "cyst": 14385, "cyt": 14388, "cz": 14394, "c\u00e1mara": 8735, "c\u00e1n": 8841, "c\u00e1psula": 9026, "c\u00e1r": 9060, "c\u00e9": 9543, "c\u00e9lula": 9625, "c\u00e9lulas": 9632, "c\u00e9ntrica": 9707, "c\u00e9ntrico": 9708, "c\u00ed": 10263, "c\u00eda": 10267, "c\u00edclica": 10287, "c\u00edclico": 10288, "c\u00f3": 10893, "c\u00f3digo": 10982, "c\u00f3mo": 11486, "c\u00f3n": 11922, "c\u00fa": 13957, "d": 14397, "da": 14401, "dad": 14411, "dado": 14418, "dai": 14422, "dal": 14432, "dale": 14435, "dam": 14441, "damente": 14455, "dan": 14460, "dar": 14500, "dark": 14511, "das": 14527, "data": 14533, "date": 14541, "datos": 14549, "day": 14567, "dd": 14584, "dder": 14586, "dding": 14587, "ddy": 14589, "de": 14590, "dead": 14603, "deal": 14610, "death": 14625, "debe": 14638, "deber\u00eda": 14652, "debido": 14666, "dec": 14691, "decentralization": 14713, "decir": 14742, "decision": 14749, "decisi\u00f3n": 14752, "declared": 14774, "decyl": 14817, "deep": 14840, "defend": 14863, "defense": 14879, "define": 14901, "defined": 14904, "definida": 14912, "definido": 14915, "definition": 14925, "degree": 14956, "del": 14981, "dela": 14985, "delete": 15006, "deliver": 15040, "dell": 15049, "della": 15051, "dem": 15059, "demand": 15060, "demasiado": 15073, "democracia": 15081, "democracy": 15085, "democrat": 15088, "democratic": 15093, "den": 15135, "dena": 15139, "denominado": 15153, "density": 15166, "dent": 15169, "dentro": 15176, "deoxy": 15187, "dependence": 15205, "dependent": 15210, "dependiendo": 15215, "dependiente": 15218, "depending": 15221, "depth": 15278, "dep\u00f3sito": 15258, "der": 15286, "dera": 15290, "deras": 15292, "derecha": 15294, "derecho": 15296, "derivado": 15309, "derived": 15318, "derm": 15321, "derma": 15323, "dero": 15330, "deros": 15334, "ders": 15348, "des": 15349, "desa": 15355, "desarrolla": 15391, "desarrollo": 15412, "descarga": 15432, "descendant": 15445, "describe": 15473, "described": 15476, "descrita": 15498, "descrito": 15501, "desde": 15527, "deseada": 15535, "deseado": 15538, "deserved": 15575, "design": 15600, "designed": 15614, "designs": 15623, "desk": 15642, "desplazamiento": 15693, "despu\u00e9s": 15710, "destin": 15731, "destruct": 15757, "destructive": 15761, "detalle": 15799, "detecci\u00f3n": 15806, "detect": 15809, "detecta": 15812, "detector": 15826, "determinado": 15853, "determination": 15862, "determined": 15867, "dev": 15889, "develop": 15900, "developed": 15904, "development": 15912, "dex": 15942, "dez": 15946, "dge": 15948, "dh": 15949, "dha": 15951, "dhi": 15957, "di": 15959, "dia": 15967, "dial": 16000, "dian": 16027, "diana": 16028, "dic": 16055, "dica": 16057, "dice": 16061, "dicha": 16066, "dichloro": 16071, "dicho": 16073, "dicloro": 16084, "dico": 16086, "dict": 16087, "diction": 16098, "dida": 16105, "dido": 16109, "die": 16110, "diendo": 16120, "dieno": 16121, "diente": 16122, "dieron": 16126, "dies": 16128, "diferencia": 16148, "diferentes": 16156, "difference": 16160, "different": 16164, "difusi\u00f3n": 16199, "dig": 16202, "digit": 16221, "digital": 16223, "dihidro": 16238, "dihydro": 16239, "dijo": 16246, "dil": 16249, "dilla": 16258, "dillo": 16259, "dimensional": 16275, "dimethoxy": 16280, "dimethyl": 16281, "dimethylamino": 16283, "dimetil": 16284, "dimetilamino": 16286, "dimetilformamida": 16287, "din": 16292, "dina": 16294, "dine": 16302, "ding": 16306, "din\u00e1mica": 16296, "din\u00e1mico": 16298, "dio": 16315, "diol": 16325, "dios": 16326, "dioxane": 16333, "dioxano": 16334, "diphenyl": 16338, "dir": 16353, "direccional": 16362, "direccionamiento": 16363, "direcci\u00f3n": 16359, "direct": 16366, "directamente": 16373, "directed": 16376, "direction": 16380, "directional": 16383, "director": 16395, "dirigido": 16424, "dis": 16436, "disc": 16471, "disciplina": 16490, "disciplinaria": 16492, "disciplinario": 16493, "disciplinary": 16494, "discipline": 16497, "disco": 16511, "discrimination": 16555, "discriminatory": 16560, "dise\u00f1ada": 16593, "dise\u00f1ado": 16596, "dise\u00f1o": 16605, "disolvente": 16667, "dispersible": 16704, "display": 16713, "disponibilidad": 16729, "disponible": 16732, "disposici\u00f3n": 16740, "dispositivo": 16744, "disproportionate": 16748, "dispuesto": 16751, "distance": 16784, "distancia": 16788, "distingu": 16802, "distinguishable": 16810, "distribuci\u00f3n": 16834, "distribut": 16844, "dita": 16875, "dito": 16877, "dium": 16878, "div": 16882, "divi": 16913, "divided": 16918, "dizo": 16959, "di\u00e1metro": 16021, "di\u00f3": 16318, "dj": 16962, "dl": 16966, "dle": 16969, "dler": 16970, "dling": 16971, "dll": 16972, "do": 16984, "doc": 16997, "dock": 17006, "doctoral": 17013, "document": 17024, "documento": 17041, "does": 17050, "dog": 17054, "dol": 17063, "dollar": 17070, "dom": 17084, "domain": 17086, "dominio": 17123, "don": 17129, "dona": 17134, "donde": 17149, "done": 17158, "dones": 17161, "dong": 17163, "door": 17171, "dor": 17180, "dora": 17182, "doras": 17187, "dores": 17188, "dorf": 17189, "dos": 17203, "dose": 17208, "dosis": 17213, "dot": 17216, "dou": 17223, "double": 17225, "down": 17239, "download": 17244, "dr": 17266, "dra": 17272, "dre": 17316, "dream": 17319, "dren": 17327, "dress": 17332, "dri": 17341, "dried": 17342, "drive": 17353, "driven": 17357, "driving": 17363, "dro": 17366, "drome": 17371, "drop": 17374, "dru": 17387, "drug": 17388, "dry": 17398, "ds": 17404, "dt": 17407, "du": 17409, "duc": 17426, "ducciones": 17428, "ducci\u00f3n": 17427, "duce": 17429, "duced": 17430, "ducible": 17435, "ducida": 17436, "ducido": 17437, "duciendo": 17438, "ducing": 17439, "ducir": 17440, "duct": 17443, "duction": 17445, "ductiva": 17446, "ductor": 17447, "duc\u00eda": 17434, "due": 17453, "dujeron": 17465, "dujo": 17466, "dul": 17468, "dumping": 17478, "dura": 17499, "durante": 17511, "duras": 17517, "duro": 17530, "dur\u00eda": 17525, "dust": 17535, "dustrialization": 17538, "duty": 17541, "duzca": 17544, "dwelling": 17550, "dy": 17553, "dynamic": 17561, "d\u00e9": 14596, "d\u00e9rmica": 15328, "d\u00e9rmico": 15329, "d\u00ed": 15965, "d\u00eda": 15970, "d\u00f3": 16990, "d\u00f3n": 17133, "d\u00f3nde": 17153, "d\u00fa": 17414, "e": 17571, "eAlerts": 17590, "ea": 17578, "each": 17581, "eado": 17585, "eagle": 17587, "ean": 17592, "eando": 17593, "ear": 17594, "earn": 17604, "earth": 17614, "eas": 17622, "ease": 17623, "east": 17630, "eastern": 17635, "easy": 17638, "eau": 17646, "eaux": 17647, "eb": 17648, "ec": 17655, "eca": 17659, "eccion": 17663, "ecciones": 17664, "ece": 17667, "ecer": 17668, "ech": 17669, "ecido": 17678, "ecieron": 17679, "ecimiento": 17680, "eck": 17681, "eco": 17689, "econom": 17707, "economic": 17712, "econom\u00eda": 17708, "ect": 17740, "ecta": 17741, "ectina": 17742, "ectiva": 17743, "ecto": 17744, "ectomy": 17746, "ectom\u00eda": 17745, "ectrodom\u00e9sticos": 17747, "ectromagn\u00e9tica": 17748, "ectromagn\u00e9tico": 17749, "ed": 17762, "eda": 17767, "edad": 17768, "edades": 17771, "eddy": 17774, "eder": 17778, "edge": 17780, "edici\u00f3n": 17786, "edit": 17800, "editar": 17806, "educated": 17835, "education": 17838, "ee": 17853, "ees": 17861, "ef": 17864, "efecto": 17875, "eff": 17887, "effect": 17888, "effective": 17892, "efficiency": 17903, "efficient": 17906, "eficacia": 17916, "eficiencia": 17920, "eficiente": 17923, "eg": 17928, "ega": 17930, "egan": 17931, "ege": 17932, "egel": 17933, "egg": 17935, "egi": 17939, "ego": 17944, "eh": 17951, "ei": 17952, "eight": 17957, "eighth": 17962, "eira": 17966, "eiro": 17967, "either": 17971, "ej": 17974, "eja": 17976, "eje": 17979, "ejemplo": 18002, "ejo": 18025, "ek": 18026, "el": 18027, "ela": 18037, "elas": 18050, "elastic": 18051, "ele": 18068, "elec": 18070, "elect": 18075, "elected": 18079, "election": 18081, "electric": 18091, "electro": 18113, "electronic": 18129, "electr\u00f3nica": 18132, "element": 18164, "elemento": 18171, "elementos": 18174, "eli": 18201, "elia": 18203, "elic": 18204, "eligible": 18211, "elin": 18238, "ell": 18247, "ella": 18249, "elle": 18254, "eller": 18257, "elli": 18258, "ello": 18262, "elo": 18267, "els": 18277, "el\u00e9ctrica": 18095, "el\u00e9ctrico": 18108, "em": 18289, "ema": 18294, "email": 18296, "eman": 18300, "embo": 18340, "eme": 18366, "ement": 18368, "emerge": 18370, "emi": 18386, "emia": 18387, "emic": 18388, "emitting": 18420, "emon": 18435, "emos": 18437, "emp": 18444, "emphasis": 18477, "empl": 18493, "empleado": 18499, "empleo": 18509, "employed": 18516, "employment": 18525, "empresa": 18542, "empt": 18554, "emptive": 18557, "empuj": 18559, "emulsifying": 18569, "emulsion": 18570, "en": 18575, "ena": 18582, "enabled": 18587, "enactment": 18593, "enanti\u00f3mero": 18598, "enbach": 18601, "enberg": 18602, "enburg": 18603, "ence": 18638, "encia": 18649, "encies": 18656, "encing": 18659, "encontrar": 18683, "encuentra": 18710, "ency": 18725, "end": 18728, "enda": 18732, "ended": 18737, "ender": 18741, "ending": 18745, "endo": 18748, "endorf": 18758, "endoteli": 18764, "ene": 18777, "ened": 18779, "ener": 18785, "energize": 18803, "energy": 18805, "energ\u00eda": 18795, "enfermedad": 18817, "eng": 18859, "engage": 18861, "enger": 18880, "engine": 18881, "engineering": 18887, "enheim": 18912, "enhof": 18913, "eni": 18915, "enilo": 18918, "ening": 18919, "enko": 18930, "enlace": 18931, "enna": 18952, "enne": 18953, "ennial": 18954, "enny": 18955, "eno": 18956, "ens": 18986, "ensa": 18988, "ensambla": 18990, "ensayo": 18997, "ense": 19001, "ensis": 19017, "enstein": 19019, "ent": 19028, "enta": 19030, "entajosamente": 19036, "entamos": 19037, "ente": 19038, "enter": 19048, "entes": 19069, "enthal": 19072, "enti": 19076, "entino": 19085, "ento": 19095, "entonces": 19097, "entos": 19103, "entrada": 19105, "entre": 19120, "entregue": 19133, "entrepreneurship": 19148, "entry": 19163, "envejecimiento": 19182, "environment": 19211, "enyl": 19227, "enza": 19228, "enzima": 19229, "enzyme": 19235, "eo": 19238, "eon": 19242, "eos": 19243, "ep": 19244, "ept": 19285, "eptic": 19286, "eq": 19287, "equen": 19299, "equi": 19300, "equip": 19310, "equipped": 19327, "equivalente": 19338, "er": 19345, "era": 19350, "eran": 19358, "eras": 19360, "eration": 19365, "erator": 19366, "erbatim": 19367, "ere": 19369, "ered": 19376, "erg": 19380, "ergia": 19381, "ergy": 19386, "eri": 19387, "eria": 19388, "erie": 19395, "eries": 19396, "ering": 19398, "erman": 19400, "ermiston": 19401, "ern": 19402, "erno": 19405, "ero": 19407, "eron": 19410, "eronautical": 19411, "eros": 19412, "erra": 19421, "error": 19430, "ers": 19435, "erson": 19437, "ert": 19438, "erta": 19440, "ery": 19447, "er\u00eda": 19390, "er\u00edas": 19391, "es": 19448, "esa": 19455, "esbal\u00f3n": 19462, "esca": 19465, "escencia": 19505, "escent": 19507, "esco": 19519, "escribir": 19555, "escritura": 19569, "escu": 19574, "escucha": 19577, "ese": 19599, "esencial": 19604, "esh": 19617, "esia": 19618, "esis": 19621, "esophageal": 19633, "espaciado": 19643, "espacial": 19645, "espacio": 19649, "espa\u00f1ol": 19660, "especial": 19670, "especially": 19687, "especialmente": 19690, "especie": 19694, "especificaciones": 19703, "espec\u00edfica": 19699, "espec\u00edfico": 19714, "espera": 19735, "espite": 19776, "esquem\u00e1ticamente": 19796, "esse": 19807, "essential": 19811, "est": 19816, "esta": 19820, "estabiliza": 19838, "estable": 19843, "establecer": 19848, "establish": 19865, "established": 19868, "estaci\u00f3n": 19877, "estado": 19896, "estadounidense": 19902, "estad\u00edsticamente": 19891, "estar": 19936, "este": 19961, "estearato": 19969, "esteem": 19970, "estenosis": 19973, "ester": 19975, "esterification": 19983, "esteriliza": 19985, "esthesia": 19997, "esti": 19998, "estimate": 20011, "estimating": 20016, "estimula": 20019, "estireno": 20031, "esto": 20033, "estra": 20051, "estradiol": 20052, "estre": 20067, "estrella": 20072, "estro": 20091, "estrogen": 20092, "estructura": 20096, "est\u00e1": 19828, "est\u00e1n": 19918, "est\u00e1ndar": 19926, "et": 20139, "eta": 20144, "etano": 20146, "etanol": 20147, "etanolamina": 20149, "etapa": 20150, "etas": 20154, "etch": 20157, "ete": 20159, "etes": 20171, "eth": 20173, "ethane": 20176, "ethanol": 20177, "ethanolamine": 20179, "ether": 20180, "ethnic": 20191, "ethoxy": 20196, "ethyl": 20198, "ethylamine": 20201, "ethylene": 20202, "ethylenediamine": 20204, "eti": 20206, "etic": 20207, "etil": 20213, "etilenglicol": 20215, "etileno": 20216, "etilo": 20219, "etiqueta": 20223, "eto": 20234, "etoxi": 20236, "ets": 20237, "ett": 20239, "etta": 20240, "ette": 20241, "etter": 20242, "etti": 20243, "etto": 20244, "etz": 20245, "et\u00edlico": 20218, "eu": 20246, "euil": 20257, "eur": 20259, "europa": 20267, "europea": 20273, "eus": 20290, "ev": 20293, "eva": 20296, "evaluaci\u00f3n": 20307, "evaluation": 20321, "evangeli": 20326, "eve": 20352, "even": 20355, "event": 20361, "ever": 20375, "every": 20381, "evich": 20396, "evident": 20403, "evil": 20410, "evo": 20422, "evsky": 20443, "ew": 20444, "ex": 20445, "exact": 20454, "example": 20485, "excepcionalmente": 20527, "except": 20529, "excepto": 20536, "exchange": 20549, "excluding": 20573, "exclusive": 20582, "excluyendo": 20593, "exe": 20605, "existe": 20678, "existence": 20685, "existencia": 20687, "existent": 20689, "existing": 20698, "exp": 20725, "experience": 20778, "expert": 20810, "experto": 20815, "explica": 20838, "explo": 20854, "export": 20900, "expresa": 20926, "expresi\u00f3n": 20939, "express": 20944, "expression": 20951, "exterior": 21000, "extra": 21026, "extraterrestrial": 21068, "extreme": 21076, "extremo": 21089, "extrud": 21092, "ey": 21100, "eye": 21103, "ez": 21110, "eza": 21112, "eze": 21113, "e\u00f1a": 18584, "e\u00f1al": 18594, "e\u00f1o": 18957, "f": 21116, "fa": 21120, "fabric": 21127, "fabricaci\u00f3n": 21134, "fabricada": 21137, "fabricado": 21139, "face": 21158, "facial": 21169, "facing": 21200, "fact": 21204, "factor": 21209, "fair": 21247, "faith": 21255, "fal": 21264, "fall": 21269, "fam": 21304, "familia": 21309, "family": 21322, "famous": 21331, "fan": 21334, "far": 21357, "fare": 21363, "farm": 21370, "farma": 21373, "farmac\u00e9utica": 21375, "fas": 21400, "fascist": 21408, "fase": 21411, "fashion": 21415, "fast": 21420, "fat": 21429, "father": 21436, "fax": 21474, "fe": 21487, "feat": 21502, "fecciones": 21520, "fecci\u00f3n": 21519, "fect": 21525, "fective": 21526, "fed": 21528, "feed": 21542, "feel": 21551, "fel": 21560, "feld": 21562, "female": 21583, "fen": 21598, "feng": 21601, "fenil": 21603, "fenilo": 21605, "feno": 21607, "fenol": 21608, "fenoxi": 21614, "fen\u00f3lico": 21609, "fer": 21616, "ference": 21621, "ferencia": 21622, "ferente": 21623, "ferential": 21624, "ferida": 21629, "ferido": 21630, "ferrous": 21653, "fertiliz": 21664, "fest": 21674, "ff": 21695, "ffe": 21697, "ffer": 21698, "ffin": 21699, "ffle": 21700, "fford": 21701, "ffy": 21702, "fi": 21703, "fia": 21710, "fiber": 21717, "fic": 21736, "fica": 21738, "fici": 21744, "fico": 21745, "fiction": 21748, "field": 21761, "fiere": 21770, "fifth": 21778, "fig": 21783, "fight": 21789, "fighter": 21792, "fighting": 21796, "figura": 21802, "figurati": 21810, "figure": 21812, "fija": 21821, "fil": 21832, "fila": 21836, "filament": 21839, "file": 21845, "filia": 21852, "fill": 21861, "filled": 21864, "film": 21869, "filter": 21885, "filtraci\u00f3n": 21892, "filtration": 21898, "filtro": 21900, "fin": 21905, "fina": 21910, "final": 21912, "finance": 21930, "financiaci\u00f3n": 21936, "financial": 21941, "financing": 21955, "finder": 21966, "fines": 21975, "fini": 21983, "fino": 21995, "fir": 21998, "fire": 21999, "fired": 22003, "firi\u00f3": 22014, "firm": 22015, "firma": 22018, "first": 22034, "fish": 22046, "fisiol\u00f3gicamente": 22068, "fit": 22073, "fitting": 22082, "five": 22087, "fix": 22090, "fjord": 22099, "fl": 22100, "fla": 22105, "flat": 22130, "fle": 22145, "fledged": 22152, "flex": 22161, "flexible": 22167, "flexi\u00f3n": 22172, "flic": 22175, "flight": 22178, "flo": 22187, "floor": 22201, "flop": 22207, "flor": 22208, "flow": 22231, "flower": 22235, "floxacin": 22242, "flu": 22244, "fluence": 22251, "fluido": 22259, "flujo": 22264, "fluor": 22267, "fluoro": 22276, "fly": 22287, "fm": 22293, "fo": 22297, "foam": 22302, "fobia": 22305, "foca": 22307, "focal": 22308, "focus": 22312, "focused": 22315, "fol": 22323, "fold": 22326, "foli": 22331, "folia": 22332, "follow": 22343, "fon": 22359, "font": 22369, "fon\u00eda": 22368, "food": 22373, "foot": 22381, "for": 22392, "force": 22401, "ford": 22409, "fore": 22411, "forecast": 22413, "forest": 22431, "form": 22459, "forma": 22464, "formaciones": 22471, "formaci\u00f3n": 22468, "formado": 22475, "formal": 22478, "formar": 22487, "format": 22492, "formation": 22495, "forme": 22502, "formed": 22503, "former": 22506, "formerly": 22509, "forming": 22512, "formula": 22517, "foro": 22539, "fort": 22548, "fortunadamente": 22567, "forward": 22577, "fos": 22587, "fosf": 22589, "fosfatidil": 22590, "fosfato": 22591, "fosfo": 22593, "fosfonato": 22595, "foto": 22606, "found": 22630, "founded": 22636, "founder": 22638, "four": 22645, "fourth": 22651, "fr": 22657, "fra": 22662, "fraccion": 22668, "fract": 22671, "fraction": 22672, "frag": 22679, "fragmento": 22691, "frame": 22698, "fran": 22706, "franc": 22710, "fraud": 22752, "fre": 22759, "frecuencia": 22763, "free": 22776, "freedom": 22782, "fren": 22796, "frequency": 22808, "frequent": 22811, "fresh": 22821, "fri": 22829, "frica": 22835, "fried": 22841, "friend": 22845, "friendly": 22849, "fro": 22866, "from": 22869, "front": 22874, "fruit": 22897, "ft": 22916, "fu": 22921, "fue": 22929, "fuel": 22936, "fuente": 22940, "fuera": 22946, "fuerte": 22953, "fuerza": 22959, "fuge": 22967, "ful": 22977, "full": 22986, "fully": 22993, "fulness": 22996, "fum": 22997, "fun": 23003, "funciona": 23011, "funcional": 23014, "funcionales": 23016, "funcionamiento": 23020, "funciones": 23032, "funci\u00f3n": 23008, "function": 23036, "functional": 23039, "functionalized": 23044, "fund": 23047, "funda": 23050, "funded": 23071, "fur": 23092, "furan": 23095, "fuse": 23113, "fused": 23115, "fusion": 23122, "fusi\u00f3n": 23125, "fy": 23147, "f\u00e1rmaco": 21384, "f\u00e9rico": 21628, "f\u00ed": 21709, "f\u00edn": 21909, "f\u00edsica": 22057, "f\u00edsico": 22062, "f\u00f3bico": 22306, "f\u00f3n": 22361, "f\u00f3rmula": 22520, "g": 23148, "ga": 23152, "gada": 23165, "gado": 23169, "gain": 23175, "gal": 23182, "galact": 23188, "galo": 23225, "gam": 23231, "game": 23240, "gan": 23252, "gando": 23271, "gar": 23282, "gard": 23308, "garde": 23310, "garra": 23323, "garten": 23326, "gas": 23329, "gastrointestinal": 23351, "gata": 23358, "gate": 23359, "gau": 23376, "gave": 23382, "gawa": 23384, "gay": 23385, "ge": 23398, "ged": 23406, "gel": 23409, "gem": 23414, "gen": 23420, "gena": 23425, "gence": 23426, "gene": 23429, "genera": 23433, "generaci\u00f3n": 23436, "generador": 23443, "general": 23447, "generalmente": 23460, "generated": 23468, "generating": 23471, "generation": 23473, "genes": 23495, "genesis": 23497, "genetic": 23502, "genia": 23513, "genic": 23515, "geno": 23525, "genous": 23537, "gent": 23541, "gente": 23543, "genzia": 23559, "gen\u00e9tica": 23505, "geo": 23560, "ger": 23594, "ges": 23615, "gest": 23616, "gestion": 23619, "gesti\u00f3n": 23620, "get": 23635, "gg": 23647, "gged": 23649, "gger": 23650, "ggi": 23651, "gging": 23652, "ggins": 23653, "ggio": 23654, "ggling": 23655, "ggy": 23656, "gh": 23657, "ghe": 23660, "ghi": 23663, "gi": 23667, "gia": 23672, "gic": 23680, "gica": 23681, "gico": 23682, "gida": 23683, "gido": 23684, "gie": 23685, "gil": 23701, "gill": 23704, "gin": 23709, "gina": 23711, "gine": 23712, "ging": 23714, "gio": 23717, "gir": 23722, "girl": 23731, "gita": 23740, "give": 23744, "given": 23747, "giving": 23752, "gi\u00f3": 23719, "gla": 23758, "glass": 23776, "gle": 23782, "gli": 23786, "glia": 23788, "glicano": 23789, "glicer": 23790, "glicol": 23796, "glic\u00e9rido": 23791, "glio": 23800, "glo": 23802, "global": 23804, "globin": 23815, "globulin": 23818, "globulina": 23819, "glomera": 23821, "glu": 23839, "glucan": 23842, "glucano": 23843, "glucosa": 23845, "glut": 23849, "glutamic": 23852, "glutamina": 23854, "glut\u00e1mico": 23853, "glycan": 23859, "glycemic": 23860, "glyceride": 23861, "glycidyl": 23864, "glyco": 23865, "glycol": 23868, "gmail": 23875, "gna": 23881, "gnac": 23882, "gne": 23883, "gni": 23884, "gnificativamente": 23885, "gno": 23886, "gn\u00f3stico": 23888, "go": 23890, "gobierno": 23913, "god": 23918, "going": 23930, "gol": 23933, "gold": 23938, "gon": 23957, "good": 23964, "gor": 23977, "gora": 23979, "gos": 23985, "got": 23989, "gov": 24007, "government": 24015, "governmental": 24019, "gr": 24035, "gra": 24040, "gracia": 24057, "grad": 24065, "grade": 24067, "gradecemos": 24070, "grado": 24075, "graduate": 24088, "graf": 24096, "grafi": 24099, "grafia": 24100, "grafica": 24102, "grafo": 24113, "graf\u00eda": 24101, "grain": 24116, "gram": 24120, "grama": 24123, "gran": 24130, "grand": 24136, "grande": 24141, "grant": 24159, "graph": 24175, "graphic": 24179, "graphy": 24185, "grasa": 24186, "grass": 24192, "gratis": 24200, "grav": 24211, "grave": 24213, "gre": 24230, "great": 24234, "greece": 24246, "green": 24251, "greg": 24265, "gres": 24274, "gresi\u00f3n": 24275, "gress": 24276, "gri": 24281, "grid": 24283, "grim": 24302, "grin": 24305, "gro": 24324, "gros": 24331, "ground": 24335, "group": 24342, "grove": 24349, "growing": 24354, "grown": 24357, "growth": 24360, "gru": 24363, "grup": 24369, "grupo": 24371, "gr\u00e1fica": 24103, "gr\u00e1fico": 24107, "gr\u00e1ficos": 24110, "gu": 24382, "gua": 24386, "guan": 24397, "guanidine": 24404, "guard": 24414, "gubernamentales": 24445, "gue": 24448, "guen": 24451, "guer": 24452, "guera": 24453, "guero": 24455, "guerra": 24456, "gues": 24463, "guez": 24474, "gui": 24476, "guide": 24494, "guil": 24506, "guin": 24513, "gui\u00f3": 24517, "gul": 24529, "gull": 24532, "gun": 24534, "gur": 24540, "gura": 24542, "gus": 24546, "gusta": 24548, "gu\u00e9": 24450, "gu\u00eda": 24482, "gy": 24573, "g\u00e9": 23402, "g\u00e9nero": 23485, "g\u00e9nesis": 23500, "g\u00e9nica": 23516, "g\u00e9nicas": 23518, "g\u00e9nico": 23519, "g\u00e9nicos": 23520, "g\u00f3": 23896, "g\u00f3n": 23958, "g\u00fan": 24537, "h": 24578, "ha": 24582, "hab": 24589, "habilita": 24610, "habit": 24615, "habla": 24639, "hace": 24662, "hacer": 24670, "hacia": 24679, "hack": 24691, "had": 24697, "hai": 24710, "hair": 24715, "hak": 24726, "hal": 24727, "hale": 24729, "half": 24730, "hali": 24734, "hall": 24737, "halo": 24754, "haloalkyl": 24757, "halogen": 24758, "halogenado": 24760, "ham": 24768, "han": 24789, "hana": 24794, "hand": 24795, "handed": 24800, "hang": 24819, "har": 24843, "hara": 24848, "hard": 24858, "hari": 24872, "harm": 24878, "hart": 24900, "has": 24910, "hasta": 24919, "hat": 24923, "haul": 24933, "haus": 24937, "hausen": 24938, "hav": 24940, "have": 24944, "haven": 24949, "having": 24952, "hawk": 24960, "hay": 24963, "haz": 24971, "he": 24993, "head": 24999, "headed": 25004, "health": 25021, "healthy": 25028, "hear": 25031, "heart": 25037, "hearted": 25041, "heat": 25044, "heating": 25050, "heaviest": 25059, "heavy": 25061, "hecho": 25074, "hectare": 25080, "hedral": 25085, "hei": 25089, "heim": 25097, "hel": 25100, "held": 25105, "help": 25125, "hem": 25134, "hen": 25152, "hep": 25161, "heptane": 25170, "heptano": 25171, "her": 25172, "here": 25189, "hereinafter": 25204, "hero": 25235, "herramienta": 25252, "hetero": 25268, "hexa": 25285, "hexane": 25289, "hexano": 25291, "hexil": 25293, "hi": 25300, "hib": 25307, "hid": 25320, "hidra": 25329, "hidrato": 25333, "hidro": 25339, "hidroxi": 25360, "hidruro": 25365, "hidr\u00f3geno": 25355, "high": 25376, "hijo": 25402, "hil": 25410, "hill": 25415, "him": 25425, "hin": 25432, "hine": 25444, "hing": 25445, "hip": 25448, "hiper": 25451, "hir": 25468, "his": 25475, "hist": 25485, "historia": 25490, "history": 25513, "hit": 25517, "hl": 25530, "hm": 25533, "hman": 25534, "hn": 25535, "ho": 25536, "hoe": 25552, "hof": 25553, "hoja": 25561, "hol": 25565, "hold": 25575, "holder": 25578, "holding": 25582, "hole": 25586, "holm": 25602, "hom": 25610, "hombre": 25614, "home": 25622, "homo": 25643, "homogen": 25646, "hon": 25668, "hong": 25686, "honourable": 25698, "hoo": 25704, "hood": 25705, "hop": 25710, "hor": 25724, "hora": 25727, "horn": 25755, "horse": 25768, "host": 25793, "hot": 25817, "hotel": 25820, "hou": 25835, "hound": 25837, "hour": 25838, "house": 25846, "how": 25862, "hr": 25880, "hra": 25884, "hri": 25886, "hro": 25887, "html": 25894, "hu": 25898, "hua": 25903, "huang": 25905, "hue": 25920, "hui": 25946, "hul": 25948, "hum": 25951, "human": 25954, "humana": 25958, "humano": 25977, "hun": 26004, "hunter": 26024, "hur": 26030, "hurst": 26041, "hy": 26051, "hya": 26055, "hydrate": 26067, "hydrating": 26070, "hydro": 26075, "hydrogen": 26086, "hydroxy": 26097, "hydroxyethyl": 26099, "hydroxymethyl": 26101, "hyper": 26108, "hypersensitivity": 26112, "hypertensive": 26114, "hypno": 26115, "h\u00e1": 24588, "h\u00e9roe": 25240, "h\u00eddrico": 25337, "i": 26127, "ia": 26132, "iac": 26136, "iah": 26139, "ial": 26140, "iales": 26142, "ian": 26144, "iana": 26147, "iano": 26148, "ianos": 26149, "ians": 26150, "iary": 26151, "ias": 26152, "iasis": 26154, "iate": 26155, "ib": 26156, "iba": 26159, "iber": 26163, "ibi": 26169, "ibid": 26170, "ibil": 26171, "ibilidad": 26172, "ibility": 26173, "ible": 26177, "ibles": 26178, "ibo": 26181, "ibu": 26183, "ic": 26185, "ica": 26188, "ical": 26190, "ically": 26192, "icamente": 26193, "icas": 26196, "ice": 26198, "icen": 26206, "ich": 26207, "iche": 26208, "ichi": 26209, "ici": 26210, "icia": 26212, "icidad": 26213, "icidal": 26214, "icide": 26215, "icidio": 26216, "icillin": 26217, "icina": 26218, "icio": 26219, "icismo": 26221, "ici\u00f3n": 26220, "ick": 26222, "ico": 26225, "icos": 26239, "ics": 26242, "icu": 26246, "icul": 26247, "icular": 26248, "id": 26252, "ida": 26256, "idad": 26260, "idades": 26262, "idae": 26263, "idas": 26265, "iddle": 26266, "ide": 26267, "iden": 26278, "idene": 26279, "ident": 26280, "idente": 26281, "identifica": 26291, "identified": 26309, "identifying": 26316, "ider": 26327, "ides": 26328, "idez": 26329, "idi": 26330, "idin": 26333, "idina": 26334, "idine": 26335, "idio": 26336, "idium": 26342, "ido": 26344, "idos": 26354, "ids": 26356, "ie": 26358, "ied": 26360, "iego": 26362, "iel": 26363, "ien": 26364, "ience": 26366, "ienda": 26367, "iendo": 26368, "ienne": 26376, "ient": 26377, "iente": 26378, "ientes": 26380, "iento": 26381, "ier": 26382, "iera": 26384, "ieran": 26386, "iere": 26387, "ieron": 26388, "iers": 26389, "ies": 26390, "iesen": 26394, "iest": 26395, "ieu": 26396, "ieux": 26397, "if": 26398, "ife": 26404, "ifer": 26405, "iff": 26408, "ifiable": 26409, "ific": 26410, "ifica": 26412, "ificaciones": 26415, "ificaci\u00f3n": 26414, "ificada": 26416, "ificado": 26417, "ificador": 26418, "ificados": 26419, "ificante": 26420, "ificar": 26421, "ification": 26422, "ificio": 26423, "ific\u00f3": 26425, "ified": 26426, "ifier": 26427, "ifies": 26428, "ifique": 26429, "iform": 26431, "iforme": 26432, "ify": 26434, "ifying": 26435, "ig": 26436, "iga": 26439, "igan": 26440, "ige": 26441, "igen": 26443, "iger": 26444, "igger": 26447, "igh": 26448, "ight": 26449, "igi": 26450, "igma": 26454, "ign": 26455, "ignan": 26457, "ignano": 26458, "igne": 26460, "igno": 26463, "igny": 26474, "igo": 26475, "igu": 26476, "igua": 26477, "igual": 26478, "igue": 26487, "ih": 26488, "ii": 26490, "iii": 26494, "ij": 26498, "ija": 26499, "ijk": 26500, "ijn": 26501, "ik": 26502, "ika": 26503, "ike": 26504, "iki": 26506, "iko": 26507, "iku": 26508, "il": 26509, "ila": 26513, "ilaci\u00f3n": 26514, "ilateral": 26515, "ilation": 26516, "ile": 26517, "iler": 26523, "iles": 26524, "ili": 26525, "ilia": 26526, "ilio": 26533, "ility": 26534, "ill": 26535, "illa": 26538, "illard": 26540, "illas": 26541, "ille": 26542, "iller": 26547, "illi": 26548, "illian": 26549, "illion": 26552, "illo": 26557, "illon": 26558, "illos": 26559, "illus": 26565, "ilo": 26578, "iloxi": 26582, "ils": 26583, "ilustra": 26592, "ily": 26604, "im": 26605, "ima": 26610, "image": 26612, "imagen": 26615, "iman": 26642, "imba": 26645, "ime": 26647, "imethylformamide": 26648, "imi": 26651, "imida": 26652, "imidazol": 26653, "imidazole": 26654, "imide": 26655, "imiento": 26656, "immer": 26670, "immigrant": 26675, "immun": 26688, "imo": 26701, "imon": 26703, "imos": 26704, "imp": 26705, "impact": 26710, "imperialist": 26758, "implant": 26773, "implementaciones": 26790, "important": 26830, "importante": 26833, "impresi\u00f3n": 26868, "im\u00e1genes": 26618, "in": 26936, "ina": 26943, "inas": 26968, "inate": 26969, "ination": 26970, "inato": 26971, "inc": 26981, "incarnate": 26993, "inch": 27009, "inci": 27012, "incidencia": 27015, "including": 27044, "incluida": 27049, "incluido": 27052, "incluidos": 27055, "inclusive": 27065, "incluso": 27069, "incluye": 27075, "incluyen": 27078, "incluyendo": 27080, "income": 27086, "inconstitucional": 27105, "incorpora": 27112, "increasing": 27138, "increment": 27150, "inda": 27179, "independiente": 27200, "inder": 27204, "indica": 27220, "indicado": 27227, "individual": 27282, "indol": 27294, "indole": 27295, "indu": 27302, "induced": 27305, "industria": 27318, "industrial": 27321, "industrializados": 27325, "industry": 27330, "ine": 27333, "ines": 27345, "iness": 27349, "inf": 27360, "infect": 27386, "infected": 27393, "infection": 27395, "inferior": 27400, "inflamatoria": 27429, "inflamatorio": 27431, "inflammatory": 27434, "info": 27463, "informaci\u00f3n": 27475, "information": 27493, "infringement": 27521, "ing": 27529, "ingen": 27531, "ingenier\u00eda": 27532, "inger": 27543, "ingham": 27549, "ingl\u00e9s": 27554, "ings": 27575, "ington": 27576, "inhibidor": 27595, "inho": 27607, "ini": 27609, "inicia": 27612, "inicial": 27620, "injerto": 27663, "injiang": 27665, "ink": 27677, "inmoviliza": 27705, "inmuno": 27715, "inn": 27723, "inner": 27729, "inning": 27733, "ino": 27757, "inos": 27771, "inositol": 27772, "ins": 27787, "insaturado": 27792, "inski": 27845, "insky": 27846, "insofar": 27847, "inspired": 27880, "inst": 27885, "instalaci\u00f3n": 27891, "install": 27901, "instant\u00e1neamente": 27921, "institutional": 27947, "insurance": 27995, "insurgency": 27999, "int": 28003, "integr": 28012, "integra": 28015, "inteligencia": 28050, "intelligence": 28059, "intencionalmente": 28069, "intended": 28072, "intensity": 28088, "intensive": 28091, "inter": 28115, "interactua": 28133, "interconecta": 28156, "interest": 28177, "interior": 28201, "interna": 28220, "internal": 28227, "international": 28233, "interoperability": 28246, "interpret": 28250, "interpretaciones": 28256, "interstellar": 28290, "intervalo": 28293, "into": 28327, "introducci\u00f3n": 28353, "invasive": 28403, "invenci\u00f3n": 28411, "invest": 28451, "investiga": 28456, "investment": 28482, "inyasa": 28538, "inyecci\u00f3n": 28540, "in\u00e9": 27335, "io": 28547, "iodisponibilidad": 28553, "iodo": 28554, "ion": 28555, "ional": 28559, "iones": 28560, "ionic": 28562, "ionized": 28566, "ions": 28567, "ios": 28570, "ious": 28574, "ip": 28576, "ipe": 28581, "ipersensibilidad": 28582, "ipp": 28586, "iq": 28589, "ique": 28590, "ir": 28591, "ira": 28596, "ire": 28611, "iri": 28615, "iro": 28624, "iron": 28625, "is": 28661, "isa": 28667, "isation": 28675, "isch": 28677, "ische": 28678, "isco": 28681, "ise": 28682, "ised": 28684, "iser": 28685, "ish": 28686, "isha": 28688, "ished": 28689, "isi": 28691, "isic": 28693, "ising": 28696, "isla": 28698, "ism": 28723, "ismo": 28725, "iso": 28730, "isocianato": 28734, "ison": 28745, "isopropil": 28747, "isopropyl": 28748, "israel": 28754, "issa": 28765, "isse": 28766, "issile": 28767, "issue": 28769, "ist": 28776, "ista": 28778, "istas": 28783, "iste": 28784, "ister": 28785, "isti": 28786, "istic": 28787, "istica": 28788, "isto": 28793, "ists": 28794, "ist\u00e1n": 28781, "is\u00f3mero": 28742, "it": 28795, "ita": 28801, "ital": 28803, "itan": 28815, "itano": 28816, "itaria": 28817, "itarian": 28818, "itario": 28819, "itarios": 28820, "itas": 28821, "itating": 28822, "itch": 28823, "itchenette": 28824, "ite": 28826, "iter": 28834, "ites": 28837, "ith": 28838, "iti": 28840, "itic": 28841, "ities": 28844, "ition": 28849, "itious": 28850, "itis": 28851, "itive": 28852, "ito": 28853, "itol": 28855, "itor": 28856, "itos": 28857, "its": 28858, "itter": 28862, "itting": 28863, "itu": 28864, "itud": 28867, "itude": 28868, "ity": 28870, "itz": 28872, "it\u00e9": 28828, "iu": 28873, "ium": 28876, "ius": 28877, "iv": 28878, "iva": 28881, "ivas": 28886, "ive": 28887, "iver": 28889, "ividad": 28890, "ivism": 28891, "ivist": 28892, "ivity": 28893, "ivo": 28894, "ivos": 28898, "ix": 28899, "iya": 28902, "iyah": 28903, "iye": 28904, "iz": 28905, "iza": 28906, "izable": 28908, "izacion": 28910, "izaciones": 28912, "izaci\u00f3n": 28911, "izada": 28913, "izadas": 28914, "izado": 28915, "izador": 28916, "izados": 28917, "izan": 28918, "izando": 28919, "izante": 28921, "izar": 28922, "izarse": 28923, "ization": 28924, "ize": 28925, "ized": 28927, "izen": 28928, "izer": 28929, "izes": 28930, "izing": 28931, "izo": 28932, "izquierda": 28934, "izz": 28939, "iz\u00e1ndose": 28920, "iz\u00f3": 28933, "i\u00e9ndola": 26369, "i\u00e9ndole": 26370, "i\u00e9ndolo": 26371, "i\u00e9ndome": 26372, "i\u00e9ndonos": 26373, "i\u00e9ndose": 26374, "i\u00e9ndote": 26375, "i\u00e9ramos": 26385, "i\u00e9semos": 26393, "i\u00f1a": 26946, "i\u00f1o": 27759, "i\u00f3": 28550, "i\u00f3n": 28558, "j": 28940, "ja": 28944, "jack": 28953, "jada": 28968, "jado": 28969, "jah": 28971, "jan": 28987, "jar": 29006, "jas": 29017, "jay": 29027, "je": 29031, "ject": 29042, "jen": 29057, "jer": 29064, "jera": 29066, "jero": 29077, "jes": 29084, "jet": 29096, "ji": 29115, "jia": 29117, "jiang": 29118, "jima": 29127, "jin": 29130, "jo": 29134, "job": 29144, "join": 29160, "jon": 29173, "jor": 29182, "jos": 29190, "jour": 29198, "joy": 29212, "ju": 29224, "judicial": 29254, "juego": 29270, "jug": 29281, "jun": 29318, "junta": 29334, "junto": 29338, "jur": 29345, "just": 29368, "j\u00e1ndose": 28989, "j\u00e9": 29036, "j\u00f3": 29140, "j\u00f3n": 29175, "k": 29403, "ka": 29407, "kai": 29416, "kal": 29419, "kan": 29426, "kar": 29433, "kara": 29436, "kash": 29447, "kata": 29451, "kawa": 29457, "ke": 29470, "ked": 29474, "keep": 29476, "keeper": 29480, "keeping": 29481, "kel": 29486, "ken": 29490, "ker": 29501, "kers": 29507, "kes": 29508, "ket": 29509, "key": 29515, "kg": 29528, "kh": 29531, "kha": 29533, "khan": 29535, "ki": 29541, "kie": 29559, "kill": 29562, "kilometre": 29576, "kim": 29582, "kin": 29584, "kind": 29588, "king": 29597, "kins": 29605, "kirch": 29609, "kirchen": 29610, "kit": 29617, "kk": 29631, "kka": 29633, "kle": 29635, "km": 29639, "know": 29661, "knowledge": 29668, "known": 29672, "ko": 29677, "kol": 29686, "kom": 29689, "kon": 29691, "kop": 29694, "kou": 29700, "kov": 29701, "kowski": 29702, "kra": 29704, "ks": 29717, "kt": 29719, "ku": 29720, "kul": 29725, "kun": 29727, "ky": 29740, "l": 29747, "la": 29751, "lab": 29758, "label": 29762, "labeled": 29765, "labor": 29773, "lac": 29793, "lace": 29797, "laci\u00f3n": 29800, "lactam": 29807, "lactama": 29808, "lactic": 29813, "lactona": 29816, "lactone": 29817, "lada": 29820, "laden": 29822, "lado": 29826, "lados": 29828, "lag": 29836, "lah": 29847, "lai": 29849, "laid": 29850, "lain": 29852, "laje": 29854, "lake": 29855, "lam": 29860, "lamina": 29871, "lamp": 29880, "lan": 29887, "lance": 29892, "land": 29894, "landia": 29901, "lands": 29908, "lane": 29914, "lang": 29918, "lange": 29920, "language": 29922, "lano": 29928, "lant": 29930, "lante": 29931, "lanza": 29934, "lap": 29949, "lapse": 29953, "lar": 29957, "lares": 29962, "larga": 29963, "large": 29967, "largest": 29972, "largo": 29974, "las": 29983, "lash": 29993, "last": 29994, "lasting": 30001, "lat": 30005, "lata": 30006, "late": 30008, "lated": 30011, "later": 30016, "lateral": 30019, "latina": 30029, "lating": 30031, "lation": 30038, "lato": 30041, "lator": 30042, "latos": 30043, "latter": 30044, "lau": 30050, "laughter": 30056, "launch": 30058, "lava": 30074, "law": 30091, "lay": 30107, "layer": 30109, "lb": 30120, "lberg": 30121, "lc": 30122, "ld": 30126, "le": 30131, "lea": 30138, "leader": 30144, "leading": 30151, "lean": 30165, "learn": 30169, "learning": 30175, "lec": 30193, "lecomunicaciones": 30198, "lect": 30199, "lector": 30200, "led": 30210, "lee": 30215, "left": 30221, "leg": 30225, "legado": 30230, "legal": 30232, "legi": 30247, "lei": 30279, "leigh": 30284, "lejo": 30291, "lem": 30293, "len": 30298, "lena": 30300, "lene": 30306, "length": 30308, "lengua": 30312, "lent": 30323, "lenta": 30326, "leo": 30332, "ler": 30345, "lero": 30347, "les": 30348, "less": 30363, "lessly": 30368, "lessness": 30369, "let": 30375, "leta": 30380, "lete": 30382, "leton": 30384, "lets": 30390, "lett": 30392, "leuc": 30400, "leucina": 30402, "lev": 30406, "levantamiento": 30414, "level": 30422, "leveraging": 30431, "lex": 30439, "ley": 30444, "lf": 30454, "lg": 30457, "lg\u00fan": 30462, "li": 30464, "lia": 30471, "lian": 30478, "lib": 30480, "liber": 30485, "libera": 30487, "liberaci\u00f3n": 30489, "liberal": 30495, "libertad": 30513, "libra": 30524, "libre": 30533, "libro": 30539, "lic": 30546, "lica": 30548, "lice": 30549, "lich": 30565, "lick": 30568, "lico": 30569, "lid": 30572, "lidad": 30574, "lide": 30575, "lider": 30576, "lido": 30589, "lie": 30591, "lier": 30596, "lies": 30597, "life": 30601, "lift": 30612, "lig": 30618, "liga": 30619, "ligera": 30630, "light": 30637, "ligo": 30651, "lik": 30652, "like": 30653, "lim": 30666, "lima": 30669, "limb": 30671, "limit": 30676, "limita": 30679, "limiting": 30702, "limp": 30709, "limpia": 30710, "lin": 30720, "lina": 30724, "linda": 30728, "line": 30733, "linear": 30745, "liner": 30751, "lines": 30753, "liness": 30755, "ling": 30761, "lingual": 30766, "lini": 30768, "lining": 30769, "link": 30771, "linked": 30777, "linker": 30781, "linking": 30783, "lino": 30787, "lio": 30791, "liofiliza": 30792, "lion": 30793, "lip": 30796, "lipid": 30801, "lipo": 30805, "lique": 30812, "liquid": 30814, "liquin": 30826, "lis": 30828, "lish": 30834, "lisis": 30835, "lismo": 30836, "list": 30838, "lista": 30841, "listed": 30847, "lit": 30859, "lita": 30862, "lite": 30863, "liter": 30865, "lithic": 30882, "lito": 30893, "litro": 30896, "little": 30900, "litz": 30910, "lium": 30913, "live": 30915, "lived": 30919, "living": 30931, "lix": 30935, "liz": 30936, "liza": 30938, "lizaci\u00f3n": 30939, "lizado": 30940, "lizar": 30941, "lk": 30944, "ll": 30945, "lla": 30947, "llah": 30948, "llamada": 30953, "llamado": 30956, "llan": 30971, "llar": 30977, "lle": 30982, "llega": 30983, "llen": 31005, "ller": 31015, "llet": 31016, "llevar": 31030, "lli": 31042, "lling": 31043, "llo": 31044, "llones": 31048, "lly": 31057, "ll\u00e1h": 30949, "ll\u00f3": 31045, "ll\u00f3n": 31047, "lm": 31058, "lmente": 31061, "lmirante": 31062, "lo": 31065, "load": 31072, "loaded": 31075, "lob": 31084, "loc": 31092, "local": 31094, "localiza": 31101, "located": 31117, "location": 31121, "loch": 31128, "lock": 31130, "log": 31149, "logger": 31156, "logging": 31157, "logic": 31160, "logical": 31165, "logist": 31172, "logo": 31180, "logue": 31200, "logueado": 31201, "logy": 31202, "log\u00eda": 31159, "lom": 31204, "lon": 31206, "lone": 31215, "lones": 31218, "long": 31219, "longa": 31222, "longitud": 31227, "longitudinal": 31231, "longside": 31234, "loo": 31236, "look": 31237, "looking": 31242, "loop": 31248, "lop": 31253, "lope": 31254, "lor": 31257, "lord": 31261, "lore": 31266, "los": 31271, "loss": 31281, "lot": 31287, "lou": 31298, "lov": 31312, "lova": 31313, "love": 31314, "lover": 31322, "low": 31327, "lower": 31332, "loy": 31338, "lp": 31341, "ls": 31346, "lt": 31348, "ltima": 31356, "ltimo": 31357, "ltimos": 31358, "lton": 31359, "lu": 31360, "lubricating": 31373, "luc": 31375, "luck": 31398, "luding": 31408, "lugar": 31416, "lum": 31434, "luminescence": 31443, "luminescent": 31444, "luminiscencia": 31445, "luminiscente": 31446, "lumino": 31447, "lung": 31461, "lus": 31468, "lusion": 31470, "lusive": 31471, "lustra": 31473, "lut": 31474, "lution": 31477, "lux": 31478, "luz": 31485, "lv": 31488, "lva": 31490, "lvarez": 31491, "ly": 31492, "lyn": 31502, "lysis": 31512, "lytic": 31513, "lyzer": 31514, "l\u00e1": 29757, "l\u00e1ctico": 29815, "l\u00e1mina": 29872, "l\u00e9": 30137, "l\u00ed": 30470, "l\u00edn": 30723, "l\u00ednea": 30739, "l\u00edpido": 30803, "l\u00edquido": 30822, "l\u00edtica": 30888, "l\u00edtico": 30889, "l\u00f3": 31071, "l\u00f3gica": 31163, "l\u00f3gico": 31167, "l\u00f3gicos": 31169, "l\u00f3n": 31208, "l\u00fa": 31366, "m": 31515, "mL": 33504, "ma": 31519, "mac": 31528, "machi": 31539, "machine": 31540, "mad": 31562, "mada": 31567, "made": 31571, "mado": 31580, "madre": 31582, "madura": 31589, "mag": 31604, "magnesio": 31628, "magnetic": 31634, "magn\u00e9tico": 31639, "mai": 31658, "maid": 31660, "mail": 31662, "main": 31668, "make": 31701, "maker": 31705, "makers": 31708, "making": 31713, "mal": 31716, "mala": 31720, "male": 31739, "man": 31789, "mana": 31796, "managed": 31801, "management": 31803, "mand": 31822, "mando": 31836, "manera": 31846, "mania": 31861, "manifest": 31864, "manipula": 31886, "mann": 31898, "manos": 31907, "mante": 31913, "manufacture": 31954, "many": 31968, "man\u00eda": 31863, "map": 31975, "mar": 32000, "mara": 32006, "marca": 32022, "marcado": 32026, "mari": 32064, "marin": 32075, "marine": 32079, "mark": 32099, "market": 32106, "marketing": 32112, "mart": 32144, "mas": 32181, "mask": 32211, "mass": 32216, "master": 32227, "mat": 32239, "match": 32252, "mate": 32258, "materia": 32267, "material": 32270, "materiales": 32274, "matic": 32292, "mato": 32299, "matter": 32314, "max": 32331, "maximum": 32350, "may": 32354, "maybe": 32362, "mayor": 32368, "mayoritariamente": 32374, "maz": 32376, "mb": 32383, "mba": 32386, "mbar": 32388, "mbedded": 32389, "mber": 32390, "mbi": 32391, "mbo": 32392, "mbolo": 32393, "mbra": 32395, "mbre": 32396, "mbro": 32397, "mbu": 32398, "mcg": 32410, "me": 32418, "mean": 32431, "meaning": 32434, "measure": 32448, "mecanismo": 32467, "mechanical": 32475, "mec\u00e1nica": 32460, "mec\u00e1nico": 32464, "med": 32484, "medi": 32494, "media": 32497, "mediante": 32510, "mediated": 32514, "medic": 32522, "medical": 32529, "medicina": 32543, "medicine": 32549, "medida": 32562, "medio": 32571, "medioambientales": 32575, "medios": 32578, "mega": 32603, "megle": 32607, "mejor": 32610, "mejora": 32615, "mel": 32630, "melo": 32640, "member": 32648, "membered": 32652, "membrana": 32657, "membrane": 32660, "memoria": 32671, "men": 32683, "mena": 32688, "mencionado": 32693, "menopausal": 32701, "menor": 32704, "menos": 32709, "mensaje": 32713, "ment": 32726, "menta": 32728, "mentaci\u00f3n": 32729, "mentado": 32730, "mental": 32731, "mentar": 32739, "mentario": 32740, "mentation": 32741, "mente": 32742, "menti": 32746, "mentioned": 32749, "mento": 32757, "mentos": 32759, "ments": 32760, "mer": 32768, "mera": 32772, "mercado": 32779, "mercapto": 32789, "mere": 32808, "meric": 32821, "merica": 32822, "mero": 32836, "meros": 32838, "mers": 32839, "mes": 32840, "met": 32863, "meta": 32868, "metacrilato": 32879, "metal": 32883, "metallic": 32892, "metano": 32898, "metanol": 32900, "meteo": 32911, "meter": 32922, "meth": 32929, "methane": 32932, "methanol": 32934, "methoxy": 32946, "methyl": 32948, "methylcellulose": 32950, "methylene": 32951, "metic": 32953, "metil": 32956, "metilcelulosa": 32958, "metilo": 32960, "metionina": 32962, "metoxi": 32969, "metre": 32970, "metric": 32973, "metro": 32979, "metros": 32987, "metry": 32989, "metr\u00eda": 32972, "met\u00e1lico": 32889, "mex": 32990, "mez": 33004, "mezcla": 33005, "mg": 33019, "mi": 33028, "mia": 33037, "mic": 33040, "mica": 33041, "micina": 33052, "mico": 33054, "micos": 33055, "micro": 33057, "mid": 33094, "mida": 33097, "mido": 33106, "midst": 33107, "mie": 33111, "miembro": 33115, "miento": 33120, "mientos": 33122, "mientras": 33123, "mig": 33130, "miga": 33131, "migra": 33135, "migration": 33149, "mil": 33158, "mile": 33169, "militar": 33189, "military": 33193, "milk": 33197, "mill": 33201, "milla": 33205, "million": 33219, "millones": 33228, "min": 33235, "mina": 33241, "minaci\u00f3n": 33244, "minada": 33245, "minado": 33246, "minar": 33247, "minated": 33249, "minating": 33250, "minded": 33253, "mine": 33258, "mineral": 33264, "ming": 33276, "mini": 33279, "mining": 33305, "mino": 33327, "minu": 33343, "minute": 33351, "min\u00f3": 33329, "mio": 33357, "mir": 33360, "mira": 33362, "mis": 33385, "miscible": 33393, "misiones": 33414, "misi\u00f3n": 33408, "mismo": 33421, "miss": 33425, "mission": 33433, "missive": 33440, "misunderstanding": 33457, "mit": 33461, "mita": 33465, "mite": 33468, "mitido": 33469, "mitiendo": 33470, "mito": 33476, "mitted": 33485, "mix": 33486, "ml": 33502, "mm": 33509, "mmer": 33513, "mmunities": 33517, "mo": 33520, "mobil": 33529, "mobile": 33532, "mocr\u00e1ticamente": 33546, "mod": 33547, "modal": 33553, "mode": 33558, "model": 33562, "modelo": 33569, "moderate": 33581, "modern": 33586, "modified": 33620, "modo": 33628, "modul": 33632, "modulador": 33635, "mol": 33665, "molar": 33668, "molde": 33673, "mole": 33683, "molecular": 33688, "mol\u00e9cula": 33686, "mon": 33717, "mona": 33724, "mond": 33741, "moneda": 33743, "money": 33752, "moni": 33759, "monia": 33760, "monitor": 33763, "mono": 33785, "mont": 33813, "montaje": 33821, "monte": 33830, "month": 33838, "mon\u00f3mero": 33793, "moon": 33859, "mor": 33866, "moral": 33872, "more": 33884, "morfismo": 33893, "morfo": 33894, "morfolin": 33895, "mori": 33898, "morph": 33908, "mos": 33922, "most": 33940, "mostrada": 33949, "mostrado": 33951, "mostrar": 33958, "mother": 33969, "motion": 33975, "moto": 33992, "motor": 33998, "mount": 34016, "mounted": 34024, "mour": 34027, "mouth": 34032, "mov": 34035, "movie": 34051, "movil": 34058, "movimiento": 34069, "moving": 34073, "mp": 34081, "mpa": 34085, "mpec\u00e9": 34086, "mper": 34088, "mph": 34089, "mple": 34090, "mplifi": 34091, "mpo": 34092, "mproving": 34093, "mpton": 34094, "ms": 34102, "mu": 34111, "much": 34118, "mucho": 34132, "mue": 34146, "muestra": 34163, "mujer": 34175, "mul": 34181, "mula": 34183, "mulo": 34184, "mult": 34185, "multi": 34188, "multidimensional": 34195, "multidisciplinar": 34196, "multiple": 34214, "multiplexor": 34224, "mun": 34239, "mund": 34241, "mundo": 34248, "mune": 34251, "muni": 34253, "munodeficiencia": 34268, "mur": 34270, "mura": 34272, "mus": 34296, "museum": 34311, "music": 34317, "mut": 34344, "muta": 34347, "mutation": 34356, "muy": 34366, "mx": 34373, "my": 34376, "m\u00e1": 31525, "m\u00e1n": 31795, "m\u00e1quina": 31994, "m\u00e1s": 32185, "m\u00e1tica": 32293, "m\u00e1tico": 32295, "m\u00e1ticos": 32296, "m\u00e1x": 32337, "m\u00e9": 32424, "m\u00e9dico": 32557, "m\u00e9rica": 32823, "m\u00e9rico": 32824, "m\u00e9todo": 32964, "m\u00e9trica": 32975, "m\u00e9trico": 32977, "m\u00ed": 33034, "m\u00edn": 33240, "m\u00f3": 33526, "m\u00f3dulo": 33648, "m\u00f3n": 33723, "m\u00f3vil": 34060, "n": 34405, "na": 34410, "nacido": 34423, "nacional": 34435, "naci\u00f3n": 34432, "nada": 34447, "nado": 34456, "nah": 34461, "nai": 34463, "nak": 34468, "nal": 34472, "nales": 34473, "nam": 34474, "name": 34477, "nan": 34485, "nant": 34495, "nap": 34499, "naphth": 34502, "naphthalene": 34503, "nar": 34510, "naranja": 34512, "narcotic": 34516, "nard": 34521, "narqu\u00eda": 34523, "nas": 34531, "nascent": 34537, "nat": 34543, "natal": 34546, "nate": 34551, "nation": 34553, "national": 34556, "nato": 34575, "natural": 34577, "nature": 34588, "nau": 34591, "naut": 34597, "nay": 34631, "nc": 34642, "nca": 34645, "nce": 34646, "nch": 34647, "ncia": 34649, "ncias": 34650, "ncies": 34651, "ncio": 34652, "ncreased": 34654, "nd": 34655, "nda": 34657, "nde": 34658, "nder": 34659, "ndi": 34660, "ndice": 34661, "ndo": 34662, "ndra": 34663, "ndro": 34664, "ndula": 34665, "ne": 34666, "nea": 34673, "near": 34675, "nebuliza": 34686, "necesario": 34691, "necesidad": 34694, "necesita": 34699, "neck": 34724, "ned": 34731, "needed": 34735, "negative": 34752, "negotiable": 34778, "negro": 34789, "nel": 34807, "nell": 34808, "nen": 34811, "neo": 34812, "neoplastic": 34817, "ner": 34824, "nera": 34827, "nes": 34840, "nese": 34843, "ness": 34844, "net": 34848, "nete": 34856, "network": 34860, "neu": 34867, "neur": 34873, "neurotransmitter": 34888, "neutral": 34890, "neutralizing": 34898, "new": 34912, "nex": 34935, "ney": 34941, "nez": 34943, "nfollow": 34949, "ng": 34950, "nge": 34952, "ngel": 34953, "nger": 34954, "ngo": 34955, "ngu": 34959, "nhibici\u00f3n": 34963, "ni": 34964, "nia": 34972, "nic": 34975, "nica": 34977, "nicamente": 34978, "nick": 34988, "nico": 34992, "nida": 35000, "nidad": 35001, "nie": 35002, "nier": 35009, "nig": 35015, "night": 35020, "nik": 35031, "nil": 35036, "nilla": 35038, "nim": 35040, "nimo": 35042, "nin": 35043, "nina": 35044, "nine": 35049, "ning": 35055, "nio": 35073, "nis": 35078, "nismo": 35080, "nit": 35082, "nita": 35083, "nitr": 35086, "nitrile": 35092, "nitrilo": 35093, "nitro": 35095, "nium": 35099, "nivel": 35100, "nk": 35108, "nl": 35111, "nna": 35118, "nne": 35119, "nner": 35120, "nnie": 35121, "no": 35122, "noche": 35140, "nock": 35145, "noid": 35154, "nol": 35159, "nom": 35160, "noma": 35161, "nombre": 35168, "nomic": 35175, "nominated": 35180, "non": 35185, "nor": 35198, "normal": 35210, "normalmente": 35219, "nos": 35258, "nosotros": 35266, "not": 35271, "nota": 35276, "note": 35286, "nothing": 35297, "nou": 35330, "nov": 35335, "nova": 35337, "now": 35366, "noy": 35375, "ns": 35381, "nsa": 35384, "nsible": 35387, "nstable": 35388, "nt": 35389, "nta": 35392, "nte": 35394, "nterim": 35395, "nterpret": 35396, "ntes": 35397, "ntiinflamatorios": 35398, "nto": 35399, "ntroduzca": 35400, "nu": 35401, "nucle": 35412, "nuclear": 35413, "nucleotide": 35428, "nucle\u00f3sido": 35427, "nucle\u00f3tido": 35431, "nuestra": 35436, "nuestro": 35441, "nueva": 35448, "nuevo": 35457, "num": 35467, "number": 35471, "nunca": 35493, "nunciation": 35497, "nunci\u00f3": 35498, "nus": 35510, "nut": 35511, "nutrient": 35520, "ny": 35535, "nz": 35544, "nza": 35546, "n\u00e9s": 34842, "n\u00ed": 34971, "n\u00facleo": 35423, "n\u00famero": 35482, "o": 35547, "oC": 35740, "oa": 35553, "ob": 35562, "oba": 35566, "obi": 35580, "object": 35586, "objetivo": 35600, "objeto": 35605, "oblastoma": 35609, "obo": 35629, "obolin": 35630, "observa": 35648, "obstructed": 35701, "obtener": 35712, "obtenido": 35721, "oc": 35739, "oca": 35742, "occa": 35751, "occupation": 35767, "occupied": 35772, "ocean": 35784, "och": 35794, "oci": 35798, "ocitos": 35800, "ock": 35801, "ocracy": 35803, "ocratic": 35804, "ocr\u00e1tico": 35805, "oct": 35806, "ocupa": 35824, "ocyte": 35851, "ocytes": 35852, "od": 35853, "oda": 35856, "ode": 35859, "odo": 35863, "oe": 35868, "of": 35875, "off": 35891, "office": 35912, "official": 35920, "oficial": 35930, "oftalm": 35963, "often": 35964, "og": 35967, "oga": 35970, "ogen": 35971, "ogenesis": 35973, "ogenic": 35974, "ograf\u00eda": 35976, "ogram": 35979, "ograma": 35980, "ograph": 35981, "ographer": 35982, "ographic": 35983, "ography": 35984, "ogr\u00e1fica": 35977, "oh": 35985, "oid": 35993, "oide": 35994, "oides": 35995, "oids": 35998, "oil": 36000, "ois": 36007, "ojo": 36012, "ok": 36015, "oka": 36020, "oke": 36023, "oko": 36026, "oku": 36027, "ol": 36028, "ola": 36031, "old": 36037, "ole": 36045, "olefin": 36048, "olefina": 36050, "oli": 36055, "olic": 36056, "oligarch": 36059, "oligosaccharide": 36065, "olin": 36070, "olo": 36082, "olog": 36083, "ologi": 36086, "ologic": 36088, "ological": 36090, "ologico": 36091, "ologies": 36093, "ologist": 36094, "ologists": 36095, "ology": 36098, "olog\u00eda": 36087, "olu": 36101, "olute": 36102, "olysis": 36117, "olytic": 36118, "ol\u00edtico": 36072, "ol\u00f3gica": 36089, "ol\u00f3gico": 36092, "om": 36119, "oma": 36122, "omas": 36128, "omba": 36129, "ome": 36132, "omenzando": 36136, "omer": 36137, "omeric": 36138, "ometer": 36139, "ometric": 36140, "ometry": 36142, "omi": 36143, "omination": 36146, "omni": 36153, "omo": 36157, "omp": 36158, "omplementariedad": 36160, "omplimentary": 36161, "omy": 36164, "omycin": 36165, "on": 36166, "ona": 36173, "once": 36176, "onda": 36181, "ondo": 36184, "one": 36185, "ones": 36191, "ong": 36195, "oni": 36199, "onia": 36200, "onic": 36201, "online": 36204, "only": 36208, "onne": 36213, "onom\u00eda": 36214, "ons": 36215, "ony": 36223, "onym": 36224, "oo": 36226, "oodle": 36228, "ook": 36229, "ookie": 36230, "oom": 36231, "oon": 36233, "oop": 36234, "op": 36235, "opa": 36241, "opathic": 36244, "opathy": 36245, "opat\u00eda": 36246, "opcional": 36249, "ope": 36256, "open": 36260, "opera": 36273, "operaci\u00f3n": 36280, "operate": 36295, "operating": 36299, "operation": 36302, "operative": 36312, "operatively": 36314, "ophag": 36321, "ophil": 36322, "ophilic": 36323, "ophobia": 36324, "ophor": 36325, "opia": 36327, "opian": 36329, "oping": 36332, "oplastia": 36344, "oplasty": 36345, "opolis": 36346, "opoulos": 36362, "optic": 36388, "optim": 36396, "optional": 36424, "or": 36437, "ora": 36444, "oral": 36451, "ord": 36470, "orden": 36473, "ordenador": 36480, "order": 36489, "ordina": 36496, "ordinate": 36503, "ordination": 36504, "ore": 36505, "ores": 36512, "org": 36515, "organ": 36516, "organic": 36521, "organismo": 36540, "organiz": 36545, "organized": 36569, "org\u00e1nica": 36524, "org\u00e1nico": 36528, "ori": 36588, "oria": 36589, "orient": 36592, "orientaci\u00f3n": 36595, "orientated": 36607, "oriented": 36611, "ories": 36613, "origin": 36620, "original": 36624, "oro": 36650, "orprendentemente": 36654, "ort": 36658, "ortic": 36665, "orto": 36667, "ortodoxo": 36673, "ory": 36677, "os": 36678, "osa": 36682, "osamente": 36685, "osas": 36686, "osaurus": 36687, "oscopia": 36697, "oscopic": 36698, "oscopy": 36699, "ose": 36707, "osfera": 36710, "osh": 36711, "oshi": 36712, "osi": 36713, "osidad": 36714, "osina": 36716, "osine": 36717, "osis": 36718, "oso": 36722, "osomes": 36723, "osos": 36724, "osphere": 36725, "ospheric": 36726, "ossa": 36727, "osse": 36728, "osta": 36731, "oste": 36732, "ot": 36738, "ota": 36741, "ote": 36744, "oterapia": 36745, "oth": 36746, "other": 36747, "otherapy": 36752, "oti": 36757, "otic": 36758, "otoxin": 36774, "otras": 36777, "otro": 36780, "otropic": 36783, "otros": 36784, "ott": 36787, "otti": 36790, "otto": 36791, "ou": 36794, "ouche": 36797, "ouchsurfing": 36798, "oud": 36799, "ough": 36800, "ought": 36801, "oul": 36803, "oun": 36804, "ounce": 36805, "ound": 36806, "our": 36807, "ous": 36813, "out": 36815, "output": 36847, "outs": 36855, "ov": 36866, "ova": 36868, "over": 36879, "ovi": 36917, "ovic": 36918, "ovich": 36919, "ovo": 36922, "ovsk": 36923, "ovsky": 36924, "ow": 36928, "owed": 36931, "owitz": 36935, "own": 36937, "owned": 36940, "owner": 36943, "owski": 36948, "ox": 36949, "oxazol": 36955, "oxi": 36958, "oxidant": 36962, "oxidation": 36965, "oxide": 36969, "oxin": 36978, "oxina": 36979, "oxo": 36980, "oxy": 36981, "oxycarbonyl": 36983, "oxygen": 36984, "ox\u00edgeno": 36976, "oy": 36987, "oya": 36988, "oz": 36993, "p": 36997, "pa": 37001, "pac": 37011, "paced": 37016, "paciente": 37018, "pack": 37029, "package": 37032, "packed": 37041, "pad": 37051, "padre": 37060, "paga": 37070, "page": 37082, "pago": 37098, "paid": 37105, "painted": 37112, "pair": 37118, "pal": 37137, "pala": 37140, "palabra": 37143, "pan": 37195, "pantalla": 37229, "paper": 37251, "paquete": 37259, "par": 37265, "para": 37270, "paraben": 37275, "paragraph": 37293, "paramilitary": 37315, "parece": 37333, "pared": 37346, "pareja": 37349, "parent": 37353, "pari": 37363, "park": 37374, "paro": 37393, "part": 37410, "parte": 37416, "parti": 37423, "particle": 37460, "particular": 37467, "particularly": 37471, "particularmente": 37474, "partidista": 37482, "partir": 37490, "partisan": 37492, "party": 37507, "part\u00edcipe": 37457, "part\u00edcula": 37464, "part\u00edculas": 37477, "pas": 37510, "pasa": 37514, "paso": 37555, "pass": 37560, "pat": 37599, "pata": 37602, "patch": 37607, "path": 37623, "patient": 37638, "patri": 37651, "patrocin": 37668, "pat\u00eda": 37635, "pay": 37708, "payment": 37716, "pa\u00f1a": 37199, "pdf": 37739, "pe": 37743, "peace": 37751, "pec": 37773, "ped": 37781, "pedia": 37792, "pega": 37818, "pel": 37827, "pelled": 37846, "pel\u00edcula": 37834, "pen": 37856, "pendi": 37873, "pending": 37877, "penetra": 37880, "pens": 37904, "pension": 37922, "pent": 37928, "pentane": 37933, "pentano": 37934, "pentil": 37939, "pentyl": 37940, "people": 37941, "peptidase": 37953, "peptide": 37954, "pept\u00eddico": 37958, "peque\u00f1a": 37965, "peque\u00f1o": 37969, "per": 37973, "pera": 37979, "percent": 37983, "perfect": 38035, "performance": 38056, "performing": 38062, "perhaps": 38069, "peri": 38073, "period": 38081, "perishable": 38110, "permanent": 38132, "permeable": 38145, "permitir": 38172, "pero": 38184, "pers": 38203, "person": 38229, "persona": 38232, "personal": 38239, "pert": 38286, "per\u00edodo": 38101, "pes": 38309, "peso": 38326, "pet": 38342, "peta": 38346, "petit": 38357, "petition": 38359, "pez": 38378, "ph": 38383, "pha": 38390, "phan": 38394, "pharma": 38399, "pharmaceutical": 38401, "pharmaceutically": 38404, "phase": 38412, "phe": 38417, "phen": 38418, "phenol": 38420, "phenoxy": 38427, "phenyl": 38430, "phi": 38432, "phil": 38434, "philosoph": 38447, "pho": 38456, "phobia": 38458, "phobic": 38459, "phon": 38461, "phone": 38462, "phor": 38466, "phosphate": 38470, "phosphatidyl": 38472, "phospho": 38473, "phosphonate": 38475, "phosphoryl": 38479, "photo": 38481, "photograph": 38488, "phthalic": 38507, "phy": 38510, "phyl": 38511, "physi": 38514, "physical": 38515, "physics": 38523, "pi": 38531, "pia": 38538, "pic": 38546, "pica": 38550, "pick": 38558, "pico": 38565, "picture": 38569, "pid": 38576, "pida": 38577, "pido": 38585, "pie": 38587, "piece": 38591, "pier": 38610, "pies": 38624, "pieza": 38629, "pil": 38643, "pila": 38645, "pilaci\u00f3n": 38647, "pilar": 38648, "pilot": 38670, "pin": 38679, "pina": 38683, "pine": 38688, "ping": 38692, "pinned": 38698, "pino": 38699, "pio": 38718, "pipe": 38727, "piperazin": 38731, "piperidin": 38732, "pir": 38736, "pirazol": 38748, "piri": 38749, "piridin": 38750, "piridina": 38751, "pirimidin": 38752, "piro": 38754, "pirrol": 38755, "pirrolidin": 38756, "piste": 38766, "pit": 38772, "pita": 38775, "pixel": 38789, "pi\u00e9": 38590, "pl": 38800, "pla": 38805, "placa": 38811, "place": 38814, "placement": 38819, "plain": 38830, "plan": 38834, "plane": 38843, "plant": 38880, "planta": 38883, "plasia": 38906, "plasm": 38907, "plasma": 38909, "plast": 38915, "plastic": 38917, "plat": 38930, "plataforma": 38933, "plate": 38938, "platform": 38946, "platz": 38959, "play": 38961, "player": 38971, "plaza": 38983, "ple": 38991, "please": 38998, "plete": 39021, "plex": 39022, "plica": 39023, "plication": 39024, "plicity": 39025, "plic\u00f3": 39026, "pliegue": 39027, "ployment": 39035, "plug": 39037, "pluralidad": 39053, "plus": 39058, "pl\u00e1stico": 38924, "pm": 39066, "po": 39077, "poblaci\u00f3n": 39084, "poca": 39096, "pocalypse": 39098, "pocillo": 39100, "pocket": 39102, "pod": 39109, "poder": 39120, "podr\u00eda": 39142, "point": 39161, "pol": 39179, "polar": 39186, "pole": 39195, "poli": 39204, "polietilenglicol": 39226, "polimeriza": 39232, "polimerizaci\u00f3n": 39234, "polip\u00e9ptido": 39244, "polis": 39248, "political": 39260, "poll": 39275, "polvo": 39292, "poly": 39295, "polymer": 39308, "pol\u00edmero": 39236, "pol\u00edtica": 39256, "pon": 39335, "ponder": 39342, "pondremos": 39348, "pondr\u00eda": 39349, "pone": 39350, "poner": 39355, "pong": 39361, "pongamos": 39364, "pongo": 39368, "poniendo": 39371, "ponte": 39375, "pon\u00eda": 39369, "pon\u00edan": 39370, "pool": 39382, "poor": 39387, "pop": 39392, "popular": 39399, "population": 39406, "por": 39415, "porci\u00f3n": 39426, "porque": 39442, "port": 39448, "portador": 39461, "porte": 39473, "port\u00f3": 39482, "pos": 39500, "pose": 39505, "posed": 39508, "posible": 39525, "posicion": 39531, "posiciones": 39541, "posici\u00f3n": 39533, "posite": 39544, "position": 39545, "positiva": 39551, "positive": 39555, "positivo": 39559, "posito": 39562, "possibly": 39574, "post": 39577, "posterior": 39592, "pot": 39610, "potencia": 39619, "potent": 39628, "potential": 39632, "pound": 39643, "powder": 39654, "power": 39658, "powered": 39663, "pox": 39669, "pp": 39672, "ppa": 39676, "ppe": 39677, "pped": 39679, "ppen": 39680, "pper": 39681, "pping": 39682, "pple": 39683, "pplied": 39684, "ppy": 39687, "pr": 39688, "pra": 39693, "practi": 39696, "pre": 39747, "precedente": 39770, "preci": 39776, "preciamos": 39778, "precio": 39779, "preferably": 39861, "preferentemente": 39870, "preferiblemente": 39878, "preferida": 39881, "prehensi": 39922, "premise": 39944, "pren": 39949, "prendida": 39953, "prendiendo": 39954, "prendieron": 39955, "preparaci\u00f3n": 39974, "preparar": 39985, "prepared": 39997, "pres": 40008, "presa": 40010, "presencia": 40025, "present": 40028, "presenta": 40031, "presente": 40054, "preserved": 40072, "president": 40083, "presidente": 40090, "presion": 40098, "presiones": 40107, "presiva": 40109, "presivo": 40110, "presi\u00f3n": 40100, "presor": 40112, "press": 40114, "pressed": 40119, "pression": 40123, "pressure": 40124, "presuriza": 40168, "prevent": 40195, "pri": 40230, "price": 40235, "priced": 40239, "prima": 40253, "primary": 40263, "prime": 40271, "primer": 40274, "primera": 40278, "primido": 40286, "primiendo": 40287, "primir": 40288, "principal": 40307, "principalmente": 40313, "principio": 40320, "print": 40329, "prise": 40353, "private": 40380, "privileg": 40386, "pro": 40398, "probado": 40418, "problema": 40431, "procedimiento": 40453, "procesa": 40469, "procesador": 40473, "procesamiento": 40477, "proceso": 40484, "process": 40488, "processing": 40494, "produccion": 40515, "producci\u00f3n": 40516, "produce": 40520, "produced": 40523, "producing": 40537, "producir": 40539, "product": 40543, "production": 40548, "productive": 40553, "producto": 40560, "products": 40569, "profesional": 40585, "professional": 40598, "profile": 40614, "profit": 40619, "program": 40641, "programa": 40645, "programmed": 40659, "project": 40696, "proliferation": 40717, "proliferative": 40720, "promise": 40748, "proof": 40810, "prop": 40813, "propane": 40821, "propano": 40822, "propanol": 40823, "propelled": 40826, "propia": 40848, "propiedad": 40853, "propil": 40862, "propilenglicol": 40863, "propileno": 40864, "propilo": 40866, "propionate": 40868, "propionato": 40869, "propionic": 40870, "proporciona": 40877, "proporcionar": 40887, "propoxy": 40913, "propyl": 40925, "propylene": 40926, "prostaglandina": 40955, "prote": 40970, "protecci\u00f3n": 40975, "protect": 40979, "protected": 40983, "protection": 40988, "protector": 40993, "protegida": 41005, "protein": 41012, "prote\u00edna": 41016, "prov": 41050, "prove": 41051, "provide": 41074, "provisionamiento": 41107, "provisto": 41111, "provoking": 41125, "proyect": 41140, "proyecto": 41146, "pru": 41152, "prueba": 41157, "pr\u00e1ctica": 39701, "ps": 41165, "psia": 41176, "psis": 41192, "psy": 41194, "psychiatric": 41198, "psycho": 41202, "pt": 41214, "pter": 41217, "ptica": 41218, "ptico": 41219, "pto": 41220, "pu": 41222, "pub": 41229, "public": 41234, "publica": 41238, "publish": 41275, "puede": 41304, "pueden": 41309, "puedo": 41316, "puerta": 41323, "puerto": 41327, "puesta": 41336, "puestas": 41338, "puesto": 41339, "pul": 41344, "pulsa": 41364, "pulse": 41369, "pulsi\u00f3n": 41375, "pun": 41387, "punta": 41401, "punto": 41407, "pur": 41423, "pura": 41426, "purchase": 41429, "purpose": 41459, "pus": 41471, "pusieron": 41479, "pusimos": 41481, "puso": 41482, "put": 41485, "puta": 41488, "py": 41499, "pyr": 41506, "pyran": 41511, "pyrazol": 41512, "pyridin": 41514, "pyridine": 41515, "pyridyl": 41517, "pyrimidine": 41518, "pyrrol": 41520, "pyrrolidin": 41521, "pyrrolidone": 41522, "p\u00e1": 37007, "p\u00e1gina": 37091, "p\u00e1tico": 37636, "p\u00e9": 37749, "p\u00e9ptido": 37960, "p\u00e9rdida": 38008, "p\u00ed": 38537, "p\u00f3": 39083, "p\u00f3n": 39338, "p\u00f3ngase": 39366, "p\u00fa": 41228, "q": 41525, "qa": 41529, "qi": 41534, "qiao": 41536, "qu": 41540, "qua": 41544, "qual": 41554, "qualified": 41560, "quality": 41567, "quant": 41571, "quarter": 41587, "quat": 41596, "que": 41598, "quel": 41630, "quen": 41636, "quer": 41640, "quera": 41641, "ques": 41662, "quest": 41664, "question": 41668, "quet": 41678, "quette": 41679, "quez": 41681, "qui": 41682, "quia": 41688, "quien": 41694, "quiera": 41704, "quiere": 41708, "quil": 41722, "quilla": 41723, "quillo": 41724, "quin": 41737, "quina": 41739, "quinol": 41746, "quinoline": 41747, "quiri": 41754, "quiring": 41755, "quisition": 41761, "quista": 41763, "quit": 41765, "quita": 41767, "quite": 41772, "quito": 41775, "qui\u00e9n": 41698, "quo": 41784, "quot": 41787, "quote": 41791, "qu\u00e9": 41604, "qu\u00ed": 41687, "qu\u00edmica": 41726, "qu\u00edmico": 41731, "r": 41799, "ra": 41803, "rab": 41810, "rabi": 41817, "rac": 41822, "race": 41823, "rach": 41828, "raci\u00f3n": 41836, "rack": 41843, "racter": 41846, "rad": 41847, "rada": 41850, "radar": 41851, "radi": 41854, "radical": 41871, "rado": 41890, "raf": 41891, "rag": 41896, "rage": 41899, "ragon": 41901, "rah": 41902, "rai": 41903, "rail": 41910, "rain": 41918, "raise": 41929, "raising": 41933, "raj": 41936, "rak": 41939, "ral": 41942, "ram": 41950, "rama": 41955, "ran": 41974, "rance": 41980, "rand": 41984, "random": 41986, "rang": 41991, "range": 41992, "ranging": 41997, "rank": 42000, "ranking": 42003, "rano": 42008, "ransatlantic": 42009, "rant": 42013, "rante": 42014, "rap": 42017, "rar": 42039, "ras": 42048, "rash": 42058, "rat": 42067, "rata": 42071, "rate": 42075, "rated": 42078, "rating": 42092, "ration": 42098, "rato": 42102, "rau": 42108, "rav": 42111, "raw": 42115, "rax": 42118, "ray": 42119, "rays": 42127, "raz": 42129, "rb": 42142, "rc": 42144, "rca": 42147, "rce": 42149, "rch": 42150, "rchaeological": 42151, "rd": 42152, "rdoba": 42154, "re": 42155, "rea": 42162, "reacci\u00f3n": 42166, "reach": 42172, "reaching": 42177, "reactive": 42188, "reactor": 42194, "read": 42198, "readable": 42203, "reading": 42209, "ready": 42213, "real": 42224, "realiza": 42245, "realizaci\u00f3n": 42249, "rec": 42318, "receive": 42342, "receptor": 42364, "recht": 42386, "reci": 42387, "recipiente": 42428, "reci\u00f3": 42422, "recubrimiento": 42629, "recupera": 42642, "red": 42668, "reductasa": 42728, "reemeteo": 42747, "reestructuraci\u00f3n": 42756, "ref": 42757, "reference": 42764, "referencia": 42769, "referred": 42785, "reflect": 42809, "refundable": 42882, "reg": 42892, "region": 42928, "regional": 42935, "regiones": 42939, "registration": 42964, "registro": 42968, "regi\u00f3n": 42932, "reglamentaciones": 42978, "regulaci\u00f3n": 43001, "regular": 43010, "regulated": 43018, "regulation": 43021, "reivindicaciones": 43082, "reivindicaci\u00f3n": 43079, "rel": 43091, "relaci\u00f3n": 43094, "related": 43119, "relativamente": 43132, "release": 43153, "religioso": 43189, "religious": 43192, "rella": 43197, "rem": 43212, "remos": 43268, "ren": 43289, "rena": 43292, "rendi": 43305, "rendimiento": 43307, "renowned": 43333, "rent": 43335, "reo": 43353, "reparatory": 43373, "reported": 43446, "representa": 43466, "representaciones": 43471, "represented": 43492, "rep\u00e1rese": 43374, "requiere": 43558, "rero": 43576, "res": 43577, "rescind": 43592, "reserva": 43612, "resident": 43650, "residuo": 43664, "resina": 43675, "resistance": 43681, "resistant": 43684, "resistencia": 43686, "resistente": 43689, "resoluci\u00f3n": 43694, "resolution": 43698, "respect": 43728, "respectivamente": 43736, "respecto": 43743, "respond": 43766, "responsabilidad": 43785, "response": 43792, "responsibilities": 43796, "responsive": 43802, "respuesta": 43805, "ress": 43810, "rest": 43811, "restablecimiento": 43816, "resultado": 43878, "resultante": 43886, "ret": 43916, "retardante": 43929, "reti": 43938, "retino": 43945, "retinoi": 43946, "revestimiento": 44083, "reviewed": 44089, "revolution": 44137, "revolutionary": 44141, "rey": 44153, "rez": 44160, "reza": 44161, "rg": 44167, "rgano": 44169, "rge": 44171, "rgen": 44172, "rgi": 44173, "rgo": 44174, "rgu": 44176, "ri": 44193, "ria": 44200, "rial": 44204, "rian": 44205, "riana": 44207, "rias": 44208, "rib": 44210, "ric": 44218, "rica": 44220, "rice": 44227, "rich": 44230, "rick": 44240, "rico": 44242, "ricos": 44245, "rid": 44247, "rida": 44250, "ridden": 44251, "ride": 44252, "ridge": 44258, "rie": 44266, "ried": 44267, "riedad": 44268, "riel": 44270, "riendo": 44272, "rier": 44273, "ries": 44274, "rieta": 44279, "rif": 44280, "riff": 44281, "rig": 44284, "rigg": 44290, "right": 44291, "righteous": 44296, "rigid": 44302, "rik": 44313, "ril": 44314, "rill": 44315, "rilla": 44316, "rillo": 44317, "rim": 44318, "rin": 44322, "rina": 44325, "rine": 44330, "ring": 44332, "rink": 44337, "rino": 44338, "rio": 44344, "rios": 44351, "rip": 44355, "rique": 44362, "ris": 44365, "risco": 44368, "rise": 44369, "rish": 44374, "rising": 44375, "risk": 44378, "rist": 44383, "rista": 44384, "risti": 44385, "risto": 44386, "rit": 44388, "rita": 44390, "rite": 44392, "rito": 44395, "rium": 44401, "rius": 44402, "riva": 44404, "rix": 44418, "riya": 44419, "riz": 44421, "rizo": 44422, "rk": 44423, "rl": 44425, "rla": 44427, "rland": 44428, "rle": 44429, "rlo": 44430, "rlos": 44431, "rm": 44432, "rma": 44435, "rme": 44437, "rn": 44439, "rna": 44441, "rnos": 44444, "ro": 44445, "road": 44452, "robo": 44478, "robolin": 44481, "roc": 44492, "rock": 44501, "rod": 44512, "roducimos": 44535, "rog": 44537, "roga": 44538, "roid": 44546, "roide": 44547, "rojo": 44551, "rol": 44555, "roll": 44562, "rom": 44573, "roma": 44577, "ron": 44611, "rone": 44619, "ronic": 44620, "room": 44626, "root": 44633, "rop": 44638, "rope": 44641, "ros": 44644, "rosa": 44647, "rosca": 44652, "rose": 44656, "rot": 44664, "rou": 44692, "rough": 44695, "roulette": 44699, "round": 44701, "rous": 44706, "rov": 44714, "row": 44717, "rox": 44722, "roy": 44723, "rp": 44731, "rr": 44737, "rra": 44739, "rre": 44740, "rrell": 44741, "rrh": 44742, "rri": 44743, "rrington": 44744, "rro": 44745, "rry": 44746, "rs": 44747, "rse": 44750, "rshka": 44751, "rt": 44753, "rta": 44756, "rte": 44757, "ru": 44759, "rub": 44765, "ruc": 44780, "ruct": 44781, "rug": 44790, "ruga": 44791, "rule": 44802, "rum": 44812, "run": 44824, "runner": 44827, "running": 44832, "rup": 44837, "rupt": 44839, "rus": 44845, "rush": 44849, "rust": 44863, "ruta": 44870, "rv": 44880, "ry": 44884, "ryl": 44889, "r\u00e1": 41809, "r\u00e1n": 41978, "r\u00e1s": 42052, "r\u00e9": 42161, "r\u00e9is": 43071, "r\u00ed": 44199, "r\u00eda": 44202, "r\u00edan": 44206, "r\u00edas": 44209, "r\u00edn": 44324, "r\u00edo": 44347, "r\u00f3": 44451, "r\u00f3n": 44614, "s": 44892, "sa": 44897, "sac": 44942, "saccharide": 44950, "sacrific": 44967, "sac\u00e1rido": 44948, "safe": 44990, "safety": 45000, "safortunadamente": 45003, "sai": 45014, "sal": 45038, "sale": 45057, "salicylic": 45071, "salic\u00edlico": 45070, "salida": 45072, "salt": 45105, "salud": 45113, "sam": 45141, "sample": 45151, "san": 45159, "sangra": 45195, "sangre": 45197, "sar": 45239, "sarcoma": 45247, "sas": 45252, "satellite": 45264, "saturada": 45287, "sat\u00e9lite": 45260, "saurus": 45306, "saving": 45316, "say": 45328, "sburg": 45334, "sca": 45339, "scale": 45344, "scape": 45361, "scar": 45362, "scat": 45370, "scence": 45377, "scendencia": 45378, "scendiente": 45379, "scentralizaci\u00f3n": 45387, "sch": 45388, "school": 45416, "science": 45429, "scientific": 45435, "sco": 45445, "scope": 45449, "scopio": 45454, "screen": 45482, "scribe": 45496, "scribed": 45498, "scribiendo": 45501, "scribieron": 45502, "scribimos": 45503, "scribing": 45504, "scribi\u00f3": 45505, "scrib\u00ed": 45500, "script": 45506, "scription": 45509, "scrito": 45514, "scr\u00edbase": 45495, "scr\u00edbe": 45497, "sc\u00f3pica": 45452, "sc\u00f3pico": 45453, "sdorf": 45530, "sdowne": 45531, "se": 45533, "sea": 45543, "seal": 45549, "search": 45563, "season": 45571, "seat": 45577, "sec": 45589, "seca": 45594, "secci\u00f3n": 45601, "second": 45608, "secret": 45620, "section": 45644, "sectional": 45647, "sector": 45650, "secuencia": 45657, "security": 45678, "see": 45693, "seed": 45697, "seekers": 45705, "seguido": 45731, "seguir": 45738, "segunda": 45748, "segundo": 45751, "seguridad": 45762, "seguro": 45765, "seg\u00fan": 45744, "seg\u00farate": 45760, "seg\u00farese": 45761, "sel": 45776, "selecciona": 45784, "seleccionado": 45789, "selecci\u00f3n": 45781, "selective": 45810, "self": 45820, "sell": 45827, "selling": 45835, "semitism": 45874, "sen": 45876, "sensibiliza": 45937, "sensible": 45939, "sensiti": 45943, "sensitive": 45944, "sensitivity": 45946, "sensor": 45949, "sentido": 45972, "sentimiento": 45977, "sentir": 45982, "separaci\u00f3n": 45994, "separado": 45998, "sequence": 46034, "ser": 46042, "serie": 46075, "serious": 46082, "serv": 46095, "serve": 46100, "server": 46104, "service": 46112, "servicio": 46122, "servidor": 46131, "ses": 46142, "sesperadamente": 46149, "session": 46150, "set": 46154, "setting": 46163, "sex": 46201, "sexual": 46209, "sey": 46219, "se\u00f1al": 45881, "se\u00f1or": 45916, "sfera": 46225, "sforEveryone": 46226, "sgraciadamente": 46228, "sh": 46230, "sha": 46235, "shadow": 46244, "shaft": 46248, "shake": 46252, "shan": 46268, "shape": 46275, "shaped": 46278, "share": 46282, "sharing": 46292, "shaw": 46309, "she": 46312, "shed": 46318, "sheet": 46323, "shell": 46332, "sher": 46345, "shi": 46352, "shift": 46359, "shima": 46367, "shin": 46368, "shing": 46371, "ship": 46374, "shire": 46385, "shirt": 46387, "shock": 46395, "shoot": 46405, "shop": 46411, "shore": 46420, "short": 46424, "shot": 46437, "should": 46441, "show": 46452, "shown": 46463, "shu": 46476, "si": 46487, "sia": 46497, "sibilidad": 46501, "sic": 46504, "sid": 46509, "side": 46513, "sided": 46517, "siderablemente": 46518, "sie": 46525, "siempre": 46531, "sign": 46570, "signed": 46583, "significa": 46585, "significant": 46593, "siguiente": 46616, "sil": 46623, "silane": 46626, "silano": 46627, "silica": 46639, "silicate": 46641, "silicato": 46643, "silicon": 46647, "siloxane": 46660, "siloxano": 46661, "silver": 46664, "silyl": 46670, "sim": 46671, "similar": 46683, "similares": 46686, "simo": 46695, "sin": 46743, "since": 46751, "sing": 46776, "sino": 46795, "sio": 46820, "sion": 46821, "sional": 46824, "siones": 46825, "sionista": 46826, "sis": 46848, "siste": 46852, "sistema": 46853, "sistem\u00e1ticamente": 46861, "sistido": 46868, "sistieron": 46869, "sistimos": 46870, "sisti\u00f3": 46871, "site": 46874, "sitio": 46883, "situado": 46902, "sixth": 46917, "size": 46921, "sized": 46924, "si\u00f3n": 46823, "sk": 46928, "ska": 46932, "skaya": 46937, "ski": 46945, "skilled": 46952, "skip": 46959, "sky": 46966, "slav": 46989, "sleep": 46997, "sleeve": 47003, "small": 47054, "smart": 47060, "smith": 47078, "smoking": 47085, "so": 47123, "sobre": 47139, "social": 47166, "sodium": 47212, "soever": 47215, "soft": 47229, "software": 47236, "sol": 47245, "sole": 47270, "solicited": 47295, "solid": 47300, "solida": 47303, "solo": 47325, "soluble": 47341, "soluciones": 47351, "soluci\u00f3n": 47345, "solution": 47355, "solvent": 47366, "solvente": 47368, "solving": 47371, "som": 47373, "some": 47384, "something": 47399, "sometimes": 47408, "son": 47419, "songwriter": 47437, "soporte": 47467, "sor": 47471, "sorb": 47474, "sorbent": 47475, "sorption": 47488, "sorted": 47495, "sos": 47500, "sound": 47528, "source": 47536, "south": 47542, "sp": 47567, "space": 47575, "speaking": 47611, "spec": 47618, "special": 47621, "specific": 47641, "spect": 47658, "speed": 47676, "sphere": 47690, "spi": 47694, "spinal": 47711, "spira": 47716, "spiraci\u00f3n": 47717, "spire": 47720, "spirit": 47721, "spiritual": 47725, "spoke": 47745, "sponsored": 47754, "spor": 47762, "sports": 47768, "spot": 47771, "spread": 47786, "spring": 47791, "sproporcionada": 47803, "sproportionately": 47804, "spyware": 47810, "square": 47820, "ssa": 47834, "ssel": 47837, "sseldorf": 47838, "sson": 47841, "st": 47842, "sta": 47848, "stad": 47867, "stadt": 47870, "stage": 47874, "stakeholder": 47889, "stan": 47898, "stand": 47901, "standard": 47905, "standing": 47913, "star": 47923, "start": 47936, "stat": 47950, "state": 47952, "static": 47962, "statin": 47966, "station": 47968, "stay": 47991, "ste": 47998, "stead": 48002, "stein": 48021, "steis": 48023, "sten": 48029, "step": 48031, "ster": 48041, "steroid": 48056, "steroidal": 48059, "sti": 48067, "stick": 48069, "stig": 48081, "still": 48083, "stin": 48094, "stitucion": 48104, "stituci\u00f3n": 48105, "stituida": 48106, "stituido": 48107, "stituir": 48108, "stitute": 48109, "stituto": 48110, "stituye": 48111, "stituy\u00f3": 48112, "sto": 48114, "stock": 48117, "ston": 48127, "stone": 48128, "stood": 48132, "stop": 48135, "store": 48145, "storm": 48153, "story": 48157, "str": 48164, "stra": 48168, "stral": 48178, "stranded": 48181, "stration": 48204, "stre": 48211, "stream": 48214, "street": 48220, "strength": 48225, "stress": 48235, "stretch": 48241, "stri": 48247, "stricken": 48248, "strict": 48249, "string": 48258, "stro": 48270, "stroke": 48272, "strom": 48276, "strong": 48277, "stru": 48284, "strucci\u00f3n": 48285, "struct": 48287, "structur": 48288, "structure": 48291, "studi": 48314, "studio": 48318, "study": 48323, "stuff": 48327, "style": 48336, "styrene": 48344, "st\u00e1tica": 47964, "st\u00e1tico": 47965, "su": 48346, "sub": 48358, "subject": 48395, "substancialmente": 48464, "substantial": 48466, "substituted": 48475, "success": 48506, "succinate": 48517, "succ\u00ednico": 48518, "such": 48536, "sufficiency": 48589, "sufficient": 48590, "suficiente": 48594, "suit": 48635, "suite": 48643, "sujeto": 48660, "suke": 48663, "sul": 48664, "sulfa": 48668, "sulfate": 48669, "sulfato": 48671, "sulfo": 48674, "sulfona": 48675, "sulfonate": 48676, "sulfonato": 48677, "sulfonic": 48678, "sulfonil": 48680, "sulfonilo": 48681, "sulfonyl": 48682, "sulfur": 48684, "sulf\u00f3nico": 48679, "sum": 48693, "sumi": 48704, "sumieron": 48706, "suministra": 48707, "sunrise": 48743, "super": 48753, "superficie": 48768, "superior": 48775, "supply": 48844, "support": 48848, "sur": 48880, "sure": 48888, "surf": 48894, "surface": 48897, "surgery": 48910, "surgical": 48913, "sus": 48963, "suspensi\u00f3n": 48998, "sustancia": 49012, "sustancialmente": 49016, "sustituido": 49028, "sville": 49048, "sweet": 49075, "sweetened": 49078, "sy": 49110, "symmetric": 49126, "synaptic": 49143, "sync": 49144, "synchronous": 49152, "synthesis": 49168, "synthetic": 49173, "system": 49184, "s\u00e9": 45539, "s\u00ed": 46493, "s\u00edntesis": 46805, "s\u00f3dico": 47209, "s\u00f3lida": 47304, "s\u00f3lido": 47317, "s\u00f3lo": 47329, "t": 49194, "ta": 49198, "tab": 49205, "taba": 49208, "tabilis": 49217, "tabilization": 49218, "table": 49225, "tac": 49241, "taca": 49243, "tach": 49244, "taci\u00f3n": 49245, "tactic": 49250, "tada": 49260, "tadas": 49261, "tado": 49262, "tados": 49263, "tag": 49264, "tage": 49268, "tai": 49275, "tail": 49277, "tain": 49286, "taining": 49288, "tainment": 49289, "take": 49297, "taking": 49304, "tal": 49307, "tale": 49315, "tales": 49324, "talk": 49329, "talla": 49339, "talo": 49348, "tam": 49350, "tama\u00f1o": 49355, "tambi\u00e9n": 49362, "tamiento": 49367, "tamos": 49370, "tan": 49377, "tana": 49381, "tancia": 49382, "tando": 49384, "tang": 49386, "tank": 49393, "tano": 49398, "tante": 49403, "tanto": 49404, "tapa": 49412, "tape": 49416, "tar": 49428, "target": 49441, "taria": 49447, "tario": 49454, "tarjeta": 49455, "tarse": 49461, "tas": 49464, "tasa": 49466, "tatami": 49480, "tate": 49481, "tation": 49482, "tau": 49487, "tax": 49495, "tch": 49514, "te": 49517, "tea": 49525, "team": 49539, "tear": 49545, "teau": 49553, "tec": 49554, "teca": 49557, "tech": 49558, "technical": 49564, "technology": 49580, "tecnolog\u00eda": 49598, "ted": 49608, "teen": 49612, "tejido": 49628, "tek": 49632, "tel": 49634, "tele": 49639, "tell": 49675, "tella": 49679, "telli": 49680, "tel\u00e9fono": 49652, "tem": 49683, "tema": 49686, "temp": 49703, "temperatura": 49710, "temperature": 49714, "temporada": 49733, "temporal": 49737, "ten": 49751, "tend": 49758, "tendemos": 49761, "tender": 49766, "tendida": 49769, "tendido": 49770, "tendiendo": 49771, "tending": 49772, "tendi\u00f3": 49773, "tendr\u00e1": 49776, "tenedor": 49787, "tener": 49793, "tenga": 49797, "tengan": 49801, "teniendo": 49816, "tens": 49826, "tension": 49833, "tensi\u00f3n": 49835, "tent": 49839, "tente": 49846, "tentimes": 49848, "ten\u00eda": 49808, "tepec": 49859, "ter": 49860, "tera": 49864, "terapia": 49870, "terap\u00e9uticamente": 49867, "tercer": 49874, "terdisciplinary": 49888, "tereftalato": 49889, "tergovernmental": 49892, "tergubernamental": 49893, "teri": 49894, "teria": 49895, "terinstitucional": 49898, "terio": 49899, "terior": 49900, "term": 49901, "termina": 49911, "terminal": 49917, "terminus": 49942, "tern": 49950, "terna": 49951, "tero": 49953, "teroperabilidad": 49954, "teros": 49955, "terra": 49957, "terre": 49967, "terrorism": 49997, "terrorismo": 50001, "terrorist": 50004, "ters": 50011, "ter\u00eda": 49896, "tes": 50014, "tesis": 50015, "test": 50021, "tested": 50029, "tetra": 50051, "tetrafluoro": 50054, "tetrahidro": 50055, "tetrahidrofurano": 50056, "tetrahydro": 50057, "tex": 50059, "text": 50063, "texto": 50071, "te\u00edsmo": 49625, "th": 50082, "tha": 50088, "thal": 50092, "than": 50095, "thank": 50098, "that": 50109, "the": 50115, "their": 50128, "then": 50136, "ther": 50148, "therapeutic": 50150, "therapy": 50156, "there": 50159, "therm": 50177, "thermal": 50178, "these": 50190, "they": 50195, "thi": 50200, "thiazol": 50203, "thing": 50215, "think": 50220, "thinking": 50224, "thio": 50229, "third": 50232, "thirds": 50236, "this": 50244, "tho": 50249, "thopaedic": 50254, "thor": 50255, "thorn": 50257, "those": 50262, "though": 50268, "threatening": 50290, "three": 50294, "throp": 50313, "through": 50315, "thus": 50335, "thy": 50340, "thyroid": 50343, "ti": 50345, "tia": 50353, "tian": 50356, "tiazol": 50359, "tic": 50367, "tica": 50370, "tical": 50372, "ticamente": 50373, "ticas": 50374, "tici": 50375, "tico": 50381, "ticos": 50383, "tics": 50384, "tida": 50385, "tidine": 50388, "tido": 50389, "tidos": 50390, "tie": 50392, "tiempo": 50396, "tienda": 50400, "tiende": 50405, "tiendo": 50408, "tiene": 50409, "tienen": 50413, "tier": 50419, "tieron": 50423, "tierra": 50424, "ties": 50428, "tif": 50430, "tific": 50432, "tig": 50434, "tight": 50437, "tik": 50445, "til": 50446, "tile": 50447, "tiles": 50450, "till": 50452, "tilla": 50455, "tillas": 50456, "tillo": 50458, "tilo": 50459, "tim": 50461, "tima": 50463, "time": 50466, "timo": 50481, "tin": 50485, "tina": 50490, "tine": 50492, "ting": 50493, "tini": 50496, "tinib": 50497, "tino": 50499, "tinta": 50500, "tio": 50505, "tion": 50509, "tional": 50511, "tions": 50512, "tip": 50513, "tipo": 50525, "tique": 50532, "tir": 50534, "tira": 50536, "tis": 50555, "tismo": 50557, "tista": 50561, "tistas": 50562, "tit": 50564, "tita": 50566, "titis": 50573, "title": 50574, "titled": 50577, "titude": 50580, "tiv": 50594, "tiva": 50595, "tivamente": 50597, "tivas": 50598, "tive": 50599, "tividad": 50600, "tivismo": 50601, "tivista": 50602, "tivo": 50603, "tivos": 50605, "tiza": 50606, "tizaci\u00f3n": 50607, "tizar": 50608, "ti\u00f3": 50508, "tl": 50609, "tlan": 50611, "tland": 50613, "tle": 50615, "tling": 50616, "tl\u00e1n": 50612, "tman": 50619, "to": 50622, "todav\u00eda": 50652, "todo": 50661, "todos": 50667, "together": 50672, "tol": 50684, "tolerance": 50689, "tolerancia": 50691, "tolerant": 50693, "tology": 50704, "tolog\u00eda": 50700, "toluene": 50705, "tolueno": 50707, "tol\u00f3gica": 50701, "tol\u00f3gico": 50702, "tom": 50710, "toma": 50714, "tomo": 50741, "tom\u00eda": 50739, "ton": 50747, "tona": 50751, "tone": 50752, "tones": 50757, "too": 50774, "tool": 50778, "tooth": 50786, "top": 50790, "topic": 50796, "topo": 50805, "tor": 50807, "tores": 50814, "tori": 50815, "toria": 50816, "torial": 50817, "torias": 50818, "torio": 50819, "torios": 50820, "tormenta": 50822, "torneysDelivered": 50832, "tors": 50849, "tory": 50861, "tos": 50863, "tosa": 50866, "tosis": 50869, "total": 50873, "tou": 50883, "touch": 50885, "tour": 50899, "tourism": 50903, "tov": 50914, "town": 50923, "tox": 50930, "toxic": 50931, "toxina": 50942, "tr": 50951, "tra": 50957, "trabaja": 50965, "trabajo": 50987, "trac": 50995, "traccion": 50996, "tracci\u00f3n": 50997, "track": 51005, "tractor": 51018, "trada": 51021, "trade": 51022, "traditional": 51044, "traffic": 51067, "traigan": 51092, "train": 51100, "trained": 51103, "training": 51108, "traje": 51115, "tral": 51121, "tran": 51130, "trans": 51139, "transfect": 51170, "transfer": 51174, "transferasa": 51177, "transferase": 51178, "transferencia": 51179, "transformaciones": 51197, "transmisi\u00f3n": 51247, "transport": 51283, "transportador": 51288, "transversal": 51300, "trap": 51305, "tras": 51309, "tratamiento": 51339, "trato": 51352, "traumatic": 51358, "travel": 51363, "trav\u00e9s": 51386, "tra\u00eddo": 51088, "tre": 51398, "treat": 51410, "treated": 51413, "treatment": 51418, "tree": 51425, "tres": 51454, "tri": 51459, "trial": 51465, "triazol": 51474, "tribu": 51479, "tributing": 51492, "tribution": 51493, "tribuyeron": 51495, "tribuy\u00f3": 51496, "tric": 51497, "trica": 51498, "trifluoro": 51509, "trifluoromethyl": 51511, "trifluorometil": 51512, "trimetil": 51528, "trina": 51531, "trip": 51537, "tripsina": 51547, "trix": 51565, "triz": 51566, "tro": 51567, "trointestinales": 51573, "trol": 51575, "trom": 51578, "tron": 51582, "tronic": 51585, "trop": 51589, "troph": 51591, "trophic": 51592, "tropic": 51595, "tropo": 51602, "tru": 51618, "truc": 51621, "truck": 51622, "tructiva": 51629, "trude": 51630, "true": 51632, "trusion": 51646, "trust": 51647, "truth": 51654, "try": 51659, "tryptophan": 51663, "tr\u00e9": 51401, "tr\u00f3": 51571, "tr\u00f3n": 51583, "tr\u00f3pica": 51597, "tr\u00f3pico": 51601, "ts": 51664, "tsu": 51668, "tt": 51671, "tta": 51673, "tte": 51674, "tten": 51675, "tter": 51676, "tti": 51677, "tting": 51678, "ttle": 51679, "tto": 51680, "tty": 51681, "tu": 51682, "tua": 51692, "tube": 51695, "tubo": 51703, "tula": 51715, "tum": 51721, "tumor": 51724, "tun": 51732, "tune": 51735, "tuoso": 51749, "tur": 51750, "tura": 51753, "ture": 51766, "turismo": 51771, "turn": 51792, "tus": 51809, "tuve": 51817, "tuvieron": 51823, "tuvimos": 51826, "tuviste": 51828, "tuvi\u00e9ramos": 51821, "tuvo": 51829, "tv": 51833, "tw": 51837, "two": 51859, "ty": 51865, "typ": 51869, "type": 51870, "typical": 51876, "typically": 51879, "tz": 51892, "t\u00e1": 49204, "t\u00e1bamos": 49211, "t\u00e1n": 49380, "t\u00e1ndose": 49385, "t\u00e9": 49523, "t\u00e9cnica": 49588, "t\u00e9cnico": 49593, "t\u00e9n": 49755, "t\u00e9rico": 49897, "t\u00e9rmica": 49907, "t\u00e9rmico": 49909, "t\u00e9rmino": 49934, "t\u00ed": 50351, "t\u00eda": 50354, "t\u00edn": 50489, "t\u00edpica": 50516, "t\u00edpico": 50521, "t\u00edsimo": 50556, "t\u00edtulo": 50589, "t\u00f3": 50628, "t\u00f3logo": 50703, "t\u00f3n": 50750, "t\u00f3nica": 50761, "t\u00f3nico": 50762, "t\u00f3pica": 50799, "t\u00f3pico": 50802, "t\u00f3xico": 50938, "t\u00fa": 51688, "u": 51894, "ua": 51899, "ual": 51904, "uan": 51906, "uar": 51907, "uario": 51908, "uation": 51909, "ub": 51910, "uba": 51912, "ube": 51913, "uber": 51914, "ubi": 51916, "ubic": 51917, "uble": 51933, "uc": 51935, "uca": 51938, "ucci": 51939, "uce": 51940, "uch": 51941, "uche": 51942, "uchi": 51943, "ucho": 51944, "uci": 51945, "ucin": 51947, "uck": 51948, "uco": 51950, "ud": 51954, "uda": 51957, "uddle": 51958, "ude": 51959, "udge": 51960, "udging": 51961, "udi": 51962, "udo": 51963, "ue": 51964, "uel": 51968, "uela": 51969, "uelo": 51970, "uer": 51971, "uf": 51972, "uff": 51974, "ug": 51976, "uga": 51978, "uge": 51980, "uggle": 51981, "ugh": 51982, "ugu": 51984, "uh": 51985, "ui": 51988, "uit": 51990, "uj": 51991, "uja": 51992, "uk": 51993, "uka": 51996, "uke": 51997, "uki": 51998, "uko": 51999, "uku": 52002, "ul": 52003, "ula": 52008, "ulaci\u00f3n": 52010, "ular": 52011, "ulating": 52013, "ulation": 52014, "ulatory": 52015, "ule": 52018, "ules": 52019, "ulf": 52020, "uli": 52021, "ulin": 52022, "ulina": 52023, "ulla": 52024, "ullah": 52025, "ulli": 52026, "ulo": 52027, "ulous": 52028, "ult": 52029, "ulu": 52054, "um": 52055, "uma": 52058, "umab": 52060, "umba": 52061, "umber": 52062, "umbo": 52065, "ume": 52068, "umen": 52069, "umerous": 52070, "umi": 52071, "uminous": 52072, "ummy": 52073, "ump": 52074, "un": 52075, "una": 52082, "unc": 52109, "unch": 52114, "unconstitutional": 52125, "und": 52131, "unda": 52133, "under": 52135, "understand": 52153, "une": 52176, "ung": 52205, "uni": 52209, "unidad": 52223, "unidades": 52226, "unit": 52272, "univers": 52286, "uni\u00f3n": 52262, "unk": 52311, "uno": 52336, "unsaturated": 52367, "unt": 52381, "until": 52384, "unto": 52387, "uosa": 52401, "uous": 52402, "up": 52403, "upon": 52432, "upper": 52435, "ups": 52440, "ur": 52450, "ura": 52454, "ural": 52456, "urb": 52461, "urban": 52462, "ure": 52472, "urea": 52474, "ured": 52476, "urge": 52481, "urgi": 52492, "uri": 52495, "uria": 52496, "uric": 52497, "uring": 52503, "uristic": 52504, "uro": 52507, "urra": 52508, "urren": 52509, "uru": 52511, "ury": 52513, "us": 52514, "usa": 52520, "usando": 52537, "usculoskeletal": 52550, "use": 52553, "used": 52558, "user": 52566, "ush": 52576, "ushi": 52577, "using": 52578, "uso": 52581, "uspicious": 52587, "usse": 52588, "ussi": 52589, "ust": 52591, "usta": 52592, "usted": 52593, "usually": 52600, "usuario": 52606, "ut": 52614, "uta": 52617, "utch": 52619, "ute": 52620, "uted": 52622, "uten": 52623, "uter": 52627, "uth": 52632, "uti": 52633, "util": 52634, "utiliza": 52653, "utilizaci\u00f3n": 52658, "utilizado": 52663, "utilizando": 52668, "utilizar": 52671, "uting": 52684, "uto": 52686, "utodeterminaci\u00f3n": 52687, "utter": 52690, "utz": 52693, "uv": 52696, "uve": 52700, "uvi": 52701, "uvimos": 52702, "ux": 52703, "uy": 52705, "uya": 52706, "uz": 52707, "uzhou": 52710, "u\u00f1a": 52088, "u\u00f3rum": 52400, "v": 52711, "va": 52715, "vac": 52722, "vac\u00edo": 52746, "vada": 52756, "vado": 52757, "val": 52766, "vale": 52772, "valencia": 52775, "valent": 52779, "valente": 52780, "vali": 52787, "valid": 52789, "valor": 52817, "valu": 52828, "valua": 52829, "value": 52832, "van": 52851, "vana": 52854, "vant": 52869, "vantage": 52870, "vapor": 52872, "var": 52875, "vari": 52879, "variable": 52884, "vas": 52923, "vascular": 52927, "vat": 52937, "vation": 52941, "ve": 52949, "vea": 52956, "vector": 52973, "ved": 52979, "vehicle": 53002, "veh\u00edculo": 53008, "vel": 53025, "vela": 53028, "vell": 53034, "velo": 53036, "velocidad": 53038, "ven": 53049, "vendr\u00e1": 53075, "vendr\u00eda": 53077, "venga": 53092, "venida": 53100, "venido": 53104, "venir": 53106, "vent": 53110, "venta": 53113, "ventaja": 53116, "ventricular": 53134, "ventura": 53136, "venture": 53138, "ver": 53146, "vera": 53152, "verb": 53162, "verdad": 53167, "verde": 53175, "vers": 53206, "versa": 53208, "verse": 53216, "version": 53221, "versiones": 53227, "versi\u00f3n": 53224, "verso": 53230, "vert": 53232, "vertebrado": 53233, "vertebral": 53235, "vertical": 53240, "vertido": 53247, "very": 53251, "ves": 53256, "vest": 53262, "vet": 53274, "vey": 53288, "vez": 53289, "vi": 53292, "via": 53299, "vian": 53328, "vic": 53341, "vice": 53343, "vici": 53351, "vid": 53372, "vida": 53373, "video": 53377, "videoconferencia": 53384, "vie": 53393, "viene": 53403, "vier": 53412, "vierte": 53417, "view": 53424, "vig": 53437, "vigil": 53443, "vik": 53463, "vil": 53467, "vill": 53470, "villa": 53471, "ville": 53482, "vin": 53487, "vina": 53490, "vinci": 53495, "vine": 53508, "ving": 53516, "vinil": 53520, "vinilpirrolidona": 53523, "vino": 53524, "vinyl": 53530, "vinylpyrrolidone": 53533, "vio": 53534, "violence": 53552, "violent": 53557, "vious": 53566, "vir": 53568, "viral": 53570, "virus": 53594, "viruses": 53597, "vis": 53599, "visible": 53614, "vision": 53618, "visit": 53628, "visita": 53631, "visi\u00f3n": 53622, "visor": 53654, "vista": 53656, "visual": 53666, "visualiza": 53670, "vit": 53679, "vita": 53681, "vitamin": 53688, "viv": 53698, "viva": 53699, "vive": 53704, "vivi": 53708, "vivir": 53725, "vi\u00e9rtete": 53418, "vi\u00f3": 53537, "vo": 53736, "voc": 53742, "vocation": 53750, "voice": 53758, "vol": 53765, "vola": 53770, "volatile": 53778, "voltage": 53797, "volucion": 53803, "voluci\u00f3n": 53804, "volume": 53805, "volumen": 53808, "voluntary": 53823, "volution": 53829, "volv": 53830, "volver": 53832, "volviendo": 53841, "volvi\u00f3": 53846, "von": 53854, "vor": 53856, "vora": 53857, "vos": 53860, "voz": 53888, "vre": 53898, "vu": 53900, "vue": 53902, "vuelta": 53911, "vuelto": 53915, "vuelva": 53917, "vuelve": 53920, "vy": 53938, "v\u00e1": 52721, "v\u00e1lvula": 52841, "v\u00e9": 52955, "v\u00e9anse": 52962, "v\u00e9ase": 52963, "v\u00ed": 53298, "v\u00eda": 53303, "v\u00f3": 53741, "w": 53939, "wa": 53943, "wah": 53955, "wait": 53959, "wake": 53968, "wal": 53972, "wald": 53974, "walk": 53977, "wall": 53986, "wan": 54001, "wang": 54006, "war": 54014, "ward": 54019, "ware": 54024, "warm": 54028, "was": 54057, "wash": 54060, "washing": 54065, "watch": 54076, "water": 54085, "watt": 54096, "wave": 54098, "way": 54107, "ways": 54112, "we": 54118, "weapon": 54135, "wear": 54139, "weather": 54145, "web": 54150, "wed": 54165, "week": 54171, "ween": 54180, "wei": 54181, "weight": 54186, "wel": 54193, "well": 54208, "wen": 54217, "went": 54220, "wer": 54222, "were": 54223, "west": 54229, "western": 54233, "what": 54248, "wheel": 54260, "when": 54267, "where": 54273, "whether": 54284, "whi": 54289, "which": 54291, "while": 54295, "white": 54311, "who": 54316, "why": 54332, "wi": 54336, "wich": 54341, "wick": 54343, "wide": 54347, "width": 54360, "wife": 54365, "wig": 54372, "wil": 54384, "wild": 54386, "will": 54393, "win": 54405, "wind": 54410, "wing": 54430, "winning": 54437, "wire": 54452, "wise": 54463, "witch": 54473, "with": 54476, "within": 54486, "without": 54489, "witt": 54500, "wl": 54505, "wn": 54507, "wo": 54508, "wolf": 54515, "woman": 54520, "women": 54524, "won": 54528, "woo": 54540, "wood": 54541, "word": 54552, "wordpress": 54556, "work": 54561, "worker": 54567, "workers": 54569, "working": 54574, "works": 54582, "world": 54591, "worm": 54598, "worth": 54613, "worthiness": 54616, "worthy": 54619, "would": 54621, "woven": 54629, "write": 54649, "writer": 54652, "writing": 54657, "written": 54661, "ws": 54670, "www": 54682, "wy": 54684, "wyn": 54687, "x": 54690, "xa": 54694, "xantina": 54695, "xceptuando": 54698, "xe": 54700, "xi": 54706, "xia": 54710, "xica": 54715, "xico": 54716, "xido": 54717, "xil": 54720, "xilo": 54722, "xima": 54723, "xo": 54731, "xplore": 54735, "xplor\u00e1": 54734, "xx": 54741, "xxx": 54745, "xy": 54747, "y": 54749, "ya": 54753, "yama": 54763, "yan": 54766, "yana": 54768, "yang": 54769, "yard": 54773, "ye": 54782, "year": 54788, "yellow": 54796, "yeong": 54800, "yer": 54801, "yes": 54803, "yev": 54811, "yi": 54812, "yield": 54814, "ying": 54821, "yl": 54822, "ylated": 54823, "yloxy": 54824, "ym": 54825, "yn": 54826, "yne": 54827, "yo": 54828, "yon": 54843, "you": 54850, "your": 54860, "yr": 54874, "ys": 54875, "yu": 54876, "yuan": 54878, "yun": 54885, "z": 54888, "za": 54892, "zada": 54897, "zado": 54898, "zal": 54900, "zan": 54904, "zando": 54907, "zano": 54909, "zar": 54919, "zas": 54924, "zawa": 54925, "zca": 54926, "ze": 54927, "zed": 54933, "zel": 54934, "zen": 54939, "zer": 54943, "zero": 54944, "zh": 54949, "zhi": 54953, "zhou": 54955, "zi": 54958, "zia": 54960, "zier": 54962, "zin": 54966, "zing": 54970, "zio": 54971, "zione": 54973, "zir": 54979, "zo": 54981, "zol": 54987, "zon": 54991, "zona": 54993, "zone": 54997, "zones": 55000, "zos": 55009, "zu": 55010, "zuela": 55013, "zy": 55018, "zz": 55020, "zza": 55021, "zzi": 55022, "zzle": 55023, "zzo": 55024, "zzy": 55025, "z\u00f3": 54984, "z\u00f3n": 54992, "\u00a1": 17, "\u00ab": 62, "\u00b0": 0, "\u00bb": 63, "\u00bb)": 66, "\u00bb,": 64, "\u00bb.": 65, "\u00bf": 23, "\u00bf1": 279, "\u00c1": 1779, "\u00c1N": 4159, "\u00c9": 17576, "\u00c9l": 18035, "\u00c9xodo": 20716, "\u00e1": 1777, "\u00e1bamos": 1797, "\u00e1c": 2017, "\u00e1cido": 2279, "\u00e1culo": 2530, "\u00e1is": 3384, "\u00e1l": 3434, "\u00e1lico": 3629, "\u00e1logo": 3777, "\u00e1mico": 4037, "\u00e1n": 4158, "\u00e1ndanos": 4294, "\u00e1ndola": 4303, "\u00e1ndolas": 4304, "\u00e1ndole": 4305, "\u00e1ndoles": 4306, "\u00e1ndolo": 4307, "\u00e1ndolos": 4308, "\u00e1ndome": 4309, "\u00e1ndonos": 4310, "\u00e1ndose": 4312, "\u00e1ndote": 4313, "\u00e1ngulo": 4382, "\u00e1nica": 4394, "\u00e1nico": 4395, "\u00e1r": 5063, "\u00e1ramos": 5082, "\u00e1rea": 5170, "\u00e1rico": 5214, "\u00e1rsela": 5397, "\u00e1rselo": 5398, "\u00e1rtel": 5415, "\u00e1s": 5492, "\u00e1sica": 5595, "\u00e1sico": 5596, "\u00e1stica": 5767, "\u00e1stico": 5768, "\u00e1tica": 5882, "\u00e1tico": 5883, "\u00e9": 17575, "\u00e9e": 17856, "\u00e9is": 17968, "\u00e9jate": 17978, "\u00e9l": 18033, "\u00e9lica": 18205, "\u00e9mica": 18389, "\u00e9mico": 18390, "\u00e9monos": 18436, "\u00e9n": 18581, "\u00e9ndose": 18763, "\u00e9nico": 18916, "\u00e9ntete": 19071, "\u00e9r": 19349, "\u00e9rgico": 19382, "\u00e9rica": 19393, "\u00e9s": 19454, "\u00e9sima": 19619, "\u00e9simo": 19620, "\u00e9ster": 19977, "\u00e9ter": 20160, "\u00e9tica": 20208, "\u00e9tico": 20211, "\u00e9ticos": 20212, "\u00ed": 26131, "\u00eda": 26135, "\u00edamos": 26143, "\u00edan": 26146, "\u00edas": 26153, "\u00edcolas": 26228, "\u00edculas": 26249, "\u00edculo": 26250, "\u00edda": 26259, "\u00eddica": 26331, "\u00eddico": 26332, "\u00eddos": 26355, "\u00edes": 26392, "\u00edfera": 26406, "\u00edfero": 26407, "\u00edfica": 26413, "\u00edfico": 26424, "\u00edlica": 26527, "\u00edlico": 26530, "\u00edlo": 26581, "\u00edmetro": 26649, "\u00edn": 26942, "\u00edna": 26945, "\u00ednica": 27611, "\u00ednico": 27636, "\u00edo": 28549, "\u00eds": 28666, "\u00edsima": 28694, "\u00edsimo": 28695, "\u00edsmo": 28727, "\u00edsta": 28780, "\u00edstica": 28789, "\u00edsticas": 28790, "\u00edstico": 28791, "\u00edsticos": 28792, "\u00edtica": 28842, "\u00edtico": 28843, "\u00f1": 34409, "\u00f1a": 34416, "\u00f1as": 34534, "\u00f1e": 34672, "\u00f1era": 34828, "\u00f1ero": 34831, "\u00f1ez": 34944, "\u00f1i": 34970, "\u00f1o": 35128, "\u00f1ones": 35190, "\u00f1os": 35263, "\u00f1\u00f3": 35129, "\u00f3": 35551, "\u00f3dromo": 35866, "\u00f3filo": 35941, "\u00f3fono": 35942, "\u00f3gena": 35972, "\u00f3geno": 35975, "\u00f3grafo": 35978, "\u00f3lica": 36057, "\u00f3lico": 36058, "\u00f3lisis": 36071, "\u00f3loga": 36085, "\u00f3logo": 36096, "\u00f3logos": 36097, "\u00f3metro": 36141, "\u00f3mica": 36144, "\u00f3mico": 36145, "\u00f3n": 36172, "\u00f3nica": 36202, "\u00f3nico": 36203, "\u00f3polis": 36347, "\u00f3r": 36443, "\u00f3rica": 36590, "\u00f3rico": 36591, "\u00f3sido": 36715, "\u00f3tica": 36759, "\u00f3tico": 36760, "\u00f3ticos": 36761, "\u00f3xido": 36974, "\u00fa": 51898, "\u00faa": 51902, "\u00fal": 52007, "\u00faltimo": 52041, "\u00fan": 52081, "\u00fanica": 52215, "\u00fargico": 52493, "\u00fas": 52519, "\u00fatil": 52637, "\u2018": 41, "\u2019": 42, "\u2019,": 43, "\u2019.": 44, "\u201c": 53, "\u201c,": 54, "\u201c.": 55, "\u201d": 56, "\u201d)": 60, "\u201d).": 61, "\u201d,": 57, "\u201d.": 59, "\u201d?": 58, "\u2581": 87, "\u2581\"": 101, "\u2581\"\u00a1": 102, "\u2581\"\u00bf": 103, "\u2581$": 128, "\u2581$$": 129, "\u2581$$$": 130, "\u2581$$$$": 131, "\u2581$0": 152, "\u2581$1": 295, "\u2581$1,000": 343, "\u2581$10": 321, "\u2581$10,000": 349, "\u2581$100": 336, "\u2581$100,000": 353, "\u2581$11": 385, "\u2581$12": 420, "\u2581$13": 461, "\u2581$14": 493, "\u2581$15": 525, "\u2581$150": 537, "\u2581$16": 558, "\u2581$17": 586, "\u2581$18": 607, "\u2581$19": 630, "\u2581$2": 780, "\u2581$20": 805, "\u2581$200": 817, "\u2581$25": 1042, "\u2581$3": 1117, "\u2581$30": 1142, "\u2581$300": 1151, "\u2581$35": 1209, "\u2581$4": 1259, "\u2581$40": 1281, "\u2581$5": 1372, "\u2581$5,000": 1406, "\u2581$50": 1392, "\u2581$50,000": 1411, "\u2581$500": 1402, "\u2581$6": 1473, "\u2581$60": 1492, "\u2581$7": 1557, "\u2581$8": 1633, "\u2581$9": 1703, "\u2581%": 133, "\u2581%)": 136, "\u2581%,": 134, "\u2581%.": 135, "\u2581&": 132, "\u2581'": 98, "\u2581''": 99, "\u2581(": 115, "\u2581(\"": 119, "\u2581($": 122, "\u2581($10-": 319, "\u2581($250": 1054, "\u2581($250-": 1055, "\u2581($3": 1114, "\u2581($30-": 1140, "\u2581(+": 123, "\u2581(...)": 117, "\u2581(0": 149, "\u2581(0)": 151, "\u2581(0,": 150, "\u2581(0.1": 205, "\u2581(0.2": 217, "\u2581(0.5": 243, "\u2581(1": 292, "\u2581(1)": 293, "\u2581(10": 318, "\u2581(10)": 320, "\u2581(100": 335, "\u2581(11": 383, "\u2581(11)": 384, "\u2581(12": 418, "\u2581(12)": 419, "\u2581(13": 459, "\u2581(13)": 460, "\u2581(14": 491, "\u2581(14)": 492, "\u2581(15": 523, "\u2581(15)": 524, "\u2581(16": 556, "\u2581(16)": 557, "\u2581(17": 584, "\u2581(17)": 585, "\u2581(18": 605, "\u2581(18)": 606, "\u2581(19": 629, "\u2581(1987)": 725, "\u2581(1988)": 727, "\u2581(1989)": 729, "\u2581(1990)": 732, "\u2581(1991)": 736, "\u2581(1992)": 739, "\u2581(1993)": 742, "\u2581(1994)": 746, "\u2581(1995)": 748, "\u2581(1996)": 752, "\u2581(1997)": 755, "\u2581(1998)": 759, "\u2581(1999)": 764, "\u2581(2": 777, "\u2581(2)": 778, "\u2581(20": 803, "\u2581(20)": 804, "\u2581(200": 816, "\u2581(2000)": 822, "\u2581(2001)": 839, "\u2581(2002)": 845, "\u2581(2003)": 851, "\u2581(2004)": 857, "\u2581(2005)": 863, "\u2581(2006)": 869, "\u2581(2007)": 874, "\u2581(2008)": 880, "\u2581(2009)": 887, "\u2581(2010)": 894, "\u2581(2011)": 900, "\u2581(2012)": 906, "\u2581(2013)": 912, "\u2581(2014)": 918, "\u2581(2015)": 925, "\u2581(2016)": 931, "\u2581(2017)": 937, "\u2581(2019)": 949, "\u2581(21": 972, "\u2581(21)": 973, "\u2581(22": 992, "\u2581(22)": 993, "\u2581(24": 1024, "\u2581(24)": 1025, "\u2581(25": 1041, "\u2581(26": 1068, "\u2581(26)": 1069, "\u2581(27": 1080, "\u2581(28": 1091, "\u2581(29": 1101, "\u2581(3": 1113, "\u2581(3)": 1115, "\u2581(30": 1139, "\u2581(30)": 1141, "\u2581(32)": 1182, "\u2581(34)": 1199, "\u2581(35": 1208, "\u2581(36)": 1220, "\u2581(4": 1256, "\u2581(4)": 1257, "\u2581(40": 1280, "\u2581(5": 1369, "\u2581(5)": 1370, "\u2581(50": 1391, "\u2581(6": 1471, "\u2581(6)": 1472, "\u2581(60": 1491, "\u2581(7": 1555, "\u2581(7)": 1556, "\u2581(8": 1631, "\u2581(8)": 1632, "\u2581(80": 1649, "\u2581(9": 1701, "\u2581(9)": 1702, "\u2581(\u00a1": 116, "\u2581(\u00ab": 121, "\u2581(\u2018": 118, "\u2581(\u201c": 120, "\u2581+": 137, "\u2581+/-": 138, "\u2581+1": 296, "\u2581-": 89, "\u2581--": 90, "\u2581----": 91, "\u2581-04:00": 238, "\u2581-\u00bf": 92, "\u2581...": 97, "\u2581/": 96, "\u25810": 148, "\u25810%": 155, "\u25810,": 154, "\u25810,001": 180, "\u25810,01": 184, "\u25810,02": 189, "\u25810,05": 195, "\u25810,1": 207, "\u25810,1%": 208, "\u25810,2": 218, "\u25810,25": 221, "\u25810,3": 229, "\u25810,4": 235, "\u25810,5": 244, "\u25810,5%": 245, "\u25810,6": 253, "\u25810,8": 265, "\u25810,9": 271, "\u25810.00": 169, "\u25810.000": 173, "\u25810.001": 181, "\u25810.005": 182, "\u25810.01": 185, "\u25810.01%": 186, "\u25810.02": 190, "\u25810.03": 191, "\u25810.04": 193, "\u25810.05": 196, "\u25810.05%": 197, "\u25810.06": 199, "\u25810.1": 209, "\u25810.1%": 210, "\u25810.2": 219, "\u25810.2%": 220, "\u25810.25": 222, "\u25810.3": 230, "\u25810.4": 236, "\u25810.5": 246, "\u25810.5%": 247, "\u25810.6": 254, "\u25810.7": 258, "\u25810.8": 266, "\u25810.9": 272, "\u258100": 163, "\u2581000": 168, "\u258101": 204, "\u258102": 216, "\u258103": 228, "\u258104": 234, "\u258105": 242, "\u258106": 252, "\u258107": 257, "\u258107/2": 260, "\u258108": 264, "\u258109": 270, "\u25810\u00b0": 153, "\u25811": 291, "\u25811%": 302, "\u25811)": 301, "\u25811,": 298, "\u25811,0": 322, "\u25811,000": 344, "\u25811,1": 386, "\u25811,2": 422, "\u25811,2-": 423, "\u25811,200": 437, "\u25811,3": 463, "\u25811,3-": 464, "\u25811,4": 495, "\u25811,4-": 496, "\u25811,400": 507, "\u25811,5": 527, "\u25811,500": 539, "\u25811,6": 559, "\u25811,8": 608, "\u25811-": 297, "\u25811-2": 421, "\u25811-3": 462, "\u25811-4": 494, "\u25811-5": 526, "\u25811-800-": 615, "\u25811.": 300, "\u25811.0": 323, "\u25811.000": 345, "\u25811.1": 388, "\u25811.2": 426, "\u25811.200": 438, "\u25811.3": 467, "\u25811.4": 498, "\u25811.5": 528, "\u25811.5%": 529, "\u25811.500": 540, "\u25811.6": 560, "\u25811.7": 587, "\u25811.8": 609, "\u25811.9": 631, "\u25811/2": 425, "\u25811/3": 466, "\u25811/4": 497, "\u258110": 317, "\u258110%": 325, "\u258110,000": 350, "\u258110-": 324, "\u258110.000": 351, "\u2581100": 334, "\u2581100%": 338, "\u2581100,000": 354, "\u2581100.000": 355, "\u25811000": 342, "\u2581100\u00b0": 337, "\u2581101": 357, "\u2581102": 360, "\u2581103": 362, "\u2581104": 364, "\u2581105": 366, "\u2581106": 368, "\u2581107": 370, "\u2581108": 372, "\u25811080": 373, "\u2581109": 375, "\u258110:00": 346, "\u258110:1": 358, "\u258111": 382, "\u258111%": 392, "\u258111,": 389, "\u258111.": 391, "\u2581110": 396, "\u2581111": 399, "\u2581112": 402, "\u2581113": 403, "\u2581114": 405, "\u2581115": 407, "\u2581116": 408, "\u2581117": 409, "\u2581118": 410, "\u2581119": 411, "\u258111:": 390, "\u258111:00": 397, "\u258112": 417, "\u258112%": 430, "\u258112,": 428, "\u258112,000": 440, "\u258112-": 427, "\u258112.": 429, "\u2581120": 435, "\u25811200": 436, "\u2581121": 441, "\u2581122": 442, "\u2581123": 444, "\u2581124": 445, "\u2581125": 447, "\u2581126": 448, "\u2581127": 449, "\u2581128": 451, "\u2581129": 452, "\u258112:00": 439, "\u258113": 458, "\u258113%": 470, "\u258113,": 468, "\u258113.": 469, "\u2581130": 475, "\u2581131": 476, "\u2581132": 477, "\u2581133": 478, "\u2581134": 479, "\u2581135": 480, "\u2581136": 481, "\u2581137": 482, "\u2581138": 483, "\u2581139": 484, "\u258114": 490, "\u258114%": 501, "\u258114,": 499, "\u258114.": 500, "\u2581140": 505, "\u25811400": 506, "\u2581141": 508, "\u2581142": 509, "\u2581143": 510, "\u2581144": 511, "\u2581145": 512, "\u2581146": 513, "\u2581147": 514, "\u2581148": 515, "\u2581149": 516, "\u258115": 522, "\u258115%": 532, "\u258115,": 531, "\u258115,000": 541, "\u258115-": 530, "\u258115.000": 542, "\u2581150": 536, "\u2581150,000": 543, "\u25811500": 538, "\u2581151": 544, "\u2581152": 545, "\u2581154": 546, "\u2581155": 547, "\u2581156": 548, "\u2581158": 549, "\u258116": 555, "\u258116%": 563, "\u258116,": 561, "\u258116.": 562, "\u2581160": 568, "\u25811600": 569, "\u2581162": 571, "\u2581164": 572, "\u2581165": 573, "\u2581166": 574, "\u2581167": 575, "\u2581168": 576, "\u2581169": 577, "\u258117": 583, "\u258117,": 588, "\u2581170": 591, "\u2581172": 592, "\u2581174": 593, "\u2581175": 595, "\u2581176": 596, "\u2581177": 597, "\u2581178": 598, "\u258118": 604, "\u258118,": 610, "\u258118,000": 616, "\u2581180": 613, "\u25811800": 614, "\u2581184": 617, "\u2581185": 618, "\u25811870": 619, "\u2581188": 620, "\u2581189": 621, "\u25811890": 622, "\u258119": 628, "\u258119,": 632, "\u2581190": 634, "\u25811900": 635, "\u25811901": 636, "\u25811903": 637, "\u25811904": 638, "\u25811905": 639, "\u25811906": 640, "\u25811907": 641, "\u25811908": 642, "\u25811909": 643, "\u25811910": 644, "\u25811911": 645, "\u25811912": 646, "\u25811913": 647, "\u25811914": 648, "\u25811915": 649, "\u25811916": 650, "\u25811917": 651, "\u25811918": 652, "\u25811919": 653, "\u25811920": 654, "\u25811921": 655, "\u25811922": 656, "\u25811923": 657, "\u25811924": 658, "\u25811925": 659, "\u25811926": 660, "\u25811927": 661, "\u25811928": 662, "\u25811929": 663, "\u25811930": 664, "\u25811931": 665, "\u25811932": 666, "\u25811933": 667, "\u25811934": 668, "\u25811935": 669, "\u25811936": 670, "\u25811937": 671, "\u25811938": 672, "\u25811939": 673, "\u25811940": 674, "\u25811941": 675, "\u25811942": 676, "\u25811943": 677, "\u25811944": 678, "\u25811945": 679, "\u25811946": 680, "\u25811947": 681, "\u25811948": 682, "\u25811949": 683, "\u2581195": 684, "\u25811950": 685, "\u25811951": 686, "\u25811952": 687, "\u25811953": 688, "\u25811954": 689, "\u25811955": 690, "\u25811956": 691, "\u25811957": 692, "\u25811958": 693, "\u25811959": 694, "\u25811960": 695, "\u25811961": 696, "\u25811962": 697, "\u25811963": 698, "\u25811964": 699, "\u25811965": 700, "\u25811966": 701, "\u25811967": 702, "\u25811968": 703, "\u25811969": 704, "\u25811970": 706, "\u25811971": 707, "\u25811972": 708, "\u25811973": 709, "\u25811974": 710, "\u25811975": 711, "\u25811976": 712, "\u25811977": 713, "\u25811978": 714, "\u25811979": 715, "\u25811980": 717, "\u25811981": 718, "\u25811982": 719, "\u25811983": 720, "\u25811984": 721, "\u25811985": 722, "\u25811986": 723, "\u25811987": 724, "\u25811988": 726, "\u25811989": 728, "\u25811990": 731, "\u25811990,": 733, "\u25811991": 735, "\u25811992": 738, "\u25811992,": 740, "\u25811993": 741, "\u25811993,": 743, "\u25811994": 745, "\u25811995": 747, "\u25811995,": 749, "\u25811996": 751, "\u25811997": 754, "\u25811997,": 756, "\u25811998": 758, "\u25811998,": 760, "\u25811999": 763, "\u25811999,": 765, "\u25811:": 299, "\u25811:1": 387, "\u25811:2": 424, "\u25811:3": 465, "\u25812": 776, "\u25812%": 786, "\u25812)": 785, "\u25812,": 782, "\u25812,000": 823, "\u25812,2": 994, "\u25812,4": 1026, "\u25812,5": 1043, "\u25812,500": 1057, "\u25812-": 781, "\u25812-3": 1010, "\u25812.": 784, "\u25812.0": 806, "\u25812.000": 824, "\u25812.1": 975, "\u25812.2": 995, "\u25812.3": 1011, "\u25812.4": 1027, "\u25812.5": 1044, "\u25812.500": 1058, "\u25812.6": 1070, "\u25812.7": 1081, "\u25812.8": 1092, "\u258120": 802, "\u258120%": 809, "\u258120,000": 830, "\u258120-": 808, "\u258120.000": 831, "\u2581200": 815, "\u2581200,000": 833, "\u2581200.000": 834, "\u25812000": 821, "\u25812000,": 826, "\u25812000.": 827, "\u25812001": 838, "\u25812001,": 840, "\u25812001.": 841, "\u25812002": 844, "\u25812002,": 846, "\u25812002.": 847, "\u25812003": 850, "\u25812003,": 852, "\u25812003.": 853, "\u25812004": 856, "\u25812004,": 858, "\u25812004.": 859, "\u25812005": 862, "\u25812005,": 864, "\u25812005.": 865, "\u25812006": 868, "\u25812006,": 870, "\u25812006.": 871, "\u25812007": 873, "\u25812007,": 875, "\u25812007.": 876, "\u25812008": 879, "\u25812008,": 881, "\u25812008-2009": 883, "\u25812008.": 882, "\u25812009": 886, "\u25812009,": 888, "\u25812009.": 889, "\u2581201": 890, "\u25812010": 893, "\u25812010,": 895, "\u25812010.": 896, "\u25812011": 899, "\u25812011,": 901, "\u25812011.": 902, "\u25812012": 905, "\u25812012,": 907, "\u25812012.": 908, "\u25812013": 911, "\u25812013,": 913, "\u25812013.": 914, "\u25812014": 917, "\u25812014,": 919, "\u25812014.": 920, "\u25812015": 924, "\u25812015,": 926, "\u25812015.": 927, "\u25812016": 930, "\u25812016,": 932, "\u25812016.": 933, "\u25812017": 936, "\u25812017,": 938, "\u25812017.": 940, "\u25812017:": 939, "\u25812018": 943, "\u25812018,": 944, "\u25812018.": 945, "\u25812019": 948, "\u25812019,": 950, "\u25812019.": 951, "\u2581202": 952, "\u25812020": 954, "\u25812020,": 955, "\u25812020.": 956, "\u25812021": 957, "\u25812022": 958, "\u25812025": 959, "\u25812030": 960, "\u2581204": 961, "\u2581205": 962, "\u25812050": 963, "\u2581206": 964, "\u2581207": 965, "\u2581208": 966, "\u258120:00": 825, "\u258120\u00b0": 807, "\u258121": 971, "\u258121,": 976, "\u2581210": 979, "\u2581211": 980, "\u2581212": 981, "\u2581214": 982, "\u2581215": 983, "\u2581216": 984, "\u2581218": 985, "\u258122": 991, "\u258122,": 996, "\u2581220": 999, "\u2581222": 1000, "\u2581224": 1001, "\u2581225": 1002, "\u2581226": 1003, "\u2581228": 1004, "\u258123": 1009, "\u258123,": 1012, "\u2581230": 1015, "\u2581232": 1017, "\u258124": 1023, "\u258124,": 1029, "\u258124-": 1028, "\u258124/7": 1033, "\u2581240": 1032, "\u258125": 1040, "\u258125%": 1047, "\u258125+": 1048, "\u258125,": 1046, "\u258125,000": 1060, "\u258125.000": 1061, "\u2581250": 1053, "\u25812500": 1056, "\u2581256": 1062, "\u258125\u00b0": 1045, "\u258126": 1067, "\u258126,": 1071, "\u2581260": 1074, "\u258127": 1079, "\u258127,": 1082, "\u2581270": 1085, "\u258128": 1090, "\u258128,": 1093, "\u2581280": 1095, "\u258129": 1100, "\u258129,": 1102, "\u25812:": 783, "\u25812:1": 974, "\u25813": 1112, "\u25813%": 1124, "\u25813'": 1122, "\u25813)": 1123, "\u25813,": 1119, "\u25813,000": 1153, "\u25813,5": 1210, "\u25813,500": 1217, "\u25813-": 1118, "\u25813-4": 1200, "\u25813.": 1121, "\u25813.0": 1143, "\u25813.000": 1154, "\u25813.1": 1172, "\u25813.2": 1183, "\u25813.3": 1191, "\u25813.4": 1201, "\u25813.5": 1211, "\u25813.6": 1221, "\u25813.7": 1230, "\u25813.8": 1238, "\u258130": 1138, "\u258130%": 1146, "\u258130,000": 1157, "\u258130-": 1145, "\u258130.000": 1158, "\u2581300": 1150, "\u2581300,000": 1160, "\u2581300.000": 1161, "\u25813000": 1152, "\u2581301": 1162, "\u2581302": 1163, "\u2581304": 1164, "\u2581305": 1165, "\u2581306": 1166, "\u2581308": 1167, "\u258130\u00b0": 1144, "\u258131": 1170, "\u258131,": 1173, "\u2581310": 1176, "\u2581312": 1177, "\u2581316": 1178, "\u258132": 1181, "\u258132%": 1184, "\u2581320": 1187, "\u258133": 1190, "\u258133%": 1192, "\u2581330": 1195, "\u258134": 1198, "\u2581340": 1203, "\u258135": 1207, "\u258135%": 1212, "\u2581350": 1216, "\u258136": 1219, "\u2581360": 1224, "\u2581365": 1226, "\u258137": 1229, "\u258137\u00b0": 1231, "\u258138": 1237, "\u2581380": 1241, "\u258139": 1244, "\u25813:": 1120, "\u25813:1": 1171, "\u25814": 1255, "\u25814%": 1266, "\u25814)": 1265, "\u25814,": 1262, "\u25814,000": 1289, "\u25814,5": 1328, "\u25814-": 1261, "\u25814-6": 1338, "\u25814-7": 1344, "\u25814.": 1264, "\u25814.0": 1282, "\u25814.000": 1290, "\u25814.1": 1305, "\u25814.2": 1311, "\u25814.3": 1315, "\u25814.4": 1321, "\u25814.5": 1329, "\u25814.6": 1339, "\u25814.7": 1345, "\u25814.8": 1349, "\u25814.9": 1355, "\u25814.9.": 1356, "\u258140": 1279, "\u258140%": 1284, "\u258140,000": 1293, "\u258140.000": 1294, "\u2581400": 1287, "\u2581400,000": 1296, "\u2581400.000": 1297, "\u25814000": 1288, "\u2581401": 1298, "\u2581402": 1299, "\u2581404": 1300, "\u258140\u00b0": 1283, "\u258141": 1303, "\u2581410": 1307, "\u258142": 1310, "\u2581420": 1312, "\u258143": 1314, "\u2581430": 1317, "\u258144": 1320, "\u2581440": 1323, "\u258145": 1327, "\u258145%": 1330, "\u2581450": 1334, "\u258146": 1337, "\u258147": 1343, "\u258148": 1348, "\u258148%": 1350, "\u258149": 1354, "\u25814:": 1263, "\u25814:1": 1304, "\u25814\u00b0": 1260, "\u25815": 1368, "\u25815%": 1378, "\u25815'": 1376, "\u25815)": 1377, "\u25815,": 1374, "\u25815,000": 1407, "\u25815-": 1373, "\u25815.0": 1393, "\u25815.000": 1408, "\u25815.1": 1422, "\u25815.1.1": 1425, "\u25815.2": 1429, "\u25815.2.2": 1430, "\u25815.3": 1433, "\u25815.5": 1440, "\u258150": 1390, "\u258150%": 1395, "\u258150,000": 1412, "\u258150.000": 1413, "\u2581500": 1401, "\u2581500,000": 1416, "\u2581500.000": 1417, "\u25815000": 1405, "\u2581504": 1418, "\u258150\u00b0": 1394, "\u258151": 1420, "\u2581510": 1424, "\u2581512": 1426, "\u258152": 1428, "\u258153": 1432, "\u258154": 1435, "\u258155": 1439, "\u258155%": 1441, "\u2581550": 1445, "\u258156": 1448, "\u258157": 1454, "\u258158": 1458, "\u258159": 1462, "\u25815:": 1375, "\u25815:1": 1421, "\u25816": 1470, "\u25816%": 1478, "\u25816,": 1475, "\u25816,000": 1500, "\u25816-": 1474, "\u25816.": 1477, "\u25816.0": 1493, "\u25816.000": 1501, "\u25816.1": 1510, "\u25816.2": 1515, "\u25816.3": 1520, "\u25816.5": 1527, "\u258160": 1490, "\u258160%": 1495, "\u258160,000": 1504, "\u2581600": 1498, "\u2581600.000": 1506, "\u25816000": 1499, "\u258160\u00b0": 1494, "\u258161": 1509, "\u258162": 1514, "\u2581620": 1516, "\u258163": 1519, "\u258164": 1523, "\u258165": 1526, "\u258165%": 1528, "\u2581650": 1531, "\u258166": 1533, "\u258167": 1537, "\u258168": 1542, "\u258169": 1546, "\u25816:": 1476, "\u25817": 1554, "\u25817%": 1561, "\u25817,": 1558, "\u25817,000": 1577, "\u25817.": 1560, "\u25817.0": 1572, "\u25817.1": 1584, "\u25817.2": 1588, "\u25817.4": 1595, "\u25817.5": 1599, "\u258170": 1571, "\u258170%": 1573, "\u258170,000": 1580, "\u2581700": 1576, "\u258171": 1583, "\u258172": 1587, "\u2581720": 1589, "\u258173": 1591, "\u258174": 1594, "\u258175": 1598, "\u258175%": 1600, "\u2581750": 1606, "\u258176": 1610, "\u258177": 1614, "\u2581774": 1617, "\u258178": 1620, "\u258179": 1624, "\u25817:": 1559, "\u25818": 1630, "\u25818%": 1638, "\u25818,": 1635, "\u25818,000": 1657, "\u25818-": 1634, "\u25818.": 1637, "\u25818.0": 1650, "\u25818.1": 1664, "\u25818.5": 1675, "\u258180": 1648, "\u258180%": 1652, "\u2581800": 1655, "\u2581802.11": 1661, "\u258180\u00b0": 1651, "\u258181": 1663, "\u258182": 1666, "\u258183": 1668, "\u258184": 1671, "\u258185": 1674, "\u258185%": 1676, "\u2581850": 1679, "\u258186": 1681, "\u258187": 1684, "\u258188": 1688, "\u258189": 1693, "\u25818:": 1636, "\u25818:00": 1656, "\u25819": 1700, "\u25819,": 1704, "\u25819.": 1705, "\u25819.2": 1734, "\u25819/11": 1731, "\u258190": 1713, "\u258190%": 1715, "\u2581900": 1718, "\u25819001": 1725, "\u258190\u00b0": 1714, "\u258191": 1727, "\u258191%": 1728, "\u2581911": 1730, "\u258192": 1733, "\u258193": 1736, "\u258194": 1741, "\u258195": 1743, "\u258195%": 1744, "\u258196": 1750, "\u258196%": 1751, "\u258197": 1755, "\u258197%": 1756, "\u258198": 1759, "\u258198%": 1760, "\u258199": 1764, "\u258199%": 1765, "\u25819:00": 1719, "\u2581A": 1776, "\u2581AAA": 1782, "\u2581AB": 1790, "\u2581ABB": 1817, "\u2581ABC": 1822, "\u2581ABOUT": 1905, "\u2581ABS": 1945, "\u2581AC": 2016, "\u2581ACC": 2053, "\u2581ACCOR": 2149, "\u2581ACE": 2193, "\u2581ACNUR": 2306, "\u2581ACP": 2363, "\u2581ACT": 2403, "\u2581AD": 2558, "\u2581ADAM": 2562, "\u2581ADHD": 2661, "\u2581ADN": 2795, "\u2581ADNc": 2796, "\u2581ADOPT": 2812, "\u2581ADOPTAD": 2814, "\u2581AE": 2972, "\u2581AF": 3007, "\u2581AFP": 3100, "\u2581AG": 3131, "\u2581AGREE": 3245, "\u2581AHORA": 3326, "\u2581AI": 3338, "\u2581AIDS": 3344, "\u2581AK": 3418, "\u2581AL": 3433, "\u2581ALL": 3698, "\u2581ALS": 3828, "\u2581AM": 3914, "\u2581AMD": 3996, "\u2581AMERICA": 4017, "\u2581AMP": 4106, "\u2581AN": 4157, "\u2581AND": 4284, "\u2581ANEXO": 4339, "\u2581ANGELES": 4355, "\u2581ANNEX": 4445, "\u2581ANY": 4678, "\u2581AP": 4694, "\u2581APC": 4755, "\u2581API": 4775, "\u2581APK": 4778, "\u2581APP": 4863, "\u2581AQU": 5031, "\u2581AR": 5062, "\u2581ARE": 5166, "\u2581ARN": 5285, "\u2581ARNm": 5287, "\u2581ART": 5408, "\u2581ARTICLE": 5433, "\u2581AS": 5491, "\u2581ASEAN": 5522, "\u2581ASTM": 5770, "\u2581AT": 5818, "\u2581ATM": 5902, "\u2581ATP": 5930, "\u2581AU": 6039, "\u2581AUD": 6045, "\u2581AUTO": 6179, "\u2581AV": 6268, "\u2581AVI": 6331, "\u2581AWD": 6379, "\u2581AWS": 6384, "\u2581AZ": 6434, "\u2581Aaron": 1783, "\u2581Aar\u00f3n": 1784, "\u2581Ab": 1788, "\u2581Aba": 1792, "\u2581Ababa": 1793, "\u2581Abaga": 1794, "\u2581Abajo": 1796, "\u2581Abbas": 1818, "\u2581Abbey": 1819, "\u2581Abbott": 1820, "\u2581Abdel": 1823, "\u2581Abdul": 1828, "\u2581Abdullah": 1829, "\u2581Abe": 1831, "\u2581Abel": 1836, "\u2581Aberdeen": 1837, "\u2581Abi": 1843, "\u2581Abierta": 1848, "\u2581Abierto": 1853, "\u2581Ability": 1861, "\u2581Abogado": 1878, "\u2581Abogados": 1880, "\u2581Abortion": 1899, "\u2581About": 1904, "\u2581Above": 1908, "\u2581Abra": 1912, "\u2581Abraham": 1913, "\u2581Abram": 1914, "\u2581Abre": 1924, "\u2581Abril": 1931, "\u2581Abrir": 1935, "\u2581Abroad": 1940, "\u2581Absolut": 1949, "\u2581Absolute": 1954, "\u2581Abstract": 1981, "\u2581Abu": 1988, "\u2581Abuse": 2001, "\u2581Abuso": 2008, "\u2581Ac": 2014, "\u2581Acaba": 2021, "\u2581Academia": 2032, "\u2581Academic": 2034, "\u2581Academy": 2041, "\u2581Acad\u00e9mico": 2038, "\u2581Acapulco": 2045, "\u2581Acc": 2051, "\u2581Accede": 2056, "\u2581Acceder": 2058, "\u2581Accelerate": 2062, "\u2581Accenture": 2069, "\u2581Accept": 2073, "\u2581Accesibilidad": 2081, "\u2581Acceso": 2086, "\u2581Accesorios": 2089, "\u2581Access": 2093, "\u2581Accessibility": 2096, "\u2581Accessible": 2098, "\u2581Accession": 2101, "\u2581Accessories": 2103, "\u2581Accident": 2106, "\u2581Accidentes": 2112, "\u2581Acciones": 2126, "\u2581Acci\u00f3n": 2117, "\u2581Accommodation": 2136, "\u2581Accommodations": 2138, "\u2581AccorHotels": 2159, "\u2581Accord": 2151, "\u2581According": 2156, "\u2581Accordingly": 2158, "\u2581Account": 2162, "\u2581Accounting": 2168, "\u2581Accra": 2170, "\u2581Accreditation": 2172, "\u2581Accu": 2175, "\u2581Ace": 2191, "\u2581Aceite": 2198, "\u2581Acelera": 2202, "\u2581Acepta": 2215, "\u2581Aceptar": 2227, "\u2581Acerca": 2231, "\u2581Acero": 2236, "\u2581Achieve": 2263, "\u2581Achievement": 2266, "\u2581Acid": 2273, "\u2581Acoge": 2309, "\u2581Acompa\u00f1a": 2320, "\u2581Acondicionado": 2330, "\u2581Acosta": 2356, "\u2581Acoustic": 2362, "\u2581Acquire": 2367, "\u2581Acquisition": 2371, "\u2581Across": 2390, "\u2581Acrylic": 2396, "\u2581Act": 2401, "\u2581Acta": 2404, "\u2581Action": 2410, "\u2581Actions": 2412, "\u2581Activ": 2416, "\u2581Activa": 2420, "\u2581Activate": 2430, "\u2581Activation": 2437, "\u2581Active": 2441, "\u2581Actividad": 2445, "\u2581Actividades": 2447, "\u2581Activities": 2455, "\u2581Activity": 2458, "\u2581Acto": 2466, "\u2581Actor": 2468, "\u2581Actress": 2473, "\u2581Acts": 2477, "\u2581Actual": 2486, "\u2581Actualiza": 2490, "\u2581Actualizaci\u00f3n": 2492, "\u2581Actualizado": 2496, "\u2581Actually": 2500, "\u2581Actualmente": 2502, "\u2581Acu": 2513, "\u2581Acuario": 2516, "\u2581Acuerda": 2523, "\u2581Acuerdo": 2527, "\u2581Acute": 2550, "\u2581Ad": 2556, "\u2581AdWords": 2965, "\u2581Adam": 2561, "\u2581Adams": 2563, "\u2581Adapt": 2567, "\u2581Adapta": 2570, "\u2581Adaptador": 2579, "\u2581Adaptation": 2585, "\u2581Adapter": 2590, "\u2581Adaptive": 2593, "\u2581Add": 2598, "\u2581Added": 2601, "\u2581Addiction": 2605, "\u2581Addis": 2608, "\u2581Additional": 2611, "\u2581Additionally": 2613, "\u2581Additive": 2615, "\u2581Address": 2619, "\u2581Adel": 2637, "\u2581Adelaide": 2638, "\u2581Ademas": 2646, "\u2581Adem\u00e1s": 2650, "\u2581Adhesive": 2677, "\u2581Adi": 2683, "\u2581Adicional": 2690, "\u2581Adicionalmente": 2693, "\u2581Adidas": 2698, "\u2581Adi\u00f3s": 2702, "\u2581Adjunto": 2717, "\u2581Adjust": 2720, "\u2581Adjustable": 2722, "\u2581Adjustment": 2727, "\u2581Admin": 2732, "\u2581Administraci\u00f3n": 2742, "\u2581Administrador": 2747, "\u2581Administrar": 2751, "\u2581Administration": 2755, "\u2581Administrative": 2759, "\u2581Administrativo": 2761, "\u2581Administrator": 2764, "\u2581Admiral": 2772, "\u2581Admission": 2781, "\u2581Admite": 2784, "\u2581Adobe": 2799, "\u2581Adolescent": 2803, "\u2581Adolf": 2807, "\u2581Adopci\u00f3n": 2809, "\u2581Adopt": 2811, "\u2581Adoption": 2828, "\u2581Adrian": 2860, "\u2581Adriatic": 2861, "\u2581Ads": 2864, "\u2581Adult": 2875, "\u2581Adultos": 2882, "\u2581Adults": 2884, "\u2581Advance": 2888, "\u2581Advanced": 2890, "\u2581Advancement": 2892, "\u2581Advantage": 2896, "\u2581Advantageously": 2899, "\u2581Advent": 2903, "\u2581Adventist": 2904, "\u2581Adventista": 2905, "\u2581Adventure": 2907, "\u2581Adventures": 2910, "\u2581Advertencia": 2924, "\u2581Advertis": 2928, "\u2581Advertisement": 2932, "\u2581Advertising": 2937, "\u2581Advertisment": 2938, "\u2581Advice": 2941, "\u2581Adviser": 2949, "\u2581Advisor": 2953, "\u2581Advisory": 2956, "\u2581Advocacy": 2958, "\u2581Advocate": 2960, "\u2581Ad\u00e1n": 2564, "\u2581Aegean": 2973, "\u2581Aerial": 2982, "\u2581Aero": 2983, "\u2581Aerol\u00ednea": 2991, "\u2581Aeropuerto": 2997, "\u2581Aerospace": 3001, "\u2581Aesthetic": 3003, "\u2581Af": 3005, "\u2581Affairs": 3032, "\u2581Affect": 3035, "\u2581Affiliate": 3042, "\u2581Affordable": 3059, "\u2581Afganist\u00e1n": 3062, "\u2581Afghan": 3064, "\u2581Afghanistan": 3065, "\u2581Afiliado": 3076, "\u2581Afina": 3078, "\u2581Afirma": 3081, "\u2581Afortunadamente": 3098, "\u2581Africa": 3104, "\u2581African": 3106, "\u2581Africana": 3108, "\u2581Africano": 3110, "\u2581Afro": 3112, "\u2581After": 3120, "\u2581Afterwards": 3125, "\u2581Ag": 3129, "\u2581Aga": 3133, "\u2581Again": 3135, "\u2581Against": 3137, "\u2581Age": 3145, "\u2581Agencia": 3152, "\u2581Agencies": 3155, "\u2581Agency": 3158, "\u2581Agenda": 3160, "\u2581Agent": 3163, "\u2581Agente": 3166, "\u2581Agents": 3169, "\u2581Ages": 3172, "\u2581Agile": 3190, "\u2581Agoda": 3210, "\u2581Agosto": 3217, "\u2581Agra": 3222, "\u2581Agradece": 3229, "\u2581Agradeci": 3231, "\u2581Agrad\u00e9": 3227, "\u2581Agree": 3244, "\u2581Agreement": 3249, "\u2581Agrega": 3254, "\u2581Agregado": 3258, "\u2581Agregar": 3262, "\u2581Agregue": 3266, "\u2581Agreg\u00f3": 3264, "\u2581Agri": 3273, "\u2581Agricultura": 3280, "\u2581Agricultural": 3282, "\u2581Agriculture": 3284, "\u2581Agriturismo": 3285, "\u2581Agro": 3287, "\u2581Agr\u00edcola": 3275, "\u2581Agu": 3291, "\u2581Agua": 3294, "\u2581Aguascalientes": 3299, "\u2581Agust": 3309, "\u2581Agust\u00edn": 3310, "\u2581Ah": 3313, "\u2581Ahmad": 3318, "\u2581Ahmed": 3319, "\u2581Ahmedabad": 3320, "\u2581Ahora": 3325, "\u2581Ahorra": 3328, "\u2581Ahorre": 3331, "\u2581Ahorro": 3333, "\u2581Ah\u00ed": 3317, "\u2581Aid": 3341, "\u2581Aim": 3347, "\u2581Air": 3355, "\u2581Airbnb": 3358, "\u2581Airbus": 3360, "\u2581Aircraft": 3362, "\u2581Aire": 3365, "\u2581Aires": 3366, "\u2581Airline": 3371, "\u2581Airlines": 3373, "\u2581Airport": 3376, "\u2581Airports": 3378, "\u2581Airways": 3382, "\u2581Ajax": 3397, "\u2581Ajedrez": 3400, "\u2581Ajusta": 3404, "\u2581Ajuste": 3413, "\u2581Ak": 3417, "\u2581Akron": 3426, "\u2581Al": 3431, "\u2581Ala": 3436, "\u2581Alabama": 3438, "\u2581Alamo": 3442, "\u2581Alan": 3443, "\u2581Alarm": 3452, "\u2581Alaska": 3457, "\u2581Alb": 3458, "\u2581Alba": 3459, "\u2581Albania": 3460, "\u2581Albanian": 3461, "\u2581Albany": 3462, "\u2581Albergo": 3467, "\u2581Albergue": 3469, "\u2581Albert": 3471, "\u2581Alberta": 3472, "\u2581Alberto": 3473, "\u2581Albornoz": 3474, "\u2581Album": 3476, "\u2581Albuquerque": 3483, "\u2581Alca": 3484, "\u2581Alcalde": 3487, "\u2581Alcal\u00e1": 3485, "\u2581Alcohol": 3501, "\u2581Aldea": 3510, "\u2581Aleaci\u00f3n": 3518, "\u2581Alegre": 3527, "\u2581Alejandro": 3534, "\u2581Alejandr\u00eda": 3533, "\u2581Alemana": 3540, "\u2581Alemania": 3543, "\u2581Alem\u00e1n": 3538, "\u2581Alepo": 3548, "\u2581Aleppo": 3549, "\u2581Alert": 3555, "\u2581Alertas": 3558, "\u2581Alerts": 3561, "\u2581Alessandr": 3564, "\u2581Alex": 3566, "\u2581Alexa": 3567, "\u2581Alexander": 3568, "\u2581Alexandr": 3569, "\u2581Alexandra": 3570, "\u2581Alexandria": 3571, "\u2581Alexis": 3572, "\u2581Alfa": 3575, "\u2581Alfonso": 3580, "\u2581Alfred": 3581, "\u2581Algarve": 3583, "\u2581Algeria": 3586, "\u2581Algerian": 3587, "\u2581Algiers": 3588, "\u2581Algo": 3593, "\u2581Algod\u00f3n": 3595, "\u2581Alguien": 3602, "\u2581Algunas": 3607, "\u2581Algunos": 3612, "\u2581Alhambra": 3613, "\u2581Ali": 3615, "\u2581Alianza": 3623, "\u2581Alibaba": 3625, "\u2581Alicante": 3626, "\u2581Alice": 3627, "\u2581Alicia": 3628, "\u2581Alien": 3632, "\u2581Alimenta": 3647, "\u2581Alimentaci\u00f3n": 3651, "\u2581Alimentaria": 3658, "\u2581Alimentos": 3666, "\u2581All": 3696, "\u2581Allaah": 3701, "\u2581Allah": 3702, "\u2581Allen": 3711, "\u2581Allende": 3712, "\u2581Allentown": 3713, "\u2581Alliance": 3723, "\u2581Allied": 3726, "\u2581Allow": 3734, "\u2581Allowed": 3737, "\u2581Alloy": 3741, "\u2581All\u00ed": 3721, "\u2581Alma": 3746, "\u2581Almacena": 3750, "\u2581Almacenamiento": 3757, "\u2581Almeria": 3763, "\u2581Almer\u00eda": 3764, "\u2581Almighty": 3766, "\u2581Almost": 3772, "\u2581Almuerzo": 3774, "\u2581Aloe": 3776, "\u2581Aloja": 3780, "\u2581Alojamiento": 3784, "\u2581Alojamientos": 3786, "\u2581Along": 3793, "\u2581Alonso": 3795, "\u2581Alpes": 3798, "\u2581Alpha": 3801, "\u2581Alphabet": 3803, "\u2581Alpine": 3805, "\u2581Alps": 3806, "\u2581Alquilar": 3813, "\u2581Alquiler": 3817, "\u2581Already": 3823, "\u2581Alrededor": 3826, "\u2581Also": 3832, "\u2581Alt": 3833, "\u2581Alta": 3836, "\u2581Alternate": 3856, "\u2581Alternativa": 3860, "\u2581Alternative": 3864, "\u2581Alternatively": 3866, "\u2581Although": 3875, "\u2581Alto": 3880, "\u2581Altura": 3884, "\u2581Aluminio": 3892, "\u2581Aluminium": 3894, "\u2581Aluminum": 3896, "\u2581Always": 3904, "\u2581Alzheimer": 3908, "\u2581Al\u00e1": 3437, "\u2581Al\u00f3j": 3778, "\u2581Am": 3912, "\u2581Ama": 3917, "\u2581Amadeus": 3922, "\u2581Amal": 3924, "\u2581Amalfi": 3925, "\u2581Amanda": 3929, "\u2581Amanecer": 3932, "\u2581Amar": 3936, "\u2581Amarillas": 3941, "\u2581Amarillo": 3943, "\u2581Amateur": 3946, "\u2581Amazing": 3949, "\u2581Amazon": 3950, "\u2581Amazonas": 3951, "\u2581Amb": 3953, "\u2581Ambas": 3957, "\u2581Ambassador": 3959, "\u2581Amber": 3960, "\u2581Amberes": 3961, "\u2581Ambient": 3970, "\u2581Ambiental": 3973, "\u2581Ambiente": 3977, "\u2581Ambos": 3990, "\u2581Amelia": 3998, "\u2581Amenaza": 4000, "\u2581Amendment": 4009, "\u2581Amenities": 4012, "\u2581America": 4016, "\u2581American": 4021, "\u2581Americana": 4024, "\u2581Americano": 4027, "\u2581Americans": 4029, "\u2581Americas": 4030, "\u2581Ami": 4034, "\u2581Amigo": 4049, "\u2581Amigos": 4051, "\u2581Amino": 4061, "\u2581Amistad": 4065, "\u2581Amman": 4069, "\u2581Ammon": 4070, "\u2581Amnesty": 4076, "\u2581Amnist\u00eda": 4079, "\u2581Among": 4084, "\u2581Amor": 4092, "\u2581Amount": 4101, "\u2581Amp": 4104, "\u2581Amplia": 4115, "\u2581Ampliar": 4123, "\u2581Amplio": 4134, "\u2581Amsterdam": 4142, "\u2581Amtrak": 4144, "\u2581Amy": 4148, "\u2581Am\u00e9rica": 4018, "\u2581Am\u00e9ricas": 4031, "\u2581An": 4155, "\u2581Ana": 4161, "\u2581Anabolic": 4165, "\u2581Anadrol": 4182, "\u2581Anagram": 4184, "\u2581Anaheim": 4185, "\u2581Analiza": 4200, "\u2581Analog": 4209, "\u2581Analysis": 4225, "\u2581Analyst": 4227, "\u2581Analytics": 4232, "\u2581Analyze": 4234, "\u2581Anarchist": 4240, "\u2581Anatolia": 4244, "\u2581Anatomy": 4249, "\u2581Anavar": 4250, "\u2581Anchor": 4261, "\u2581Anchorage": 4262, "\u2581Ancianos": 4271, "\u2581Ancient": 4273, "\u2581Ancona": 4277, "\u2581And": 4282, "\u2581Anda": 4287, "\u2581Andaluc": 4288, "\u2581Andalucia": 4289, "\u2581Andaluc\u00eda": 4290, "\u2581Andalusia": 4291, "\u2581Andalusian": 4292, "\u2581Andean": 4296, "\u2581Andersen": 4298, "\u2581Anderson": 4299, "\u2581Andes": 4300, "\u2581Andorra": 4311, "\u2581Andre": 4314, "\u2581Andrea": 4316, "\u2581Andrew": 4318, "\u2581Android": 4323, "\u2581Andr\u00e9": 4315, "\u2581Andr\u00e9s": 4317, "\u2581Andy": 4324, "\u2581Anexo": 4338, "\u2581Ang": 4345, "\u2581Angel": 4350, "\u2581Angela": 4353, "\u2581Angeles": 4354, "\u2581Angelo": 4358, "\u2581Angels": 4360, "\u2581Angkor": 4365, "\u2581Angle": 4368, "\u2581Anglican": 4370, "\u2581Anglo": 4373, "\u2581Angola": 4375, "\u2581Angry": 4377, "\u2581Anguilla": 4378, "\u2581Anillo": 4399, "\u2581Anima": 4402, "\u2581Animaci\u00f3n": 4404, "\u2581Animal": 4411, "\u2581Animales": 4413, "\u2581Animals": 4415, "\u2581Animated": 4419, "\u2581Animation": 4421, "\u2581Aniversario": 4430, "\u2581Ankara": 4431, "\u2581Ann": 4435, "\u2581Anna": 4438, "\u2581Annan": 4439, "\u2581Anne": 4441, "\u2581Annex": 4444, "\u2581Anniversary": 4451, "\u2581Announce": 4454, "\u2581Announcement": 4457, "\u2581Annual": 4463, "\u2581Anonymous": 4487, "\u2581Another": 4498, "\u2581Answer": 4507, "\u2581Answers": 4511, "\u2581Ant": 4513, "\u2581Antalya": 4522, "\u2581Antarctic": 4524, "\u2581Antarctica": 4525, "\u2581Ante": 4529, "\u2581Antecedentes": 4534, "\u2581Anterior": 4546, "\u2581Anteriormente": 4551, "\u2581Antes": 4554, "\u2581Anthony": 4557, "\u2581Anthropology": 4560, "\u2581Anti": 4564, "\u2581Antibodies": 4573, "\u2581Antichrist": 4575, "\u2581Anticristo": 4590, "\u2581Antig": 4600, "\u2581Antigua": 4608, "\u2581Antiguo": 4611, "\u2581Antilles": 4615, "\u2581Antioch": 4619, "\u2581Antique": 4626, "\u2581Antivirus": 4637, "\u2581Antoine": 4639, "\u2581Anton": 4640, "\u2581Antoni": 4641, "\u2581Antonio": 4642, "\u2581Antropolog\u00eda": 4645, "\u2581Antwerp": 4648, "\u2581Ant\u00e1rtida": 4526, "\u2581Anual": 4651, "\u2581Anuncia": 4659, "\u2581Anuncio": 4667, "\u2581Anuncios": 4670, "\u2581Anxiety": 4672, "\u2581Any": 4677, "\u2581Anyone": 4682, "\u2581Anything": 4684, "\u2581Anyway": 4687, "\u2581An\u00e1lisis": 4192, "\u2581An\u00f3nimo": 4483, "\u2581Ap": 4692, "\u2581Apache": 4696, "\u2581Aparato": 4704, "\u2581Aparcamiento": 4707, "\u2581Aparece": 4711, "\u2581Aparentemente": 4723, "\u2581Apart": 4732, "\u2581Apartamento": 4738, "\u2581Apartamentos": 4740, "\u2581Aparte": 4743, "\u2581Aparthotel": 4745, "\u2581Apartment": 4748, "\u2581Apartments": 4750, "\u2581Apelaciones": 4760, "\u2581Apenas": 4764, "\u2581Apertura": 4770, "\u2581Aplica": 4784, "\u2581Aplicaciones": 4793, "\u2581Aplicaci\u00f3n": 4790, "\u2581Aplicar": 4801, "\u2581Aplique": 4806, "\u2581Apo": 4809, "\u2581Apocalipsis": 4810, "\u2581Apollo": 4815, "\u2581Apolo": 4816, "\u2581Apostle": 4833, "\u2581Apostles": 4835, "\u2581Apostolic": 4841, "\u2581Apost\u00f3lica": 4843, "\u2581Apoya": 4846, "\u2581Apoyo": 4856, "\u2581App": 4861, "\u2581Apparatus": 4866, "\u2581Apparently": 4870, "\u2581Appeal": 4873, "\u2581Appearance": 4880, "\u2581Appendix": 4887, "\u2581Apple": 4892, "\u2581Applicant": 4898, "\u2581Applicants": 4900, "\u2581Application": 4903, "\u2581Applications": 4905, "\u2581Apply": 4910, "\u2581Appointment": 4916, "\u2581Approach": 4925, "\u2581Appropriate": 4931, "\u2581Approval": 4936, "\u2581Approved": 4940, "\u2581Approximately": 4946, "\u2581Apps": 4949, "\u2581Apr": 4950, "\u2581Aprenda": 4959, "\u2581Aprende": 4961, "\u2581Aprender": 4965, "\u2581Aprendizaje": 4975, "\u2581April": 4981, "\u2581Aprobaci\u00f3n": 4984, "\u2581Aprovecha": 4999, "\u2581Aproximadamente": 5012, "\u2581Apto": 5021, "\u2581Ap\u00e9ndice": 4766, "\u2581Ap\u00f3stol": 4837, "\u2581Ap\u00f3stoles": 4839, "\u2581Aqua": 5032, "\u2581Aquarium": 5035, "\u2581Aquarius": 5036, "\u2581Aquel": 5039, "\u2581Aquella": 5042, "\u2581Aquellos": 5048, "\u2581Aqu\u00ed": 5055, "\u2581Ar": 5060, "\u2581Ara": 5065, "\u2581Arab": 5069, "\u2581Arabia": 5074, "\u2581Arabian": 5075, "\u2581Arabic": 5076, "\u2581Arabs": 5077, "\u2581Arafat": 5078, "\u2581Aragon": 5079, "\u2581Arag\u00f3n": 5080, "\u2581Arbitraje": 5091, "\u2581Arbitration": 5098, "\u2581Arbor": 5105, "\u2581Arc": 5109, "\u2581Arca": 5112, "\u2581Arcade": 5114, "\u2581Arch": 5117, "\u2581Archaeology": 5121, "\u2581Archbishop": 5123, "\u2581Arche": 5124, "\u2581Archi": 5127, "\u2581Archipelago": 5129, "\u2581Architect": 5132, "\u2581Architectural": 5135, "\u2581Architecture": 5137, "\u2581Archive": 5141, "\u2581Archives": 5143, "\u2581Archivo": 5145, "\u2581Archivos": 5147, "\u2581Arco": 5150, "\u2581Arctic": 5151, "\u2581Arduino": 5158, "\u2581Are": 5164, "\u2581Area": 5169, "\u2581Areas": 5174, "\u2581Arena": 5178, "\u2581Arenal": 5179, "\u2581Arequipa": 5180, "\u2581Arg": 5182, "\u2581Argelia": 5183, "\u2581Argentina": 5187, "\u2581Argentine": 5188, "\u2581Argentinian": 5189, "\u2581Argentino": 5191, "\u2581Argu": 5194, "\u2581Ari": 5208, "\u2581Arian": 5212, "\u2581Ariel": 5215, "\u2581Aristo": 5228, "\u2581Aristotle": 5232, "\u2581Arist\u00f3teles": 5231, "\u2581Arizona": 5237, "\u2581Ark": 5238, "\u2581Arkansas": 5239, "\u2581Arlington": 5240, "\u2581Arm": 5243, "\u2581Arma": 5246, "\u2581Armada": 5248, "\u2581Armadas": 5250, "\u2581Armario": 5257, "\u2581Armas": 5259,
[...]
