{"!": 56, "!!": 57, "!!!": 58, "!!!!": 59, "!!!!!!!!!!!!!!!!": 60, "!\"": 61, "!\u201d": 62, "!\u300d": 63, "\"": 87, "\"\"\"\"\"\"\"\"\"\"\"\"\"\"\"": 95, "\"\"\"\"\"\"\"\"\"\"\"\"\"\"\"\"": 96, "\"(": 97, "\"(\"": 98, "\")": 99, "\").": 100, "\",": 89, "\",\"": 90, "\".": 94, "\":": 91, "\":\"": 92, "\">": 88, "\"?": 93, "#": 161, "$": 143, "$1": 572, "$2": 1435, "%": 162, "%)": 163, "%1$": 573, "&": 159, "&#": 160, "'": 84, "(": 114, "(%)": 118, "()": 116, "(*)": 117, "(0)": 280, "(1": 568, "(1)": 569, "(10": 613, "(15": 921, "(16": 974, "(17": 1020, "(1998": 1411, "(1999": 1420, "(2": 1432, "(2)": 1433, "(200,288)}": 1532, "(2000": 1494, "(2001": 1516, "(2002": 1525, "(2003": 1536, "(2004": 1545, "(2005": 1556, "(2006": 1565, "(2006)": 1566, "(2008": 1589, "(2009": 1604, "(2010": 1617, "(2011": 1630, "(2012)": 1645, "(2013": 1671, "(2014)": 1697, "(3": 2206, "(3)": 2207, "(37)": 2430, "(4": 2494, "(4)": 2495, "(6)": 2981, "(7)": 3199, "(_": 115, ")": 119, ")).": 124, "),": 120, ").": 123, "):": 122, ");": 121, ")]": 125, ")\u3001": 126, "*": 150, "**": 152, "***": 153, "****": 154, "*****": 155, "*]": 151, "+": 164, "++": 165, "+00:00": 315, "+1": 574, "+8)": 3388, "+86": 3521, ",": 42, ",\"": 43, ",000,000": 325, ",000.00": 322, ",2008": 1587, ",2009": 1602, ",500": 2775, ",700)": 3226, ",\u201c": 44, ",\u201d": 45, "-": 36, "-),": 41, "--": 38, "---": 39, "----": 40, "-0.": 276, "-00": 299, "-01": 353, "-01-": 354, "-01-0": 363, "-01-01": 365, "-01-17": 370, "-02": 380, "-02-": 381, "-03": 411, "-03-08": 423, "-03-30": 428, "-04": 435, "-04-": 436, "-05": 453, "-05-30": 469, "-06": 476, "-06-17": 488, "-06-30": 490, "-07": 495, "-07-11": 505, "-07-30": 507, "-07-31": 508, "-08": 518, "-08-": 519, "-08-06)": 528, "-08-16": 530, "-08-27": 533, "-08-29": 534, "-08-30": 535, "-08-31": 536, "-09": 540, "-09-": 541, "-09-05": 552, "-09-14": 553, "-1": 559, "-10": 606, "-10-": 607, "-10-31)": 671, "-10/": 608, "-10/1": 657, "-10/4": 673, "-10/5": 676, "-10/6": 681, "-10/8": 687, "-10/9": 692, "-100": 630, "-11": 696, "-11)": 697, "-11-28": 730, "-11-30": 733, "-12": 751, "-12-14": 789, "-12-31": 796, "-13": 816, "-14": 868, "-15": 917, "-16": 970, "-17": 1016, "-18": 1058, "-19": 1148, "-19)": 1149, "-1990": 1378, "-2": 1428, "-2-": 1429, "-20": 1465, "-20)": 1466, "-200": 1486, "-2000": 1492, "-2002": 1523, "-2003": 1534, "-2004": 1543, "-2006": 1563, "-2008": 1586, "-2009": 1601, "-2010": 1615, "-2011": 1628, "-2012": 1642, "-2013": 1669, "-2014": 1694, "-2015": 1724, "-2016": 1750, "-2017": 1779, "-2018": 1800, "-2019": 1837, "-2020": 1864, "-21": 1898, "-22": 1939, "-23": 1977, "-24": 2010, "-25": 2043, "-26": 2084, "-27": 2114, "-28": 2145, "-29": 2175, "-3": 2201, "-3-": 2202, "-30": 2234, "-31": 2280, "-34": 2352, "-35": 2376, "-36": 2404, "-39": 2468, "-4": 2488, "-4-": 2489, "-40": 2521, "-45": 2628, "-5": 2727, "-5-": 2728, "-50": 2758, "-500": 2774, "-52": 2820, "-6": 2976, "-60": 3003, "-62": 3052, "-63": 3073, "-65": 3109, "-68": 3163, "-7": 3195, "-8": 3383, "-80": 3409, "-82": 3452, "-83": 3467, "-84": 3483, "-85": 3496, "-86": 3516, "-87": 3544, "-88": 3558, "-9": 3590, "->": 37, ".": 72, ".\"": 81, "...": 73, "...\"": 78, "......": 74, "...............": 75, "................": 76, "......\u201d": 77, "...\u201d": 79, ".0%": 279, ".02.": 384, ".03.": 415, ".03.201": 427, ".04.": 440, ".05.": 456, ".07.20": 506, ".08.201": 532, ".1": 564, ".1)": 567, ".1,": 565, ".1.": 566, ".1/60/": 987, ".10": 612, ".11": 702, ".12": 754, ".13": 819, ".14": 871, ".15": 920, ".16": 973, ".17": 1019, ".18": 1061, ".19": 1152, ".21": 1901, ".22": 1942, ".25": 2046, ".26": 2087, ".27": 2117, ".29": 2178, ".3/62/": 2419, ".300.": 2253, ".31": 2283, ".4/": 2493, ".4/61/": 2661, ".45": 2630, ".5+": 2732, ".5/56/": 2889, ".5/58/": 2892, ".6": 2980, ".9%": 3594, ".9/": 3593, ".99": 3751, ".\u2019\u201d": 80, ".\u201d": 82, "/": 71, "/01/": 356, "/02/": 383, "/02/20": 402, "/03": 413, "/03/": 414, "/03/20": 426, "/04": 438, "/04/": 439, "/04/20": 449, "/05/": 455, "/06/": 478, "/06/201": 489, "/08/201": 531, "/09": 543, "/09/": 544, "/09/20": 554, "/1": 561, "/1)": 563, "/1/": 562, "/10": 610, "/10/": 611, "/100": 631, "/11": 700, "/11/": 701, "/12": 753, "/12/20": 792, "/12/2018": 793, "/13": 818, "/14": 870, "/15": 919, "/16": 972, "/17": 1018, "/18": 1060, "/19": 1151, "/1997/": 1404, "/1998/": 1410, "/1999/": 1419, "/2": 1431, "/20": 1468, "/2000/": 1493, "/2000/11": 1509, "/2000/9": 1513, "/2001/": 1515, "/2002/": 1524, "/2003/": 1535, "/2004/": 1544, "/2005/": 1555, "/2006/": 1564, "/2007/": 1576, "/2008/": 1588, "/2009/": 1603, "/2010/": 1616, "/2011/": 1629, "/2012/": 1644, "/2014/": 1696, "/2016": 1752, "/2017": 1781, "/2018": 1802, "/2019": 1839, "/21": 1900, "/22": 1941, "/23": 1979, "/24": 2012, "/25": 2045, "/26": 2086, "/27": 2116, "/28/": 2147, "/29": 2177, "/3": 2205, "/30": 2236, "/31": 2282, "/4": 2491, "/4/": 2492, "/40": 2523, "/5": 2730, "/5/": 2731, "/50": 2760, "/51/": 2801, "/52/": 2822, "/53/": 2838, "/54/": 2857, "/55/": 2872, "/56/": 2896, "/57/": 2919, "/57/5": 2933, "/58/": 2940, "/58/6": 2954, "/59/": 2960, "/6": 2978, "/6/": 2979, "/60/": 3004, "/61/": 3036, "/62/": 3053, "/63/": 3074, "/64/": 3094, "/65/": 3110, "/66/": 3128, "/67/": 3146, "/68/": 3164, "/69/": 3180, "/7": 3197, "/7/": 3198, "/8": 3385, "/8/": 3386, "/9": 3592, "0": 274, "0%": 296, "0)": 291, "0).": 292, "0,000": 317, "0,000)": 318, "0-": 289, "0-0": 305, "0-2": 387, "0.0": 306, "0.00": 311, "0.000": 319, "0.1": 359, "0.2": 388, "0.3": 418, "0.4": 443, "0.5": 459, "0.5%": 460, "0.50": 463, "0.6": 482, "0.7": 499, "0.8": 523, "0.9": 548, "0/": 290, "00": 298, "00,000": 323, "00.00": 320, "000": 308, "0000": 313, "00000": 321, "000000": 324, "00000000": 327, "000000}": 326, "0001": 328, "000\u20ac": 312, "001": 329, "002": 333, "003": 335, "004": 337, "005": 339, "006": 341, "007": 344, "008": 345, "009": 351, "00}": 307, "01": 352, "01)": 360, "01-1": 368, "01-13": 369, "010": 362, "011": 367, "012": 371, "013": 372, "014": 373, "015": 374, "016": 375, "017": 376, "018": 377, "019": 378, "01]": 361, "02": 379, "02)": 389, "02-1": 394, "02-18": 399, "020": 391, "021": 393, "021-": 395, "022": 400, "022-": 401, "023": 403, "024": 404, "025": 405, "026": 406, "027": 407, "028": 408, "029": 409, "02]": 390, "03": 410, "03)": 420, "03-": 419, "030": 422, "031": 424, "032": 425, "035": 429, "036": 430, "037": 431, "038": 432, "039": 433, "03]": 421, "04": 434, "04)": 444, "04-1": 448, "040": 446, "041": 447, "044": 450, "049": 451, "04]": 445, "05": 452, "050": 462, "0500": 464, "051": 465, "0512-": 467, "053": 468, "055": 470, "056": 471, "058": 473, "059": 474, "05]": 461, "06": 475, "06)": 484, "06-1": 487, "060": 486, "065": 491, "066": 492, "069": 493, "06]": 485, "07": 494, "07)": 500, "07-1": 504, "070": 502, "075": 509, "0755": 510, "0769-8": 516, "07]": 501, "08": 517, "08)": 524, "080": 525, "0800": 526, "081": 529, "086": 537, "088": 538, "09": 539, "090": 550, "099": 555, "09]": 549, "0\\": 295, "0]": 293, "0}": 294, "0\u00b0": 288, "0\u20146": 483, "0\u2032\u2032": 297, "1": 556, "1%": 604, "1)": 599, "1).": 600, "1,": 597, "1,000": 645, "1,2": 770, "1,300": 844, "1,400": 893, "1,500": 947, "1,600": 993, "1,700": 1037, "1,800": 1080, "1,900": 1167, "1-": 596, "1-0": 625, "1-1": 714, "1-2": 769, "1-3": 833, "1-4": 882, "1-5": 935, "1-6": 982, "1-8": 1070, "1.0": 626, "1.00": 638, "1.1": 716, "1.2": 772, "1.3": 835, "1.4": 884, "1.5": 936, "1.6": 983, "1.7": 1030, "1.8": 1071, "1.9": 1160, "1/": 598, "1/1": 715, "1/2": 771, "1/3": 834, "1/4": 883, "10": 605, "10%": 628, "10)": 627, "10,000": 652, "10-12": 661, "10-6": 683, "10.1": 660, "100": 629, "100%": 639, "100,000": 655, "1000": 640, "10000": 648, "101": 656, "102": 662, "103": 665, "10302-2010)": 670, "104": 672, "105": 675, "1050": 679, "106": 680, "107": 684, "108": 686, "1080": 689, "109": 691, "10:00": 646, "10:00-": 647, "10:30": 669, "11": 694, "11)": 717, "11-13": 727, "110": 719, "1100": 721, "111": 725, "112": 728, "113": 731, "114": 736, "115": 738, "116": 741, "117": 743, "118": 745, "119": 747, "11:00": 724, "11:30": 735, "11]": 718, "12": 749, "12%": 775, "12)": 774, "12-5": 805, "120": 776, "1200": 779, "121": 785, "122": 790, "123": 794, "12345": 797, "123456": 798, "123456789": 799, "124": 800, "125": 802, "126": 806, "127": 809, "128": 811, "129": 813, "12:00": 783, "13": 815, "13)": 836, "130": 838, "1300": 840, "131": 846, "1314151617181920": 848, "132": 849, "133": 851, "134": 853, "135": 855, "136": 857, "137": 859, "138": 862, "139": 864, "13]": 837, "14": 867, "14)": 886, "140": 887, "1400": 889, "14001": 895, "141": 897, "142": 899, "143": 901, "144": 903, "145": 905, "146": 907, "147": 909, "148": 911, "149": 913, "14:00": 894, "15": 915, "15%": 939, "15)": 937, "150": 940, "1500": 943, "151": 951, "152": 953, "153": 955, "154": 957, "155": 959, "156": 961, "157": 963, "158": 965, "159": 967, "15:00": 948, "15]": 938, "16": 969, "16)": 984, "160": 986, "1600": 989, "161": 995, "162": 997, "163": 999, "164": 1002, "165": 1004, "166": 1006, "167": 1008, "168": 1010, "169": 1012, "16949": 1014, "16:00": 994, "16]": 985, "17": 1015, "17)": 1031, "170": 1033, "1700": 1035, "171": 1039, "172": 1041, "173": 1043, "174": 1046, "175": 1048, "176": 1050, "177": 1052, "178": 1054, "179": 1055, "17:00": 1038, "17:30": 1045, "17]": 1032, "18": 1057, "18)": 1072, "180": 1074, "1800": 1076, "181": 1082, "182": 1084, "183": 1086, "184": 1088, "185": 1091, "186": 1094, "1865": 1097, "1866": 1099, "1868": 1102, "187": 1104, "1871": 1107, "188": 1111, "1880": 1113, "1881": 1115, "1885": 1119, "1886": 1121, "1888": 1124, "189": 1127, "1890": 1129, "1892": 1132, "1893": 1134, "1895": 1137, "1896": 1139, "1897": 1141, "1898": 1143, "1899": 1145, "18:00": 1081, "18]": 1073, "19": 1147, "19)": 1161, "190": 1163, "1900": 1165, "1901": 1169, "1902": 1171, "1903": 1173, "1904": 1175, "1905": 1177, "1906": 1179, "1907": 1181, "1908": 1183, "1909": 1185, "191": 1187, "1910": 1189, "1911": 1191, "1912": 1193, "1913": 1195, "1914": 1197, "1915": 1199, "1916": 1201, "1917": 1203, "1918": 1205, "1919": 1207, "192": 1209, "1920": 1211, "1921": 1213, "1922": 1215, "1923": 1217, "1924": 1219, "1925": 1221, "1926": 1223, "1927": 1225, "1928": 1227, "1929": 1229, "193": 1231, "1930": 1233, "1931": 1235, "1932": 1237, "1933": 1239, "1934": 1241, "1935": 1243, "1936": 1245, "1937": 1247, "1938": 1249, "1939": 1251, "194": 1254, "1940": 1256, "1941": 1258, "1942": 1260, "1943": 1262, "1944": 1264, "1945": 1266, "1946": 1269, "1947": 1271, "1948": 1273, "1949": 1275, "195": 1278, "1950": 1280, "1951": 1282, "1952": 1284, "1953": 1286, "1954": 1289, "1955": 1291, "1956": 1293, "1957": 1295, "1958": 1297, "1959": 1300, "196": 1302, "1960": 1304, "1961": 1306, "1962": 1308, "1963": 1310, "1964": 1312, "1965": 1314, "1966": 1316, "1967": 1318, "1968": 1320, "1969": 1322, "197": 1324, "1970": 1325, "1971": 1327, "1972": 1329, "1973": 1331, "1974": 1333, "1975": 1335, "1976": 1337, "1977": 1340, "1978": 1342, "1979": 1344, "198": 1346, "1980": 1348, "1981": 1350, "1982": 1353, "1983": 1355, "1984": 1357, "1985": 1360, "1986": 1362, "1987": 1365, "1988": 1368, "1989": 1371, "199": 1374, "1990": 1377, "1991": 1382, "1992": 1385, "1993": 1389, "1994": 1392, "1995": 1396, "1996": 1398, "1997": 1403, "1998": 1409, "1999": 1418, "19:00": 1168, "19]": 1162, "1:00": 637, "1\\": 603, "1]": 601, "1}": 602, "1\u00b0": 595, "1\u20442": 773, "1\u20444": 885, "2": 1426, "2%": 1462, "2)": 1459, "2).": 1460, "2,": 1455, "2,000": 1502, "2,100": 1917, "2,200": 1958, "2,300": 1997, "2,400": 2028, "2,500": 2068, "2,600": 2101, "2,700": 2132, "2,800": 2162, "2,900": 2191, "2-": 1454, "2-1": 1909, "2-2": 1950, "2-3": 1990, "2-4": 2022, "2-5": 2057, "2-8": 2156, "2.": 1458, "2.0": 1480, "2.00": 1490, "2.1": 1910, "2.2": 1951, "2.3": 1992, "2.4": 2023, "2.5": 2058, "2.6": 2096, "2.7": 2126, "2.8": 2157, "2.9": 2186, "2/": 1457, "2/3": 1991, "20": 1464, "20%": 1484, "20)": 1482, "20,000": 1506, "20-8600": 1893, "200": 1485, "2000": 1491, "2000-2001": 1512, "20000": 1503, "2001": 1514, "2002": 1522, "2002-2003": 1531, "2003": 1533, "2004": 1542, "2004-2005": 1553, "2005": 1554, "2006": 1562, "2006-02-08": 1572, "2006-2007": 1574, "2007": 1575, "2008": 1585, "2008-2009": 1599, "2009": 1600, "201": 1612, "2010": 1614, "2010-07-": 1624, "2010-2011": 1626, "2011": 1627, "2012": 1641, "2012-05-": 1656, "2012-06-": 1657, "2012-10-": 1661, "2012-11-": 1664, "2012-2013": 1667, "2013": 1668, "2013-10-1": 1685, "2013-12-0": 1690, "2014": 1693, "2014-01-": 1705, "2014-12-": 1719, "2014-2015": 1722, "2015": 1723, "2015-03-": 1732, "2015-11-": 1747, "2016": 1749, "2016-03-0": 1760, "2016-03-04)": 1762, "2016-03-05)": 1764, "2016-05-1": 1769, "2016-12-": 1775, "2017": 1778, "2017-07-2": 1795, "2017-12": 1798, "2018": 1799, "2018-01": 1811, "2018-02": 1813, "2018-03": 1816, "2018-04": 1820, "2018-06": 1826, "2019": 1836, "2019-01-2": 1844, "2019-02": 1845, "2019-03-2": 1847, "2019-04": 1848, "2019-07": 1852, "2019-08": 1855, "2019-09-": 1856, "2019-11-1": 1859, "202": 1861, "2020": 1863, "202020}": 1870, "2021": 1871, "2022": 1873, "2025": 1875, "203": 1877, "2030": 1879, "204": 1881, "205": 1883, "206": 1886, "207": 1888, "208": 1891, "209": 1894, "20]": 1483, "20\u00b0": 1481, "21": 1896, "21)": 1911, "210": 1913, "211": 1919, "212": 1921, "212223242526": 1924, "213": 1925, "214": 1927, "215": 1929, "216": 1931, "217": 1933, "218": 1935, "21:00": 1918, "21]": 1912, "22": 1937, "22)": 1952, "220": 1954, "2200": 1956, "221": 1960, "222": 1962, "223": 1964, "224": 1966, "225": 1967, "226": 1969, "227": 1971, "228": 1972, "229": 1974, "22:00": 1959, "22]": 1953, "23": 1976, "23)": 1993, "230": 1995, "231": 1998, "232": 1999, "233": 2000, "234": 2001, "235": 2003, "236": 2005, "237": 2006, "238": 2007, "239": 2008, "23]": 1994, "24": 2009, "24)": 2024, "24/7": 2038, "240": 2026, "241": 2029, "242": 2030, "243": 2031, "244": 2032, "245": 2033, "246": 2035, "247": 2036, "248": 2039, "249": 2041, "24]": 2025, "25": 2042, "25%": 2062, "25)": 2060, "250": 2063, "2500": 2066, "251": 2071, "252": 2072, "253": 2073, "254": 2074, "255": 2075, "256": 2077, "257": 2079, "258": 2081, "259": 2082, "25]": 2061, "25\u00b0": 2059, "26": 2083, "26)": 2097, "260": 2099, "261": 2102, "262": 2103, "263": 2104, "264": 2106, "265": 2107, "266": 2108, "267": 2109, "268": 2110, "269": 2111, "26]": 2098, "27": 2112, "27)": 2127, "270": 2129, "2700": 2131, "271": 2133, "272": 2134, "27282930": 2135, "273": 2136, "274": 2137, "275": 2138, "276": 2140, "277": 2141, "278": 2142, "279": 2143, "27]": 2128, "28": 2144, "28)": 2158, "280": 2160, "281": 2163, "282": 2164, "283": 2165, "284": 2166, "285": 2167, "286": 2169, "287": 2170, "288": 2171, "289": 2173, "28]": 2159, "29": 2174, "29)": 2187, "290": 2189, "291": 2192, "292": 2193, "293": 2194, "295": 2195, "296": 2196, "297": 2197, "298": 2198, "299": 2199, "29]": 2188, "2:": 1456, "2]": 1461, "2\u00b0": 1453, "2\u2032\u2032": 1463, "3": 2200, "3%": 2231, "3)": 2228, "3).": 2229, "3,000": 2262, "3,200": 2322, "3,300": 2341, "3,400": 2365, "3,500": 2393, "3,600": 2417, "3,700": 2437, "3,800": 2457, "3,900": 2477, "3-": 2226, "3-0": 2247, "3-2": 2317, "3-4": 2360, "3-5": 2385, "3-6": 2411, "3-8": 2452, "3.0": 2248, "3.00": 2258, "3.1": 2290, "3.2": 2318, "3.3": 2337, "3.4": 2362, "3.5": 2386, "3.6": 2412, "3.7": 2434, "3.8": 2453, "3.9": 2474, "3/": 2227, "3/4": 2361, "30": 2232, "30%": 2251, "30)": 2249, "30,000": 2265, "300": 2252, "3000": 2259, "301": 2267, "302": 2269, "303": 2270, "304": 2271, "305": 2273, "306": 2274, "307": 2276, "308": 2277, "309": 2278, "30]": 2250, "31": 2279, "31)": 2291, "31-8": 2306, "31.12.201": 2296, "310": 2293, "311": 2295, "312": 2297, "313": 2298, "314": 2299, "315": 2300, "316": 2302, "317": 2304, "318": 2305, "319": 2307, "31]": 2292, "32": 2308, "32)": 2319, "320": 2320, "321": 2323, "322": 2324, "323": 2325, "325": 2326, "326": 2327, "327": 2328, "328": 2329, "329": 2330, "33": 2331, "33)": 2338, "330": 2339, "331": 2342, "332": 2343, "333": 2344, "334": 2345, "335": 2346, "336": 2347, "337": 2348, "338": 2349, "339": 2350, "34": 2351, "34)": 2363, "340": 2364, "341": 2366, "342": 2367, "343": 2368, "344": 2369, "345": 2370, "346": 2371, "348": 2372, "349": 2373, "35": 2374, "35%": 2388, "35)": 2387, "350": 2389, "3500": 2391, "351": 2394, "352": 2395, "353": 2396, "354": 2397, "355": 2398, "356": 2399, "357": 2400, "358": 2401, "359": 2402, "36": 2403, "36)": 2413, "360": 2414, "361": 2418, "363": 2420, "364": 2421, "365": 2422, "366": 2424, "367": 2425, "368": 2426, "369": 2427, "37": 2428, "37)": 2435, "370": 2436, "371": 2438, "372": 2439, "373": 2440, "374": 2441, "375": 2442, "376": 2443, "377": 2444, "378": 2445, "379": 2446, "38": 2447, "38)": 2454, "380": 2455, "381": 2458, "382": 2459, "383": 2460, "384": 2461, "385": 2462, "386": 2463, "387": 2464, "388": 2465, "389": 2466, "39": 2467, "39)": 2475, "390": 2476, "391": 2478, "392": 2479, "393": 2480, "394": 2481, "395": 2482, "396": 2483, "397": 2484, "398": 2485, "399": 2486, "3:00": 2257, "3]": 2230, "3\u00b0": 2225, "4": 2487, "4%": 2518, "4)": 2515, "4).": 2516, "4,000": 2542, "4,100": 2566, "4,200": 2583, "4,300": 2599, "4,400": 2619, "4,600": 2659, "4,700": 2678, "4,900": 2716, "4-": 2513, "4-0": 2529, "4-1": 2561, "4-2": 2578, "4-5": 2635, "4-6": 2656, "4-8": 2693, "4.0": 2530, "4.00": 2538, "4.1": 2562, "4.2": 2579, "4.3": 2596, "4.4": 2616, "4.5": 2636, "4.6": 2657, "4.7": 2675, "4.8": 2694, "4.9": 2713, "4/": 2514, "40": 2520, "40%": 2532, "40)": 2531, "40,000": 2544, "400": 2533, "4000": 2539, "401": 2547, "402": 2549, "404": 2550, "406": 2552, "407": 2553, "408": 2554, "409": 2555, "41": 2556, "41)": 2563, "410": 2564, "411": 2567, "412": 2568, "415": 2569, "416": 2570, "418": 2571, "419": 2572, "42": 2573, "42)": 2580, "420": 2581, "421": 2584, "422": 2585, "423": 2586, "425": 2587, "426": 2588, "428": 2589, "429": 2590, "43": 2591, "43-1": 2601, "430": 2597, "431": 2600, "432": 2602, "433": 2603, "434": 2604, "435": 2605, "436": 2606, "437": 2607, "438": 2608, "439": 2609, "44": 2610, "440": 2617, "441": 2620, "442": 2621, "443": 2622, "444": 2623, "445": 2624, "446": 2625, "449": 2626, "45": 2627, "45)": 2637, "450": 2638, "451": 2640, "452": 2641, "453": 2642, "454": 2643, "455": 2644, "456": 2645, "457": 2646, "458": 2647, "459": 2648, "46": 2649, "460": 2658, "461": 2660, "462": 2662, "463": 2663, "465": 2664, "466": 2665, "467": 2666, "468": 2667, "469": 2668, "47": 2669, "47)": 2676, "470": 2677, "471": 2679, "473": 2680, "474": 2681, "475": 2682, "476": 2683, "477": 2684, "478": 2685, "479": 2686, "48": 2687, "48)": 2695, "480": 2696, "481": 2698, "483": 2699, "484": 2700, "485": 2701, "486": 2702, "487": 2703, "488": 2704, "489": 2705, "49": 2706, "49)": 2714, "490": 2715, "491": 2717, "492": 2718, "493": 2719, "494": 2720, "495": 2721, "496": 2722, "497": 2723, "498": 2724, "499": 2725, "4]": 2517, "4\u00b0": 2512, "4\u2032\u2032": 2519, "5": 2726, "5%": 2755, "5)": 2752, "5).": 2753, "5,000": 2785, "5,200": 2829, "5,400": 2865, "5,500": 2881, "5,600": 2904, "5,800": 2946, "5-": 2750, "5-0": 2767, "5-1": 2806, "5-6": 2900, "5-7": 2922, "5.0": 2768, "5.00": 2780, "5.1": 2807, "5.2": 2827, "5.3": 2842, "5.4": 2861, "5.5": 2876, "5.6": 2901, "5.7": 2923, "5.8": 2942, "5.9": 2963, "5/": 2751, "50": 2757, "50%": 2772, "50)": 2771, "50,000": 2788, "50/": 2770, "500": 2773, "5000": 2781, "501": 2791, "503": 2793, "505": 2794, "506": 2795, "507": 2796, "508": 2797, "509": 2798, "50\u00b0": 2769, "51": 2799, "51)": 2808, "510": 2809, "511": 2811, "512": 2812, "515": 2814, "516": 2815, "517": 2816, "518": 2817, "519": 2818, "52": 2819, "520": 2828, "522": 2830, "525": 2831, "526": 2832, "527": 2833, "528": 2834, "529": 2835, "53": 2836, "53)": 2843, "530": 2844, "531": 2845, "532": 2846, "533": 2847, "534": 2848, "535": 2849, "536": 2850, "537": 2851, "538": 2852, "539": 2853, "54": 2854, "54)": 2863, "54/": 2862, "540": 2864, "542": 2866, "543": 2867, "545": 2868, "549": 2869, "55": 2870, "55)": 2878, "55/": 2877, "55/2": 2885, "550": 2879, "551": 2882, "553": 2886, "554": 2887, "555": 2888, "557": 2890, "558": 2891, "559": 2893, "56": 2894, "56)": 2902, "56/2": 2908, "560": 2903, "561": 2905, "562": 2906, "563": 2909, "564": 2910, "565": 2911, "566": 2912, "567": 2913, "568": 2914, "569": 2915, "57": 2916, "57)": 2925, "57/": 2924, "570": 2926, "571": 2927, "572": 2928, "573": 2930, "574": 2931, "575": 2932, "576": 2934, "577": 2935, "578": 2936, "579": 2937, "58": 2938, "58)": 2944, "58/": 2943, "580": 2945, "581": 2947, "582": 2949, "583": 2950, "584": 2951, "585": 2952, "586": 2953, "587": 2955, "588": 2956, "589": 2957, "59": 2958, "59/": 2964, "590": 2965, "591": 2966, "592": 2967, "593": 2969, "595": 2970, "596": 2971, "597": 2972, "598": 2973, "599": 2974, "5:00": 2779, "5]": 2754, "5\u00b0": 2749, "5\u2032\u2032": 2756, "6": 2975, "6%": 3000, "6)": 2997, "6).": 2998, "6,000": 3022, "6,200": 3061, "6,300": 3082, "6,400": 3101, "6,500": 3119, "6,600": 3136, "6,700": 3152, "6,900": 3185, "6-": 2995, "6-0": 3010, "6-1": 3040, "6-2": 3056, "6-5": 3114, "6-6": 3132, "6-7": 3148, "6-8": 3167, "6.0": 3011, "6.00": 3018, "6.1": 3041, "6.2": 3057, "6.3": 3078, "6.4": 3098, "6.5": 3115, "6.6": 3133, "6.7": 3149, "6.8": 3168, "6.9": 3182, "6/": 2996, "60": 3002, "60%": 3013, "60,000": 3024, "60/2": 3028, "600": 3014, "6000": 3019, "601": 3025, "603": 3029, "605": 3030, "606": 3031, "607": 3032, "608": 3033, "609": 3034, "60\u00b0": 3012, "61": 3035, "61)": 3042, "610": 3043, "611": 3044, "615": 3046, "616": 3047, "617": 3048, "618": 3049, "619": 3050, "62": 3051, "62)": 3059, "62/": 3058, "620": 3060, "621": 3062, "622": 3063, "623": 3065, "624": 3066, "625": 3067, "626": 3068, "627": 3069, "628": 3070, "629": 3071, "63": 3072, "63)": 3080, "63/": 3079, "630": 3081, "631": 3083, "632": 3085, "633": 3086, "634": 3087, "635": 3088, "636": 3089, "637": 3090, "638": 3091, "639": 3092, "64": 3093, "64)": 3099, "640": 3100, "643": 3103, "645": 3104, "646": 3105, "647": 3106, "649": 3107, "65": 3108, "65)": 3116, "650": 3117, "651": 3120, "654": 3121, "655": 3122, "656": 3123, "657": 3124, "658": 3125, "659": 3126, "66": 3127, "66)": 3134, "660": 3135, "661": 3137, "662": 3138, "663": 3139, "665": 3140, "666": 3141, "667": 3142, "668": 3143, "669": 3144, "67": 3145, "67)": 3150, "670": 3151, "671": 3153, "672": 3154, "673": 3155, "674": 3156, "675": 3157, "676": 3158, "677": 3159, "678": 3160, "679": 3161, "68": 3162, "68)": 3169, "680": 3170, "681": 3171, "682": 3172, "684": 3173, "685": 3174, "686": 3175, "687": 3176, "688": 3177, "689": 3178, "69": 3179, "69)": 3183, "690": 3184, "691": 3186, "692": 3187, "693": 3188, "695": 3189, "696": 3190, "697": 3191, "698": 3192, "699": 3193, "6:00": 3017, "6]": 2999, "6\u00b0": 2994, "6\u2032\u2032": 3001, "7": 3194, "7%": 3215, "7)": 3212, "7).": 3213, "7,000": 3232, "7,100": 3252, "7,200": 3265, "7,300": 3279, "7,400": 3295, "7,500": 3313, "7,600": 3328, "7,800": 3358, "7,900": 3373, "7-0": 3221, "7-1": 3248, "7-3": 3276, "7-8": 3352, "7-9": 3369, "7.0": 3222, "7.00": 3229, "7.1": 3249, "7.2": 3261, "7.3": 3277, "7.4": 3292, "7.5": 3308, "7.50": 3312, "7.6": 3325, "7.7": 3339, "7.8": 3354, "7.9": 3370, "7/": 3211, "7/8": 3353, "70": 3217, "70%": 3224, "70)": 3223, "70,000": 3233, "700": 3225, "7000": 3230, "701": 3235, "702": 3236, "703": 3237, "704": 3238, "705": 3239, "706": 3240, "707": 3241, "708": 3242, "709": 3243, "71": 3244, "71)": 3250, "710": 3251, "713": 3253, "714": 3254, "716": 3255, "717": 3256, "718": 3257, "72": 3258, "72)": 3262, "720": 3263, "721": 3266, "722": 3267, "723": 3268, "725": 3269, "726": 3270, "727": 3271, "728": 3272, "729": 3273, "73": 3274, "730": 3278, "731": 3280, "732": 3281, "733": 3282, "734": 3283, "735": 3284, "736": 3285, "737": 3286, "738": 3288, "739": 3289, "74": 3290, "74)": 3293, "740": 3294, "742": 3296, "743": 3297, "744": 3298, "745": 3299, "746": 3300, "747": 3301, "749": 3302, "75": 3303, "75%": 3309, "75,000": 3314, "750": 3310, "751": 3315, "754": 3316, "755": 3317, "755-2": 3318, "756": 3319, "757": 3320, "758": 3321, "759": 3322, "76": 3323, "76)": 3326, "760": 3327, "761": 3329, "762": 3330, "763": 3331, "765": 3332, "766": 3333, "767": 3334, "768": 3335, "769": 3336, "77": 3337, "770": 3340, "771": 3341, "773": 3342, "774": 3343, "775": 3344, "776": 3345, "777": 3346, "778": 3347, "779": 3348, "78": 3349, "78)": 3355, "780": 3356, "781": 3359, "782": 3360, "784": 3361, "785": 3362, "786": 3363, "787": 3364, "788": 3365, "789": 3366, "79": 3367, "79)": 3371, "790": 3372, "791": 3374, "792": 3375, "794": 3376, "795": 3377, "796": 3378, "797": 3379, "798": 3380, "799": 3381, "7]": 3214, "7\u00b0": 3210, "7\u2032\u2032": 3216, "8": 3382, "8%": 3406, "8)": 3403, "8).": 3404, "8,000": 3423, "8,400": 3487, "8,800": 3562, "8,900": 3580, "8-": 3401, "8-0": 3413, "8-1": 3441, "8-9": 3576, "8.0": 3414, "8.00": 3420, "8.1": 3442, "8.2": 3454, "8.3": 3469, "8.4": 3485, "8.5": 3500, "8.6": 3525, "8.7": 3546, "8.8": 3560, "8.9": 3577, "8/": 3402, "80": 3408, "80%": 3415, "80,000": 3426, "800": 3416, "8000": 3421, "8000}": 3424, "801": 3427, "802": 3428, "803": 3430, "804": 3431, "805": 3432, "806": 3433, "807": 3434, "808": 3435, "809": 3436, "81": 3437, "81)": 3443, "810": 3444, "811": 3445, "812": 3446, "813": 3447, "815": 3448, "817": 3449, "818": 3450, "82": 3451, "82)": 3455, "820": 3456, "821": 3457, "822": 3458, "823": 3459, "825": 3460, "826": 3461, "827": 3462, "828": 3463, "829": 3465, "83": 3466, "83)": 3470, "830": 3471, "831": 3474, "832": 3475, "833": 3476, "835": 3477, "836": 3478, "837": 3479, "838": 3480, "839": 3481, "84": 3482, "840": 3486, "841": 3488, "842": 3489, "843": 3490, "844": 3491, "845": 3492, "848": 3493, "849": 3494, "85": 3495, "85%": 3502, "85)": 3501, "850": 3503, "851": 3505, "852": 3506, "853": 3509, "855": 3510, "856": 3511, "857": 3512, "858": 3513, "859": 3514, "86": 3515, "86-57": 3538, "860": 3526, "861": 3530, "862": 3533, "863": 3534, "865": 3535, "866": 3539, "867": 3540, "868": 3541, "869": 3542, "87": 3543, "870": 3547, "871": 3548, "872": 3549, "873": 3550, "874": 3551, "875": 3552, "876": 3553, "877": 3554, "878": 3555, "879": 3556, "88": 3557, "880": 3561, "881": 3563, "882": 3564, "883": 3565, "885": 3566, "886": 3567, "887": 3568, "888": 3569, "8888": 3571, "88888888": 3572, "889": 3573, "89": 3574, "89)": 3578, "890": 3579, "891": 3581, "892": 3582, "893": 3583, "895": 3584, "896": 3585, "897": 3586, "898": 3587, "899": 3588, "8:00": 3419, "8:30": 3473, "8]": 3405, "8\u00b0": 3400, "8\u2032\u2032": 3407, "9": 3589, "9%": 3610, "9)": 3607, "9).": 3608, "9,": 3606, "9,000": 3624, "9,200": 3657, "9,500": 3697, "9,600": 3709, "9,900": 3758, "9-": 3605, "9-0": 3615, "9-1": 3640, "9-88": 3748, "9.0": 3616, "9.00": 3622, "9.1": 3641, "9.2": 3654, "9.3": 3667, "9.4": 3682, "9.5": 3692, "9.6": 3706, "9.7": 3724, "9.8": 3741, "9.9": 3754, "9.95": 3764, "9.99": 3769, "90": 3612, "90%": 3617, "90,000": 3625, "900": 3618, "9000": 3623, "9001": 3626, "9001:2008": 3628, "901": 3629, "903": 3630, "904": 3631, "905": 3632, "906": 3633, "907": 3634, "908": 3635, "909": 3636, "9099": 3637, "91": 3638, "91)": 3642, "911": 3643, "915": 3646, "916": 3647, "917": 3648, "918": 3650, "919": 3651, "92": 3652, "92)": 3655, "920": 3656, "922": 3658, "923": 3659, "925": 3660, "926": 3661, "927": 3662, "928": 3663, "929": 3664, "93": 3665, "93)": 3668, "930": 3669, "931": 3672, "932": 3673, "933": 3674, "935": 3675, "936": 3676, "937": 3677, "938": 3678, "939": 3679, "94": 3680, "94)": 3683, "940": 3684, "943": 3685, "945": 3686, "946": 3687, "949": 3688, "95": 3689, "95%": 3694, "95)": 3693, "950": 3695, "951": 3698, "952": 3699, "956": 3700, "957": 3701, "958": 3702, "959": 3703, "96": 3704, "96)": 3707, "960": 3708, "961": 3710, "962": 3711, "963": 3712, "965": 3717, "966": 3718, "967": 3719, "968": 3720, "969": 3721, "97": 3722, "970": 3725, "971": 3726, "973": 3727, "975": 3728, "976": 3729, "978": 3730, "979": 3738, "98": 3739, "98%": 3743, "98)": 3742, "980": 3744, "985": 3745, "986": 3746, "988": 3747, "989": 3749, "99": 3750, "99%": 3756, "99)": 3755, "99.99": 3771, "990": 3757, "991": 3759, "992": 3760, "993": 3761, "994": 3762, "995": 3763, "996": 3765, "997": 3766, "998": 3767, "999": 3768, "9999": 3770, "9:00": 3621, "9:30": 3671, "9]": 3609, "9\u00b0": 3604, "9\u2032\u2032": 3611, ":": 48, ":\"": 51, ":(0": 278, ":(86)": 3517, ":+": 54, ":+86": 3518, ":+86-": 3519, ":+86-0": 3527, ":+86-13": 3531, ":+86-5": 3536, "://": 49, ":0": 277, ":00": 300, ":00-17:00": 331, ":00-18:00": 332, ":00-6:00": 343, ":0086": 346, ":0086-": 347, ":0086-57": 350, ":00:00": 314, ":01": 355, ":010-6": 366, ":02": 382, ":020-8": 392, ":021-5": 396, ":021-6": 397, ":03": 412, ":04": 437, ":05": 454, ":0510-8": 466, ":057": 472, ":06": 477, ":07": 496, ":0755": 511, ":0755-2": 513, ":0769-8": 515, ":08": 520, ":09": 542, ":1": 560, ":1/1": 699, ":10": 609, ":11": 698, ":12": 752, ":13": 817, ":139": 865, ":14": 869, ":15": 918, ":16": 971, ":17": 1017, ":18": 1059, ":19": 1150, ":20": 1467, ":2012": 1643, ":2013": 1670, ":2014": 1695, ":2015": 1725, ":2016": 1751, ":2017": 1780, ":2017-12-": 1797, ":2018": 1801, ":2019": 1838, ":21": 1899, ":22": 1940, ":23": 1978, ":24": 2011, ":25": 2044, ":26": 2085, ":27": 2115, ":28": 2146, ":29": 2176, ":3": 2203, ":30": 2235, ":31": 2281, ":32": 2310, ":33": 2332, ":34": 2353, ":35": 2377, ":36": 2405, ":37": 2429, ":38": 2448, ":39": 2469, ":4": 2490, ":40": 2522, ":400": 2534, ":400-": 2535, ":400-8": 2546, ":41": 2557, ":42": 2574, ":43": 2592, ":44": 2611, ":45": 2629, ":46": 2650, ":47": 2670, ":48": 2688, ":49": 2707, ":5": 2729, ":50": 2759, ":51": 2800, ":52": 2821, ":53": 2837, ":54": 2856, ":55": 2871, ":56": 2895, ":57": 2918, ":58": 2939, ":59": 2959, ":6": 2977, ":7": 3196, ":8": 3384, ":86-": 3520, ":86-0": 3528, ":9": 3591, ":[": 53, ":\u2018": 50, ":\u201c": 52, ":\u300c": 55, ";": 46, ";(": 47, "<": 9, "</": 10, "</s>": 26293, "<s>": 26294, "<unk>": 31083, "=": 12, "=\"": 15, "=\"%(": 16, "=&": 17, "=0": 275, "=1": 558, "==": 13, "===": 14, ">": 19, ">>": 20, ">>cjy_Hans<<": 8320, ">>cjy_Hant<<": 8321, ">>cmn<<": 8508, ">>cmn_Hans<<": 8509, ">>cmn_Hant<<": 8510, ">>gan<<": 14275, ">>hak<<": 15165, ">>hak_Hani<<": 15167, ">>hsn_Hani<<": 15950, ">>lzh<<": 19289, ">>lzh_Hans<<": 19290, ">>nan<<": 20957, ">>wuu<<": 32618, ">>yue_Hans<<": 32910, ">>yue_Hant<<": 32911, ">>zho<<": 33003, "?": 64, "?\"": 67, "?#2": 1430, "?#3": 2204, "???": 65, "????": 66, "?\u201c\u201c\u201c": 68, "?\u201d": 69, "?\u300d": 70, "@": 140, "@126.": 807, "@163.": 1000, "A": 3774, "AA": 3789, "AAA": 3791, "AB": 3798, "ABC": 3815, "ABILITY": 3837, "ABLE": 3841, "ABOUT": 3857, "ABS": 3865, "AC": 3897, "ACC": 3910, "ACE": 4004, "ACH": 4008, "ACK": 4023, "ACT": 4051, "AD": 4102, "ADA": 4106, "AE": 4261, "AF": 4273, "AG": 4320, "AGE": 4333, "AH": 4396, "AI": 4404, "AIDS": 4409, "AIR": 4425, "AK": 4454, "AKA": 4457, "AL": 4474, "ALI": 4533, "ALL": 4559, "AM": 4660, "AMA": 4663, "AMD": 4687, "AME": 4690, "AMI": 4712, "AMP": 4735, "AN": 4747, "ANA": 4753, "ANCE": 4781, "AND": 4797, "ANG": 4821, "ANI": 4851, "ANS": 4908, "ANT": 4917, "AO": 4978, "AP": 4983, "API": 5005, "APP": 5022, "AR": 5139, "ARC": 5159, "ARD": 5190, "ARE": 5197, "ARM": 5242, "ART": 5306, "ARY": 5337, "AS": 5342, "ASI": 5363, "ASP": 5381, "ASS": 5391, "AST": 5459, "ASTM": 5466, "AT": 5491, "ATA": 5494, "ATE": 5499, "ATED": 5501, "ATING": 5518, "ATION": 5520, "ATIONS": 5523, "ATM": 5529, "ATOR": 5542, "ATP": 5544, "ATT": 5548, "AU": 5603, "AUD": 5609, "AV": 5711, "AVI": 5738, "AWA": 5752, "AX": 5780, "AY": 5790, "Abd": 3817, "Abdul": 3824, "About": 3855, "Absolute": 3872, "Abu": 3887, "Access": 3931, "Accessories": 3941, "According": 3965, "Account": 3971, "Acknowledg": 4024, "Act": 4049, "Active": 4070, "Actively": 4073, "Actually": 4092, "Ad": 4100, "Adam": 4107, "Add": 4119, "Address": 4140, "Admin": 4175, "Adobe": 4194, "Adopted": 4203, "Adult": 4214, "Advanced": 4222, "Aero": 4265, "Africa": 4302, "African": 4305, "After": 4310, "Ag": 4318, "Again": 4324, "Agency": 4343, "Agenda": 4347, "Agreed": 4378, "Ah": 4394, "Air": 4423, "Airbnb": 4427, "Al": 4472, "Alan": 4479, "Albert": 4490, "Alex": 4509, "Alexa": 4511, "Alexander": 4513, "Alice": 4538, "Aligned": 4546, "All": 4557, "Alpha": 4605, "Alt": 4620, "Aluminum": 4645, "Always": 4650, "Am": 4658, "Amazon": 4672, "Amendment": 4697, "America": 4704, "American": 4707, "Amino": 4717, "An": 4745, "Ana": 4751, "Analytical": 4767, "And": 4795, "Anders": 4803, "Andre": 4808, "Andrew": 4811, "Android": 4813, "Andy": 4815, "Ang": 4819, "Angel": 4826, "Anhui": 4848, "Animated": 4858, "Ann": 4865, "Anna": 4868, "Anne": 4872, "Annual": 4897, "Another": 4905, "Ant": 4915, "Anthony": 4927, "Anti": 4932, "Antonio": 4953, "Any": 4962, "Apache": 4986, "Apartment": 4996, "Apartments": 5000, "App": 5020, "Applause": 5050, "Apple": 5052, "Applicable": 5061, "Application": 5067, "April": 5123, "Aqua": 5129, "Ar": 5137, "Arab": 5143, "Arabic": 5147, "Arc": 5157, "Arch": 5165, "Are": 5195, "Argentina": 5208, "Arm": 5240, "Art": 5304, "Arthur": 5311, "Article": 5315, "As": 5340, "Ash": 5357, "Asia": 5365, "Asian": 5368, "Ask": 5373, "Ass": 5390, "Assad": 5393, "Assembl": 5402, "At": 5489, "Attribute": 5593, "Au": 5601, "Audi": 5612, "August": 5633, "Australia": 5647, "Austria": 5650, "Auto": 5676, "Automatic": 5687, "Autumn": 5704, "Average": 5734, "Azerbaijan": 5798, "Azur": 5805, "B": 5811, "BA": 5817, "BAR": 5986, "BASE": 6029, "BB": 6102, "BBC": 6104, "BC": 6109, "BD": 6111, "BDE": 6113, "BE": 6119, "BEI": 6215, "BER": 6303, "BI": 6366, "BL": 6498, "BLE": 6531, "BM": 6603, "BMW": 6604, "BN": 6607, "BO": 6612, "BOO": 6685, "BP": 6815, "BR": 6822, "BRICS": 6928, "BRL": 6965, "BS": 7043, "BSA": 7045, "BSD": 7046, "BT": 7048, "BTC": 7050, "BU": 7055, "BUILDING": 7109, "BURG": 7153, "BX": 7222, "BY": 7227, "Ba": 5815, "Baby": 5829, "Back": 5840, "Bahn": 5884, "Baiyun": 5893, "Ban": 5939, "Bangladesh": 5956, "Bank": 5960, "Bao": 5976, "Bar": 5984, "Barcelon": 5998, "Base": 6027, "Based": 6034, "Basic": 6044, "Battle": 6087, "Be": 6117, "Beautiful": 6150, "Because": 6157, "Bedroom": 6172, "Bee": 6177, "Before": 6188, "Bei": 6213, "Beijing": 6217, "Bel": 6227, "Belgium": 6233, "Ben": 6270, "Benz": 6298, "Berlin": 6309, "Bern": 6312, "Best": 6329, "Bet": 6333, "Beyond": 6356, "Bi": 6364, "Big": 6393, "Bill": 6414, "Bio": 6437, "Bissau": 6477, "Bit": 6481, "Bitcoin": 6487, "Bl": 6497, "Black": 6504, "Blanc": 6519, "Block": 6555, "Blog": 6565, "Blood": 6575, "Blue": 6594, "Bo": 6610, "Board": 6616, "Bob": 6626, "Body": 6634, "Bolivar": 6650, "Bon": 6664, "Boo": 6683, "Book": 6688, "Booking": 6692, "Boot": 6706, "Boston": 6744, "Bot": 6748, "Both": 6754, "Box": 6800, "Boy": 6809, "Br": 6820, "Bra": 6826, "Brad": 6832, "Brand": 6852, "Brazil": 6868, "Break": 6880, "Bri": 6919, "Brian": 6921, "Brien": 6941, "British": 6961, "Bro": 6969, "Broad": 6972, "Brother": 7008, "Browse": 7018, "Bu": 7053, "Bud": 7068, "Bug": 7096, "Build": 7101, "Building": 7107, "Bur": 7144, "Business": 7186, "Busy": 7195, "But": 7198, "Buy": 7212, "By": 7225, "C": 7238, "CA": 7249, "CAD": 7266, "CAL": 7297, "CAM": 7348, "CAN": 7379, "CAP": 7428, "CAR": 7466, "CAS": 7556, "CAT": 7601, "CB": 7672, "CBS": 7675, "CC": 7678, "CCA": 7681, "CCC": 7682, "CCD": 7683, "CCP": 7689, "CCTV": 7691, "CD": 7693, "CE": 7698, "CEDAW": 7707, "CEN": 7738, "CEO": 7776, "CER": 7782, "CES": 7810, "CF": 7817, "CG": 7820, "CH": 7827, "CHANG": 7889, "CHE": 7991, "CHENG": 8043, "CHF": 8070, "CHINA": 8117, "CHR": 8178, "CI": 8235, "CIA": 8238, "CIS": 8284, "CITIC": 8293, "CK": 8323, "CKET": 8326, "CL": 8331, "CM": 8506, "CMP": 8512, "CMS": 8513, "CN": 8516, "CNC": 8519, "CNN": 8521, "CNTV": 8523, "CNY": 8524, "CO": 8530, "COIN": 8591, "COM": 8684, "COMING": 8720, "CON": 8966, "CONDITION": 9015, "CONF": 9040, "CONTACT": 9250, "COP": 9443, "CORE": 9473, "CORPORATE": 9497, "CP": 9650, "CPC": 9652, "CPN": 9655, "CPP": 9656, "CPU": 9657, "CR": 9663, "CRC": 9692, "CREDIT": 9728, "CRM": 9778, "CRP": 9807, "CS": 9842, "CSI": 9844, "CSR": 9845, "CT": 9849, "CTION": 9852, "CTS": 9857, "CU": 9861, "CULTURE": 9897, "CV": 9984, "CY": 9989, "CZK": 10027, "Ca": 7247, "Cai": 7284, "Calais": 7299, "California": 7323, "Call": 7328, "Cam": 7346, "Camp": 7365, "Can": 7377, "Canada": 7382, "Cap": 7426, "Captain": 7454, "Car": 7464, "Card": 7478, "Care": 7489, "Carl": 7503, "Carlo": 7505, "Carlton": 7508, "Carol": 7516, "Cartagena": 7541, "Cas": 7554, "Casa": 7558, "Case": 7564, "Cast": 7581, "Cat": 7599, "Category": 7626, "Cathedral": 7635, "Cause": 7656, "Center": 7749, "Central": 7758, "Century": 7774, "Certainly": 7795, "Certificate": 7800, "Ch": 7825, "Cha": 7831, "Chain": 7838, "Chair": 7843, "Chairman": 7847, "Chairmen": 7849, "Chairperson": 7850, "Chancellor": 7880, "Chang": 7887, "Change": 7894, "Changzhou": 7906, "Channel": 7910, "Chapter": 7924, "Char": 7929, "Character": 7933, "Charles": 7957, "Charlie": 7960, "Chart": 7969, "Chat": 7982, "Che": 7989, "Check": 8003, "Chemical": 8027, "Cheng": 8041, "Chi": 8075, "Chicken": 8084, "Chief": 8089, "Child": 8094, "Children": 8102, "China": 8115, "ChinaChemNet": 8119, "Chinese": 8122, "Chloro": 8139, "Chongqing": 8156, "Choose": 8162, "Chou": 8175, "Chris": 8180, "Christ": 8182, "Christian": 8185, "Christmas": 8192, "Chrom": 8197, "Chrome": 8199, "Ci": 8233, "Circ": 8265, "City": 8305, "Cl": 8329, "Clar": 8349, "Class": 8365, "Claude": 8381, "Clean": 8396, "Cleansing": 8405, "Clear": 8408, "Click": 8425, "Close": 8461, "Cloud": 8484, "Club": 8493, "Co": 8528, "Code": 8565, "Coffee": 8578, "Coin": 8589, "Cola": 8600, "Cole": 8604, "Coll": 8608, "Color": 8664, "Com": 8682, "Come": 8703, "Comm": 8722, "Comment": 8742, "Commerce": 8751, "Commercial": 8755, "Commission": 8758, "Committee": 8777, "Common": 8787, "Communication": 8800, "Community": 8816, "Comp": 8823, "Company": 8834, "Complete": 8891, "Computer": 8954, "Con": 8964, "Conf": 9038, "Congratulations": 9100, "Connect": 9111, "Connell": 9128, "Construction": 9211, "Consular": 9217, "Contact": 9248, "Content": 9276, "Continuation": 9297, "Continue": 9299, "Contract": 9316, "Control": 9346, "Controlled": 9351, "Cookie": 9404, "Cookies": 9408, "Cool": 9415, "Cooper": 9421, "Copyright": 9456, "Cor": 9461, "Core": 9471, "Corp": 9488, "Corporate": 9495, "Corr": 9504, "Cortez": 9534, "Costa": 9542, "Could": 9558, "Council": 9563, "Count": 9574, "Coupon": 9603, "Course": 9611, "Cr": 9661, "Create": 9703, "Credit": 9726, "Cross": 9792, "Crown": 9803, "Crypt": 9830, "Crypto": 9832, "Cryptocurrencies": 9835, "Ctrl": 9855, "Cu": 9859, "Cube": 9868, "Cui": 9874, "Cultural": 9890, "Culture": 9895, "Cummins": 9899, "Cur": 9910, "Current": 9928, "Custom": 9955, "Customer": 9959, "Cut": 9974, "Cy": 9987, "Cyber": 9993, "Cyclo": 10007, "Czech": 10023, "D": 10031, "DA": 10039, "DAC": 10041, "DAY": 10168, "DB": 10177, "DC": 10180, "DCP": 10182, "DD": 10184, "DE": 10194, "DEN": 10471, "DER": 10551, "DES": 10561, "DEX": 10708, "DF": 10710, "DG": 10711, "DH": 10714, "DI": 10725, "DIA": 10730, "DIC": 10766, "DIN": 10845, "DING": 10853, "DIS": 10908, "DIY": 11139, "DJ": 11142, "DKK": 11146, "DL": 11148, "DM": 11152, "DN": 11158, "DNA": 11160, "DNS": 11162, "DO": 11168, "DOM": 11224, "DONG": 11263, "DOS": 11292, "DOWNLOAD": 11321, "DP": 11334, "DR": 11342, "DRA": 11346, "DS": 11457, "DT": 11459, "DU": 11465, "DVD": 11535, "DX": 11542, "DY": 11546, "Da": 10037, "Dad": 10043, "Daddy": 10046, "Daily": 10053, "Dalian": 10065, "Damn": 10078, "Daniel": 10100, "Danish": 10102, "Dar": 10112, "Dark": 10118, "Dash": 10128, "Data": 10134, "Date": 10143, "Dave": 10154, "David": 10156, "Day": 10166, "De": 10192, "Dean": 10214, "Dear": 10217, "Death": 10221, "Deb": 10224, "Dec": 10241, "December": 10253, "Decision": 10269, "Deep": 10315, "Def": 10327, "Defence": 10340, "Demo": 10443, "Democrat": 10448, "Department": 10499, "Deputy": 10546, "Design": 10582, "Detail": 10634, "Determination": 10661, "Deutsch": 10669, "Development": 10689, "Di": 10723, "Dia": 10728, "Diamond": 10753, "Dict": 10771, "Did": 10779, "Die": 10786, "Digital": 10826, "Diode": 10865, "Direct": 10878, "Director": 10892, "Dis": 10906, "Disney": 11015, "Disrupt": 11057, "Do": 11166, "Doc": 11171, "Doctor": 11178, "Document": 11188, "Does": 11199, "Dom": 11223, "Domestic": 11232, "Don": 11247, "Donald": 11250, "Dong": 11261, "Dongguan": 11265, "Donnell": 11269, "Doo": 11274, "Dou": 11296, "Double": 11300, "Down": 11314, "Download": 11319, "Dr": 11340, "Dragon": 11356, "Dream": 11377, "Drink": 11402, "Drive": 11410, "Dropbox": 11425, "Du": 11463, "Dubai": 11470, "Dun": 11501, "Dutch": 11528, "Dynamic": 11554, "E": 11564, "EA": 11579, "EAN": 11589, "EAR": 11593, "EASE": 11619, "EB": 11650, "EC": 11656, "ECE": 11660, "ECT": 11697, "ED": 11704, "EE": 11749, "EEP": 11755, "EF": 11759, "EG": 11787, "EI": 11801, "EL": 11830, "ELEC": 11848, "ELL": 11934, "EM": 11958, "EMA": 11961, "EMBER": 11981, "EMC": 11990, "EMENT": 11993, "EMI": 12007, "EMS": 12068, "EN": 12073, "ENCE": 12089, "END": 12121, "ENE": 12142, "ENG": 12164, "ENGLISH": 12191, "ENS": 12243, "ENT": 12254, "EO": 12325, "EP": 12330, "EPA": 12332, "EPT": 12346, "ER": 12377, "ERA": 12382, "ERN": 12405, "ERP": 12411, "ERS": 12421, "ERY": 12427, "ES": 12429, "ESS": 12454, "EST": 12466, "ET": 12498, "ETH": 12512, "EU": 12544, "EUR": 12556, "EV": 12573, "EVA": 12577, "EVENT": 12608, "EVER": 12617, "EX": 12662, "EY": 12954, "Each": 11583, "Earl": 11594, "Earth": 11611, "East": 11626, "Eastern": 11632, "Easy": 11637, "Echo": 11663, "Econo": 11677, "Economic": 11681, "Ed": 11702, "Edit": 11717, "Editor": 11725, "Education": 11738, "Edward": 11745, "Effect": 11764, "Egypt": 11793, "Eight": 11806, "El": 11828, "Elect": 11852, "Electric": 11866, "Electronic": 11883, "Element": 11893, "Elizabeth": 11931, "Elon": 11946, "Em": 11956, "Email": 11964, "Employ": 12047, "En": 12071, "End": 12119, "Energy": 12153, "Engine": 12174, "Engineering": 12181, "English": 12189, "Enjoy": 12210, "Enter": 12259, "Enterprise": 12265, "Entr": 12287, "Entrepreneurship": 12295, "Environment": 12310, "Equipment": 12363, "Er": 12375, "Eric": 12396, "Error": 12416, "Eu": 12542, "Eurasian": 12559, "Euro": 12561, "Europe": 12564, "European": 12566, "Even": 12600, "Event": 12606, "Every": 12624, "Everybody": 12628, "Everyone": 12633, "Everything": 12636, "Ex": 12660, "Exc": 12686, "Excel": 12694, "Excellent": 12700, "Exception": 12707, "Exchange": 12717, "Executive": 12749, "Exhibition": 12769, "Existing": 12784, "Exp": 12794, "Eye": 12957, "F": 12965, "FA": 12971, "FAQ": 13109, "FB": 13179, "FBI": 13180, "FC": 13182, "FCCC": 13185, "FDA": 13187, "FE": 13194, "FENG": 13282, "FER": 13285, "FF": 13317, "FFFF": 13320, "FI": 13329, "FIA": 13331, "FIC": 13340, "FIELD": 13351, "FIFA": 13356, "FL": 13563, "FM": 13683, "FO": 13689, "FOR": 13761, "FORM": 13827, "FP": 13924, "FPA": 13925, "FR": 13933, "FS": 14088, "FT": 14092, "FTP": 14094, "FU": 14100, "FUL": 14127, "FX": 14205, "Fa": 12969, "Fab": 12973, "Face": 12983, "Facebook": 12987, "Facilities": 13002, "Factory": 13022, "Fair": 13045, "Family": 13087, "Far": 13113, "Fast": 13139, "Father": 13155, "Fax": 13175, "Fe": 13192, "February": 13220, "Federat": 13227, "Fedora": 13231, "Feed": 13237, "Feng": 13280, "Fi": 13327, "Figure": 13382, "File": 13391, "Fin": 13430, "Final": 13435, "Financial": 13448, "Find": 13458, "Finland": 13485, "Finnish": 13488, "Fire": 13494, "Firefox": 13500, "First": 13516, "Fish": 13525, "Fit": 13539, "Five": 13551, "Fla": 13566, "Flash": 13580, "Flex": 13602, "Flo": 13620, "Flor": 13636, "Flow": 13651, "Fluoro": 13671, "Fly": 13677, "Focus": 13696, "Follow": 13717, "Food": 13734, "Foot": 13746, "For": 13759, "Force": 13768, "Foreign": 13786, "Forex": 13803, "Form": 13825, "Fort": 13858, "Foshan": 13877, "Found": 13889, "Founder": 13899, "Four": 13909, "Fourth": 13917, "Fox": 13921, "Fr": 13931, "Frame": 13946, "Fran": 13951, "France": 13958, "Francis": 13963, "Frank": 13969, "Fran\u00e7ais": 13956, "Fred": 13985, "Free": 13993, "Freedom": 13999, "French": 14013, "Fri": 14031, "Friday": 14035, "Friend": 14045, "From": 14063, "Front": 14068, "Fu": 14098, "Fuck": 14104, "Fujian": 14117, "Full": 14135, "Fun": 14145, "Function": 14149, "Futian": 14198, "Future": 14200, "G": 14210, "GA": 14216, "GAMES": 14269, "GAN": 14277, "GAR": 14293, "GB": 14349, "GBP": 14351, "GC": 14353, "GDP": 14356, "GE": 14362, "GEN": 14381, "GENERAL": 14393, "GER": 14471, "GF": 14493, "GG": 14496, "GH": 14505, "GHz": 14513, "GI": 14519, "GL": 14585, "GM": 14637, "GMT": 14643, "GN": 14646, "GNU": 14651, "GO": 14657, "GP": 14762, "GPL": 14764, "GPS": 14765, "GR": 14772, "GS": 14976, "GSM": 14978, "GT": 14981, "GU": 14987, "GUANG": 14999, "GUI": 15042, "Ga": 14214, "Gabriel": 14220, "Galaxy": 14239, "Game": 14265, "Gar": 14291, "Garden": 14302, "Gartner": 14313, "Ge": 14360, "Gen": 14379, "Gene": 14387, "General": 14391, "Geneva": 14418, "Georg": 14461, "George": 14463, "German": 14477, "Germany": 14480, "Get": 14487, "Gi": 14517, "Girl": 14558, "GitHub": 14571, "Give": 14575, "Glass": 14598, "Glen": 14604, "Global": 14613, "Gmail": 14639, "Go": 14655, "God": 14665, "Gold": 14682, "Golden": 14686, "Good": 14706, "Google": 14715, "Gordon": 14720, "Gotta": 14736, "Govern": 14744, "Government": 14753, "Governmental": 14756, "Governor": 14760, "Gr": 14770, "Gra": 14775, "Grace": 14781, "Grand": 14820, "Graph": 14850, "Great": 14885, "Green": 14900, "Group": 14957, "Gu": 14985, "Guan": 14995, "GuangDong": 15003, "Guangdong": 15001, "Guangzhou": 15007, "Guard": 15018, "Guatemala": 15024, "Gui": 15040, "Guide": 15049, "H": 15111, "HA": 15118, "HAI": 15147, "HAM": 15187, "HAN": 15205, "HANGZHOU": 15247, "HAO": 15258, "HAR": 15276, "HBO": 15378, "HC": 15380, "HD": 15382, "HDMI": 15384, "HE": 15392, "HEL": 15483, "HEN": 15518, "HER": 15535, "HF": 15568, "HI": 15575, "HIV": 15673, "HK": 15676, "HKD": 15678, "HL": 15681, "HO": 15693, "HOME": 15750, "HP": 15930, "HR": 15935, "HRC": 15938, "HS": 15943, "HT": 15952, "HTC": 15954, "HTML": 15958, "HTTP": 15962, "HU": 15970, "HUA": 15975, "HUANG": 15982, "HUI": 16007, "HUN": 16039, "HY": 16090, "HZ": 16136, "Ha": 15116, "Habitat": 15125, "Hack": 15131, "Hadoop": 15139, "Hai": 15145, "Han": 15203, "Hand": 15211, "Hang": 15240, "Hangzhou": 15245, "Happy": 15271, "Har": 15274, "Harry": 15319, "Have": 15357, "He": 15390, "Head": 15396, "Health": 15419, "Hebei": 15460, "Hei": 15470, "Helen": 15487, "Hello": 15495, "Help": 15502, "Henan": 15519, "Henry": 15527, "Her": 15533, "Here": 15544, "Hey": 15566, "Hi": 15573, "High": 15589, "Hilton": 15621, "His": 15652, "History": 15664, "Ho": 15691, "Hold": 15713, "Holiday": 15730, "Holstein": 15742, "Home": 15748, "Hon": 15770, "Hong": 15785, "Honor": 15792, "Host": 15857, "Hot": 15875, "Hotel": 15880, "Hour": 15899, "House": 15905, "How": 15922, "Howard": 15925, "However": 15928, "Hu": 15968, "Hua": 15973, "Hub": 15987, "Hubei": 15989, "Hui": 16005, "Huk": 16009, "Human": 16015, "Hunan": 16040, "Hung": 16049, "Hungarian": 16051, "Hyper": 16123, "Hz": 16134, "I": 16139, "IA": 16151, "IAL": 16156, "IAN": 16160, "IB": 16168, "IBLE": 16179, "IBM": 16180, "IC": 16186, "ICA": 16190, "ICAL": 16192, "ICC": 16196, "ICE": 16202, "ICEF": 16204, "ICK": 16211, "ICO": 16215, "ICP": 16221, "ICS": 16224, "ICT": 16225, "ID": 16231, "IDA": 16234, "IDE": 16239, "IE": 16277, "IEC": 16278, "IEEE": 16280, "IER": 16288, "IES": 16292, "IF": 16300, "IFF": 16304, "IFICATION": 16308, "IG": 16316, "IGHT": 16325, "IGN": 16329, "II": 16339, "III": 16342, "IKE": 16349, "IL": 16356, "ILE": 16359, "ILL": 16367, "IM": 16400, "IMDb": 16419, "IMF": 16421, "IMO": 16455, "IN": 16540, "INA": 16544, "INC": 16553, "IND": 16616, "INE": 16682, "INF": 16689, "ING": 16739, "INK": 16786, "INO": 16804, "INSEE": 16819, "INT": 16913, "IO": 17138, "ION": 17142, "IONS": 17145, "IP": 17154, "IPC": 17158, "IPO": 17163, "IPv": 17170, "IQ": 17173, "IR": 17179, "IRE": 17188, "IS": 17216, "ISA": 17219, "ISCO": 17228, "ISE": 17230, "ISH": 17234, "ISIS": 17242, "ISO": 17258, "ISP": 17266, "ISS": 17273, "IST": 17291, "ISTAT": 17295, "IT": 17305, "ITA": 17308, "ITCH": 17319, "ITE": 17321, "ITIES": 17333, "ITION": 17335, "ITY": 17348, "IU": 17350, "IUM": 17352, "IV": 17355, "IVE": 17360, "IX": 17367, "IZATION": 17374, "IZE": 17376, "Ian": 16158, "If": 16298, "Il": 16354, "Image": 16405, "Imp": 16459, "Import": 16499, "In": 16538, "Indeed": 16618, "Index": 16628, "India": 16630, "Indian": 16632, "Indigenous": 16651, "Indonesia": 16662, "Industrial": 16671, "Industry": 16678, "Info": 16716, "Information": 16727, "Innovation": 16797, "Inst": 16854, "Instagram": 16856, "Install": 16860, "Institut": 16878, "Insulat": 16901, "Int": 16912, "Integr": 16920, "Integrated": 16926, "Intel": 16934, "Intelligent": 16942, "Inter": 16963, "InterContinental": 16977, "Intercontinental": 16976, "International": 17007, "Internet": 17012, "Introduction": 17065, "Introductory": 17069, "Invest": 17093, "Investor": 17115, "IoT": 17149, "Ir": 17178, "Iraq": 17184, "Ireland": 17189, "Is": 17214, "Islamic": 17247, "Israel": 17268, "Issue": 17281, "It": 17303, "Italia": 17310, "Italian": 17312, "Italy": 17314, "Item": 17325, "Ivoire": 17362, "J": 17383, "JA": 17389, "JIANG": 17543, "JIANGSU": 17548, "JO": 17590, "JP": 17676, "JPL": 17680, "JPY": 17681, "JR": 17685, "JS": 17688, "JSON": 17690, "JU": 17696, "Jack": 17394, "Jacob": 17401, "James": 17420, "Jan": 17424, "Jane": 17426, "January": 17429, "Japan": 17431, "Japanese": 17435, "Jar": 17439, "Jason": 17444, "Java": 17450, "JavaScript": 17452, "Jay": 17458, "Jean": 17472, "Jeff": 17482, "Jennifer": 17494, "Jerry": 17505, "Jesus": 17515, "Jet": 17519, "Jew": 17521, "Ji": 17532, "Jia": 17535, "Jiang": 17541, "Jiangsu": 17546, "Jiangxi": 17549, "Jim": 17561, "Jimmy": 17564, "Jin": 17567, "Jing": 17572, "Jinja": 17574, "Jo": 17588, "Job": 17597, "Joe": 17602, "John": 17611, "Join": 17620, "Jon": 17631, "Jonathan": 17635, "Jordan": 17644, "Jose": 17647, "Joseph": 17651, "Josh": 17653, "Journal": 17658, "Joy": 17671, "Ju": 17694, "Juan": 17698, "Jul": 17724, "Julia": 17727, "Julie": 17730, "July": 17735, "Jun": 17742, "June": 17747, "Just": 17766, "Justin": 17774, "K": 17780, "KA": 17787, "KB": 17854, "KE": 17860, "KEN": 17886, "KG": 17923, "KI": 17940, "KIN": 17984, "KING": 18001, "KM": 18042, "KO": 18080, "KP": 18118, "KRW": 18135, "KS": 18139, "KU": 18143, "KW": 18175, "Ka": 17785, "Kan": 17801, "Kar": 17813, "Karabakh": 17816, "Karl": 17822, "Kat": 17830, "Kate": 17832, "Ke": 17858, "Keep": 17866, "Kelly": 17878, "Ken": 17884, "Kevin": 17904, "Key": 17908, "Kg": 17922, "Ki": 17938, "Kill": 17961, "Kim": 17976, "Kin": 17982, "King": 17999, "Kit": 18023, "Know": 18063, "Knowledge": 18070, "Ko": 18078, "Korea": 18100, "Korean": 18102, "Kr": 18120, "Ku": 18141, "Kunshan": 18158, "Kuwait": 18168, "Ky": 18183, "L": 18199, "LA": 18206, "LAB": 18212, "LAC": 18231, "LAN": 18279, "LAND": 18287, "LAR": 18331, "LAS": 18347, "LATEST": 18371, "LAUGH": 18389, "LC": 18450, "LCD": 18452, "LD": 18455, "LE": 18464, "LED": 18535, "LER": 18620, "LES": 18625, "LESS": 18633, "LET": 18645, "LEX": 18675, "LEY": 18678, "LF": 18680, "LG": 18681, "LGBT": 18683, "LI": 18690, "LIA": 18693, "LIGHT": 18783, "LIN": 18834, "LINE": 18844, "LING": 18855, "LINK": 18865, "LK": 18970, "LL": 18972, "LM": 18983, "LNG": 18987, "LO": 18993, "LOCK": 19029, "LOG": 19044, "LON": 19069, "LOR": 19111, "LOS": 19122, "LOW": 19177, "LP": 19187, "LR": 19190, "LS": 19192, "LT": 19196, "LTD": 19202, "LTE": 19204, "LU": 19212, "LUX": 19268, "LV": 19274, "LY": 19278, "La": 18204, "Lab": 18210, "Label": 18215, "Lady": 18246, "Land": 18285, "Lang": 18305, "Language": 18310, "Large": 18335, "Larry": 18342, "Last": 18353, "Latest": 18369, "Latin": 18374, "Laughter": 18396, "Law": 18423, "Lay": 18437, "Le": 18462, "Lead": 18470, "League": 18487, "Learn": 18501, "Learning": 18507, "Leave": 18519, "Lee": 18538, "Left": 18544, "Legal": 18554, "Legend": 18559, "Leon": 18608, "Leonard": 18610, "Les": 18623, "Leste": 18639, "Let": 18643, "Level": 18660, "Lewis": 18671, "Li": 18688, "Lian": 18701, "Liao": 18705, "Lib": 18712, "Life": 18764, "Light": 18781, "Like": 18799, "Limited": 18826, "Lin": 18832, "Line": 18842, "Ling": 18853, "Link": 18863, "LinkedIn": 18867, "Linux": 18873, "Lisa": 18894, "Lisboa": 18896, "List": 18902, "Listen": 18908, "Little": 18940, "Live": 18950, "Living": 18964, "Lo": 18991, "Load": 18997, "Local": 19010, "Location": 19019, "Lock": 19027, "Log": 19042, "London": 19070, "Long": 19079, "Look": 19091, "Lord": 19113, "Louis": 19150, "Love": 19162, "Low": 19175, "Ltd": 19200, "Lu": 19210, "Luc": 19218, "Luis": 19237, "Lux": 19266, "M": 19293, "MA": 19299, "MAC": 19305, "MAIL": 19410, "MAN": 19503, "MAP": 19581, "MAR": 19592, "MARK": 19647, "MAS": 19712, "MAT": 19744, "MATIC": 19772, "MAX": 19803, "MB": 19826, "MBA": 19828, "MC": 19836, "MD": 19850, "ME": 19857, "MED": 19905, "MEN": 19998, "MENT": 20002, "MER": 20018, "MET": 20070, "MEX": 20119, "MF": 20124, "MG": 20127, "MHz": 20129, "MI": 20135, "MIC": 20140, "MIL": 20208, "MIN": 20256, "MING": 20278, "MIS": 20336, "MIT": 20380, "ML": 20406, "MM": 20411, "MO": 20422, "MOBILE": 20430, "MON": 20512, "MORE": 20609, "MOSFET": 20636, "MP": 20727, "MPEG": 20730, "MPa": 20729, "MQ": 20739, "MR": 20743, "MS": 20750, "MT": 20755, "MTV": 20758, "MU": 20764, "MV": 20870, "MW": 20874, "MX": 20876, "MY": 20882, "Ma": 19297, "Mac": 19303, "MacBook": 19311, "Macao": 19307, "Machine": 19320, "Mad": 19340, "Made": 19348, "Mag": 19362, "Magic": 19372, "Mah": 19394, "Mail": 19408, "Main": 19415, "Mainland": 19420, "Major": 19439, "Make": 19445, "Mal": 19462, "Malaysia": 19473, "Malvinas": 19492, "Man": 19501, "Management": 19511, "Manager": 19516, "Manufacture": 19559, "Many": 19572, "Maoist": 19576, "Map": 19579, "Mar": 19590, "Marc": 19600, "March": 19604, "Marco": 19609, "Mari": 19621, "Maria": 19623, "Marie": 19628, "Mario": 19637, "Mark": 19645, "Market": 19653, "Mart": 19684, "Martin": 19690, "Marvel": 19699, "Mary": 19706, "Mas": 19710, "Mass": 19723, "Master": 19735, "Math": 19763, "Mathematic": 19765, "Matt": 19777, "Matthew": 19784, "Max": 19801, "May": 19814, "Maybe": 19819, "Mbps": 19833, "Mc": 19834, "Me": 19855, "Med": 19903, "Media": 19912, "Medical": 19922, "Meet": 19942, "Meeting": 19945, "Mega": 19953, "Mel": 19960, "Melbourne": 19964, "Member": 19973, "Memo": 19982, "Men": 19996, "Mer": 20016, "Message": 20055, "Messenger": 20063, "MetaTrader": 20086, "Metal": 20078, "Methyl": 20105, "Metro": 20112, "Mexico": 20121, "Mi": 20133, "Michael": 20144, "Michel": 20146, "Micro": 20155, "Microsoft": 20170, "Middle": 20179, "Mike": 20203, "Miles": 20218, "Million": 20243, "Min": 20254, "Ming": 20276, "Minister": 20293, "Ministry": 20302, "Mira": 20323, "Miss": 20347, "Mix": 20390, "Mo": 20420, "Mobile": 20428, "Model": 20449, "Modern": 20460, "Molybdenum": 20498, "Mom": 20500, "Mon": 20510, "Monday": 20523, "Money": 20529, "Mont": 20565, "Month": 20576, "Mor": 20598, "More": 20607, "Morgan": 20612, "Moscow": 20633, "Most": 20644, "Mother": 20654, "Mount": 20687, "Movie": 20714, "Mozer": 20722, "Mozilla": 20724, "Mr": 20741, "Mu": 20762, "Multi": 20778, "Multilateral": 20783, "Mur": 20817, "Mus": 20831, "Music": 20845, "Muslim": 20853, "My": 20880, "MySQL": 20891, "Myanmar": 20884, "N": 20904, "NA": 20912, "NAN": 20960, "NAS": 20988, "NASA": 20990, "NASDAQ": 20994, "NB": 21059, "NBA": 21062, "NBC": 21064, "NC": 21069, "ND": 21076, "NE": 21084, "NEL": 21153, "NER": 21165, "NESS": 21171, "NET": 21179, "NEW": 21220, "NEWS": 21232, "NEX": 21241, "NF": 21251, "NFL": 21254, "NG": 21259, "NGC": 21261, "NGO": 21265, "NH": 21269, "NI": 21275, "NIA": 21278, "NIC": 21281, "NK": 21365, "NL": 21366, "NLB": 21367, "NN": 21372, "NO": 21379, "NOK": 21398, "NOR": 21432, "NP": 21521, "NR": 21524, "NS": 21527, "NSTRUCTION": 21533, "NT": 21536, "NU": 21548, "NVIDIA": 21599, "NX": 21602, "NY": 21605, "NYSE": 21610, "NZ": 21612, "NZD": 21614, "Na": 20910, "Name": 20944, "Nan": 20958, "Nanjing": 20964, "Nasdaq": 20993, "Nat": 21000, "National": 21013, "Natural": 21031, "Nature": 21036, "Nav": 21043, "Ne": 21082, "Nearest": 21094, "Neil": 21147, "Neill": 21149, "Nepal": 21160, "Net": 21177, "Netflix": 21181, "Netherlands": 21183, "Network": 21189, "Neu": 21196, "Never": 21210, "New": 21218, "News": 21230, "Next": 21244, "NextEnd": 21247, "NextLast": 21248, "Ni": 21273, "Nick": 21291, "Nigeria": 21308, "Night": 21314, "Nike": 21323, "Ningbo": 21344, "No": 21377, "Nobody": 21387, "Node": 21392, "Non": 21414, "Nor": 21430, "North": 21447, "Norway": 21459, "Not": 21466, "Note": 21473, "Nothing": 21482, "Notice": 21485, "Nova": 21503, "November": 21509, "Now": 21514, "Number": 21564, "O": 21618, "OA": 21633, "OBE": 21648, "OC": 21711, "OD": 21755, "ODA": 21756, "ODM": 21761, "OEM": 21767, "OF": 21773, "OG": 21822, "OH": 21835, "OK": 21851, "OL": 21867, "OLA": 21869, "OLD": 21874, "OLE": 21880, "OLED": 21881, "OLI": 21885, "OM": 21909, "OMA": 21911, "OME": 21917, "ON": 21933, "ONE": 21947, "ONG": 21955, "ONY": 21980, "OO": 21983, "OOK": 21988, "OP": 21999, "OPS": 22062, "OR": 22096, "ORE": 22136, "ORG": 22139, "ORS": 22204, "ORY": 22211, "OS": 22214, "OST": 22234, "OT": 22238, "OTO": 22254, "OU": 22266, "OUND": 22276, "OUR": 22281, "OUS": 22285, "OUT": 22291, "OVER": 22338, "OW": 22374, "OWN": 22385, "OX": 22399, "OYO": 22413, "Oak": 21635, "Object": 21659, "Ocean": 21738, "Oct": 21747, "October": 21750, "Of": 21771, "Off": 21777, "Office": 21798, "Official": 21808, "Oh": 21833, "Okay": 21855, "Old": 21872, "Oliver": 21891, "On": 21931, "Once": 21939, "One": 21945, "Online": 21963, "Only": 21968, "Op": 21997, "Open": 22005, "Opera": 22016, "Operation": 22026, "Option": 22083, "Optional": 22087, "Or": 22094, "Oracle": 22101, "Order": 22122, "Organization": 22157, "Oriental": 22179, "Origin": 22185, "Original": 22189, "Os": 22213, "Other": 22246, "Otto": 22261, "Our": 22279, "Out": 22289, "Over": 22336, "Overseas": 22354, "Owned": 22388, "P": 22422, "PA": 22428, "PACK": 22441, "PAN": 22525, "PAR": 22565, "PC": 22789, "PCB": 22791, "PCI": 22793, "PCS": 22796, "PD": 22797, "PDF": 22800, "PE": 22806, "PEC": 22837, "PER": 22910, "PET": 23024, "PF": 23048, "PG": 23049, "PGA": 23050, "PH": 23055, "PHI": 23086, "PHP": 23146, "PI": 23171, "PK": 23295, "PL": 23299, "PLA": 23304, "PLC": 23396, "PM": 23453, "PO": 23463, "POL": 23497, "PON": 23565, "PORT": 23620, "POS": 23640, "PP": 23738, "PR": 23755, "PRI": 23944, "PRO": 24031, "PRODUCT": 24097, "PRODUCTS": 24111, "PRST": 24332, "PS": 24336, "PT": 24359, "PU": 24368, "PV": 24478, "PVC": 24480, "Pa": 22426, "Pacific": 22435, "Pack": 22439, "Pad": 22456, "Page": 22460, "Pakistan": 22487, "Pal": 22492, "Palatinate": 22500, "Palestinian": 22507, "Pan": 22523, "Paper": 22554, "Paphos": 22558, "Par": 22563, "Para": 22568, "Paris": 22606, "Park": 22615, "Part": 22635, "Partner": 22666, "Party": 22679, "Pass": 22685, "Pat": 22718, "Path": 22727, "Patrick": 22745, "Paul": 22760, "Pay": 22775, "Pe": 22804, "Peace": 22811, "Pen": 22862, "People": 22898, "Per": 22908, "Percentage": 22918, "Perfect": 22925, "Performance": 22933, "Perhaps": 22943, "Perl": 22958, "Permanent": 22962, "Person": 22989, "Personal": 22993, "Pete": 23027, "Peter": 23029, "Ph": 23053, "Phase": 23075, "Phil": 23088, "Philip": 23092, "Philippines": 23096, "Phone": 23114, "Photo": 23126, "Photoshop": 23141, "Pi": 23169, "Pic": 23180, "Pierre": 23210, "Pin": 23241, "Ping": 23249, "Pixie": 23289, "Place": 23308, "Plan": 23322, "Plastic": 23349, "Play": 23372, "PlayStation": 23390, "Player": 23379, "Plaza": 23393, "Please": 23406, "Pluri": 23442, "Plus": 23445, "Po": 23461, "Point": 23482, "Pol": 23495, "Poland": 23498, "Polish": 23522, "Poly": 23548, "Pong": 23569, "Pont": 23571, "Poolside": 23581, "Porn": 23610, "Port": 23618, "Portuguese": 23637, "Position": 23648, "Post": 23673, "Power": 23724, "PowerPoint": 23733, "Powered": 23729, "Pr": 23753, "Pre": 23791, "Preliminary": 23841, "Present": 23875, "President": 23893, "Press": 23900, "Pretty": 23917, "Prev": 23919, "Previous": 23938, "Price": 23947, "Prime": 23966, "Prince": 23970, "Print": 23985, "Privacy": 24009, "Private": 24014, "Pro": 24029, "Process": 24062, "Product": 24095, "Production": 24101, "Products": 24109, "Professional": 24119, "Professor": 24123, "Program": 24141, "Project": 24168, "Proliferation": 24179, "Promotion": 24195, "Protect": 24264, "Psych": 24344, "Pu": 24366, "Public": 24375, "Purpose": 24452, "Put": 24471, "Py": 24486, "Python": 24493, "Q": 24497, "QC": 24502, "QINGDAO": 24520, "QQ": 24530, "QU": 24536, "QUE": 24587, "Qaeda": 24499, "Qaida": 24500, "Qingdao": 24518, "Qu": 24534, "Quality": 24559, "Quan": 24562, "Queen": 24591, "Question": 24607, "Quick": 24622, "R": 24659, "RA": 24664, "RACK": 24688, "RAD": 24692, "RAID": 24726, "RAIN": 24741, "RAL": 24760, "RAM": 24766, "RAN": 24777, "RAP": 24811, "RAS": 24828, "RATE": 24838, "RAY": 24873, "RB": 24877, "RC": 24883, "RD": 24889, "RE": 24896, "RED": 25098, "REM": 25339, "REN": 25379, "REP": 25418, "RES": 25516, "REST": 25628, "RF": 25775, "RFC": 25777, "RFID": 25779, "RGB": 25782, "RH": 25788, "RI": 25803, "RIC": 25814, "RIES": 25858, "RIGHT": 25872, "RING": 25898, "RIS": 25917, "RK": 25957, "RL": 25959, "RM": 25961, "RMB": 25964, "RNA": 25967, "RO": 25975, "ROM": 26061, "RON": 26077, "RONG": 26082, "ROS": 26107, "ROW": 26162, "ROYAL": 26170, "RP": 26173, "RR": 26177, "RS": 26184, "RSS": 26186, "RT": 26189, "RU": 26194, "RUB": 26199, "RUN": 26247, "RV": 26280, "RY": 26286, "Ra": 24662, "Radio": 24707, "Raising": 24753, "Raj": 24754, "Range": 24791, "Rapporteur": 24820, "Ray": 24871, "Re": 24894, "Read": 24916, "Real": 24937, "Really": 24950, "Recognition": 25022, "Recogniz": 25024, "Record": 25053, "Recruitment": 25079, "Red": 25096, "Redirect": 25107, "Reg": 25180, "Region": 25199, "Register": 25208, "Registration": 25217, "Regulat": 25228, "Reilly": 25251, "Release": 25298, "Remember": 25353, "Renew": 25390, "Rental": 25407, "Report": 25458, "Republic": 25490, "Request": 25497, "Required": 25506, "Res": 25515, "Research": 25521, "Resistant": 25575, "Responsibilities": 25616, "Restaurant": 25633, "Retired": 25688, "Return": 25704, "Rev": 25715, "Review": 25735, "Ri": 25801, "Richard": 25824, "Rick": 25833, "Right": 25870, "Rizhao": 25955, "Ro": 25973, "Road": 25979, "Rob": 25987, "Robert": 25995, "Robin": 25999, "Robot": 26004, "Rock": 26015, "Roger": 26032, "Roll": 26050, "Roman": 26064, "Room": 26090, "Rose": 26111, "Route": 26150, "Roy": 26165, "Royal": 26168, "Royce": 26171, "Ru": 26192, "Ruby": 26206, "Run": 26245, "Russia": 26270, "Russian": 26272, "Ryan": 26287, "S": 26296, "SA": 26305, "SAR": 26467, "SAT": 26483, "SB": 26544, "SBI": 26545, "SBSTA": 26547, "SC": 26551, "SCO": 26658, "SCR": 26687, "SD": 26732, "SE": 26739, "SEARCH": 26763, "SEC": 26792, "SEK": 26882, "SELF": 26901, "SEO": 26967, "SER": 26995, "SF": 27118, "SG": 27120, "SGD": 27122, "SH": 27128, "SHA": 27134, "SHAN": 27166, "SHENG": 27251, "SHENZHEN": 27257, "SHI": 27273, "SHIP": 27303, "SI": 27431, "SIL": 27494, "SIM": 27519, "SION": 27591, "SIS": 27599, "SK": 27647, "SL": 27687, "SM": 27745, "SME": 27761, "SMT": 27785, "SN": 27790, "SO": 27824, "SOL": 27877, "SON": 27954, "SP": 28035, "SPA": 28041, "SPACE": 28047, "SPE": 28078, "SPEAK": 28082, "SQL": 28260, "SR": 28278, "SS": 28282, "SSD": 28286, "SSL": 28290, "ST": 28296, "STAR": 28374, "STAT": 28401, "STAY": 28443, "STER": 28495, "STIC": 28514, "STO": 28540, "STYLE": 28751, "SU": 28759, "SUN": 28932, "SUV": 29099, "SV": 29105, "SW": 29111, "SY": 29176, "Sa": 26303, "SaaS": 26307, "Safari": 26328, "Safe": 26332, "Safety": 26340, "Saharan": 26346, "Sai": 26348, "Saint": 26359, "Sal": 26367, "Sale": 26379, "Sales": 26383, "Sam": 26406, "Samuel": 26421, "San": 26427, "Sant": 26455, "Santa": 26456, "Sapporo": 26464, "Sara": 26469, "Sarah": 26471, "Sat": 26481, "Saturday": 26498, "Sav": 26510, "Save": 26517, "Saxon": 26535, "Say": 26539, "Scaffold": 26556, "Scale": 26562, "Scan": 26568, "Sch": 26598, "School": 26626, "Science": 26641, "Scientific": 26648, "Scoo": 26660, "Scott": 26678, "Screech": 26699, "Screen": 26702, "Screw": 26708, "Script": 26715, "Scrum": 26724, "Se": 26737, "Sea": 26743, "Sean": 26757, "Search": 26761, "Season": 26772, "Sec": 26790, "Second": 26796, "Secret": 26807, "Secretary": 26812, "Security": 26841, "See": 26850, "Select": 26888, "Self": 26899, "Sen": 26926, "Senior": 26938, "Sense": 26942, "September": 26986, "Series": 27009, "Serv": 27022, "Server": 27034, "Service": 27040, "Servicing": 27049, "Set": 27063, "Seven": 27086, "Sex": 27107, "Sh": 27126, "Sha": 27132, "Shan": 27164, "Shandong": 27167, "Shang": 27170, "Shanghai": 27173, "Share": 27189, "She": 27217, "Sheikh": 27229, "Shell": 27238, "ShenZhen": 27256, "Sheng": 27249, "Shenzhen": 27254, "Shi": 27271, "Shift": 27281, "Shijiazhuang": 27286, "Shin": 27290, "Shirt": 27319, "Shop": 27348, "Shot": 27371, "Should": 27379, "Show": 27391, "Shu": 27413, "Si": 27429, "Sichuan": 27439, "Sign": 27470, "Signed": 27483, "Silver": 27514, "Sim": 27517, "Simon": 27528, "Since": 27557, "Singapore": 27567, "Single": 27578, "Sino": 27587, "Sir": 27594, "Siri": 27596, "Sister": 27603, "Site": 27611, "Sitemap": 27613, "Six": 27628, "Sk": 27645, "Sky": 27681, "Skype": 27683, "Small": 27749, "Smart": 27754, "Smith": 27772, "Smoking": 27780, "Snap": 27800, "Snapchat": 27802, "Sniff": 27811, "So": 27822, "Social": 27835, "Socket": 27853, "Soft": 27867, "Software": 27871, "Solid": 27896, "Solution": 27908, "Some": 27925, "Someone": 27935, "Something": 27941, "Sometimes": 27946, "Song": 27957, "Sony": 27966, "Sorry": 27980, "Source": 28004, "South": 28012, "Soviet": 28028, "Sp": 28033, "Spa": 28039, "Space": 28045, "SpaceX": 28050, "Spain": 28055, "Spam": 28057, "Spanish": 28062, "Speak": 28080, "Spec": 28094, "Special": 28098, "Specific": 28117, "Speed": 28145, "Spotify": 28229, "Spring": 28244, "Sprint": 28250, "St": 28294, "Sta": 28299, "Stainless": 28329, "Stamp": 28342, "Stan": 28346, "Stand": 28351, "Standard": 28355, "Star": 28372, "StarCount": 28378, "Stat": 28399, "State": 28404, "Stay": 28441, "Ste": 28448, "Steal": 28458, "Steam": 28461, "Steel": 28465, "Stefan": 28472, "Step": 28483, "Stephen": 28488, "Steve": 28504, "Steven": 28506, "Still": 28524, "Stock": 28544, "Stop": 28565, "Store": 28577, "Str": 28598, "Strait": 28607, "Strategic": 28623, "Stream": 28638, "Street": 28645, "Strike": 28673, "Student": 28720, "Studio": 28729, "Study": 28733, "Style": 28749, "Su": 28757, "Sub": 28763, "Success": 28838, "Suite": 28890, "Suk": 28896, "Summary": 28916, "Summer": 28921, "Sun": 28930, "Sunday": 28934, "Super": 28952, "Supp": 28976, "Suppl": 28979, "Support": 28995, "Supreme": 29014, "Sur": 29017, "Sure": 29023, "Surface": 29031, "Susan": 29072, "Suzhou": 29102, "Sweden": 29128, "Swedish": 29130, "Sweet": 29136, "Swiss": 29156, "Switch": 29159, "Switzerland": 29165, "Sydney": 29179, "Syn": 29200, "Sync": 29205, "System": 29231, "T": 29242, "TA": 29248, "TAG": 29275, "TAI": 29285, "TAIN": 29294, "TB": 29425, "TC": 29428, "TCP": 29431, "TD": 29433, "TE": 29439, "TEC": 29471, "TECH": 29476, "TED": 29506, "TEK": 29522, "TEL": 29527, "TEM": 29551, "TEN": 29579, "TER": 29602, "TEX": 29685, "TF": 29696, "TH": 29700, "THE": 29732, "TI": 29927, "TIC": 29943, "TIME": 29992, "TIN": 30007, "TING": 30013, "TION": 30018, "TLS": 30051, "TM": 30053, "TN": 30056, "TO": 30062, "TON": 30112, "TOP": 30146, "TOR": 30154, "TOWN": 30225, "TP": 30240, "TR": 30246, "TRA": 30251, "TRAN": 30324, "TRANSFER": 30343, "TRI": 30471, "TRO": 30519, "TRON": 30523, "TRONIC": 30525, "TRU": 30548, "TRY": 30580, "TS": 30585, "TT": 30603, "TTL": 30608, "TU": 30613, "TURE": 30658, "TV": 30695, "TW": 30698, "TX": 30735, "TY": 30740, "TZ": 30766, "Ta": 29246, "Tai": 29283, "Taiwan": 29298, "Taizhou": 29303, "Take": 29312, "Talk": 29333, "Tang": 29354, "Tar": 29375, "Target": 29380, "Tax": 29411, "Taylor": 29423, "Te": 29437, "Tea": 29444, "Teacher": 29449, "Team": 29459, "Tech": 29474, "Technical": 29481, "Technology": 29500, "Ted": 29504, "Tel": 29525, "Tele": 29530, "Tell": 29546, "Temple": 29566, "Temporary": 29572, "Ten": 29577, "Term": 29609, "Terra": 29626, "Terrorism": 29649, "Test": 29663, "Tex": 29683, "Text": 29689, "Th": 29698, "Thailand": 29705, "Thank": 29713, "Thanks": 29719, "That": 29724, "The": 29730, "Then": 29751, "There": 29772, "Therefore": 29778, "These": 29788, "They": 29792, "Things": 29812, "Think": 29816, "Third": 29825, "This": 29841, "Thomas": 29844, "Those": 29855, "Thou": 29858, "Thousands": 29869, "Three": 29883, "Through": 29898, "Thursday": 29916, "Ti": 29925, "Tian": 29931, "Tianjin": 29937, "Ticket": 29949, "Tim": 29984, "Time": 29990, "To": 30060, "Today": 30072, "Tokyo": 30088, "Tom": 30098, "Tomorrow": 30108, "Tong": 30116, "Tony": 30123, "Too": 30127, "Tool": 30134, "Top": 30144, "Toronto": 30162, "Torre": 30167, "Torrent": 30170, "Total": 30181, "Touch": 30189, "Tour": 30199, "Tourism": 30203, "Tr": 30245, "Tra": 30249, "Track": 30259, "Trade": 30273, "Traditional": 30288, "Trans": 30329, "Transfer": 30341, "Transport": 30392, "Travel": 30406, "Tri": 30469, "Tru": 30546, "True": 30555, "Trump": 30561, "Trust": 30567, "Tube": 30619, "Tuesday": 30626, "Tungsten": 30644, "Tur": 30650, "Turkey": 30664, "Turkish": 30667, "Turn": 30674, "Twenty": 30712, "Twitter": 30728, "Two": 30732, "Type": 30745, "T\u00fcrk\u00e7e": 30662, "U": 30770, "UAH": 30783, "UAL": 30786, "UAN": 30789, "UB": 30791, "UC": 30801, "UCK": 30810, "UD": 30814, "UE": 30821, "UF": 30825, "UFO": 30828, "UI": 30845, "UJI": 30850, "UK": 30852, "UL": 30863, "ULT": 30880, "UM": 30898, "UN": 30915, "UNA": 30918, "UNCTAD": 30949, "UNDP": 30991, "UNG": 31016, "UNI": 31025, "UNIX": 31079, "UP": 31144, "UPS": 31176, "UR": 31187, "URA": 31190, "URE": 31201, "URL": 31218, "US": 31230, "USA": 31233, "USB": 31237, "USD": 31239, "UST": 31268, "UT": 31276, "UTC": 31279, "UTE": 31282, "UV": 31307, "UX": 31310, "Uber": 30794, "Ubuntu": 30798, "Ukraine": 30857, "Ultra": 30887, "Un": 30913, "Uncle": 30942, "Under": 30957, "Uni": 31023, "Unicode": 31028, "Uninstall": 31041, "Unit": 31051, "United": 31057, "Universal": 31066, "University": 31074, "Unix": 31077, "Up": 31142, "Upcoming": 31147, "Update": 31149, "Ur": 31185, "Urban": 31196, "Use": 31243, "User": 31254, "V": 31318, "VA": 31322, "VAC": 31325, "VAL": 31346, "VAN": 31384, "VAT": 31416, "VC": 31422, "VDC": 31424, "VE": 31427, "VEN": 31454, "VER": 31486, "VERY": 31532, "VF": 31544, "VI": 31549, "VIEW": 31605, "VII": 31621, "VIP": 31676, "VISION": 31711, "VM": 31746, "VMware": 31748, "VO": 31753, "VP": 31823, "VPN": 31825, "VR": 31828, "VS": 31832, "Val": 31344, "Value": 31370, "Van": 31382, "Ver": 31484, "Very": 31530, "Vi": 31547, "Vice": 31564, "Victor": 31573, "Victoria": 31575, "Video": 31585, "Vienna": 31593, "Viet": 31596, "Vietnam": 31598, "View": 31603, "Villa": 31632, "Vin": 31646, "Virgin": 31684, "Virtu": 31687, "Visa": 31700, "Vision": 31709, "Visit": 31714, "Visual": 31730, "Vo": 31751, "Voice": 31763, "Vol": 31770, "W": 31846, "WA": 31852, "WAN": 31910, "WARE": 31935, "WAY": 32032, "WC": 32036, "WD": 32038, "WE": 32043, "WEB": 32072, "WEI": 32108, "WG": 32170, "WHO": 32250, "WI": 32276, "WIN": 32344, "WO": 32440, "WOOD": 32477, "WORK": 32498, "WP": 32570, "WS": 32606, "WT": 32608, "WTO": 32609, "WUXI": 32621, "Wa": 31850, "Wait": 31867, "Walk": 31886, "Wall": 31895, "Walter": 31905, "Wan": 31908, "War": 31927, "Washington": 31978, "Wat": 31989, "Watch": 31994, "Water": 32004, "Wave": 32022, "Way": 32030, "We": 32041, "Weapon": 32055, "Weather": 32065, "Web": 32070, "Website": 32081, "Week": 32096, "Wei": 32106, "Welcome": 32121, "Well": 32134, "Wenzhou": 32146, "West": 32156, "Western": 32161, "Westphalia": 32165, "What": 32181, "Whatever": 32185, "WhatsApp": 32187, "When": 32200, "Where": 32206, "Which": 32218, "While": 32222, "Whispering": 32235, "Whit": 32238, "White": 32242, "Who": 32248, "Why": 32269, "Wi": 32274, "WiFi": 32301, "Wiki": 32308, "Wil": 32313, "Wild": 32317, "Will": 32326, "William": 32329, "Win": 32342, "Wind": 32349, "Windows": 32356, "Winter": 32377, "Wire": 32385, "With": 32410, "Without": 32422, "Wolf": 32445, "Woman": 32452, "Women": 32457, "Wonder": 32464, "Wood": 32475, "Word": 32487, "WordPress": 32489, "Work": 32496, "Works": 32518, "World": 32527, "Would": 32559, "Write": 32587, "Wu": 32612, "Wuhan": 32615, "Wuxi": 32619, "W\u00fcrttemberg": 32617, "X": 32636, "XD": 32643, "XI": 32650, "XIANG": 32661, "XING": 32681, "XL": 32691, "XML": 32694, "XP": 32698, "XT": 32701, "XX": 32713, "XXI": 32715, "XXVII": 32717, "XXX": 32720, "XY": 32723, "Xbox": 32640, "Xi": 32648, "Xiamen": 32654, "Xiang": 32659, "Xiao": 32666, "Xin": 32676, "Xinhua": 32683, "Y": 32727, "YA": 32734, "YAN": 32749, "YANG": 32754, "YC": 32771, "YE": 32777, "YN": 32839, "YO": 32846, "YOU": 32872, "YS": 32897, "YU": 32901, "YUAN": 32907, "Yan": 32747, "Yang": 32752, "Yantai": 32761, "Ye": 32775, "Yeah": 32779, "Year": 32784, "Yellow": 32797, "Yes": 32812, "Yi": 32823, "Yo": 32844, "Yong": 32856, "You": 32870, "YouTube": 32892, "Young": 32877, "Your": 32883, "Youtube": 32891, "Yu": 32899, "Yuan": 32905, "Yun": 32918, "Z": 32931, "ZA": 32937, "ZAR": 32952, "ZE": 32960, "ZH": 32979, "ZHEN": 32994, "ZHOU": 33014, "ZO": 33052, "ZU": 33075, "ZY": 33083, "ZZ": 33085, "Zakynthos": 32946, "Ze": 32958, "Zero": 32975, "Zhang": 32982, "ZheJiang": 32990, "Zhejiang": 32988, "Zhong": 33005, "Zhou": 33012, "Zo": 33050, "Zone": 33061, "[": 127, "[1": 570, "[10]": 614, "[11]": 703, "[12]": 755, "[13]": 820, "[14]": 872, "[1]": 571, "[2014-": 1698, "[25]": 2047, "[2]": 1434, "[3]": 2208, "[4]": 2496, "[5]": 2733, "[6]": 2982, "[7]": 3200, "[8]": 3387, "[9]": 3595, "\\": 156, "\\'": 157, "\\\\": 158, "]": 128, "].": 129, "][": 130, "^": 1, "^{": 2, "_": 30, "__": 31, "_____": 32, "________________": 33, "_{": 34, "`": 0, "a": 3772, "aaS": 3795, "aaa": 3790, "ab": 3796, "aba": 3800, "abad": 3803, "abi": 3829, "ability": 3834, "abine": 3838, "able": 3839, "ably": 3842, "abolic": 3844, "about": 3853, "absolute": 3870, "ac": 3895, "aca": 3899, "academic": 3902, "acc": 3908, "access": 3929, "account": 3969, "ace": 4002, "acetyl": 4006, "ach": 4007, "ache": 4009, "acher": 4010, "aci\u00f3n": 4021, "ack": 4022, "aco": 4028, "acquired": 4034, "act": 4047, "actic": 4054, "action": 4057, "activated": 4064, "active": 4068, "activity": 4080, "ad": 4099, "ada": 4104, "add": 4117, "added": 4122, "ade": 4147, "adi": 4158, "admin": 4173, "ado": 4193, "ador": 4208, "advisor": 4250, "ae": 4260, "af": 4272, "aff": 4274, "affaires": 4277, "affected": 4282, "after": 4308, "ag": 4317, "aga": 4322, "agan": 4329, "age": 4330, "aged": 4334, "agency": 4341, "agenda": 4345, "agent": 4350, "agged": 4356, "agging": 4357, "aggio": 4358, "agh": 4363, "agi": 4364, "agin": 4367, "aging": 4368, "agna": 4369, "agne": 4370, "ago": 4372, "agon": 4374, "agua": 4392, "ah": 4393, "aha": 4397, "ai": 4402, "aid": 4406, "ail": 4411, "ails": 4412, "ain": 4418, "air": 4421, "aircraft": 4432, "aire": 4435, "aj": 4449, "aji": 4451, "ak": 4452, "aka": 4455, "akamura": 4459, "akan": 4460, "ake": 4461, "aker": 4462, "akh": 4463, "aki": 4464, "ako": 4466, "akov": 4467, "aku": 4468, "akura": 4469, "al": 4470, "ala": 4476, "album": 4495, "ald": 4503, "aldehyde": 4504, "ale": 4505, "ali": 4531, "alia": 4534, "ality": 4550, "all": 4555, "allah": 4561, "allow": 4582, "ally": 4592, "alo": 4597, "alone": 4598, "alphaH": 4609, "als": 4616, "also": 4617, "although": 4634, "altitude": 4637, "alys": 4653, "alysis": 4654, "am": 4656, "ama": 4662, "amar": 4665, "amba": 4674, "ambi": 4678, "ambo": 4683, "ame": 4689, "america": 4703, "ami": 4711, "amide": 4713, "amine": 4714, "amino": 4715, "amma": 4719, "amo": 4727, "amp": 4734, "an": 4743, "ana": 4750, "ance": 4780, "ancing": 4791, "ancy": 4792, "and": 4793, "anda": 4799, "andatory": 4801, "ander": 4802, "ando": 4806, "ane": 4817, "ang": 4818, "anga": 4822, "anganese": 4823, "angel": 4824, "anger": 4833, "angle": 4838, "ani": 4850, "ania": 4852, "ankara": 4862, "ann": 4864, "anna": 4867, "anne": 4871, "annual": 4895, "ano": 4900, "ans": 4907, "ant": 4914, "anta": 4918, "ante": 4922, "anti": 4930, "ants": 4955, "any": 4960, "anza": 4976, "ao": 4977, "ap": 4981, "apa": 4985, "apartment": 4994, "api": 5004, "app": 5018, "apping": 5047, "applause": 5049, "application": 5065, "appointed": 5079, "appropriate": 5098, "approval": 5104, "approved": 5109, "approx": 5113, "approximately": 5117, "apt": 5125, "aq": 5127, "ar": 5136, "ara": 5141, "arch": 5163, "ard": 5189, "ardo": 5191, "are": 5193, "area": 5199, "ari": 5218, "aria": 5220, "arian": 5222, "aries": 5223, "arily": 5224, "arina": 5225, "ario": 5226, "arium": 5233, "arm": 5238, "aro": 5263, "around": 5268, "arquet": 5271, "arra": 5272, "arri": 5285, "arrow": 5295, "art": 5302, "article": 5313, "ary": 5336, "as": 5338, "asa": 5344, "ase": 5353, "ash": 5355, "asi": 5362, "asia": 5364, "ask": 5371, "asp": 5380, "ass": 5389, "assa": 5392, "asse": 5401, "assembly": 5406, "assessment": 5416, "assi": 5426, "asso": 5439, "ast": 5458, "aste": 5461, "aster": 5462, "asu": 5484, "at": 5487, "ata": 5493, "atalytic": 5495, "atch": 5496, "ate": 5497, "ated": 5500, "aternal": 5502, "aternity": 5503, "ates": 5504, "ath": 5505, "ather": 5508, "athon": 5514, "ati": 5515, "atic": 5516, "ating": 5517, "ation": 5519, "ational": 5521, "ations": 5522, "ative": 5524, "ato": 5534, "atomic": 5537, "ator": 5541, "atory": 5543, "att": 5547, "attack": 5555, "atur": 5597, "ature": 5598, "atus": 5599, "au": 5600, "aud": 5608, "audi": 5611, "augh": 5631, "ault": 5636, "aunt": 5637, "aut": 5654, "author": 5660, "auto": 5674, "automatic": 5685, "autonomous": 5697, "aux": 5706, "av": 5709, "ava": 5713, "available": 5718, "avan": 5722, "ave": 5724, "aver": 5731, "average": 5732, "avi": 5736, "avia": 5739, "aving": 5742, "aw": 5749, "awa": 5751, "awaited": 5753, "away": 5769, "awk": 5775, "awn": 5777, "ax": 5779, "axial": 5783, "axis": 5784, "ay": 5788, "aya": 5791, "az": 5793, "azar": 5795, "azardous": 5796, "aze": 5797, "azi": 5801, "azine": 5802, "azole": 5804, "azz": 5807, "azzo": 5808, "b": 5809, "ba": 5813, "bab": 5820, "baby": 5827, "bach": 5834, "back": 5838, "bacterial": 5858, "bad": 5859, "bag": 5870, "bah": 5878, "bahn": 5883, "bai": 5886, "bak": 5895, "bal": 5903, "balance": 5907, "ball": 5921, "ban": 5937, "band": 5944, "bang": 5951, "bank": 5958, "bao": 5975, "bar": 5982, "bara": 5988, "barrel": 6012, "bas": 6023, "base": 6025, "based": 6032, "bashi": 6042, "bat": 6063, "batch": 6066, "bate": 6069, "bau": 6091, "baum": 6094, "bay": 6097, "bb": 6101, "bba": 6103, "bber": 6106, "bble": 6107, "be": 6115, "bear": 6134, "beat": 6142, "because": 6155, "beck": 6159, "bed": 6167, "bedroom": 6170, "bee": 6176, "before": 6186, "bei": 6212, "beijing": 6216, "being": 6220, "bek": 6225, "bel": 6226, "belief": 6236, "believe": 6240, "believers": 6244, "bell": 6249, "ben": 6269, "benzene": 6299, "benzo": 6300, "ber": 6301, "berg": 6304, "berlin": 6308, "berry": 6318, "bert": 6320, "best": 6327, "bet": 6332, "beta": 6335, "between": 6348, "bi": 6362, "bia": 6368, "bian": 6369, "bid": 6378, "bie": 6385, "big": 6391, "bil": 6403, "bili": 6408, "bilities": 6411, "bility": 6412, "billion": 6420, "bin": 6426, "bing": 6433, "bio": 6435, "bird": 6458, "bis": 6470, "bit": 6479, "biz": 6494, "bl": 6496, "bla": 6500, "black": 6502, "blanc": 6518, "blank": 6523, "ble": 6530, "blin": 6543, "bling": 6546, "blo": 6550, "block": 6553, "blog": 6563, "blood": 6573, "blower": 6586, "blown": 6589, "blue": 6592, "bn": 6606, "bo": 6608, "board": 6614, "boat": 6622, "body": 6632, "bok": 6646, "bol": 6647, "bon": 6663, "bond": 6666, "bone": 6670, "bong": 6674, "boo": 6681, "book": 6686, "bor": 6713, "bord": 6715, "border": 6717, "borg": 6723, "born": 6727, "borne": 6730, "boro": 6733, "borough": 6734, "bot": 6746, "both": 6752, "bottom": 6762, "bou": 6765, "bound": 6771, "boundary": 6775, "bourg": 6784, "bourne": 6786, "bout": 6788, "bow": 6791, "box": 6798, "boy": 6807, "bps": 6817, "br": 6818, "bra": 6824, "brain": 6840, "brand": 6850, "bre": 6871, "break": 6878, "breaking": 6888, "breath": 6896, "breeding": 6903, "bri": 6918, "bridge": 6932, "bright": 6944, "bro": 6967, "broadcast": 6976, "bromo": 6997, "brook": 7001, "brother": 7006, "brow": 7014, "bru": 7025, "brush": 7034, "bu": 7052, "buck": 7060, "budapest": 7070, "budget": 7078, "budgetary": 7082, "budgeted": 7084, "buenosaires": 7088, "bug": 7094, "build": 7099, "building": 7105, "built": 7111, "buk": 7114, "bul": 7115, "bun": 7131, "bund": 7134, "bur": 7142, "burg": 7151, "burn": 7164, "bury": 7173, "bus": 7175, "business": 7184, "but": 7196, "button": 7206, "butyl": 7209, "buy": 7210, "by": 7223, "bye": 7229, "byte": 7233, "c": 7236, "cH": 7824, "cHFF": 8072, "cHFFFF": 8073, "ca": 7245, "cad": 7264, "cade": 7268, "cai": 7283, "cake": 7290, "cal": 7294, "calc": 7300, "caliber": 7319, "call": 7326, "called": 7331, "calorie": 7341, "cam": 7344, "camp": 7363, "can": 7375, "cap": 7424, "capacity": 7438, "capital": 7443, "car": 7462, "carbon": 7471, "card": 7476, "care": 7487, "cas": 7553, "case": 7562, "cash": 7570, "cast": 7579, "cat": 7597, "catch": 7616, "cate": 7620, "category": 7624, "catering": 7629, "cation": 7642, "cause": 7654, "cc": 7677, "cca": 7680, "ccelerating": 7684, "cchi": 7685, "cci": 7686, "cco": 7687, "ccompanying": 7688, "ce": 7696, "cel": 7711, "cell": 7724, "cellular": 7730, "cen": 7737, "cenic": 7739, "censor": 7740, "cent": 7743, "center": 7747, "central": 7756, "centred": 7764, "centric": 7766, "century": 7772, "cept": 7778, "ception": 7779, "cer": 7780, "certified": 7806, "ces": 7809, "cession": 7814, "cetic": 7816, "ch": 7822, "cha": 7829, "chai": 7834, "chain": 7836, "chair": 7841, "champ": 7865, "chan": 7876, "chang": 7886, "change": 7892, "channel": 7908, "char": 7928, "charge": 7942, "chart": 7967, "chat": 7980, "che": 7988, "cheap": 7993, "check": 8001, "ched": 8010, "chel": 8020, "chem": 8023, "chemical": 8025, "chemistry": 8033, "chen": 8038, "cheng": 8040, "chenko": 8045, "cheon": 8048, "cher": 8051, "ches": 8058, "chester": 8062, "chev": 8066, "chi": 8074, "chief": 8087, "chieving": 8091, "child": 8092, "children": 8100, "chin": 8111, "china": 8113, "ching": 8125, "chip": 8127, "chiro": 8131, "chlor": 8134, "chloride": 8135, "chloro": 8138, "cho": 8140, "chon": 8153, "chong": 8154, "choo": 8159, "chou": 8174, "chris": 8179, "chrom": 8196, "cht": 8211, "chu": 8212, "chuan": 8214, "chuang": 8216, "chul": 8219, "chun": 8220, "chung": 8222, "church": 8225, "chy": 8231, "ci": 8232, "cia": 8237, "cial": 8240, "cid": 8241, "cie": 8242, "cies": 8243, "cigarette": 8246, "cil": 8250, "cin": 8251, "cine": 8254, "cing": 8257, "cio": 8260, "cious": 8263, "circa": 8266, "circle": 8267, "citation": 8289, "citing": 8296, "city": 8303, "civil": 8310, "ci\u00f3n": 8262, "ck": 8322, "cke": 8324, "cker": 8325, "cks": 8327, "cl": 8328, "cla": 8333, "claim": 8334, "clar": 8348, "class": 8363, "classified": 8376, "cle": 8392, "clean": 8394, "clear": 8406, "cli": 8421, "click": 8423, "cliff": 8433, "clinical": 8444, "clo": 8451, "clock": 8454, "close": 8459, "closed": 8464, "cloud": 8482, "club": 8491, "clusion": 8498, "cm": 8504, "cn": 8515, "co": 8526, "coat": 8543, "coauthor": 8548, "cock": 8553, "code": 8563, "coding": 8570, "coffee": 8576, "coin": 8587, "col": 8596, "cola": 8599, "cold": 8601, "collect": 8626, "cological": 8646, "colonial": 8655, "color": 8662, "colour": 8671, "coloured": 8674, "column": 8678, "com": 8681, "combatants": 8691, "come": 8701, "coming": 8717, "commerce": 8749, "commercial": 8753, "commissioned": 8761, "committee": 8775, "common": 8785, "communication": 8798, "comp": 8821, "company": 8832, "compatible": 8854, "complete": 8889, "completing": 8897, "compliance": 8903, "compliant": 8906, "component": 8916, "computer": 8952, "con": 8962, "condition": 9012, "conditioned": 9017, "conditioning": 9019, "cone": 9035, "conf": 9037, "conference": 9043, "confidence": 9052, "config": 9059, "confirm": 9067, "conflict": 9078, "cong": 9092, "connect": 9109, "connected": 9114, "conscious": 9136, "consider": 9155, "construction": 9209, "consultative": 9231, "consuming": 9242, "contact": 9246, "contained": 9258, "containing": 9263, "content": 9274, "continent": 9287, "continued": 9301, "contract": 9314, "contributing": 9337, "control": 9344, "controlled": 9349, "convened": 9361, "cook": 9399, "cookies": 9406, "cool": 9413, "cooled": 9417, "cop": 9440, "copy": 9452, "cor": 9460, "cord": 9466, "core": 9469, "corn": 9476, "corp": 9487, "corporate": 9493, "correct": 9506, "corruption": 9528, "cost": 9539, "cott": 9549, "cou": 9554, "count": 9572, "country": 9588, "couple": 9597, "course": 9609, "court": 9615, "cover": 9632, "covered": 9637, "cow": 9642, "cr": 9659, "cra": 9665, "cracker": 9671, "craft": 9674, "crea": 9696, "cream": 9697, "create": 9701, "credit": 9724, "cri": 9740, "crime": 9745, "criminal": 9750, "critical": 9769, "cro": 9780, "croft": 9785, "cross": 9790, "cry": 9825, "crypt": 9829, "cryptocurrencies": 9834, "crystal": 9838, "crystalline": 9841, "ct": 9848, "ction": 9851, "ctiv": 9853, "ctor": 9854, "cu": 9858, "cuba": 9864, "cui": 9873, "cul": 9878, "cular": 9880, "cultural": 9888, "culture": 9893, "cum": 9898, "cun": 9902, "cup": 9904, "cur": 9908, "curr": 9921, "currency": 9923, "current": 9926, "curricular": 9934, "cus": 9948, "custom": 9953, "cut": 9972, "cutting": 9981, "cy": 9986, "cycle": 9997, "cyclic": 10001, "cycling": 10003, "cyclo": 10006, "cylinder": 10011, "d": 10029, "dB": 10175, "da": 10035, "dai": 10050, "dal": 10059, "dale": 10062, "dam": 10068, "dan": 10083, "dance": 10086, "dang": 10094, "dao": 10108, "dar": 10111, "das": 10127, "data": 10132, "date": 10141, "daughter": 10150, "day": 10164, "days": 10171, "dd": 10183, "dder": 10186, "ddle": 10187, "ddy": 10189, "de": 10190, "dead": 10198, "death": 10219, "decentralization": 10256, "decision": 10267, "decrease": 10298, "dee": 10309, "deemed": 10312, "deep": 10313, "default": 10330, "defeating": 10335, "defence": 10338, "defense": 10349, "deficiency": 10356, "defined": 10362, "definitely": 10366, "defunct": 10375, "degree": 10379, "del": 10383, "dell": 10423, "dem": 10432, "demand": 10433, "democratic": 10450, "den": 10468, "density": 10485, "dentified": 10490, "depend": 10505, "dependent": 10511, "deplet": 10515, "deploy": 10517, "depth": 10541, "der": 10548, "des": 10558, "design": 10580, "designed": 10588, "destruct": 10626, "destructive": 10629, "detail": 10632, "detect": 10643, "determin": 10658, "determination": 10659, "determining": 10665, "dev": 10672, "developed": 10678, "development": 10687, "dging": 10712, "dh": 10713, "di": 10721, "dia": 10727, "dian": 10756, "dic": 10765, "dict": 10770, "did": 10777, "die": 10784, "died": 10788, "dies": 10792, "different": 10804, "dig": 10815, "digit": 10822, "digital": 10824, "dimensional": 10838, "din": 10843, "dine": 10848, "ding": 10850, "dio": 10860, "dir": 10875, "direct": 10876, "directional": 10884, "director": 10890, "dis": 10904, "discrimination": 10979, "display": 11035, "displaystyle": 11043, "disposed": 11048, "disproportionate": 11050, "distance": 11072, "distribut": 11090, "district": 11100, "dium": 11110, "div": 11111, "dle": 11150, "dler": 11151, "dministered": 11154, "dministering": 11155, "do": 11164, "doc": 11170, "dock": 11173, "doctoral": 11180, "document": 11186, "dog": 11203, "dollar": 11214, "dolph": 11219, "dom": 11222, "domain": 11226, "don": 11245, "dong": 11260, "doo": 11273, "door": 11277, "dor": 11281, "dorf": 11283, "doro": 11288, "dos": 11291, "dou": 11295, "double": 11298, "down": 11312, "dr": 11338, "dra": 11344, "draft": 11347, "dream": 11375, "dress": 11385, "dri": 11393, "drive": 11408, "driven": 11412, "driving": 11418, "drop": 11422, "drug": 11436, "drum": 11441, "dry": 11449, "ds": 11456, "du": 11461, "duc": 11475, "duced": 11477, "ducing": 11480, "duct": 11483, "duction": 11484, "ductive": 11485, "due": 11489, "dumping": 11500, "dust": 11524, "dustrialization": 11527, "dvocating": 11537, "dy": 11544, "dynamic": 11552, "d\u00e9": 10196, "e": 11562, "ea": 11578, "each": 11581, "ean": 11588, "ear": 11590, "earth": 11609, "ease": 11616, "east": 11624, "eastern": 11630, "easy": 11635, "eat": 11640, "eater": 11644, "eau": 11648, "eb": 11649, "ec": 11655, "ecame": 11658, "ech": 11661, "eck": 11665, "eco": 11669, "ecommunications": 11676, "economic": 11679, "ect": 11696, "ection": 11698, "ector": 11699, "ed": 11701, "edge": 11709, "edit": 11715, "edu": 11731, "educated": 11734, "education": 11736, "ee": 11748, "eed": 11752, "een": 11753, "eep": 11754, "ees": 11756, "eet": 11757, "ef": 11758, "eff": 11761, "effect": 11762, "effective": 11766, "efficiency": 11775, "efficient": 11778, "efusal": 11785, "eg": 11786, "ega": 11788, "ego": 11792, "eh": 11796, "ei": 11799, "eigh": 11803, "eight": 11804, "eighth": 11811, "eil": 11816, "eira": 11819, "either": 11821, "ek": 11825, "el": 11826, "ela": 11832, "elder": 11838, "ele": 11845, "elec": 11847, "elecommunication": 11849, "elect": 11850, "elected": 11853, "election": 11856, "electric": 11864, "electronic": 11881, "eli": 11912, "elia": 11914, "ell": 11933, "ella": 11935, "elle": 11936, "eller": 11938, "elli": 11939, "ello": 11944, "els": 11948, "em": 11954, "ema": 11960, "email": 11962, "embracing": 11986, "ement": 11992, "emerged": 11996, "emergence": 11998, "emi": 12006, "emia": 12008, "emic": 12009, "emitting": 12019, "emo": 12023, "emon": 12026, "emp": 12033, "employed": 12048, "employment": 12057, "empt": 12064, "en": 12069, "ena": 12076, "enabled": 12079, "enact": 12084, "enberg": 12086, "enburg": 12087, "ence": 12088, "enchant": 12090, "encia": 12091, "encies": 12092, "ency": 12114, "end": 12117, "ended": 12126, "ender": 12128, "ending": 12129, "ene": 12141, "ened": 12144, "ener": 12148, "energy": 12151, "eng": 12162, "engine": 12172, "engineered": 12178, "engineering": 12179, "enheim": 12204, "eni": 12205, "enia": 12206, "ening": 12207, "enium": 12208, "enko": 12217, "enne": 12223, "ennial": 12224, "enny": 12225, "eno": 12226, "ens": 12242, "ense": 12244, "ensis": 12246, "enstein": 12248, "ent": 12253, "ente": 12256, "enter": 12257, "enterprise": 12263, "enti": 12276, "entrepreneurship": 12294, "entry": 12300, "enunciation": 12303, "environment": 12308, "environmental": 12313, "enza": 12322, "eo": 12324, "eon": 12326, "eoprene": 12327, "ep": 12329, "eptic": 12347, "eq": 12348, "equential": 12358, "equipped": 12366, "equivalent": 12371, "er": 12374, "era": 12379, "erate": 12388, "eration": 12389, "erator": 12390, "ergy": 12393, "eri": 12394, "eria": 12395, "erie": 12399, "ering": 12401, "ermatt": 12403, "ern": 12404, "ero": 12408, "err": 12413, "error": 12414, "erry": 12419, "ers": 12420, "erson": 12422, "ert": 12423, "ery": 12426, "es": 12428, "esa": 12431, "escent": 12440, "escu": 12443, "ese": 12444, "esh": 12445, "especially": 12448, "ess": 12453, "esse": 12457, "est": 12464, "establish": 12467, "established": 12471, "establishment": 12476, "esteem": 12482, "ester": 12483, "esti": 12485, "estimate": 12486, "et": 12496, "eta": 12500, "etallurgical": 12501, "etc": 12503, "ete": 12505, "eter": 12506, "eth": 12511, "ethane": 12515, "ethanol": 12516, "ether": 12517, "ethnic": 12528, "ethyl": 12531, "ethylene": 12532, "ett": 12535, "etta": 12536, "ette": 12537, "etter": 12538, "etti": 12539, "etto": 12540, "eu": 12541, "euil": 12548, "eum": 12549, "eun": 12550, "eur": 12555, "eux": 12570, "ev": 12571, "eva": 12575, "evaluate": 12583, "evaluation": 12587, "eve": 12594, "even": 12598, "event": 12604, "ever": 12614, "everal": 12618, "every": 12622, "evich": 12641, "evil": 12646, "evo": 12649, "evsky": 12656, "ew": 12657, "ex": 12658, "examination": 12672, "examine": 12676, "example": 12681, "except": 12703, "exchange": 12715, "excluding": 12728, "exe": 12736, "exec": 12737, "executive": 12747, "exhaustible": 12765, "exist": 12777, "existent": 12782, "exp": 12792, "expendable": 12817, "expenditure": 12818, "experience": 12827, "expert": 12839, "explor": 12866, "expo": 12881, "export": 12884, "express": 12895, "extra": 12932, "ey": 12953, "eye": 12955, "ez": 12962, "e\u00f1o": 12227, "f": 12963, "fa": 12967, "fabricated": 12977, "face": 12981, "facebook": 12985, "faced": 12989, "facing": 13006, "fact": 13009, "factor": 13014, "factory": 13020, "fair": 13043, "faith": 13053, "fall": 13064, "false": 13072, "family": 13085, "famous": 13090, "fan": 13093, "fang": 13100, "far": 13111, "farm": 13119, "fascist": 13132, "fashioned": 13135, "fast": 13137, "fat": 13146, "father": 13153, "fax": 13173, "fe": 13190, "feat": 13206, "featuring": 13217, "fect": 13222, "feed": 13235, "feel": 13244, "fei": 13255, "fel": 13257, "feld": 13259, "female": 13269, "fen": 13276, "feng": 13279, "fer": 13283, "ferro": 13294, "fest": 13302, "fetched": 13309, "ff": 13316, "ffe": 13318, "ffer": 13319, "ffi": 13321, "ffle": 13322, "fford": 13323, "ffy": 13324, "fi": 13325, "fiber": 13334, "fic": 13339, "ficio": 13341, "fiction": 13342, "fidelity": 13347, "field": 13348, "fifth": 13361, "fight": 13369, "fighter": 13372, "fighting": 13376, "figure": 13380, "fil": 13387, "file": 13389, "fill": 13403, "filled": 13406, "film": 13410, "filter": 13419, "filtration": 13426, "fin": 13428, "final": 13433, "finals": 13440, "finance": 13442, "financial": 13446, "financing": 13453, "finder": 13461, "fine": 13466, "finger": 13471, "finished": 13480, "finite": 13484, "fir": 13491, "fire": 13492, "firefox": 13499, "firm": 13507, "first": 13514, "fish": 13523, "fit": 13537, "five": 13549, "fix": 13553, "fl": 13561, "fla": 13565, "flat": 13583, "fledged": 13592, "flex": 13601, "flight": 13610, "float": 13621, "floor": 13631, "flor": 13635, "flow": 13649, "flower": 13653, "flu": 13662, "fluoro": 13670, "fly": 13675, "fn": 13685, "fo": 13686, "focus": 13694, "focused": 13698, "fold": 13705, "follow": 13715, "fon": 13725, "food": 13732, "foot": 13744, "for": 13757, "force": 13766, "ford": 13776, "foreign": 13784, "forest": 13793, "forestry": 13796, "form": 13823, "format": 13831, "formation": 13834, "formed": 13838, "former": 13840, "formerly": 13843, "forming": 13846, "fort": 13857, "forward": 13874, "fou": 13883, "found": 13887, "founded": 13894, "founder": 13897, "four": 13907, "fourth": 13915, "fps": 13927, "fr": 13929, "fra": 13935, "frac": 13937, "frame": 13944, "free": 13991, "freedom": 13997, "frequency": 14016, "fresh": 14023, "fri": 14030, "fried": 14038, "friend": 14043, "friendly": 14047, "from": 14061, "front": 14066, "fruit": 14078, "fs": 14087, "ft": 14090, "fu": 14096, "fuck": 14102, "fuel": 14112, "ful": 14125, "fulfilment": 14132, "full": 14133, "fully": 14139, "fulness": 14142, "fun": 14143, "function": 14147, "functional": 14151, "fund": 14158, "funded": 14165, "fung": 14173, "fur": 14178, "fusing": 14194, "fusion": 14195, "g": 14208, "ga": 14213, "gadir": 14223, "gal": 14232, "gam": 14256, "game": 14263, "gan": 14274, "gang": 14279, "gao": 14285, "gar": 14290, "gard": 14300, "gas": 14316, "gata": 14323, "gate": 14324, "gathering": 14334, "gawa": 14343, "ge": 14359, "gee": 14366, "gel": 14372, "gen": 14378, "gence": 14382, "gene": 14385, "general": 14389, "generated": 14399, "generation": 14402, "generative": 14406, "geneva": 14417, "genic": 14421, "gent": 14433, "ger": 14469, "ges": 14482, "get": 14485, "gg": 14495, "gger": 14497, "ggie": 14498, "ggin": 14499, "ggle": 14500, "ggling": 14501, "ggy": 14502, "gh": 14503, "ghi": 14509, "gi": 14515, "gia": 14521, "gian": 14522, "gible": 14527, "gie": 14530, "gil": 14538, "gin": 14545, "ging": 14547, "gio": 14552, "girl": 14556, "gis": 14565, "git": 14567, "giving": 14580, "glass": 14596, "gle": 14603, "gli": 14607, "glo": 14609, "global": 14611, "gn": 14645, "gna": 14647, "gne": 14648, "gno": 14649, "go": 14653, "gol": 14679, "gold": 14680, "gon": 14693, "gong": 14697, "good": 14704, "gor": 14718, "got": 14729, "gou": 14738, "gov": 14742, "governing": 14749, "government": 14751, "governmental": 14755, "gr": 14768, "gra": 14774, "grad": 14784, "grade": 14786, "graduate": 14793, "grain": 14805, "gram": 14808, "gran": 14814, "grand": 14818, "grandfather": 14826, "grandson": 14836, "graph": 14848, "graphic": 14852, "grass": 14861, "grave": 14869, "gre": 14879, "great": 14883, "green": 14898, "gress": 14916, "grid": 14921, "grin": 14933, "gro": 14940, "ground": 14949, "group": 14955, "grove": 14961, "growing": 14965, "grown": 14968, "growth": 14971, "gs": 14975, "gu": 14983, "gua": 14990, "guan": 14994, "guang": 14997, "guard": 15016, "guchi": 15026, "gue": 15027, "gui": 15039, "guide": 15047, "gul": 15074, "gun": 15079, "gung": 15082, "guo": 15084, "gur": 15086, "gwang": 15097, "gy": 15100, "h": 15109, "ha": 15114, "hab": 15120, "habi": 15121, "hack": 15129, "had": 15135, "hai": 15144, "haired": 15159, "hak": 15164, "hal": 15168, "hale": 15170, "half": 15172, "hall": 15177, "ham": 15184, "hamburg": 15189, "han": 15202, "hana": 15207, "hand": 15209, "handed": 15215, "hang": 15238, "hao": 15256, "har": 15273, "hara": 15278, "hard": 15286, "hari": 15298, "haritable": 15300, "harm": 15303, "hart": 15322, "has": 15328, "hashi": 15331, "hat": 15336, "haus": 15349, "hausen": 15351, "have": 15355, "having": 15362, "haw": 15364, "hawk": 15367, "he": 15388, "head": 15394, "headed": 15399, "health": 15417, "hear": 15427, "heart": 15434, "hearted": 15438, "heat": 15440, "heating": 15447, "heavy": 15457, "hee": 15466, "hei": 15469, "heim": 15477, "hel": 15481, "held": 15484, "help": 15500, "hem": 15512, "hen": 15516, "heng": 15524, "her": 15531, "hereinafter": 15548, "hey": 15564, "hhh": 15570, "hi": 15571, "hide": 15580, "high": 15587, "hiko": 15610, "hil": 15611, "hill": 15614, "him": 15623, "hin": 15630, "hine": 15635, "hing": 15636, "hir": 15642, "hiro": 15647, "his": 15650, "historic": 15657, "hk": 15675, "hl": 15680, "hm": 15682, "hmm": 15684, "hn": 15688, "ho": 15689, "hoe": 15703, "hof": 15704, "hol": 15709, "hold": 15711, "holder": 15715, "holding": 15719, "hole": 15725, "home": 15746, "hon": 15768, "hong": 15784, "hoo": 15801, "hood": 15803, "hook": 15806, "hoon": 15809, "hop": 15813, "hope": 15816, "hopping": 15827, "hor": 15828, "horn": 15835, "horse": 15842, "host": 15855, "hot": 15873, "hotel": 15878, "hotels": 15884, "hou": 15894, "houn": 15896, "hour": 15897, "house": 15903, "how": 15920, "hr": 15934, "hra": 15937, "href": 15939, "htm": 15956, "html": 15957, "http": 15960, "https": 15964, "hu": 15967, "hua": 15972, "huan": 15978, "huang": 15980, "hub": 15985, "huh": 16001, "hui": 16004, "hum": 16011, "human": 16013, "hun": 16037, "hundred": 16042, "hung": 16047, "hur": 16067, "hurst": 16075, "husband": 16079, "hwa": 16085, "hwan": 16086, "hy": 16088, "hydr": 16097, "hydrate": 16101, "hydro": 16104, "hydroxy": 16112, "hye": 16113, "hypno": 16125, "hytosanitary": 16131, "hyun": 16132, "i": 16137, "iOS": 17147, "iPad": 17156, "iPhone": 17161, "iPod": 17165, "iTunes": 17345, "ia": 16150, "iah": 16154, "ial": 16155, "ian": 16157, "iana": 16161, "iang": 16162, "iano": 16163, "ians": 16164, "iao": 16165, "ias": 16166, "ib": 16167, "iba": 16169, "iber": 16170, "ibi": 16172, "ibid": 16173, "ibility": 16175, "ible": 16178, "ibn": 16182, "ibo": 16183, "ic": 16185, "ica": 16189, "ical": 16191, "ically": 16193, "ice": 16199, "ich": 16206, "iche": 16207, "ichi": 16208, "icide": 16209, "ick": 16210, "icle": 16212, "ico": 16214, "ics": 16223, "icu": 16227, "icular": 16228, "id": 16229, "ida": 16233, "idal": 16236, "iddle": 16237, "ide": 16238, "ident": 16247, "ider": 16264, "ides": 16265, "idine": 16266, "iding": 16267, "ido": 16271, "idu": 16275, "ie": 16276, "iel": 16282, "ien": 16284, "ienne": 16285, "ient": 16286, "ier": 16287, "iers": 16290, "ies": 16291, "iest": 16293, "ieu": 16294, "iev": 16295, "if": 16296, "ife": 16302, "iff": 16303, "ifi": 16305, "ifiable": 16306, "ification": 16307, "ified": 16309, "ifier": 16310, "ifies": 16311, "ify": 16313, "ifying": 16314, "ig": 16315, "iga": 16317, "igan": 16318, "igen": 16320, "iger": 16321, "igg": 16322, "iggest": 16323, "ight": 16324, "igi": 16326, "igma": 16327, "ign": 16328, "ignon": 16330, "igo": 16337, "ii": 16338, "iii": 16341, "ij": 16344, "ija": 16345, "ik": 16346, "ika": 16347, "ike": 16348, "iki": 16351, "iko": 16352, "il": 16353, "ila": 16357, "ile": 16358, "iled": 16360, "ili": 16361, "ilia": 16362, "iling": 16363, "ility": 16364, "ill": 16365, "illa": 16368, "illard": 16369, "ille": 16370, "iller": 16374, "illi": 16375, "illian": 16376, "illion": 16379, "illo": 16385, "illon": 16386, "ilo": 16394, "ily": 16396, "im": 16397, "ima": 16401, "image": 16403, "imba": 16417, "ime": 16420, "imi": 16423, "immer": 16432, "imo": 16454, "imon": 16456, "imp": 16457, "impact": 16461, "imperial": 16477, "import": 16497, "in": 16536, "ina": 16543, "inaugural": 16548, "inc": 16551, "inch": 16560, "include": 16569, "including": 16576, "inclusive": 16581, "income": 16584, "inder": 16625, "index": 16626, "industrial": 16669, "industry": 16676, "ine": 16681, "ines": 16685, "iness": 16686, "inflammatory": 16705, "inflicted": 16708, "info": 16714, "informatics": 16723, "information": 16725, "ing": 16738, "inger": 16741, "ings": 16745, "ington": 16746, "ini": 16756, "initial": 16758, "ink": 16783, "inn": 16787, "ino": 16803, "ins": 16814, "insert": 16822, "inski": 16836, "insky": 16837, "install": 16858, "instance": 16868, "insurance": 16906, "int": 16911, "integration": 16929, "intensive": 16951, "intentional": 16957, "inter": 16961, "intercontinental": 16975, "interest": 16981, "international": 17005, "interoperability": 17016, "interpret": 17018, "interpretative": 17022, "intestinal": 17044, "invest": 17091, "investment": 17108, "io": 17137, "iographical": 17139, "ion": 17140, "ional": 17143, "ions": 17144, "ios": 17146, "ious": 17151, "ip": 17153, "iphone": 17160, "ipping": 17167, "iq": 17172, "ique": 17175, "ir": 17176, "ira": 17181, "ire": 17187, "iri": 17192, "iro": 17194, "iron": 17195, "is": 17212, "isa": 17218, "isation": 17224, "ische": 17226, "isco": 17227, "ise": 17229, "ised": 17231, "iser": 17232, "ish": 17233, "isha": 17235, "ished": 17236, "ishi": 17237, "ishing": 17239, "isi": 17240, "ising": 17241, "isk": 17244, "iske": 17245, "ism": 17254, "iso": 17257, "ison": 17264, "isposable": 17267, "iss": 17272, "issa": 17274, "isse": 17275, "issue": 17279, "issued": 17283, "ist": 17290, "ista": 17292, "istan": 17293, "ister": 17296, "istic": 17297, "ists": 17300, "it": 17301, "ita": 17307, "ital": 17309, "itan": 17316, "itarian": 17317, "itch": 17318, "ite": 17320, "item": 17323, "ites": 17329, "ith": 17330, "iti": 17331, "ities": 17332, "ition": 17334, "itis": 17336, "ito": 17337, "its": 17338, "itt": 17341, "itter": 17342, "itu": 17343, "itudinal": 17344, "ity": 17347, "itz": 17349, "it\u00e9": 17322, "ium": 17351, "ius": 17353, "iv": 17354, "iva": 17357, "ive": 17359, "ivity": 17361, "ix": 17366, "iya": 17369, "iyah": 17370, "iz": 17371, "iza": 17372, "ization": 17373, "ize": 17375, "ized": 17377, "izer": 17378, "izing": 17379, "izz": 17380, "i\u00e8re": 16289, "i\u00f1o": 16805, "i\u0107": 16188, "j": 17381, "ja": 17386, "jack": 17392, "jah": 17409, "jan": 17423, "jar": 17437, "java": 17448, "jay": 17457, "je": 17466, "jec": 17475, "jection": 17476, "jector": 17477, "jee": 17479, "jet": 17517, "ji": 17531, "jia": 17534, "jian": 17538, "jiang": 17540, "jiao": 17552, "jie": 17555, "jima": 17563, "jin": 17566, "jing": 17571, "jj": 17583, "jk": 17585, "jo": 17586, "job": 17595, "join": 17618, "jong": 17638, "joon": 17642, "journal": 17656, "joy": 17669, "jp": 17675, "jpg": 17679, "js": 17687, "ju": 17692, "judicial": 17715, "jun": 17741, "jung": 17749, "just": 17764, "k": 17778, "kHz": 17936, "kV": 18171, "kW": 18173, "ka": 17783, "kai": 17791, "kal": 17794, "kan": 17800, "kang": 17806, "kar": 17812, "kawa": 17845, "ke": 17857, "ked": 17862, "keeper": 17868, "keeping": 17869, "kel": 17875, "ken": 17883, "ker": 17898, "key": 17906, "kg": 17920, "kh": 17925, "kha": 17927, "khan": 17931, "ki": 17937, "kill": 17959, "kin": 17980, "kind": 17986, "kinetic": 17996, "king": 17997, "kirche": 18012, "kit": 18021, "kka": 18033, "kle": 18038, "km": 18040, "knit": 18051, "know": 18061, "knowledge": 18068, "known": 18072, "ko": 18077, "kon": 18092, "kong": 18094, "kor": 18097, "kou": 18110, "kov": 18112, "kova": 18113, "kovsky": 18114, "kow": 18115, "kowski": 18117, "kr": 18119, "ks": 18138, "ku": 18140, "kul": 18147, "kum": 18149, "kun": 18152, "kur": 18161, "kura": 18163, "kw": 18172, "ky": 18182, "kyo": 18186, "kyu": 18193, "kyung": 18194, "l": 18197, "la": 18202, "lab": 18208, "label": 18213, "labor": 18219, "lac": 18229, "lace": 18232, "lactic": 18237, "lad": 18238, "lade": 18241, "lag": 18249, "lah": 18252, "lai": 18253, "lain": 18256, "lake": 18258, "lam": 18262, "lame": 18268, "lamp": 18273, "lan": 18277, "land": 18283, "lands": 18296, "lane": 18300, "lang": 18304, "lange": 18307, "language": 18308, "lap": 18323, "lar": 18329, "large": 18333, "largest": 18339, "las": 18345, "lash": 18350, "last": 18351, "lasting": 18356, "lat": 18359, "late": 18360, "later": 18364, "lateral": 18367, "latin": 18373, "lating": 18376, "lation": 18377, "latter": 18380, "lau": 18384, "laughs": 18392, "laughter": 18394, "launch": 18397, "laundering": 18406, "lav": 18417, "law": 18421, "lay": 18435, "layer": 18439, "lb": 18447, "lbert": 18448, "ld": 18454, "lder": 18458, "le": 18460, "lea": 18468, "leading": 18479, "leaf": 18483, "leanliness": 18496, "learn": 18499, "learning": 18505, "lectromechanical": 18527, "led": 18532, "lee": 18537, "left": 18542, "leg": 18547, "legal": 18552, "legged": 18564, "lei": 18576, "leigh": 18579, "lek": 18584, "lem": 18585, "len": 18588, "lene": 18593, "length": 18594, "lent": 18606, "lep": 18617, "ler": 18619, "les": 18621, "less": 18630, "lessness": 18634, "let": 18641, "lets": 18647, "letter": 18648, "leu": 18654, "lev": 18656, "level": 18658, "lex": 18673, "ley": 18677, "lf": 18679, "li": 18686, "lia": 18692, "lian": 18700, "liang": 18703, "lib": 18710, "lic": 18734, "lica": 18735, "lice": 18736, "lich": 18745, "lick": 18746, "lid": 18749, "lide": 18751, "lie": 18752, "lier": 18757, "lies": 18758, "life": 18762, "lift": 18772, "lig": 18778, "light": 18779, "lik": 18796, "like": 18797, "lim": 18811, "limit": 18818, "limited": 18824, "lin": 18831, "lina": 18835, "line": 18840, "linear": 18846, "lines": 18849, "ling": 18852, "linger": 18856, "link": 18861, "lio": 18875, "lion": 18876, "lip": 18879, "liquidated": 18887, "lis": 18893, "lish": 18899, "list": 18900, "listed": 18905, "lit": 18917, "lite": 18919, "literate": 18927, "litre": 18936, "little": 18938, "litz": 18942, "liu": 18943, "lium": 18945, "live": 18948, "lived": 18953, "living": 18962, "lizzard": 18968, "lk": 18969, "ll": 18971, "llaction": 18974, "lle": 18976, "lli": 18977, "llicit": 18978, "lly": 18981, "lm": 18982, "lma": 18985, "ln": 18986, "lo": 18989, "load": 18995, "local": 19008, "located": 19014, "location": 19017, "loch": 19024, "lock": 19025, "lodge": 19034, "log": 19040, "logic": 19048, "logical": 19051, "logue": 19061, "logy": 19062, "loi": 19063, "lon": 19067, "lone": 19072, "long": 19077, "loo": 19087, "look": 19089, "looking": 19095, "loop": 19101, "lop": 19107, "lor": 19109, "los": 19120, "loss": 19129, "lot": 19136, "lou": 19146, "lov": 19159, "love": 19160, "low": 19173, "loy": 19182, "lp": 19186, "ls": 19191, "lt": 19194, "ltd": 19198, "ltima": 19206, "lton": 19207, "lu": 19208, "luck": 19223, "lude": 19230, "lum": 19241, "lumin": 19242, "lun": 19246, "lus": 19258, "lush": 19259, "lusive": 19260, "lution": 19264, "lux": 19265, "lv": 19273, "ly": 19276, "lyn": 19282, "l\u00e9": 18466, "m": 19291, "mAh": 19393, "ma": 19295, "mac": 19301, "macOS": 19333, "machi": 19317, "machine": 19318, "made": 19346, "mag": 19361, "magic": 19370, "magne": 19379, "magnetic": 19384, "mai": 19401, "maid": 19403, "mail": 19406, "main": 19413, "major": 19437, "make": 19443, "maker": 19448, "makers": 19451, "making": 19456, "mal": 19460, "male": 19478, "man": 19499, "management": 19509, "manager": 19514, "manbetx": 19522, "mani": 19535, "mann": 19546, "manufacture": 19557, "manufacturing": 19566, "mao": 19574, "map": 19577, "mar": 19588, "mari": 19620, "maritime": 19640, "mark": 19643, "marked": 19648, "market": 19651, "marrakech": 19666, "mart": 19683, "maru": 19698, "mas": 19709, "mash": 19716, "master": 19733, "mat": 19741, "mate": 19750, "material": 19753, "matic": 19771, "max": 19799, "may": 19812, "mb": 19825, "mber": 19830, "mble": 19831, "mbo": 19832, "me": 19853, "mean": 19864, "measure": 19878, "mechanical": 19893, "med": 19902, "media": 19910, "mediate": 19915, "medical": 19920, "medicine": 19928, "mei": 19956, "mel": 19959, "melbourne": 19963, "member": 19971, "men": 19994, "ment": 20001, "mentioned": 20008, "ments": 20011, "mer": 20015, "meric": 20041, "mes": 20047, "met": 20067, "metal": 20076, "metallic": 20081, "meteorological": 20089, "meter": 20091, "methyl": 20104, "metre": 20106, "metric": 20108, "metry": 20117, "mg": 20125, "mi": 20131, "mic": 20139, "michael": 20143, "micro": 20153, "microbial": 20158, "microsoft": 20169, "mid": 20174, "mie": 20188, "migration": 20197, "mil": 20206, "milan": 20209, "mile": 20213, "military": 20224, "mill": 20231, "million": 20241, "min": 20252, "mina": 20258, "minating": 20259, "minded": 20262, "mine": 20266, "ming": 20275, "mini": 20280, "mining": 20289, "minute": 20316, "mir": 20321, "mis": 20333, "misappropriation": 20337, "miss": 20345, "mission": 20356, "misunderstanding": 20375, "mit": 20378, "mitted": 20387, "mix": 20388, "miya": 20399, "ml": 20404, "mm": 20408, "mma": 20413, "mmel": 20414, "mmer": 20415, "mmy": 20417, "mo": 20418, "mobile": 20426, "mod": 20440, "model": 20447, "modern": 20458, "modified": 20469, "mol": 20486, "mon": 20508, "mond": 20522, "money": 20527, "mong": 20531, "monitor": 20538, "mont": 20564, "month": 20574, "moon": 20590, "mor": 20597, "moral": 20601, "more": 20605, "mos": 20629, "most": 20642, "mote": 20649, "mother": 20652, "motion": 20658, "motive": 20665, "moto": 20667, "motorized": 20676, "mount": 20685, "mountain": 20689, "mounted": 20694, "mouth": 20701, "mov": 20704, "mozilla": 20723, "mp": 20726, "mph": 20732, "mphibious": 20733, "mple": 20734, "mplementing": 20735, "mplification": 20736, "mplified": 20737, "mpressive": 20738, "ms": 20748, "msterdam": 20753, "mu": 20760, "mul": 20772, "multi": 20776, "multiple": 20791, "mun": 20803, "mund": 20805, "munich": 20806, "municipal": 20808, "mur": 20816, "mura": 20819, "mus": 20830, "music": 20843, "mutation": 20862, "my": 20878, "n": 20902, "na": 20908, "nadequate": 20916, "nah": 20922, "nai": 20924, "nail": 20926, "nak": 20932, "nal": 20939, "nam": 20940, "name": 20942, "named": 20947, "nan": 20956, "naples": 20978, "nar": 20981, "nard": 20985, "natal": 21002, "nate": 21005, "nation": 21008, "national": 21011, "native": 21025, "natural": 21029, "nba": 21061, "nberg": 21066, "nbsp": 21067, "nc": 21068, "ncarnation": 21071, "nce": 21072, "nch": 21073, "ncumbered": 21074, "nd": 21075, "nde": 21078, "ndra": 21079, "ne": 21080, "nea": 21087, "near": 21089, "necessary": 21100, "ned": 21108, "need": 21112, "negative": 21123, "nel": 21152, "nell": 21154, "nen": 21156, "ner": 21164, "nes": 21169, "ness": 21170, "net": 21175, "network": 21187, "neutral": 21203, "new": 21216, "news": 21228, "next": 21242, "ney": 21250, "nfectious": 21253, "nfluencing": 21256, "ng": 21257, "nge": 21263, "ngle": 21264, "ni": 21271, "nia": 21277, "nic": 21280, "nica": 21282, "nice": 21284, "nick": 21290, "nie": 21301, "nier": 21304, "night": 21312, "nik": 21321, "nikov": 21329, "nin": 21332, "nine": 21335, "ning": 21342, "ninth": 21351, "nis": 21355, "nit": 21358, "nix": 21362, "nk": 21364, "nm": 21369, "nn": 21371, "nne": 21373, "nny": 21374, "no": 21375, "node": 21390, "nom": 21401, "nomic": 21402, "non": 21412, "nor": 21428, "normal": 21436, "north": 21445, "not": 21464, "note": 21471, "nou": 21497, "nounce": 21498, "nov": 21500, "nova": 21502, "now": 21512, "ns": 21526, "nscription": 21530, "nsible": 21531, "nsisting": 21532, "nt": 21535, "nta": 21538, "ntelope": 21540, "nterested": 21541, "nterior": 21542, "nterstellar": 21543, "nthrop": 21545, "nu": 21546, "nucle": 21550, "nuclear": 21551, "num": 21559, "number": 21562, "numbered": 21567, "nuo": 21575, "nut": 21586, "nutrient": 21589, "nvasive": 21597, "ny": 21603, "nz": 21611, "n\u00e9": 21086, "o": 21616, "oa": 21632, "ob": 21643, "oba": 21646, "obi": 21655, "object": 21657, "obo": 21675, "oc": 21710, "oca": 21713, "ocating": 21714, "occupied": 21728, "och": 21744, "oche": 21745, "ock": 21746, "od": 21754, "ode": 21759, "odo": 21762, "oe": 21765, "of": 21769, "off": 21775, "office": 21796, "official": 21806, "og": 21820, "ogen": 21823, "ogene": 21824, "ogenic": 21825, "ogni": 21826, "ognitive": 21827, "ographer": 21828, "ographic": 21829, "ography": 21830, "oh": 21831, "oi": 21840, "oid": 21841, "oil": 21842, "ois": 21847, "ok": 21848, "oka": 21853, "oke": 21858, "oker": 21859, "oki": 21860, "oko": 21863, "oku": 21864, "ol": 21865, "ola": 21868, "old": 21870, "ole": 21878, "oli": 21884, "olic": 21886, "olin": 21887, "olite": 21888, "olla": 21894, "olly": 21895, "olo": 21896, "ological": 21897, "ologie": 21898, "ologist": 21899, "ology": 21900, "oluble": 21902, "om": 21908, "oma": 21910, "omb": 21914, "ome": 21916, "omer": 21919, "ometer": 21920, "omi": 21921, "ommunicable": 21924, "omo": 21927, "ompulsory": 21928, "on": 21929, "ona": 21937, "onda": 21942, "one": 21943, "ones": 21952, "oney": 21953, "ong": 21954, "oni": 21958, "onia": 21959, "onian": 21960, "onic": 21961, "only": 21966, "onna": 21971, "onne": 21972, "ono": 21973, "ons": 21974, "ontology": 21977, "ony": 21979, "oo": 21981, "ood": 21984, "oodle": 21985, "ook": 21987, "ookie": 21989, "ool": 21990, "oom": 21991, "oon": 21992, "oop": 21993, "op": 21995, "ope": 22001, "open": 22003, "operate": 22018, "operation": 22024, "operative": 22032, "ophil": 22038, "ophobia": 22039, "opia": 22040, "opolis": 22045, "optic": 22066, "option": 22081, "optional": 22085, "or": 22092, "ora": 22099, "oracay": 22100, "ord": 22119, "order": 22120, "ordinate": 22132, "ordination": 22133, "ore": 22135, "org": 22138, "organ": 22140, "organic": 22143, "organized": 22166, "ori": 22175, "oria": 22176, "orial": 22177, "oriented": 22182, "original": 22187, "orn": 22196, "orous": 22198, "orrigendum": 22202, "ors": 22203, "ort": 22205, "oruna": 22209, "ory": 22210, "os": 22212, "osa": 22216, "oscope": 22222, "ose": 22223, "osh": 22224, "osi": 22225, "osis": 22226, "oslo": 22227, "oso": 22230, "oss": 22231, "ost": 22232, "oste": 22235, "ot": 22237, "ota": 22239, "ote": 22241, "otel": 22243, "other": 22244, "oto": 22253, "ott": 22255, "otte": 22258, "otter": 22259, "otto": 22260, "ou": 22264, "oubletree": 22267, "ouche": 22268, "oud": 22269, "ough": 22270, "oul": 22272, "oun": 22273, "ounce": 22274, "ound": 22275, "our": 22277, "ous": 22284, "ously": 22286, "out": 22287, "output": 22312, "ov": 22328, "ova": 22329, "ove": 22330, "oven": 22331, "over": 22334, "ovic": 22366, "ovich": 22368, "ovi\u0107": 22367, "ovo": 22369, "ovski": 22370, "ovsky": 22371, "ow": 22372, "ower": 22378, "owitz": 22381, "own": 22382, "owned": 22386, "owner": 22389, "owski": 22396, "ox": 22397, "oxide": 22403, "oxy": 22407, "oy": 22410, "oya": 22411, "oz": 22416, "p": 22420, "pa": 22424, "pac": 22431, "pacific": 22434, "pack": 22437, "package": 22443, "pad": 22454, "page": 22458, "paid": 22468, "pair": 22482, "pal": 22490, "pan": 22521, "panel": 22533, "pani": 22539, "paper": 22552, "par": 22561, "para": 22566, "paragraph": 22578, "parent": 22600, "park": 22613, "parser": 22631, "part": 22633, "partisan": 22662, "party": 22677, "pass": 22683, "past": 22707, "pat": 22716, "path": 22725, "pathy": 22731, "pati": 22732, "patient": 22734, "patriarch": 22742, "pay": 22773, "payment": 22780, "pc": 22787, "pcs": 22795, "pdf": 22799, "pe": 22802, "peace": 22809, "peak": 22823, "pect": 22838, "ped": 22840, "pedia": 22844, "pei": 22854, "pel": 22857, "pen": 22860, "peng": 22877, "pent": 22891, "people": 22896, "peptide": 22905, "per": 22906, "percentage": 22916, "perfect": 22923, "performance": 22931, "period": 22947, "permanent": 22960, "pers": 22974, "person": 22987, "personal": 22991, "personnel": 23002, "pert": 23011, "pet": 23021, "petersburg": 23031, "petit": 23034, "pf": 23047, "ph": 23051, "pha": 23057, "phan": 23059, "pharmaceutical": 23065, "phase": 23073, "phe": 23078, "phenol": 23079, "phenyl": 23082, "pher": 23083, "phi": 23084, "phon": 23111, "phone": 23112, "phos": 23117, "phosphate": 23118, "phospho": 23121, "photo": 23124, "php": 23145, "phrase": 23149, "phthal": 23151, "phy": 23154, "physic": 23157, "physical": 23158, "pi": 23168, "pic": 23178, "pick": 23186, "pid": 23198, "pie": 23199, "piece": 23202, "pier": 23207, "pil": 23219, "pilot": 23235, "pin": 23239, "pine": 23244, "ping": 23248, "pira": 23264, "pit": 23276, "pixel": 23286, "pk": 23293, "pl": 23297, "pla": 23301, "place": 23306, "plan": 23320, "plane": 23325, "planned": 23331, "plant": 23338, "plastic": 23347, "plate": 23354, "platform": 23359, "platz": 23369, "play": 23370, "player": 23377, "playing": 23385, "ple": 23398, "please": 23404, "plex": 23422, "plic": 23423, "plication": 23424, "plied": 23425, "plug": 23430, "plugged": 23433, "plus": 23443, "ply": 23449, "pm": 23451, "po": 23459, "pod": 23467, "point": 23480, "pol": 23494, "polar": 23500, "pole": 23503, "poli": 23507, "polis": 23520, "political": 23525, "polo": 23543, "polymer": 23555, "pon": 23563, "pong": 23568, "poo": 23575, "pool": 23577, "poor": 23583, "pop": 23588, "por": 23602, "port": 23616, "pos": 23639, "pose": 23643, "posed": 23645, "position": 23646, "positive": 23654, "possessed": 23660, "possible": 23665, "possibly": 23668, "post": 23671, "pot": 23692, "pound": 23708, "powder": 23718, "power": 23722, "powered": 23727, "pp": 23736, "ppa": 23740, "ppe": 23741, "pped": 23742, "ppen": 23743, "pper": 23744, "ppi": 23745, "pping": 23746, "pple": 23747, "ppm": 23748, "ppy": 23750, "pr": 23751, "pra": 23757, "pray": 23780, "pre": 23789, "precision": 23807, "predominantly": 23822, "prefecture": 23823, "prepared": 23861, "present": 23873, "president": 23891, "press": 23898, "pressure": 23905, "previous": 23936, "pri": 23942, "price": 23945, "prime": 23964, "print": 23983, "prise": 24001, "private": 24012, "privileged": 24020, "pro": 24027, "problem": 24041, "proc": 24047, "process": 24060, "processing": 24067, "proclaimed": 24074, "produced": 24084, "producing": 24091, "product": 24093, "production": 24099, "productive": 24103, "products": 24107, "prof": 24113, "professional": 24117, "profile": 24127, "profit": 24132, "programme": 24145, "project": 24166, "proliferation": 24177, "proof": 24206, "prop": 24209, "propan": 24214, "propelled": 24215, "propyl": 24242, "protect": 24262, "protein": 24278, "provided": 24304, "provincial": 24317, "provoking": 24329, "ps": 24335, "psych": 24343, "pt": 24358, "pu": 24364, "pub": 24370, "public": 24373, "published": 24386, "pul": 24396, "pur": 24428, "purchase": 24431, "purpose": 24450, "put": 24469, "py": 24484, "q": 24495, "qi": 24503, "qian": 24505, "qiang": 24507, "qiao": 24512, "qin": 24514, "qing": 24516, "qiu": 24527, "qq": 24529, "qu": 24533, "qua": 24538, "qualification": 24546, "qualified": 24551, "quality": 24557, "quan": 24561, "quarter": 24574, "quat": 24583, "que": 24585, "queous": 24597, "quer": 24598, "quest": 24602, "question": 24605, "quez": 24618, "qui": 24619, "quin": 24630, "quist": 24636, "quit": 24637, "quities": 24642, "quo": 24645, "r": 24657, "ra": 24661, "rac": 24670, "race": 24672, "rack": 24685, "racy": 24689, "rad": 24690, "rade": 24695, "radiation": 24700, "radio": 24705, "raf": 24712, "raft": 24715, "rag": 24717, "rage": 24719, "rah": 24721, "rai": 24723, "rail": 24729, "rain": 24738, "raising": 24751, "rak": 24757, "ral": 24759, "ram": 24764, "rama": 24768, "ran": 24774, "rance": 24778, "rand": 24781, "rang": 24788, "range": 24789, "ranging": 24794, "rank": 24796, "rankfurt": 24800, "ranking": 24801, "rant": 24807, "rap": 24808, "rar": 24822, "ras": 24826, "rash": 24829, "rat": 24832, "rate": 24835, "rated": 24839, "rating": 24850, "ration": 24856, "rator": 24860, "rattoria": 24862, "rau": 24863, "rava": 24865, "raw": 24867, "ray": 24870, "raz": 24875, "rba": 24879, "rbi": 24880, "rbitrary": 24881, "rc": 24882, "rch": 24885, "rchaeological": 24886, "rd": 24887, "rden": 24891, "re": 24892, "rea": 24899, "reaching": 24905, "read": 24914, "reading": 24924, "ready": 24928, "real": 24935, "reasonable": 24959, "reclassification": 25018, "recognizing": 25029, "record": 25051, "recurrent": 25087, "red": 25094, "redeployment": 25104, "ree": 25119, "reference": 25128, "reg": 25179, "region": 25197, "regional": 25202, "registered": 25210, "registration": 25215, "regular": 25224, "regulated": 25231, "regulation": 25234, "rehabilitat": 25243, "reimburs": 25252, "rel": 25270, "related": 25274, "release": 25296, "reliance": 25315, "religious": 25327, "reload": 25330, "rem": 25338, "ren": 25377, "renal": 25381, "renowned": 25401, "rent": 25403, "rep": 25415, "report": 25456, "represented": 25478, "required": 25504, "res": 25514, "resident": 25550, "resilient": 25566, "resistant": 25573, "resolution": 25577, "respect": 25596, "respective": 25601, "responsibilities": 25615, "responsible": 25619, "ress": 25624, "rest": 25625, "ret": 25670, "retired": 25686, "review": 25733, "revolutionary": 25759, "rew": 25764, "rey": 25771, "rg": 25781, "rge": 25784, "rg\u00e9": 25785, "rh": 25786, "rhythm": 25797, "ri": 25800, "ria": 25805, "rian": 25807, "rib": 25808, "ribe": 25812, "ric": 25813, "rica": 25815, "rich": 25821, "rick": 25832, "rid": 25837, "rida": 25839, "ride": 25840, "ridge": 25845, "rie": 25853, "ried": 25854, "riel": 25855, "rier": 25856, "ries": 25857, "rif": 25859, "rig": 25863, "riga": 25866, "right": 25868, "righteous": 25874, "rik": 25883, "ril": 25884, "rill": 25886, "rim": 25887, "rimin": 25889, "rin": 25891, "rina": 25893, "rine": 25894, "ring": 25895, "rington": 25901, "rini": 25902, "rink": 25903, "rino": 25904, "rio": 25905, "rip": 25909, "ripartite": 25912, "ris": 25916, "rise": 25918, "rish": 25923, "rising": 25924, "risk": 25927, "rist": 25932, "rit": 25934, "rite": 25936, "rito": 25937, "rity": 25940, "ritz": 25941, "rium": 25943, "river": 25946, "riz": 25954, "rk": 25956, "rl": 25958, "rm": 25960, "rma": 25963, "rn": 25966, "rne": 25969, "rnish": 25970, "ro": 25971, "road": 25977, "rock": 26013, "rocket": 26018, "rod": 26024, "roga": 26031, "rogrammable": 26035, "roid": 26041, "rol": 26042, "roll": 26048, "rom": 26059, "rome": 26072, "ron": 26075, "rong": 26080, "room": 26088, "root": 26097, "roots": 26100, "rop": 26102, "ros": 26105, "rose": 26109, "rou": 26133, "rough": 26136, "round": 26141, "rous": 26146, "route": 26148, "rov": 26157, "row": 26159, "roy": 26164, "rp": 26172, "rpm": 26175, "rr": 26176, "rra": 26178, "rrell": 26179, "rri": 26180, "rro": 26181, "rry": 26182, "rs": 26183, "rt": 26188, "ru": 26191, "rud": 26208, "rug": 26217, "rui": 26221, "rule": 26228, "rum": 26236, "run": 26243, "runner": 26248, "rup": 26256, "rural": 26260, "rus": 26263, "rush": 26264, "rust": 26275, "rvey": 26282, "ry": 26284, "ryvnia": 26291, "r\u00e9": 24898, "r\u00fc": 26196, "s": 26292, "sa": 26301, "safe": 26330, "safety": 26338, "sai": 26347, "saint": 26357, "saka": 26363, "sale": 26377, "sales": 26381, "salzburg": 26404, "sama": 26409, "san": 26425, "sar": 26465, "sat": 26479, "satellite": 26486, "satisfied": 26493, "saturated": 26497, "saving": 26521, "saw": 26530, "say": 26537, "sburg": 26548, "sc": 26549, "scale": 26560, "scan": 26566, "scape": 26577, "scendant": 26590, "sch": 26597, "schaft": 26601, "schedule": 26603, "school": 26624, "scien": 26638, "science": 26639, "scientific": 26646, "sco": 26656, "scope": 26663, "scopic": 26666, "scrambling": 26690, "screen": 26700, "scribe": 26711, "scribed": 26712, "script": 26713, "se": 26735, "sea": 26741, "search": 26759, "season": 26770, "seat": 26779, "sec": 26788, "second": 26794, "secondary": 26799, "secret": 26805, "section": 26819, "sector": 26823, "sectoral": 26826, "secure": 26831, "security": 26839, "see": 26848, "seed": 26853, "seekers": 26863, "sei": 26875, "seismic": 26877, "sel": 26884, "self": 26897, "sell": 26903, "selling": 26909, "sen": 26925, "sensei": 26944, "sensitive": 26949, "seok": 26969, "sequencing": 26992, "ser": 26993, "series": 27007, "serv": 27021, "serve": 27027, "served": 27030, "server": 27032, "service": 27038, "servicing": 27047, "serving": 27050, "session": 27056, "set": 27061, "setting": 27068, "seven": 27084, "seventh": 27090, "sex": 27105, "sexual": 27109, "sey": 27115, "sh": 27124, "sha": 27130, "shad": 27138, "shadow": 27141, "shan": 27163, "shaped": 27183, "share": 27187, "sharing": 27199, "she": 27215, "shed": 27220, "sheet": 27224, "shek": 27231, "shell": 27236, "sheng": 27248, "shenzhen": 27253, "shi": 27270, "shield": 27276, "shift": 27279, "shima": 27287, "shin": 27289, "ship": 27300, "shire": 27315, "shirt": 27317, "shiyama": 27324, "sho": 27326, "shock": 27329, "shoot": 27340, "shop": 27346, "shore": 27354, "short": 27357, "shot": 27369, "should": 27377, "show": 27389, "shu": 27412, "shui": 27416, "shun": 27418, "si": 27427, "sia": 27433, "sian": 27435, "side": 27447, "sided": 27450, "sighted": 27463, "sign": 27468, "signed": 27481, "significant": 27485, "sil": 27492, "sim": 27516, "similar": 27521, "sin": 27551, "since": 27555, "sing": 27564, "singaporehotel": 27570, "single": 27576, "sion": 27590, "sis": 27598, "sistance": 27600, "sistence": 27601, "site": 27609, "six": 27626, "sixth": 27632, "size": 27639, "sized": 27642, "sk": 27644, "ska": 27649, "skaya": 27652, "ski": 27658, "skinned": 27669, "sky": 27679, "slated": 27694, "slav": 27696, "sleep": 27703, "sley": 27711, "small": 27747, "smith": 27771, "smoking": 27778, "so": 27820, "socia": 27832, "social": 27833, "sofia": 27862, "soft": 27865, "sol": 27875, "solid": 27894, "solution": 27906, "solvency": 27916, "some": 27923, "something": 27939, "sometimes": 27944, "son": 27951, "song": 27955, "songwriter": 27961, "soo": 27968, "soon": 27971, "sort": 27982, "sound": 27991, "source": 28002, "sourcing": 28008, "south": 28010, "sp": 28031, "spa": 28037, "space": 28043, "span": 28059, "speaker": 28083, "speaking": 28087, "spec": 28092, "special": 28096, "species": 28112, "specific": 28115, "specified": 28127, "spectral": 28134, "speed": 28143, "spend": 28152, "sphere": 28159, "spi": 28162, "spir": 28179, "spiring": 28182, "spoke": 28201, "sponsor": 28210, "sponsored": 28213, "sports": 28224, "spread": 28237, "spring": 28242, "sq": 28254, "sql": 28259, "square": 28267, "ss": 28281, "ssa": 28285, "sse": 28288, "ssel": 28289, "sson": 28292, "st": 28293, "sta": 28298, "stadt": 28317, "staff": 28318, "stage": 28322, "stained": 28327, "stakeholder": 28334, "stamp": 28340, "stan": 28345, "stand": 28349, "standard": 28353, "standing": 28362, "star": 28370, "start": 28385, "stat": 28398, "state": 28402, "statement": 28407, "static": 28415, "stay": 28439, "ste": 28447, "stead": 28450, "steel": 28463, "stein": 28474, "sten": 28479, "step": 28481, "stepped": 28490, "ster": 28494, "stic": 28513, "stick": 28515, "still": 28522, "stitute": 28538, "stock": 28542, "ston": 28557, "stone": 28558, "stop": 28563, "stor": 28571, "store": 28575, "storey": 28582, "stories": 28583, "storm": 28587, "story": 28590, "str": 28596, "stra": 28601, "stral": 28609, "strasse": 28620, "stration": 28630, "stream": 28636, "street": 28643, "strength": 28649, "stretch": 28662, "stricken": 28667, "strict": 28668, "string": 28677, "stro": 28687, "strong": 28692, "struct": 28700, "structure": 28703, "structured": 28706, "student": 28718, "studio": 28727, "style": 28747, "su": 28755, "sub": 28761, "subject": 28771, "subsequently": 28801, "substanti": 28815, "such": 28847, "sufficient": 28866, "suing": 28881, "suit": 28882, "suite": 28888, "suk": 28895, "suke": 28898, "sulphur": 28906, "sum": 28908, "summer": 28919, "sumption": 28927, "sun": 28928, "sung": 28937, "super": 28950, "supervised": 28969, "supply": 28990, "support": 28993, "supported": 28998, "sur": 29016, "sure": 29021, "surface": 29029, "sustainment": 29097, "sw": 29109, "sweet": 29134, "swept": 29142, "sy": 29174, "sydney": 29178, "symmetric": 29189, "sync": 29203, "synthesis": 29217, "synthetic": 29221, "sys": 29228, "system": 29229, "t": 29240, "ta": 29244, "tab": 29250, "table": 29253, "tae": 29268, "taek": 29270, "tag": 29272, "tai": 29282, "tail": 29288, "tain": 29293, "take": 29310, "taking": 29318, "tal": 29321, "tale": 29323, "talk": 29331, "talled": 29341, "talling": 29343, "tan": 29350, "tang": 29353, "tank": 29358, "tao": 29364, "tape": 29370, "tar": 29373, "target": 29378, "tas": 29389, "tation": 29402, "tax": 29409, "tch": 29430, "te": 29435, "tea": 29442, "teakhouse": 29456, "team": 29457, "tec": 29469, "tech": 29472, "technic": 29478, "technical": 29479, "technologies": 29495, "technology": 29498, "ted": 29503, "teen": 29510, "tek": 29520, "tel": 29523, "tell": 29544, "tem": 29550, "temp": 29553, "temperature": 29559, "ten": 29575, "ter": 29600, "terdisciplinary": 29604, "tergovernmental": 29606, "term": 29607, "tern": 29623, "tero": 29624, "terrestrial": 29631, "terrorism": 29647, "terrorist": 29651, "ters": 29656, "tes": 29658, "test": 29661, "tex": 29682, "text": 29687, "th": 29697, "tha": 29702, "than": 29708, "thank": 29711, "that": 29722, "the": 29728, "theme": 29744, "then": 29749, "ther": 29762, "therapy": 29767, "there": 29770, "thermal": 29782, "they": 29790, "thi": 29794, "think": 29814, "third": 29823, "thirty": 29836, "this": 29839, "thousand": 29865, "threatening": 29878, "three": 29881, "through": 29896, "thy": 29920, "ti": 29924, "tia": 29929, "tian": 29930, "tic": 29942, "tica": 29944, "ticket": 29947, "tics": 29953, "tie": 29956, "tier": 29962, "ties": 29964, "tieth": 29966, "tification": 29968, "til": 29975, "tile": 29977, "tim": 29983, "time": 29988, "timer": 29996, "tin": 30004, "tina": 30008, "tine": 30010, "ting": 30011, "tio": 30016, "tion": 30017, "tions": 30019, "tis": 30029, "title": 30038, "titude": 30045, "tive": 30047, "tivity": 30048, "tle": 30050, "tmospheric": 30055, "to": 30058, "tolerant": 30094, "tom": 30097, "ton": 30110, "tone": 30113, "tong": 30115, "too": 30125, "tool": 30132, "tooth": 30140, "top": 30142, "tor": 30152, "tori": 30157, "toria": 30158, "tory": 30176, "tos": 30177, "total": 30179, "tou": 30186, "touch": 30187, "tour": 30197, "town": 30222, "toxic": 30232, "tr": 30243, "tra": 30248, "trac": 30252, "track": 30257, "traction": 30267, "trade": 30271, "traditional": 30286, "traffic": 30292, "train": 30304, "training": 30311, "tran": 30322, "trans": 30327, "transfer": 30339, "transmit": 30376, "trapping": 30401, "travel": 30404, "tre": 30424, "treat": 30434, "treatment": 30441, "tree": 30448, "tress": 30465, "tri": 30467, "trial": 30474, "tributable": 30487, "tric": 30492, "trip": 30506, "trix": 30516, "tro": 30517, "tron": 30522, "tronic": 30524, "trop": 30529, "tru": 30545, "trust": 30565, "try": 30577, "ts": 30584, "tsu": 30596, "tt": 30602, "tta": 30604, "tte": 30605, "tten": 30606, "tti": 30607, "ttle": 30609, "tty": 30610, "tu": 30611, "tube": 30617, "tum": 30632, "tun": 30636, "tune": 30639, "tung": 30642, "tur": 30649, "ture": 30657, "turn": 30672, "tus": 30686, "tv": 30693, "tw": 30697, "twice": 30715, "twithstanding": 30727, "two": 30730, "txt": 30737, "ty": 30738, "type": 30743, "typical": 30754, "tz": 30765, "t\u00e9": 29441, "u": 30768, "ua": 30780, "ual": 30785, "uala": 30787, "uan": 30788, "ub": 30790, "uba": 30792, "uber": 30793, "ubregional": 30796, "uc": 30800, "uca": 30803, "ucci": 30804, "uce": 30805, "uch": 30806, "uchi": 30807, "uci": 30808, "uck": 30809, "uction": 30812, "ud": 30813, "uda": 30815, "udd": 30816, "uddin": 30817, "ude": 30818, "udge": 30819, "ue": 30820, "uel": 30823, "uf": 30824, "uff": 30826, "ufficiency": 30827, "ug": 30830, "uga": 30831, "uge": 30833, "ugg": 30834, "ugh": 30835, "ught": 30837, "ugu": 30840, "uh": 30841, "ui": 30844, "uit": 30848, "uji": 30849, "uk": 30851, "uka": 30854, "uke": 30855, "uki": 30856, "uku": 30860, "ul": 30861, "ula": 30865, "ular": 30866, "ulate": 30867, "ulating": 30868, "ulation": 30869, "ulator": 30870, "uld": 30872, "ule": 30873, "ulf": 30874, "uli": 30875, "ull": 30876, "ullah": 30877, "ulou": 30878, "ult": 30879, "ulu": 30894, "um": 30895, "uma": 30899, "umba": 30900, "umble": 30902, "umbling": 30903, "ume": 30905, "umerous": 30906, "umi": 30907, "ummy": 30908, "ump": 30910, "un": 30911, "una": 30917, "unch": 30938, "und": 30951, "unda": 30953, "under": 30955, "understand": 30973, "une": 30993, "ung": 31015, "uni": 31021, "union": 31043, "unit": 31049, "univers": 31064, "unk": 31082, "unt": 31128, "until": 31129, "uo": 31139, "up": 31140, "upp": 31170, "uppression": 31173, "ups": 31175, "ur": 31184, "ura": 31189, "ural": 31191, "urban": 31194, "ure": 31200, "urf": 31202, "urge": 31203, "urging": 31212, "uri": 31213, "urin": 31214, "uring": 31216, "url": 31217, "urn": 31220, "uro": 31221, "urs": 31222, "uru": 31223, "ury": 31226, "us": 31227, "usa": 31232, "use": 31241, "used": 31246, "user": 31252, "ush": 31260, "using": 31261, "usse": 31264, "ussi": 31265, "ust": 31267, "uster": 31269, "usually": 31271, "ut": 31275, "uta": 31277, "ute": 31281, "uted": 31283, "uter": 31285, "uth": 31286, "uthorised": 31287, "util": 31288, "ution": 31298, "utmos": 31299, "uto": 31300, "utory": 31302, "utter": 31303, "utu": 31305, "uv": 31306, "ux": 31309, "uxembourg": 31311, "uz": 31313, "uzz": 31315, "v": 31316, "va": 31320, "vac": 31324, "val": 31343, "vale": 31347, "vali": 31353, "value": 31368, "van": 31380, "vani": 31389, "var": 31394, "vard": 31396, "vari": 31397, "vation": 31419, "ve": 31425, "ved": 31430, "vel": 31446, "ven": 31452, "venice": 31467, "vent": 31470, "venture": 31475, "ver": 31482, "vers": 31509, "verse": 31513, "version": 31516, "versus": 31520, "vert": 31521, "vertebrate": 31523, "verted": 31524, "very": 31528, "ves": 31533, "vested": 31538, "veterinary": 31541, "vi": 31545, "via": 31551, "vian": 31555, "vic": 31560, "vice": 31562, "vid": 31581, "video": 31583, "vie": 31591, "vienna": 31592, "vier": 31595, "view": 31601, "vii": 31620, "viii": 31623, "vik": 31625, "vil": 31628, "villa": 31630, "village": 31635, "ville": 31642, "vin": 31645, "vine": 31651, "ving": 31656, "vio": 31659, "violence": 31666, "violent": 31669, "vir": 31679, "virus": 31693, "vis": 31697, "visible": 31704, "vision": 31707, "visit": 31712, "vista": 31726, "visual": 31728, "vit": 31733, "vita": 31734, "vo": 31750, "voice": 31761, "vol": 31768, "voltage": 31779, "volume": 31783, "voluntary": 31788, "volution": 31795, "von": 31799, "vor": 31804, "vote": 31806, "votel": 31810, "vs": 31830, "vu": 31834, "vy": 31843, "w": 31844, "wa": 31848, "wai": 31861, "wait": 31865, "wal": 31879, "wald": 31881, "walk": 31884, "wall": 31893, "wan": 31907, "wang": 31915, "war": 31925, "ward": 31930, "ware": 31934, "was": 31967, "wash": 31971, "washington": 31977, "watch": 31992, "water": 32002, "watt": 32018, "wave": 32020, "way": 32028, "we": 32039, "weapon": 32053, "wear": 32058, "weather": 32063, "web": 32068, "webcam": 32074, "webcast": 32076, "website": 32079, "wee": 32092, "week": 32094, "wei": 32105, "weight": 32113, "wel": 32118, "welcome": 32119, "well": 32132, "wen": 32140, "went": 32144, "wer": 32149, "west": 32154, "western": 32159, "wh": 32171, "what": 32179, "wheel": 32193, "when": 32198, "where": 32204, "which": 32216, "while": 32220, "white": 32240, "who": 32246, "whole": 32256, "why": 32267, "wi": 32272, "wich": 32278, "wick": 32279, "wide": 32282, "width": 32292, "wife": 32296, "wig": 32304, "wiki": 32306, "wild": 32315, "will": 32324, "win": 32340, "wind": 32347, "window": 32352, "wing": 32361, "winning": 32370, "wire": 32383, "wise": 32395, "wit": 32403, "witch": 32404, "with": 32408, "without": 32420, "witz": 32431, "wk": 32435, "wl": 32436, "wn": 32437, "wo": 32438, "wolf": 32443, "woman": 32450, "women": 32455, "won": 32460, "woo": 32471, "wood": 32473, "word": 32485, "work": 32494, "worker": 32501, "working": 32510, "works": 32516, "world": 32525, "worm": 32532, "worth": 32549, "worthiness": 32552, "worthy": 32555, "would": 32557, "woven": 32567, "wrap": 32572, "write": 32585, "writer": 32589, "writing": 32595, "written": 32598, "wu": 32611, "ww": 32623, "www": 32625, "wy": 32627, "wyn": 32630, "x": 32634, "xa": 32638, "xi": 32647, "xia": 32652, "xian": 32656, "xiang": 32658, "xiao": 32665, "xie": 32671, "xin": 32675, "xing": 32679, "xml": 32693, "xo": 32696, "xon": 32697, "xtrabudgetary": 32702, "xu": 32703, "xuan": 32705, "xx": 32712, "xxx": 32718, "xxxxx": 32722, "y": 32725, "ya": 32731, "yah": 32738, "yama": 32744, "yan": 32746, "yang": 32751, "yao": 32763, "yar": 32765, "yard": 32766, "ydropower": 32772, "ye": 32773, "year": 32782, "yellow": 32795, "yen": 32801, "yeon": 32805, "yeong": 32806, "yer": 32808, "yes": 32810, "yev": 32820, "yi": 32822, "yin": 32828, "ying": 32830, "yl": 32834, "yle": 32835, "ylon": 32836, "ym": 32837, "yn": 32838, "ynchronous": 32840, "yne": 32841, "yo": 32842, "yon": 32853, "yong": 32855, "york": 32861, "yoshi": 32866, "you": 32868, "young": 32875, "your": 32881, "yp": 32894, "yr": 32895, "ys": 32896, "yu": 32898, "yuan": 32903, "yue": 32908, "yun": 32917, "yung": 32920, "z": 32929, "za": 32935, "zai": 32942, "zaki": 32945, "zan": 32948, "zar": 32950, "zawa": 32955, "ze": 32957, "zel": 32965, "zen": 32968, "zer": 32972, "zero": 32973, "zh": 32978, "zhang": 32981, "zhen": 32992, "zheng": 32995, "zhi": 32999, "zhong": 33004, "zhou": 33011, "zhu": 33015, "zhuang": 33017, "zi": 33023, "zia": 33025, "zie": 33030, "zier": 33031, "zin": 33035, "zing": 33039, "zio": 33041, "zip": 33043, "zo": 33049, "zon": 33058, "zone": 33059, "zong": 33064, "zu": 33073, "zumi": 33078, "zurich": 33080, "zy": 33082, "zz": 33084, "zza": 33086, "zzy": 33087, "{": 131, "{0}": 281, "{{": 132, "|": 21, "}": 133, "}{\\": 134, "}}": 135, "~": 4, "~~": 5, "\u0092": 269, "\u0093": 270, "\u0094": 271, "\u0097": 272, "\u009d": 273, "\u00a2": 142, "\u00a3": 144, "\u00a3\u00ad": 145, "\u00a4": 141, "\u00a5": 146, "\u00a7": 136, "\u00a9": 138, "\u00ab": 112, "\u00ad": 35, "\u00ae": 139, "\u00b0": 22, "\u00b011\u2032": 695, "\u00b012\u2032": 750, "\u00b015\u2032": 916, "\u00b021\u2032": 1897, "\u00b022\u2032": 1938, "\u00b027\u2032": 2113, "\u00b030\u2032": 2233, "\u00b032\u2032": 2309, "\u00b035\u2032": 2375, "\u00b054\u2032": 2855, "\u00b057\u2032": 2917, "\u00b1": 166, "\u00b6": 137, "\u00b7": 83, "\u00bb": 113, "\u00c1": 3777, "\u00c2": 3782, "\u00c5": 3785, "\u00c7": 7244, "\u00c9": 11567, "\u00cb": 11575, "\u00cd": 16142, "\u00d3": 21621, "\u00d6": 21626, "\u00d7": 7, "\u00d71": 557, "\u00d72": 1427, "\u00d8": 21629, "\u00dc": 30777, "\u00df": 28284, "\u00e0": 3778, "\u00e1": 3776, "\u00e1n": 4749, "\u00e2": 3780, "\u00e3": 3787, "\u00e3o": 4979, "\u00e4": 3786, "\u00e5": 3784, "\u00e6": 4262, "\u00e7": 7243, "\u00e7a": 7251, "\u00e8": 11569, "\u00e8ne": 12143, "\u00e8re": 12391, "\u00e9": 11566, "\u00e9e": 11751, "\u00e9n": 12075, "\u00e9r": 12378, "\u00e9tat": 12502, "\u00ea": 11570, "\u00eb": 11574, "\u00ec": 16143, "\u00ed": 16141, "\u00eda": 16152, "\u00edn": 16542, "\u00ee": 16144, "\u00ef": 16146, "\u00f0": 10034, "\u00f1": 20907, "\u00f1a": 20914, "\u00f2": 21622, "\u00f3": 21620, "\u00f3n": 21935, "\u00f4": 21623, "\u00f4te": 22242, "\u00f6": 21625, "\u00f6n": 21936, "\u00f6r": 22098, "\u00f8": 21628, "\u00f9": 30773, "\u00fa": 30772, "\u00fb": 30774, "\u00fc": 30776, "\u00fcr": 31188, "\u00fd": 32729, "\u0101": 3788, "\u0103": 3779, "\u0107": 7240, "\u010c": 7242, "\u010ce\u0161tina": 7815, "\u010d": 7241, "\u0110": 10033, "\u0113": 11576, "\u011b": 11573, "\u011f": 14212, "\u0124": 15113, "\u012a": 16148, "\u012b": 16147, "\u0131": 16149, "\u0134": 17385, "\u0137": 17782, "\u0142": 18201, "\u0144": 20906, "\u014b": 21260, "\u014d": 21630, "\u0151": 21627, "\u015f": 26300, "\u0160": 26299, "\u0161": 26298, "\u016b": 30778, "\u0178": 32730, "\u017d": 32934, "\u017e": 32933, "\u01b0": 30779, "\u01ce": 3783, "\u01d0": 16145, "\u01d2": 21624, "\u01d4": 30775, "\u0254": 21631, "\u0259": 11577, "\u0301": 174, "\u0307": 6, "\u030a": 3, "\u0391": 33138, "\u0393": 33142, "\u0394": 33144, "\u0395": 33146, "\u0398": 33151, "\u039b": 33157, "\u039c": 33159, "\u039d": 33162, "\u03a3": 33168, "\u03a4": 33171, "\u03a6": 33174, "\u03a9": 33178, "\u03ac": 33140, "\u03af": 33154, "\u03b1": 33139, "\u03b2": 33141, "\u03b3": 33143, "\u03b4": 33145, "\u03b5": 33148, "\u03b7": 33149, "\u03b7\u03bd": 33150, "\u03b8": 33152, "\u03b9": 33153, "\u03b9\u03ba": 33155, "\u03ba": 33156, "\u03bb": 33158, "\u03bc": 33160, "\u03bd": 33163, "\u03bf": 33164, "\u03c0": 33166, "\u03c1": 33167, "\u03c2": 33170, "\u03c3": 33169, "\u03c4": 33172, "\u03c5": 33173, "\u03c6": 33175, "\u03c7": 33176, "\u03c8": 33177, "\u03c9": 33179, "\u03cc": 33165, "\u0410": 33181, "\u0411": 33184, "\u0412": 33186, "\u0413": 33188, "\u0414": 33190, "\u0415": 33192, "\u0416": 33195, "\u0417": 33197, "\u0418": 33199, "\u041a": 33204, "\u041b": 33206, "\u041c": 33208, "\u041d": 33210, "\u041e": 33212, "\u041f": 33216, "\u0420": 33218, "\u0421": 33220, "\u0422": 33223, "\u0423": 33225, "\u0424": 33227, "\u0425": 33229, "\u0427": 33232, "\u0428": 33234, "\u042b": 33238, "\u042c": 33240, "\u042d": 33242, "\u042e": 33244, "\u0430": 33180, "\u0430\u043d": 33182, "\u0431": 33183, "\u0432": 33185, "\u0433": 33187, "\u0434": 33189, "\u0435": 33191, "\u0436": 33194, "\u0437": 33196, "\u0438": 33198, "\u0439": 33202, "\u043a": 33203, "\u043b": 33205, "\u043c": 33207, "\u043d": 33209, "\u043e": 33211, "\u043e\u0432": 33213, "\u043e\u043d": 33214, "\u043f": 33215, "\u0440": 33217, "\u0441": 33219, "\u0441\u0441": 33221, "\u0442": 33222, "\u0443": 33224, "\u0444": 33226, "\u0445": 33228, "\u0446": 33230, "\u0447": 33231, "\u0448": 33233, "\u0449": 33235, "\u044a": 33236, "\u044b": 33237, "\u044c": 33239, "\u044d": 33241, "\u044e": 33243, "\u044f": 33245, "\u0451": 33193, "\u0456": 33201, "\u0561": 33259, "\u0584": 33260, "\u05d1": 33126, "\u05d4": 33127, "\u05d5": 33128, "\u05d9": 33129, "\u05dc": 33130, "\u05e0": 33131, "\u05e2": 33132, "\u05e8": 33134, "\u05e8\u05d9": 33135, "\u05e9": 33136, "\u05ea": 33137, "\u060c": 172, "\u061f": 173, "\u0621": 33088, "\u0622": 33089, "\u0623": 33090, "\u0625": 33091, "\u0626": 33125, "\u0627": 33092, "\u0627\u0646": 33093, "\u0628": 33094, "\u0629": 33095, "\u062a": 33096, "\u062b": 33097, "\u062c": 33098, "\u062d": 33099, "\u062e": 33100, "\u062f": 33101, "\u0630": 33102, "\u0631": 33103, "\u0632": 33104, "\u0633": 33105, "\u0634": 33106, "\u0635": 33107, "\u0636": 33108, "\u0637": 33109, "\u0638": 33110, "\u0639": 33111, "\u0639\u0631\u0628\u064a": 33112, "\u063a": 33113, "\u0641": 33114, "\u0642": 33115, "\u0643": 33116, "\u0644": 33117, "\u0644\u0627": 33118, "\u0645": 33119, "\u0646": 33120, "\u0647": 33121, "\u0648": 33122, "\u0649": 33124, "\u064a": 33123, "\u0915": 33262, "\u0928": 33263, "\u092e": 33264, "\u0930": 33265, "\u0932": 33266, "\u093e": 33267, "\u0940": 33268, "\u094d": 33269, "\u09be": 33271, "\u0bcd": 33270, "\u0f0b": 33246, "\u0f42": 33247, "\u0f44": 33248, "\u0f51": 33249, "\u0f53": 33250, "\u0f56": 33251, "\u0f58": 33252, "\u0f62": 33253, "\u0f63": 33254, "\u0f66": 33255, "\u0f72": 33256, "\u0f74": 33257, "\u0f7c": 33258, "\u10b7": 33261, "\u1ebf": 11571, "\u1ec7": 11572, "\u2018": 85, "\u2019": 86, "\u201c": 101, "\u201d": 102, "\u201d(": 107, "\u201d)": 108, "\u201d,": 103, "\u201d,\u201c": 104, "\u201d.": 106, "\u201d?": 105, "\u201d\u009d": 111, "\u201d\u3001\u201c": 110, "\u201d\u3002": 109, "\u20a9": 147, "\u20ac": 148, "\u20ac\u009d": 149, "\u2190": 167, "\u2191": 169, "\u2192": 168, "\u2193": 170, "\u2260": 8, "\u2264": 11, "\u2265": 18, "\u2500": 28, "\u2500\u2500": 29, "\u2502": 27, "\u2514": 26, "\u251c": 24, "\u2524": 25, "\u252c": 23, "\u2581": 175, "\u2581\"": 212, "\u2581\"%1\"": 578, "\u2581#": 253, "\u2581##": 254, "\u2581#1": 585, "\u2581#2": 1442, "\u2581#3": 2216, "\u2581#4": 2503, "\u2581#5": 2741, "\u2581$": 242, "\u2581$0.": 286, "\u2581$1": 583, "\u2581$1,0": 620, "\u2581$1,000": 642, "\u2581$1,1": 709, "\u2581$1,2": 761, "\u2581$1,3": 826, "\u2581$1,5": 927, "\u2581$1,7": 1026, "\u2581$1.5": 928, "\u2581$10": 619, "\u2581$10,000": 650, "\u2581$100": 634, "\u2581$100,000": 653, "\u2581$11": 708, "\u2581$12": 760, "\u2581$13": 825, "\u2581$14": 877, "\u2581$15": 926, "\u2581$150": 942, "\u2581$16": 978, "\u2581$17": 1025, "\u2581$18": 1066, "\u2581$19": 1156, "\u2581$2": 1441, "\u2581$2,000": 1497, "\u2581$20": 1473, "\u2581$20,000": 1504, "\u2581$200": 1488, "\u2581$200,000": 1507, "\u2581$21": 1905, "\u2581$22": 1946, "\u2581$23": 1983, "\u2581$24": 2016, "\u2581$25": 2051, "\u2581$250": 2065, "\u2581$26": 2091, "\u2581$27": 2121, "\u2581$28": 2151, "\u2581$3": 2215, "\u2581$30": 2240, "\u2581$30,000": 2263, "\u2581$300": 2255, "\u2581$35": 2379, "\u2581$4": 2502, "\u2581$40": 2525, "\u2581$400": 2537, "\u2581$5": 2740, "\u2581$5,000": 2783, "\u2581$50": 2762, "\u2581$50,000": 2786, "\u2581$500": 2777, "\u2581$500,000": 2789, "\u2581$6": 2988, "\u2581$60": 3007, "\u2581$7": 3207, "\u2581$8": 3395, "\u2581$9": 3601, "\u2581%": 255, "\u2581%(": 256, "\u2581%1": 586, "\u2581%1$": 587, "\u2581%2": 1443, "\u2581%2$": 1444, "\u2581&": 252, "\u2581'": 209, "\u2581'%1": 577, "\u2581(": 223, "\u2581($": 225, "\u2581($1": 580, "\u2581($2": 1438, "\u2581($3": 2211, "\u2581($4": 2499, "\u2581($5": 2736, "\u2581($6": 2985, "\u2581($7": 3203, "\u2581($8": 3391, "\u2581($9": 3598, "\u2581(%)": 226, "\u2581(+": 227, "\u2581(0": 283, "\u2581(0)": 284, "\u2581(1": 579, "\u2581(1)": 581, "\u2581(10": 616, "\u2581(10)": 617, "\u2581(100": 633, "\u2581(11": 705, "\u2581(11)": 706, "\u2581(12": 757, "\u2581(12)": 758, "\u2581(13": 822, "\u2581(13)": 823, "\u2581(14": 874, "\u2581(14)": 875, "\u2581(15": 923, "\u2581(15)": 924, "\u2581(16": 976, "\u2581(16)": 977, "\u2581(17": 1022, "\u2581(17)": 1023, "\u2581(18": 1063, "\u2581(18)": 1064, "\u2581(18+)": 1065, "\u2581(19": 1154, "\u2581(19)": 1155, "\u2581(1984)": 1359, "\u2581(1987)": 1367, "\u2581(1989)": 1373, "\u2581(1990)": 1380, "\u2581(1991)": 1384, "\u2581(1992)": 1387, "\u2581(1993)": 1391, "\u2581(1994)": 1394, "\u2581(1996)": 1400, "\u2581(1997)": 1406, "\u2581(1998)": 1413, "\u2581(1999)": 1422, "\u2581(2": 1437, "\u2581(2)": 1439, "\u2581(20": 1470, "\u2581(20)": 1471, "\u2581(2000)": 1496, "\u2581(2001)": 1518, "\u2581(2002)": 1527, "\u2581(2003)": 1538, "\u2581(2004)": 1547, "\u2581(2005)": 1558, "\u2581(2006)": 1568, "\u2581(2007)": 1578, "\u2581(2008)": 1591, "\u2581(2009)": 1606, "\u2581(2010)": 1619, "\u2581(2011)": 1632, "\u2581(2012)": 1647, "\u2581(2013)": 1673, "\u2581(2014)": 1700, "\u2581(2015)": 1727, "\u2581(2016)": 1754, "\u2581(2017)": 1783, "\u2581(2018)": 1804, "\u2581(21": 1903, "\u2581(21)": 1904, "\u2581(212)": 1923, "\u2581(22": 1944, "\u2581(22)": 1945, "\u2581(2237": 1965, "\u2581(23": 1981, "\u2581(23)": 1982, "\u2581(24": 2014, "\u2581(24)": 2015, "\u2581(25": 2049, "\u2581(25)": 2050, "\u2581(26": 2089, "\u2581(26)": 2090, "\u2581(27": 2119, "\u2581(27)": 2120, "\u2581(28": 2149, "\u2581(28)": 2150, "\u2581(29": 2180, "\u2581(29)": 2181, "\u2581(3": 2210, "\u2581(3)": 2212, "\u2581(30": 2238, "\u2581(30)": 2239, "\u2581(31": 2285, "\u2581(32)": 2312, "\u2581(33)": 2334, "\u2581(34)": 2355, "\u2581(4": 2498, "\u2581(4)": 2500, "\u2581(44)": 2613, "\u2581(46)": 2652, "\u2581(5": 2735, "\u2581(5)": 2737, "\u2581(52)": 2824, "\u2581(59)": 2962, "\u2581(6": 2984, "\u2581(6)": 2986, "\u2581(60)": 3006, "\u2581(7": 3202, "\u2581(7)": 3204, "\u2581(8": 3390, "\u2581(8)": 3392, "\u2581(80)": 3411, "\u2581(852)": 3507, "\u2581(9": 3597, "\u2581(9)": 3599, "\u2581(917)": 3649, "\u2581(\u201c": 224, "\u2581)": 228, "\u2581*": 246, "\u2581**": 247, "\u2581***": 248, "\u2581****": 249, "\u2581*****": 250, "\u2581+": 257, "\u2581+1": 588, "\u2581+49": 2709, "\u2581+65": 3112, "\u2581+81-": 3439, "\u2581+852": 3508, "\u2581+86": 3523, "\u2581+86-": 3524, "\u2581+86-0": 3529, "\u2581+86-13": 3532, "\u2581+86-5": 3537, "\u2581-": 196, "\u2581--": 198, "\u2581---": 199, "\u2581-1": 576, "\u2581->": 197, "\u2581...": 207, "\u2581/": 205, "\u2581//": 206, "\u25810": 282, "\u25810%": 287, "\u25810-6": 480, "\u25810.0": 303, "\u25810.00": 310, "\u25810.01": 330, "\u25810.02": 334, "\u25810.03": 336, "\u25810.04": 338, "\u25810.05": 340, "\u25810.06": 342, "\u25810.1": 358, "\u25810.2": 386, "\u25810.3": 417, "\u25810.4": 442, "\u25810.5": 458, "\u25810.6": 481, "\u25810.7": 498, "\u25810.8": 522, "\u25810.9": 546, "\u258100": 301, "\u2581000": 309, "\u25810086": 348, "\u25810086-": 349, "\u258100:": 304, "\u258100:00": 316, "\u258101": 357, "\u2581010": 364, "\u258102": 385, "\u2581021-6": 398, "\u258103": 416, "\u258104": 441, "\u258105": 457, "\u258106": 479, "\u258107": 497, "\u25810755": 512, "\u25810755-8": 514, "\u258107:00": 503, "\u258108": 521, "\u258108:00": 527, "\u258109": 545, "\u258109:": 547, "\u258109:00": 551, "\u25811": 575, "\u25811%": 593, "\u25811)": 592, "\u25811,": 589, "\u25811,000": 643, "\u25811,200": 781, "\u25811,300": 842, "\u25811,400": 891, "\u25811,500": 945, "\u25811,600": 991, "\u25811,800": 1078, "\u25811-2": 762, "\u25811-3": 827, "\u25811-5": 929, "\u25811.": 591, "\u25811.0": 621, "\u25811.1": 711, "\u25811.15": 740, "\u25811.2": 764, "\u25811.3": 829, "\u25811.4": 879, "\u25811.5": 930, "\u25811.6": 979, "\u25811.7": 1027, "\u25811.8": 1067, "\u25811.9": 1157, "\u25811/1": 710, "\u25811/2": 763, "\u25811/3": 828, "\u25811/4": 878, "\u258110": 615, "\u258110%": 624, "\u258110,000": 651, "\u258110-": 622, "\u258110.": 623, "\u258110.1": 659, "\u258110.30": 668, "\u258110.5": 678, "\u2581100": 632, "\u2581100%": 636, "\u2581100,000": 654, "\u2581100-": 635, "\u25811000": 641, "\u258110000": 649, "\u2581101": 658, "\u2581102": 663, "\u25811024": 664, "\u2581103": 666, "\u2581104": 674, "\u2581105": 677, "\u2581106": 682, "\u2581107": 685, "\u2581108": 688, "\u25811080": 690, "\u2581109": 693, "\u258110:00": 644, "\u258110:30": 667, "\u258111": 704, "\u258111,": 712, "\u258111.": 713, "\u2581110": 720, "\u25811100": 722, "\u2581111": 726, "\u2581112": 729, "\u2581113": 732, "\u2581114": 737, "\u2581115": 739, "\u2581116": 742, "\u2581117": 744, "\u2581118": 746, "\u2581119": 748, "\u258111:00": 723, "\u258111:30": 734, "\u258112": 756, "\u258112%": 768, "\u258112,": 766, "\u258112,000": 784, "\u258112-": 765, "\u258112.": 767, "\u258112.5": 804, "\u2581120": 777, "\u25811200": 780, "\u2581120\u00b0": 778, "\u2581121": 786, "\u2581121.": 787, "\u2581121.1": 788, "\u2581122": 791, "\u2581123": 795, "\u2581124": 801, "\u2581125": 803, "\u2581126": 808, "\u2581127": 810, "\u2581128": 812, "\u2581129": 814, "\u258112:00": 782, "\u258113": 821, "\u258113,": 831, "\u258113,000": 845, "\u258113.": 832, "\u2581130": 839, "\u25811300": 841, "\u2581131": 847, "\u2581132": 850, "\u2581133": 852, "\u2581134": 854, "\u2581135": 856, "\u2581136": 858, "\u2581137": 860, "\u25811373": 861, "\u2581138": 863, "\u2581139": 866, "\u258113:00": 843, "\u258113\u00b0": 830, "\u258114": 873, "\u258114,": 880, "\u258114.": 881, "\u2581140": 888, "\u25811400": 890, "\u258114001": 896, "\u2581141": 898, "\u2581142": 900, "\u2581143": 902, "\u2581144": 904, "\u2581145": 906, "\u2581146": 908, "\u2581147": 910, "\u2581148": 912, "\u2581149": 914, "\u258114:00": 892, "\u258115": 922, "\u258115%": 934, "\u258115,": 932, "\u258115,000": 949, "\u258115-": 931, "\u258115.": 933, "\u2581150": 941, "\u2581150,000": 950, "\u25811500": 944, "\u2581151": 952, "\u2581152": 954, "\u2581153": 956, "\u2581154": 958, "\u2581155": 960, "\u2581156": 962, "\u2581157": 964, "\u2581158": 966, "\u2581159": 968, "\u258115:00": 946, "\u258116": 975, "\u258116,": 980, "\u258116.": 981, "\u2581160": 988, "\u25811600": 990, "\u2581161": 996, "\u2581162": 998, "\u2581163": 1001, "\u2581164": 1003, "\u2581165": 1005, "\u2581166": 1007, "\u2581167": 1009, "\u2581168": 1011, "\u2581169": 1013, "\u258116:00": 992, "\u258117": 1021, "\u258117,": 1028, "\u258117.": 1029, "\u2581170": 1034, "\u2581171": 1040, "\u2581172": 1042, "\u2581173": 1044, "\u2581174": 1047, "\u2581175": 1049, "\u2581176": 1051, "\u2581177": 1053, "\u2581179": 1056, "\u258117:00": 1036, "\u258118": 1062, "\u258118,": 1068, "\u258118.": 1069, "\u2581180": 1075, "\u25811800": 1077, "\u2581181": 1083, "\u2581182": 1085, "\u2581183": 1087, "\u2581184": 1089, "\u25811848": 1090, "\u2581185": 1092, "\u25811850": 1093, "\u2581186": 1095, "\u25811860": 1096, "\u25811865": 1098, "\u25811866": 1100, "\u25811867": 1101, "\u25811868": 1103, "\u2581187": 1105, "\u25811870": 1106, "\u25811871": 1108, "\u25811876": 1109, "\u25811879": 1110, "\u2581188": 1112, "\u25811880": 1114, "\u25811881": 1116, "\u25811883": 1117, "\u25811884": 1118, "\u25811885": 1120, "\u25811886": 1122, "\u25811887": 1123, "\u25811888": 1125, "\u25811889": 1126, "\u2581189": 1128, "\u25811890": 1130, "\u25811891": 1131, "\u25811892": 1133, "\u25811893": 1135, "\u25811894": 1136, "\u25811895": 1138, "\u25811896": 1140, "\u25811897": 1142, "\u25811898": 1144, "\u25811899": 1146, "\u258118:00": 1079, "\u258119": 1153, "\u258119,": 1158, "\u258119.": 1159, "\u2581190": 1164, "\u25811900": 1166, "\u25811901": 1170, "\u25811902": 1172, "\u25811903": 1174, "\u25811904": 1176, "\u25811905": 1178, "\u25811906": 1180, "\u25811907": 1182, "\u25811908": 1184, "\u25811909": 1186, "\u2581191": 1188, "\u25811910": 1190, "\u25811911": 1192, "\u25811912": 1194, "\u25811913": 1196, "\u25811914": 1198, "\u25811915": 1200, "\u25811916": 1202, "\u25811917": 1204, "\u25811918": 1206, "\u25811919": 1208, "\u2581192": 1210, "\u25811920": 1212, "\u25811921": 1214, "\u25811922": 1216, "\u25811923": 1218, "\u25811924": 1220, "\u25811925": 1222, "\u25811926": 1224, "\u25811927": 1226, "\u25811928": 1228, "\u25811929": 1230, "\u2581193": 1232, "\u25811930": 1234, "\u25811931": 1236, "\u25811932": 1238, "\u25811933": 1240, "\u25811934": 1242, "\u25811935": 1244, "\u25811936": 1246, "\u25811937": 1248, "\u25811938": 1250, "\u25811939": 1252, "\u25811939,": 1253, "\u2581194": 1255, "\u25811940": 1257, "\u25811941": 1259, "\u25811942": 1261, "\u25811943": 1263, "\u25811944": 1265, "\u25811945": 1267, "\u25811945,": 1268, "\u25811946": 1270, "\u25811947": 1272, "\u25811948": 1274, "\u25811949": 1276, "\u25811949,": 1277, "\u2581195": 1279, "\u25811950": 1281, "\u25811951": 1283, "\u25811952": 1285, "\u25811953": 1287, "\u25811953,": 1288, "\u25811954": 1290, "\u25811955": 1292, "\u25811956": 1294, "\u25811957": 1296, "\u25811958": 1298, "\u25811958,": 1299, "\u25811959": 1301, "\u2581196": 1303, "\u25811960": 1305, "\u25811961": 1307, "\u25811962": 1309, "\u25811963": 1311, "\u25811964": 1313, "\u25811965": 1315, "\u25811966": 1317, "\u25811967": 1319, "\u25811968": 1321, "\u25811969": 1323, "\u25811970": 1326, "\u25811971": 1328, "\u25811972": 1330, "\u25811973": 1332, "\u25811974": 1334, "\u25811975": 1336, "\u25811976": 1338, "\u25811976,": 1339, "\u25811977": 1341, "\u25811978": 1343, "\u25811979": 1345, "\u2581198": 1347, "\u25811980": 1349, "\u25811981": 1351, "\u25811981,": 1352, "\u25811982": 1354, "\u25811983": 1356, "\u25811984": 1358, "\u25811985": 1361, "\u25811986": 1363, "\u25811986,": 1364, "\u25811987": 1366, "\u25811988": 1369, "\u25811988,": 1370, "\u25811989": 1372, "\u2581199": 1375, "\u25811990": 1379, "\u25811990,": 1381, "\u25811991": 1383, "\u25811992": 1386, "\u25811992,": 1388, "\u25811993": 1390, "\u25811994": 1393, "\u25811994,": 1395, "\u25811995": 1397, "\u25811996": 1399, "\u25811996,": 1401, "\u25811996.": 1402, "\u25811997": 1405, "\u25811997,": 1407, "\u25811997.": 1408, "\u25811998": 1412, "\u25811998)": 1416, "\u25811998,": 1414, "\u25811998-1999": 1417, "\u25811998.": 1415, "\u25811999": 1421, "\u25811999)": 1425, "\u25811999,": 1423, "\u25811999.": 1424, "\u25811:": 590, "\u25811\u3001": 594, "\u25812": 1436, "\u25812%": 1451, "\u25812)": 1449, "\u25812*": 1450, "\u25812,": 1446, "\u25812,000": 1498, "\u25812,500": 2067, "\u25812-": 1445, "\u25812-0": 1474, "\u25812-3": 1984, "\u25812.": 1448, "\u25812.0": 1475, "\u25812.1": 1906, "\u25812.2": 1947, "\u25812.3": 1986, "\u25812.4": 2017, "\u25812.5": 2052, "\u25812.6": 2092, "\u25812.7": 2122, "\u25812.8": 2152, "\u25812.9": 2182, "\u25812/3": 1985, "\u258120": 1469, "\u258120%": 1479, "\u258120,": 1477, "\u258120,000": 1505, "\u258120-": 1476, "\u258120.": 1478, "\u2581200": 1487, "\u2581200,000": 1508, "\u25812000": 1495, "\u25812000)": 1501, "\u25812000,": 1499, "\u25812000-2001": 1511, "\u25812000.": 1500, "\u25812000/2": 1510, "\u25812001": 1517, "\u25812001)": 1521, "\u25812001,": 1519, "\u25812001.": 1520, "\u25812002": 1526, "\u25812002)": 1529, "\u25812002-2003": 1530, "\u25812002.": 1528, "\u25812003": 1537, "\u25812003)": 1541, "\u25812003,": 1539, "\u25812003.": 1540, "\u25812004": 1546, "\u25812004)": 1550, "\u25812004,": 1548, "\u25812004-06-1": 1551, "\u25812004-2005": 1552, "\u25812004.": 1549, "\u25812005": 1557, "\u25812005)": 1561, "\u25812005,": 1559, "\u25812005.": 1560, "\u25812006": 1567, "\u25812006)": 1570, "\u25812006-02-08": 1571, "\u25812006-2007": 1573, "\u25812006.": 1569, "\u25812007": 1577, "\u25812007)": 1581, "\u25812007,": 1579, "\u25812007-09-2": 1583, "\u25812007-10-1": 1584, "\u25812007.": 1580, "\u25812007/08": 1582, "\u25812008": 1590, "\u25812008)": 1595, "\u25812008,": 1593, "\u25812008-03-": 1596, "\u25812008-2009": 1598, "\u25812008.": 1594, "\u25812008/09": 1597, "\u25812009": 1605, "\u25812009)": 1610, "\u25812009,": 1608, "\u25812009.": 1609, "\u2581201": 1613, "\u25812010": 1618, "\u25812010)": 1623, "\u25812010,": 1621, "\u25812010-2011": 1625, "\u25812010.": 1622, "\u25812011": 1631, "\u25812011)": 1636, "\u25812011,": 1634, "\u25812011-05-1": 1637, "\u25812011-05-2": 1638, "\u25812011-07-2": 1639, "\u25812011-08-2": 1640, "\u25812011.": 1635, "\u25812012": 1646, "\u25812012)": 1652, "\u25812012,": 1650, "\u25812012-03-1": 1653, "\u25812012-04-02)": 1654, "\u25812012-04-2": 1655, "\u25812012-06-0": 1658, "\u25812012-06-2": 1659, "\u25812012-07-1": 1660, "\u25812012-10-1": 1662, "\u25812012-10-2": 1663, "\u25812012-11-2": 1665, "\u25812012-2013": 1666, "\u25812012.": 1651, "\u25812013": 1672, "\u25812013)": 1678, "\u25812013,": 1676, "\u25812013-01-2": 1679, "\u25812013-04-2": 1680, "\u25812013-06-1": 1681, "\u25812013-09-2": 1682, "\u25812013-09-21)": 1683, "\u25812013-10-0": 1684, "\u25812013-10-2": 1686, "\u25812013-11-0": 1687, "\u25812013-11-1": 1688, "\u25812013-12-0": 1689, "\u25812013-12-03)": 1691, "\u25812013-12-2": 1692, "\u25812013.": 1677, "\u25812014": 1699, "\u25812014)": 1704, "\u25812014,": 1702, "\u25812014-02-2": 1706, "\u25812014-03-1": 1707, "\u25812014-04-0": 1708, "\u25812014-04-1": 1709, "\u25812014-04-2": 1710, "\u25812014-05-0": 1711, "\u25812014-05-2": 1712, "\u25812014-07-1": 1713, "\u25812014-07-2": 1714, "\u25812014-08-0": 1715, "\u25812014-08-1": 1716, "\u25812014-10-0": 1717, "\u25812014-11-2": 1718, "\u25812014-12-0": 1720, "\u25812014-2015": 1721, "\u25812014.": 1703, "\u25812015": 1726, "\u25812015)": 1731, "\u25812015,": 1729, "\u25812015-03-2": 1733, "\u25812015-04-02)": 1734, "\u25812015-04-1": 1735, "\u25812015-04-2": 1736, "\u25812015-05-0": 1737, "\u25812015-05-1": 1738, "\u25812015-05-2": 1739, "\u25812015-06-1": 1740, "\u25812015-07-": 1741, "\u25812015-07-0": 1742, "\u25812015-09-2": 1743, "\u25812015-09-24)": 1744, "\u25812015-10-": 1745, "\u25812015-10-0": 1746, "\u25812015-11-2": 1748, "\u25812015.": 1730, "\u25812016": 1753, "\u25812016)": 1758, "\u25812016,": 1756, "\u25812016-01-2": 1759, "\u25812016-03-04)": 1761, "\u25812016-03-05).": 1763, "\u25812016-03-2": 1765, "\u25812016-04-0": 1766, "\u25812016-04-1": 1767, "\u25812016-04-2": 1768, "\u25812016-06-0": 1770, "\u25812016-08-2": 1771, "\u25812016-10-2": 1773, "\u25812016-11-2": 1774, "\u25812016-12-2": 1776, "\u25812016-2017": 1777, "\u25812016.": 1757, "\u25812017": 1782, "\u25812017)": 1789, "\u25812017,": 1786, "\u25812017-02-1": 1790, "\u25812017-03-1": 1791, "\u25812017-04-0": 1792, "\u25812017-05-1": 1794, "\u25812017-10-": 1796, "\u25812017.": 1788, "\u25812017:": 1787, "\u25812018": 1803, "\u25812018)": 1809, "\u25812018,": 1808, "\u25812018-0": 1810, "\u25812018-01-1": 1812, "\u25812018-02-1": 1814, "\u25812018-03-0": 1817, "\u25812018-03-1": 1818, "\u25812018-03-2": 1819, "\u25812018-04-0": 1821, "\u25812018-04-1": 1822, "\u25812018-05-1": 1824, "\u25812018-05-2": 1825, "\u25812018-07-2": 1828, "\u25812018-08-1": 1829, "\u25812018-09-1": 1830, "\u25812018-09-2": 1831, "\u25812018-10-1": 1832, "\u25812018-10-2": 1833, "\u25812018-11-1": 1834, "\u25812018-12-0": 1835, "\u25812019": 1840, "\u25812019,": 1842, "\u25812019-01-2": 1843, "\u25812019-03-0": 1846, "\u25812019-05-2": 1850, "\u25812019-07-2": 1853, "\u25812019-10-0": 1857, "\u25812019-11-0": 1858, "\u25812019-12": 1860, "\u2581202": 1862, "\u25812020": 1865, "\u25812020,": 1866, "\u25812020-01-2": 1868, "\u25812020-02-1": 1869, "\u25812020.": 1867, "\u25812021": 1872, "\u25812022": 1874, "\u25812025": 1876, "\u2581203": 1878, "\u25812030": 1880, "\u2581204": 1882, "\u2581205": 1884, "\u25812050": 1885, "\u2581206": 1887, "\u2581207": 1889, "\u2581207.": 1890, "\u2581208": 1892, "\u2581209": 1895, "\u258121": 1902, "\u258121,": 1907, "\u258121.": 1908, "\u2581210": 1914, "\u25812100": 1915, "\u2581211": 1920, "\u2581212": 1922, "\u2581213": 1926, "\u2581214": 1928, "\u2581215": 1930, "\u2581216": 1932, "\u2581217": 1934, "\u2581218": 1936, "\u258121:00": 1916, "\u258122": 1943, "\u258122,": 1948, "\u258122.": 1949, "\u2581220": 1955, "\u25812200": 1957, "\u2581221": 1961, "\u2581222": 1963, "\u2581225": 1968, "\u2581226": 1970, "\u2581228": 1973, "\u2581229": 1975, "\u258123": 1980, "\u258123,": 1988, "\u258123.": 1989, "\u2581230": 1996, "\u2581234": 2002, "\u2581235": 2004, "\u258123\u00b0": 1987, "\u258124": 2013, "\u258124,": 2020, "\u258124-": 2019, "\u258124.": 2021, "\u258124/7": 2037, "\u2581240": 2027, "\u2581245": 2034, "\u2581248": 2040, "\u258124\u00b0": 2018, "\u258125": 2048, "\u258125%": 2056, "\u258125,": 2054, "\u258125,000": 2069, "\u258125.": 2055, "\u2581250": 2064, "\u2581250,000": 2070, "\u2581255": 2076, "\u2581256": 2078, "\u2581257": 2080, "\u258125\u00b0": 2053, "\u258126": 2088, "\u258126,": 2094, "\u258126.": 2095, "\u2581260": 2100, "\u2581263": 2105, "\u258126\u00b0": 2093, "\u258127": 2118, "\u258127,": 2124, "\u258127.": 2125, "\u2581270": 2130, "\u2581275": 2139, "\u258127\u00b0": 2123, "\u258128": 2148, "\u258128,": 2154, "\u258128.": 2155, "\u2581280": 2161, "\u2581285": 2168, "\u2581288)}": 2172, "\u258128\u00b0": 2153, "\u258129": 2179, "\u258129,": 2184, "\u258129.": 2185, "\u2581290": 2190, "\u258129\u00b0": 2183, "\u25812:": 1447, "\u25812:00": 1489, "\u25812\u3001": 1452, "\u25813": 2209, "\u25813%": 2222, "\u25813)": 2220, "\u25813*": 2221, "\u25813+": 2223, "\u25813,000": 2261, "\u25813,500": 2392, "\u25813-": 2217, "\u25813-4": 2356, "\u25813-5": 2380, "\u25813-6": 2407, "\u25813.": 2219, "\u25813.0": 2241, "\u25813.1": 2286, "\u25813.2": 2313, "\u25813.3": 2335, "\u25813.4": 2358, "\u25813.5": 2381, "\u25813.5+": 2382, "\u25813.6": 2408, "\u25813.7": 2432, "\u25813.8": 2450, "\u25813.9": 2471, "\u25813/4": 2357, "\u258130": 2237, "\u258130%": 2246, "\u258130,": 2244, "\u258130,000": 2264, "\u258130-": 2243, "\u258130.": 2245, "\u2581300": 2254, "\u2581300,000": 2266, "\u25813000": 2260, "\u2581301": 2268, "\u2581304": 2272, "\u2581306": 2275, "\u258130\u00b0": 2242, "\u258131": 2284, "\u258131,": 2288, "\u258131.": 2289, "\u2581310": 2294, "\u2581315": 2301, "\u2581316": 2303, "\u258131\u00b0": 2287, "\u258132": 2311, "\u258132-": 2315, "\u258132.": 2316, "\u2581320": 2321, "\u258132\u00b0": 2314, "\u258133": 2333, "\u258133.": 2336, "\u2581330": 2340, "\u258134": 2354, "\u258134.": 2359, "\u258135": 2378, "\u258135%": 2384, "\u258135.": 2383, "\u2581350": 2390, "\u258136": 2406, "\u258136.": 2410, "\u2581360": 2415, "\u2581360\u00b0": 2416, "\u2581365": 2423, "\u258136\u00b0": 2409, "\u258137": 2431, "\u258137.": 2433, "\u258138": 2449, "\u258138.": 2451, "\u2581380": 2456, "\u258139": 2470, "\u258139.": 2473, "\u258139\u00b0": 2472, "\u25813:": 2218, "\u25813:00": 2256, "\u25813\u3001": 2224, "\u25814": 2497, "\u25814)": 2508, "\u25814*": 2509, "\u25814+": 2510, "\u25814,": 2505, "\u25814,000": 2541, "\u25814-": 2504, "\u25814.": 2507, "\u25814.0": 2526, "\u25814.1": 2559, "\u25814.2": 2576, "\u25814.3": 2594, "\u25814.4": 2614, "\u25814.5": 2632, "\u25814.6": 2653, "\u25814.7": 2672, "\u25814.8": 2690, "\u25814.9": 2710, "\u258140": 2524, "\u258140%": 2528, "\u258140,000": 2543, "\u258140.": 2527, "\u2581400": 2536, "\u2581400,000": 2545, "\u25814000": 2540, "\u2581401": 2548, "\u2581404": 2551, "\u258141": 2558, "\u258141.": 2560, "\u2581410": 2565, "\u258142": 2575, "\u258142.": 2577, "\u2581420": 2582, "\u258143": 2593, "\u258143.": 2595, "\u2581430": 2598, "\u258144": 2612, "\u258144.": 2615, "\u2581440": 2618, "\u258145": 2631, "\u258145.": 2634, "\u2581450": 2639, "\u258145\u00b0": 2633, "\u258146": 2651, "\u258146.": 2655, "\u258146\u00b0": 2654, "\u258147": 2671, "\u258147.": 2674, "\u258147\u00b0": 2673, "\u258148": 2689, "\u258148.": 2692, "\u2581480": 2697, "\u258148\u00b0": 2691, "\u258149": 2708, "\u258149.": 2712, "\u258149\u00b0": 2711, "\u25814:": 2506, "\u25814\u3001": 2511, "\u25815": 2734, "\u25815%": 2747, "\u25815)": 2745, "\u25815*": 2746, "\u25815,000": 2784, "\u25815-": 2742, "\u25815.": 2744, "\u25815.0": 2763, "\u25815.1": 2803, "\u25815.2": 2825, "\u25815.3": 2840, "\u25815.4": 2859, "\u25815.5": 2874, "\u25815.6": 2898, "\u258150": 2761, "\u258150%": 2766, "\u258150,000": 2787, "\u258150.": 2765, "\u2581500": 2776, "\u2581500,000": 2790, "\u25815000": 2782, "\u2581501": 2792, "\u258150\u00b0": 2764, "\u258151": 2802, "\u258151.": 2805, "\u2581510": 2810, "\u2581512": 2813, "\u258151\u00b0": 2804, "\u258152": 2823, "\u258152.": 2826, "\u258153": 2839, "\u258153.": 2841, "\u258154": 2858, "\u258154.": 2860, "\u258155": 2873, "\u258155.": 2875, "\u258155/1": 2883, "\u258155/2": 2884, "\u2581550": 2880, "\u258156": 2897, "\u258156.": 2899, "\u258156/2": 2907, "\u258157": 2920, "\u258157.": 2921, "\u258157/2": 2929, "\u258158": 2941, "\u258158/1": 2948, "\u258159": 2961, "\u258159/2": 2968, "\u25815:": 2743, "\u25815:00": 2778, "\u25815\u3001": 2748, "\u25816": 2983, "\u25816)": 2992, "\u25816,": 2989, "\u25816,000": 3021, "\u25816.": 2991, "\u25816.0": 3008, "\u25816.1": 3038, "\u25816.2": 3055, "\u25816.3": 3076, "\u25816.4": 3096, "\u25816.5": 3113, "\u25816.6": 3130, "\u258160": 3005, "\u258160%": 3009, "\u258160,000": 3023, "\u258160/1": 3026, "\u258160/2": 3027, "\u2581600": 3015, "\u25816000": 3020, "\u258161": 3037, "\u258161/": 3039, "\u258161/1": 3045, "\u258162": 3054, "\u258162/2": 3064, "\u258163": 3075, "\u258163.": 3077, "\u258163/1": 3084, "\u258164": 3095, "\u258164-": 3097, "\u258164/2": 3102, "\u258165": 3111, "\u2581650": 3118, "\u258166": 3129, "\u258166.": 3131, "\u258167": 3147, "\u258168": 3165, "\u258168.": 3166, "\u258169": 3181, "\u25816:": 2990, "\u25816:00": 3016, "\u25816\u3001": 2993, "\u25817": 3201, "\u25817,": 3208, "\u25817,000": 3231, "\u25817-5": 3305, "\u25817-80": 3357, "\u25817.": 3209, "\u25817.0": 3219, "\u25817.1": 3246, "\u25817.2": 3260, "\u25817.5": 3306, "\u258170": 3218, "\u258170%": 3220, "\u2581700": 3227, "\u2581700,000": 3234, "\u258171": 3245, "\u258171.": 3247, "\u258172": 3259, "\u2581720": 3264, "\u258173": 3275, "\u2581737": 3287, "\u258174": 3291, "\u258175": 3304, "\u258175%": 3307, "\u2581750": 3311, "\u258176": 3324, "\u258177": 3338, "\u258178": 3350, "\u258178.": 3351, "\u258179": 3368, "\u25817:00": 3228, "\u25818": 3389, "\u25818%": 3399, "\u25818,": 3397, "\u25818,000": 3422, "\u25818-": 3396, "\u25818.": 3398, "\u25818.1": 3440, "\u25818.5": 3498, "\u258180": 3410, "\u258180%": 3412, "\u258180,000": 3425, "\u2581800": 3417, "\u2581802.11": 3429, "\u258181": 3438, "\u258182": 3453, "\u2581828": 3464, "\u258183": 3468, "\u258184": 3484, "\u258185": 3497, "\u258185%": 3499, "\u2581850": 3504, "\u258186": 3522, "\u258187": 3545, "\u258188": 3559, "\u2581888": 3570, "\u258189": 3575, "\u25818:00": 3418, "\u25818:30": 3472, "\u25819": 3596, "\u25819,": 3602, "\u25819.": 3603, "\u25819/11": 3645, "\u258190": 3613, "\u258190%": 3614, "\u2581900": 3619, "\u25819001": 3627, "\u258191": 3639, "\u2581911": 3644, "\u258192": 3653, "\u258193": 3666, "\u258194": 3681, "\u258195": 3690, "\u258195%": 3691, "\u2581950": 3696, "\u258196": 3705, "\u2581963": 3713, "\u2581963-": 3714, "\u2581963-3": 3715, "\u2581963-5": 3716, "\u258197": 3723, "\u2581978": 3731, "\u2581978-": 3732, "\u2581978-0": 3733, "\u2581978-7-": 3735, "\u2581978-7-307-070": 3736, "\u2581978-7-50": 3737, "\u25819787": 3734, "\u258198": 3740, "\u258199": 3752, "\u258199%": 3753, "\u25819:00": 3620, "\u25819:30": 3670, "\u2581:": 200, "\u2581:%": 203, "\u2581:)": 202, "\u2581::": 201, "\u2581<": 181, "\u2581<!-": 183, "\u2581<<": 182, "\u2581=": 185, "\u2581==": 186, "\u2581===": 187, "\u2581>": 189, "\u2581>>": 190, "\u2581>>>": 191, "\u2581??": 204, "\u2581@": 241, "\u2581A": 3775, "\u2581AAA": 3792, "\u2581AB": 3799, "\u2581ABB": 3807, "\u2581ABC": 3816, "\u2581ABOUT": 3858, "\u2581ABS": 3866, "\u2581AC": 3898, "\u2581ACC": 3911, "\u2581ACCESS": 3933, "\u2581ACCOUNT": 3973, "\u2581ACT": 4052, "\u2581ACTIVITIES": 4079, "\u2581AD": 4103, "\u2581ADD": 4121, "\u2581ADDRESS": 4142, "\u2581ADHD": 4153, "\u2581ADOPT": 4201, "\u2581ADVANTAGE": 4230, "\u2581AFRICA": 4304, "\u2581AFTER": 4312, "\u2581AG": 4321, "\u2581AGAIN": 4326, "\u2581AGENDA": 4349, "\u2581AI": 4405, "\u2581AIDS": 4410, "\u2581AIR": 4426, "\u2581AL": 4475, "\u2581ALL": 4560, "\u2581ALWAYS": 4652, "\u2581AM": 4661, "\u2581AMD": 4688, "\u2581AMERICA": 4706, "\u2581AMP": 4736, "\u2581AN": 4748, "\u2581AND": 4798, "\u2581ANGEL": 4828, "\u2581ANNOUNCEMENT": 4887, "\u2581ANSI": 4909, "\u2581AP": 4984, "\u2581APARTMENT": 4998, "\u2581APEC": 5002, "\u2581API": 5006, "\u2581APIs": 5007, "\u2581APK": 5009, "\u2581APP": 5023, "\u2581APPLICATION": 5069, "\u2581AQI": 5128, "\u2581AR": 5140, "\u2581ARC": 5160, "\u2581ARE": 5198, "\u2581ARM": 5243, "\u2581ART": 5307, "\u2581ARTICLE": 5317, "\u2581AS": 5343, "\u2581ASA": 5345, "\u2581ASCII": 5351, "\u2581ASEAN": 5354, "\u2581ASIA": 5367, "\u2581ASP": 5382, "\u2581ASSEMBLY": 5409, "\u2581ASTM": 5467, "\u2581AT": 5492, "\u2581ATM": 5530, "\u2581ATP": 5545, "\u2581AU": 5604, "\u2581AUD": 5610, "\u2581AUTO": 5678, "\u2581AUTOMATI": 5684, "\u2581AV": 5712, "\u2581AWARDS": 5765, "\u2581AWS": 5778, "\u2581Aah": 3793, "\u2581Aaron": 3794, "\u2581Ab": 3797, "\u2581Aba": 3801, "\u2581Ababa": 3802, "\u2581Abandon": 3805, "\u2581Abbas": 3808, "\u2581Abbey": 3809, "\u2581Abbot": 3810, "\u2581Abbreviations": 3813, "\u2581Abby": 3814, "\u2581Abd": 3818, "\u2581Abdel": 3819, "\u2581Abdul": 3825, "\u2581Abdullah": 3826, "\u2581Abe": 3827, "\u2581Aberdeen": 3828, "\u2581Abi": 3830, "\u2581Abigail": 3832, "\u2581Ability": 3836, "\u2581Abolition": 3848, "\u2581Aboriginal": 3849, "\u2581Abortion": 3852, "\u2581About": 3856, "\u2581Above": 3860, "\u2581Abraham": 3861, "\u2581Abram": 3862, "\u2581Abroad": 3864, "\u2581Absence": 3868, "\u2581Absolute": 3873, "\u2581Absolutely": 3875, "\u2581Absorb": 3877, "\u2581Absorption": 3880, "\u2581Abstaining": 3882, "\u2581Abstract": 3885, "\u2581Abu": 3888, "\u2581Abuse": 3892, "\u2581Abyss": 3894, "\u2581Ac": 3896, "\u2581Academia": 3901, "\u2581Academic": 3904, "\u2581Academy": 3906, "\u2581Acapulco": 3907, "\u2581Acc": 3909, "\u2581Accelerate": 3914, "\u2581Accelerator": 3919, "\u2581Accept": 3922, "\u2581Acceptance": 3925, "\u2581Access": 3932, "\u2581Accessibility": 3936, "\u2581Accession": 3939, "\u2581Accessories": 3942, "\u2581Accessory": 3943, "\u2581Accident": 3945, "\u2581Accommodation": 3953, "\u2581Accord": 3962, "\u2581According": 3966, "\u2581Accordingly": 3968, "\u2581Account": 3972, "\u2581Accountability": 3975, "\u2581Accountants": 3979, "\u2581Accounting": 3981, "\u2581Accounts": 3983, "\u2581Accra": 3984, "\u2581Accreditation": 3986, "\u2581Accumu": 3989, "\u2581Accuracy": 3994, "\u2581Accurate": 3996, "\u2581Ace": 4003, "\u2581Achieve": 4012, "\u2581Achievement": 4015, "\u2581Achilles": 4018, "\u2581Acid": 4020, "\u2581Acoustic": 4030, "\u2581Acquire": 4033, "\u2581Acquisition": 4038, "\u2581Acrobat": 4041, "\u2581Across": 4044, "\u2581Acrylic": 4046, "\u2581Act": 4050, "\u2581Acting": 4056, "\u2581Action": 4059, "\u2581Actions": 4061, "\u2581Activate": 4063, "\u2581Activation": 4067, "\u2581Active": 4071, "\u2581Activis": 4074, "\u2581Activities": 4078, "\u2581Activity": 4082, "\u2581Actor": 4084, "\u2581Actress": 4087, "\u2581Actual": 4090, "\u2581Actually": 4093, "\u2581Actuator": 4095, "\u2581Acute": 4098, "\u2581Ad": 4101, "\u2581Ada": 4105, "\u2581Adam": 4108, "\u2581Adams": 4109, "\u2581Adapt": 4111, "\u2581Adaptation": 4113, "\u2581Adapter": 4116, "\u2581Add": 4120, "\u2581Added": 4124, "\u2581Addendum": 4125, "\u2581Addiction": 4129, "\u2581Addison": 4131, "\u2581Additional": 4134, "\u2581Additionally": 4135, "\u2581Additive": 4137, "\u2581Address": 4141, "\u2581Adelaide": 4148, "\u2581Adele": 4149, "\u2581Adequate": 4151, "\u2581Adhesive": 4157, "\u2581Adidas": 4159, "\u2581Adjust": 4166, "\u2581Adjustable": 4168, "\u2581Adjustment": 4171, "\u2581Admin": 4176, "\u2581Administration": 4179, "\u2581Administrative": 4181, "\u2581Administrator": 4183, "\u2581Admiral": 4184, "\u2581Admission": 4190, "\u2581Adobe": 4195, "\u2581Adolescent": 4196, "\u2581Adolf": 4198, "\u2581Adopt": 4200, "\u2581Adopted": 4204, "\u2581Adoption": 4207, "\u2581Adrian": 4211, "\u2581Adult": 4215, "\u2581Adults": 4217, "\u2581Adv": 4218, "\u2581Advance": 4220, "\u2581Advanced": 4223, "\u2581Advancement": 4225, "\u2581Advantage": 4229, "\u2581Advantages": 4232, "\u2581Adventure": 4234, "\u2581Advertise": 4237, "\u2581Advertisement": 4239, "\u2581Advertising": 4242, "\u2581Advice": 4244, "\u2581Adviser": 4248, "\u2581Advisor": 4252, "\u2581Advisory": 4254, "\u2581Advocacy": 4256, "\u2581Advocate": 4258, "\u2581Aegean": 4263, "\u2581Aerial": 4264, "\u2581Aero": 4266, "\u2581Aeronautic": 4268, "\u2581Aerospace": 4270, "\u2581Affair": 4276, "\u2581Affairs": 4279, "\u2581Affect": 4281, "\u2581Affiliate": 4288, "\u2581Affirm": 4292, "\u2581Affordabl": 4295, "\u2581Afghan": 4297, "\u2581Afghanistan": 4298, "\u2581Afraid": 4301, "\u2581Africa": 4303, "\u2581African": 4306, "\u2581Afro": 4307, "\u2581After": 4311, "\u2581Afternoon": 4315, "\u2581Ag": 4319, "\u2581Again": 4325, "\u2581Against": 4328, "\u2581Age": 4332, "\u2581Aged": 4336, "\u2581Ageing": 4338, "\u2581Agencies": 4340, "\u2581Agency": 4344, "\u2581Agenda": 4348, "\u2581Agent": 4352, "\u2581Ages": 4355, "\u2581Agile": 4366, "\u2581Agnes": 4371, "\u2581Agree": 4376, "\u2581Agreement": 4381, "\u2581Agri": 4384, "\u2581Agricultural": 4386, "\u2581Agriculture": 4388, "\u2581Agro": 4390, "\u2581Agu": 4391, "\u2581Ah": 4395, "\u2581Ahh": 4399, "\u2581Ahmad": 4400, "\u2581Ahmed": 4401, "\u2581Ai": 4403, "\u2581Aid": 4408, "\u2581Aim": 4414, "\u2581Ain": 4420, "\u2581Air": 4424, "\u2581Airbnb": 4428, "\u2581Airborne": 4430, "\u2581Airbus": 4431, "\u2581Aircraft": 4434, "\u2581Aires": 4437, "\u2581Airline": 4439, "\u2581Airlines": 4441, "\u2581Airplane": 4443, "\u2581Airport": 4445, "\u2581Airways": 4448, "\u2581Ajax": 4450, "\u2581Ak": 4453, "\u2581Aka": 4456, "\u2581Akamai": 4458, "\u2581Aki": 4465, "\u2581Al": 4473, "\u2581Ala": 4477, "\u2581Alabama": 4478, "\u2581Alan": 4480, "\u2581Alanya": 4481, "\u2581Alarm": 4483, "\u2581Alaska": 4484, "\u2581Alba": 4485, "\u2581Albania": 4486, "\u2581Albanian": 4487, "\u2581Albany": 4488, "\u2581Albert": 4491, "\u2581Alberta": 4492, "\u2581Alberto": 4493, "\u2581Albufeira": 4494, "\u2581Album": 4497, "\u2581Albuquerque": 4498, "\u2581Alcatraz": 4499, "\u2581Alcohol": 4501, "\u2581Aleppo": 4506, "\u2581Alert": 4508, "\u2581Alex": 4510, "\u2581Alexa": 4512, "\u2581Alexander": 4514, "\u2581Alexandr": 4515, "\u2581Alexandra": 4516, "\u2581Alexandria": 4517, "\u2581Alexis": 4518, "\u2581Alfa": 4519, "\u2581Alfonso": 4520, "\u2581Alfred": 4521, "\u2581Algarve": 4523, "\u2581Algeria": 4525, "\u2581Algerian": 4526, "\u2581Algiers": 4527, "\u2581Algorithm": 4529, "\u2581Ali": 4532, "\u2581Alibaba": 4536, "\u2581Alicante": 4537, "\u2581Alice": 4539, "\u2581Alicia": 4540, "\u2581Alien": 4542, "\u2581Alison": 4549, "\u2581All": 4558, "\u2581Allah": 4562, "\u2581Alleged": 4565, "\u2581Allen": 4567, "\u2581Alliance": 4574, "\u2581Allied": 4575, "\u2581Allison": 4577, "\u2581Allocation": 4581, "\u2581Allow": 4584, "\u2581Allowance": 4586, "\u2581Alloy": 4591, "\u2581Alma": 4593, "\u2581Almighty": 4594, "\u2581Almost": 4596, "\u2581Alone": 4600, "\u2581Along": 4602, "\u2581Alpha": 4606, "\u2581Alphabet": 4608, "\u2581Alpine": 4610, "\u2581Alps": 4611, "\u2581Already": 4613, "\u2581Alright": 4615, "\u2581Also": 4619, "\u2581Alt": 4621, "\u2581Altai": 4622, "\u2581Alter": 4625, "\u2581Alternate": 4629, "\u2581Alternative": 4631, "\u2581Alternatively": 4632, "\u2581Although": 4636, "\u2581Alto": 4639, "\u2581Altogether": 4641, "\u2581Aluminium": 4643, "\u2581Aluminum": 4646, "\u2581Alumni": 4648, "\u2581Always": 4651, "\u2581Alzheimer": 4655, "\u2581Am": 4659, "\u2581Amanda": 4664, "\u2581Amar": 4666, "\u2581Amateur": 4668, "\u2581Amazing": 4671, "\u2581Amazon": 4673, "\u2581Ambassador": 4676, "\u2581Amber": 4677, "\u2581Ambient": 4680, "\u2581Ambulance": 4685, "\u2581Amelia": 4691, "\u2581Amen": 4692, "\u2581Amend": 4694, "\u2581Amendment": 4698, "\u2581Amenities": 4701, "\u2581Ameri": 4702, "\u2581America": 4705, "\u2581American": 4708, "\u2581Americans": 4709, "\u2581Americas": 4710, "\u2581Amir": 4718, "\u2581Amman": 4720, "\u2581Ammonium": 4723, "\u2581Amnesty": 4726, "\u2581Among": 4729, "\u2581Amor": 4730, "\u2581Amount": 4732, "\u2581Amplifier": 4738, "\u2581Amsterdam": 4739, "\u2581Amusement": 4741, "\u2581Amy": 4742, "\u2581An": 4746, "\u2581Ana": 4752, "\u2581Anaheim": 4754, "\u2581Anal": 4755, "\u2581Analog": 4757, "\u2581Analyse": 4760, "\u2581Analysis": 4763, "\u2581Analyst": 4765, "\u2581Analytics": 4769, "\u2581Analyze": 4771, "\u2581Analyzer": 4774, "\u2581Anastasia": 4777, "\u2581Anatomy": 4779, "\u2581Anchor": 4786, "\u2581Ancient": 4788, "\u2581And": 4796, "\u2581Andalusia": 4800, "\u2581Andersen": 4804, "\u2581Anderson": 4805, "\u2581Andorra": 4807, "\u2581Andrea": 4810, "\u2581Andrew": 4812, "\u2581Android": 4814, "\u2581Andr\u00e9": 4809, "\u2581Andy": 4816, "\u2581Ang": 4820, "\u2581Angel": 4827, "\u2581Angela": 4829, "\u2581Angeles": 4830, "\u2581Angels": 4832, "\u2581Anger": 4835, "\u2581Angie": 4836, "\u2581Angkor": 4837, "\u2581Angle": 4840, "\u2581Anglican": 4841, "\u2581Anglo": 4842, "\u2581Angola": 4843, "\u2581Angry": 4845, "\u2581Anguilla": 4846, "\u2581Angular": 4847, "\u2581Anhui": 4849, "\u2581Animal": 4854, "\u2581Animals": 4856, "\u2581Animation": 4860, "\u2581Anime": 4861, "\u2581Ankara": 4863, "\u2581Ann": 4866, "\u2581Anna": 4869, "\u2581Annan": 4870, "\u2581Anne": 4873, "\u2581Annex": 4875, "\u2581Annexes": 4876, "\u2581Annie": 4877, "\u2581Anniversary": 4879, "\u2581Annotate": 4880, "\u2581Annotations": 4882, "\u2581Announcement": 4886, "\u2581Announcements": 4888, "\u2581Announces": 4890, "\u2581Annual": 4898, "\u2581Anonymous": 4902, "\u2581Another": 4906, "\u2581Answer": 4911, "\u2581Ant": 4916, "\u2581Antalya": 4919, "\u2581Antarctic": 4920, "\u2581Antarctica": 4921, "\u2581Antenna": 4924, "\u2581Anthem": 4926, "\u2581Anthony": 4928, "\u2581Anthropology": 4929, "\u2581Anti": 4933, "\u2581Antigua": 4941, "\u2581Antilles": 4942, "\u2581Antioxidant": 4944, "\u2581Antique": 4946, "\u2581Antiquities": 4948, "\u2581Antivirus": 4950, "\u2581Antoine": 4951, "\u2581Anton": 4952, "\u2581Antonio": 4954, "\u2581Antwerp": 4956, "\u2581Anxiety": 4958, "\u2581Any": 4963, "\u2581Anybody": 4965, "\u2581Anyone": 4968, "\u2581Anything": 4970, "\u2581Anyway": 4973, "\u2581Anywhere": 4975, "\u2581Aoshima": 4980, "\u2581Ap": 4982, "\u2581Apache": 4987, "\u2581Apart": 4989, "\u2581Apartamento": 4990, "\u2581Aparthotel": 4992, "\u2581Aparthotels": 4993, "\u2581Apartment": 4997, "\u2581Apartments": 5001, "\u2581Apex": 5003, "\u2581Apk": 5008, "\u2581Apollo": 5010, "\u2581Apostle": 5017, "\u2581App": 5021, "\u2581Apparel": 5026, "\u2581Apparently": 5029, "\u2581Appart": 5030, "\u2581Appeal": 5032, "\u2581Appeals": 5034, "\u2581Appear": 5036, "\u2581Appearance": 5038, "\u2581Appendix": 5045, "\u2581Apple": 5053, "\u2581Appliance": 5056, "\u2581Appliances": 5058, "\u2581Applicant": 5063, "\u2581Application": 5068, "\u2581Applications": 5071, "\u2581Applied": 5073, "\u2581Apply": 5076, "\u2581Appointed": 5081, "\u2581Appointment": 5083, "\u2581Apportionment": 5086, "\u2581Apprentice": 5092, "\u2581Approach": 5094, "\u2581Appropriate": 5100, "\u2581Appropriation": 5103, "\u2581Approval": 5106, "\u2581Approve": 5108, "\u2581Approved": 5111, "\u2581Approx": 5115, "\u2581Approximately": 5119, "\u2581Apps": 5121, "\u2581Apr": 5122, "\u2581April": 5124, "\u2581Apt": 5126, "\u2581Aqua": 5130, "\u2581Aquarium": 5132, "\u2581Aquatic": 5134, "\u2581Ar": 5138, "\u2581Ara": 5142, "\u2581Arab": 5144, "\u2581Arabia": 5145, "\u2581Arabian": 5146, "\u2581Arabic": 5148, "\u2581Aragon": 5150, "\u2581Arbitr": 5151, "\u2581Arbitration": 5155, "\u2581Arc": 5158, "\u2581ArcBlock": 5162, "\u2581Arcade": 5161, "\u2581Arch": 5166, "\u2581Archaeology": 5169, "\u2581Archbishop": 5170, "\u2581Archer": 5171, "\u2581Archipelago": 5172, "\u2581Architect": 5174, "\u2581Architects": 5175, "\u2581Architectural": 5177, "\u2581Architecture": 5179, "\u2581Archive": 5181, "\u2581Archived": 5183, "\u2581Archives": 5185, "\u2581Archiving": 5187, "\u2581Arctic": 5188, "\u2581Arduino": 5192, "\u2581Are": 5196, "\u2581Area": 5201, "\u2581Areas": 5203, "\u2581Aren": 5205, "\u2581Arena": 5206, "\u2581Arg": 5207, "\u2581Argentina": 5209, "\u2581Argentine": 5210, "\u2581Argument": 5216, "\u2581Ari": 5219, "\u2581Aria": 5221, "\u2581Aristo": 5229, "\u2581Aristotle": 5231, "\u2581Arizona": 5234, "\u2581Ark": 5235, "\u2581Arkansas": 5236, "\u2581Arlington": 5237, "\u2581Arm": 5241, "\u2581Armament": 5244, "\u2581Armani": 5246, "\u2581Armed": 5248, "\u2581Armenia": 5249, "\u2581Armenian": 5250, "\u2581Armor": 5253, "\u2581Armour": 5255, "\u2581Arms": 5257, "\u2581Armstrong": 5258, "\u2581Army": 5260, "\u2581Arn": 5261, "\u2581Arnold": 5262, "\u2581Arohan": 5264, "\u2581Aroma": 5266, "\u2581Around": 5270, "\u2581Arrange": 5274, "\u2581Arrangements": 5278, "\u2581Array": 5280, "\u2581Arrest": 5283, "\u2581Arrival": 5287, "\u2581Arrive": 5289, "\u2581Arrow": 5297, "\u2581Arsenal": 5300, "\u2581Art": 5305, "\u2581Artemis": 5308, "\u2581Arthur": 5312, "\u2581Article": 5316, "\u2581Articles": 5319, "\u2581Artificial": 5322, "\u2581Artillery": 5324, "\u2581Artist": 5326, "\u2581Artistic": 5328, "\u2581Artists": 5330, "\u2581Arts": 5332, "\u2581Artwork": 5334, "\u2581Aruba": 5335, "\u2581As": 5341, "\u2581Ascend": 5348, "\u2581Ascension": 5349, "\u2581Ascott": 5352, "\u2581Ash": 5358, "\u2581Ashley": 5361, "\u2581Asia": 5366, "\u2581Asian": 5369, "\u2581Ask": 5374, "\u2581Asked": 5376, "\u2581Asphalt": 5386, "\u2581Assassin": 5396, "\u2581Assault": 5400, "\u2581Assembly": 5408, "\u2581Assess": 5413, "\u2581Assessment": 5418, "\u2581Asset": 5421, "\u2581Assets": 5423, "\u2581Asshole": 5425, "\u2581Assignment": 5430, "\u2581Assist": 5432, "\u2581Assistance": 5434, "\u2581Assistant": 5436, "\u2581Associate": 5441, "\u2581Associates": 5443, "\u2581Association": 5445, "\u2581Assurance": 5454, "\u2581Assyria": 5457, "\u2581Astana": 5460, "\u2581Asteroid": 5464, "\u2581Aston": 5468, "\u2581Astoria": 5471, "\u2581Astra": 5472, "\u2581Astro": 5474, "\u2581Astronaut": 5476, "\u2581Astronomer": 5479, "\u2581Astronomical": 5481, "\u2581Astronomy": 5483, "\u2581Asylum": 5486, "\u2581At": 5490, "\u2581Athena": 5506, "\u2581Athens": 5507, "\u2581Athlete": 5510, "\u2581Athletic": 5513, "\u2581Atlanta": 5525, "\u2581Atlantic": 5526, "\u2581Atlantis": 5527, "\u2581Atlas": 5528, "\u2581Atmosphere": 5532, "\u2581Atom": 5536, "\u2581Atomic": 5539, "\u2581Attach": 5550, "\u2581Attachment": 5554, "\u2581Attack": 5557, "\u2581Attempt": 5564, "\u2581Attend": 5569, "\u2581Attendance": 5571, "\u2581Attention": 5577, "\u2581Attitude": 5580, "\u2581Attorney": 5582, "\u2581Attract": 5584, "\u2581Attractions": 5589, "\u2581Au": 5602, "\u2581Auckland": 5605, "\u2581Auction": 5607, "\u2581Audi": 5613, "\u2581Audience": 5615, "\u2581Audio": 5617, "\u2581Audit": 5619, "\u2581Auditing": 5622, "\u2581Auditor": 5625, "\u2581Auditorium": 5627, "\u2581Auditors": 5628, "\u2581Audrey": 5629, "\u2581Aug": 5630, "\u2581Augsburg": 5632, "\u2581August": 5634, "\u2581Augustine": 5635, "\u2581Aunt": 5639, "\u2581Auntie": 5640, "\u2581Aurora": 5641, "\u2581Auschwitz": 5642, "\u2581Austen": 5644, "\u2581Austin": 5645, "\u2581Australasia": 5646, "\u2581Australia": 5648, "\u2581Australian": 5649, "\u2581Austria": 5651, "\u2581Austrian": 5652, "\u2581Austro": 5653, "\u2581Authentic": 5656, "\u2581Authentication": 5658, "\u2581Author": 5662, "\u2581Authorities": 5665, "\u2581Authority": 5667, "\u2581Authorization": 5669, "\u2581Authorized": 5672, "\u2581Auto": 5677, "\u2581Autodesk": 5680, "\u2581Automated": 5683, "\u2581Automatic": 5688, "\u2581Automatically": 5690, "\u2581Automation": 5692, "\u2581Automobile": 5694, "\u2581Automotive": 5696, "\u2581Autonomous": 5699, "\u2581Autonomy": 5701, "\u2581Autumn": 5705, "\u2581Auxiliary": 5708, "\u2581Av": 5710, "\u2581Ava": 5714, "\u2581Availability": 5717, "\u2581Available": 5720, "\u2581Avalon": 5721, "\u2581Avanade": 5723, "\u2581Ave": 5725, "\u2581Avengers": 5727, "\u2581Avenida": 5728, "\u2581Avenue": 5730, "\u2581Average": 5735, "\u2581Avi": 5737, "\u2581Aviation": 5741, "\u2581Aviv": 5743, "\u2581Avoid": 5745, "\u2581Aw": 5750, "\u2581Awakening": 5758, "\u2581Award": 5760, "\u2581Awarded": 5762, "\u2581Awards": 5764, "\u2581Awareness": 5768, "\u2581Away": 5771, "\u2581Awesome": 5773, "\u2581Axel": 5781, "\u2581Axis": 5786, "\u2581Ay": 5789, "\u2581Aye": 5792, "\u2581Az": 5794, "\u2581Azerbaijan": 5799, "\u2581Azerbaijani": 5800, "\u2581Aziz": 5803, "\u2581Azure": 5806, "\u2581B": 5812, "\u2581BA": 5818, "\u2581BACK": 5842, "\u2581BAG": 5873, "\u2581BAN": 5941, "\u2581BAR": 5987, "\u2581BASF": 6040, "\u2581BBC": 6105, "\u2581BBQ": 6108, "\u2581BC": 6110, "\u2581BD": 6112, "\u2581BDSM": 6114, "\u2581BE": 6120, "\u2581BEACH": 6123, "\u2581BEIJING": 6219, "\u2581BEN": 6272, "\u2581BEST": 6331, "\u2581BI": 6367, "\u2581BIG": 6395, "\u2581BIO": 6439, "\u2581BIOS": 6452, "\u2581BL": 6499, "\u2581BLUE": 6596, "\u2581BMW": 6605, "\u2581BO": 6613, "\u2581BOARD": 6618, "\u2581BODY": 6636, "\u2581BOOK": 6690, "\u2581BOX": 6802, "\u2581BP": 6816, "\u2581BR": 6823, "\u2581BRAND": 6854, "\u2581BREAKFAST": 6885, "\u2581BRL": 6966, "\u2581BS": 7044, "\u2581BSD": 7047, "\u2581BT": 7049, "\u2581BTC": 7051, "\u2581BU": 7056, "\u2581BUDGET": 7081, "\u2581BUSINESS": 7188, "\u2581BUT": 7200, "\u2581BUY": 7214, "\u2581BY": 7228, "\u2581Ba": 5816, "\u2581Baan": 5819, "\u2581Bab": 5821, "\u2581Baba": 5822, "\u2581Babe": 5824, "\u2581Babies": 5826, "\u2581Baby": 5830, "\u2581Babylon": 5831, "\u2581Bac": 5832, "\u2581Baccalau": 5833, "\u2581Bach": 5835, "\u2581Bachelor": 5837, "\u2581Back": 5841, "\u2581Background": 5846, "\u2581Backpack": 5848, "\u2581Backpackers": 5849, "\u2581Backup": 5851, "\u2581Bacon": 5856, "\u2581Bad": 5861, "\u2581Baden": 5862, "\u2581Badge": 5864, "\u2581Badminton": 5867, "\u2581Bae": 5868, "\u2581Baek": 5869, "\u2581Bag": 5872, "\u2581Baggage": 5875, "\u2581Baghdad": 5876, "\u2581Bah": 5879, "\u2581Baha": 5880, "\u2581Bahamas": 5881, "\u2581Bahia": 5882, "\u2581Bahrain": 5885, "\u2581Bai": 5887, "\u2581Baidu": 5888, "\u2581Bailey": 5890, "\u2581Bain": 5891, "\u2581Baja": 5894, "\u2581Bak": 5896, "\u2581Baker": 5899, "\u2581Bakery": 5901, "\u2581Bal": 5904, "\u2581Bala": 5905, "\u2581Balanc": 5906, "\u2581Balance": 5909, "\u2581Balcony": 5914, "\u2581Bald": 5916, "\u2581Baldwin": 5917, "\u2581Bale": 5918, "\u2581Bali": 5919, "\u2581Balkan": 5920, "\u2581Ball": 5923, "\u2581Ballet": 5925, "\u2581Balloon": 5928, "\u2581Ballroom": 5930, "\u2581Baltic": 5932, "\u2581Baltimore": 5933, "\u2581Bam": 5934, "\u2581Bamboo": 5936, "\u2581Ban": 5940, "\u2581Banana": 5943, "\u2581Band": 5946, "\u2581Bandit": 5948, "\u2581Bang": 5953, "\u2581Bangalore": 5954, "\u2581Bangkok": 5955, "\u2581Bangladesh": 5957, "\u2581Bank": 5961, "\u2581Banking": 5964, "\u2581Banks": 5969, "\u2581Banner": 5972, "\u2581Banquet": 5974, "\u2581Bao": 5977, "\u2581Baoan": 5978, "\u2581Baptist": 5980, "\u2581Bar": 5985, "\u2581Barba": 5989, "\u2581Barbados": 5990, "\u2581Barbara": 5991, "\u2581Barber": 5995, "\u2581Barbie": 5996, "\u2581Barbuda": 5997, "\u2581Barcelona": 5999, "\u2581Barclay": 6000, "\u2581Bareback": 6002, "\u2581Barn": 6005, "\u2581Barnes": 6006, "\u2581Barney": 6007, "\u2581Baron": 6008, "\u2581Barr": 6009, "\u2581Barra": 6010, "\u2581Barrel": 6014, "\u2581Barrett": 6015, "\u2581Barrier": 6017, "\u2581Barry": 6019, "\u2581Bart": 6021, "\u2581Bas": 6024, "\u2581Base": 6028, "\u2581Baseball": 6031, "\u2581Based": 6035, "\u2581Basel": 6036, "\u2581Bash": 6041, "\u2581Basic": 6045, "\u2581Basically": 6047, "\u2581Basil": 6048, "\u2581Basilica": 6049, "\u2581Basin": 6051, "\u2581Basis": 6053, "\u2581Basket": 6055, "\u2581Basketball": 6057, "\u2581Basque": 6058, "\u2581Bass": 6060, "\u2581Bastard": 6062, "\u2581Bat": 6065, "\u2581Batch": 6068, "\u2581Bath": 6071, "\u2581Bathroom": 6074, "\u2581Bathrooms": 6076, "\u2581Batman": 6078, "\u2581Batt": 6079, "\u2581Battalion": 6081, "\u2581Batteries": 6083, "\u2581Battery": 6085, "\u2581Battle": 6088, "\u2581Bau": 6092, "\u2581Bauer": 6093, "\u2581Bavaria": 6095, "\u2581Baxter": 6096, "\u2581Bay": 6099, "\u2581Bazaar": 6100, "\u2581Be": 6118, "\u2581Beach": 6122, "\u2581Beacon": 6126, "\u2581Beam": 6129, "\u2581Bean": 6132, "\u2581Bear": 6136, "\u2581Bearing": 6138, "\u2581Beast": 6141, "\u2581Beat": 6144, "\u2581Beatles": 6147, "\u2581Beau": 6148, "\u2581Beautiful": 6151, "\u2581Beauty": 6153, "\u2581Because": 6158, "\u2581Beck": 6160, "\u2581Becky": 6161, "\u2581Become": 6163, "\u2581Becoming": 6166, "\u2581Bed": 6169, "\u2581Bedroom": 6173, "\u2581Bee": 6178, "\u2581Beef": 6180, "\u2581Been": 6182, "\u2581Beer": 6184, "\u2581Beethoven": 6185, "\u2581Before": 6189, "\u2581Beg": 6191, "\u2581Begin": 6197, "\u2581Beginning": 6199, "\u2581Behavior": 6205, "\u2581Behaviour": 6207, "\u2581Behind": 6209, "\u2581Behold": 6211, "\u2581Bei": 6214, "\u2581Beijing": 6218, "\u2581Being": 6222, "\u2581Beirut": 6224, "\u2581Bel": 6228, "\u2581Belarus": 6229, "\u2581Belarusian": 6230, "\u2581Belfast": 6231, "\u2581Belgian": 6232, "\u2581Belgium": 6234, "\u2581Belgrade": 6235, "\u2581Belief": 6238, "\u2581Believe": 6242, "\u2581Belize": 6248, "\u2581Bell": 6251, "\u2581Bella": 6252, "\u2581Belle": 6253, "\u2581Bellevue": 6254, "\u2581Belo": 6257, "\u2581Beloved": 6263, "\u2581Below": 6265, "\u2581Belt": 6267, "\u2581Ben": 6271, "\u2581Bench": 6274, "\u2581Benchmark": 6276, "\u2581Bend": 6278, "\u2581Bene": 6279, "\u2581Benedict": 6281, "\u2581Benefit": 6286, "\u2581Benefits": 6289, "\u2581Bengal": 6290, "\u2581Benidorm": 6291, "\u2581Benin": 6292, "\u2581Benjamin": 6293, "\u2581Benji": 6294, "\u2581Bennett": 6295, "\u2581Benny": 6296, "\u2581Bentley": 6297, "\u2581Ber": 6302, "\u2581Berg": 6305, "\u2581Berger": 6306, "\u2581Berkeley": 6307, "\u2581Berlin": 6310, "\u2581Bermuda": 6311, "\u2581Bern": 6313, "\u2581Bernard": 6314, "\u2581Bernie": 6315, "\u2581Bernstein": 6316, "\u2581Berry": 6319, "\u2581Bert": 6321, "\u2581Besides": 6326, "\u2581Best": 6330, "\u2581Bet": 6334, "\u2581Beta": 6337, "\u2581Beth": 6338, "\u2581Bethlehem": 6339, "\u2581Better": 6344, "\u2581Betting": 6346, "\u2581Betty": 6347, "\u2581Between": 6350, "\u2581Beverage": 6352, "\u2581Beverly": 6353, "\u2581Beware": 6354, "\u2581Beyond": 6357, "\u2581Bezos": 6358, "\u2581Bha": 6359, "\u2581Bhd": 6360, "\u2581Bhutan": 6361, "\u2581Bi": 6365, "\u2581Bible": 6372, "\u2581Biblical": 6374, "\u2581Bibliography": 6375, "\u2581Bicycle": 6377, "\u2581Bid": 6380, "\u2581Biden": 6383, "\u2581Bieber": 6386, "\u2581Biennale": 6387, "\u2581Biennial": 6389, "\u2581Big": 6394, "\u2581Bigger": 6397, "\u2581Bike": 6400, "\u2581Bikini": 6402, "\u2581Bil": 6404, "\u2581Bilateral": 6406, "\u2581Bilbao": 6407, "\u2581Bilingual": 6410, "\u2581Bill": 6415, "\u2581Billboard": 6417, "\u2581Billiard": 6418, "\u2581Billion": 6422, "\u2581Billy": 6425, "\u2581Bin": 6428, "\u2581Binary": 6430, "\u2581Bing": 6434, "\u2581Bio": 6438, "\u2581Biodiversity": 6441, "\u2581Biography": 6444, "\u2581Biological": 6446, "\u2581Biology": 6449, "\u2581Biomedical": 6451, "\u2581Biotech": 6453, "\u2581Biotechnology": 6455, "\u2581Bir": 6456, "\u2581Birch": 6457, "\u2581Bird": 6460, "\u2581Birds": 6462, "\u2581Birla": 6463, "\u2581Birmingham": 6464, "\u2581Birth": 6466, "\u2581Birthday": 6468, "\u2581Bis": 6472, "\u2581Bisexual": 6473, "\u2581Bishop": 6475, "\u2581Bismarck": 6476, "\u2581Bistro": 6478, "\u2581Bit": 6482, "\u2581Bitch": 6484, "\u2581Bitcoin": 6488, "\u2581Bite": 6490, "\u2581Bla": 6501, "\u2581Black": 6505, "\u2581BlackBerry": 6506, "\u2581Blackpool": 6508, "\u2581Blade": 6511, "\u2581Blair": 6513, "\u2581Blake": 6514, "\u2581Blanc": 6520, "\u2581Blanca": 6521, "\u2581Blanche": 6522, "\u2581Blank": 6525, "\u2581Blast": 6528, "\u2581Bldg": 6529, "\u2581Blend": 6535, "\u2581Bless": 6537, "\u2581Blessed": 6539, "\u2581Blind": 6545, "\u2581Blo": 6551, "\u2581Block": 6556, "\u2581Blockchain": 6559, "\u2581Blog": 6566, "\u2581Blogger": 6568, "\u2581Blonde": 6572, "\u2581Blood": 6576, "\u2581Bloody": 6578, "\u2581Bloom": 6580, "\u2581Bloomberg": 6581, "\u2581Blossom": 6583, "\u2581Blow": 6585, "\u2581Blowjob": 6588, "\u2581Blu": 6591, "\u2581Blue": 6595, "\u2581Bluetooth": 6598, "\u2581Blvd": 6602, "\u2581Bo": 6611, "\u2581Board": 6617, "\u2581Boat": 6624, "\u2581Bob": 6627, "\u2581Bobby": 6628, "\u2581Bodies": 6630, "\u2581Bodrum": 6631, "\u2581Body": 6635, "\u2581Boeing": 6638, "\u2581Bog": 6639, "\u2581Bogota": 6640, "\u2581Bohemia": 6641, "\u2581Bol": 6648, "\u2581Bolivia": 6651, "\u2581Bologna": 6652, "\u2581Bolshevik": 6653, "\u2581Bolt": 6655, "\u2581Bolton": 6656, "\u2581Bomb": 6658, "\u2581Bombay": 6659, "\u2581Bon": 6665, "\u2581Bond": 6668, "\u2581Bone": 6672, "\u2581Bong": 6675, "\u2581Bonn": 6676, "\u2581Bonnie": 6677, "\u2581Bonus": 6679, "\u2581Boo": 6684, "\u2581Book": 6689, "\u2581Booking": 6693, "\u2581BookingSuite": 6694, "\u2581Bookmark": 6696, "\u2581Books": 6698, "\u2581Bookshop": 6699, "\u2581Boom": 6702, "\u2581Boost": 6704, "\u2581Boot": 6707, "\u2581Booth": 6709, "\u2581Boots": 6711, "\u2581Bor": 6714, "\u2581Bordeaux": 6716, "\u2581Border": 6719, "\u2581Borg": 6724, "\u2581Boris": 6726, "\u2581Born": 6729, "\u2581Borneo": 6732, "\u2581Borrow": 6736, "\u2581Bosch": 6739, "\u2581Bose": 6740, "\u2581Bosnia": 6741, "\u2581Boss": 6743, "\u2581Boston": 6745, "\u2581Bot": 6749, "\u2581Botanic": 6750, "\u2581Botanical": 6751, "\u2581Both": 6755, "\u2581Botswana": 6757, "\u2581Bottle": 6759, "\u2581Bottom": 6764, "\u2581Bou": 6766, "\u2581Bought": 6768, "\u2581Boulevard": 6769, "\u2581Boundaries": 6774, "\u2581Boundary": 6777, "\u2581Bounty": 6779, "\u2581Bour": 6782, "\u2581Bourbon": 6783, "\u2581Bournemouth": 6787, "\u2581Boutique": 6790, "\u2581Bow": 6793, "\u2581Bowie": 6795, "\u2581Bowl": 6797, "\u2581Box": 6801, "\u2581Boxes": 6804, "\u2581Boxing": 6806, "\u2581Boy": 6810, "\u2581Boys": 6814, "\u2581Br": 6821, "\u2581Bra": 6827, "\u2581Bracelet": 6829, "\u2581Bracket": 6831, "\u2581Brad": 6833, "\u2581Bradford": 6834, "\u2581Bradley": 6835, "\u2581Brady": 6836, "\u2581Brahm": 6837, "\u2581Brahma": 6838, "\u2581Brahmin": 6839, "\u2581Brain": 6842, "\u2581Brake": 6844, "\u2581Bran": 6846, "\u2581Branch": 6848, "\u2581Brand": 6853, "\u2581Brandenburg": 6855, "\u2581Brandon": 6856, "\u2581Brands": 6858, "\u2581Brasil": 6859, "\u2581Brass": 6861, "\u2581Bratislava": 6862, "\u2581Braun": 6863, "\u2581Brave": 6865, "\u2581Bravo": 6867, "\u2581Brazil": 6869, "\u2581Brazilian": 6870, "\u2581Bre": 6872, "\u2581Breach": 6874, "\u2581Bread": 6877, "\u2581Break": 6881, "\u2581Breakfast": 6884, "\u2581Breakfasts": 6887, "\u2581Breaking": 6890, "\u2581Breakthrough": 6892, "\u2581Breast": 6894, "\u2581Breath": 6898, "\u2581Breathe": 6900, "\u2581Breeze": 6906, "\u2581Bremen": 6907, "\u2581Bren": 6908, "\u2581Brendan": 6909, "\u2581Brennan": 6910, "\u2581Brent": 6911, "\u2581Brethren": 6913, "\u2581Brett": 6914, "\u2581Brewery": 6916, "\u2581Brexit": 6917, "\u2581Bri": 6920, "\u2581Brian": 6922, "\u2581Brick": 6926, "\u2581Bridal": 6929, "\u2581Bride": 6931, "\u2581Bridge": 6934, "\u2581Brief": 6937, "\u2581Briefing": 6939, "\u2581Brigade": 6943, "\u2581Bright": 6946, "\u2581Brighton": 6948, "\u2581Brilliant": 6950, "\u2581Brindisi": 6951, "\u2581Bring": 6953, "\u2581Bringing": 6955, "\u2581Brisbane": 6957, "\u2581Bristol": 6958, "\u2581Brit": 6959, "\u2581Britain": 6960, "\u2581British": 6962, "\u2581Britney": 6963, "\u2581Brittany": 6964, "\u2581Bro": 6970, "\u2581Broad": 6973, "\u2581Broadband": 6975, "\u2581Broadcast": 6978, "\u2581Broadcasting": 6981, "\u2581Broadway": 6985, "\u2581Brocade": 6986, "\u2581Brochure": 6988, "\u2581Brock": 6989, "\u2581Brody": 6990, "\u2581Broken": 6993, "\u2581Broker": 6995, "\u2581Bron": 6998, "\u2581Bronze": 7000, "\u2581Brook": 7002, "\u2581Brooke": 7003, "\u2581Brooklyn": 7004, "\u2581Brooks": 7005, "\u2581Brother": 7009, "\u2581Brotherhood": 7010, "\u2581Brothers": 7012, "\u2581Brown": 7016, "\u2581Browse": 7019, "\u2581Browser": 7021, "\u2581Browsing": 7024, "\u2581Bru": 7026, "\u2581Bruce": 7027, "\u2581Bruges": 7028, "\u2581Brun": 7030, "\u2581Brunei": 7031, "\u2581Bruno": 7032, "\u2581Brunswick": 7033, "\u2581Brush": 7036, "\u2581Brushless": 7037, "\u2581Brussels": 7038, "\u2581Brutal": 7040, "\u2581Bruxelles": 7041, "\u2581Bryan": 7042, "\u2581Bu": 7054, "\u2581Bubble": 7058, "\u2581Bucharest": 7059, "\u2581Buck": 7061, "\u2581Bucket": 7063, "\u2581Buckingham": 7064, "\u2581Bud": 7069, "\u2581Budapest": 7071, "\u2581Buddha": 7072, "\u2581Buddhas": 7073, "\u2581Buddhism": 7074, "\u2581Buddhist": 7075, "\u2581Buddy": 7077, "\u2581Budget": 7080, "\u2581Budgetary": 7083, "\u2581Buena": 7086, "\u2581Buenos": 7087, "\u2581Buffalo": 7090, "\u2581Buffet": 7093, "\u2581Bug": 7097, "\u2581Build": 7102, "\u2581Builder": 7104, "\u2581Building": 7108, "\u2581Built": 7113, "\u2581Bul": 7116, "\u2581Bulgaria": 7118, "\u2581Bulgarian": 7119, "\u2581Bulk": 7121, "\u2581Bull": 7123, "\u2581Bullet": 7125, "\u2581Bulletin": 7127, "\u2581Bullshit": 7129, "\u2581Bun": 7132, "\u2581Bund": 7135, "\u2581Bundle": 7137, "\u2581Bungalow": 7138, "\u2581Bunny": 7141, "\u2581Bur": 7145, "\u2581Bureau": 7148, "\u2581Burg": 7152, "\u2581Burger": 7155, "\u2581Burgundy": 7157, "\u2581Buried": 7160, "\u2581Burke": 7161, "\u2581Burkin": 7162, "\u2581Burma": 7163, "\u2581Burn": 7166, "\u2581Burning": 7169, "\u2581Burton": 7171, "\u2581Burundi": 7172, "\u2581Bus": 7177, "\u2581Busan": 7178, "\u2581Buses": 7180, "\u2581Bush": 7182, "\u2581Business": 7187, "\u2581Businesses": 7190, "\u2581But": 7199, "\u2581Butler": 7201, "\u2581Butterfly": 7205, "\u2581Button": 7208, "\u2581Buy": 7213, "\u2581Buyer": 7216, "\u2581Buying": 7219, "\u2581Buzz": 7221, "\u2581By": 7226, "\u2581Bye": 7230, "\u2581Byron": 7232, "\u2581Byzantine": 7235, "\u2581C": 7239, "\u2581CA": 7250, "\u2581CAD": 7267, "\u2581CALL": 7330, "\u2581CAM": 7349, "\u2581CAN": 7380, "\u2581CAP": 7429, "\u2581CAR": 7467, "\u2581CARE": 7491, "\u2581CAS": 7557, "\u2581CASE": 7566, "\u2581CAT": 7602, "\u2581CATEGORY": 7628, "\u2581CB": 7673,
[...]
