<unk>
<s>
</s>
.
,
▁the
s
▁to
▁of
▁and
▁a
▁in
▁is
▁you
▁I
▁
▁that
▁for
'
-
:
▁The
▁with
?
▁it
▁are
▁be
’
▁on
▁(
▁not
▁have
▁,
▁was
▁this
t
▁your
▁from
▁can
▁will
)
▁as
▁or
▁we
▁“
▁by
▁at
▁all
▁they
ing
▁"
▁-
▁he
▁an
!
▁ago
▁one
▁And
▁has
▁God
▁do
▁his
▁their
▁It
ed
▁my
▁A
▁more
▁about
▁our
▁but
▁1
▁them
▁We
▁me
;
.”
▁In
d
▁who
▁people
▁You
▁time
▁what
▁This
▁years
▁2
▁He
▁so
▁were
▁also
▁there
▁up
m
▁which
▁3
/
▁out
re
▁when
▁other
▁like
▁had
▁us
▁no
▁him
▁But
▁know
▁if
...
▁than
▁been
▁would
▁only
▁What
"
ly
▁said
▁may
▁So
▁If
▁just
▁first
▁Hotel
▁world
▁new
▁4
▁into
S
▁year
▁these
▁They
▁use
e
er
▁how
a
▁her
."
▁5
▁life
▁make
▁any
▁some
▁For
▁see
▁get
▁many
▁want
▁over
▁now
▁most
”
▁good
▁day
▁way
▁then
▁two
▁need
▁very
y
]
▁work
▁its
I
▁10
▁those
▁should
▁don
▁[
▁such
▁months
▁–
▁How
▁did
▁go
▁here
▁even
▁/
▁could
▁right
▁There
ll
▁after
▁map
▁before
▁When
▁take
▁man
▁think
▁help
▁well
▁she
▁made
▁because
▁come
▁used
▁shall
ve
▁No
▁through
▁data
▁&
in
▁6
▁All
▁things
▁back
2
▁say
▁much
▁New
▁system
▁same
▁Jesus
▁That
▁every
▁My
▁does
th
A
▁best
▁love
▁xHamster
o
▁information
▁where
▁find
▁own
n
C
D
▁To
▁must
▁each
r
▁too
▁8
▁am
▁great
▁Do
▁big
▁7
▁—
▁high
▁B
es
▁As
▁hotel
▁really
▁days
▁S
al
▁place
▁still
▁United
▁name
▁being
▁children
▁going
i
▁always
▁free
or
▁down
▁20
▁different
▁service
▁three
▁show
▁C
▁away
▁give
▁'
▁long
▁12
▁another
▁With
▁between
▁never
▁_
1
3
▁)
▁again
▁‘
▁Now
▁available
▁within
▁something
▁Jehovah
(
com
▁home
▁18
mm
▁without
▁power
▁She
▁part
▁business
▁9
▁Why
▁15
▁One
▁:
▁water
▁around
The
B
Show
▁today
▁family
▁Lord
▁last
▁set
).
▁important
▁found
▁number
▁11
▁look
▁better
V
▁men
▁...
▁More
▁G
▁city
▁E
x
▁while
▁Your
▁book
▁His
▁why
g
▁both
▁China
▁change
▁States
▁let
▁under
▁using
4
▁Then
▁old
▁thing
▁km
▁called
▁end
▁30
T
▁little
▁against
▁minutes
▁next
▁U
▁hotels
▁stay
▁On
▁O
▁game
G
▁experience
▁become
▁small
▁Our
▁At
▁came
▁From
▁times
▁off
▁T
▁might
▁company
▁P
▁example
▁live
▁person
W
▁City
to
▁file
▁feel
▁lot
▁believe
▁products
b
▁control
▁human
▁room
▁M
c
▁able
▁D
ers
on
F
▁car
▁heart
▁order
▁Bible
▁food
M
▁support
the
▁put
K
▁16
E
▁money
▁US
5
▁during
▁earth
▁K
▁course
▁got
▁hand
▁house
h
▁few
▁hard
▁page
▁per
▁area
▁month
▁Free
▁However
▁keep
P
▁together
▁upon
▁others
▁says
▁Can
▁light
an
▁These
▁By
,”
▁body
▁until
▁X
able
▁already
▁real
▁After
▁women
k
▁start
▁provide
▁video
▁night
▁full
▁R
▁means
▁cannot
star
▁F
▁Home
▁offers
▁Not
▁ever
▁drive
▁World
▁14
—
▁Windows
▁process
▁quality
l
▁group
L
▁re
▁possible
▁13
▁personal
▁young
▁open
▁tell
▁since
▁everything
▁doing
▁HD
),
▁de
▁17
▁software
▁week
▁V
▁done
▁wife
▁death
▁left
▁son
▁>
▁often
▁access
▁rooms
▁24
▁call
▁point
▁walk
▁services
▁didn
▁read
▁H
▁--
?”
▁including
▁word
▁among
▁went
▁country
▁Co
▁offer
▁files
▁hours
▁An
en
▁understand
▁unto
▁second
▁easy
▁weeks
▁true
▁Park
▁design
▁L
▁type
▁words
▁amateur
▁school
▁public
▁yet
▁Israel
▁future
▁Let
▁close
N
▁working
▁Christ
▁Some
man
▁25
▁problem
▁International
▁product
▁fact
▁case
▁given
▁enough
▁try
▁actually
▁High
▁child
▁York
p
▁un
▁Please
H
▁later
▁Or
▁team
▁thought
▁kind
▁four
▁price
▁American
▁N
▁truth
▁least
▁known
▁once
▁nothing
▁technology
O
▁land
▁University
▁online
6
▁program
▁view
▁sure
▁Center
▁following
8
▁far
▁father
▁play
▁English
▁bring
_
▁50
▁friends
▁whole
▁learn
▁someone
▁computer
▁website
▁create
X
▁living
▁located
▁mean
▁TV
▁100
▁making
▁care
▁Who
▁faith
▁large
▁user
▁Are
▁anything
▁machine
▁travel
▁South
▁based
▁property
▁Read
▁19
▁million
▁talk
R
▁single
▁side
▁ask
▁yourself
v
▁themselves
▁took
▁five
▁less
▁countries
We
▁tits
▁students
▁John
▁comes
▁face
▁having
▁size
▁doesn
▁level
▁special
▁local
ness
▁Is
▁Don
▁Re
▁22
▁though
▁hope
▁site
▁law
▁makes
▁government
▁natural
▁mind
▁deal
▁woman
▁told
▁provides
and
▁please
▁House
▁music
▁21
▁Korea
▁black
▁looking
▁space
▁seen
▁saying
ic
▁study
ation
▁choose
▁health
▁near
▁past
▁Well
▁Search
▁account
us
▁May
▁created
▁needs
▁percent
▁include
▁Of
w
▁Q
▁king
▁eat
▁question
f
▁eyes
▁age
▁security
▁Street
▁safe
▁social
▁2018
▁St
ity
▁became
▁air
▁language
▁reason
ion
▁users
▁test
▁himself
Tube
▁saw
▁energy
▁Dr
st
▁mother
▁wanted
?"
▁leave
▁Kingdom
▁W
▁Machine
▁top
▁development
▁history
▁form
▁Be
▁San
▁started
▁building
▁war
u
▁features
▁lost
▁wrong
▁enjoy
▁third
▁sent
up
▁value
▁share
▁Red
7
▁save
▁parents
▁meet
▁Japanese
▁customers
▁Yes
▁line
▁hear
▁mature
▁Go
▁Because
▁stop
▁asked
▁beautiful
▁apartment
▁center
▁North
▁remember
*
▁0
▁application
+
▁head
▁First
▁list
▁won
▁Inn
▁bad
▁research
▁device
▁National
▁everyone
▁turn
▁state
▁according
▁pay
▁card
▁several
le
▁Japan
▁PornHub
no
▁problems
▁color
▁answer
▁Allah
▁Me
▁content
▁job
▁Power
▁knowledge
▁America
▁Most
$
▁gave
▁result
▁short
▁project
10
▁40
▁J
▁View
▁etc
▁Just
▁Beach
▁material
&
▁Day
▁blood
▁early
▁non
▁present
▁industry
▁De
▁e
▁version
▁LORD
▁perfect
less
▁Good
▁else
▁guests
▁longer
▁check
▁Many
▁above
▁fear
▁coming
▁airport
▁production
▁David
▁sex
ia
You
▁low
▁heard
▁story
▁matter
▁various
▁receive
▁network
▁almost
▁About
▁clear
▁run
▁international
▁People
▁lives
▁La
▁companies
▁market
▁main
▁ways
na
▁systems
▁peace
▁contact
▁web
▁Hotels
▁Father
▁Paul
co
▁Him
▁complete
▁began
▁simple
▁speak
▁soon
▁System
▁Book
▁Car
▁fire
▁date
▁follow
▁(18+)
▁ass
▁2019
▁results
▁+
▁self
▁plan
▁works
▁*
▁morning
▁#
▁Italy
z
▁range
minute
▁alone
▁return
▁Business
▁Mac
▁happy
▁idea
▁Black
▁Oh
▁phone
▁ye
▁common
▁rest
▁strong
▁questions
▁Best
▁white
▁Man
it
▁2017
▁period
▁hands
▁however
▁x
▁move
▁Get
▁Chinese
▁either
▁Have
▁average
▁current
▁certain
▁dead
▁location
▁i
▁(1
▁performance
▁anal
▁code
▁Christian
▁friend
▁games
ment
ro
▁key
▁visit
▁London
▁mom
▁brought
▁LED
▁26
▁cost
▁needed
▁milf
▁Internet
▁anyone
Y
▁Airport
▁getting
▁See
▁23
▁Even
▁girl
▁customer
▁model
J
▁management
▁Time
▁box
▁thou
▁Model
te
▁provided
▁required
is
▁along
▁die
▁Where
▁half
▁send
▁modern
ton
▁28
ism
▁message
▁Station
▁address
▁Air
▁office
▁Europe
▁news
▁environment
▁Museum
▁itself
▁Today
▁individual
▁Google
▁church
▁party
▁front
▁taken
▁Son
▁Service
▁changes
▁Pro
▁members
▁fast
▁built
▁continue
▁sites
▁speed
▁cause
ar
▁easily
▁60
▁field
▁Room
▁difficult
▁spirit
▁knew
▁whom
▁sea
▁oil
It
el
▁choice
▁King
▁buy
▁app
▁taking
▁designed
Â
time
▁born
▁tool
▁across
▁community
▁build
▁Download
est
▁popular
▁•
▁thy
▁global
▁standard
▁whether
de
▁media
ry
▁major
▁japanese
▁train
▁School
▁below
▁Road
▁m
▁especially
▁Z
▁French
▁Water
▁private
▁War
▁moment
▁nor
▁teen
▁Life
▁purpose
9
ist
▁White
Z
▁ready
▁six
▁quickly
▁bit
▁27
▁series
▁image
▁kids
as
▁event
▁outside
▁parts
▁add
▁received
▁search
▁hot
▁rights
▁rate
▁husband
▁places
▁European
▁Group
▁died
▁step
▁Church
ne
▁heaven
▁soul
▁Here
do
▁stars
▁2016
▁trying
▁fun
▁enter
▁devices
▁Will
▁Other
▁hair
▁further
▁France
▁professional
am
▁drink
▁due
▁inside
▁usually
▁class
▁takes
▁Al
▁film
▁equipment
▁Two
▁sin
▁addition
,"
▁station
▁entire
▁Hot
▁happened
▁trust
▁option
▁Word
age
▁double
at
▁evil
▁fine
▁solution
▁similar
▁Use
▁Color
▁Hostel
▁hundreds
".
▁art
▁Data
▁relationship
▁couple
▁training
▁email
▁watch
▁therefore
▁sense
ive
▁Korean
▁post
▁specific
▁Number
ri
▁PC
▁changed
▁Paris
▁options
▁West
▁situation
▁isn
▁types
▁education
▁storage
▁increase
▁lead
▁pressure
▁probably
▁table
▁German
▁p
▁simply
▁feet
▁click
▁nature
▁reality
▁voice
▁applications
ra
▁article
▁Name
▁myself
▁risk
▁download
!”
▁stand
▁mobile
▁shower
▁brother
▁Since
▁unique
▁accommodation
▁behind
▁Every
one
>
▁Only
▁Love
naldin
il
rs
▁ensure
▁necessary
▁rather
ul
▁Also
▁Video
▁Product
▁Germany
®
▁treatment
▁report
▁29
▁wait
ate
▁temperature
▁weight
▁allow
▁steel
▁political
▁East
▁June
▁function
In
What
ie
▁bed
▁Android
▁screen
▁January
▁Her
▁conditions
▁Art
▁added
▁Next
▁cock
▁Light
▁reach
▁Steel
▁Size
▁seven
▁3-
▁Open
year
▁quite
▁door
▁Old
▁safety
out
▁server
▁protection
▁happen
▁April
▁shows
▁total
▁July
▁gives
▁While
▁videos
▁views
▁position
▁higher
▁areas
▁powerful
▁fully
12
▁movie
▁action
–
▁co
▁write
▁Show
▁effect
▁Therefore
▁March
▁source
▁Thus
▁physical
▁written
▁memory
▁October
▁Site
▁meters
▁digital
▁Type
▁held
um
▁pass
▁beginning
0
eth
▁forward
▁mouth
▁According
▁hold
▁bar
▁sometimes
▁Great
▁red
▁amount
▁September
▁thinking
▁hour
U
▁pre
▁Take
ian
▁select
▁Find
▁Canada
▁Y
ling
▁developed
▁seems
ine
▁completely
be
▁Moses
▁century
▁wants
▁Those
▁talking
▁general
▁Check
▁ability
ized
▁goes
▁Each
▁$
▁opened
▁RF
▁directly
▁Wi
▁2015
▁Resort
▁Did
▁beauty
▁Russian
▁Office
un
▁c
▁clean
min
▁issues
▁medical
▁internet
la
▁sound
▁Yeah
▁Earth
▁01
▁cut
▁text
▁policy
▁serve
▁opportunity
▁protect
▁Like
▁32
▁felt
▁via
▁Company
▁paper
▁pain
▁loss
son
▁Le
▁35
▁August
▁issue
▁December
▁sign
▁Satan
▁bus
▁display
land
▁allows
▁instead
▁knows
▁ones
ant
▁facilities
▁Central
▁31
▁Russia
▁particular
▁Mr
If
▁led
ting
▁meeting
▁learning
▁Guests
This
▁growth
▁Peter
go
▁truly
▁Un
▁Asian
▁Information
▁Bar
▁original
▁wide
▁success
▁Big
▁State
▁brain
▁forget
▁comfortable
▁final
▁Ltd
▁Tags
▁request
▁related
▁wrote
▁turned
▁Last
▁sun
▁leading
▁strength
da
▁attention
▁store
▁culture
▁platform
▁details
▁Does
▁throughout
▁method
▁02
ta
▁coffee
▁Apple
▁November
▁role
▁interest
▁baby
▁spiritual
▁feature
▁path
▁reading
▁Long
▁listen
old
▁ten
▁immediately
▁Web
▁avoid
▁includes
▁worship
▁1.
▁Christians
▁Bed
ty
▁student
▁improve
▁Microsoft
▁activities
▁Australia
▁ground
▁Spirit
▁wish
20
▁greater
▁fall
▁Africa
▁fight
▁seem
▁society
▁cases
▁THE
▁200
▁win
▁Â
▁late
▁poor
▁President
ma
▁Come
▁kingdom
▁©
▁Live
ary
▁b
▁events
▁grow
Q
li
▁India
▁Asia
▁disease
▁consider
▁marriage
11
▁goal
▁reviews
▁sleep
▁terms
▁decision
▁sons
▁03
▁El
▁running
▁Green
ter
▁Witnesses
▁kill
ka
▁national
▁prayer
▁daughter
line
▁included
▁excellent
▁Products
▁blonde
▁PDF
▁materials
▁largest
▁News
▁lose
▁Design
▁doctor
▁animals
▁skin
▁Over
▁Family
ca
▁effective
▁town
▁writing
▁solutions
me
ol
▁4-
▁connection
▁Yet
▁offering
▁KAYAK
▁currently
▁style
▁USB
▁season
▁blowjob
▁understanding
▁Teen
▁outdoor
▁cities
And
he
ge
▁requirements
▁distance
▁accept
▁Thank
▁tools
▁famous
▁nations
▁loved
▁Young
▁photos
▁certainly
▁nice
▁finally
▁record
▁thus
▁Bay
▁2.
▁<
▁steps
He
Fi
▁member
▁Royalty
▁additional
men
▁act
▁gets
▁IP
▁happens
▁Hong
▁February
▁staff
▁healthy
▁successful
▁dream
▁Their
▁forth
15
▁(19
▁gone
▁climate
ur
▁normal
▁Up
▁legal
▁points
▁likely
▁supply
▁Jerusalem
▁published
▁giving
▁Line
▁force
▁science
▁guide
▁Facebook
▁Island
▁summer
▁activity
▁Back
▁equal
▁Top
▁Rome
▁Material
▁(2
▁ourselves
ization
▁80
▁Club
▁killed
▁promise
▁latest
ch
▁chance
▁road
▁Grand
▁Blue
▁wasn
▁Games
of
▁asian
based
▁worth
▁properties
▁financial
nd
▁begin
▁trade
▁massage
▁pretty
▁forever
day
▁camera
▁allowed
ful
▁saved
▁thee
▁books
▁Once
▁decided
▁apply
▁term
▁British
▁evidence
▁multiple
▁500
▁Maybe
▁thousands
▁deep
▁recent
▁File
▁difference
▁creation
▁Management
▁worked
▁Software
▁hosting
▁During
▁button
▁sales
▁link
▁07
▁Any
▁direct
▁hath
et
▁Game
▁met
▁surface
▁08
▁learned
▁ideas
▁factory
▁gold
▁exactly
▁Porn
▁Ho
▁recently
▁College
▁focus
▁established
18
▁uses
▁tried
ies
j
▁45
▁nation
▁produce
▁respect
▁lower
▁player
▁reasons
▁Support
▁feeling
▁pool
▁Holy
▁huge
▁board
▁Contact
▁programs
▁levels
▁picture
▁groups
ad
▁Hall
▁green
17
▁desire
▁released
▁police
▁2014
▁spend
▁error
▁gift
▁potential
▁Another
▁capacity
▁JizzBunker
▁charge
▁100%
▁break
▁organization
▁economic
▁operation
for
▁interesting
▁USA
▁indeed
▁song
▁Play
▁response
▁appear
▁interested
▁involved
▁04
▁district
▁Although
▁Online
▁06
▁variety
▁develop
▁photo
pe
▁considered
▁operating
▁Centre
▁military
▁cancer
▁Technology
▁Kong
▁Christmas
▁Control
▁Learn
▁Mar
▁practice
▁wall
▁recovery
▁dog
▁religious
▁playing
▁benefit
▁Year
▁Services
▁Mexico
▁90
▁positive
ex
▁Singapore
▁traditional
▁Apartment
▁TXXX
▁Law
▁daily
▁Make
▁religion
!"
▁beach
▁holy
▁serious
▁blue
▁eye
▁teacher
16
▁cover
▁teach
▁teaching
▁toward
▁Official
%
▁Square
▁looked
▁remain
▁looks
”.
▁lies
▁whose
50
▁command
▁meaning
▁fish
▁II
▁36
▁window
▁boy
▁transfer
▁Look
▁Real
▁Sea
▁cold
-1
▁seek
▁Health
▁tree
▁gas
▁universe
▁Garden
▁region
▁helps
▁partner
▁basic
▁rules
▁floor
im
▁lived
▁connected
▁fat
▁thousand
▁Am
▁joy
▁images
▁offered
▁subject
▁exist
mo
▁afraid
▁d
▁James
13
▁wine
▁Security
▁patient
▁college
se
▁highly
▁release
▁television
▁freedom
▁install
▁300
▁technical
▁Super
▁Mo
▁journey
▁cookies
▁Los
▁Global
▁Version
▁mm
▁touch
▁complex
14
▁neither
▁California
ous
ah
▁g
per
▁Spain
▁numbers
▁wonderful
▁Western
ha
▁33
▁ISO
▁except
▁lesbian
▁kept
▁Music
ba
▁pray
ent
▁analysis
▁rich
▁waiting
ir
▁cloud
▁rule
▁agree
▁responsible
▁solo
▁babe
▁Series
▁advice
▁brand
~
▁approach
▁Datasheet
▁require
▁v
▁trip
▁Sun
▁workers
by
▁active
▁Villa
▁doubt
▁Click
▁Egypt
▁mode
▁amazing
▁2012
▁direction
▁Should
▁brothers
24
▁impact
▁central
▁gonna
▁Seoul
▁2-
▁leaders
▁welcome
▁05
▁girls
30
▁Li
ce
Do
▁maybe
net
▁River
▁Double
▁becomes
▁wear
▁Bravo
▁Suites
▁General
▁families
▁Tube
▁moved
▁whatever
▁garden
▁3.
▁patients
ko
▁review
▁Privacy
▁Lake
▁married
▁UK
hour
▁Mary
▁Union
▁Food
▁cable
▁guy
▁multi
▁stage
▁Add
▁glory
ance
ang
▁Italian
▁status
:10
▁placed
▁Via
:11
▁highest
▁Three
▁moving
▁Copyright
▁purchase
▁named
25
▁sold
▁thanks
▁taught
Laughter
▁star
▁Spanish
▁2013
▁recommend
▁~
▁returned
No
▁passed
▁population
▁expect
▁shown
▁Di
ted
▁masturbation
ley
▁maximum
we
▁Yahweh
▁growing
▁update
▁appointed
▁kitchen
▁credit
▁costs
▁Master
▁club
▁Drive
▁secure
▁hidden
▁dress
▁Okay
▁Which
▁Standard
▁benefits
▁delivery
▁Republic
▁70
ize
▁degree
▁Us
▁stockings
▁08:00
▁OS
▁2010
▁Before
▁followed
TM
▁reduce
os
▁Wall
▁shopping
▁remove
▁wisdom
▁sins
▁greatest
▁official
▁â
19
▁towards
▁Men
▁base
:19
▁Holiday
▁architecture
di
▁Abraham
▁eight
▁standards
▁players
▁advanced
▁providing
id
▁character
For
▁hate
▁Apartments
▁Select
▁dark
▁foot
▁favorite
▁generation
▁interracial
ally
▁Travel
▁weather
▁fetish
▁electric
@
▁selected
▁foreign
▁beyond
▁Large
▁presence
▁billion
ak
▁Inc
▁hearts
▁states
▁Mobile
▁hundred
▁Right
▁ancient
▁deliver
ya
▁plant
con
▁attack
▁host
▁searches
▁animal
▁carry
▁extra
▁sell
▁movies
▁Date
▁Children
▁Project
▁di
▁heat
▁Women
▁anti
▁park
▁Code
tic
▁Joseph
▁prepared
em
ci
▁laws
▁manage
▁length
▁expected
65
▁Saint
▁Hi
▁correct
▁effects
way
▁believed
▁worldwide
60
▁Server
▁skills
▁cards
▁helped
▁exchange
▁2020
▁damage
▁couldn
▁prevent
▁Help
▁Royal
▁continued
▁restaurant
:18
▁en
ated
io
▁brunette
100
▁increased
▁CO
--
▁Such
▁Single
▁construction
▁Da
▁secret
gu
▁orgasm
▁humans
▁quick
▁Sometimes
▁answered
▁birth
▁Max
▁Hostels
▁cell
▁Card
▁previous
ner
▁spent
▁Party
▁walking
▁condition
▁payment
▁faster
▁prices
▁bbw
▁=
▁perform
▁desk
▁Star
▁effort
▁taste
▁Tokyo
32
▁sister
▁Quality
▁significant
é
▁employees
▁Photo
if
▁battery
▁Hey
▁projects
▁interface
▁compilation
▁Tower
▁Price
ac
▁contains
▁judgment
▁wedding
:20
▁starting
▁suits
▁34
lu
▁communication
▁»
▁shared
▁flow
▁reached
▁bathroom
▁useful
▁alive
▁kinds
▁resources
▁models
▁middle
▁2011
▁mountain
den
▁hit
▁Place
▁tomorrow
lo
ING
▁associated
▁nearly
▁Board
▁Science
▁mankind
▁Test
▁format
▁section
▁Spa
▁Network
▁37
▁particularly
▁structure
40
▁cells
▁achieve
▁testing
â
▁items
21
▁{
▁master
▁·
▁Research
▁guys
ST
▁Set
▁fruit
▁shemale
▁president
▁served
▁street
▁sports
▁produced
▁commercial
▁female
▁Gold
▁38
▁track
▁purposes
45
▁Jews
▁names
▁cross
ke
ki
▁Adam
▁strategy
▁requires
My
▁comfort
ish
so
▁Thanks
bit
▁Would
▁Post
▁clearly
▁sit
ER
▁spoke
▁external
▁glass
▁hostels
▁Ko
▁Policy
▁Angeles
But
▁press
▁Watch
▁court
▁career
▁older
▁IT
free
ten
▁thank
ana
▁tax
▁Mark
▁Port
▁browser
▁Bus
▁advantage
▁join
▁pick
▁48
▁letter
▁individuals
▁spring
▁authority
35
▁worry
▁processing
▁gain
▁Phone
▁plastic
▁iPhone
▁object
▁XXX
▁Sex
▁automatically
▁Note
:16
▁industrial
▁Sale
▁played
▁vision
▁Amateur
▁Digital
▁dance
▁strip
▁Keep
▁described
cm
▁cumshot
▁paid
lin
▁plans
▁pictures
▁race
▁seconds
▁output
▁Special
▁servants
▁surely
▁USD
▁suffering
There
AL
ni
▁influence
▁realize
▁marketing
▁sort
side
▁mine
▁Building
▁sub
ence
▁cast
▁separate
▁values
▁Ka
▁studies
▁fuck
▁Guide
▁Hell
▁pages
▁toys
▁generally
▁Mother
▁responsibility
▁destroy
▁breakfast
▁caused
ga
▁Work
▁Both
ung
▁unit
▁App
▁earlier
▁parking
▁xhamster
:14
▁5-
▁languages
▁Area
ja
▁4.
▁mercy
▁leader
▁manufacturers
▁sorry
How
▁bath
▁hospital
▁ideal
▁Washington
▁Chi
▁Image
▁square
▁%
▁Mi
▁miles
▁explain
▁vehicle
▁Institute
}
otPorn
▁drug
▁hell
▁Map
▁balance
▁09
▁limited
▁regarding
▁engine
▁round
▁stuff
▁Mom
▁easier
ating
▁domain
▁Santa
▁metal
ise
end
▁Greek
▁Con
▁menu
▁dis
▁biggest
▁showed
que
po
-10
▁Plastic
▁movement
▁Full
▁notice
▁connect
▁becoming
▁George
bo
:15
▁collection
:21
▁theory
▁bear
▁sky
▁websites
▁Ben
▁reported
▁revealed
▁exercise
▁selection
▁setting
▁eating
▁settings
▁Program
▁regular
ji
der
Picture
▁African
▁Indian
▁note
▁lingerie
▁mentioned
▁Media
▁maintain
▁signs
▁recover
ists
:22
▁basis
▁shop
led
▁changing
▁ship
▁Equipment
▁okay
▁experienced
▁Part
▁Medical
▁2007
▁Second
▁opportunities
▁finished
▁tags
▁creating
▁former
▁seeing
▁Michael
▁port
▁congregation
▁England
▁capital
▁super
▁righteous
▁progress
:12
:23
▁DC
ler
▁behavior
▁perhaps
▁threesome
▁happiness
▁Views
▁150
▁AC
▁lie
Porn
:17
▁Store
▁cute
▁milk
▁challenge
▁Screen
▁Department
▁Festival
▁essential
▁wind
▁sight
▁false
▁dangerous
▁calls
▁flight
▁haven
22
▁Head
▁investment
▁accepted
▁History
rd
Dan
▁fit
▁clients
▁rates
▁sport
▁pro
▁Social
▁Fire
all
▁bank
▁Association
▁appears
▁negative
▁destroyed
▁fresh
▁blog
▁creampie
▁warm
▁→
▁Try
▁completed
▁ahead
▁42
▁Main
▁arrived
▁task
▁Kim
▁Court
200
▁document
IN
▁caught
pa
▁Auto
▁resistance
▁smart
sh
▁concept
▁piece
▁none
29
▁installation
▁functions
▁f
▁methods
▁deposit
▁cars
▁insurance
▁Beijing
▁remains
▁centre
▁Delivery
▁Everyone
▁aren
▁supported
€
▁approximately
▁Cloud
▁stories
▁reserved
▁scale
▁Electric
▁collect
va
▁Palace
▁Pre
▁god
ring
▁wise
▁Remember
▁t
:25
▁audio
▁Industrial
▁Town
:24
▁installed
▁handle
▁twice
▁venue
▁temple
▁efficiency
ger
▁flesh
▁appropriate
▁client
▁actions
▁trouble
▁planet
-5
izing
▁Factory
▁Save
▁forces
▁efforts
▁Display
ron
▁webcam
[
port
▁driver
▁shape
▁spread
▁trees
▁manufacturing
▁worse
ability
▁persons
▁announced
▁Website
red
▁Under
▁Lu
▁Guest
▁compared
▁battle
▁evening
▁core
▁recommended
▁block
▁2000
▁technologies
▁suitable
▁24-
▁raised
64
▁En
▁filled
▁Bank
▁Page
▁stock
▁minute
▁copy
▁Metal
▁Everything
▁lines
▁machines
▁slow
When
▁mission
▁wonder
▁extremely
▁definitely
▁driving
za
▁hairy
▁heavy
▁fill
▁Sunday
▁speaking
▁Public
:28
▁rise
▁leaving
▁Education
▁Multi
▁solve
▁IN
▁Trump
▁instance
▁Outlook
▁elements
▁manner
▁anymore
▁hurt
▁measure
▁Berlin
▁39
:30
▁User
▁Human
▁violence
▁flat
▁partners
▁Smart
▁Step
les
▁Ar
ning
▁broken
▁traffic
▁album
▁enemies
mi
▁Avenue
▁failed
▁disciples
▁Na
▁channel
ck
▁lack
▁feelings
▁rain
ster
▁facial
▁larger
▁island
▁Ask
▁custom
▁messages
▁Recovery
▁Ni
▁Instead
▁Weight
▁miss
▁Lo
▁Cup
▁millions
▁Could
▁winter
▁thoughts
▁forms
To
▁anywhere
▁components
▁salvation
▁applied
▁signal
▁documents
▁watching
ite
▁aware
▁Sa
▁con
▁planning
▁judge
▁chosen
▁mass
2)
ship
▁eternal
▁Popular
▁sale
pi
▁ice
▁District
▁Night
▁Council
▁Mature
▁competition
room
▁wicked
▁discovered
▁OF
▁ex
▁independent
▁stone
▁Welcome
▁affect
tra
▁Anal
▁Ro
▁Development
ber
▁Per
▁Linux
▁species
▁End
▁existing
▁helping
▁Choose
80
▁Description
ED
▁bread
▁Roman
▁praise
▁stress
▁Start
▁TO
▁(1)
▁folder
▁claim
▁straight
▁pleasure
▁fail
▁imagine
▁sweet
▁Team
▁respond
95
▁Casino
▁plants
▁appeared
23
▁Cor
▁Box
ology
▁visitors
▁prison
▁YouTube
▁00
▁guess
▁nuclear
ative
500
▁closed
▁la
▁sample
▁Rights
▁figure
▁2009
sa
▁k
▁Society
▁deleted
▁Government
▁accurate
▁Ne
▁sitting
mail
▁75
▁impossible
▁internal
ium
board
▁reports
▁contract
▁Market
▁appearance
▁Key
▁eventually
▁smoking
▁justice
▁apps
▁witness
▁Non
▁experiences
ey
▁trading
Why
▁Breakfast
▁author
▁solar
▁match
▁conversation
:26
They
▁400
▁sharing
▁iron
▁Francisco
▁target
▁delivered
▁dry
ti
▁Studio
▁EU
▁cool
ping
▁brings
▁Shanghai
ong
ard
▁decisions
▁Without
▁equipped
▁cutting
▁10-
Me
▁Plus
▁Has
▁colors
▁profile
▁covenant
▁asking
▁entered
▁Very
▁goals
▁OEM
▁Express
▁title
▁prepare
▁decide
▁actual
-2
▁Walk
▁bathrooms
▁Four
jo
chi
▁opening
▁Brand
▁expensive
-8
▁demand
ho
▁Located
▁Paper
name
▁supports
▁scientists
▁fellow
▁ball
▁wouldn
ina
▁Give
▁repair
▁Lee
▁riding
▁cat
▁happening
▁password
▁plus
op
kg
▁promised
▁proud
over
ble
back
▁recognize
▁Out
light
▁servant
▁enable
▁Motor
▁wireless
▁1000
▁arrival
▁Ha
▁answers
▁cultural
=
:31
ze
▁situated
▁failure
off
▁Americans
▁120
▁punishment
▁shoes
▁efficient
:00
▁Space
house
▁sick
01
▁faithful
Re
▁license
▁Engine
▁CE
▁schools
▁55
▁Friday
▁concerning
▁manufacturer
▁Report
▁river
▁existence
▁hairdryer
▁Review
▁privacy
▁suffer
▁SD
▁load
▁waste
▁hostel
▁businesses
▁package
▁disk
▁Ma
:29
▁Total
▁enemy
▁male
▁2008
▁www
▁Customer
▁radio
▁seemed
▁Anti
dy
90
▁operations
ities
▁express
▁CD
▁Stainless
▁meat
▁starts
ver
wood
▁committed
▁Bridge
▁economy
▁Tel
▁@
▁escape
▁discuss
▁background
▁quiet
):
▁creative
▁continues
▁clothes
▁Energy
:27
▁Act
▁cleaning
▁Bo
tro
▁loving
▁pump
▁shot
▁jobs
▁organizations
▁Indeed
▁Foundation
▁bag
▁Arab
▁matters
MA
▁drop
▁Small
▁restore
▁Oil
tor
▁developing
▁n
▁owner
▁removed
▁although
▁Call
▁begins
▁army
05
▁band
tion
▁alternative
▁principles
▁cheap
▁obtain
▁Land
▁guarantee
▁magic
▁Say
ft
▁Heaven
▁rating
▁Jo
▁Times
▁university
▁proper
bar
55
▁Previous
▁standing
ap
▁fix
▁mi
▁hd
▁carried
▁advance
▁darkness
ran
▁parties
▁circumstances
not
▁missing
▁Sydney
▁default
▁Barcelona
▁prove
▁Application
▁fair
ier
▁surprise
▁chemical
▁raise
▁nearby
her
▁Chicago
ru
▁conduct
▁yes
▁classic
▁Was
▁database
▁booking
▁draw
si
▁o
▁honor
▁handjob
▁tour
▁scientific
:1
▁widely
▁Think
▁Finally
▁processes
ator
▁nine
▁[...]
▁Plaza
▁ID
▁angels
▁Po
▁(3
▁meant
▁treat
▁Las
▁gods
▁Rooms
27
▁Manager
:13
▁fell
▁busy
car
▁boat
▁drugs
▁serving
▁dinner
▁knowing
▁funny
▁backup
39
ab
God
▁tube
▁feed
▁importance
like
▁Way
70
▁pov
▁Spring
▁mid
ee
▁engineering
▁satellite
▁Committee
▁05:00
▁Personal
▁Access
▁ticket
▁experts
▁relationships
▁covered
▁stored
▁Sam
▁occur
▁Jacob
ham
▁fashion
▁suddenly
▁statement
▁Change
▁grace
▁Cable
▁speech
▁finish
▁Su
▁challenges
▁Tour
▁loves
▁heavens
ek
▁discount
▁reliable
▁moon
38
▁apostle
▁dedicated
▁motor
▁Twitter
▁righteousness
ial
▁otherwise
▁adults
▁pure
▁Czech
▁casting
▁Se
▁Creator
▁prior
▁Aluminum
▁moral
▁blind
▁PVC
▁Panel
▁mental
▁swear
▁Monday
▁print
John
▁fields
Matthew
▁volume
▁founded
▁Low
let
▁Tri
▁toilet
▁minimum
▁angel
▁OK
49
28
▁introduced
-4
▁dogging
▁Language
▁showing
▁granny
▁Judah
▁fucking
▁ebony
▁convenient
▁List
300
▁teachers
▁Plan
▁adult
▁instructions
▁Hard
▁environmental
▁recorded
▁panel
▁mountains
▁rock
▁Perhaps
▁pieces
▁agreement
▁5.
▁Film
▁LCD
▁Ra
gen
▁flowers
▁Speed
▁Catholic
▁Robert
GB
▁channels
▁nurse
▁spot
▁tells
▁Bangkok
▁causes
▁closer
▁Hill
▁w
-12
▁priest
▁presented
▁weapons
▁Tell
▁Rock
▁contain
▁friendly
▁critical
▁printing
▁campaign
▁Middle
-6
▁Mini
▁trial
▁Convention
▁Through
▁ride
▁determine
▁manager
▁Using
▁drinking
▁lots
▁Summer
▁Press
▁hide
▁Ball
Be
▁carbon
▁bought
▁calling
▁reward
▁Pacific
Porno
▁height
ok
▁visiting
▁records
▁43
can
▁village
So
ped
▁Location
▁dreams
▁prefer
▁divine
▁Ex
mer
▁bottom
▁15-
▁determined
▁41
▁Powder
▁ended
▁hardware
33
600
▁labor
▁vintage
▁Cat
▁survive
CH
uk
▁item
▁Ten
▁cheapest
▁homemade
▁AND
▁sexual
▁registered
▁10:00
▁wood
▁hearing
▁successfully
▁girlfriend
▁prophet
▁firm
▁Dubai
▁harm
▁Outdoor
▁Want
▁revolution
▁links
75
▁tea
▁enjoyed
▁Still
▁Sports
▁cum
ara
°
▁sword
q
▁formed
▁remote
▁north
▁initial
▁Ba
▁anger
▁laser
▁confidence
▁spoken
▁finding
▁Tom
▁Quick
▁tests
▁Vietnam
▁telling
▁majority
37
56
▁mention
▁Conference
che
▁Ocean
▁goods
lan
▁DVD
▁Battery
▁bodies
▁Reviews
▁scene
▁filter
▁pregnant
▁classes
▁innovation
▁everybody
▁updated
▁Queen
▁stated
▁uniform
▁warning
▁Mount
▁Category
▁budget
26
▁discover
#
▁aid
▁Available
▁Style
▁guest
▁fly
▁chief
▁performed
▁Sha
▁guidance
▁Greece
-3
▁fee
▁Min
▁MP
▁Daniel
▁Jewish
▁Florence
Zilla
▁True
▁plate
▁orders
▁Paradise
▁mini
▁virtual
▁Community
▁Trade
▁identify
▁yourselves
▁symptoms
▁drives
▁Sign
▁songs
:4
▁Xo
:40
▁Zealand
▁Solomon
▁empty
04
▁counsel
▁cup
▁transport
▁versions
All
wa
▁maintenance
▁session
PC
▁Golden
▁stopped
▁fuel
▁limit
42
▁innovative
▁Enjoy
▁suppliers
▁units
with
▁depends
▁choices
▁historical
▁houses
▁fourth
▁sacrifice
▁lift
▁porn
▁worst
:34
▁seriously
▁integrated
▁carefully
▁dollars
gi
▁€
66
oc
▁football
▁Professional
:33
▁keeping
▁log
:37
Applause
▁south
▁cash
ville
▁heating
▁Third
▁tight
▁opinion
▁Suite
▁translation
hu
▁stable
ical
but
▁primary
▁pattern
▁r
term
▁bigger
▁600
▁resolution
ray
our
86
▁Peace
▁seat
▁Sky
▁cry
au
▁nylon
fer
▁powder
▁Thailand
▁Inter
▁library
▁Moscow
▁forgiveness
▁Moon
▁joined
▁Custom
▁Working
▁catch
ible
▁soft
▁Again
▁interview
▁blessed
▁citizens
▁german
▁Details
▁Stop
▁Corinthians
▁forgive
▁distribution
vo
▁(2)
▁Nothing
▁muscle
sen
▁Sorry
▁Industry
▁smaller
▁Brazil
▁gay
▁realized
▁threat
▁everywhere
02
▁frame
▁Cross
▁electronic
▁Easy
▁totally
▁com
▁$1
▁constantly
:39
▁concerned
▁Source
▁Natural
▁recognized
▁46
▁Saturday
▁Vegas
07
eg
:35
▁Little
▁Bi
▁numerous
▁250
▁tattoo
▁Private
▁ring
▁Village
▁Flower
▁destruction
▁theme
▁font
▁researchers
▁Modern
▁Ta
▁al
▁teams
▁County
▁Laser
▁helpful
om
▁greatly
▁bright
Whether
▁swallow
▁vehicles
▁fighting
▁Side
▁Hand
▁swimming
▁objects
▁dogs
▁expression
▁44
▁Protection
▁switch
▁seeking
▁absolutely
▁sleeping
▁Gu
▁heels
▁buildings
▁computers
▁bottle
mp
ut
▁previously
▁characters
▁twenty
▁Restaurant
bi
▁glasses
▁crime
▁Gallery
▁explained
▁wild
Ltd
▁]
▁Wire
▁factors
:5
▁divided
qui
:45
▁Stay
▁min
▁fans
▁CEO
▁protected
▁Close
▁Know
▁Order
bu
67
▁Yu
LE
▁Director
▁Camera
▁listed
field
use
:36
▁flash
▁Share
▁listening
▁lunch
▁accounts
my
▁willing
▁camp
ious
king
▁replace
▁65
▁atmosphere
▁Charles
▁proof
▁launched
▁reference
▁arm
▁explore
▁Glass
▁Visit
▁birds
▁decades
▁parent
▁(4
▁describes
▁careful
▁Girl
▁William
▁Boutique
▁Bitcoin
OS
▁Golf
▁Jack
▁del
▁Maria
▁Du
:32
▁League
▁assistance
▁strange
▁attempt
▁policies
▁chat
▁updates
▁input
▁chubby
▁silver
▁combination
▁Kids
:6
▁Army
▁Hair
48
51
▁Truth
MP
▁leads
▁Experience
▁Soviet
이
fi
▁purchased
▁Point
▁meal
▁URL
▁Ge
▁Congress
▁suggest
org
▁Never
▁wire
▁Parts
▁weak
▁participate
▁fixed
▁NO
03
▁Amazon
▁dates
air
▁Systems
▁practical
▁Ad
▁magazine
ju
▁fan
▁crazy
▁delete
▁managed
▁gun
▁exists
▁Added
ig
▁launch
ath
▁Really
▁ministry
▁yesterday
▁Create
▁lay
-20
▁interests
tel
▁domestic
▁iOS
▁Coffee
▁element
style
▁Ah
▁monitor
▁Win
▁Country
▁Being
44
▁Pool
▁Job
-11
▁properly
▁specified
▁feels
▁infrastructure
▁accident
▁Shopping
▁Tag
▁Videos
▁chose
58
▁resurrection
▁micro
▁holding
▁Milan
▁Bedroom
▁dad
ura
▁surgery
▁Computer
▁advertising
▁Cap
-19
▁smell
IT
▁Solar
▁Micro
nt
▁Electronic
▁valuable
▁(5
▁auto
▁medicine
▁Pass
▁Vi
▁wealth
▁youth
:38
▁grade
▁Hilton
€“
▁Thomas
800
▁overall
▁Valley
▁layer
▁chain
ou
▁appreciate
▁cougar
▁relevant
▁noise
tle
hr
▁increasing
▁behold
▁dust
:44
ari
36
▁inspired
▁flexible
you
ov
▁Latest
Tuber
▁capable
▁sounds
▁Local
▁attacks
▁tank
▁talked
▁Tu
▁treated
▁attitude
▁passion
▁Remo
▁signed
screen
▁inter
▁Bill
US
53
▁Safety
▁Temple
▁sad
▁destination
▁Exhibition
▁till
▁factor
▁comments
▁penetration
▁PM
OR
▁diet
▁laptop
▁Address
▁entirely
ding
hi
▁diseases
▁shalt
▁complimentary
▁rental
CC
▁Martin
▁route
▁Pa
▁Flash
▁restaurants
▁Hospital
▁sides
▁MS
▁visited
▁concern
▁entry
▁kid
▁automatic
▁owned
▁1.5
yo
▁certificate
▁Heart
▁holiday
▁Switzerland
▁principle
▁52
▁operate
ure
▁root
:7
▁affected
▁identity
▁Gas
▁Prague
▁competitive
▁monster
▁Har
Read
iv
▁commanded
▁Texas
▁skinny
▁belief
▁permission
▁64
▁solid
Please
▁overcome
ik
▁personality
▁unable
ware
ned
▁meetings
ward
▁Luxury
▁description
▁Update
▁Melbourne
▁grew
▁frequently
54
▁understood
▁49
han
▁remained
▁walls
▁exact
▁sensor
61
▁drunk
▁amenities
▁exciting
▁mistake
▁stood
4)
▁Award
▁hosts
ual
don
▁Terms
▁CA
▁networks
▁combined
▁familiar
▁victory
스
▁income
▁constant
▁Fast
That
▁seed
▁dwell
▁convert
▁french
vi
▁Mc
ot
▁homes
▁Body
▁conference
ach
ide
tri
AM
▁priests
:43
▁Osaka
▁monitoring
▁Buy
▁Temperature
▁casino
▁enables
▁Though
▁Timothy
az
▁vast
▁stayed
▁herself
▁Saul
▁liquid
▁depending
ions
▁count
▁Students
▁selling
▁departure
09
▁grateful
▁plenty
▁precious
▁applies
08
▁struggle
down
ES
▁Te
▁terrible
▁saving
▁believers
▁Mountain
▁l
▁provider
▁survey
▁Level
▁mask
▁Features
▁shipping
▁defined
ries
▁severe
▁grown
box
▁approved
gar
▁sat
▁6.
▁Dutch
▁blessing
▁reasonable
▁evolution
:42
▁Doctor
▁Especially
ming
▁turns
▁voltage
▁succeed
▁Han
▁phase
▁birthday
ably
▁onto
▁yen
▁SP
:9
▁deals
mon
▁sets
▁Ya
:50
81
▁posted
▁effectively
▁Prince
▁emergency
▁NOT
▁intelligent
▁pen
▁Radio
▁AM
▁Ke
▁Money
Open
:07
▁unless
▁Residence
▁follows
▁Scriptures
ny
1)
▁declared
:8
▁Care
▁800
ps
▁redhead
head
▁Si
▁honest
▁mark
▁consumption
!!
▁sources
▁module
▁Need
▁taxi
:47
▁throw
▁Wood
▁cycle
▁leadership
▁Moreover
ano
:48
▁remaining
▁Richard
▁●
IP
▁Death
ino
work
▁Manufacturers
▁forgotten
▁glad
▁favor
▁gifts
▁reduced
▁currency
class
▁ran
▁Follow
▁leather
▁occurred
▁Matthew
od
98
▁intended
▁2004
Ex
▁Police
▁YOU
▁leaves
▁pipe
▁obey
▁Table
▁featuring
▁telephone
▁Ireland
▁Storage
:59
▁yellow
Lust
▁arrive
▁Dan
▁Led
ised
▁golf
▁assembly
ow
▁Send
▁Enterprise
▁perspective
pro
▁forest
▁compare
▁apart
▁Silver
▁duty
88
▁Happy
▁Exchange
▁pleasant
ile
▁annual
lic
▁articles
▁claims
:58
MS
▁preaching
▁Platform
▁schedule
▁Unfortunately
▁Automatic
▁vote
▁2003
▁earn
ph
▁comment
▁doctors
ites
▁losing
▁conflict
▁doors
▁border
06
▁inner
▁Five
tu
▁receiving
As
▁aluminum
▁h
▁angry
TS
▁museum
▁Tim
52
Let
▁requested
▁y
▁Fiber
▁wake
RE
▁measures
▁valid
▁Account
▁Latin
▁discounts
ID
▁Miami
▁procedure
▁locations
▁participants
▁measurement
▁pop
▁Rose
▁ocean
▁Enter
▁47
▁intelligence
SE
▁ordered
▁Pressure
act
▁Notice
▁UN
▁focused
▁saith
▁51
▁situations
that
ker
▁virus
▁edit
▁hole
▁bike
AC
▁artist
▁represent
▁danger
▁2)
ama
▁tonight
▁reaction
.[
▁roof
▁Self
▁Alpha
▁improved
▁Canadian
▁Trust
dic
▁tend
99
:01
cho
▁Budapest
▁entertainment
▁Length
▁ears
▁configuration
▁Always
:05
▁Pi
▁agreed
ky
▁69
▁afternoon
▁transportation
▁churches
▁import
▁snow
▁notes
▁mainly
▁angle
▁tips
more
▁surprised
▁turning
▁Content
▁Pipe
▁sing
MO
tin
▁tasks
▁followers
▁Wine
▁Developer
▁Islands
▁soldiers
▁boys
▁anyway
ev
▁tested
rate
▁availability
▁represents
▁Collection
▁perfectly
▁info
▁creatures
▁reservation
▁stands
▁emotional
▁CAS
▁2006
▁sheet
▁Shop
▁licking
▁Shi
mar
▁corner
▁fathers
▁Australian
yl
▁guestrooms
▁foundation
▁russian
▁bound
ification
ME
ini
▁Things
▁Season
▁explains
▁Train
▁lights
ria
31
ns
AR
▁Ja
▁Dad
▁stainless
▁Castle
SA
▁attend
▁Casa
PA
▁capture
▁Iron
▁supplier
3)
▁regularly
▁Dream
▁somewhere
▁motion
68
▁Production
▁deeply
▁promote
▁luxury
▁sake
://
well
▁Class
▁victims
▁Turn
▁clothing
▁personally
▁communicate
▁Empire
▁aircraft
▁runs
▁Run
▁Current
▁usage
▁profit
ff
book
▁detailed
▁customized
▁medium
▁souls
istic
app
▁bathtub
▁mirror
▁panties
▁context
De
▁Email
▁enterprise
Psalm
▁manual
▁ends
▁referred
▁Unit
▁Consider
▁FOR
▁Johnson
▁Athens
▁Nations
▁Suppliers
▁Touch
▁courage
▁Academy
▁communities
▁registration
▁Channel
▁Commission
▁witnesses
:3
▁Days
▁crisis
:46
▁Years
:49
▁expand
▁weekend
▁edge
▁desktop
▁07:00
▁Whatever
▁Baby
long
▁suite
▁Core
nes
▁artists
▁occurs
▁regard
▁tickets
▁Brown
▁Pan
▁Reserved
ez
set
ml
▁Ri
▁faces
▁aspects
▁despite
▁bringing
▁Operation
▁Log
▁allowing
▁Noah
▁comprehensive
▁toiletries
cha
▁DNA
41
▁buying
▁sugar
kin
▁dollar
96
▁Corporation
▁degrees
▁somebody
▁lighting
▁Euro
▁experiment
EN
▁Ru
▁pussy
ford
▁studying
▁Event
▁abuse
:41
▁Surely
▁Tea
▁Turkey
san
▁Despite
▁50%
▁implement
top
▁observed
▁pull
▁mostly
▁Training
91
▁stronger
▁displayed
▁detail
▁plane
82
▁arms
▁fitted
▁specifically
▁servers
▁techniques
▁stupid
▁sector
▁fundamental
▁VPN
TA
tech
▁agent
▁humanity
▁Manufacturer
▁traveling
▁sufficient
RO
du
▁achieved
▁Far
▁push
One
▁vital
▁API
▁consent
▁authorities
▁native
▁fault
▁forced
▁possibility
:55
see
▁Guangzhou
▁gathered
▁Henry
▁Intel
CE
▁roll
▁Mon
▁shoot
▁opposite
▁illegal
▁discussion
▁cent
▁Case
▁windows
OL
▁110
▁Cha
▁industries
▁ordinary
▁Ver
);
▁owners
▁Hav
▁corporate
▁stores
Who
▁politics
▁Fair
▁differences
▁educational
▁shit
▁regions
▁ear
▁clock
lon
▁Floor
▁Stone
▁guard
▁Samuel
▁Something
▁Shin
▁2.5
▁prophets
EL
▁HP
▁beings
▁sand
▁Force
▁Repair
▁controller
▁mail
Ã
▁accordance
▁WordPress
▁superior
ada
▁Voltage
fa
▁laugh
▁encourage
▁laid
AT
▁capabilities
▁ALL
ip
▁promises
:08
▁chair
▁slave
law
▁CNC
▁Che
IC
▁1990
▁2005
▁1)
▁Article
▁alloy
▁gate
▁certification
▁Student
▁Among
▁temporary
CO
▁Engineering
▁Olympic
▁Dis
▁extreme
▁ma
▁studied
▁writer
▁letters
62
▁Flat
▁director
AD
▁0.5
▁Front
34
▁proved
▁spy
▁Advanced
▁beat
EC
ud
ani
▁supposed
▁electrical
▁register
▁grand
▁desired
▁sending
▁typically
Our
▁establish
▁shut
▁interior
▁accuracy
SS
▁Based
are
▁farm
▁Booking
▁nipples
▁Swiss
:03
▁tongue
:57
▁se
▁election
▁risks
57
▁Bio
▁markets
▁prayers
▁extent
new
▁Within
▁regulations
▁Hu
▁gather
▁flower
▁murder
▁daughters
▁Recover
▁Library
▁Capacity
▁Story
▁SC
▁burn
43
▁putting
▁audience
▁Filter
oo
▁Jan
Th
▁collected
▁Poland
-15
▁Later
▁twelve
su
▁Sales
▁Isaiah
▁AI
▁tradition
▁Study
▁#1
▁Motel
km
▁category
▁Hat
▁net
▁Battle
▁acts
water
yu
▁component
▁slowly
▁breath
▁invited
▁elders
▁latina
▁east
×
▁rapidly
:51
▁extension
site
▁grave
▁Block
▁sisters
▁Organization
ons
▁Babe
▁examples
▁Israelites
▁Nor
▁Cell
▁normally
▁refused
▁resource
5)
MM
▁Living
▁fabric
inch
▁confirmed
▁calm
Luke
▁Action
DS
Flix
Co
▁72
▁Taiwan
00
▁extensive
▁era
▁household
▁Winter
▁Ukraine
▁Minister
▁Player
▁53
▁Chapter
▁applicable
▁neighbor
▁Samsung
▁PST
▁mistakes
▁deepthroat
vin
▁obtained
▁nobody
:56
\
▁walked
▁Author
▁civil
▁conversion
point
shi
▁Pump
▁spending
▁MB
▁salt
▁Files
wi
▁Truck
▁dishes
▁expert
▁truck
▁Net
▁mis
▁flashing
▁operated
▁180
▁Ti
list
▁suffered
▁Pattaya
▁academic
▁describe
▁score
▁Universal
▁Polish
▁OR
▁GPS
:53
▁massive
▁Hope
▁ironing
▁Talk
▁AShemale
▁midst
▁programming
▁Face
▁visible
▁Child
ney
▁Looking
▁squirt
▁horse
med
▁wet
▁developers
ery
▁philosophy
berg
▁Statement
▁sheep
tan
▁serves
ita
▁voyeur
▁Britain
party
▁Arts
▁granted
▁apostles
▁$2
▁Operating
▁Roll
▁planned
▁}
▁icon
▁beer
▁killing
69
ola
▁satisfied
▁literally
92
▁courses
▁Tuesday
▁pleased
▁studio
700
▁diameter
▁extended
▁favourite
▁Age
▁chapter
▁younger
▁requests
▁identified
▁Smith
▁Netherlands
:04
▁smoke
▁Round
▁imp
/1
▁paint
ku
▁institutions
Go
▁Sal
sis
▁°
▁orgy
▁brands
▁Short
▁Vintage
▁federal
▁Petersburg
▁2.0
▁Nature
▁Profile
SC
▁Beautiful
cing
ane
▁lord
ib
ple
▁excited
▁practices
ix
400
▁Luke
▁Off
▁Ki
▁lowest
▁Grade
▁56
ash
▁Gen
▁centuries
▁pair
▁wash
▁Behold
▁Cam
▁rejected
▁ST
▁department
ius
ea
br
▁Ga
▁Twin
▁bird
▁Mode
72
▁observe
▁54
▁fishing
Acts
▁replied
▁acid
ens
▁10%
On
▁Strip
▁fiber
LA
▁closely
uff
▁shame
▁throne
▁british
▁Van
▁blessings
▁controlled
▁tired
▁Del
▁enhance
▁increasingly
▁errors
▁zero
pcs
TO
▁kissing
je
▁laundry
▁Fu
SP
▁Wait
▁0.1
▁da
▁Aaron
▁Future
▁everlasting
”?
▁smooth
ySex
▁Technical
▁visual
▁mechanical
▁Par
▁liked
▁adding
▁mo
▁III
from
▁stick
▁ease
▁Dance
▁mighty
▁smile
▁portion
▁Portugal
▁elevator
▁EN
IS
▁alcohol
▁58
▁counter
ging
▁Tool
▁export
▁issued
Pro
:09
▁(10
▁submit
▁Boy
▁pride
▁Put
▁Shower
pt
▁Safe
84
▁Move
▁Revolution
:54
▁lifetime
▁therapy
▁aim
▁rose
▁wearing
▁compatible
▁LA
▁Leave
▁transmission
▁contrast
▁circuit
ay
some
▁obvious
▁wheel
▁Sub
ep
▁Edition
▁Blood
AS
▁consists
▁approval
▁heads
">
▁Too
▁Beauty
▁crowd
▁8,
▁reputation
▁Pen
▁frequency
▁lady
▁officials
:02
▁organized
▁Frank
▁Boston
▁stability
▁visa
▁Someone
link
▁trained
46
▁displays
▁immediate
▁consequences
▁sensitive
▁streets
▁hardcore
▁Thursday
63
size
▁belong
74
▁trains
▁logo
▁Football
low
row
▁quarter
▁lesson
▁collaboration
▁attractive
▁healing
gra
▁drinks
stone
▁broadcast
▁refer
▁providers
▁meals
uring
▁replaced
▁Chat
▁newspaper
▁stream
af
▁luck
▁BE
▁Actually
▁relatively
▁Driver
▁charged
▁conducted
▁deserve
▁Pharaoh
▁boxes
▁Pink
▁drivers
▁protein
▁Alloy
▁cheating
▁facility
▁Kitchen
▁significantly
▁Pop
▁thereof
▁broke
ag
ified
BA
▁Join
ue
▁Je
▁rare
▁professionals
▁GB
ever
▁Assembly
▁spa
▁Simple
rin
▁debt
▁contest
bb
Now
▁swinger
▁relations
▁Adobe
▁thickness
▁linked
▁drawing
▁Downtown
▁Posted
▁Fun
▁engage
▁electricity
uri
▁heavenly
▁broad
▁Pe
▁Printing
▁cooperation
▁celebrate
ona
▁assume
▁Door
▁possess
▁connections
▁Had
▁Terminal
▁sought
▁Overview
▁Package
▁Link
▁engineers
ng
▁abroad
MB
▁Rather
▁scan
▁dear
▁tower
▁adopted
cur
▁commonly
▁Financial
▁Testing
▁estimated
▁Sweden
▁deeds
dia
Can
▁ha
Con
▁commitment
tal
nal
▁hungry
val
▁Movie
IL
▁holds
▁Mall
▁boots
▁Shenzhen
▁basically
▁rent
gg
▁Pay
part
▁shouldn
▁mathematics
▁flood
▁demands
bin
▁Wikipedia
▁universal
▁speaks
▁platforms
▁assist
▁Seattle
▁cream
▁winning
ub
▁definition
right
log
▁Supply
▁keeps
▁Tree
리
uck
▁PP
▁pack
mark
-9
▁Hebrew
▁characteristics
▁Featured
fully
▁Solutions
▁Hence
▁creates
mit
fu
▁dying
▁marry
}}
▁damaged
▁recording
▁Victoria
▁Tank
▁investors
▁suicide
▁UV
LY
▁Revelation
▁None
▁Nice
Don
▁Jordan
▁Swedish
▁Thickness
▁Gi
▁minds
▁ultimate
TV
eng
▁Ku
▁1,000
▁expressed
▁Snow
▁Cold
tz
▁depend
▁foods
▁Magic
▁HOME
▁(6
pre
▁Better
▁trusted
▁RE
rated
▁array
▁unknown
▁historic
▁Certificate
▁Field
▁afford
▁st
related
proof
▁topic
ins
▁Week
▁hast
▁warranty
▁inch
▁partition
▁Christianity
▁repeat
BS
▁Hello
▁injury
▁producing
CA
á
▁extend
▁reform
▁packaging
▁yoga
▁Thou
▁Babylon
▁increases
ological
▁emotions
:52
▁Switch
▁reject
▁Sound
▁administration
▁gym
▁banks
▁Meeting
▁Bad
▁strike
▁SO
▁contemporary
▁iPad
▁deny
▁defense
▁merely
▁painful
▁requirement
▁adventure
▁naturally
▁explanation
▁vacation
▁investigation
▁joint
▁permanent
▁JR
▁raw
▁Lodge
▁gangbang
era
▁Module
▁Offering
▁covers
cc
▁continuing
▁Culture
▁360
▁productivity
▁assets
▁Bit
▁tab
▁keys
▁ME
mat
="
▁memories
▁Isaac
▁Executive
▁Hollywood
▁coating
▁PE
▁minister
▁kings
▁symbol
▁wholesale
▁Near
quality
art
`
▁funds
▁dildo
▁expansion
▁bbc
▁divorce
▁slightly
▁desires
▁valve
des
nic
▁commit
▁Firefox
▁index
ug
▁Stock
▁tied
▁Gar
▁branch
▁2002
NA
▁License
▁Marriott
▁bikini
▁incredible
tain
▁reveal
aki
▁origin
dis
Ro
▁Seven
▁indoor
▁Ice
▁Fashion
▁recovered
▁lying
▁hang
▁watched
▁blame
▁lovely
▁upgrade
▁Lady
▁Farm
▁integration
▁fucked
▁Early
▁moves
59
▁sir
▁reflect
▁calendar
▁inhabitants
▁missed
▁tough
▁MA
▁sexy
▁Limited
▁whenever
bed
pin
▁lucky
83
▁bridge
▁1999
tea
▁Value
▁Around
▁Eve
▁flights
▁IS
ken
dom
▁Parking
▁strategic
▁Cheap
▁scanning
▁(3)
▁Smoking
▁tiny
known
und
▁bondage
▁diverse
lar
▁Iran
PE
▁Kit
ami
▁blockchain
▁permitted
▁corruption
▁belongs
▁lessons
life
▁PCB
Hamster
▁ill
▁patterns
▁Nevertheless
sha
▁dynamic
▁moments
▁Estate
▁thick
▁Lock
▁220
▁cameras
94
▁resist
▁refuse
AP
▁everyday
▁worried
▁equivalent
▁Pack
▁Za
▁DE
▁fees
▁Tools
▁confirm
▁hire
▁threats
▁victim
▁lab
level
▁designer
▁Down
▁shift
sk
▁Sony
▁Remove
▁Ci
▁rejoice
▁Plant
▁shooting
▁resort
▁samples
▁tap
LL
▁Airwheel
▁aunt
▁obviously
▁adopt
“
▁Heat
▁Mike
5%
▁strive
▁Question
▁Hydraulic
▁Font
▁Blog
cher
▁Nobody
▁suit
▁preparation
▁Treatment
▁Listen
▁$3
▁Dead
▁Pet
▁Song
▁Scripture
▁oldest
▁jump
▁coast
▁enabled
▁tears
aka
▁0.2
▁Mor
ose
▁Youth
▁concerns
▁programme
▁Dark
▁Connector
▁Six
▁Fat
press
pm
▁precision
▁continuous
▁staying
she
▁shops
ux
▁Deep
▁disaster
▁detect
▁depression
▁Reservation
▁typical
▁Eastern
▁peaceful
▁relative
▁Return
▁0.3
▁neck
▁pantyhose
▁signals
▁Related
▁viewed
▁novel
▁provision
】
▁Florida
▁Furthermore
▁mouse
▁indicate
▁Sir
Oh
▁Faith
▁wave
▁Opera
▁films
▁invest
RA
▁poverty
gy
▁PS
▁Clean
▁robot
▁Sport
▁vary
▁argument
▁stepmom
▁Agreement
▁agency
▁copper
▁Camp
▁accessible
▁Bring
ao
▁bio
▁communications
▁Audio
▁territory
ture
▁outstanding
▁tracking
cent
▁label
ade
▁plays
▁Chrome
▁Federal
▁Wind
ations
▁reception
▁expertise
▁flying
▁Bear
▁Anyone
▁passengers
▁instruction
93
▁SS
▁professor
")
St
▁west
▁ads
ick
▁Packaging
▁Marine
▁teeth
▁exam
har
▁Soon
▁usual
▁makers
gate
▁centers
iz
▁Simon
▁Professor
Al
▁leg
▁exposed
cal
RS
▁Making
▁whoever
▁enjoying
▁renovated
▁agencies
▁breast
85
▁reservations
nm
▁split
▁survival
▁beloved
▁functionality
▁dirty
form
</
▁1970
▁Marketing
▁behalf
▁facing
NET
▁manifest
▁strengthen
▁Premium
▁bdsm
▁Entertainment
▁possibly
▁Thai
▁Excellent
▁cr
▁1980
▁Performance
▁Ab
▁Commercial
▁Yellow
▁tons
▁Rio
▁Others
▁printed
host
▁prophecy
▁awesome
▁debate
▁facts
▁technique
▁Memory
▁Basic
▁57
▁emails
▁blocks
▁Credit
view
▁furniture
▁Bra
▁infection
▁Except
▁IBM
▁›
▁consist
▁Original
▁kindness
▁desert
▁feedback
▁Devil
▁Psalm
▁acting
▁absolute
▁Gay
▁paradise
▁utility
▁extract
▁30%
▁reply
▁Until
▁zone
ball
87
▁maid
ica
▁Bu
.’”
▁satisfaction
▁implementation
▁99
▁rely
▁Pin
▁pet
nie
eo
▁rid
▁cap
▁Gate
▁safely
▁Item
▁grass
▁Medicine
▁defeat
▁Wednesday
▁Journal
▁sentence
zo
vis
▁craft
-18
▁choosing
▁quantity
▁DO
▁Meet
UR
▁generations
ice
bus
▁noted
▁lake
▁fantastic
▁complicated
▁Guesthouse
▁dating
▁Java
▁Bur
▁genetic
▁na
▁Wa
▁sizes
ai
▁3.5
▁convenience
▁predict
▁Remote
▁rescue
▁verse
friendly
▁wherever
▁(18
▁PR
action
▁corrupt
ei
▁Wireless
▁aspect
▁tall
▁Cookie
▁Form
og
▁designs
test
▁£
▁cuisine
▁shuttle
▁returns
▁argue
▁Wedding
▁rapid
▁mixed
▁elegant
▁entrance
▁sacred
ON
▁Manual
▁attractions
▁Daily
Getting
▁beds
▁Dress
▁1.2
▁fought
ign
▁Error
▁gear
▁cure
▁accomplish
▁removal
▁landscape
76
▁reign
▁Perfect
▁Payment
▁Fe
▁contained
▁Mexican
▁oxygen
▁friendship
▁shadow
ENT
▁Comments
▁Device
▁carrying
▁cooling
▁Jin
▁surrounding
ye
▁Orange
▁secretary
▁bill
dan
▁worthy
▁restored
-7
▁fulfilled
▁brethren
▁upper
▁governments
▁thankful
▁anybody
▁Ever
▁Lot
▁comprises
▁testimony
▁Due
▁dealing
ette
▁chart
▁supporting
▁Coast
▁Compare
▁06:00
zi
ight
Matt
▁organic
▁confident
▁strategies
▁Chemical
▁Northern
▁□
▁dining
▁ratio
▁environments
▁exhibition
oz
▁95
▁illness
▁officer
▁Built
▁ultimately
gan
▁sp
See
▁Foreign
▁Capital
NO
▁noticed
▁expectations
▁proposed
▁Sweet
▁【
DA
▁exclusive
ella
▁Range
▁fifth
▁assigned
story
▁scared
▁lock
▁prayed
ET
▁Sensor
▁Fabric
▁Mal
▁officially
▁Cho
She
PO
▁Soft
▁Fort
▁Manchester
▁Diamond
▁Stadium
win
ren
▁waters
▁aside
▁react
▁pregnancy
▁senior
▁prize
▁Southern
▁yeah
AN
▁string
▁Jim
▁occasion
▁Woman
▁harder
New
▁legs
▁Prophet
▁Theatre
▁attended
▁painting
type
▁chicken
town
▁Bag
GA
▁recognition
▁thirty
▁shaving
▁housewife
▁trans
ec
▁eliminate
▁Turkish
▁designated
▁weapon
▁alarm
▁Louis
150
▁celebrity
▁altar
▁Ju
▁Release
ants
▁romantic
▁supplies
▁housing
▁XP
▁HClip
▁ought
speed
▁advantages
▁consumers
▁Base
scale
▁Load
▁Cathedral
▁yield
▁forecast
▁silence
ene
▁Updated
▁7.
▁acknowledge
▁85
▁gained
▁pa
Is
▁mix
▁PA
▁Mu
▁falling
-16
▁residents
▁finance
▁Finland
DC
place
▁container
▁Villas
▁Alex
▁strongly
made
▁♪
▁adjust
▁causing
▁cartoon
900
▁Output
▁finger
▁Course
▁WiFi
47
▁claimed
Your
▁Chris
▁1960
▁ES
▁cats
▁Joe
▁balcony
▁Surface
▁Andrew
▁unusual
▁Bre
▁treasure
▁Economic
€”
▁Gospel
▁modified
▁Legal
▁kg
▁phones
ob
▁Istanbul
▁comparison
▁gaming
▁relief
▁contribute
▁pin
▁Connect
▁Made
▁Prime
▁Austria
TH
▁Discover
▁Ministry
▁cried
▁Title
len
▁Clear
▁distributed
▁Valve
▁Apps
▁Edit
▁colour
▁discussed
▁relax
▁beliefs
▁award
▁fool
ala
▁Memorial
▁Ca
▁`
▁exit
▁¥
▁cm
▁searching
▁suggested
ros
▁decade
play
▁Waterproof
▁inspection
▁20%
▁genuine
▁paying
▁soil
▁employee
▁objective
wan
▁Direct
▁Rate
▁crew
▁Nu
▁artificial
this
▁Supreme
▁iPod
▁Vienna
▁wives
▁depth
▁Yo
▁Wheel
▁fallen
▁Male
RI
▁plug
▁grain
▁festival
▁par
▁Rating
▁encounter
▁adapt
▁Hours
▁Messenger
La
▁cooking
▁Plate
LS
▁commands
▁Questions
▁FREE
▁editor
cast
▁SA
▁creature
▁Hostelworld
▁WEB
▁sum
hand
▁lamp
▁directory
▁handling
war
▁Palm
▁trend
▁Stand
▁Bluetooth
▁fruits
▁bride
▁Wife
▁—1
▁discipline
▁Bob
▁Ye
▁brief
▁rail
▁Tech
▁Lisbon
▁buried
-30
▁Sand
▁Sheet
▁Angel
▁rated
▁universities
▁baptized
ida
▁EUR
▁winner
▁minus
▁700
PS
mate
▁du
▁gospel
▁Bottle
▁originally
rum
▁Played
cy
▁travelers
▁Pope
▁addresses
par
non
▁harvest
▁giant
▁Final
▁viewing
▁Vista
▁ignore
▁habits
▁Band
nu
-13
table
▁regret
▁multitude
▁burden
▁Ken
Hz
▁delight
▁Users
vy
▁Ring
▁Sin
▁generated
An
▁Orlando
▁improving
▁Frame
97
▁contents
▁Skin
BC
ell
▁measuring
RP
▁directed
zu
▁burning
▁Active
▁terrace
▁Besides
▁Madrid
▁estate
0°
▁guilty
▁pounds
TP
▁vs
▁Instant
▁admit
▁generate
ata
▁invite
▁surrounded
including
▁Info
▁translated
▁silent
▁taxes
▁Dec
py
▁bonus
LO
▁reliability
▁Rubber
▁duration
▁Xbox
▁transform
▁Common
▁plain
▁Anna
▁59
key
▁sinners
▁delay
▁refers
▁minor
▁Georgia
▁bow
ora
HO
▁Yesterday
▁Blonde
·
▁dressing
▁awarded
▁heal
▁Classic
zz
▁latex
aries
▁necessarily
▁rubber
▁Results
amp
▁passing
▁Member
▁thin
▁Got
▁chocolate
▁intellectual
▁Major
()
▁eggs
▁Less
▁Ray
▁Indonesia
▁babies
▁vacuum
▁limits
brand
▁Hungary
▁po
▁Kan
▁posts
▁Flowers
▁Average
▁pursue
▁formats
▁anointed
1.5
▁patience
▁Cutting
▁smartphone
▁row
▁preach
▁tri
▁TS
month
▁union
▁difficulty
▁Mail
▁1.6
Then
▁functional
▁agents
▁Avoid
▁Learning
▁domination
▁Princess
▁Allow
▁Much
▁pm
▁boss
▁believes
ction
▁tape
▁3)
▁ingredients
▁350
EX
▁Division
▁Himself
▁Fi
▁Cal
▁×
▁faced
▁graphics
▁ships
▁Mont
▁warned
▁instrument
▁Philippines
▁compliance
▁containing
▁loud
▁uncle
RC
▁gambling
8%
mg
▁adds
▁edition
73
▁whore
PM
▁Bro
▁optional
▁newly
▁Forest
▁drawn
▁Steve
▁10,000
▁consumer
▁conscience
▁struck
▁subway
▁Portuguese
▁Die
▁goodness
▁humble
▁transition
▁lands
3%
▁Ass
▁enormous
www
UN
▁cook
▁1998
▁revolutionary
ks
▁Supplier
Pa
▁tourist
▁Syria
▁strict
▁sees
▁therein
▁Jeremiah
▁Crystal
▁qualities
▁exposure
▁Couple
▁Dog
▁bearing
▁3.0
▁employment
ians
▁hero
ö
▁ON
▁tennis
▁ASTM
▁Railway
▁neighbors
▁captured
▁crying
▁Kings
SD
▁represented
▁conclusion
79
▁forgot
read
▁Metro
▁opt
int
▁relation
▁1995
▁PRO
tsu
▁1996
▁”
▁officers
▁Host
ties
▁Gardens
▁denied
▁intense
ado
▁Jackson
▁regardless
▁Genesis
Box
▁Studies
IA
▁fulfill
▁Lion
▁presentation
lock
▁freely
ori
▁association
▁1997
▁Bath
▁130
▁160
▁ban
▁Cur
▁Mars
▁BC
▁teachings
▁meter
▁Prayer
▁arise
▁singing
ew
sta
▁cuckold
▁tutorial
▁entering
lie
▁transaction
▁thread
▁flag
▁Forum
▁procedures
71
▁ho
core
▁Materials
▁prime
▁Cover
▁somehow
▁compact
▁bless
▁certified
▁chip
▁rice
▁Jean
▁define
▁compassion
▁Venice
▁Dar
▁arrested
▁Mill
▁Miss
▁Ve
▁Certification
▁Toronto
▁Message
▁cousin
▁sauna
▁accessories
5,000
▁Iraq
▁Elizabeth
▁66
ati
▁violent
Proverbs
▁Ser
▁circle
▁habit
▁urban
▁Construction
gue
▁membership
▁pan
▁regional
eb
▁7,
▁defend
▁Disney
▁sequence
nch
▁Virtual
▁positions
▁Fall
run
▁steal
▁integrity
▁Val
▁Shipping
▁differently
sp
▁stations
▁Cut
▁ceiling
▁weren
▁pissing
▁(4)
▁SE
▁involves
▁encouraged
tch
▁doll
▁performing
▁bones
▁68
▁indian
▁Amsterdam
▁categories
▁Everybody
▁exceptional
▁script
▁mount
▁consult
▁%1
▁instruments
▁Lights
▁Bell
▁suggests
gin
▁Mass
▁Weather
▁upskirt
uc
▁gloves
▁Track
▁fitness
▁>>
▁exception
▁supplied
▁lens
▁ffm
▁checked
▁statistics
▁Dragon
▁marked
▁matches
▁Eye
-17
▁Op
ira
▁microwave
6%
▁Joshua
▁Portable
▁fastest
▁Voice
89
250
▁deeper
▁resolve
▁introduction
▁cinema
▁gender
▁controls
2.5
▁introduce
▁Grey
▁Packing
▁converted
▁Sample
▁resulting
▁RO
120
▁sa
▁dropped
▁seduced
▁(7
▁preserve
▁Lighting
▁hasn
▁Rod
▁loan
▁Military
▁spanish
▁mere
▁RS
▁affordable
▁Tan
▁Gun
which
▁Er
▁Inch
▁protocol
▁subscription
▁Sh
▁northern
▁consciousness
▁Scott
▁vi
UM
▁AS
▁Resorts
FA
ister
▁colleagues
▁filling
▁2:
▁Wild
▁narrow
▁Dollar
▁talent
▁priority
▁appeal
1%
even
▁precise
▁tablet
▁Mega
▁Ram
▁transformation
how
▁skill
▁Foot
▁troops
Well
▁pot
▁SCP
▁bedroom
hal
Yes
Man
▁democracy
▁independence
▁literature
▁Visual
▁cam
ulation
SI
▁fake
▁structures
ify
▁Tar
DI
▁Awards
▁measured
▁equally
▁CS
▁outcome
▁Vehicle
▁delicious
▁concrete
▁Female
▁Transfer
▁teaches
▁Brother
▁Bush
hotel
▁cake
▁Photos
vert
▁bags
▁stages
▁piercing
▁radiation
▁Fine
▁RFID
bel
▁Indoor
▁Zone
▁thermal
▁shock
▁HTML
▁Ban
▁Following
late
▁differ
▁Alexander
ae
▁Usually
▁powers
ments
pl
/8
▁1.0
Ma
▁Matt
▁62
▁modules
▁featured
▁Ultra
▁fate
sky
sur
▁Taxi
yn
ack
zer
▁Fund
▁grant
▁harmony
▁peak
Ha
▁steam
▁criminal
var
▁cancel
ax
lit
▁Adult
▁luggage
▁wrath
▁ugly
▁indicates
▁Left
cu
▁Springs
▁Mission
▁physically
▁stones
▁lo
-01
▁devil
▁Lin
▁{{
Are
▁Process
▁Galaxy
▁Section
▁downloads
▁partnership
hol
▁burned
▁Massage
▁earned
▁1991
트
▁Mesh
phone
▁mold
▁1:
Genesis
▁naked
▁spare
hy
born
▁Phil
avi
xi
IM
▁Volume
▁bond
▁Additionally
▁coach
▁endure
▁Wholesale
▁reduction
▁impressive
▁copyright
▁Between
▁commission
▁Rental
▁asks
▁Lost
▁Friends
ving
ika
roll
Where
▁praying
-14
4%
illa
▁humor
▁column
▁Jones
▁amounts
▁improvement
▁63
▁musical
ess
gle
▁shine
▁Administration
▁fridge
▁Kyoto
▁beast
▁Ed
▁Steam
▁ages
oon
▁Chip
▁hall
▁invitation
▁HOTEL
▁inheritance
▁Carbon
▁payments
▁3000
▁Fa
6)
▁Girls
ense
making
▁guided
▁Deluxe
▁jeans
▁bi
▁Dublin
▁reducing
tes
burg
▁awareness
▁maintained
sol
▁Gift
▁pink
PP
▁Lamp
▁IC
▁NA
▁meaningful
▁AD
▁Ze
▁Controller
▁Desktop
▁storm
▁Options
UL
▁proven
city
▁Heritage
▁innocent
▁jerking
▁Chief
ski
▁printer
▁engaged
oid
▁czech
▁console
▁appointment
▁engines
▁AT
ui
▁refund
▁clothed
▁dispute
▁reaching
▁wishes
▁importantly
▁concentration
▁spouse
의
▁driven
▁productive
▁1992
av
Cafe
▁honey
▁elsewhere
hua
▁mate
▁convinced
▁patent
▁Va
▁GOD
▁Marina
▁Argentina
▁fisting
▁dual
▁boost
▁http
▁Uh
▁division
▁poly
▁Install
ero
▁Used
yan
▁Bor
▁Answer
▁Currently
▁Comfort
▁responded
▁bacteria
▁replacement
▁Hold
▁Customized
▁executive
tur
▁instant
▁tracks
▁parameters
▁couples
▁rising
▁fairly
▁tent
▁mathematical
▁Regular
▁copies
str
▁convention
▁Components
▁terminal
▁Costa
most
▁Solution
called
▁sensors
elle
▁Romans
isation
▁HE
▁Command
▁sofa
▁Manhattan
▁Mid
▁Secure
nan
put
▁screw
▁consistent
▁shoulder
▁Mat
ric
▁contacts
▁roots
▁primarily
▁contrary
▁applying
▁Ber
▁fl
/10
▁preparing
▁wilderness
▁southern
▁APK
▁NY
sion
▁largely
▁refrigerator
▁packing
▁produces
▁Environment
▁Eat
▁upload
ese
smoking
▁MI
▁lips
▁Emirates
▁Featuring
▁asset
▁wooden
ima
▁analyze
▁140
▁Ali
mb
▁challenging
▁diversity
▁healthcare
▁comply
▁infected
▁Settings
▁retain
sch
▁Milk
▁charges
▁elected
▁Ph
▁Insurance
▁crucial
▁simulation
▁remarkable
▁stuck
▁Together
▁Fan
Mo
▁apartments
▁twin
▁Rated
▁lifestyle
▁cave
▁EX
▁Fear
▁connecting
▁possibilities
▁sperm
kw
▁(8
▁Tourism
▁Poly
▁mar
▁manufacture
pri
▁Stage
/2
▁separated
being
BO
▁examine
▁incident
7)
▁Print
rk
▁belt
▁Coin
DE
▁et
▁Sexy
▁flexibility
▁Theater
▁submitted
▁protecting
▁begun
▁divide
▁campus
▁12:00
▁breakfasts
ration
MI
▁discovery
▁1994
▁consideration
load
▁simultaneously
▁su
0.00
▁suspect
▁Kar
▁Machinery
▁miracle
▁subjects
▁Upon
0.0
ATION
Com
▁1950
▁clicking
▁existed
▁combat
ION
▁believing
▁inspiration
▁Sta
▁invented
EM
▁attached
▁CPU
bra
▁1989
▁boobs
000
▁Denmark
▁logic
▁Maximum
▁Sleep
▁Condo
▁concepts
▁Cost
▁western
▁remind
▁specialized
▁initially
▁Further
～
▁Accessories
CM
▁Almost
▁Fish
▁width
▁Fuck
77
▁lu
▁61
▁execution
▁torment
▁Prize
▁Tai
▁SSD
1000
iness
▁cfnm
ular
▁Cas
Name
HD
get
▁representative
▁Environmental
▁Vol
▁breaking
▁combine
▁criteria
▁computing
▁formula
mes
▁("
▁Wide
▁sheets
▁Window
▁Apart
▁Den
▁boyfriend
ele
▁consume
▁childhood
will
▁opens
▁Sch
▁Match
▁transactions
▁Ac
▁gathering
▁revenue
▁Bathroom
▁tables
▁BA
▁qualified
ü
ther
78
▁processor
▁proximity
▁Heavy
▁extraordinary
▁islands
▁inform
▁invention
▁managing
▁implemented
▁Mer
▁NAS
▁offerings
▁Write
▁farmers
▁admin
▁alert
▁corrupted
▁Ji
▁injured
▁Trans
▁developer
ram
▁Events
KW
▁Sciences
▁Cafe
▁tag
▁bars
▁j
▁acceptable
▁Complete
ening
▁monthly
▁stats
▁vegetables
▁Pad
▁Electronics
ale
LI
▁mad
▁EC
▁bicycle
▁Diego
▁mg
▁stack
▁Freedom
▁tech
▁kiss
▁integrate
▁Mag
▁offices
▁Ash
away
-0
▁possession
OT
▁tungsten
▁Brooklyn
▁headquarters
▁preferred
▁tribes
▁specify
08:01
▁365
▁shy
Time
▁Height
▁bone
▁operator
qua
▁WE
fish
▁Houston
▁Shemale
▁trends
▁Imagine
▁Dear
▁expanded
fire
▁journal
▁96
▁remembered
▁indicated
▁lets
▁Innovation
▁globe
220
▁robots
▁processed
▁disc
▁Usage
▁disappointed
▁semi
▁Lead
▁correctly
▁publication
▁lawyer
2%
▁tunnel
kan
▁1.8
▁Harry
▁pace
▁Often
ency
▁sudden
▁loose
▁considering
▁Mario
TE
▁000
▁loyal
▁Belgium
▁laboratory
vent
▁Tor
▁clouds
▁biological
▁downloaded
▁1993
▁reviewed
▁Hub
▁erotic
▁Scan
▁Vacuum
▁dick
▁MT
good
▁Blu
lor
▁abilities
▁VR
lum
such
ily
▁entitled
▁committee
▁valley
▁Captain
▁Planning
▁Expo
fe
▁Property
▁affairs
▁blend
▁mechanism
▁boot
▁insight
▁eaten
▁Parliament
TION
▁Than
▁101
love
▁Sen
▁Agent
NC
▁executed
front
▁98
▁gardens
RT
▁cattle
▁Bal
▁Bang
lia
▁demonstrate
▁outer
▁Must
▁machinery
▁ro
▁1.1
▁anxiety
▁talks
▁Otherwise
▁gradually
9%
▁Cu
▁Muslim
▁AR
▁portable
▁crack
high
ico
▁transferred
AA
▁scooter
tte
▁shell
hood
▁theater
meter
▁settled
fin
ches
▁22,
▁setup
▁variable
▁1200
mic
▁Cultural
▁Emergency
▁creativity
▁empire
▁tournament
▁Eli
▁Monitor
▁Unlike
hotels
▁scheduled
van
cat
▁engineer
▁forming
▁votes
▁quit
▁wanna
▁capability
.*
▁wallet
ld
what
7%
▁touched
eu
▁Almighty
▁Several
Not
▁clinical
▁trigger
▁percentage
LC
▁blow
▁0.6
▁Roses
▁Specification
▁premium
▁cookie
▁loyalty
▁mood
▁Editor
▁horses
▁fails
▁Race
▁hiding
▁golden
▁Ford
▁covering
aff
▁verify
▁essentially
▁documentation
date
▁somewhat
Romans
▁directions
▁guaranteed
▁virtually
nce
▁complain
▁Nick
▁Different
▁palace
world
Free
▁commandments
▁confused
▁assessment
▁arrest
▁para
▁gene
▁Chang
»
▁hat
▁Egyptian
▁Secret
▁conditioning
▁disappear
▁declare
olo
ened
▁slaves
▁dur
▁folks
▁MO
▁Meanwhile
▁scope
▁Export
로
▁Justice
▁roller
▁Copper
With
▁relatives
▁besides
ct
▁Bali
cam
▁Chain
▁Contacts
▁hill
▁Inside
▁Testament
▁Trinity
▁Diameter
▁Civil
▁nose
rian
▁Jane
▁fled
▁Defense
▁neighborhood
▁underground
▁forty
▁Unless
▁wings
▁Build
▁TA
▁reverse
▁Converter
ato
▁sq
▁Witness
▁accomplished
▁immune
CS
▁Introduction
▁Phuket
▁falls
▁Vision
cus
▁connector
▁Sim
hai
▁repeated
▁Dong
DR
▁Tab
▁Teacher
▁ate
▁overseas
▁detection
▁fingers
ali
▁gap
▁savings
▁80%
▁joke
▁loop
MC
▁browse
▁20-
▁completion
▁satisfy
▁coin
▁formal
▁Printer
▁«
ory
▁LTD
▁decrease
▁centrally
▁privilege
▁2,000
▁Opening
▁potentially
▁Dual
At
▁founder
▁Arabic
▁Lane
▁dancing
▁ownership
▁hated
▁Delete
▁layout
oma
ituated
▁Phase
▁Eco
DM
▁holes
ute
pan
▁analytics
▁호텔
▁dies
▁temptation
▁86
▁tip
Isaiah
▁Navy
mus
▁seventh
▁survived
iah
!!!
▁arab
▁Input
TER
▁90%
IR
mel
▁maintaining
▁Challenge
▁heritage
▁coal
▁clit
CL
160
Le
▁Label
vers
rn
KB
inter
-02
▁Embassy
▁doctrine
▁vibrator
▁Dropbox
▁supplement
▁concert
▁welding
▁instantly
dent
▁Lab
▁coat
▁Acts
▁SQL
▁84
▁Visa
▁seats
▁fa
▁Eden
▁\
▁Virginia
▁Pick
▁Il
▁NEW
▁Corporate
▁ONLINE
▁boasts
▁Obama
▁Agency
nny
▁Morning
▁italian
▁FAQ
▁framework
▁Beeg
▁punish
▁Nov
▁physics
matic
▁corresponding
CT
ris
▁sorrow
▁Explore
5°
▁Fetish
▁nervous
▁mystery
▁pollution
▁Hitler
▁civilization
▁Monster
▁packages
▁wars
▁graph
▁Guard
▁affects
▁bull
lot
▁beam
▁Frequency
▁iTunes
▁brown
▁PornoX
▁composition
▁humidity
▁Ancient
▁ski
▁sustainable
▁Thy
▁figures
▁ending
code
▁Bel
mal
▁Minh
▁Rich
▁bomb
▁304
▁holidays
By
▁residence
▁automation
▁Cinema
▁adapter
ven
▁Categories
0000
▁impression
▁interact
▁optical
▁Applications
▁acquired
▁Isn
▁Person
▁automotive
▁Yodot
Un
▁plot
care
▁mining
PT
▁Index
▁difficulties
▁Points
▁Cute
▁crystal
▁Eric
▁(15
▁Hairy
▁returning
▁listened
kh
bri
ox
▁mat
▁125
▁imagination
pen
▁Bonus
©
▁van
▁str
▁PU
wing
▁breathing
izer
▁Flight
▁Parents
▁Ross
fold
▁Friendly
▁Rev
▁Frankfurt
▁tremendous
▁queen
▁sc
▁Tomorrow
cia
▁promotion
▁Hor
▁Strategy
▁acquire
▁crown
▁egg
▁passes
EP
▁Specifications
▁Cancer
▁guns
▁Drinks
▁Hy
▁algorithm
▁Milf
▁execute
▁Reading
▁Tax
▁Tips
▁damn
▁Downloads
▁Raw
▁gr
▁attacked
▁Prices
▁ongoing
only
▁closing
▁Akamai
▁Translation
▁Resolution
▁Daughter
power
SH
cut
▁Ways
sign
▁Feel
▁cluster
▁PO
rio
▁vessels
▁VI
▁papers
▁insert
▁82
lm
▁climb
▁0.4
▁Xi
won
▁Pages
▁Mad
/15
▁beneficial
onic
▁Backup
▁Half
▁delivering
▁brush
who
▁Ly
▁owe
▁im
▁efficiently
▁experiencing
gre
▁Warranty
del
/4
ena
▁disabled
CP
Gen
▁Mel
▁des
▁cease
▁pilot
▁publicly
▁informed
▁Advertising
▁DA
▁Stephen
▁Sar
▁speaker
▁mess
▁Beer
▁continuously
▁preached
▁Text
▁Temp
▁Nan
card
▁appreciation
▁immigration
▁Finance
state
▁personnel
▁seal
▁keyboard
▁94
▁97
▁Method
▁Wave
▁perish
▁fears
▁signature
▁Extract
▁flu
▁900
▁welcoming
-25
▁Menu
▁rod
lay
▁Boat
▁Same
rah
▁Virgin
▁worker
▁juice
▁Tagged
▁interactive
▁Hol
Other
IVE
▁formatted
▁2001
▁Communication
▁arrangement
▁Robot
▁Sense
▁routine
▁max
▁VipTube
▁racing
▁latter
▁networking
▁navigation
▁passport
▁modify
▁contribution
▁permit
▁surprising
iest
▁u
▁Focus
▁batteries
▁Interface
▁Published
▁(12
▁jail
▁puts
▁reaches
▁Believe
▁trials
▁128
▁Olympics
▁Founded
days
hard
▁Tap
▁Rotary
▁coverage
century
*1
▁Zoo
lam
via
▁Sri
▁Partner
▁Additional
LT
▁operates
▁Philip
▁Francis
▁principal
▁technological
▁vulnerable
▁Alliance
▁socks
▁Comment
▁religions
gram
SM
▁carton
▁Mt
chu
ole
▁Puerto
▁Circuit
ising
▁pe
ili
gsm
ear
▁density
▁Arm
▁Ur
▁Theme
▁mesh
▁mortal
▁endless
▁writers
▁Qur
▁diabetes
▁Creative
▁oath
▁4.0
▁behave
Revelation
▁Ready
oni
▁tourists
▁Pakistan
sel
▁unexpected
▁bookings
▁Chile
under
▁asleep
las
▁span
Gu
▁cheese
▁Columbia
▁Budget
▁Tna
▁jacket
ase
▁continually
▁poll
fo
▁rough
▁secrets
▁Oct
bal
▁operational
▁Kh
qu
▁Cash
ef
▁manufactured
reg
▁topics
▁DELIVERY
▁FLOWER
▁Jersey
▁VMware
▁evaluation
▁spray
▁1500
▁conscious
▁accommodate
vid
▁streaming
▁folders
▁demo
▁Mind
▁distinct
▁Antonio
ova
▁announcement
▁reader
▁assistant
▁breathe
chen
▁2.4
▁meets
▁Col
▁Ave
▁Roller
AH
▁disappeared
▁thine
▁parallel
▁portfolio
▁psychological
▁feast
ake
▁Secretary
▁hub
stra
▁examination
・
▁towns
▁assured
▁sole
▁Edge
yang
ient
▁opinions
▁Watchtower
▁Discount
FC
▁managers
▁Similarly
▁whereas
▁trap
▁Logo
ups
▁leisure
▁formation
▁archive
▁Registration
▁Electrical
▁crash
▁sixth
▁Reserve
▁header
verse
▁AP
master
▁regime
▁designers
▁Tro
▁strain
-24
▁Screw
▁influenced
▁fulfillment
▁ark
▁Para
▁Bon
▁harmful
AGE
▁Signal
▁translate
▁Loss
▁quote
▁institution
▁attempts
▁foam
Ho
▁Ok
▁Apply
▁Vo
▁Login
▁FI
▁Cape
í
▁pit
▁ensur
▁logical
▁Premier
vel
▁movements
OP
▁FL
▁Automotive
▁Magazine
▁ladyboy
▁Installation
▁thereby
bert
▁Knowledge
▁devoted
▁incredibly
▁ruler
▁Championship
▁lasting
▁Pure
▁brilliant
▁binary
▁reminder
▁Chair
▁airline
▁clip
▁picked
▁dare
▁armed
▁liver
▁3*
▁Request
▁Fox
▁Client
▁experiments
▁injuries
ography
-21
▁Overall
▁Albert
ett
▁abandoned
▁oh
▁Irish
wer
▁random
▁rear
▁Gra
▁passenger
▁Zen
▁Companies
▁Scotland
▁behaviour
▁repentance
▁Cookies
GE
▁rivers
▁reserve
▁Route
▁teens
▁wheels
▁guilt
lat
▁african
NuVid
▁Investment
▁Daddy
▁weird
▁downtown
▁Success
shan
▁Cast
▁login
▁stroke
▁Bike
App
▁Cool
▁Zo
▁sorts
.99
▁graduate
▁emissions
▁statements
▁Hidden
▁chinese
▁obedience
▁Messiah
▁Adults
▁offspring
▁commandment
BI
ava
TI
▁automated
▁88
▁coins
▁raising
▁nearest
▁stem
▁Month
▁2.1
▁IV
▁CAD
▁2015,
▁Salt
▁pets
ule
stic
▁Afghanistan
▁bisexual
▁MY
rick
▁le
lt
tis
▁Solid
▁marks
▁burnt
▁ports
▁Branch
edge
hn
8)
▁Distributor
▁Taipei
More
▁FLORI
▁Granny
▁admitted
▁Mrs
▁isolated
band
mann
▁Officer
▁reveals
▁Hide
▁Strength
PR
▁funding
%)
▁tribe
▁prominent
DP
▁cyber
▁Analysis
▁deck
00,000
▁temperatures
wear
▁hunger
piece
▁Password
real
▁cultures
▁settle
▁Tra
hole
▁Benjamin
▁optimal
▁delivers
▁ta
cra
▁feeding
▁thrown
▁Certainly
People
face
mont
▁92
pha
▁SMS
▁pastor
Po
▁washing
▁spiritually
▁translator
▁Neither
▁orange
ets
▁Grace
▁clubs
▁tension
▁Connection
uro
ska
▁layers
OC
ans
▁balanced
▁anniversary
▁facesitting
▁coupon
▁Fuji
-22
▁GO
▁wins
▁Posts
{
▁Recently
▁opposed
NT
iff
▁Hills
▁CP
▁shield
▁compete
sc
▁Spy
▁wa
▁flee
▁stunning
▁paragraph
▁Norway
▁decoration
▁Flow
take
▁interpretation
▁Ton
▁Ol
▁writes
▁apparently
▁ABS
▁stranger
▁welcomed
▁strictly
▁embrace
▁2.2
GO
▁accommodations
▁swim
▁te
▁royal
▁opposition
▁orbit
▁waves
▁Cons
▁confirmation
▁Explorer
PL
▁recall
▁BBC
▁73
▁Zion
▁LC
▁chances
▁Ski
▁77
ender
▁aged
▁Oracle
▁Driving
EE
▁Cisco
▁earthly
▁cl
▁gravity
AB
▁Anyway
▁Bearing
ded
▁Copy
▁customs
▁Sure
▁swap
▁MD
▁Ag
▁installing
ique
▁ruin
▁receives
▁aggressive
▁Degree
▁charging
▁citizen
LM
▁06:15
▁treatments
sex
lim
++
▁codes
▁demons
▁dimensions
gh
”)
▁Fabulous
▁unlimited
▁funeral
▁Chamber
▁Hebrews
▁Brian
hill
▁shares
▁flock
▁Saudi
▁impressed
rac
▁Picture
▁actively
HA
ula
▁Feature
▁Oxford
jin
▁scientist
▁injection
▁penis
▁Members
▁abide
▁checking
▁sharp
▁Sc
tta
pic
American
▁ra
Come
ically
▁mono
yama
▁Constitution
▁legitimate
▁unnecessary
▁losses
ANG
▁Tin
▁wondered
▁Hit
▁cylinder
▁Depend
▁complexity
▁Jet
▁pocket
aga
group
▁Drop
▁manually
▁retail
▁Rain
▁Pu
▁favour
001
rid
▁Communist
▁Zurich
▁Fo
▁composed
bot
▁1.3
▁chemicals
ied
▁z
▁plugin
▁precisely
▁organize
▁GA
▁screaming
▁0.7
▁employed
▁Count
ii
▁participation
▁transparent
▁ashamed
▁intend
rich
▁fund
pp
▁Monte
▁Figure
▁Alice
▁fi
<
▁th
pos
▁shake
▁notification
▁cheaper
110
▁Atlantic
▁Lincoln
▁facilitate
▁Strong
▁Democratic
▁audition
▁Mai
▁classroom
▁DS
nit
304
▁Dell
▁threatened
▁Continue
▁HTTP
▁guitar
▁involving
▁legislation
▁provisions
▁thai
ony
▁CAN
▁13,
▁Traditional
ult
▁specifications
▁5%
service
▁76
▁involve
NS
▁tomb
uch
▁UPS
FT
▁brave
▁locked
▁0.8
far
▁suck
▁External
▁fifty
▁railway
USD
▁UL
▁Adventure
▁Expert
▁advise
IG
▁announce
▁**
▁honour
girl
▁Path
TC
▁AL
▁twins
▁Trip
ATE
▁2011.
▁Tits
▁1920
kel
▁CR
▁prostate
▁89
▁council
▁multiply
▁prisoners
.[1]
▁substance
▁revelation
▁Adapter
▁2012.
▁focusing
▁hyper
▁plague
try
▁curse
▁Pra
▁absorb
▁verses
▁associate
▁^
▁hydraulic
▁tissue
▁travelling
▁Steroids
▁DIN
EA
▁politicians
exe
▁Sy
▁ju
unk
▁Gran
zy
▁sessions
▁disorder
ivity
page
▁dimension
▁Animal
▁$5
channel
▁arts
▁solved
▁ob
clock
bat
▁virgin
▁Imperial
▁banned
▁stake
▁Ob
▁Response
▁newspapers
▁deaths
wide
iya
에
▁pioneer
▁Williams
▁editing
▁kit
▁vice
▁pitch
▁nun
▁dependent
▁destiny
▁encryption
▁Cabinet
iel
▁67
▁Sarah
▁Cook
dor
▁14,
ONE
▁filters
From
aku
CI
▁nights
park
▁aims
▁Instagram
▁Leather
▁Islam
IO
-23
▁(16
▁planets
▁crimes
▁seeds
▁uh
tter
▁LG
▁condom
marital
▁Awake
CR
▁Arena
▁render
▁penalty
▁Blowjob
▁lobby
2000
▁respectively
▁Risk
▁Hua
▁fewer
▁stops
open
ONG
▁Boulevard
▁vector
▁Federation
▁devotion
▁Ground
▁Import
▁RGB
▁4)
▁concluded
▁idols
▁perfection
▁attending
▁16,
▁tail
arm
▁Manufacturing
una
▁Flood
▁vertical
▁poker
▁Pat
store
▁spaces
▁voters
▁mothers
▁Bathrooms
lf
bol
▁arranged
▁distress
▁tries
▁Emp
▁spots
▁dwelling
case
▁Ch
▁sophisticated
▁wrestling
▁grandmother
▁passionate
▁pointed
▁destinations
▁tender
pad
▁0.9
▁hits
▁Tony
▁Hour
▁fluid
▁volunteer
▁Function
▁70%
▁li
‘
▁contributed
▁drag
▁assure
▁unlike
▁Malaysia
▁Cambridge
ille
oe
▁preview
▁Were
tru
▁Rail
▁roughly
▁Convert
▁5000
▁tease
▁subsequent
▁upset
▁240
▁robust
▁throat
▁Tablet
▁Hungarian
▁prohibited
PDF
▁highway
▁Ste
▁gates
▁globally
FE
▁evaluate
▁gotta
▁2010.
▁Province
▁Stockholm
▁agriculture
▁participating
▁Session
▁heavily
COM
▁11,
▁81
▁publish
▁2010,
dong
ump
ICE
EST
ich
기
▁finds
▁Sl
Look
▁1988
▁Origin
▁Joy
▁healed
pack
color
▁foolish
▁ecosystem
▁Universe
▁cord
▁Rule
▁magical
▁cloth
180
▁companion
▁Bri
▁Zi
▁sha
▁Mask
▁malware
they
▁TEL
▁1.4
tar
▁93
▁sincere
▁approaches
▁Starting
▁Mas
lee
▁Region
▁identification
▁animation
▁ferry
▁71
▁piano
▁Fitness
▁Traffic
▁Exit
TY
ope
ved
▁panels
▁Wil
▁dorm
▁sends
active
hor
▁grows
▁infinite
▁reactions
▁Qu
▁Launch
▁unity
▁Stick
there
oli
▁improvements
▁Soul
▁presents
▁Harbour
▁femdom
▁authors
▁pharmaceutical
▁retired
▁spirits
▁respective
▁2014,
▁hormone
▁miracles
game
▁Sp
lah
ame
▁Nine
▁fired
▁Muslims
▁sink
▁Skype
▁trick
▁combines
▁collapse
▁proportion
▁78
▁wondering
▁intent
▁overlook
▁Detail
▁CH
▁Religion
▁Telephone
▁Creation
ND
▁Removal
▁hadn
tr
▁styles
▁lists
▁1945
▁Upload
logy
Mar
▁Com
▁Ukrainian
▁Patent
-40
▁CI
▁bowl
▁guides
ace
▁interaction
porn
▁Falls
▁Rules
▁Swimming
cker
▁Urban
rang
▁evolutionary
▁deployment
▁Geneva
▁joining
▁attributes
▁shirt
▁viruses
▁Tre
CD
▁representatives
▁Highway
KE
▁retrieve
▁forgiven
Ba
▁Shoes
▁profound
other
▁Maker
▁mild
▁catalog
▁Episode
▁bubble
▁spectacular
▁shelter
▁Photoshop
▁Calendar
▁elderly
▁sections
▁Reality
▁FA
▁representation
▁powered
zen
▁Sep
▁28,
▁Whoever
OO
▁fossil
▁harsh
▁boundaries
▁Terrace
▁Concert
▁hatred
▁serial
▁cabinet
▁Tape
▁≤
.5+
▁Obviously
nar
▁Horse
▁roles
▁bite
▁Belt
▁Bat
▁HIV
▁Cities
▁refugees
▁marine
▁stretch
▁rec
▁observation
▁1.7
White
oy
▁corn
▁ne
▁Sol
▁safer
▁Probably
▁Foursquare
▁Accept
▁guidelines
▁hi
▁strapon
▁tele
▁authorized
▁Optical
▁waited
▁inherit
ome
▁resistant
▁Extra
aw
▁Dimension
▁province
▁8.1
▁Plug
▁cur
▁reporting
▁judged
▁visits
uma
▁Transport
▁baptism
▁metres
▁independently
▁Growth
/3
▁spin
▁preferences
▁Edward
ude
rus
▁Designed
ral
▁Communications
kr
IF
350
▁heading
▁Airlines
▁investments
post
▁Practice
▁swimsuit
▁Elijah
cl
wall
▁TNT
tai
VE
▁establishment
▁Drink
▁tablets
▁74
▁Cop
▁permanently
pon
▁regulation
tube
ache
▁Christendom
responsibilities
▁identical
▁Simply
▁Munich
▁Generator
▁Judge
▁LE
▁venture
▁Eight
▁Archive
▁merciful
▁responses
▁abandon
▁loading
▁Layer
▁scenes
-60
▁450
▁warn
els
▁MC
▁Lesson
▁Fin
▁Nam
▁Bin
▁Senior
▁Taylor
▁explosion
▁Pixel
▁Either
▁drew
▁bulk
▁Evolution
rie
▁electro
foot
▁separately
iti
▁derived
▁secondary
▁Meter
▁Cer
▁(20
ement
▁grid
▁equation
▁puzzle
▁hunting
▁SAP
▁distinguish
▁je
▁tin
▁dignity
▁cotton
▁Processing
▁(11
▁Below
▁acceptance
▁gang
▁Marriage
home
din
▁participated
tti
!)
▁hoping
▁Proverbs
▁rulers
anda
▁closet
▁(5)
MENT
▁algorithms
▁Ship
▁diamond
▁castle
holder
▁Carl
▁passage
▁Studios
▁Amazing
▁encyclopedia
▁Precision
▁Danish
▁Israeli
▁immigrants
ching
▁engagement
▁Century
▁branches
ffer
▁gallery
▁Partners
▁invisible
▁trace
FI
▁BO
TMs
▁firms
101
▁slot
▁kick
tim
ched
▁legend
▁weakness
▁Various
▁leak
▁bra
▁SM
▁insertion
▁jo
print
▁dr
/5
▁whatsoever
▁enterprises
TR
▁dive
tus
rop
-08
lands
,000,000
130
week
▁linear
▁Jay
KG
▁borders
Bookings
▁hunt
▁dialog
▁Vancouver
▁remnant
▁Spot
▁Housing
▁Gal
▁distant
▁Fit
▁traditions
▁likewise
▁hanging
▁repeatedly
oku
▁expenses
▁noble
Lord
nne
burn
Have
UT
▁downloading
▁Crown
ó
▁visitor
▁brazil
pu
▁Sk
▁feared
▁Bright
▁awful
▁Normal
▁intuitive
▁1/2
▁RAM
▁tear
mond
▁assess
▁united
▁configure
▁Au
▁Tourist
▁periods
position
▁Norwegian
▁Philadelphia
▁automobile
▁labour
▁conventional
▁minibar
▁Authority
▁den
▁ja
▁Regional
▁Button
3.5
cap
fit
▁Works
▁Av
▁floors
Jesus
lig
AG
▁ft
▁captain
direct
▁FM
▁BS
▁buttons
▁Jonathan
▁grey
▁Racing
▁accurately
ending
ston
▁settlement
▁consultation
▁Found
duct
▁Kat
dra
1.1
▁Aug
▁AIDS
ics
▁suppose
user
다
cept
Ad
FS
SU
▁19,
▁lovers
▁Inflatable
▁gratitude
▁Physical
▁Thermal
▁readers
▁2016,
▁palm
▁Liquid
▁fleet
▁roads
▁evolved
▁9,
his
SO
Or
II
▁enjoys
▁Coil
▁hills
▁MOV
▁reset
▁frequent
▁workshop
pped
▁Chocolate
▁intervention
▁Montreal
mu
▁discharge
▁Verified
▁astray
▁retirement
▁Hay
▁Honor
▁lest
▁internationally
▁bat
▁Cr
mir
dal
-100
▁suggestions
▁utilize
BR
▁Wonder
▁Yang
▁mill
▁1080
▁Bai
▁mysterious
▁Ethernet
▁Annual
▁conversations
Br
▁singer
▁2017,
▁booked
IST
▁Jun
2.1
Some
▁controlling
▁electronics
ore
▁sealed
▁excuse
▁scheme
▁Protect
▁beside
Car
▁Eventually
▁Sheraton
▁glorious
▁significance
▁Disease
▁specially
▁Hyper
cca
▁Uni
▁foursome
gon
▁ir
▁Okinawa
▁magnetic
ume
▁PET
▁Feb
▁constructed
▁Coating
125
worth
▁ignored
▁scenario
▁Ren
▁drama
국
▁Voyeur
▁grief
ern
▁Vietnamese
▁ca
▁Retail
▁thinks
▁cope
▁100,000
▁SK
ibility
▁Busan
▁****
▁demanding
These
▁honestly
▁YOUR
▁Pol
▁medication
▁persecution
▁Period
▁absence
▁optimize
itis
▁outcomes
▁FDA
▁Brazilian
nc
▁BY
▁NOW
▁DJ
Ps
▁prince
▁12,
▁SW
▁attract
▁Books
tax
▁Sho
▁mutual
max
China
ashi
-03
▁episode
▁15,
▁hybrid
▁stomach
▁acquisition
▁grasp
▁Internal
▁draft
▁token
▁thoroughly
arian
▁barely
▁jet
▁5.0
▁crypto
grade
▁SMD
▁Hear
▁proclaim
▁rack
rr
▁Climate
▁abundance
▁Paint
▁Duty
▁Sister
working
▁380
▁realistic
uz
▁NT
▁operators
ban
fall
lect
▁2011,
▁IoT
▁alter
▁realm
▁focuses
▁ceremony
▁Thread
▁Choice
▁AVI
▁carrier
ech
▁170
▁07:30
▁Ger
▁profits
▁resulted
▁4*
▁judges
▁anime
▁2008,
▁refuge
▁Analytics
▁CC
▁expanding
▁proceed
▁inches
effective
acy
▁candidate
ering
▁Fortunately
▁curious
▁Moving
kov
▁Reply
▁photography
lea
▁2008.
ition
▁Mine
bro
▁genes
▁Resources
▁inspire
▁Friend
▁consumed
▁Spin
OK
▁sectors
cri
▁BR
▁obligation
▁widow
▁minimize
▁79
▁dawn
▁descendants
▁hip
AY
▁insulation
▁bind
▁adhesive
▁AlotPorn
IE
▁Dry
▁Clearly
(1
file
▁apparent
▁urgent
▁exceed
Good
▁Seat
▁Break
now
▁Atlanta
▁Attack
▁Sabbath
bil
▁Important
▁Charlie
▁enhanced
ators
▁4.5
▁Planet
▁Present
bul
▁el
Mark
▁silk
▁HR
ello
▁Directory
▁Wow
▁seller
▁ICO
stop
▁evident
ema
▁Ron
▁Vice
iki
▁targeted
mmer
▁shed
just
▁Cylinder
▁Iceland
▁hobby
▁ladies
▁Likewise
▁baseball
▁Relation
▁clinic
▁Eva
bury
▁weekly
▁Geo
Lo
▁Str
▁ruled
shot
▁convince
▁sync
▁Cy
▁ceramic
▁grandfather
▁Blockchain
▁duties
▁Hardcore
▁packed
▁governor
▁sacrifices
RY
▁PLC
▁1972
nis
▁Mari
▁Aqua
▁Gaming
▁Mis
▁Manage
ras
▁30-
▁bro
▁traveled
▁Lots
▁SI
great
▁intention
▁Congratulations
▁surveillance
▁Donald
oth
▁Wilson
▁celebration
▁Excel
ink
▁Circle
▁102
▁regulatory
lla
▁mall
▁compression
LD
▁lounge
▁Movies
▁repent
bank
▁1985
▁targets
IX
▁Conditions
HS
cle
▁muscles
Hebrews
▁Going
▁Ty
lation
▁Wolf
Di
▁Mediterranean
▁administrative
eh
▁template
its
▁alongside
▁Meat
▁prompt
▁2012,
▁Taking
▁withdraw
▁Clip
sia
▁accompanied
▁resident
▁3,000
▁tu
ert
▁demonstrated
▁terror
▁Lan
▁prostitute
▁lonely
▁Fruit
▁ultra
▁rural
-04
▁Kenya
shima
▁tubes
▁enforcement
▁towels
▁Lift
▁seating
▁1914
▁decline
▁(17
OD
ua
-09
nate
▁Pole
▁Handle
▁detected
lle
▁Favourite
▁Anything
▁generous
▁Accommodation
▁compound
elli
och
▁Lamb
▁chamber
▁elections
aya
▁Burn
ways
▁flame
▁popularity
▁Em
(2
▁NC
▁—2
▁2009,
▁tire
▁excess
▁confusion
▁Dinner
3/
▁investing
▁shortly
▁HS
▁breaks
sized
▁dish
▁restrictions
▁1986
mas
▁Sur
VA
Ra
▁Aluminium
▁Mirror
▁assurance
▁horrible
▁antenna
▁Trading
▁Kill
▁boring
▁assault
▁adoption
▁regarded
▁$4
▁expressions
▁Dun
▁Ann
▁poured
gent
▁measurements
die
▁21,
▁intimate
▁Aquarium
▁Marco
about
osis
▁HDMI
▁administrator
▁Cream
▁23:
▁tanks
mor
▁Customers
▁83
▁specialist
▁geo
▁resolved
▁VIP
nia
▁Jung
▁Cottage
▁eligible
▁stylish
▁Savior
▁carpet
pr
▁Sat
▁mounted
step
▁CT
▁affection
▁badly
▁oral
▁static
▁dragon
▁Record
▁Peru
bag
▁Graduate
▁helmet
gal
▁posting
▁Hopefully
▁Tableau
ounce
▁(“
▁waterproof
▁soap
▁LI
phi
▁Triple
▁Chan
▁motivation
▁unwanted
▁cryptocurrency
▁embedded
▁lodging
▁spacious
▁Char
▁Reader
▁highlight
▁nano
tory
▁Anne
dar
▁conquer
▁tricks
▁compromise
cell
ido
▁races
320
▁Harvard
▁attorney
▁kettle
▁Tattoo
▁Superb
ock
▁Apk
dale
▁Tungsten
▁bitch
▁hospitals
▁vitamin
▁Owner
▁imported
osa
cer
hold
▁employer
▁ch
col
▁Shu
▁Chu
ked
▁traders
▁annually
watch
▁pumps
3-
▁#2
chan
▁agricultural
▁easiest
▁liberal
▁Brunette
▁armies
▁Motion
▁gray
▁activate
any
▁Jul
▁protective
▁25%
0.1
▁Along
▁blade
▁Lanka
▁Register
▁organ
▁cart
▁bo
▁obstacles
▁Late
▁Fucking
▁arch
▁Straight
▁Nurse
▁perception
▁sights
2018
▁Med
▁prevention
bridge
▁audit
▁Cent
▁workplace
50,000
mun
▁employ
▁calculated
▁Skip
▁Brain
▁offline
ington
▁estimate
▁Consumer
▁Edinburgh
▁eternity
▁115
▁authentication
▁fence
▁chest
▁EP
▁spite
▁nest
cess
▁FAT
aba
▁Cancel
dies
▁ancestors
▁attracted
▁slide
▁$10
▁wanting
▁jealous
▁Disc
▁banking
▁2013,
1.2
▁Kai
▁Knowing
▁Furniture
▁diaper
▁dramatic
▁Television
▁Threesome
pornia
▁variables
space
▁Warning
▁Places
lis
▁5,000
▁Fresh
▁trail
▁neuro
▁TED
▁loaded
▁casinos
PORT
▁awake
▁alien
▁sw
▁Forex
▁sinful
Li
▁Eternal
▁browsing
▁Resistance
▁2009.
▁Flexible
▁Delhi
aging
▁candidates
▁Abu
ook
ago
etc
▁sickness
▁Provider
▁Pearl
teen
range
▁(9
▁Artec
▁chips
▁1987
▁Hai
▁transformed
▁defeated
▁Distribution
▁scratch
▁dose
▁wage
▁talents
▁recommendations
dding
2019
▁organisation
pur
Love
▁spoil
▁shade
ML
▁Ap
▁authentic
▁Howard
five
▁DNS
your
Jehovah
▁charm
▁Pur
▁tribulation
▁Caesar
▁korean
▁Competition
▁cancellation
▁Workshop
▁excessive
click
▁Lens
▁pulled
▁addressed
▁pound
arch
▁Ul
▁considerable
▁Ticket
▁rings
▁colorful
▁hired
▁Hawaii
▁fed
▁speeds
▁Sleeping
▁Homes
▁Emperor
▁pursuit
▁Political
▁Bureau
▁Sofia
Every
▁Wear
▁Transportation
▁tours
▁stolen
▁119
▁surgeon
▁carries
▁heroes
.”—
High
▁Fri
▁Gre
▁assignment
ridge
two
▁***
▁Syrian
▁pi
▁accidents
TU
▁arose
rry
ect
▁Ce
▁paths
▁13.
▁Shape
▁Shell
▁analytical
▁probability
▁hesitate
▁seminar
▁ruling
▁charity
▁Webcam
▁Fla
▁unjust
▁Individual
base
▁minimal
▁debut
▁750
▁Cleaning
HZ
▁Enable
▁Valentine
▁rope
▁torture
▁Gear
▁Colombia
word
▁Solo
▁gentle
▁Ceramic
▁definitive
▁purchasing
▁Economy
▁(6)
▁Nylon
▁forbidden
▁Benefits
▁durable
▁Busty
▁math
ien
DO
rc
lent
▁Archives
▁initiative
ulate
▁1984
▁cache
▁Porto
▁continent
walk
▁tone
▁NI
▁Mountains
rim
▁spreading
▁titles
▁Pharisees
▁Staff
hin
▁particles
maker
▁Writing
stitut
TB
▁strangers
▁relate
▁Movement
▁unfortunately
▁closest
wise
▁accused
2015
▁Pl
▁(14
oh
tile
▁Filling
▁expecting
▁punished
▁PH
▁useless
▁bin
▁Past
pper
▁drill
▁essence
▁Properties
▁Muscle
▁Finnish
▁Database
▁KO
▁pushed
mil
ACE
Bo
▁Object
▁sustain
Did
smoker
▁99%
▁exercises
▁dealt
▁cha
▁Bulgaria
▁villages
▁depart
▁cruel
▁Kin
▁Intelligent
▁lactating
▁serpent
▁endeavor
▁alliance
▁Lounge
▁dedication
▁Subway
▁photographs
▁Wal
▁godly
-07
-26
▁NASA
▁determination
path
▁Tiger
▁Gro
scribe
▁alike
▁pour
▁conform
▁Blessed
▁killer
▁Dick
9)
▁legally
9001
▁Seal
▁rewards
▁Brussels
▁Minimum
▁Hamburg
▁Carolina
▁bother
▁Kon
▁Romania
Around
ific
▁Rent
▁aimed
▁reap
▁Uncle
▁Flu
▁renowned
▁coated
▁speakers
▁newest
▁investigate
▁Similar
cel
stan
▁Optic
▁enabling
▁entity
▁pizza
▁mixture
▁2016.
▁slip
▁resin
▁Whenever
▁Feed
pect
four
atic
▁eastern
▁Mun
▁Cock
▁achievement
▁competitors
▁Token
▁Ear
▁smallest
▁DB
▁Angle
▁Structure
▁fascinating
▁diagnosis
▁legacy
▁transmitted
▁abortion
▁Interview
▁1930
▁drove
▁cal
▁Kelly
▁complaints
▁vain
▁Pain
OW
▁def
▁gotten
nam
▁86-
▁graphic
fr
▁portal
▁locate
▁Disk
ancy
▁hosted
SL
▁calculate
Hi
Bu
aire
▁firmly
▁phrase
View
▁Hampton
▁iniquity
▁warehouse
▁sauce
▁Flex
yeong
▁unclean
▁Mono
▁Ham
▁Fred
▁tourism
▁Ghost
▁Loading
▁welcomes
bur
▁hook
▁earthquake
▁lifted
▁Truly
▁parks
▁conflicts
lip
▁Alan
▁Leg
▁repaired
▁squared
▁separation
▁Immigration
▁beneath
▁Row
▁Liberty
▁spanking
▁Creek
▁AMD
cor
▁rational
ALL
▁Hosting
▁Repeat
imp
▁Campus
CK
▁appreciated
rat
gel
pot
▁succeeded
▁Container
▁mod
rt
▁soldier
▁needle
▁Option
▁2017.
market
▁Roger
▁1979
▁ethnic
▁sanctuary
▁cooperate
▁foretold
▁frozen
Because
▁Comp
▁hopes
▁Multiple
▁missionary
▁partial
▁findings
▁insights
▁voices
▁bore
▁landing
/22
▁belonging
▁Dia
▁Generally
▁flavor
own
▁shipment
▁SEO
▁specialize
▁shoe
▁SL
▁reflected
▁SkyTeam
▁motorcycle
▁Darwin
▁104
▁arguments
▁lamb
▁PHP
▁ethical
zhou
▁youths
▁attempted
▁WI
▁Ride
▁wealthy
VI
▁characteristic
ean
▁Lang
▁31,
▁preserved
▁abundant
▁1-
▁arrow
▁1940
ichi
▁shapes
▁Xvideos
▁socket
▁Subject
▁chronic
▁Framework
▁Warsaw
▁slavery
▁Quran
▁experimental
▁brightness
▁bottles
was
NI
▁CON
▁2014.
SON
▁surrender
▁Gray
▁champion
▁15%
▁Pic
▁Pictures
▁fe
▁TR
▁26,
tec
▁inquiry
▁Width
▁admission
▁widespread
▁Balance
2.0
▁specification
▁drum
▁Pharmaceutical
▁sinned
▁fitting
▁Duke
▁effectiveness
▁convey
▁ba
▁Speaking
▁Tam
▁Casting
▁Coupon
▁Tur
▁celebrated
▁warming
▁Shadow
▁virtue
▁sovereignty
▁Kevin
▁attain
▁GDP
▁Duration
hon
▁melt
▁Brush
▁signing
▁occupied
▁scattered
▁arrange
FP
▁gu
▁reduces
▁:)
▁shoulders
▁bare
▁reside
▁pairs
▁Lower
▁Hose
▁3.1
▁Charge
▁29,
▁scroll
▁iCloud
▁Rosa
▁Notes
▁18,
▁deserves
control
▁Nano
til
▁guardian
▁105
▁anytime
▁courts
▁Compact
▁protects
amine
▁ram
coin
▁Reference
MT
▁triple
▁Beyond
▁welfare
▁pulse
▁verily
▁removing
▁Kra
▁Cro
▁Hack
▁ka
sub
building
▁bitter
▁Restaurants
▁Hole
night
▁curve
▁Muhammad
▁heed
▁accepting
ters
nder
say
▁blast
▁・
kar
▁Ultimate
▁ONE
pers
▁Sel
▁spectrum
▁BMW
▁magnificent
▁kilometers
▁caring
▁blocked
▁Playing
▁pla
▁Shall
▁2018.
▁equality
▁exclusively
ito
▁Wake
▁Sort
Take
▁beef
▁painted
AI
▁reminded
eri
▁Roma
▁museums
▁LO
▁Philistines
▁Liverpool
▁Metropolitan
▁depressed
▁THAT
▁Colour
▁routes
▁leverage
▁makeup
etic
▁1973
▁5)
▁Format
eur
▁bears
▁pcs
▁Honey
▁Dogs
▁Joint
▁MBA
▁Yoga
▁borrow
▁Cord
▁ransom
-50
▁phenomenon
▁slut
▁stroll
▁addiction
264
Bedroom
▁dump
map
ls
▁bug
▁headed
uda
▁EM
ural
▁Teaching
▁Mil
▁grab
rov
▁proposal
ila
▁organs
▁undergo
▁villa
▁panic
▁Recent
▁316
SK
▁Gr
▁encouraging
▁fantasy
▁obedient
▁Mumbai
▁fraud
▁pornhub
▁Dallas
▁saints
▁WHO
▁grip
▁restart
demand
gun
Up
▁3:
tree
▁1983
▁conclude
▁publications
bla
lav
sar
▁volunteers
▁Contract
▁cow
▁grandpa
▁vessel
▁Bird
▁Juan
▁leaf
▁Intelligence
▁declaration
▁Creating
▁Hanoi
▁Compressor
▁unfair
▁Turbo
▁texture
iling
▁Aparthotel
block
▁Rack
/12
▁bid
▁wound
▁Marie
▁AWS
▁1976
▁Hero
▁2.3
▁analog
▁Um
232
▁91
▁disagree
▁Maintenance
▁vibration
makers
▁airplane
▁Juice
▁Running
met
person
▁respected
nut
▁Won
Today
▁assembled
▁2015.
▁Zero
self
▁awards
▁BI
▁symbolic
140
▁Rob
▁coil
▁Wash
▁1969
▁rush
▁https
▁Flag
▁FC
▁tale
▁wallpaper
▁Imp
▁Cooling
reach
tation
▁assign
iva
▁enjoyable
▁decent
▁portrait
▁hungarian
▁Polyester
▁liability
Ch
race
Boobs
▁campaigns
▁resurrected
▁Koh
▁construct
▁Bond
▁40%
▁Coach
kawa
▁attribute
▁chemistry
▁Rd
▁Rica
ERS
▁Alt
▁Fur
▁Kind
▁23,
rel
▁weigh
gna
▁sh
▁Hyatt
▁Vatican
▁FIFA
▁foster
▁Divine
▁factories
▁Domain
▁pressing
▁SSL
▁democratic
ass
IV
Day
ates
▁wounded
▁Pla
last
▁va
▁distribute
▁strap
▁estimates
Ar
pat
▁pal
▁profiles
▁trademark
▁SH
▁rebellion
▁Superior
▁Complex
▁Broadway
▁Guy
▁Designer
▁Effective
▁Throughout
▁Mechanical
▁dial
electric
▁LLC
▁creator
▁wickedness
▁Nazi
▁Az
▁confess
▁Watt
▁complaint
▁Acid
▁Prior
▁instances
▁perceive
▁boats
▁artistic
▁beaches
▁UP
ITY
▁bold
▁Issue
▁spell
▁Million
Hit
▁Arabia
▁steady
▁Dynamic
▁Spider
▁potatoes
▁AG
시
Just
▁occasionally
▁Fuel
▁shore
▁Rec
▁overnight
▁Silicone
▁Fre
▁configured
iro
tia
▁emerge
▁[1]
▁accounting
▁27,
▁ratings
▁scripture
ison
▁attraction
▁trailer
AND
▁certificates
¢
▁triangle
▁Distance
▁Generation
▁patch
▁conviction
0.3
nna
인
▁elect
Sa
▁Rice
▁shaped
▁Perform
rest
fl
▁contributions
▁nutrition
▁rarely
GR
▁Toys
mine
▁ya
▁publishing
aria
dec
▁mentor
▁Models
▁barrier
▁WITH
▁Blvd
▁Compatible
▁Glasgow
▁faculty
▁temporarily
▁Apostle
▁indication
▁Mozilla
▁excitement
▁dialogue
tail
▁Evil
gil
-00
▁Fee
▁1:1
▁pornstar
240
▁corrosion
uni
▁poster
▁17,
Jo
▁Rest
▁empower
▁4:
▁Cause
oxy
GS
▁TH
▁adequate
▁wherein
▁Grant
ying
▁illustration
▁Bern
ain
▁profession
▁converter
▁Schedule
▁jurisdiction
▁struggling
▁query
▁Welding
▁Born
▁(13
vor
Am
value
OM
catering
▁Ana
▁Hang
▁messengers
▁departed
▁Ads
▁CV
▁testify
▁Dining
▁LAN
▁Newton
anta
▁metro
dem
▁Career
▁hence
▁Halloween
▁Navigation
▁Phoenix
▁emerging
▁Courtyard
▁Tennis
▁famine
▁Status
▁Spray
▁Homemade
▁voted
4.5
±
▁producer
▁Jeff
▁Healthy
▁reflection
▁Verily
▁greet
▁Artist
MD
▁Shrine
▁Fourth
▁escaped
▁Jump
▁Bla
train
▁customize
▁87
▁Records
▁Coming
▁tumor
▁scanner
▁Technologies
▁engaging
▁hurry
▁restoration
▁relating
▁garage
▁Toilet
▁Naples
▁Primary
▁biology
▁Lunch
▁Prefecture
Ephesians
▁BTC
▁Zip
MAN
▁conv
▁Gene
▁Finish
bad
Na
▁princes
0.5
▁lean
▁solely
flow
▁Steven
May
▁cheat
▁balls
▁photograph
▁Jar
▁troubled
▁namely
▁buyers
▁startup
▁insects
▁malicious
▁Nagoya
▁nightmare
▁Crime
▁TOP
▁classified
▁Southeast
girlfriend
▁washed
▁watches
▁4000
phe
ester
▁Kam
▁occasions
▁poison
▁Tied
url
rating
▁Bull
▁urge
ddle
▁Counter
▁Given
ctor
bing
zing
▁Mod
▁Kid
▁instinct
▁theoretical
▁invasion
▁voting
▁Laboratory
▁DR
▁Summit
▁boast
▁probe
▁jewelry
[6]
DB
▁parable
▁paste
nda
▁Mixed
wire
▁Walking
▁threaten
▁resume
▁avoided
▁representing
dri
▁insist
▁sn
▁tropical
▁Above
▁earliest
▁underlying
▁unlock
▁brake
▁excluded
▁Drug
▁believer
▁myth
▁Mix
▁hey
▁terrorism
MHz
hen
▁nowhere
▁Drill
ela
▁meantime
▁Promotion
▁bang
▁approaching
gas
▁protest
source
▁segment
▁liberty
▁receipt
▁Apache
▁Titanium
▁Prepare
▁compressor
▁24/7
▁clay
▁encouragement
▁Ryan
▁selfish
▁trademarks
▁Proof
▁Native
▁NH
▁Fer
▁Rat
▁Lie
▁1982
▁consistently
▁notion
▁breed
▁Colors
LP
▁Fill
▁failing
bian
▁Slot
▁eager
ifying
▁transmit
lips
▁contracts
gia
▁Pregnant
▁baggage
▁exploring
▁happier
▁tragic
▁Cotton
▁JavaScript
▁Azure
▁drank
▁interval
▁arrives
▁DHL
▁Unique
▁synthetic
▁encrypted
shirt
▁scary
berry
▁investor
▁nut
EAR
▁Cyber
oka
▁buyer
▁ministers
aught
▁advised
▁Semi
▁Scientists
▁Ros
▁accelerate
▁Chart
inate
pping
▁Mayor
▁theories
data
sie
wick
▁modes
▁invested
▁Junior
▁THIS
ode
yen
▁Kiev
▁consulting
▁crop
▁GR
▁HO
▁exalted
▁rocks
▁Meta
▁Cru
RD
Min
▁discussing
▁KB
▁receiver
rous
▁shaft
▁Pal
▁Reasons
▁elder
105
▁Var
▁epi
▁seasons
▁deadly
▁fifteen
▁societies
▁hydrogen
▁kidney
▁wholly
▁KI
▁amazed
▁Ter
chin
trans
have
count
▁Ferr
Footnotes
school
▁EA
Link
▁cleaner
▁Rates
▁Corp
▁Silk
▁treating
▁Pr
ener
▁320
▁Links
une
▁cop
INE
▁Nigeria
▁2005,
▁riches
▁evolve
glo
▁Molecular
▁buffet
▁despair
▁genius
▁Own
pal
dam
▁Oriental
craft
▁sunlight
▁objectives
0.2
▁scenarios
▁graduates
▁designing
tha
▁Mean
▁OFF
▁actor
▁survivors
▁ranked
▁exploit
Pictures
▁dryer
▁Math
▁ATM
▁Piazza
▁vibrant
▁Pattern
▁buses
▁dramatically
▁Pinterest
▁determines
▁gains
▁Cebu
▁vaccine
cro
▁bedrooms
aj
▁Lesbian
▁princess
▁browsers
Rom
▁MAN
▁Thought
▁Wing
▁Allen
DD
▁rape
▁Clinton
▁dictionary
▁gorgeous
▁luxurious
▁WHAT
▁idiot
▁Automation
▁retreat
▁thong
▁diving
mAh
▁Poker
▁Suitable
▁Pull
▁Speaker
▁destroying
▁countless
▁Independent
▁Wise
▁consultant
▁Sara
▁Plat
▁finishing
anti
▁rep
▁pr
▁Cuba
▁OST
sum
▁cargo
▁pushing
mini
▁fold
Star
▁discussions
▁pixels
tina
▁(8)
NE
▁Campaign
▁Nelson
▁emphasis
▁threw
▁Husband
▁Purchase
▁ambition
▁Scriptural
▁Levites
▁20,000
▁Leadership
▁Islamic
cr
▁Task
▁Delta
▁murdered
eon
▁workflow
▁sightseeing
▁Clock
▁ver
▁commander
▁afterwards
▁drops
vision
rad
▁2006,
▁Des
▁Vin
machi
▁Players
GP
29)
▁sweat
▁Cart
▁dressed
▁Wu
750
nation
yr
어
▁comprehend
▁tobacco
▁Architecture
▁HA
▁timing
sti
▁scar
▁unbelievers
▁longest
▁elephant
▁generator
▁ODM
organ
▁finest
compatible
yi
▁Jobs
▁reads
▁CF
LU
tting
▁$100
phy
▁1800
▁IR
▁solving
▁charming
▁Leo
▁forum
layer
▁Dy
▁Feet
▁avail
▁influential
▁Essential
▁Fix
▁sermon
▁Mm
▁Relationship
▁optimization
▁brick
▁Gateway
▁Aunt
each
▁offense
▁loans
nk
hang
English
▁march
rch
▁occupation
-28
▁Saving
VR
miss
ulator
▁trucks
▁arriving
▁cruise
▁Valencia
▁stereo
▁suspicious
▁womb
▁Arthur
▁Jeju
▁Funny
▁distinction
▁swing
▁handled
▁ghost
omi
▁scans
▁stamp
▁bay
380
▁volumes
▁Tsu
▁SGS
human
▁capitalist
▁soup
▁binding
ark
▁Shan
▁seamless
▁correction
lib
▁Ak
▁correspond
▁Sierra
▁kernel
▁uncomfortable
▁league
▁slain
▁Survey
▁Surgery
▁Birthday
▁pose
▁Reg
▁overwhelming
2016
▁comprise
when
▁senses
▁Eyes
▁WA
guard
2017
char
▁1971
▁Giant
▁trauma
▁Ezekiel
▁Rick
▁fortune
▁optimized
nor
▁athletes
wang
▁domains
360
▁Mercedes
▁Protocol
▁Shepherd
▁Titjob
▁diagnostic
▁±
▁Reduce
▁Winner
▁Kor
▁EL
▁utterly
▁Upper
performance
▁spam
▁1978
Mi
boy
▁cups
▁qua
▁foreigners
▁acted
▁PSD
170
▁sta
▁Devices
charge
vie
▁Steps
▁upright
WA
▁112
▁AV
▁collaborate
▁compensation
▁titanium
▁Angels
1.0
▁safeguard
▁rentals
123
▁fu
graph
▁shepherd
HP
▁openly
awa
green
▁Score
search
▁licensed
▁1.9
▁allies
▁wages
▁Rub
▁marking
▁Increase
▁talented
▁collecting
eck
▁Sapporo
▁slept
▁Gabriel
▁soccer
▁geometry
▁substitute
▁clever
▁uncertainty
▁Sil
▁Worldwide
▁olive
▁seeks
▁gaining
▁Stra
▁Sadly
▁inhabited
▁prospect
▁parameter
PD
7.5
After
▁bullet
igh
▁pig
▁RA
▁Piece
utter
▁trips
▁Verse
▁Bowl
▁functioning
Rev
rge
▁Saw
▁spec
script
thy
BE
▁horizon
▁Behind
▁Efficiency
▁Exercise
▁Kennedy
▁helicopter
▁altogether
▁conservative
▁promoting
▁Passover
▁Canon
▁Blow
atory
ivud
ACK
▁booth
▁Integrated
flower
▁interfere
▁consequence
▁toxic
▁modeling
▁opera
▁pretend
▁Bet
▁quoted
▁lecture
▁25,
▁Walter
▁Inner
▁drilling
▁folk
Prov
turn
▁GT
Windows
▁substances
▁Clark
▁tile
▁Croatia
▁Warm
▁jam
omb
▁supreme
▁slope
▁ranging
▁Ky
▁Holland
▁AN
▁Scene
cip
▁Cruise
generation
▁indicator
strong
ike
cas
▁enjoyment
▁personalized
eau
▁cables
▁neutral
▁Arizona
▁Russell
▁meditation
▁humility
▁gracious
▁Rachel
▁Suddenly
▁Fly
Credit
Compare
IES
order
erie
▁1974
▁condemn
EG
▁Fr
▁tie
10)
▁Billy
▁touches
fulness
pet
stead
stein
/6
▁Tours
3,000
▁collective
▁SR
▁RC
▁Lenovo
▁Shield
▁stadium
▁tan
▁Sugar
▁Jerry
stock
▁ZIP
▁lion
stream
bashi
▁Cum
▁Extreme
▁Ker
3.3
▁Formula
▁(7)
550
▁Higher
▁Levi
▁Deal
Pre
▁limitations
▁butt
rai
▁Leader
zan
EO
316
east
▁Pot
ough
▁anonymous
▁cheerleader
▁horror
▁psychology
▁fraction
FF
▁Egyptians
▁GNU
▁Nearest
lio
▁Heroes
▁Gil
▁relaxing
▁Dave
▁lawyers
▁thereafter
▁Indonesian
▁upcoming
▁scholars
▁Seo
▁Powered
▁innovations
▁Jon
▁Bags
body
▁Push
▁Offer
▁worm
▁Classical
▁ok
▁Animals
▁disorders
▁Baseball
▁Already
▁fame
▁spark
▁Oak
rite
▁Sharing
▁이
lli
▁congregations
▁proteins
▁clips
▁1975
▁rub
▁Bol
▁garments
▁Factor
▁adjustable
▁activated
▁Pray
▁mourn
▁subscribers
▁patents
▁disputes
▁Bow
▁95%
UP
▁Affairs
▁conveniently
ees
▁quest
111
▁winners
ón
▁der
▁Album
▁knife
▁gyno
▁Contemporary
▁Apollo
▁Become
▁crops
▁criminals
▁salary
▁oven
▁PowerPoint
▁Vitamin
▁poem
▁bolt
▁Arc
▁rank
▁Contest
▁Vacation
▁classical
▁pants
itch
▁wipe
▁135
▁Hal
▁migration
▁Gang
▁prop
▁sunset
tric
450
▁companions
▁ranking
▁achieving
▁rolling
Ta
NG
▁apologize
-27
▁decree
▁Character
▁Chelsea
▁Safari
▁Organiser
▁thief
▁petition
▁trapped
▁banner
kit
soft
▁Dam
▁bunch
▁silicone
▁Hum
▁FR
▁IQ
▁Bolt
ois
▁Egg
▁2007.
▁achievements
▁hoped
▁Baal
▁Items
▁Forming
Fe
4,000
sun
▁references
▁Dorm
▁Happiness
▁Testosterone
▁emperor
▁fierce
▁smiling
▁casual
▁trouser
▁verification
▁MacBook
▁Chiang
▁scenery
▁cycles
▁Browser
.000
▁outfit
▁Doing
▁motivated
▁knee
▁Rap
▁dumb
▁8.0
▁Wars
▁expense
lov
▁PV
▁Aviv
▁attach
frame
650
eta
19)
▁radical
▁Republican
▁infections
cover
also
▁Successful
▁Morocco
▁Python
▁prototype
▁Austin
▁Position
▁Netflix
▁Requirements
html
▁Yi
hl
abi
▁Direction
▁Medium
▁readily
▁skilled
▁farmer
nn
▁reserves
▁heater
▁Machines
▁subsequently
▁Finding
▁1968
▁Example
▁RAR
▁tub
▁node
▁graduated
▁sail
▁Roof
▁substantial
▁heated
▁assumed
▁predicted
▁Wizard
▁Urantia
▁leap
▁aging
door
▁rotation
▁Craft
▁Snap
▁cor
▁Breakfasts
▁Bun
▁RT
▁Trail
▁hospitality
ept
▁Glory
▁Ref
-05
▁Que
▁Crypto
rail
▁filed
Job
▁examined
▁+1
▁Nat
▁Damn
▁boards
▁Gam
▁wardrobe
▁wheat
▁Pretty
▁Watson
▁Turk
bell
▁cabin
▁hose
▁plates
▁crossing
▁axis
▁publishers
▁selecting
▁greeting
▁doth
bet
▁individually
▁Bella
▁Rue
▁Qua
▁witnessed
PER
26)
TRA
▁Cosmetic
▁Injection
▁Ulitsa
▁Fifth
pol
▁Activities
▁horizontal
▁shorter
▁MORE
gno
dress
▁Orgy
▁Facilities
▁Storm
▁burst
▁Cannes
▁xxx
iko
▁partially
product
SR
▁courageous
Shaft
ifier
▁shortage
liness
▁strongest
▁forests
▁statue
got
▁dig
▁Articles
▁purchases
▁containers
▁Dal
▁odd
specific
---
210
pc
▁knock
oper
▁SF
tian
▁striking
▁Recommended
▁purple
▁Toy
▁Nathan
▁ga
▁Historic
▁Slide
▁Cards
▁Din
pul
▁(30
rol
▁hid
stick
▁cuts
▁11:00
▁emerged
▁perceived
rist
▁disclose
▁2018,
▁sooner
▁Les
▁satisfying
▁cu
ime
▁Pennsylvania
▁deletion
▁intensity
▁varied
▁wheelchair
▁wider
▁Chicken
▁drone
▁Measurement
▁snap
▁Bou
▁09:00
very
▁onsite
▁Changes
young
TT
▁IEC
▁beta
zel
▁op
▁Forget
▁ties
2,000
▁6000
▁Tile
▁Hunter
UE
▁Jam
pli
▁messenger
3000
AU
aro
▁dangers
(1)
pass
▁rendering
skaya
mac
▁pile
▁Lip
bl
▁2.6
▁650
▁Easter
adi
▁Krakow
▁Resurrection
▁tragedy
▁vicinity
▁Bicycle
ometer
▁obligations
▁prosperity
▁Speak
▁Jason
▁promoted
▁demonstration
▁sal
▁salon
▁billions
▁wing
▁Purpose
▁Met
▁Rapid
▁diagnosed
lush
▁Tip
dimensional
▁Cambodia
▁lover
38)
phon
▁Era
hearted
ologists
▁Shot
-35
stat
.'"
▁Sites
cla
▁Arch
▁scores
▁journalist
En
ential
▁Certified
▁currencies
▁Bueno
▁pricing
▁scholarship
▁residential
▁referring
▁varies
Of
▁mounting
▁dozens
show
GF
ility
▁compressed
rod
▁Amy
uel
..."
▁nodes
999
아
▁Discovery
▁pad
through
aster
mod
▁2013.
ground
▁boom
TL
▁ko
▁judgments
sburg
▁associates
rag
▁106
▁approached
▁avoiding
▁encountered
▁Sons
▁Apparently
▁Relative
▁practicing
▁trillion
▁actors
▁spake
▁instructor
▁adjusted
check
▁lit
▁mile
▁Relax
▁Ferry
▁Programme
asa
▁deployed
mA
▁60%
▁satin
▁Kara
▁tolerance
IGHT
▁sits
version
▁distinguished
▁Steroid
than
▁responding
128
▁strikes
▁Deposit
▁connects
▁maker
▁Words
▁Cl
▁Governor
▁Wyndham
▁controversy
▁RI
▁gauge
▁Lewis
▁implant
▁moisture
▁Amenities
▁captive
▁Diesel
▁glorified
Ti
▁230
▁institute
▁Bas
sim
▁packet
▁lightning
▁scrap
▁racial
▁1900
second
▁chi
▁interactions
▁homeless
Babe
▁proclaimed
▁Problem
▁fiction
lex
▁navigate
▁rocket
▁Historical
▁progressive
▁DM
▁locally
▁Letter
▁Processor
▁Fax
▁judgement
▁hardship
▁prevents
▁Wallpapers
ANT
text
▁Apt
▁reflects
RON
morph
▁risen
▁UI
▁terrorist
▁Teach
▁wasted
▁acknowledged
▁Af
▁Ward
bon
▁bell
▁drain
▁Luxembourg
▁excellence
▁Judgment
▁entries
▁bandwidth
27)
▁Heating
▁costume
▁FBI
▁Resource
▁Toyota
sil
▁blank
▁Mak
grad
▁Gall
▁GM
▁Alien
▁whi
▁Mah
▁Nation
Life
▁Scale
▁Km
▁deceive
▁Miller
▁magazines
▁CM
fur
kai
aving
tone
hot
rock
▁farming
▁Caribbean
▁Definitely
▁Protestant
▁Tweet
▁Twenty
▁pursuing
▁transplant
▁Janeiro
▁Handjob
▁Axis
▁connectivity
▁Doll
▁Scottish
▁Ladies
▁Stress
▁Brothers
▁Syn
RL
has
▁evolving
▁bench
▁colored
5000
▁Bomb
umi
roid
▁Playa
bound
▁PL
▁educated
▁passwords
▁SIM
sec
▁Anton
▁approve
▁Visitors
▁hydro
▁argued
▁holder
▁Patch
▁columns
LED
eller
▁Blade
▁quietly
▁upward
▁PornLib
▁structural
▁revenge
▁Nuclear
▁Smoke
eration
▁Spare
▁citizenship
TECH
▁saves
▁specialists
jan
Get
-200
▁transgression
▁utter
▁tit
▁Magnetic
▁Bride
Dis
▁64-
▁Preview
▁floating
keeper
▁Draw
▁preventing
rent
Hotel
▁router
span
▁Gri
▁HPE
hab
▁accessed
▁lacking
▁counting
▁recovering
▁3.2
▁reproach
▁uncensored
▁Monument
▁Ultrasonic
▁entities
▁Verona
▁calibration
▁explaining
▁Escape
▁Restore
▁Electro
▁Morgan
▁prescribed
▁::
2-
▁coral
▁positioned
▁showcase
▁betting
▁Watching
▁tens
▁Romantic
▁Nord
33)
▁unlikely
▁Favorite
▁Ammon
▁1981
▁cometh
▁Thinking
265
▁broker
▁Santo
▁Susan
▁Jose
hem
▁dealer
▁2019.
sale
▁joyful
▁Beam
lang
▁bits
▁modest
▁2.8
sea
▁Deliver
▁Lou
▁Boss
▁Greater
▁QNAP
▁Journey
▁Quarter
▁Wisdom
▁Organisation
▁swore
▁imaging
▁eleven
▁unhappy
▁Outside
shing
▁insult
▁Bethel
▁Definition
▁afterward
▁Dev
▁//
▁linen
▁polar
▁urged
poli
▁Aires
white
ggy
▁Crane
main
▁Fight
ABLE
▁emotion
▁oppose
HAN
▁figured
▁steroid
▁garment
lessness
▁symbols
▁zoom
/20
▁Lar
defined
ifies
▁COM
▁abstract
▁clergy
155
▁Gentiles
▁GS
▁Xin
▁dishwasher
▁shrink
▁orientation
▁Fukuoka
▁psychologist
▁Douglas
▁Vector
Cu
▁dioxide
▁criticism
tern
▁footprint
▁gloryhole
▁shipped
▁lasted
▁formatting
tag
▁mixing
▁plasma
▁eco
lift
▁210
ARD
▁observations
▁24,
▁Tian
▁vegetable
▁107
tex
▁cons
▁privileges
▁themes
▁tenth
▁compounds
▁Isle
▁breach
may
vit
Ga
▁integral
▁combining
▁Xiaomi
▁Bishop
▁switching
▁Prison
▁verified
▁suited
shin
▁AB
▁PI
▁lifting
▁Jazz
▁withdrawal
▁Treaty
▁Wales
▁extensions
▁Ari
▁username
▁ni
▁truths
▁Nobel
▁airlines
▁Shock
▁diamonds
▁Mur
▁Shared
▁secured
phil
▁frames
rade
888
rina
▁1100
▁kindly
▁Lex
▁physician
iga
▁influences
▁1977
Sha
▁550
▁Emb
gli
▁Galilee
▁rhythm
▁syndrome
▁Basilica
▁calories
▁CL
ith
▁gross
Mon
▁+86
▁batch
▁profitable
▁Worship
ben
▁rolled
▁producers
▁Lovely
▁SN
him
▁advertise
SF
▁pause
▁Plain
*2
▁EB
▁Mart
▁fucks
▁3:16
▁adjustment
▁temp
▁TI
heim
-34
1.4
▁sinner
▁triumph
▁Hamilton
▁Dildo
▁ritual
▁simplify
▁visibility
▁disable
▁submission
▁Partnership
coming
▁questioned
▁crush
▁bleeding
▁Charger
emon
▁san
235
▁listing
▁cares
▁Praise
oriented
para
▁Beth
▁Hydro
▁laughing
▁knees
▁euro
ncy
▁vow
▁practically
▁concerts
▁delighted
▁maximize
.[2]
▁SOLIDWORKS
▁offensive
▁anxious
▁Fisting
▁Impact
▁worn
▁Regard
▁chaos
▁Hardware
▁lightweight
▁attendance
Web
▁GL
eli
▁anchor
▁springs
▁characterized
▁Browse
▁CAR
nel
ander
▁corporations
TON
▁ANY
▁counted
UI
▁Graphics
people
Next
About
▁Root
...”
▁ranks
▁Taka
▁Extension
▁rescued
▁Wan
▁Silicon
sey
▁wi
▁Cruz
▁transparency
▁Seamless
▁Desert
nik
▁Upgrade
▁QC
▁presidential
shu
▁Jr
▁THB
equ
▁mechanisms
▁flows
▁Grass
where
▁butter
▁eighth
▁warnings
▁ink
▁Transformer
▁HC
▁accordingly
사
ease
▁injustice
▁disciple
3.1
▁Trial
BER
2020
▁affair
illo
▁preference
▁brutal
▁Ubuntu
▁inevitable
▁Concern
▁matrix
▁Barbara
▁MOQ
▁Seville
▁expectation
▁5.5
▁Expand
▁tray
tical
▁Cave
▁Demo
ote
▁APP
them
media
▁skip
job
▁Austrian
▁Poor
looking
▁overview
▁Pri
▁Om
31)
World
HTML
display
▁beautifully
▁Said
lem
polis
rain
▁Cooking
▁unforgettable
▁2015-05-0
▁Crazy
▁Gordon
▁microphone
▁housekeeping
gam
rup
▁TP
2/
▁diesel
▁Signs
static
▁stopping
chy
▁compatibility
plus
▁Vir
▁lust
▁Closed
▁Onsen
ished
6,000
11)
▁walks
VO
▁pie
▁RAW
▁exhibit
▁Eating
commerce
FL
His
▁wolf
stage
gio
▁poet
▁KRW
▁comforts
▁tolerate
▁아
cake
▁violate
▁sucking
info
▁employers
▁advocate
▁Bug
▁Gor
▁strengthened
PI
Will
▁Anthony
▁Napoleon
▁prophecies
▁Bentley
▁nowadays
▁stairs
▁Galvanized
106
▁purity
aged
▁Seriously
▁Chairman
▁silly
▁Apr
▁scriptures
▁protocols
▁accidentally
▁hopefully
▁Peak
▁apple
▁wounds
▁regulated
▁Cycle
oil
▁rat
ception
▁Dai
SHI
▁switches
▁surfaces
103
ios
lves
▁polymer
Shrine
[1]
▁interpret
▁workout
▁guards
▁descend
▁interfaces
▁si
▁Gain
▁fade
iding
▁dirt
▁subscribe
Part
▁Luther
then
▁Currency
▁completing
▁garbage
▁libraries
▁actress
▁cycling
▁Gym
▁Scanner
▁bitcoin
▁Pilate
KI
emi
▁Pension
1,000
[7]
▁attracts
▁Document
▁discrimination
wind
▁Stars
DN
tier
▁streams
rot
ige
▁incorporate
▁lawful
▁deploy
▁SDK
▁possessions
▁sy
▁condemned
etta
first
280
stay
▁prevented
▁foundations
▁kilo
"?
tive
▁enrich
AF
▁imagined
▁um
▁tick
▁suspected
▁Kir
▁fur
▁Disco
▁successor
▁fits
▁demanded
igo
pho
dle
▁tiles
▁uncertain
▁Baptist
▁endurance
▁machining
▁wizard
▁Orleans
▁Soccer
▁Olive
▁proxy
▁WIFI
▁placing
▁dried
▁DI
▁woke
quin
Work
oso
▁possessed
▁asshole
▁14.
▁Diet
▁grams
▁Tru
▁NE
▁10:10
▁Economics
▁mud
▁tv
án
num
▁Corner
Music
udge
▁Aid
▁surroundings
▁wonders
▁concentrate
iso
using
▁hack
nov
▁CB
▁Sad
▁PT
bor
▁Nut
▁rival
▁Matter
▁Einstein
▁Hybrid
▁autumn
▁Eagle
▁titjob
▁chef
▁Collins
▁Target
▁Operations
▁clue
▁Doesn
Tech
had
▁stealing
ANCE
▁Theory
zh
esh
▁Cannot
El
▁Kingston
▁Pulse
▁3:1
▁WP
▁guarantees
kes
DF
▁1963
▁hardest
▁numbered
DER
▁String
▁recipe
▁lately
▁Sing
gri
trip
▁Fishing
▁Dictionary
▁necessity
▁invalid
▁Eurail
▁Tesla
▁Stanford
▁Subscribe
▁adhere
▁Jimmy
▁Alarm
▁Lucky
▁greenhouse
▁SU
▁recreational
▁Kal
▁colours
▁seventy
round
▁pu
Si
▁agreements
▁Hin
▁cas
▁defines
▁Boys
pay
▁Canal
▁hates
lag
▁enters
▁dozen
letting
▁Mold
▁dock
▁Walker
uka
▁50,000
▁notifications
▁Effect
▁Whole
▁stressed
▁Thi
▁Alcohol
▁Buddha
▁Ebony
▁proprietary
▁Vertical
▁Christopher
▁renewable
▁handed
▁exported
▁marvelous
▁XML
2.3
▁256
▁Loop
heat
▁composite
▁persistent
▁texts
▁responsive
▁TM
CON
▁Understanding
resistant
JPY
▁Understand
▁Lisa
▁encourages
▁Thin
Air
▁withstand
▁emphasize
▁Term
left
▁honored
sure
108
Su
▁adapted
cht
▁bl
▁cheer
▁Scientific
▁Summary
▁galleries
▁prestigious
▁Domestic
▁isolation
▁Enough
▁marble
▁Skinny
▁Franklin
▁Foam
▁doubts
▁Panama
▁6-
▁wax
▁Mercy
▁Retro
▁suspended
▁Glad
rib
▁lamps
nah
oro
▁Maid
▁Brad
▁Rise
▁forbid
wo
▁Yan
▁charts
black
oke
orn
▁restrict
▁UC
▁admire
▁Painting
rse
▁shocked
▁agreeing
▁supplements
▁planted
▁sang
▁Monitoring
make
▁lighter
▁comparing
▁escort
▁furnace
▁Hyundai
▁secular
▁Worth
▁Expect
▁Basically
▁marketplace
plan
▁Interior
rtificial
▁deaf
▁warship
▁Former
▁OP
▁circuits
▁Gui
▁specialty
▁720
▁Fixed
2.2
▁fonts
▁pope
▁arrangements
▁intake
39)
hun
ista
Net
▁establishing
▁Engineer
▁108
8,000
▁Polar
NP
▁someday
mile
▁smartphones
Cl
First
▁eliminated
▁103
▁chill
▁bot
▁Gets
▁Ambassador
▁Bachelor
▁summary
NU
esteem
▁mobility
▁attachment
▁salad
▁affliction
hara
▁Colorado
▁123
▁Luc
▁2005.
▁busty
▁treasures
▁Ville
▁android
▁conducting
pool
lish
▁TC
trust
▁inherited
▁riders
▁rewarded
Out
▁departments
gro
▁severely
485
–19
▁Chen
25)
▁desperate
2.4
▁colon
ATA
▁labels
▁Satellite
▁macOS
▁synagogue
▁worries
▁Density
▁Mosque
▁sworn
▁Footjob
▁basketball
▁destructive
▁Jew
▁TB
▁relaxation
KA
▁Ibis
▁mock
▁gut
yuan
▁rows
icle
▁surprisingly
pel
ISO
▁horn
cheon
▁Holder
woo
▁2003,
fill
▁justified
▁Hawk
▁scream
▁comp
ania
▁moderate
▁screening
▁cultivate
▁molecules
GHz
▁9:00
actic
rium
▁peer
▁bonds
yon
▁Optional
▁bush
▁filipina
▁Michigan
▁vCenter
▁feather
▁Patrick
▁Maintain
▁oppression
▁Drum
▁fever
▁Moab
▁festivals
▁jealousy
fun
▁Yong
itor
mbo
▁answering
Behold
2013
cie
shaped
▁Shut
▁Vel
▁Limit
▁Est
hur
NV
▁permissions
▁Backpackers
▁Greeks
▁ke
oun
▁templates
▁metals
dian
UK
▁Anniversary
▁Configuration
▁disposal
▁territories
▁Charlotte
▁allergy
▁zoo
▁Purity
enberg
▁viewpoint
byte
UC
▁surround
▁releases
▁Mus
▁(9)
▁photographer
▁Elite
▁118
▁Beat
▁Sit
▁ED
▁reminds
]]
yes
▁Nova
NN
model
los
▁organisations
▁exhaust
lets
▁Victor
▁Wish
▁imitate
▁MU
jiang
▁demon
▁developments
▁Antenna
▁Fantasy
▁PayPal
▁glorify
▁prejudice
▁Applied
▁Biblical
▁polyester
▁Icon
▁Beta
▁Harbor
▁Canyon
▁Senator
▁invent
Mpa
▁rap
INT
saving
▁07:5
▁advancement
▁viewers
▁incorporated
▁Selection
▁journalists
WE
▁Pitch
▁Cris
▁Programs
▁rendered
▁stimulate
▁tar
▁Alternative
eno
FM
21)
1.3
▁Changing
▁Hezekiah
▁Easily
▁Ethereum
▁Independence
▁Massachusetts
▁Surprise
▁tabernacle
▁Representative
▁Shuttle
▁supermarket
▁Jammer
▁trumpet
▁Anime
▁Drunk
▁OLED
104
live
bia
▁Johnny
Heb
▁HK
USE
▁GP
tum
▁flowing
uous
▁restricted
uan
pus
▁Wooden
tron
mission
▁PIN
present
▁discern
").
▁matching
Power
▁absorbed
▁Pas
▁redeem
▁china
▁Meal
rri
▁FE
▁Drinking
▁sponsor
-29
RM
▁flour
▁relaxed
▁Split
▁Herod
▁Copenhagen
▁Statistics
▁Gilead
▁Entry
▁Potter
rator
▁subtle
▁EVA
▁HI
Men
▁drawings
▁Persian
ota
▁Scar
▁Jer
lux
▁Heights
bru
▁chains
30)
doers
▁1939
ulated
▁stove
lines
idi
▁odds
▁2006.
▁Lux
▁practiced
▁enforce
16)
▁simplest
ici
▁literal
rug
▁145
▁(0
aph
▁pigs
▁Consequently
▁Cyprus
▁dessert
▁Rescue
▁foremost
▁updating
▁Basketball
▁architectural
▁supporters
▁Nepal
▁pardon
BT
▁smarter
Book
▁merit
▁RESERVED
▁beverage
▁Guardian
▁draws
▁Ace
▁Walt
▁worldly
flat
CU
▁failures
VER
een
▁Drivers
hall
▁Emma
▁Fran
▁permits
▁landed
▁bytes
▁fatal
▁Tele
▁performs
▁Champions
▁Joan
▁Kay
▁127
horn
▁Noise
▁terminate
wed
▁chapters
▁Cel
▁thorough
▁ARE
Even
ré
▁Birth
▁Peninsula
▁renovation
oi
▁Chubby
▁holiness
▁href
▁Teddy
▁Samaria
▁championship
▁falsehood
▁Tracking
▁theatre
▁Included
ante
eus
▁Bru
▁nerve
▁sensitivity
▁Kobe
hel
ether
▁pp
▁Default
bling
haus
▁Gulf
▁loses
▁armor
▁Indians
VC
therapy
▁Says
▁renew
▁Seed
▁highlights
personal
▁VM
▁Karl
▁Jen
FX
mina
gie
▁Comm
▁Stream
▁30,000
▁scored
102
▁Hormone
▁thrive
▁Passenger
▁dashboard
▁adverse
▁Hindu
▁statistical
BU
lessly
▁Slow
[8]
▁Retrieved
ART
▁weaknesses
▁attitudes
▁Schools
▁albums
location
▁em
kins
▁hinder
▁Seasons
▁circles
▁Clinic
cid
▁contend
▁accord
profit
efficient
Black
▁affecting
▁twist
▁Moo
rig
▁TE
▁warrant
Art
▁touching
-06
▁pur
▁Fully
▁Thessalonians
▁competing
▁mexican
▁surviving
▁Terra
▁Consulate
▁Emily
▁pleasing
▁tiger
43)
▁occurring
▁slim
Here
▁1/4
▁behaviors
fra
▁Piano
▁workforce
▁HOW
▁Workers
▁historian
▁marker
▁vent
▁MPEG
▁wrap
▁teenager
▁Types
▁Naka
mix
▁Cle
dry
▁Sum
ject
▁Concept
▁WO
rine
▁Dome
web
▁nu
▁winds
three
Last
cause
mma
▁Unity
▁Hans
▁costly
▁prey
▁Trailer
dium
▁Columbus
▁Zombie
▁dwelt
▁exquisite
▁Shinjuku
▁Madison
▁Tranny
▁Interactive
kind
▁Background
▁trash
▁involvement
fore
▁1300
▁pixel
▁Thor
230
▁Heater
301
▁Ohio
▁lenses
▁wallpapers
▁Ruby
comp
▁Folder
▁constitution
▁lap
ologist
roy
▁Cher
2012
▁GSM
▁pressed
mount
mie
▁securely
▁dye
▁sustained
▁brass
NY
written
Christian
▁Roy
35)
460
▁justify
gress
▁divorced
▁Spi
▁sandwich
▁brochure
▁circulation
▁galaxy
▁happily
suite
▁footjob
▁Continental
▁07:01
▁Started
▁Wifi
▁Boot
32)
▁neighbour
fort
AK
▁genre
▁expose
▁Kur
▁Ultimately
▁mayor
hof
▁intensive
lk
tas
▁Cla
▁porno
▁clamp
▁directors
▁KA
▁magician
▁rust
▁Dust
▁chairs
saggy
▁seasonal
dio
▁neglect
▁Pie
▁Cars
road
▁imperfect
cate
Thank
▁Yep
mos
▁Slovenia
▁8-
▁crossdresser
▁striving
▁varieties
▁confusing
▁Facial
▁exploration
▁armpit
▁Serving
▁balloon
▁pagan
mah
▁Homestay
▁elite
▁appearing
▁bias
▁Established
▁beaten
▁2019,
▁grounds
eva
▁flourish
▁chase
▁Asset
▁wired
▁id
▁rides
agon
▁1964
NK
▁Bee
▁Grandma
▁Kun
▁126
▁Treat
▁beating
uer
standing
▁teenagers
▁Torre
▁1965
▁beasts
▁Lines
▁jack
pit
17)
▁cube
▁meta
▁babes
▁Administrator
▁Alzheimer
▁Brisbane
▁COPYRIGHT
▁Lithium
▁Treasure
▁appetite
▁simplicity
▁unprecedented
▁warfare
▁missionaries
▁Healthcare
Cha
▁4,000
▁GBP
▁negotiations
▁decorated
▁Oral
/11
▁morality
▁grinding
▁membrane
leg
▁requir
▁sleeve
uf
▁economics
▁Kate
usa
▁advances
▁1%
▁mu
▁qualify
fuck
▁Commerce
▁ruined
▁GHz
▁titled
▁coupled
▁Fra
▁Sang
▁founding
▁camps
▁nail
after
▁fr
36)
-2019
cen
▁airports
▁mentally
▁backed
▁translations
▁complaining
▁Mouse
▁gen
345
▁bur
▁immortal
▁boutique
▁disclosure
▁BOOK
▁glance
▁Kates
▁Regardless
▁Flor
▁bucket
▁Sunset
[9]
▁planetary
vir
▁tempted
bah
▁beans
big
cco
▁hunter
▁personalities
▁basket
▁calculation
vic
▁infant
▁Ruth
▁recognised
▁instructed
▁pills
HL
▁Khan
▁fo
track
▁Educational
▁erase
▁Glen
135
wheel
▁tooth
▁Stan
▁formerly
▁laughter
Nearly
▁gases
Red
▁ethics
cool
▁lectures
rm
▁Feeling
▁Conduct
▁Insert
▁ru
▁musicians
iano
▁psycho
▁Elephant
▁Ephraim
▁Quebec
▁disadvantage
▁inaccessible
▁sneak
▁dominant
▁Nokia
▁chick
▁Decoration
▁Senate
▁Brightness
▁Spiritual
▁unfold
▁Border
▁rejection
▁healthier
▁glue
▁1600
▁lib
▁CSS
▁activation
aven
Data
▁Ny
gua
▁reasoning
▁artwork
▁govern
▁fearful
write
▁MR
edit
▁75%
▁architect
▁bored
posed
▁warns
37)
▁candy
▁1961
▁Hands
UB
fect
▁Deck
▁relates
▁advertisements
Japanese
yne
▁calculations
Check
fast
uce
▁Collect
▁Rom
▁theft
pop
▁checks
ogue
Cr
▁memorable
▁promising
▁caution
▁Erotic
▁psalmist
▁backpackers
▁2-3
itz
▁cement
6.5
-80
books
▁documentary
▁Portland
▁capitalism
ACH
▁mineral
1.6
Isa
▁Provide
▁Carmen
wash
109
▁Sands
▁Mama
▁CAT
Blurb
▁crossed
azi
gr
▁timely
ROM
▁offset
▁Parent
yard
12)
2011
▁extends
▁Mile
▁depict
woman
▁aliens
▁cigarette
Blue
▁Merc
▁Coll
▁MAR
Dr
▁prosper
▁Pig
▁persist
gest
▁Buddhist
▁Mathematics
▁sensation
▁logistics
▁sentiment
▁Cartoon
▁Template
▁Esther
▁WILL
▁cancelled
▁Sexu
▁soundproof
▁Effects
▁Justin
graphic
▁sphere
▁qui
▁Millions
▁Cutter
▁Organic
▁mega
▁prisoner
▁tackle
▁Normally
▁violation
▁Petro
IDE
▁2:1
▁Bernard
▁Deals
▁differential
▁Researchers
▁maintains
▁proves
▁masses
▁Shoot
34)
mis
▁betray
▁wished
mote
Keep
llo
Product
Vi
▁understands
lian
▁Pier
▁pity
▁females
▁credits
▁(25
310
▁MM
▁Condition
▁Adhesive
▁Auckland
▁Bangladesh
▁Difference
▁Municipal
▁fatigue
▁delicate
▁commend
▁Cooper
▁summit
▁Abram
▁sculpture
▁Davis
▁Tent
▁vids
▁VA
cil
eal
▁identifying
stand
▁Quad
▁Ink
seo
▁Mining
▁rotate
▁Birds
▁donor
▁12-
Best
▁Coated
▁Pel
▁Cuban
EU
▁Thousands
▁complained
▁cigarettes
▁pledge
▁interviews
ulating
serv
▁5:00
▁Rad
▁Leon
food
methyl
▁Guarantee
▁Jennifer
▁Nazareth
▁Pocket
호
▁Cancun
▁Novotel
▁Motorcycle
▁barrel
▁Finger
▁Advisory
▁Extended
▁furnished
▁Taste
▁Aero
▁Excuse
alia
▁PER
▁Activity
▁exchanges
▁Anderson
▁1941
▁Glasses
▁travellers
TING
▁9001
▁Forces
▁Meaning
44)
▁Audi
▁headline
James
▁sow
▁SHA
▁treaty
▁1966
ij
lier
tie
▁tro
▁uploaded
▁IM
▁Dor
shire
▁rage
▁gem
▁Maps
▁Lebanon
▁Orthodox
▁Renaissance
▁blossom
▁buffer
▁seemingly
▁transit
▁tendency
hui
▁Wherefore
▁Stories
▁4.1
▁disappointment
▁shortcut
▁exert
▁keen
▁resemble
▁pipeline
▁afflicted
fici
ogen
lute
▁certainty
▁CW
▁tokens
▁Wet
▁Andy
▁144
▁advertisement
▁bud
▁inject
▁Dreams
▁1967
BB
▁Spo
▁broader
▁skirt
pens
uv
Trans
▁brains
960
eat
Cam
▁monsters
▁(10)
▁blowing
▁cleaned
minded
mass
▁homosexual
-45
▁Portrait
▁Capsule
Mbps
▁surgical
shop
▁seafood
▁#3
cio
▁distinctive
▁Managing
uki
▁Valid
BL
▁outlook
▁playback
▁imposed
▁Candy
cation
▁manifestation
▁175
▁139
▁partly
▁Gem
▁paintings
▁Ven
▁Wheels
nz
▁6.0
Hey
VPN
virus
▁partitions
firm
▁kills
ital
▁scam
▁Hook
▁fare
▁Nav
▁torn
▁Cow
,400
3.2
▁epidemic
▁Politics
▁Therapy
▁wavelength
▁Newsletter
▁Countries
▁Robinson
▁describing
▁Dancing
-31
▁unified
201
7,000
▁Cabin
▁refresh
▁Socket
versus
▁OD
▁Uber
▁Reason
▁dreamed
▁philosopher
▁sore
▁Dean
▁Forever
agging
bie
▁limitation
▁08:0
▁bills
▁Improve
▁★
cum
xia
14)
driven
cci
▁sur
OST
ask
writer
▁Agriculture
▁Bucharest
▁determining
▁introducing
▁NTFS
▁quantum
▁Bulk
▁Puzzle
▁develops
▁7)
imo
▁Loft
▁stating
▁Brighton
Home
▁medications
▁echo
▁Sell
▁wisely
▁Vote
KO
▁laughed
uge
▁Barbie
42)
▁Shoe
▁Ivan
▁190
▁firstborn
▁Problems
5.5
▁4.2
▁recipient
▁grades
▁monkey
▁similarly
▁err
▁Rear
▁flip
▁6:9
▁109
ssa
▁ge
▁Portal
system
pac
▁Tickets
VAC
▁emotionally
▁Poli
▁entrepreneurs
▁Sco
onia
13)
▁upgraded
▁thirst
▁scare
▁Booth
▁charger
45)
▁Iraqi
▁Compilation
▁bukkake
′′
▁gesture
▁UEFA
▁incorrect
▁Sav
▁Sync
▁Epi
▁livestock
▁textile
▁murderer
▁03:00
▁Zu
rank
▁complement
▁chairman
▁sealing
▁illustrate
2010
scape
▁electrode
▁Yun
▁surf
gni
▁Labor
▁lend
5.4
▁Doctors
▁1919
gard
▁broadcasting
▁Languages
▁declined
▁Champion
▁Corps
▁Pont
hir
▁Hunt
▁Th
▁Carter
¥
▁Associate
▁dominate
▁NBA
▁Polo
EK
▁Ethiopia
▁blogs
cock
▁compliment
▁Declaration
▁Integration
▁Santiago
▁contributing
▁occupy
▁Animation
▁Sleeve
▁utmost
▁Bottom
▁Explain
▁thunder
▁bareback
▁intentions
▁Elisha
▁discoveries
▁exile
▁datasheet
▁regards
▁cosmetics
▁Approximately
▁explicitly
▁Witch
INA
mper
iden
obo
giving
▁edited
▁lung
▁equations
▁8.4
▁strings
yer
▁utilized
▁Updates
wl
89)
mid
▁Nail
dog
▁digit
▁Eu
▁bundle
RU
▁[[
▁corners
▁delayed
▁GI
ann
▁LOVE
radi
▁reigned
config
▁Constant
hoe
▁8:00
lac
▁Affiliate
▁ambitious
▁controversial
▁galaxies
▁ignorance
▁manuscript
▁redemption
▁improper
▁Threat
▁consecutive
59)
Movs
▁Moore
▁bump
▁Unknown
weight
▁Aren
▁Tire
▁inventory
▁Whit
▁loads
▁Norman
▁Images
117
▁Spark
▁insane
▁5.1
quo
65)
▁Ability
▁seized
41)
▁notable
ply
▁AA
▁lawn
▁Sonic
▁projector
▁aroma
ought
▁counts
▁missile
▁Grid
uru
▁punch
moto
function
▁Bot
rise
▁decides
▁disbelieve
South
▁norm
▁$7
▁hint
-32
290
gainst
▁116
▁HU
▁grants
note
▁Covenant
▁Laundry
▁McAfee
▁rebellious
▁underneath
▁Leopard
▁bathrobes
▁decay
▁cartridge
▁vSphere
▁Exclusive
▁SB
▁Numbers
▁Might
▁Pac
▁Pizza
▁Replacement
▁Priest
User
▁pipes
▁Lao
▁sm
▁transmitter
▁07:59
▁households
▁Fortune
tun
▁FO
▁Alternatively
kon
▁Cake
▁98%
▁Didn
metal
▁Gross
▁cho
▁Dimensions
xx
▁Regulation
23)
▁dancer
▁drying
cade
Video
ril
▁youngest
440
▁praised
▁nuts
(4
▁sucks
KY
▁zones
LAND
▁immense
2014
▁accepts
content
▁Citrix
▁Cycling
▁café
▁discretion
▁enthusiasm
▁identifier
▁Nowadays
▁manipulate
▁respondents
▁Beginning
▁wrapped
▁Giving
▁Barrier
▁Denver
▁Adjustable
▁Tutor
▁FROM
▁Grove
lton
▁Domination
▁RSS
▁Lemon
Bar
bang
▁reportedly
▁Kas
loss
▁Linear
▁32-
▁Damage
▁Plugin
force
PH
▁embodiments
▁refreshing
asi
▁valves
▁Grow
▁Gary
▁stretched
73)
▁margin
▁wander
friend
▁vine
File
▁suggestion
▁outlet
speaking
normal
full
▁Printed
▁280
601
▁Leaders
▁155
GN
▁searched
▁Sul
▁hike
▁Beck
▁Yama
▁arc
▁stole
▁instruct
▁Harris
▁tweet
▁Religious
▁carbide
▁cathedral
▁cholesterol
▁desirable
▁ignorant
▁Psychology
▁modular
▁Oscar
▁Charging
▁bloom
▁Cairo
▁Few
▁wool
▁girdle
▁Bruce
▁couch
▁UFO
▁Macau
▁Wherever
▁enzyme
▁worrying
▁Andrea
▁picking
Cor
▁promptly
▁bugs
Only
▁Ner
▁MAC
▁Ark
▁Sant
▁Carton
3.0
▁pillow
▁Hel
▁111
▁researcher
▁careers
rap
▁divisions
▁Powerful
▁Released
▁Naturally
▁Tester
▁Hon
▁(32
▁mattress
80)
RF
mag
▁Sovereign
▁cautious
▁decisive
▁fountain
▁testosterone
▁undoubtedly
▁perfume
▁Bosnia
▁creep
▁incentive
▁abnormal
▁Gangnam
▁Simulation
▁scandal
▁Graham
▁assemble
▁Aviation
▁DIY
▁Quiet
▁jury
▁classification
▁Sunny
1200
▁displaying
LTD
▁cooler
PU
24)
▁variations
▁Mau
▁Seeing
used
▁EV
▁attacker
▁Robin
▁Slim
▁logging
▁robotic
▁Pastor
loc
▁6,000
▁comic
▁pressures
.[1
▁$6
6.3
169
mut
▁0.00
▁initiatives
OUR
▁claiming
▁Ai
64)
▁truthful
90)
▁handy
▁Wellness
▁7-
cord
▁tr
Char
▁cage
▁Gan
Bi
▁sexually
▁시
mart
▁pri
dB
▁“‘
▁Measure
▁declares
▁Minnesota
▁Scooter
▁curiosity
▁suspension
DL
▁spandex
▁occurrence
git
safe
▁Prevention
▁Ferries
▁Manila
▁Larry
deemed
every
▁faithfully
▁char
▁Blanc
ais
▁Lauren
▁Lyon
▁males
▁passive
vari
▁sincerely
▁halt
WS
Save
▁Tyre
▁Baker
▁statutes
Ah
▁Shift
/7
▁cursed
188
▁traits
▁disrupt
BM
▁Showing
▁165
bid
▁bands
▁cleanse
720
▁recruit
corn
▁cy
▁accommodat
author
▁Helen
Easy
▁subjected
▁affirm
▁Compared
▁Salvation
▁envelope
▁Radisson
▁catfight
▁organizing
▁threatening
Drive
▁legendary
▁JO
▁slice
▁glow
▁MILF
▁Germans
Da
▁holders
▁gateway
▁fulfilling
▁relay
▁Elder
▁Supported
▁Exam
dr
▁deadline
ured
▁brokers
▁138
▁projection
ega
▁6)
▁monitored
▁evaluated
▁JPY
▁incidents
▁Towers
▁Legend
▁formally
▁await
sho
▁Turin
▁Hearing
hee
▁Advance
generating
▁Medi
▁Offers
ury
▁magnet
MG
▁inspect
▁confidential
▁Arrival
▁Strategic
▁cognitive
▁ridiculous
▁vengeance
▁Orchestra
▁indicating
▁storing
▁Gangbang
▁essay
▁communist
jet
▁huh
▁diplomatic
▁5:1
ket
▁blogging
▁{\
▁Rough
▁Warren
▁Pine
▁ECU
ree
▁sadness
▁faint
▁databases
▁medal
▁stressful
▁licenses
▁illustrated
▁obeyed
▁governed
▁Hart
conditioned
46)
72)
▁planes
▁Bass
04:00
▁Strap
▁embodiment
▁newsletter
▁positively
▁Forward
Col
▁yard
▁canvas
22)
pie
▁Role
Exodus
language
Those
lb
Per
▁valued
▁Standards
▁8.2
▁Codes
toxic
KING
eria
▁sometime
48)
div
omo
▁Machining
▁panoramic
▁mandatory
▁Physics
▁macro
▁Lenin
▁cozy
▁embarrassed
▁compassionate
ACT
▁($
FO
▁Cry
▁Filed
▁deliberately
▁Smile
▁Poll
HC
▁Sexual
except
▁Lima
▁faithfulness
▁stances
▁franc
5.00
▁Humans
▁Sai
CN
▁Corn
▁Exp
▁hy
▁Huge
▁LP
▁“[
▁6:1
Give
▁Judas
▁lied
▁114
▁smoothly
▁inappropriate
▁liar
▁executives
▁slaughter
▁Promise
▁homework
▁Till
▁donation
ature
ional
▁transgress
sson
▁shots
▁Lind
erson
▁purely
Port
▁Vid
▁Relations
▁Exactly
▁McDonald
▁Nutrition
▁conjunction
▁Sponsor
▁complications
▁explosive
▁threshold
▁mould
▁Marshall
▁Assistant
▁torque
▁lemon
▁Membership
▁bidet
▁Cherry
▁foil
▁molding
▁05:01
▁Thankfully
▁nude
▁BBW
▁patio
▁dosage
City
▁Ay
▁yo
▁gaze
▁favorable
▁underwater
▁0%
▁911
▁Venue
▁Hau
▁deceived
▁exhausted
▁shout
▁Messages
850
020
▁dominated
▁Sung
▁targeting
▁county
▁decreased
▁float
▁Wallpaper
▁——
▁mapping
dai
▁DN
▁masters
▁propose
9,000
305
▁2.7
atter
▁clicks
▁Tunnel
▁frustration
▁Porsche
▁vocal
▁desolate
국어
▁txxx
▁equity
▁wrist
▁Kent
▁Partition
▁breakthrough
▁(0)
EF
▁fellowship
TF
▁Norton
SB
▁stain
▁Fisher
▁cellular
Pu
▁IPv
▁Flame
▁fixing
▁terrorists
205
▁Rim
▁briefly
hoo
iu
zone
▁bypass
▁cafe
▁screens
▁acids
▁defect
gawa
evi
▁definite
bird
▁Clo
▁climbing
▁contacted
▁2000,
▁Viva
▁Academic
▁Salvador
▁semiconductor
▁widget
▁wolves
▁Approx
▁cubits
▁Interracial
▁quantities
▁Creampie
▁CCTV
▁sustainability
▁durability
▁Smartphone
pdf
▁pork
break
▁cited
▁bal
GM
▁dense
▁Rep
▁Folk
▁Gel
vio
▁fax
\'
arrow
▁$20
jima
lies
▁battles
▁civilians
222
▁Greg
▁3.7
▁conductor
▁constitute
▁Marx
▁euros
photo
▁collapsed
▁3.6
Sex
2.7
▁Perth
talk
▁Waste
nova
▁19.
▁Zoom
ogram
66)
▁Sus
▁regain
▁Customs
▁regulate
degree
Peace
330
▁QR
▁pill
▁3.3
▁outward
▁RESERVE
▁refugee
▁autonomous
69)
18)
▁2.9
tour
▁ion
▁mp
▁jewel
▁uninstall
▁Excavator
▁GmbH
▁closure
▁semester
▁bronze
▁inquiries
▁bulb
▁Admission
▁conservation
▁Respond
▁Mori
▁pallet
▁agenda
▁hostile
▁visualization
▁XL
▁Expressway
▁renewal
▁05:30
logist
zza
6.4
▁Tight
▁whosoever
▁impacts
/16
Je
▁Lev
asse
eptic
002
▁Ost
▁damages
▁Incheon
▁Desk
▁Omni
▁Marc
▁Vic
▁Wang
motion
▁HDD
▁1948
▁Covers
▁cutter
▁512
▁atoms
Make
▁missions
rb
▁scholar
▁mor
▁Rico
190
▁civilian
▁Knight
▁%2
General
▁repay
Play
▁Wo
▁CU
▁elephants
▁excel
rom
cycle
AX
cub
aid
▁1944
▁Illinois
▁Written
▁derivative
▁vulnerability
▁Merciful
▁Attractions
▁implies
vas
▁colonial
▁alpha
▁Volvo
▁corporation
▁Congo
ously
▁motors
▁Coco
▁notebook
▁Barry
▁Created
▁Units
▁therapist
ride
▁DP
outs
HR
rl
010
▁1958
▁processors
▁NP
▁Reform
▁medicines
▁Abel
▁dreaming
▁1962
▁grill
gat
held
▁confront
mai
▁opponent
▁verb
79)
▁expire
eer
▁Cra
especially
▁Assyria
20)
▁Der
▁NV
▁recognise
▁sells
▁Themes
▁Instruments
chain
DT
▁placement
▁Sm
▁Sounds
▁Supplement
▁Democracy
▁magnitude
▁occupies
▁rifle
▁Utility
▁prescription
▁Gloryhole
▁quotation
▁shining
▁Horizontal
▁Decision
▁Bailey
▁Hereafter
upon
▁republic
Point
chel
▁Somebody
▁Julia
bear
▁RIGHTS
anna
▁stepped
▁barriers
▁Marvel
▁refined
▁Catholics
▁socio
▁Evening
▁Films
▁basement
77)
▁Clothing
eight
▁newer
86)
itude
lp
▁*****
▁Socialist
▁forgiving
▁lane
▁implications
▁ingredient
▁throwing
▁builds
▁accuse
Does
kha
member
EY
▁cont
▁Vis
▁pole
▁robe
aq
▁1918
▁Abstract
▁Inspection
▁Terracotta
▁adjacent
▁shampoo
▁(24
▁damaging
▁freight
▁publisher
▁competent
▁Tale
section
▁redirect
▁Presentation
▁homepage
88)
ESS
▁twink
▁Consulting
▁Jong
▁PhD
▁ward
▁Done
▁Mostly
▁improves
▁Suck
▁Ry
lop
▁pulling
▁rebuild
prop
▁tune
fest
share
▁housed
▁Papa
▁assert
▁Minute
imi
▁vol
▁Neg
(3
▁transfers
▁administrators
▁Sets
▁9.0
▁towel
▁ROM
avo
Over
shoot
▁goats
▁hug
203
▁Horizon
▁Slots
▁ambassador
▁nutrients
▁unauthorized
▁collaborative
▁Logistics
▁Yobt
▁illusion
▁ABOUT
▁telescope
▁Miracle
▁spear
▁Thanksgiving
etto
▁Intl
▁polite
▁Moment
▁Durable
▁Dae
▁260
▁KDE
XVideos
▁GE
▁Haven
175
▁fig
▁Groups
▁Analog
▁promotional
▁backward
▁rebel
tention
▁outbreak
▁Sto
bay
oster
▁1942
▁Alaska
▁presenting
▁POS
▁mistaken
95)
aco
▁Industries
▁Ant
Any
▁Vas
▁conquered
sales
iri
lings
zzi
▁Bread
▁organisms
▁tends
▁Drilling
▁blond
▁Calle
▁warmth
▁appoint
2.8
ories
▁Maya
▁Ms
▁retained
iana
▁variation
▁participant
LF
▁mal
js
Mac
neu
▁outdoors
▁4.3
isa
▁2*
▁Qi
52)
▁assemblies
▁diagram
▁exercising
▁primitive
▁turtle
▁specimen
▁Orgasm
▁113
▁Appearance
▁Guinea
▁Yahoo
▁ornament
▁RoHS
▁unaware
▁Wrong
▁Expir
▁dropping
borough
▁inclined
▁realise
storm
▁authorization
▁liable
▁episodes
god
▁Beware
▁HTC
▁kin
▁runner
▁programmes
▁writings
▁erased
▁Nay
fon
▁originated
▁surveys
▁dim
▁attributed
▁3/4
▁FX
▁Waiting
▁herein
itter
▁highlighted
▁850
▁attacking
▁Sodom
▁exceeding
Sc
EI
▁Panels
▁Into
▁25-
▁FS
▁Lace
hair
boat
achi
ended
▁seated
▁creators
▁tracker
Therefore
▁icons
▁unconscious
67)
▁accessing
vian
▁Fab
lone
▁Accuracy
▁Acrylic
▁Faculty
▁Suspension
▁aesthetic
▁medieval
▁remodeled
▁slower
▁goddess
▁versatile
▁DVB
▁TubeWolf
▁Ceiling
▁messaging
▁Resistant
▁Macedonia
Ru
▁Anchor
▁horns
▁greatness
▁fixture
6.6
▁remainder
▁rabbit
▁Hip
▁peers
look
▁mechanics
▁chiller
▁vendors
▁Rum
▁anticipated
▁towers
▁PPT
6000
▁demonstrates
▁deepest
iter
▁heap
borne
feed
▁Cleaner
▁Candle
ension
195
udi
6.7
▁rib
▁graphical
ECT
▁BEST
131
▁Raise
▁ce
easing
007
▁snack
laundry
▁Certain
▁ordering
cream
▁packs
118
▁connectors
▁Kei
▁Outer
pid
145
▁laying
▁forsake
▁immoral
▁Dhabi
▁Jacuzzi
▁Sightseeing
▁bastard
▁remedy
▁accent
▁Cartridge
▁Chronicles
▁absent
▁midnight
€¢
▁Capture
▁stir
dig
▁Chuck
▁considerably
▁ml
▁13:1
Kg
▁quotes
▁DT
▁Grandpa
74)
-300
tip
▁sacrificed
▁201
136
▁inspiring
▁Hen
53)
▁upgrades
▁Shit
▁arises
▁AU
▁mourning
▁florists
▁Alma
▁lungs
▁Luis
185
hz
ITE
refundable
▁bombs
▁speciality
▁minerals
▁Gala
▁sentences
ouch
nell
course
bility
▁Locations
ife
8.5
▁Preparation
▁defensive
▁unpleasant
▁miserable
▁nevertheless
▁exterior
▁expedition
▁pepper
▁fingerprint
▁proverb
▁Pepper
▁crane
▁Reset
▁Kol
▁priorities
▁CN
▁elementary
▁Broad
▁abound
HE
▁Oliver
▁philosophical
▁badge
ager
logic
81)
▁generates
▁travels
▁bonuses
▁Brass
▁Medal
▁thumb
62)
▁Mason
▁122
▁renewed
▁pun
▁enhancement
▁Tier
▁Ages
60)
▁husbands
▁Julian
▁expressing
▁cult
112
▁Commander
▁Jesse
psy
▁ASP
▁Salon
ADE
47)
creat
▁dresses
cross
▁[1
built
security
▁Stack
ucci
▁monument
▁Canaan
▁advisor
titude
777
▁LINE
61)
▁Approved
▁Pantyhose
▁Squirt
▁XenMobile
▁concierge
▁loneliness
▁recompense
▁Bubble
▁drift
▁subtract
▁aviation
▁Bisexual
▁Girlfriend
▁emb
▁multimedia
▁gentlemen
▁Looks
▁Keyboard
▁jaw
hat
▁blanket
▁helper
▁Atlas
▁Barb
168
▁Bund
bei
▁infrared
▁rewarding
▁dude
133
▁scripts
bach
▁oppressed
▁politically
▁Swan
▁conceived
▁Qui
chang
awn
cial
▁Kris
▁struggles
▁musician
▁Sw
▁honesty
▁EMC
4.2
dro
wel
▁coding
▁Sean
▁1,500
▁blocking
▁vitamins
▁Doc
dh
END
▁Writer
▁Nero
enter
▁DAY
▁vendor
temp
Footnote
▁480
129
PRO
▁satellites
▁relieve
▁Shakespeare
▁recycling
▁swedish
▁Margaret
▁Ontario
▁PervC
▁straightforward
640
▁pencil
▁tutor
▁flew
▁eighteen
▁BBQ
0.6
▁Sitemap
▁void
▁HAVE
▁Immediately
vine
▁satan
▁colleges
▁Riding
▁Networks
▁Thing
▁cakes
▁wilt
▁premises
▁Ramada
▁recommendation
▁Victory
▁Pul
▁handsome
▁sixty
URE
Ki
▁defects
▁crushed
▁reproduce
ICO
▁1955
▁limb
center
▁TFT
▁Carol
▁ceased
axis
▁Refer
4.1
▁Spend
▁4:8
▁Recording
USA
▁Scout
▁whisper
▁Surf
57)
depth
▁Ephesians
▁Tr
▁Sec
▁attempting
▁Cleveland
▁Observatory
▁observing
▁Kansas
▁camping
▁decorative
▁Submit
▁SMT
▁Casual
▁Hangzhou
▁Martha
▁Honda
▁7.5
GH
▁teenage
54)
▁reasonably
nni
▁molecular
▁Nun
▁Accordingly
cott
child
▁Romanian
▁Stalin
▁Cargo
▁Seek
▁Grill
▁betrayed
▁6.5
▁Indiana
▁hurts
▁redeemed
▁2004.
▁divers
iable
ood
▁associations
uku
▁von
▁retro
▁candle
▁simpler
▁Wy
▁continents
▁Kr
▁1947
▁BT
▁oxide
Log
▁inherent
030
writing
xo
▁shark
balance
▁gal
zon
angle
Note
United
▁diploma
▁municipal
▁Condominium
▁captivity
▁discomfort
▁tribute
▁cherry
▁Blind
▁slay
▁atomic
▁Setting
▁Destination
drop
cup
▁dislike
▁boundary
▁disability
▁Resin
▁Boiler
▁Sword
▁Opti
tell
▁dinosaurs
eni
▁Lotte
▁Championships
▁pronounced
▁opponents
▁commented
▁pearl
▁References
▁adventures
nin
▁prophetic
▁TitsBo
▁Boom
▁Drawing
▁Alone
▁Flying
▁Tray
years
iber
▁Cab
▁Cain
▁CBD
▁[00:
▁2030
Cause
▁인
please
▁junk
▁cosmetic
[2]
uh
▁launching
LAN
Phil
▁Leading
▁Previously
▁Catch
▁Carlos
▁Swift
▁TOEFL
▁graduation
▁judicial
▁lithium
▁narrative
▁ordinance
▁clarity
▁deciding
▁Respect
▁Spanking
▁altitude
▁Cosplay
▁ladder
▁Textile
▁Insight
85)
▁Binary
osh
▁Older
▁cooked
▁Pride
▁Foil
▁iconic
otto
▁hardness
▁SV
▁immigrant
Master
▁Et
▁enduring
▁electron
▁1957
▁cured
▁->
▁trainer
▁Shooting
▁1050
▁1956
HT
▁freeze
icular
▁Mann
aker
▁flies
▁hormones
▁altered
FR
▁TCP
parent
.[3]
0.8
▁Cats
▁OM
icide
Non
▁nails
fly
▁AUD
IEC
▁Fl
▁$0
▁gel
feld
▁likeness
oko
▁Acronis
▁Awesome
▁Dubrovnik
▁TripAdvisor
▁nickname
▁nitrogen
▁turkish
▁Platinum
▁Sacred
▁WetPlace
▁Transmission
▁Laptop
▁Quote
▁trustworthy
▁milestone
citation
▁Canvas
agi
▁breakdown
▁unclear
▁Crack
▁Jake
▁overwhelmed
▁Thick
▁elevated
375
▁q
▁Iranian
580
▁Hamster
▁promotes
97)
▁0.01
▁needy
ISE
▁Pound
RAM
260
▁Pod
rpm
▁farms
sqm
▁Fighting
hwa
55)
▁organizational
▁weaken
eter
▁troubles
▁$50
▁yea
▁Masters
▁$8
▁SPA
cine
▁triggered
odi
risk
▁conceal
▁exalt
rica
lid
▁predictions
▁Epic
HI
▁4:1
▁premier
▁oz
▁Tang
science
→
▁Labs
kk
▁Cloth
▁fragment
Most
▁Trotsky
▁Detroit
▁Lennon
▁Nintendo
▁Practical
▁Synchronis
▁franchise
▁physicist
▁exotic
▁encoding
▁Brief
▁steward
▁discourse
▁sciences
▁Midtown
▁orchestra
▁hammer
jah
▁Jonah
▁Sab
▁invoke
▁Crisis
▁Separate
▁Uniform
tty
▁fond
▁GPU
▁jokes
▁belonged
▁RAID
3.6
erg
▁Yokohama
▁hostage
▁raid
▁Brick
▁directive
▁Ale
▁Earn
▁snacks
▁Hostal
▁voluntary
blin
▁coastal
▁backwards
▁lament
pine
▁ABC
lab
▁MK
▁slots
▁steroids
-70
▁equip
▁revealing
rak
sai
▁logged
▁Choi
▁prompted
▁mon
▁Away
▁uphold
1.8
ente
▁1949
MU
▁Berg
▁IF
▁Oz
▁LM
ario
▁pursued
▁retire
7.3
▁Headquarters
chem
▁tram
Galatians
blue
▁bend
winning
▁BB
▁CIA
▁Principles
▁curtain
▁jumped
5.6
▁MHz
▁Belgian
▁Continuous
▁Destroy
▁cameltoe
▁Conf
▁acceleration
▁freak
▁abode
82)
▁Jewelry
▁Conversion
▁NATO
▁rainfall
King
▁outline
TURE
▁daddy
▁undertake
▁Malta
worthy
40)
mari
▁Throw
▁trusting
▁Typically
▁lip
eye
▁Tat
▁MX
▁Secondly
▁Bud
▁rays
mode
▁Shows
▁scales
RAN
▁ET
▁insure
▁PD
uit
▁Adams
▁governing
▁sailing
▁Beau
Many
tek
found
▁..."
pil
oa
▁incomplete
flo
(2)
▁socially
▁Edwards
▁Receive
▁Nar
▁fortunate
dir
standard
Sharing
▁Kiss
AZ
▁Patient
▁Fal
▁Cologne
▁Column
▁impulse
▁velocity
▁irregular
▁Gh
▁ribbon
▁steep
▁Lawrence
▁hood
▁tagged
▁dutch
▁Pilot
tral
▁Dirty
▁Been
▁waist
▁Begin
▁fourteen
480
▁applicants
around
▁08:30
image
▁odor
▁Ava
▁tailored
super
▁Wallet
▁Minutes
▁Ped
▁confession
▁Networking
▁EOS
▁Dominican
Pack
▁vest
▁Monthly
▁fin
▁trim
call
▁proceeded
▁Adjuster
▁Bak
Zog
bber
▁Clinical
▁1943
▁Supports
9.99
xin
▁canceled
▁performances
hom
rou
ENG
help
▁regulator
▁pockets
owned
vil
▁Miles
▁slight
▁Antalya
▁SPECIFICATIONS
▁calculator
▁celebrating
▁replacing
▁Permanent
▁terrain
iba
mov
▁Frederick
▁governance
▁Calvin
▁FARO
▁underwent
▁2500
▁fancy
[11]
▁fools
▁printers
▁disasters
56)
▁horny
▁edges
▁Penn
▁neat
▁belly
root
▁Jacket
changing
▁realities
▁colleague
▁compliant
▁1953
▁Reach
▁accompanying
▁Tal
▁Suit
▁Employees
▁amino
▁emit
▁realization
ih
▁technically
▁SATA
▁7.8
fri
▁prohibit
lice
▁boiler
680
▁scatter
▁deed
doc
▁Provides
▁Experts
ross
49)
fid
Hu
▁Swinger
▁Estonia
Zero
▁Joel
▁hum
UD
▁Election
▁Thirty
▁aluminium
▁calcium
▁disgrace
▁grocery
▁steadfast
▁Pussy
▁Kazakhstan
▁animated
▁eagle
▁memorial
▁insulin
▁Huawei
▁trunk
▁Blessing
▁radar
▁Soldier
▁WhatsApp
▁Progress
▁Beatles
▁gently
▁Kuala
▁plastics
▁wore
▁Hannah
▁Pedro
▁mainstream
▁retention
short
uo
▁Markets
▁thrust
▁Habit
▁Trend
uba
▁devote
▁introduces
▁Tease
▁physicians
▁roast
▁2001.
▁concentrated
96)
▁Charter
lore
▁agrees
▁fixes
▁ox
▁repairs
agan
▁pub
▁controllers
▁angles
alo
ZE
▁impress
▁woods
▁indicators
▁bass
▁RJ
▁appliances
▁revelations
▁affiliate
▁Northwest
lau
520
4.4
06:10
sters
▁marvel
father
51)
▁sounded
nde
lom
▁Detector
▁WORLD
▁disobedience
▁economies
▁vegetarian
▁Trouble
▁jungle
▁stabilize
MIN
▁Scroll
▁Spread
▁bracelet
▁watt
▁lease
▁Empty
▁firmware
▁screenshot
▁cocktail
ution
▁Mansion
▁particle
isi
Lab
▁insect
▁Democrats
▁Wayne
▁considers
▁hitting
▁[2]
▁Hammer
▁Weekend
▁OT
▁SAM
▁alcoholic
▁Disable
▁workshops
hou
▁superb
THER
▁evidently
▁strengthening
▁Fig
ddy
92)
▁Ox
commun
lyn
▁Mul
▁18:00
▁Rolling
▁conclusions
▁Boxes
▁embraced
▁Makes
▁aggregate
▁professors
▁Zinc
▁Barn
▁folding
▁tabs
ENCE
▁interrupt
▁Turning
▁crowds
▁Michel
15)
▁seize
▁Spec
grand
ulo
▁(11)
▁protector
kindness
▁activists
dae
▁Samaritan
▁consensus
▁declaring
▁Tanzania
▁elaborate
▁Diploma
▁Married
▁sketch
▁Saigon
▁carriers
▁incense
▁Costume
without
Two
▁Lawyer
▁Stockings
▁Arrow
▁envy
▁MOD
▁comfortably
▁humankind
▁hypo
▁reef
▁systematic
▁Karen
▁auction
conf
▁PRE
▁Nas
512
▁Pete
▁awaits
▁polish
▁Thermo
▁Sei
▁worthless
apa
119
2009
▁portions
boo
▁SAN
▁Lily
▁interviewed
uga
▁configurations
▁Carry
0.9
▁funded
encies
*3
▁shooter
68)
PF
84)
▁Laura
▁Hank
080
ographic
UG
current
▁socialist
hopper
heng
▁hats
1.7
cryptocurrencies
▁Alfred
▁Compliance
▁EmEditor
▁Thompson
▁collision
▁discreet
▁inflatable
▁restoring
▁breathtaking
▁piston
▁Prevent
▁accountable
▁disbelievers
▁treats
▁330
▁pension
▁Replace
▁Instrument
▁emission
▁monk
91)
▁Sala
▁06:5
▁validation
▁annoying
▁(27
Back
▁optimistic
▁initiated
fan
▁Guangdong
Key
▁sodium
▁competitor
▁Alexandria
▁pickup
▁Publisher
▁counselor
powered
:1-3
▁prevail
▁exports
▁Shore
station
iwa
▁raises
▁bearings
emia
kill
flu
100%
▁resting
▁DU
▁Olympia
▁Dock
94)
▁Punch
▁Josh
▁2001,
▁Thr
▁3-5
93)
▁fasting
▁Mixer
http
Everything
▁Serbia
loft
▁Dive
iler
▁Helsinki
▁Nicholas
▁Philosophy
▁Pokémon
▁Dresden
▁queries
▁upgrading
▁Rainbow
▁vivid
▁supervision
▁cleared
▁sixteen
▁Nickel
▁imprisoned
▁Batman
▁entrepreneur
▁capsule
▁Cali
▁frightened
▁Vie
▁(12)
▁mines
▁Tonight
▁documented
▁handles
▁Rush
▁frog
Press
▁JA
▁phases
AO
kra
bab
▁tongues
▁Mira
2008
▁fruitful
▁mandate
40°
▁phrases
▁(21
▁Tren
▁neo
▁transported
▁conception
Pay
▁alternatives
UX
???
880
▁oppress
rance
▁financially
pra
▁woven
▁educate
plication
▁1917
▁risky
▁Boots
▁Wat
▁JIS
▁Sao
▁Gates
▁witch
▁bombing
▁Hui
050
oda
▁ruins
bun
▁parliament
ffe
▁Baltimore
▁Bronze
▁Lumpur
▁Palazzo
▁custody
▁harbor
▁turbine
▁Positive
▁Initiative
▁courtyard
▁Pornoid
▁shocking
▁Sudan
▁worshipped
NAME
▁Interestingly
▁convicted
▁toolbar
144
Set
▁colony
▁gameplay
▁SUN
04:59
▁Lucy
▁collects
▁bestowed
sheet
▁reactor
212
blo
▁weary
▁Pets
7.4
▁Stud
▁noon
▁Sn
▁missiles
DEX
uffle
Bs
▁lively
cient
uber
▁collections
▁124
~1
▁negotiate
▁cents
▁Bend
rec
▁homo
▁respectful
▁Por
LES
▁8.5
offering
▁Berkeley
▁Depression
▁IELTS
▁Pavilion
▁Zhejiang
▁inexpensive
▁therapeutic
▁utilizing
▁Jamaica
▁radius
▁romance
▁harness
▁Saviour
▁grandchildren
▁Failure
▁Sermon
▁priesthood
▁Ottoman
▁wildlife
50)
▁Patients
▁Philips
robe
▁playground
erial
▁firewall
▁syn
124
▁Mormon
▁goodbye
▁Photography
▁Romance
▁Horny
▁excuses
▁Afghan
▁Bulgarian
▁Cala
▁overflow
fusion
▁mice
▁#4
▁Choos
▁24:14
▁detector
▁Element
▁brew
▁backing
▁headset
plane
▁weep
▁exceeded
▁pH
CF
▁Shortly
skin
▁Georgian
▁Lifting
War
▁respects
condition
▁1400
▁jar
▁AF
▁Slave
Tell
▁refine
alone
▁Nest
▁mus
natural
KS
Service
material
Design
yp
meters
▁(+
▁Approach
▁Fountain
▁Hokkaido
▁circular
▁mushroom
▁nephew
▁examining
▁Luckily
▁conquest
▁consistency
ISS
▁Bullet
▁jazz
[12]
▁Profit
Never
add
plex
▁3.8
▁CJ
zar
aiah
▁squad
▁Demon
▁Riad
▁reinforced
▁Prop
▁dew
▁2%
▁Makeup
BN
×1
▁Westin
▁Superman
▁Ran
eira
Coin
▁genuinely
mination
115
▁assumptions
▁Kang
▁textbook
▁kingdoms
▁Kel
sort
▁collector
works
▁sponsored
▁traditionally
MF
ocratic
▁joints
▁pioneers
kle
lide
▁Breath
▁shepherds
$1
▁impose
RES
API
forming
kka
suit
strict
▁unfortunate
▁traveler
▁Bao
▁matched
▁Counsel
controlled
Daniel
▁Accident
▁Melchizedek
▁Rechargeable
▁advancing
▁curriculum
▁devastating
▁subsidiary
▁tremble
▁friction
▁Mould
▁alternate
▁chastisement
▁Mathematical
▁Vincent
▁Throne
▁additive
▁Returns
▁proving
▁undergraduate
Click
▁(40
▁Ranger
number
▁depths
▁transforming
▁compiled
▁Gender
▁snake
▁rats
198
213
▁exchanged
jur
▁Adding
▁offended
▁SEA
dging
bee
▁disclosed
EVER
hap
▁Whose
pas
▁Growing
▁Neo
Working
unit
▁1-2
mur
did
▁Tong
▁Provid
cad
▁Ple
▁monitors
▁Indie
jun
▁Fil
▁SEC
▁MIT
kata
▁pc
jar
28)
▁XM
▁Banking
▁Centro
▁Parker
134
▁Queens
▁motivate
▁earning
▁stiff
wen
▁apparatus
▁economist
▁inflammation
▁maturity
▁nursing
▁receptor
▁rigorous
▁cheek
▁nozzle
▁termination
▁Jessica
▁Speech
▁Configure
▁hiking
▁defence
▁misery
▁Michelle
acre
▁Joab
▁Dawn
▁addressing
▁Leaf
▁revision
▁121
▁136
▁abused
▁Bloom
▁Homepage
▁02:00
▁Cliff
XT
▁obstacle
▁hop
▁Sodium
▁Afterward
▁boarding
bby
▁Pierre
hay
OB
▁STA
▁133
pher
060
selling
▁exceptions
cost
▁2002,
▁secretly
▁Avi
▁Franc
▁bridges
▁attained
370
▁KW
420
▁186
▁plead
▁Highly
▁1935
▁baskets
▁Benz
▁Cole
fix
▁devour
▁migrate
^
▁fuse
78)
▁sporting
SN
▁VS
▁hears
ICAL
▁fulfil
▁PCI
season
▁Swa
▁Appliance
▁Azerbaijan
▁Bethlehem
▁fracture
▁Oregon
▁liberation
mouth
▁Derek
▁invites
87)
▁denial
▁404
▁adultery
▁lawsuit
▁frustrated
▁Unix
▁cleansing
UNG
gues
▁explorer
▁Maryland
▁footage
▁Instruction
third
▁athlete
▁Passion
▁crap
4000
▁Americas
▁Specific
▁worldâ
VM
▁Neu
1/
▁WC
▁overseer
▁sect
▁bending
IAN
▁Chef
▁farting
▁bury
58)
▁1946
▁270
vol
▁conditioner
▁oneself
▁Talking
▁hooker
▁TT
▁patiently
▁14:1
▁ML
wave
▁Comic
▁melting
▁economical
going
▁hopeless
▁sufficiently
Cap
▁accompany
ODM
755
▁kissed
▁Pil
▁Quin
126
shell
▁potent
▁NEWS
107
▁awe
Max
EVE
scan
▁knowledgeable
▁Albania
▁05:3
scope
hawk
Deut
▁Alba
Japan
Search
video
▁Manasseh
▁biblical
▁caffeine
▁preceding
▁thieves
▁supervisor
▁ultrasonic
▁compensate
▁Anabolic
▁Lucifer
▁Tallinn
▁crawl
▁Oasis
▁judging
▁Boeing
▁Kuwait
▁drought
▁interference
▁Consumption
▁Disaster
▁substrate
cheng
▁Holmes
▁unemployment
560
▁Monkey
▁Angry
▁rooftop
▁banana
▁motel
▁Directive
▁chess
▁nurses
Line
▁fuels
▁frightening
▁spill
here
▁Required
▁Connecting
▁Carrier
▁Rogers
▁collar
▁bent
loom
▁3:13
▁undermine
▁ranges
▁MON
▁Mou
▁Guys
rilla
▁Lessons
▁Strike
▁temper
116
▁beg
▁illustrates
▁mailing
Che
▁extensively
oji
etti
pub
Call
71)
▁Serve
▁portray
▁Publication
▁explicit
.0%
▁challenged
▁hackers
UA
(5
Share
androlone
▁Humidity
▁Mitchell
▁Oxygen
▁Ralph
▁grandparents
▁spiral
▁arbitration
▁inviting
▁buddy
▁Murray
▁Equal
▁hiring
▁thyself
▁Abi
177
Pi
▁Reef
Old
▁Serial
▁torrent
[10]
▁Grande
▁expects
▁RES
▁playlist
▁KC
uct
▁Mighty
▁persecuted
cry
▁discouraged
▁USE
▁cries
▁Delight
itive
80,000
▁bookmark
wai
PG
▁10000
▁Glo
▁analyse
▁1998,
▁Prof
ologies
▁cab
▁eva
▁Drag
iller
▁Listing
saw
AVE
▁ext
▁Useful
▁condo
TX
▁stocks
Km
▁Finn
▁sho
▁Selected
Shi
▁engineered
▁Tau
▁rob
▁pointing
nomic
▁pane
▁dismiss
▁persuade
▁initiate
▁combinations
▁historically
▁Killer
▁Kos
▁LT
▁Basket
▁underestimate
▁Ecuador
▁Edmonton
▁Fantastic
▁Responsibility
▁Tournament
▁bracket
▁lyrics
▁revival
▁Ninja
▁Capitol
▁Jefferson
▁Sunshine
▁Purple
▁antivirus
▁Loving
▁Sinai
▁Arctic
▁wines
▁logs
▁deception
Map
▁Analyzer
▁Gregory
▁Marble
▁farther
▁Virus
▁LTE
▁recycled
▁shelf
▁stall
▁Centers
▁Florist
phen
secure
yeon
RB
▁hello
▁Interested
Allah
▁fashionable
▁warrior
▁antibiotics
▁parade
▁yoke
▁Woe
▁EF
▁prediction
▁Toward
ogenic
mol
▁1951
▁Selling
▁SAR
▁Cube
▁TX
hart
kW
▁switched
VDC
▁6:00
▁Sid
iver
1-1
▁geographical
194
▁pond
▁inclusive
4.0
▁Minor
▁Blo
▁coll
▁rises
▁Jia
▁10:30
▁IDE
▁(35
▁goat
▁bowed
▁swift
="1
smith
trade
▁recreation
▁Horn
▁Cad
▁mist
▁incoming
▁FCC
▁Jakarta
▁Possible
▁acrylic
▁ambulance
▁analyzing
▁convincing
▁décor
▁identifies
▁proletariat
▁allergic
▁footsteps
▁nonsense
▁preservation
▁Linda
▁Labour
▁Kazan
▁Mankind
▁Shark
Everyone
▁Aircraft
▁extinction
▁brotherhood
▁Programming
▁Leonardo
▁accessibility
III
3.7
▁electrons
▁Reservations
▁weekends
▁shi
620
▁Issues
▁despised
▁Allied
▁caps
isco
63)
▁molecule
▁Blast
▁Quinta
tool
nto
Ni
quest
▁Hz
cycl
lite
mill
▁Meters
▁rot
▁technicians
▁Gad
▁Interest
oti
▁Desire
▁Jing
ipping
▁promotions
▁Breaker
GC
ankoz
▁OUT
▁cared
▁Hana
hop
EAS
trap
Hear
▁seduce
▁peel
amba
WP
sexual
▁Initial
▁Psalms
kn
Sim
▁delegates
▁Judea
▁Admiral
▁theologian
▁Symphony
▁Utilities
▁Warehouse
▁recognizing
▁souvenir
▁solemn
▁Hiroshima
▁Famous
▁copied
▁Duplex
▁compelling
▁straw
Australia
▁Granada
North
▁Ridge
▁disposition
Since
▁poetry
▁immorality
▁Botanical
nti
▁Attention
▁roar
▁Jude
5.7
TEC
allow
▁Months
▁diagnose
▁Folding
4.6
▁Rig
▁contributes
▁soak
▁ordained
▁Marcus
▁Combined
▁administered
▁selective
▁Exodus
▁168
▁audiences
best
▁Kom
▁Rua
▁GU
▁launches
WAY
▁Sent
▁Galerie
▁buck
cable
▁bases
▁1959
▁positioning
▁Provided
2.6
▁philosophers
▁GMT
▁UTC
▁privately
▁inserted
▁Spe
▁acute
lai
▁supportive
▁lions
Inter
▁patented
▁confuse
▁inquire
▁zombies
gov
▁Keys
▁Alerts
▁ku
▁greed
paid
TOR
▁146
▁Grab
▁Mut
▁Beverage
▁Café
▁communicating
▁crucified
▁inflict
▁jizzbunker
▁Myanmar
▁dairy
▁dictate
▁penetrate
▁Stanley
Pacific
▁Ensure
Father
Option
▁Sharp
▁picnic
▁bathing
▁1952
▁Alexis
▁Hillary
▁HERE
▁Secondary
▁Suppose
▁sharks
▁(22
▁populations
▁Asked
▁HFS
▁Deca
6.1
▁BP
▁forums
202
▁Tracker
formed
2-4
Safe
claim
▁timeline
▁SG
▁recognizes
▁pillows
▁borrowed
shore
clusive
▁(50
change
▁Develop
▁manages
▁Visitor
▁Lite
ivo
▁lightly
▁Tara
▁Pun
▁lick
▁Siri
▁Miya
▁insufficient
▁beverages
▁proceedings
▁surge
lg
-33
▁Pai
▁differentiate
▁exhort
▁partnerships
buk
▁winding
▁Agricultural
▁Cricket
▁Lazarus
▁celebrities
▁humanitarian
▁licensing
▁nurture
▁obscure
▁ridicule
▁Ningbo
▁clarify
▁Claire
▁alphabet
▁inequality
▁rotating
▁Assessment
▁pornography
Deuteronomy
▁revolt
▁thorn
256
▁Nancy
▁Yourself
jpg
▁Moral
gene
▁Receiver
-500
▁tilt
▁Warner
▁nourish
hear
aunt
▁ramp
▁refuses
▁Absolute
given
▁deepen
▁politician
▁1933
▁Fame
▁Rein
▁wiki
▁cater
0.7
▁Ahab
▁shew
PCS
hiro
▁Advantages
▁Router
▁Detailed
jp
▁imply
News
▁worshipers
▁inventor
hit
▁reforms
▁132
inc
▁dip
nai
▁counterpart
▁Mei
rp
format
ego
▁handful
303
▁Satin
▁tents
Hot
▁Ratio
Arm
275
▁willingly
138
▁Koreans
▁Athletic
▁Guatemala
▁LANGUAGE
▁Palestinian
▁Semiconductor
▁Starbucks
▁Yosemite
▁pyramid
▁whilst
▁deleting
▁Diagnostic
▁snapshot
▁PTFE
▁Esau
▁sunshine
▁Earlier
▁stitch
▁cooperative
Ecclesiastes
▁kidding
AIR
carbon
House
▁Owen
▁Cooperation
▁Bookmark
Year
▁recipes
▁environmentally
▁Alps
▁Quite
▁Initially
▁Naked
hip
php
▁fri
▁Boo
▁FTP
iac
nta
270
vita
▁unite
▁Foods
▁varying
▁Coordinat
▁7:1
▁hail
▁constitutes
▁variant
▁14:00
ures
▁Quest
▁sew
▁OUR
▁whale
lecommunications
uta
Top
▁KOREA
▁NZ
▁commerce
▁conferences
▁Examples
▁Swing
directional
▁10.1
hak
▁Bod
▁ego
▁notify
NF
▁Myth
LOG
▁Buying
▁toast
▁DX
oshi
▁Displays
▁lakes
1500
▁manifested
ako
189
▁damp
▁transcend
▁Alldatasheet
▁Catherine
▁Procedure
▁deluxe
▁terrified
▁umbrella
▁veteran
▁Hudson
▁duplicate
▁hollow
▁puppy
▁volcano
▁Pillow
▁haunt
▁finite
▁Woo
Script
▁Adrian
Contact
db
83)
▁Clamp
▁Recycle
▁Airways
▁webpage
TEL
peace
▁detective
inn
▁filing
production
▁DVR
mul
atta
▁CNN
ummy
▁fingering
▁forgetting
▁outlined
▁momentum
▁Gla
▁notified
HU
ENS
nick
complete
▁Tear
udd
▁mixer
▁vineyard
national
seven
NZ
▁4.4
▁align
▁Rocket
122
▁Galeri
▁origins
▁에
555
neck
▁TL
▁Nile
▁Dating
▁arising
mother
▁digits
▁Deb
▁witnessing
still
setting
▁Mate
EMA
139
▁deter
▁slider
▁Fuse
▁Ang
TIC
▁analyzed
/24
6.8
▁Dot
▁:::
▁credentials
▁Elements
▁Venezuela
▁fights
▁poorly
iated
▁flocks
arra
ador
▁Stein
▁disappears
▁Banks
▁peculiar
▁PornGem
▁Tennessee
▁breeze
▁decimal
▁energies
▁thirteen
▁Reliable
▁unconditional
▁LIFE
▁Qatar
▁Mercure
▁multilingual
▁Guitar
▁ADHD
▁Broker
▁Belize
▁nightclub
▁Healing
title
▁Hundreds
▁Vent
▁Mommy
173
▁tallest
▁SunPorno
▁kW
▁GET
▁Mae
▁Siam
▁indirectly
70)
▁JU
▁Mental
▁Keeping
▁objection
▁desperately
▁Feng
▁substantially
▁steering
▁thrilled
▁verbal
▁Mir
▁Courses
127
metry
▁mainland
▁centered
▁mansion
▁Flo
▁20:00
▁Rust
qi
node
228
▁mole
▁Cache
▁comedy
▁Amber
▁15,000
▁conventions
▁Lime
▁endured
Stop
▁Hur
Term
▁commissioned
▁precede
nim
▁Promo
▁06:0
▁Milano
price
▁und
▁exams
▁Vari
/0
▁phenomena
▁Morris
▁Ras
▁Corinth
▁prophesy
▁sanctified
▁Inquiry
▁Teresa
misunderstanding
▁simplified
▁grammar
▁ETAS
▁Masturbation
rav
half
▁veil
▁rebuke
▁Viking
▁visualize
▁woe
▁Seagate
▁offshore
▁Danny
▁Huang
▁8.8
▁Serbian
-90
▁herbs
▁Rolled
▁validity
ORE
Right
custom
Dupe
▁Perry
▁GIF
▁Standing
filled
▁surprises
▁Churches
▁overtake
▁countryside
▁purify
▁Camping
▁Listening
-150
▁responds
ilo
amo
▁Ping
174
410
▁Neuro
▁ip
▁Ranch
5.0
▁dine
▁Seller
▁plainly
▁EMS
▁Originally
▁Rare
▁Panda
▁fighter
azar
▁fundamentally
040
uth
137
▁Firm
▁(100
liver
lina
▁BL
▁traded
dder
▁businessman
RING
zio
▁Rhino
▁Latina
fine
▁Divorce
▁Millennium
▁Transmitter
▁Violence
▁comparable
▁eliminating
▁enclosure
▁inevitably
▁merchandise
▁refrain
▁superuniverse
▁LinkedIn
▁Parallel
▁tidings
▁ninth
▁dominion
▁microscope
▁Handheld
▁Lastly
▁Sustainable
▁Saturn
film
▁9.1
▁seventeen
▁intact
▁dental
▁fox
▁Audition
▁calf
▁nap
▁duck
▁Logic
▁groom
chemical
▁interruption
▁strengths
Learn
ppy
▁WIN
▁Rin
▁WW
▁centres
▁violated
chat
▁cleansed
▁weeping
114
▁Rabbit
▁rim
▁Coal
due
▁1936
▁newborn
gang
▁FT
▁ur
both
▁presentations
-36
gla
rong
▁Includes
MAX
▁Broadcast
▁stud
▁Cove
▁Transit
▁dread
▁Yuan
▁converting
BD
ía
▁silicon
Pad
bc
▁7.6
DY
▁Europa
Gal
▁habitat
▁Disposable
▁Filipino
▁obsessed
▁Arnold
▁Xiamen
▁martyr
▁unlawful
▁Entrance
▁Statue
▁nasty
▁fornication
▁Institution
▁segments
▁shrine
▁genome
▁rugged
▁integrating
▁PlayStation
▁Radiator
▁replies
▁Craig
▁gagging
▁Needle
▁stray
▁Believers
▁Venus
System
Chinese
▁Ritz
▁Sue
▁marriages
▁organizer
▁delightful
▁sorting
▁Dash
WC
▁176
biotic
▁Nazis
▁Outlet
▁7.0
▁LIVE
▁donated
▁dough
sports
▁proposals
▁AMP
▁critics
▁Hood
▁Chance
acious
deal
▁Naga
▁8.6
▁Ideas
▁Lam
▁Rope
▁geographic
clus
▁rooted
▁Buyer
▁Saying
▁Skill
▁oceans
▁RV
▁thrill
▁IPL
taking
▁kits
▁1931
430
fil
▁Modules
DU
▁atom
▁fortress
▁Loan
▁Functions
149
▁originate
▁%1$
jack
▁AIR
980
▁ti
▁Kita
▁Cure
▁relie
GG
▁pioneering
▁administer
uji
▁Listings
install
▁unions
▁nerves
003
▁alleged
▁RH
IRE
▁thoughtful
▁Ei
▁mag
▁Bldg
▁Buffalo
▁Logitech
▁Pneumatic
▁executing
▁galvanized
▁predecessor
▁Smooth
▁inclusion
▁slander
▁wrongdoing
▁Ugly
▁guiding
▁submarine
▁hazardous
▁exceeds
▁Chapel
▁preserving
▁Arcade
▁omni
▁Balloon
▁Landmark
▁Ashley
MR
Cloud
▁Harrison
watt
balancing
dex
▁por
▁Riverside
▁PAR
▁deliverance
▁freezing
▁suffers
▁filtering
▁Mik
▁recommends
▁DL
▁®
="2
▁disturbing
▁deposits
hack
▁Riga
▁Developed
Trade
iron
copy
▁pillars
Like
▁Fake
iza
▁presently
▁interpreted
▁threads
▁arrows
▁TIME
nine
▁BUT
▁modification
/50
▁organism
founder
▁reporter
510
▁Sandy
▁06:4
7.7
▁Bah
610
glia
Plus
rage
▁LL
▁yards
▁Neck
quit
▁Pav
365
▁WD
▁Yea
▁pee
ppo
▁Hut
▁safest
shed
▁Mongolia
▁TN
logical
▁Palma
sided
IAL
AWG
▁sovereign
▁charter
▁Fellow
▁Alabama
▁Birmingham
▁Chemistry
▁enhancing
▁financing
▁slogan
▁squeeze
▁intuition
▁Mystery
▁therapies
▁Staying
▁Welded
▁cosmic
▁zinc
▁kilometres
▁Pablo
▁Orient
▁yarn
▁viewer
▁indigenous
▁Insulation
▁impart
▁Slut
▁traitor
leading
▁assisted
hub
▁battlefield
▁Maison
something
plastic
▁crowded
Sun
Tool
▁Protector
▁appropriately
▁invaded
▁Hardness
▁Brew
maid
▁17:00
▁traces
▁Babylonian
▁mindful
▁confronted
▁rip
▁boiling
/9
▁beforehand
▁american
▁emphasized
▁dynamics
dependent
▁Drama
evo
▁Trader
▁Deco
181
▁stag
▁insisted
▁$25
▁Advantage
kou
▁supplying
their
▁HY
▁사
▁Mol
lik
▁fibers
▁forcing
▁117
Form
chon
▁AAA
▁Answers
▁gladly
▁behavioral
▁Household
moth
▁inhabit
▁despise
▁Rand
plant
dition
nica
▁310
Fox
▁seals
▁deer
▁Autumn
▁Infrastructure
▁Lloyd
▁Mosaic
▁accusation
▁marijuana
▁metaphor
▁multiplied
▁precipitation
▁vocabulary
▁cottage
▁slew
▁defining
▁sojourn
▁Hama
▁Regency
▁plunge
▁Naomi
▁patron
▁Console
▁Cheese
▁apk
▁Polymer
▁alignment
inder
▁prospective
▁IcePorn
▁Sever
▁Trim
ICS
▁9/11
ugg
▁siblings
Type
Water
▁transferring
▁Lifestyle
give
▁doses
Full
▁MDF
306
▁willingness
▁Dur
▁Fen
__
▁SY
0.4
▁(23
Photo
▁Julie
cd
▁alerts
▁Engineers
▁Colon
▁sim
▁spit
▁Kata
Use
chip
series
▁4.8
▁basics
▁ascend
▁Retreat
▁LS
▁Mounted
▁Requested
▁Brit
+1
▁Equi
dine
▁Flights
ibi
fair
▁raped
pose
▁Palo
▁metric
▁diminish
grove
▁assumption
tang
▁halls
▁boil
tino
▁extracted
▁Maha
▁Hak
▁Kre
▁inputs
lining
▁Detection
▁Giovanni
▁Intermediate
▁Measuring
▁Roosevelt
▁Twelve
▁Unlimited
▁absorption
▁champagne
▁inferior
▁intermediate
▁mortgage
▁pedestrian
▁prophesied
▁remembrance
▁skull
▁queue
▁mosque
▁Breast
▁ANKO
▁neighbourhood
▁Evernote
▁Stepmom
▁predator
▁Malay
aca
▁Hakone
▁Gauge
▁False
▁Composite
▁1250
▁reproduction
▁Trash
▁rebuilt
witch
▁Debian
Sub
▁Nishi
public
▁appealing
▁Fans
▁minority
▁Ideal
While
Great
wife
▁zip
▁PAGE
▁Nude
008
/30
▁리
▁COMP
▁Solve
▁adaptation
alter
▁quicker
▁Tao
▁Coral
bug
▁idol
▁offend
local
▁adjustments
▁Cassi
▁standardized
okie
▁15:00
uration
▁possesses
▁doggy
▁investigated
THE
lou
▁Someday
▁consuming
▁PB
▁sec
▁3%
▁orphan
▁Georg
1-4
▁imperial
▁40,000
▁Colorful
▁foresee
▁spheres
NR
▁descriptions
▁donate
▁Phen
▁exclude
RIS
▁$15
▁feeds
▁3.4
▁Typical
▁Edu
graphy
▁dots
▁SAS
▁deserved
chrom
▁CHA
tronic
▁Secrets
Intercontinental
▁Brexit
▁Conversation
▁accredited
▁aerospace
▁obliged
▁steadily
▁Suggest
▁meditate
firefox
▁pellet
▁abusive
▁racist
▁inflation
▁routing
▁swept
▁Frost
▁forehead
▁proudly
▁Optimize
▁Automobile
▁Signature
▁banquet
Gbps
▁generic
▁Elementary
▁colonies
▁Punta
▁kitchenette
▁tier
▁RPG
▁scribes
▁Billboard
▁Bosch
▁refurbished
340
▁Drake
▁Wol
▁coward
pixel
famous
▁Wright
▁scent
▁Producer
social
▁waterfall
because
▁wires
health
▁monuments
▁Documents
▁exceedingly
xxx
▁grandma
▁cows
nge
NESS
▁Artists
▁billing
pplicable
▁aligned
▁interrupted
▁GC
▁Sally
▁installations
▁STR
▁Moto
gic
▁mathematician
▁merchant
heart
▁lifelong
phase
▁corrected
▁STO
▁Bac
pati
▁$9
agged
▁148
▁violations
Korea
▁Doors
▁MAX
ently
▁infants
▁Amp
▁donations
▁uncover
▁Rider
▁Chal
San
▁recordings
ée
▁capsules
skiy
▁inward
much
606
fused
▁Behavior
▁Bristol
▁INFORMATION
▁Innovative
▁Refugee
▁Relief
▁Volunteer
▁attentive
▁nudity
▁registry
▁rejoicing
▁releasing
▁Kensington
▁pupil
▁Surround
▁Richmond
▁Titan
▁steak
▁Panties
▁Node
▁snare
▁Bondage
[13]
▁richest
▁IDD
▁Rolex
ographer
▁intentionally
April
fruit
Ab
▁Beast
▁adviser
▁welded
204
▁Ted
lance
spot
▁4+
▁curves
▁Kissing
▁Fence
▁realised
▁suburbs
▁trader
▁compromised
▁hassle
metric
▁5:12
▁sticks
lv
gui
▁pilots
yle
▁overhead
▁peacefully
▁weighing
▁3:15
▁Contain
angel
rose
▁Bulb
▁Forgive
▁9.2
▁JS
▁BU
▁intern
670
drive
▁zeal
▁bail
▁Tall
string
▁stumble
▁1938
▁BD
▁remotely
lead
▁plugins
▁tactics
▁rightly
TES
activity
▁Celebrity
▁Expedia
▁Families
▁Frozen
▁Niagara
▁Salzburg
▁Subscription
▁UNESCO
▁accustomed
▁capturing
▁generosity
▁likelihood
▁pronunciation
▁sabbath
▁sprinkle
▁Antwerp
▁Brochure
▁Leisure
▁Bolivia
▁quarrel
▁Renovate
▁disabilities
▁Sultan
▁Cameron
▁lb
▁Fluke
▁131
▁mortality
▁HQ
▁eternally
/2017
▁Caught
▁Missing
interest
▁Latex
▁Mounting
Super
true
▁Canaanite
iku
▁ham
▁Bil
▁dated
▁rig
▁Diver
inner
Reg
▁12:1
▁Filters
▁FU
2007
keeping
-2000
▁jumping
▁Paid
glass
having
WF
▁pic
1/2
▁progression
poly
▁ruble
501
▁Fed
▁qualifications
▁Mich
225
▁DH
▁gig
▁Ec
▁pirate
▁qualification
▁Noble
▁Deleted
MIT
▁Paste
176
▁vineyards
▁Kil
▁Shaft
ANA
▁addict
seat
▁Lau
▁Commons
▁spreads
▁revive
rna
▁KP
moon
Vol
▁affiliates
▁Invest
Mom
▁compass
rchaeological
▁Bolshevik
▁Bordeaux
▁Tumblr
▁athletic
▁calamity
▁feminine
▁voucher
▁amusement
▁Aurora
▁Competitive
▁SERVICE
▁Tensile
▁intervene
handed
▁Roselle
▁134
▁Fiji
enko
▁adorn
156
▁ACT
▁05:10
▁Lotus
▁illustrations
family
operative
growing
length
▁hereafter
335
▁gallon
pressure
Room
▁Hospitality
▁5*
▁discovering
▁Diana
▁posture
▁Hmm
ija
Young
Talk
LET
▁Greatest
▁linking
▁VAT
▁Holly
▁Viewing
178
rik
▁coordinate
▁questioning
▁blown
▁7:00
▁merchants
▁Billion
elo
▁07:3
touch
ISH
▁Sole
▁borne
▁10)
▁Volt
▁Haiti
clo
▁prospects
tori
Test
▁APIs
▁designation
▁Slovakia
▁miraculous
ref
LAS
▁RIGHT
amide
▁governmental
▁successes
▁Genuine
▁Honolulu
▁Ishmael
▁Quantity
▁aquarium
▁coconut
▁repetition
▁terrifying
▁anabolic
▁DDoS
▁Cardinal
▁Hitachi
▁tariff
▁coalition
▁Tutorial
▁infectious
▁Random
▁Algeria
▁Keyword
▁Venture
▁Elevator
▁bounce
zawa
▁Brake
▁Dee
▁committing
▁Pirate
▁madness
▁tumors
▁Towel
▁(15)
:16:19
double
490
▁Absolutely
Help
▁accumulated
(10
kgs
▁Cement
player
oC
▁induce
▁enrolled
▁JAPAN
▁poorest
▁4:4
▁Citizens
BP
▁Pala
▁Cosmo
▁sour
▁Jae
▁Perl
▁google
▁professionally
60°
▁Paulo
▁rods
▁Hil
isha
▁Employee
▁149
269
▁Searching
▁adore
▁recalled
▁Rings
▁129
▁Espa
▁tissues
▁enroll
▁Tha
▁lined
▁earnings
▁Mach
▁Naha
ndra
spoke
medi
▁Announce
▁Personally
▁Graphic
kHz
▁Confirm
219
▁preacher
▁Absalom
▁Elliot
▁Zechariah
▁arguing
▁cushion
▁gadget
▁junior
▁scalable
▁supplication
▁Overseas
▁Transparent
▁neurons
cision
▁Guidelines
▁2007-11-
.[4]
▁shutdown
▁Housewife
▁INTER
▁riot
▁advertisers
141
▁lacked
▁SUS
▁interpreter
▁WAS
▁Wellington
▁Honestly
lix
▁disruption
asia
▁VP
lod
depend
August
▁Berry
▁VGA
▁thirsty
▁tide
clear
▁Residences
▁Stamp
centric
▁RM
▁Founder
▁rude
▁Colonel
▁captains
▁spur
▁travelled
▁illnesses
▁Alto
▁Tiny
▁SJ
OUS
▁Arabian
▁Vinci
▁Kits
▁Lucia
▁nationality
227
▁ponder
▁mortals
BY
CY
▁1929
▁Pap
▁chickens
▁Hop
raz
▁compute
▁Woods
MY
minated
▁epic
▁Lim
▁roses
AQ
ival
ERN
ulus
evil
▁Burning
▁dealings
▁Mali
Host
lick
▁URLs
▁bloody
itic
780
▁heights
large
▁pics
▁backgrounds
GER
▁hung
▁202
Big
▁devils
OVER
functional
▁Acetate
▁Butterfly
▁Encyclopedia
▁Mississippi
▁Mitsubishi
▁Temporary
▁acoustic
▁bouquet
▁siege
▁Warrior
▁renamed
▁bliss
▁adorable
▁Woven
▁Infinite
▁monetar
▁debts
▁Fleet
▁Claim
▁urine
▁masterpiece
▁Guess
801
▁chew
▁embryo
▁Nearby
RED
▁cheerful
Christ
six
toria
Colossians
Official
▁backpack
▁Needs
▁Emo
NING
▁burns
▁Neil
▁Nicola
▁Stable
close
HER
▁Chase
Based
▁Hire
▁zealous
▁1.25
▁COP
▁uniquely
▁Deli
660
▁synthesis
RN
▁pale
def
216
▁Whereas
▁stays
737
▁rushed
▁Prev
▁bon
▁2:9
ín
▁Aka
▁Kirk
camp
76)
ushi
pole
brook
▁Reward
▁plea
those
▁Happen
ibo
0-1
▁derive
support
▁Adopt
▁Deuteronomy
▁Luna
▁Criminal
▁Employment
▁Pentecost
▁awkward
▁bizarre
▁feminist
▁repository
▁buzz
▁wreck
clean
▁Dispute
▁expelled
▁contamination
▁Gorgeous
▁Landscape
▁rigid
▁Sunrise
▁chasing
▁Globe
▁conductivity
▁scanned
▁DIS
▁REAL
▁Genetic
▁revised
▁Announcement
▁Seems
▁Automated
197
▁Sisters
ADA
▁smokers
Op
IPS
too
▁Sheets
Nothing
special
▁1-3
▁schemes
Tri
▁ETH
Number
▁keywords
▁Clients
▁persuaded
199
plate
▁pronounce
operation
▁Univ
▁dismissed
▁SITE
▁relying
▁Trap
pound
▁approx
▁hash
▁spine
▁bedding
▁motives
purpose
zaki
Mr
▁checkout
▁newsletters
730
dling
▁Titus
▁retrieved
▁aiming
pair
▁flush
▁meek
hama
fab
470
▁Whom
▁Canadians
ishi
March
▁Etc
▁1/3
server
▁wept
▁(14)
▁137
▁Philippians
▁Gifts
▁dash
▁Customize
▁Came
connect
bou
XL
▁Matsu
8.1
▁helpless
ATH
Mainland
▁discriminat
chron
▁requesting
▁Albufeira
▁COMPANY
▁Nebuchadnezzar
▁Sleazy
▁removable
▁spontaneous
▁stimulation
▁bargain
▁maneuver
▁mysteries
▁Josiah
▁Identity
▁Missouri
optimum
▁Stupid
▁protests
▁Simulator
▁Windsor
▁spider
▁Newspaper
▁ecological
▁Stroke
▁rotary
draw
▁Fusion
▁Patong
thirds
▁Diving
▁Manuel
▁Ghana
▁laptops
▁Mia
▁grandson
▁Oslo
▁NGO
▁recorder
▁DOC
▁sunny
▁streamline
▁Scal
▁chariots
▁confined
▁nightlife
▁tra
qualified
▁Cont
▁Bart
▁Interesting
GL
▁#5
▁MG
▁1954
▁reporters
Mail
wei
KU
▁freezer
▁Toner
Listen
GU
Date
▁Builder
▁wellness
▁banker
▁Weekly
▁UX
▁demonstrat
▁entertain
osi
▁Shame
▁editions
▁motive
▁parental
▁157
▁milling
▁Dryer
icon
▁Prat
tero
Add
orial
▁Idea
pla
esi
strate
Real
▁Reap
Find
▁enthusiastic
▁chaste
ication
▁Buck
▁tailor
▁Pit
otel
▁ESXi
▁Evidence
▁astronomy
▁cemetery
▁obesity
▁suspicion
▁Nagasaki
▁Buffet
▁Nissan
▁Arbitration
▁necklace
▁Vendor
escent
uli
▁cursor
▁worthwhile
▁refusing
▁lazy
▁sedan
▁Anybody
▁novels
▁prosperous
▁Monica
▁Disneyland
▁contaminated
▁Tak
08)
▁Lap
LOW
▁composer
available
▁prolonged
Build
277
email
glu
panel
▁Ent
factor
ör
▁bark
▁7,000
▁NET
▁04:5
▁retailers
▁Lucas
obi
▁tracked
233
▁Registered
ér
▁Businesses
Care
▁breeding
▁Evans
005
▁worshiped
▁Component
Site
DVD
4.8
▁Abuse
Bit
▁(13)
▁dispers
sell
▁Jah
TED
workers
cute
▁Reflect
▁contacting
▁mins
morrow
▁Drugs
▁labeled
▁Readers
▁Blizzard
▁Maldives
▁Penguin
▁Sukhumvit
▁Vegetable
▁disregard
▁fertilizer
▁frustrating
▁gasoline
▁investigator
▁peasant
▁Toggle
ulu
▁monarch
▁integer
▁Cumshot
▁Yacht
▁Zhong
▁Underground
▁Uninstall
▁420
▁shaping
▁HGH
▁gentleman
▁blink
arily
▁24:3
▁testified
3.4
▁hover
▁cone
▁arena
VIEW
004
▁Setup
▁Brun
▁ideally
▁typing
▁4.7
▁concludes
need
▁Desi
▁puzzles
▁dull
flex
▁QU
▁INC
▁Bye
RH
▁Rewards
▁awaiting
355
▁Legends
▁meaningless
iate
20,000
Win
▁critic
▁ACC
950
159
▁Citizen
▁Todd
▁pine
▁sweep
▁remembering
▁staring
▁CFD
.[5]
▁restrain
▁outlets
▁Highland
5.3
▁Amar
▁Regis
▁storms
▁lodge
▁misuse
▁blamed
▁Kum
process
▁flooring
▁Earl
pain
▁losers
▁React
▁elastic
▁Def
▁Circ
owner
▁Excellence
▁Infrared
▁Jupiter
▁Nonetheless
▁extinguish
▁illumination
▁respiratory
▁investigating
▁BIBLE
▁surcharge
/2015
▁tuition
▁SHOP
▁internship
▁Specifically
▁fiery
▁Frequently
▁Matrix
▁Forgiveness
▁Jamie
▁Stats
268
▁Lilies
▁submitting
▁merge
▁Clothes
vice
▁customization
nig
▁Princeton
▁bets
▁scarce
Cal
50°
▁Basel
▁08:02
▁pertain
sensitive
▁migrants
Count
▁142
▁Fle
little
▁Ranking
▁viable
▁ascended
▁Architect
▁assuming
dot
ugh
million
▁Goal
▁Bean
266
▁shortest
760
3.9
▁2:3
276
▁Vac
▁152
augh
/100
▁indulge
▁Finder
mite
mobil
nzo
▁Magnet
99)
▁promo
▁Shen
▁pillar
5.1
▁warriors
50%
▁rolls
▁freed
Mil
▁symbolize
3-5
▁Saga
LIN
▁contradict
▁Holdings
▁quad
▁burdens
▁lace
630
▁doubled
▁Teachers
▁earnest
▁Israelite
▁Ethics
▁ventilation
▁Mandarin
▁unseen
▁Registry
▁Utah
▁Sandwich
▁drugged
▁malaria
▁Ripple
▁Fighter
▁rebelled
▁waking
▁Friendship
▁Toolbar
▁exploitation
333
▁embarrassing
▁Nike
▁LV
▁Relay
▁conveyor
▁builder
yun
▁null
6.2
▁invoice
▁exhibits
622
Happy
premise
Yeah
▁DW
WH
culture
▁sticker
▁expired
▁Conc
157
▁duct
▁terminated
iq
▁booty
▁Cul
▁Cay
▁Rhodes
▁Gon
▁Gru
YU
▁Milling
Event
▁11:30
▁Rou
▁debug
▁rumors
▁earthquakes
4.3
▁Serviced
▁Adv
▁astronomical
▁repairing
▁Contents
▁1:00
▁idle
▁Commissioner
▁overlooked
▁Mina
▁plum
▁Exist
iser
2-1
▁variants
▁(60
▁Loved
rma
▁7.1
colored
▁sadly
cz
▁awaken
▁ARM
▁Skills
▁admits
790
▁Trying
/2018
▁suggesting
▁Armor
▁bourgeois
▁Quan
▁Sanders
▁Franco
▁Catalog
▁Amendment
▁Attorney
▁Avenida
▁Lecture
▁SanDisk
▁Universities
▁Vladimir
▁Zimbabwe
▁acquiring
▁clause
▁decentralized
▁perpetual
▁vicious
▁Penthouse
▁Corrugat
▁Gyeonggi
▁quartz
▁smash
▁mistress
▁Advice
▁clash
▁Tyler
▁acres
▁Knee
▁reconstruction
▁nationwide
161
▁Operator
▁sch
▁observer
▁tread
[14]
▁Bobby
▁internally
▁Liu
aud
▁Revolutionary
mara
▁Reverse
▁06:30
learn
▁Admin
▁prone
▁cardboard
Phone
Source
▁Unto
▁3:10
▁Extensions
▁accidental
sound
▁Muse
▁clan
▁Shim
▁realizing
-2017
sole
121
00:00
▁Wonderful
▁Mint
▁BIOS
▁fittings
lé
spec
▁drawer
find
OTT
oba
isk
▁4:3
[3]
▁manufactures
tale
164
▁Songs
▁GF
Eph
▁Deity
166
▁Mara
▁Liber
▁Dump
▁2:4
hp
kura
10:01
▁employs
lust
▁Yoshi
-400
▁Cana
▁Strange
▁stance
tong
▁hypocrites
▁VIEW
▁}}
EAN
ready
▁flex
▁hopeful
▁gaps
Plan
▁Armenia
▁balancing
▁Leonard
▁pointer
▁tranquil
▁Alexa
▁knit
▁Majesty
▁admonition
▁aggression
▁constellation
▁destined
▁glacier
▁inadequate
▁ungodly
▁nickel
▁Acquire
▁Gandhi
▁lottery
▁Residential
▁neural
▁Parc
▁Christchurch
▁Klein
JI
▁harassment
▁shaking
▁Murder
▁Queensland
▁Hurry
boot
▁Motorola
▁sized
▁Atomic
▁fullness
▁antique
▁Handling
113
▁hardened
▁extraction
[4]
Philippians
▁Trick
▁Motels
▁offender
MPa
▁6:4
▁Thu
vending
▁Including
Ray
trained
▁156
▁informal
▁entertaining
151
▁Pharma
▁heir
TIA
mae
▁descended
▁offence
▁GUI
▁catches
▁gum
▁Rai
-2018
▁expresses
▁apples
▁USP
▁Youtube
295
262
save
prove
igi
kyo
▁Armed
axial
▁humbled
▁Cage
▁inhibit
▁suppress
▁Require
▁analysts
▁historians
west
▁Henri
naval
▁Edom
▁Tail
▁nm
▁robber
▁1937
625
▁potato
▁Investors
NB
ducing
▁LGBT
▁Fifty
▁Ingredient
▁Qingdao
▁Trenbolone
▁acquainted
▁catastrophe
▁entrusted
▁fabulous
▁seduction
▁chassis
▁voyage
▁Tunisia
▁asteroid
▁Calibration
▁VIDEO
▁stubborn
▁Twist
▁Decorative
▁arcade
▁Upskirt
▁supernatural
▁Hakata
▁cubic
▁baking
▁firing
▁motto
▁Marketplace
▁coupons
▁Midian
▁Leica
rule
▁standpoint
▁Telecom
▁scanners
▁homeland
▁04:26
▁Bench
zero
▁Git
▁Lightning
▁harmless
▁JW
▁Chinatown
club
▁corpse
▁skies
International
703
▁Pale
▁dome
▁lowly
▁Blake
COR
igan
221
▁Mao
▁Gill
think
▁donkey
Teen
▁revenues
▁denying
▁repeating
▁Heels
▁0.05
-47
▁ICT
▁Audit
tani
▁smiles
▁finishes
▁Hyde
▁Firstly
▁Methods
breaking
bio
▁beard
▁POP
▁deco
▁Ronald
EEN
▁153
▁McG
/25
slave
▁brighter
208
▁reinforce
desk
▁surpass
gb
▁headache
▁Credits
azz
▁rejoiced
itted
▁Sup
▁Rentals
Son
▁institutional
Comp
▁Advisor
▁exercised
▁overthrow
bike
enstein
▁!!
▁Claus
ete
▁calibrat
Ri
▁recalls
▁Detective
▁Technique
▁aspiration
▁astonishing
▁expenditure
▁nudist
▁simulator
strasse
▁wiring
▁Clever
▁Panzer
▁acne
6.9
▁spinning
▁Croco
▁photographers
GIS
[18]
▁Terry
MER
▁fusion
▁vanity
▁MED
▁catching
ental
▁dissolved
158
▁stepping
▁JMP
▁struggled
fact
PVC
nen
▁defender
Remember
program
▁economically
886
▁sanctions
▁tract
9.9
255
▁MET
▁Burg
▁Duck
▁Bone
▁GMP
Sea
▁Melt
187
▁Transition
-1000
▁shallow
▁Greetings
810
solid
ivi
▁wow
▁exhibitions
rier
▁fog
▁knoweth
lived
▁considerations
▁Gin
▁modifications
▁192
ovsky
325
▁shadows
870
▁Republicans
▁decor
▁grapes
rip
seed
▁slides
▁Turner
▁lid
-75
alized
▁lesser
paper
▁Rota
▁Cau
9.8
▁collectors
fat
▁Sakura
elia
Page
▁1,200
loy
▁Manufacture
▁editors
196
final
hydro
filtration
▁Alibaba
▁BlackBerry
▁Difficult
▁Eiffel
▁Macintosh
▁Marrakech
▁Stewart
▁christmas
▁laboratories
▁precaution
▁sliding
▁undeserved
▁unsuccessful
▁eclipse
▁UHF
▁Forecast
▁Lorenzo
▁aloud
▁Cancellation
▁Modular
▁wifi
▁suitcase
▁PADI
▁Topics
▁proactive
▁midget
070
easy
▁barcode
▁05:02
▁solvent
▁proceeds
▁Activate
uting
▁sack
▁Forty
▁Lumen
▁earnestly
cf
▁Failed
▁centralized
▁infect
8000
▁lifespan
cloud
▁Elsa
Green
▁addicted
768
▁oversee
▁worsen
access
▁Musa
travel
▁Promised
▁Across
321
▁poles
TEX
▁Phi
▁spirituality
▁Ou
issa
▁pigment
▁Critical
▁flavors
–2
▁coordinates
▁Debt
mous
mad
▁sheer
▁Rover
▁Dora
▁PART
▁Resist
▁Tract
matsu
▁Consult
▁Coron
gay
▁Accounting
▁locker
▁stretching
▁algebra
Post
▁147
▁tires
▁replicate
▁disconnect
▁BW
▁locks
▁anticipate
▁ASS
▁tightly
▁keyword
▁flames
West
▁189
▁Seminar
▁Tomb
SAN
sets
astro
anga
▁Script
▁extinct
▁Rib
▁Approval
▁Quartz
▁astronaut
▁glimpse
▁hierarchy
▁manipulation
▁mosquito
▁penalties
▁remedies
▁unchanged
▁vampire
▁deteriorate
▁electromagnetic
▁Computing
▁Kansai
▁Stereo
▁Edison
209
▁Dennis
▁Gather
▁Sector
▁Monaco
▁fireworks
▁Attend
▁Jiang
▁Deutsch
▁spacecraft
eki
▁Passport
▁periodically
▁Townhouse
▁Result
▁Dental
aut
▁Chung
▁8.3
▁Vehicles
▁polluted
▁tester
enburg
▁Hawaiian
▁Liz
design
German
▁predictable
▁DF
▁Lor
▁fatty
▁bestow
▁Forgot
unny
£
015
▁dB
cultural
▁endpoint
▁fighters
tica
issue
▁Amen
▁23]
▁wasting
Hello
small
NX
▁emo
▁Clay
▁Dish
▁Kla
▁4:6
▁Pub
7.1
ubi
rising
▁exporting
▁flags
▁shirts
▁pads
▁$30
raw
▁kicked
▁Verde
▁privileged
▁assignments
▁tapes
1.9
▁painter
▁trails
192
▁fairy
Cat
sphere
3.8
▁ND
▁dinosaur
▁ser
▁Philippine
▁Seen
▁8.9
▁Gau
▁dev
▁reg
▁Bearings
▁Abbey
▁Collaboration
▁Dolphin
▁Earthquake
▁Efficient
▁GROUP
▁Palestine
▁Vegetarian
▁expiration
▁wrought
▁quench
▁Eugene
▁Spacious
▁Condens
▁unstable
gur
▁slippers
▁chunk
▁Scholarship
▁UAE
▁imprisonment
▁purification
▁disturbance
▁Kawa
▁CMOS
▁Population
▁Mare
▁beacon
▁Rotat
▁sushi
▁royalty
▁eject
▁Bengal
▁bonding
▁Talent
▁DMX
▁WinPorn
▁patrol
▁schoolgirl
▁Lay
▁limiting
▁06:01
스트
▁shelves
▁structured
▁2:00
▁spinal
▁Lyn
▁Clara
▁182
▁Notification
▁Dude
lique
bai
▁Nap
bone
025
▁Maxim
Linux
•
Surely
▁comforting
▁shells
rust
why
▁Novel
▁adopting
▁Knights
optional
▁Sold
296
2:06
sei
▁shipments
7.6
lion
▁screws
TOP
▁Schu
▁imperialist
XP
0:06
▁Nara
206
▁2:2
▁terminals
Start
Wall
▁impressions
▁credited
▁upside
▁스
540
▁overseers
▁Museo
186
▁Pha
▁Instructions
▁KR
▁wishing
7.9
CAR
▁Quickly
▁continual
▁morally
▁weld
▁Kick
▁Dei
▁Trends
▁Bologna
▁Cuisine
▁Miguel
▁Nevada
▁Policies
▁dwarf
▁hesitation
▁masturbating
▁monastery
▁nucleus
▁vulnerabilities
="%(
▁tasty
▁kidnapped
▁imbalance
▁Concrete
▁rehabilitation
▁Reveal
▁Lobby
▁Refresh
▁Blank
▁partake
▁immortality
▁Discussion
▁Bei
▁bestowal
Live
▁Lac
kid
▁Tub
▁MW
▁XD
lasting
▁CITY
▁counseling
plug
011
▁misleading
▁Lack
▁swelling
▁Functional
▁Orphek
ARY
▁shaken
▁mum
dori
conscious
▁accountability
▁Garage
▁Opened
different
business
▁Shah
OLD
▁HT
▁Sticker
▁85%
▁observers
▁installer
▁Arms
HK
▁richer
▁learners
liter
▁reinstall
June
▁Sym
-120
lene
▁1905
dorf
▁Promote
▁recipients
▁breadth
▁NOTE
▁Libya
▁Boxing
▁listeners
▁crashed
zin
▁Poe
SER
▁3:2
ovo
00000
▁obeying
525
▁symptom
148
▁Jungle
▁ste
▁Shouldn
vac
▁Jab
▁planting
▁typ
induced
▁[3]
▁grieve
▁Slip
▁exporter
▁Persia
▁chariot
▁filmmaker
▁washer
182
ando
fen
279
Girl
▁negotiation
NER
▁Damascus
▁Deputy
▁Diabetes
▁bounty
▁inclination
▁sampling
▁satisfactory
▁vegetation
▁Champagne
▁dolphin
▁anguish
▁Quantum
▁tasting
▁asylum
▁Cristina
▁securing
▁compelled
▁meteor
▁Silence
▁gearbox
▁Matte
▁unavailable
▁gro
▁theorem
[17]
▁Winning
▁Buzz
▁Yen
▁OTHER
yna
BOX
▁Gyeong
dah
▁intersection
anza
▁forged
▁Parties
know
dad
▁Mala
▁Penh
-240
▁1928
shadow
woven
▁ph
session
country
▁projected
▁shouted
▁thrilling
cription
▁Startup
▁passages
▁reflecting
▁neglected
▁hacked
Soft
▁CAM
-39
▁astronomers
▁200,000
▁pumping
limit
▁BAR
Her
▁Rh
▁stresses
▁nutritional
zia
▁metrics
▁jointly
▁JE
▁2,500
lake
▁Brook
▁researching
▁5:14
▁Rey
▁NOR
ault
▁185
lane
feng
▁architects
▁hurting
▁Mineral
▁Belle
▁Absolut
▁copying
JA
▁ghosts
▁impacted
132
▁Nico
9.5
umber
▁equi
285
▁Maz
kun
TRO
▁smiled
▁1923
▁programmed
▁rider
GT
▁chemist
▁Bungalow
▁Enclosure
▁Introducing
▁Opportunity
▁Spencer
▁Tropical
▁capacities
▁compartment
▁deceased
▁deficiency
▁hepatitis
▁suffice
▁astonished
▁deficit
▁stakeholders
▁Pioneer
▁metadata
▁spindle
▁rainbow
▁craving
▁Assistance
▁cocaine
▁Broken
▁Refrigerator
▁Corfu
▁Jeong
▁Decide
▁blows
▁lump
▁ballot
team
▁Angela
404
USB
▁dietary
pod
▁fist
▁Publishing
401
▁shaved
▁pervert
▁SAE
▁Annie
▁downtime
▁Changed
oire
omplimentary
while
economic
November
▁Quay
▁Twink
before
▁concealed
▁overload
▁Improved
▁weakened
living
▁understandable
▁sewing
▁depicted
ipped
▁Grave
▁기
sys
▁162
30,000
▁gall
centered
▁pest
▁Wai
▁disappoint
rack
▁Wiki
dler
▁supposedly
820
yah
*10
▁spared
served
▁Mist
▁premise
▁CG
▁Macro
▁thermo
raise
▁jerk
302
▁Recorder
7-9
▁suspend
▁discourage
▁simulate
901
mura
▁Compos
▁indefinite
zzy
▁practitioners
▁Benefit
▁Shy
LB
▁lining
▁celebrations
build
▁bloggers
▁pilgrim
▁gamble
:4.0.30319
▁Elegant
▁Extrusion
▁Facility
▁Kentucky
▁Newcastle
▁Participants
▁Riviera
▁Transceiver
▁Vodka
▁dishonest
▁humbly
▁ignoring
▁reluctant
▁Lingerie
▁carriage
▁Catalonia
▁Protein
▁Bbw
▁persevere
▁violin
▁atonement
▁José
▁Murphy
▁Snack
▁victories
06:07
▁apology
▁FedEx
▁Campbell
▁pluck
▁spreadsheet
▁premature
▁sponsorship
▁Hindi
▁radioactive
▁adware
▁Playground
▁Omega
▁descent
▁Trademark
▁Blend
▁Gram
▁510
▁Antique
▁plow
▁Harold
Pass
▁baked
▁Facts
bye
▁swiftly
▁cram
soever
▁(28
rf
▁Terri
▁crashes
lapse
▁dealers
▁uncovered
▁Tran
Would
Which
▁Cheating
▁Pornic
Unix
▁subjection
WAN
▁shameful
▁Milky
Color
▁Fool
▁KL
▁8,000
▁provinces
▁Lynn
▁Sau
▁transformer
▁didst
▁Anger
agawa
▁damned
▁$200
146
▁Fittings
215
tran
▁Fucked
▁dataset
circ
▁Boost
▁reuse
▁Nha
▁POV
▁Whoa
▁applicant
BLE
apping
▁nationally
inflammatory
▁Lieutenant
▁Reuben
▁absurd
▁distributing
▁fragile
▁hypothesis
▁immunity
▁liquor
▁marathon
▁propaganda
▁unparalleled
▁utilities
▁renounce
▁scenic
▁reproductive
▁disguise
▁Mercury
▁sequel
▁Lexington
▁whiskey
▁Identify
▁cliff
▁ROHS
▁Modified
▁tensile
▁coincide
▁Dylan
▁Turtle
▁Wildlife
▁Piston
▁Feedback
▁coupling
▁mailbox
▁gram
zilla
▁Darling
▁pending
▁tighten
▁Decor
Main
7.2
▁troubleshooting
▁Fest
▁Astro
▁patches
▁Dale
▁roommate
98)
▁Champ
▁REG
fidelity
▁rabbits
▁Aroma
▁defendant
Business
July
▁Squad
Maybe
attack
▁다
▁explored
UAL
▁confirming
307
▁replica
▁noticeable
▁Nah
▁quiz
▁Manor
▁polishing
▁Hyun
▁Correction
▁390
fed
ahu
Casting
BASE
▁17:3
▁Dow
5:2
▁Amos
▁signatures
▁Raj
143
introduc
▁Tie
▁survivor
Long
▁Vila
▁nigh
▁enthusiasts
▁Northeast
▁Dj
tab
▁ESL
STAR
▁posed
▁Generate
▁Quit
▁Rip
▁Pair
▁ray
Say
▁corps
▁commence
▁bun
▁plated
HY
▁Gong
LIC
tama
▁hearken
▁skiing
servant
liest
▁10.0
▁expressly
▁Transform
▁Anonymous
▁POWER
▁Survival
▁centimeter
▁preliminary
▁severity
▁KNOW
▁Sherlock
▁Stretch
▁specifies
▁cardiovascular
▁Siemens
Governing
▁Trojan
▁thanksgiving
▁Courage
▁saddle
▁editorial
▁Tommy
▁fascinated
▁Nang
▁NFL
▁JPG
▁Torque
▁Waterfront
▁Lithuanian
▁USSR
▁fireplace
▁forsaken
▁contradiction
▁(16)
▁Eng
RW
2004
▁allowance
▁disgusting
▁relied
▁VC
naya
▁Beef
mobile
reservation
Jeremiah
Control
▁termed
either
▁Echo
2°
▁commercially
▁Naval
▁atheist
▁Shirt
▁NJ
▁143
234
▁accelerated
06)
▁Pakistani
▁champions
cop
▁Managed
▁socialism
▁Regulations
▁repented
▁Carr
▁2:15
▁Viewer
zie
OOM
▁distributor
▁chic
▁visually
EEP
▁fluids
FOR
avan
▁Sofa
▁profess
▁Photograph
271
thin
1080
▁afflict
vey
▁Adventures
▁Doug
603
▁Colossians
zed
▁recycle
▁21:3
▁cooled
▁Experiment
▁cocktails
▁saint
▁7]
▁Elastic
▁penguin
▁Grinding
▁Oklahoma
▁atmospheric
▁commodity
▁hockey
▁skeleton
▁vapor
▁unleash
▁Beverly
▁unfaithful
Messianic
▁Churchill
▁Literature
▁Forklift
▁Rwanda
▁Neighborhood
▁victorious
▁facade
▁railroad
▁GOOD
gol
▁literary
▁presume
▁Brooks
▁Variable
▁unused
▁conceptual
▁curtains
western
▁Wealth
▁Foster
▁Metric
▁digest
▁reel
▁Mouth
▁fibre
179
▁UE
▁GEN
▁tricky
▁Locker
dela
▁honorable
distance
905
433
▁CDN
▁Dame
▁Roh
536
LINK
▁Seg
▁Known
flight
▁sigh
cert
▁stickers
▁Molding
perfect
\\
existent
knowing
oya
▁164
▁oriented
▁Residents
▁JD
Tea
▁spelling
CAD
▁2/3
207
▁Lance
bearing
840
sumption
▁Lei
▁Vine
▁3.9
▁Ng
▁sweater
14001
ovich
▁neighbours
abba
▁encrypt
beat
▁[4]
▁whereby
▁explode
▁Shake
▁chambers
▁sponsors
▁로
serving
▁Chic
ryl
holy
▁circumstance
▁Availability
▁Calgary
▁Jehoshaphat
▁Marseille
▁Wilhelm
▁arrogant
▁celestial
▁contempt
▁eBay
▁fragrance
▁psychic
▁scheduling
▁vaccination
▁Horror
▁Orchard
▁consolidate
▁darling
▁Ezra
▁hentai
▁Gideon
▁comprising
▁IEEE
▁Stuart
▁Cyrus
▁Cedar
▁Multiplayer
▁Geographic
▁viral
▁Siena
▁singular
▁ibis
uter
headed
▁genetically
▁Schoolgirl
▁rented
▁cling
▁Insertion
▁oak
▁Liberal
▁BIG
▁Sharm
HEA
cino
▁occasional
▁lifecycle
▁candles
▁Ranked
▁disturbed
▁Needless
hmm
▁bowel
aves
165
guchi
▁UNI
▁179
▁Robotic
▁Nikon
▁disappointing
▁habitation
▁Liter
▁13:4
suffering
critical
ppm
citing
▁DOS
▁wiped
▁02:5
brush
▁Spectr
▁Stu
▁Drone
▁mathematicians
▁PG
▁151
▁sandy
WEB
▁1910
Mu
▁decode
▁Washing
153
Light
Off
▁Plato
▁Edo
▁disputed
▁1880
▁Rag
▁perished
(6
▁compile
▁Drying
▁Napa
soul
▁9:1
▁GH
▁Aging
▁1150
eme
▁Wool
Ko
▁vaccines
▁PRODUCT
uchi
▁Kyle
EMS
▁Danger
▁Dist
▁sculpt
▁sil
′
▁Celebrate
▁Conflict
▁Gigabit
▁Palermo
▁Pregnancy
▁Raspberry
▁Simpson
▁ammunition
▁artifact
▁culinary
▁delegation
▁disobedient
▁implicit
▁rubbish
▁subsidiaries
▁thriving
▁transistor
▁gowns
▁Musk
▁cybersecurity
▁Predict
▁sweetheart
lung
▁miniature
▁154
▁addictive
▁Gentile
▁Authentication
▁Divide
▁Lightweight
▁expectancy
▁coefficient
▁recruitment
▁pulp
▁leakage
▁strategically
▁Runner
▁urges
▁roam
▁JI
▁pasture
harm
▁Presidential
▁remarks
▁advocates
▁158
▁+82-2-
▁Slovak
▁withdrawn
229
▁ERP
▁startups
▁Fluid
linear
▁Hate
wich
▁Symbol
2-2
▁negotiated
▁Rabbi
▁seamlessly
1800
▁Endo
September
Connect
Office
▁OH
▁12,000
bau
energy
▁8%
214
▁mast
isse
▁CODE
Once
▁6:10
Game
▁Johann
▁weighed
Text
▁1906
ardo
▁hacking
▁underway
▁5.8
▁163
▁whales
2-3
▁beware
▁gland
-48
/19
yong
▁35%
crease
▁Prima
▁abominations
▁bishops
-800
][
▁Og
▁defile
these
iii
2003
many
otic
▁Twit
accelerat
▁Ceremony
▁Defensive
▁NVIDIA
▁Pittsburgh
▁Tiffany
▁Westminster
▁bachelor
▁comprehension
▁empathy
▁energetic
▁humiliation
▁majesty
▁reconciliation
▁reliably
▁unfamiliar
▁Phnom
▁Celsius
▁ambient
▁heavier
▁Closure
▁Demand
▁Worse
▁Thunder
▁purified
▁Mistake
▁Honour
▁bribe
▁Falcon
▁Seafood
▁WR
▁proposition
▁heathen
▁rulership
rough
▁meanwhile
▁activist
▁hatch
▁subtitles
Thanks
▁undertaking
▁Sci
▁benefited
▁virtualization
▁NFC
▁blogger
treat
▁wholesome
▁Croatian
▁177
▁Pallet
▁Plot
▁vanished
▁pathway
▁TRI
▁warmly
▁spices
315
▁benchmark
▁Crowne
▁amend
▁rebels
crypt
▁urgently
French
Health
▁barber
▁Compar
spring
Whatever
▁cafes
▁Coupons
Promotional
▁restraint
▁Topic
▁curved
▁Affect
▁listings
▁9:30
▁medals
addy
▁surrendered
▁Letters
171
▁Guam
▁Compet
MON
▁assessed
select
▁Kap
SIA
▁Alberta
▁1934
urban
▁Ober
▁comb
▁(20)
▁NR
▁Dio
▁Grain
318
▁bullets
treatment
/14
2.9
▁Characteristics
882
Dong
▁deliberate
▁Palmer
▁liters
▁Phu
▁commanding
▁PLA
▁invade
iety
▁Asakusa
▁Clenbuterol
▁Compatibility
▁Jeroboam
▁Kepler
▁Wisconsin
▁corridor
▁decreasing
▁dilemma
▁embassy
▁english
▁frequencies
▁opposing
▁securities
▁sustenance
▁pvc
▁turbo
▁unwilling
▁Uganda
▁Victim
▁yacht
▁Legacy
▁Triangle
▁coordination
▁burial
▁enlightenment
▁palette
▁Spectrum
▁infringement
▁inverter
▁nominal
valent
▁Principle
plain
▁Barcode
nail
▁(90
▁rally
▁inspector
▁Investor
▁heirs
▁206
▁Apartamento
▁Enhanced
▁XX
▁12:2
dead
5.9
▁selfie
▁headaches
▁affiliated
▁eagerly
▁mammals
309
▁Trek
Copyright
December
Adult
▁ascending
▁adolescents
▁Shira
▁Pir
▁hasten
▁sorted
/18
Close
Know
bok
Bring
construct
mature
327
▁3:5
crystalline
▁stamping
▁Valentin
▁21:1
▁Herb
▁Nestle
leigh
▁lure
▁+82
ordinate
889
740
▁mut
eating
▁Radi
▁Gai
▁Sem
Korean
atha
▁Bold
▁reviewing
vik
▁Faster
▁numerical
lei
406
710
▁ripe
UV
▁Hab
▁excursions
▁generators
▁Salad
egan
▁Carlo
▁notably
▁Vit
ummer
▁Cham
▁Defend
▁HF
Tax
▁4:7
▁dictator
▁Galileo
▁Hurricane
▁Instructor
▁PEOPLE
▁SOURCE
▁elevation
▁glucose
▁hairdresser
▁residue
▁splendid
synchronous
▁Monterey
▁reassure
▁sponge
▁timber
▁sincerity
▁Arrive
▁advent
▁urgency
▁revolve
▁Medicare
▁doggystyle
▁Civic
▁arbitrary
▁Appeal
▁knight
▁Anywhere
▁caption
▁shred
▁Milton
[15]
▁Plum
East
▁delegate
▁fragments
match
▁Parade
▁diligently
▁drowned
▁Jiangsu
▁inmates
▁overlap
TEN
▁builders
▁Notebook
DAY
▁Humanity
▁adjusting
▁Assyrian
▁planner
▁3:7
bbl
▁adequately
lord
▁STAR
▁warmer
uti
▁5:3
▁Franz
▁1922
Support
release
▁9.3
▁ample
Guard
▁foreigner
▁1700
▁twisted
▁Nicole
dream
▁Increased
established
▁Crow
▁SAT
▁flooding
Pr
690
▁Specialist
▁Gone
▁172
▁Finished
▁Streaming
ltd
mbre
▁Rho
▁collectively
475
▁1932
▁Grad
312
▁auxiliary
▁poisoning
▁$500
▁Musical
▁1:2
ATT
chino
570
▁Loc
dust
▁unread
▁persecute
labor
▁+82-
▁constitutional
▁3-4
SIS
▁educators
▁178
insky
ugged
NES
▁smoked
▁Weapons
▁Exhibit
▁Pitt
▁Airbnb
▁Carbide
▁Carnegie
▁Jericho
▁Panasonic
▁bamboo
▁credibility
▁elimination
▁figurative
▁happiest
▁peripheral
▁puppet
▁unbelief
▁seldom
▁snatch
▁Sketch
Rejoice
▁Crusade
▁Gambling
▁Sliding
▁japan
▁Departure
▁workloads
▁(2013)
▁Chateau
▁Belarus
▁Audience
▁tyre
KVA
XX
▁settlers
▁Yemen
▁Biology
(7
346
▁Improvement
▁CNY
▁carved
EUR
▁Crash
▁cough
vu
▁HER
▁provoked
▁enlarged
▁squa
▁periodic
▁Mé
▁Mango
▁CRM
▁imperfection
▁respecting
▁Malaysian
▁HAR
/60
▁relieved
▁13:00
▁SCH
▁rounded
▁awakening
▁ashes
▁basin
▁paw
structure
enabled
INS
Sorry
4.9
Stay
arr
272
+2
▁Gmail
Comment
▁hacker
ambi
lean
▁lad
▁215
▁Carlton
Fire
▁Pond
▁assisting
▁225
242
▁monkeys
mei
▁reversed
298
▁JH
▁Gab
▁Shelf
AMA
Hand
▁LF
▁Jang
▁outright
SEC
▁EPS
▁Phillips
910
Mag
574
▁accumulate
▁Chun
▁accomplishments
litz
Base
▁Mela
▁4.6
▁trespass
▁Castro
▁dedicate
▁Poster
illus
▁contributors
▁Montenegro
▁twentieth
▁Companion
▁Illustration
▁Immigrant
▁Influence
▁Marathon
▁Particularly
▁Surveillance
▁allergies
▁evacuate
▁masturbate
▁peanut
▁prostitution
▁psychiatrist
▁unacceptable
▁Gothic
▁courtesy
▁JPEG
696
▁Chengdu
▁cereal
▁grease
▁Gloria
▁parcel
▁Closing
▁Outstanding
▁Nexus
cou
▁Bucket
▁attachments
nite
▁unsafe
▁bourgeoisie
zip
▁Herbert
-06-
▁Wesley
▁Diode
▁condemnation
▁Wrap
▁undertaken
▁deprived
▁betrayal
530
▁167
▁EZ
▁Gaz
▁Mura
▁greedy
▁Actor
▁allocated
▁dart
lingual
70,000
Auto
▁Herbal
▁Pomp
itar
▁Forgiving
fuse
**
▁19:1
▁2:7
▁shifting
4.00
Okay
faith
▁herbal
Whoever
▁randomly
▁Charm
facing
umbling
▁boo
245
▁Hunting
▁befall
▁comforted
299
▁Helping
▁DEL
shift
URA
▁sober
▁Mum
▁nearer
▁Nina
▁preachers
▁Pyr
▁feat
2005
▁Parameters
244
izu
oki
191
▁Watches
vig
/13
▁kar
▁attracting
nomy
▁ISIS
/01/
▁gamers
▁anoint
gmail
▁Petit
▁enlarge
▁detectors
▁Backpack
illon
▁1912
DEN
valuation
LOC
▁Scholar
▁Crop
▁Abimelech
▁Membrane
▁Penetration
▁Sebastian
▁Stuttgart
▁Synthetic
▁Taliban
▁unpredictable
▁Lombard
▁Wharf
▁grievous
▁heartfelt
▁Myrtle
▁Plasma
▁temporal
▁incapable
▁niece
▁pharmacy
▁myriad
0.000
▁notorious
▁casualties
▁commute
stadt
▁Curtain
▁ONLY
183
▁PLAY
▁Novella
▁READ
▁Leaving
▁Banner
▁starving
▁dependence
▁Documentation
▁Describe
chair
▁steer
▁unwind
▁5:8
▁$12
borg
▁==
▁Faithful
▁Allies
▁defending
▁09:0
▁underwear
▁Holding
▁organised
▁nominated
▁disagreement
▁Yard
▁BF
▁defiled
▁Yale
152
mean
▁drunken
▁Alert
▁fairness
184
Lu
▁specializing
▁landmark
▁Charming
▁fro
oxide
▁embed
(3)
990
ppl
eti
▁Broadcasting
Download
▁Marsh
should
▁Putin
Delete
▁Mg
▁YO
▁Butler
onite
▁liars
▁shouting
▁ants
10,000
701
▁Bach
protected
izen
▁Gua
grain
▁psi
▁1:5
▁1:8
▁broadly
thank
▁vet
▁Peach
▁packaged
keep
▁Shaw
▁Kali
SEL
▁Fact
293
▁2:10
ember
esta
▁thanked
▁RNA
Asia
▁ART
▁hind
▁noodles
fight
273
pron
▁proceeding
▁1901
Jer
▁Corte
▁cherish
added
were
▁Span
fuel
APP
▁Terror
fearing
▁mA
▁KM
▁circum
scopic
▁Cemetery
▁Congregation
▁Dakota
▁Expansion
▁Kiosk
▁Memories
▁Possibly
▁Scandinavia
▁barbecue
▁graduating
▁imperative
▁paradigm
▁paradox
▁transducer
▁Invalid
▁intricate
▁Diffuser
cademia
▁Presence
▁Strict
▁Kernel
▁Potential
▁cedar
▁strife
▁furnishings
▁Herald
▁intercourse
▁Junction
▁tribal
▁validate
▁Layout
▁entail
▁uncommon
▁YEAR
▁covet
▁Evaluation
▁Reception
▁Campo
hah
▁trafficking
▁Unlock
▁Tamar
708
▁Pouch
▁Inspired
▁frankly
▁Raven
▁Tulip
▁automate
▁Ellis
▁Keith
▁Sparta
▁methodology
▁Bog
▁UpdateTube
trude
▁smite
▁accomplishment
clip
chlor
▁Stickers
▁mindset
▁fried
▁portrayed
▁Tae
NIC
izable
▁Developing
▁Sept
fare
▁favored
Indeed
211
typical
▁debit
bedroom
multi
admin
▁Sche
▁wandering
▁magnets
▁surfing
buy
▁distributors
BIT
▁(18)
▁empowered
▁tasteful
jour
▁Luck
▁hon
rice
designed
▁NBC
▁Gul
founded
▁MAY
▁Aside
storey
QUE
775
▁sting
▁LPG
▁IDC
154
▁appealed
▁Commit
▁1:9
505
▁Latino
▁Boobs
▁tense
▁Latvia
sacrificing
▁Guidance
▁Herzegovina
▁Holocaust
▁Kissimmee
▁Michelangelo
▁Mozart
▁Picasso
▁advisable
▁amplifier
▁devastated
▁inconvenience
▁patriarch
▁petroleum
▁tangible
▁Micah
▁Orchid
▁Territory
▁syntax
▁Sustainability
▁cowboy
▁shiny
▁SharePoint
▁savor
288
▁flagship
▁alright
▁Sauna
▁Maritime
▁05:08
▁Kitty
▁spotted
▁Specify
▁sandwiches
▁lengthy
287
▁Darkness
▁Reagan
▁biologist
▁Penis
▁Cheat
▁discontinued
▁liter
▁contemplat
tight
▁Bran
▁Garment
▁Everyday
▁Pho
▁1913
▁Eph
grant
auto
▁doctorate
illi
icker
▁Sweat
▁shun
▁detecting
▁imagery
▁downward
January
October
▁Rab
▁dug
European
▁mocked
However
fiber
▁Adjust
viv
▁Fork
▁Lean
▁Ep
▁Calling
▁12:30
▁4%
next
▁10:07
▁weave
▁WS
▁Johan
▁8:1
▁Completed
▁fetch
▁illegally
pun
▁ISP
▁Braid
▁bald
moving
147
-05-
4.7
bond
Smart
▁Annex
223
▁indirect
▁Sealing
▁curing
▁Airline
▁JAV
▁disobey
▁Tir
▁snakes
▁RU
▁amid
▁Able
▁simultaneous
Gb
▁whip
▁Colin
Gil
▁IPS
opo
▁Zhu
▁Conveyor
▁Gravity
▁Jeremy
▁Sanctuary
▁Translator
▁Venetian
▁acquaintance
▁adversaries
▁continuity
▁extrusion
▁indispensable
▁nicotine
▁Determine
▁Santorini
▁fiscal
▁Indicator
▁Recipe
▁oriental
▁spatial
▁Calculator
▁Pyramid
▁Ribbon
▁forefront
▁senator
▁autonomy
▁culminat
▁ANSI
▁Negative
▁Ferrari
▁utterance
▁Jenny
▁Biggest
▁Scope
▁Oakland
serve
▁crab
▁141
▁Remain
▁guesthouse
▁denomination
▁GDPR
▁Negro
▁1:27
▁12:12
▁linger
▁Valle
▁Called
▁Armenian
▁remarked
172
▁Comfortable
▁UFC
▁DDR
▁CY
▁fleshly
▁Chester
▁compiler
▁competitiveness
▁Saved
▁fruitage
▁voluntarily
▁TF
▁exploded
▁LU
does
correct
▁abomination
▁analyst
▁zombie
▁bishop
▁TRANS
▁Sperm
▁halfway
verb
▁Greenland
▁endow
▁immuno
▁WT
▁Tubing
▁abs
▁Nana
▁mmf
▁Strengthen
▁Starter
▁profoundly
▁NB
birth
Games
Moses
ticket
▁Feeder
Shame
▁Entrepreneur
▁Coca
Also
▁attendant
▁60,000
▁miners
▁Rama
express
POS
KR
▁swallowed
Each
traumatic
rence
6.0
▁programmers
▁VII
▁1:10
6-9
IFF
raf
445
▁Rocky
/08/
▁Junk
▁5.2
▁analyses
2006
▁Spr
▁reckon
▁JM
▁rode
▁LR
▁obstruct
▁3:17
▁moreover
▁2021
lateral
▁provoke
▁decorate
▁ICE
675
▁landmarks
236
▁CAP
▁clearer
hari
▁Adelaide
▁Luggage
▁Monastery
▁Montgomery
▁Nottingham
▁Revenue
▁antibodies
▁blemish
▁efficacy
▁experiential
▁forefathers
▁misfortune
▁mitigate
▁peninsula
▁withdrew
▁Nursing
▁splash
▁Afternoon
▁Cryptocurrency
▁Pissing
▁Residing
▁coincidence
ISA
▁geometric
▁Suzuki
▁demographic
▁customizable
▁pneumatic
▁Defence
▁sul
▁Concord
▁sunrise
▁Trace
▁issuing
▁marketers
▁Battlefield
▁Observation
figuring
▁constructive
▁niche
▁HVAC
▁Maxwell
▁Clement
▁Aga
▁reinforcement
▁Strapon
▁SET
▁Ueno
▁communicated
006
▁enlightened
▁assertion
▁denote
▁SUV
▁criticized
male
▁Nordic
▁coaches
voice
cole
▁Penny
▁dreadful
▁Dodge
▁establishes
386
▁Goals
contact
/2014
▁broaden
Android
▁Dub
Change
▁dam
ORY
France
Low
▁Gare
stress
clar
▁166
engine
▁Homo
▁beginners
escence
925
▁doom
tune
rino
located
▁spoon
▁840
▁chrome
▁430
▁1:14
▁1927
▁Chick
▁optics
UNT
▁Pere
▁Coat
▁pod
▁Yeon
ppi
▁255
▁Pang
▁germ
wp
loaded
Mod
thinking
▁Bonn
▁Slav
▁Connected
▁Roth
▁asthma
▁Hira
▁Aim
▁Denis
▁Tradition
▁Otto
▁lice
eater
▁cigar
▁lymph
ynecomastia
▁Armageddon
▁Batteries
▁Commonwealth
▁Deepthroat
▁Principal
▁Sofitel
▁apparel
▁bodily
▁commodities
▁verdict
▁Nixon
▁Manifest
▁Complain
▁Inverter
▁Doubt
▁alleviate
▁geography
▁oversight
▁Abdul
▁crude
▁Kinky
▁allocation
▁Buk
▁Suzhou
▁bruise
error
▁innovate
▁hedge
▁Wallace
▁harp
▁scorn
▁CHE
▁nonprofit
▁WHY
▁ROOM
Kit
▁profitability
▁Harmony
▁coaching
▁Zambian
▁hottest
▁buckle
▁haul
▁Reich
▁protesters
▁Papua
▁RED
metre
▁aerial
▁Thereafter
▁revert
▁195
▁Proud
BET
▁Tribe
▁Lick
terra
▁curl
5.8
qual
▁aspirin
▁Dyna
▁polished
▁Augustine
▁950
▁cultivated
Paul
▁Crush
▁Stella
▁16:00
▁ankle
laughter
-85
extra
include
February
Watch
04:58
David
▁rejecting
▁2:12
credit
▁WH
RIC
431
▁facebook
▁Nikola
▁Zhen
▁LUN
879
▁yuan
▁confidently
▁Plane
AWA
2500
▁veins
label
770
399
▁compress
▁Mona
▁Este
▁Pee
▁Erik
▁Kamp
▁Launcher
▁PAL
018
▁Capri
▁shorten
▁Ether
hik
▁mutations
075
▁Hag
▁Adapt
▁1921
Anti
▁Establish
▁8000
▁9.5
343
▁confine
▁comparative
▁gloss
▁Techno
▁Tibet
2.00
▁fry
▁Deploy
×2
▁Intensive
▁Supplies
▁cricket
▁desolation
▁disastrous
▁evaluating
▁hijacker
▁resilience
▁sunglasses
▁unbelievable
▁wrinkle
▁murmur
▁Sherman
▁ultrasound
▁circulate
▁Accurate
▁antioxidant
▁emergence
▁dentist
▁Commandments
▁Transaction
▁Pills
▁Caleb
▁catalogue
▁HAS
▁wafer
▁Yarn
▁correspondent
▁Jehu
▁Hollow
▁Biological
[24]
▁Underwater
▁05:09
▁groan
▁Jorge
cola
▁Prix
▁Cozy
▁Slab
REN
ISM
▁Carmel
▁mommy
▁Pisa
▁skyline
▁continental
▁Silent
877
enza
▁Kala
▁stretches
▁11:1
▁negatively
▁blindness
orie
▁hometown
▁Dana
▁Gregor
▁Calc
▁Simplified
▁append
▁Chiller
▁08:5
▁Lathe
▁peptide
▁Sixth
▁2:11
▁tweeted
VIS
326
▁Combat
KM
▁surveyed
★
Singapore
Follow
temperature
≤
▁Careful
▁CHF
modern
square
▁WORK
ZZ
▁Lung
▁Maple
sharing
wal
Night
▁1:15
▁Dial
▁7:9
▁Highlights
▁Haz
▁distressed
▁1925
▁Highest
7.0
5-3
▁401
▁expos
▁Rosen
▁Kok
▁hazards
▁Emer
▁Breaking
endo
▁10:13
▁15:1
▁Rong
▁630
▁codec
▁Chronic
went
876
▁Southwest
▁6.2
▁Lithuania
▁Equipp
▁Examination
▁Migration
▁Mordecai
▁Symptoms
▁Turbine
▁allegiance
▁ceremonies
▁stimulating
▁terribly
▁unhealthy
▁uranium
▁utilization
▁Nanjing
▁Prostitute
▁taxpayer
▁Diversity
▁avenue
▁Parkinson
▁Syndrome
▁pesticide
▁BLACK
▁Namibia
▁innovator
▁Snake
▁Hentai
▁scrub
▁swarm
▁pathways
▁grabbed
▁Compression
▁Obtain
▁multinational
▁navy
▁Arrange
+00:00
▁mimic
▁Cayman
▁entice
▁Felix
▁stalk
▁Sitting
▁flaws
▁reboot
▁recharge
▁Spiral
▁05:05
▁Destiny
▁prioritize
▁humid
▁Iris
▁stripped
▁confrontation
▁commentary
▁PNG
▁Static
▁04:56
▁spies
▁backyard
▁devised
▁Reinforc
866
▁Galatians
>>
▁Regent
esca
AMP
Lock
▁YES
▁TOUR
▁appliance
dang
226
▁Marking
▁mutation
▁avenge
lena
▁fearless
Han
FORM
▁tenant
▁Calm
▁PCS
fei
uto
▁Solder
▁Worker
zhen
Flash
Israel
▁exhibited
Bank
Wait
▁Victorian
▁8.7
▁Nh
▁150,000
▁dys
Player
gata
▁BEN
▁orphans
OLE
Thus
▁Jess
248
olin
▁Bending
▁shutter
ifer
261
▁BTS
▁contractors
rush
▁encompass
ometric
▁disturb
▁1908
▁camels
cn
▁Cai
▁Baku
▁Whi
▁CBS
▁MH
▁NYC
▁daylight
▁(17)
Sign
▁Shoulder
▁dispatch
ambo
▁Bert
747
▁approximate
▁erupt
WR
▁Chin
erator
▁exempt
▁05:2
▁Essen
hibition
▁IWC
▁intellect
▁Applicant
▁Benedict
▁CMYK
▁Incredible
▁Volkswagen
▁engraving
▁extruder
▁hygiene
▁referendum
▁separating
▁shrimp
▁Dynasty
▁Yankee
...............
▁Sophia
▁Preferences
▁optimise
▁Bahamas
Kwacha
▁Creature
▁Cowboy
▁podcast
▁Bloomberg
▁polio
▁Pricing
▁multiplayer
▁trek
▁Siberia
▁Kraft
▁Duomo
▁blur
▁Enoch
▁chord
▁poisonous
▁Represent
▁Xiao
▁Productivity
▁Carpet
enger
▁Priority
▁handheld
▁Feast
▁problematic
▁Lose
▁CMS
▁Sushi
▁Albanian
▁MIL
lva
▁159
▁Probe
▁rash
ocracy
▁instrumental
336
▁7.2
ogging
▁mob
920
Ye
▁1926
▁Herman
tape
tempered
239
▁Proper
▁puff
▁decreed
abilities
▁lame
National
▁proportional
Speed
Before
Sync
Factory
worm
868
▁Cath
▁confessed
▁transfusions
▁wherewith
FUL
potent
▁Aria
▁%(
▁powerless
▁3:9
60,000
moral
▁maxim
▁[5]
▁Planetar
▁Soho
▁Brave
▁NW
377
▁pitcher
hurst
▁Aram
▁Observe
Thou
▁Stuff
385
▁accountant
▁erect
▁Photon
etsu
pg
▁Farmers
review
atus
▁Chill
▁handler
▁10:16
▁parenting
▁Visiting
▁unrest
▁plural
사이트
▁Administrative
▁Cartagena
▁Conservation
▁Cuckold
▁Pleasure
▁RELATED
▁Vampire
▁arthritis
▁counterfeit
▁educating
▁evangelist
▁invaluable
▁refusal
▁sanctify
▁scalability
▁trembling
▁Hispanic
▁Increasing
▁AXIS
▁detained
▁epoch
▁plunder
ubuntu
▁racism
▁stipulat
▁Attempt
▁headphones
▁Coalition
▁Aristotle
▁licence
▁Worry
▁BDSM
▁settling
▁batter
▁begged
▁selves
▁Citizenship
▁prevalent
▁Mobility
▁Winston
▁BUY
▁Alpine
▁diode
▁billionaire
▁Doubletree
▁discernment
▁thyroid
▁inscription
▁Montana
▁208
Har
▁tesa
▁Zhang
▁Barack
▁MySQL
▁Ellen
▁Gloss
▁tractor
▁Legion
▁freelance
▁Kerry
▁intercept
516
▁Alright
▁slit
▁Comedy
▁Seaside
▁brace
▁frontier
▁Siem
444
▁premiere
▁340
▁Castel
option
▁locking
▁clearance
▁successive
▁throughput
▁(22)
▁Helena
▁darker
▁correlate
bara
▁TW
▁11:3
Continue
Series
blood
hong
▁Kru
▁dimensional
▁Burke
▁scr
anu
boro
Fri
▁breaker
grave
(8
▁traced
▁1924
▁bothered
▁2:17
848
aware
▁Baron
▁2:16
390
▁0.25
Very
▁wit
238
▁foe
LINE
▁7%
▁analyzer
▁rabbi
▁9.6
▁ortho
▁Organ
figure
mL
▁Pov
▁171
vale
nard
▁payout
▁MIN
875
▁fleeing
▁defended
▁1:3
▁YH
▁branded
▁conceive
▁Marcel
▁Pea
itate
▁Convenient
▁vigorous
▁disappearing
▁constraints
▁BUSINESS
▁Colombo
▁Madagascar
▁SPECIAL
▁Shibuya
▁Thunderbolt
▁Welfare
▁equilibrium
▁escaping
▁intimacy
▁proficiency
▁reverence
▁Shrink
▁ninja
▁corrugat
▁folly
▁ideology
▁Depth
▁conspiracy
▁stunt
▁butterfly
▁crisp
▁Compound
▁mischief
▁Mattress
▁Ernest
▁robbed
▁Wishlist
▁Vinyl
▁vault
▁defective
▁parasite
▁cardiac
▁Amanda
▁Rapha
▁Eleven
▁detention
▁supp
▁encompasses
▁05:03
▁youngsters
solving
▁LIGHT
231
▁recount
▁Fortress
▁JSON
▁clone
thus
disc
▁Wig
▁Sud
▁Carrer
▁Preach
▁Chron
▁spike
▁chop
▁fabrication
▁flatter
▁Leone
ieving
▁loser
hira
▁Stranger
shaw
▁HANA
▁500,000
▁messy
▁twitter
JU
▁Lifetime
▁Cheng
▁Yoon
encia
162
▁pseudo
▁MUST
【
Special
Standard
project
lun
▁9000
Road
▁Crowd
▁tortured
▁Sink
▁coup
lapping
-2016
▁Hiro
:6.1
▁Spice
rigg
▁1:13
▁soften
▁Sham
▁1:20
▁Hanging
▁5.3
align
▁Grip
total
▁spi
031
▁exchanger
▁piss
oct
ovi
▁SQ
yoshi
▁optic
9.00
8.0
▁interacting
▁6:3
once
▁HIS
▁Zambia
▁lovingly
pira
▁harass
▁Gap
▁carbohydrate
▁hurricane
▁Alcatraz
▁Cougar
▁Enforcement
▁Naughty
▁Nebadon
▁Portfolio
▁Responsible
▁Securities
▁Suunto
▁Whiskey
▁magnesium
▁prudent
▁superhero
▁synchronization
▁virtuous
▁Gartner
▁Kodak
▁dementia
▁Beloved
▁Sheikh
▁infinity
▁Hebron
▁Exterior
platz
▁embarrassment
▁Eddie
▁populated
▁Disorder
▁(2016)
▁Permission
▁4:16
▁stink
415
▁Crete
▁Enhancement
▁subdue
▁penny
▁Income
▁oxen
▁Forbes
▁OBD
▁KEY
▁Offline
▁supervised
▁25,000
[16]
▁distraction
▁Strand
▁comparatively
▁Cabo
▁Ginza
▁5-7
▁doomed
▁AVG
▁Winch
▁progressed
▁440
▁Sight
protect
gold
▁amended
ilia
▁Fuller
▁canoe
▁hazard
▁filename
▁RUB
▁Fitting
▁moist
?’”
quarter
009
FTA
Access
Double
Human
uristic
▁exploited
Eccl
▁speeches
▁sticking
ece
Benz
owski
▁Fau
▁12:17
▁Duo
▁Launched
ethane
▁borrowing
ATOR
▁Steal
▁Rui
247
hana
payment
▁proclaiming
8°
▁shear
▁barn
▁325
▁Farmer
▁furnish
/2016
▁Extend
▁7000
▁10-15
511
mbi
menu
▁1850
▁Taj
▁Prov
ORS
▁eh
▁inaugura
Recommend
▁Embedded
▁Integrity
▁Vientiane
▁combustion
▁intriguing
▁necessities
▁nonetheless
▁sensual
▁solitary
▁sunbathing
▁Banquet
▁Identification
▁Monroe
▁actuator
▁Bahrain
▁reconstruct
▁NSW
▁Radeon
▁Nominal
▁Railroad
▁Harvey
▁Jesuit
Run
▁Serena
▁STEP
▁Huh
▁fortified
blast
illion
▁Palais
▁postpone
▁Importance
▁Granite
inous
evsky
▁Surprisingly
HQ
666
▁Hugo
▁VOD
▁Conveniently
▁05:17
5-7
▁bible
▁Floating
▁Antigua
▁Authentic
cene
▁Harness
7.8
▁4:2
▁nomination
▁merged
▁Alfa
▁Ponte
▁Alc
▁Washer
hound
▁Chem
▁Clare
10%
▁Pon
▁Stefan
▁enforced
▁Cran
787
▁$40
▁3:8
▁Burger
Should
whether
Company
Although
▁knocked
Turn
Single
latin
▁banged
▁DON
▁postal
263
blog
▁stab
▁EXPO
▁1911
mira
fps
OEM
omer
▁3:11
167
▁1916
▁HIGH
▁honoured
2002
▁CX
▁AAC
▁Chau
▁climbed
dina
▁4:5
▁Wouldn
▁succession
Send
ntal
▁Downloader
single
▁Blond
Malachi
▁TPE
▁EAST
▁distract
▁Halo
lace
death
254
▁diligent
402
ggie
▁Jac
▁shifted
▁COB
fashioned
▁Totally
▁Neighbor
▁Assurance
▁Rotterdam
▁Schneider
▁Bamboo
▁Crossdresser
▁Emerald
▁Malcolm
▁Ordinary
▁PowerShell
▁Transducer
▁exclusion
▁harbour
▁rectangle
▁Vimeo
9001:2008
▁forklift
▁indonesian
▁soothing
▁loaves
▁turf
▁Aerospace
▁abstain
▁Belfast
▁unemployed
▁Mistress
▁Ignore
▁Malawi
▁lunar
▁Hungry
▁Multimedia
PON
▁wagon
▁Reduction
▁Vibration
▁softcore
▁annex
phosphate
616
gong
▁Hoi
▁amendment
cke
▁thigh
▁modem
▁java
yet
usually
▁formulation
rone
▁allegedly
688
▁resigned
▁HDPE
▁abolished
▁Trang
▁cardio
▁grieved
TLE
BTC
▁alteration
▁Slowly
▁22:00
592
▁fury
▁(23)
▁Nigerian
▁globalization
egi
▁SFP
930
267
FIL
▁Rank
▁IMF
▁Pursu
▁Reporter
▁Accu
▁Kami
▁2:5
connected
▁volt
Studio
Three
▁4:13
Social
Recover
SSC
▁Pornstar
KHz
▁Contra
angled
spoon
▁7.4
▁HDR
jang
~+
chal
▁Flooring
▁Postal
▁191
909
▁skillful
▁1/8
▁PARK
▁crosses
▁Nyc
%1$
▁808
understand
9.2
871
▁Num
8-9
8.00
▁soda
▁Decan
pray
Ann
1600
driver
789
▁Recruit
loving
▁unrighteous
▁Brightcove
▁Bangalore
▁BeFuck
▁Cairns
▁EVERY
▁Laguna
▁Magyar
▁McCartney
▁Tenerife
▁adhesion
▁census
▁civic
▁finnish
▁unbelieving
▁dividing
▁incurred
▁vomit
▁Swallow
▁Friedrich
▁garlic
▁debris
▁Pharmacy
▁Ivory
▁stumbling
▁outdated
▁Harvest
05:06
▁groped
▁speculation
▁blew
▁Literally
▁Recreation
885
court
▁taboo
▁Transformation
▁denies
▁AUTO
▁Abner
▁Romeo
umerous
▁Katie
▁Bundle
▁Elvis
▁adaptive
▁Cardboard
1.00
▁unrelated
▁overweight
▁Messe
▁Eun
▁Personality
util
▁530
▁overcoming
585
▁purse
▁Scho
▁awakened
Cast
▁uplift
SIL
eff
▁della
▁Classes
▁(21)
▁Switching
chrome
▁Thousand
▁Recall
403
▁Analytic
computer
Speak
Welcome
Quality
Global
▁runtime
Think
conduct
▁qualifying
Under
Suite
297
▁flick
405
▁Christine
rocket
guide
magic
8.4
50*
▁begotten
▁raft
40,000
▁Sick
uction
▁CLI
▁SAL
▁micron
audi
▁LX
▁Translate
wait
Sat
278
earth
fell
▁#6
▁publicity
▁vanish
▁Soap
▁deity
immable
Class
▁2050
jeong
Multi
▁HOL
▁Alicante
▁Amnesty
▁Communities
▁Conservative
▁Gibraltar
▁Investigation
▁Marrakesh
▁Strasbourg
▁adversity
▁catalyst
▁disbelief
▁disposable
▁ergonomic
▁prosecutor
▁repetitive
▁retribution
▁sensible
▁sympathy
▁deviation
▁Innocent
▁Jeffrey
▁melody
▁Higashi
▁bodybuilder
▁SaaS
▁arteries
▁lofty
▁Johannesburg
▁Inkjet
LON
▁Nashville
▁Catalan
▁Louisiana
▁Fixture
▁competence
▁Dashboard
minimizing
▁Daegu
▁pedal
▁Genius
▁Advent
▁Sendai
▁enrollment
▁homosexuality
▁reclaim
▁divert
▁purge
▁Array
▁Prostate
▁Massive
▁OPEN
▁144,000
▁Galleria
▁Astoria
▁Tension
▁naughty
▁Estonian
676
▁accessory
▁refreshment
▁eighty
▁0.02
▁SKY
▁distracted
activate
since
▁Juliet
▁boob
▁Torah
▁HKD
NDA
tress
▁2:14
▁Colombian
▁1903
283
▁McCa
1-2
KIN
4,500
▁lava
platform
Could
digit
Blessed
Mobile
▁Vale
Space
Version
▁lender
President
▁1890
348
▁brook
stroke
▁Louise
Friendly
▁bearer
▁Cree
251
▁Fairy
▁Troy
focused
Park
CAN
274
▁linguistic
▁2022
▁1024
▁Lido
network
Size
horse
mom
443
▁CCD
machine
▁southeast
▁LOT
▁12%
ASX
▁ECO
▁EPA
▁Header
▁2025
▁Donna
▁Correct
▁Vega
940
▁Killing
▁Christophe
▁Caterpillar
▁Chaldeans
▁Copacabana
▁Corrosion
▁Enanthate
▁Meredith
▁Neptune
▁Sergeant
▁SurveyMonkey
▁announcing
▁bulgarian
▁correlation
▁dynasty
▁emergencies
▁engraved
▁gigantic
▁gravitational
▁identifiable
▁legislative
▁metabolism
▁misunderstood
▁morontia
▁pandemic
▁sausage
▁seizure
▁Babies
▁Canberra
▁gossip
▁Bikini
▁Recommendation
▁wrestle
▁Cladding
▁scuba
▁quota
▁Microwave
▁(2014)
▁Composition
▁(2011)
▁Retirement
▁digging
▁ransomware
mori
▁Accessibility
▁Spotlight
▁unreasonable
▁imperialism
▁Blair
▁Socks
▁Ginger
▁Rockwell
▁tempt
▁lawlessness
[19]
▁Cheong
▁insulated
▁barren
▁Keller
▁Fav
339
▁06:12
▁breaches
▁Shipment
▁AES
▁Fried
▁Organize
9000
-001
▁advisory
▁versa
txt
▁deposited
▁subjective
344
Buy
▁crave
▁Samson
fel
▁strat
lica
▁Chess
▁pledged
▁19:00
▁Atom
▁XVI
▁Jie
▁Kane
▁Needed
▁unexpectedly
▁Alas
SQL
▁Sandra
▁Arise
577
▁commemorate
▁peek
▁MAG
width
Ezekiel
Sometimes
▁Archer
Money
▁Tyr
Act
Russian
▁Include
Was
▁ensu
▁soluble
nice
▁ABB
▁nationalist
▁8:30
▁undo
bath
Toll
closed
411
CAM
▁pouring
349
UPS
▁Mug
▁Cour
331
liner
▁Tek
479
▁10:24
dome
▁doctoral
▁ATP
▁5.6
▁isolate
stablish
▁GRA
▁Mole
CAP
Dec
6-1
▁Aston
centre
▁Honest
▁NSA
▁2:8
Edit
eferred
451
▁recite
Lanzarote
econnaissance
▁Connecticut
▁Evidently
▁Familia
▁Hearthstone
▁Marbella
▁Rebecca
▁Recognition
▁Residency
▁Shampoo
▁Veteran
▁camcorder
▁chromosome
▁displacement
▁encamped
▁feasible
▁immersion
▁obsolete
▁tentacle
▁allegations
▁applaud
▁fishermen
▁erosion
▁relentless
▁astrology
▁pursuan
▁scaling
▁Bohemia
▁hymn
▁pigeon
▁Revenge
▁Simeon
▁enclosed
▁vague
▁Whale
▁Paypal
▁Raymond
▁(2015)
▁Beckham
▁massacre
▁furious
▁attendees
▁Insect
▁salute
▁Activation
▁emblem
▁complementary
▁Hubble
▁rechargeable
▁naming
▁ministerial
▁Frontier
▁preferably
▁Protective
▁metallic
▁Samoa
▁Havana
[20]
uu
▁06:09
▁directories
▁DATA
▁Compressed
▁Crew
▁unveiled
Direct
mounted
▁chatting
▁Iowa
▁Signage
▁1:26
▁FOB
▁shattered
▁Webster
cule
▁lash
▁Molly
▁Tough
▁Myself
▁Marxist
▁1:18
▁DPI
coding
▁DLC
359
▁radically
▁EDM
▁Wax
246
mono
JO
korea
▁PLUS
284
95%
nip
graduate
▁marginal
▁DOM
▁300,000
▁Resident
▁1896
Commerce
children
Children
detect
▁Peel
▁silently
Without
steel
destruct
▁lecturer
▁Hamm
▁Vase
▁Guang
fee
▁dearly
▁registering
▁wiser
4:06
468
▁Nau
▁owed
▁Nai
▁Logan
png
Flow
▁presses
rington
kva
▁Gum
▁disrespect
[5]
308
▁Stem
709
▁Peer
463
▁Leak
▁contemplate
▁detach
▁contractor
▁resembl
EEL
▁Sap
agh
▁9.4
▁Mp
▁Waka
▁Barnabas
▁disinfect
▁Ephesus
▁Escort
▁Jumeirah
▁Moroccan
▁Tolerance
▁compromising
▁provincial
▁proxies
▁sanitary
▁translating
▁storytelling
▁Sophie
▁ammonia
▁testimonies
▁emulator
▁volcani
▁6:6
▁Suicide
▁HELP
▁Bavaria
▁refrigeration
▁Cousin
▁memorize
▁Judaism
▁Patrol
▁NEED
cloth
▁plaster
▁liking
▁envision
▁PASS
▁suction
▁Kaiser
▁Everywhere
▁Isabel
▁drainage
▁Goddess
▁Advertisement
289
▁converse
▁cnc
▁Chlor
▁Permit
▁Betty
habit
▁Cohen
▁Baltic
▁whomever
▁median
(20
▁Dangerous
▁Strait
▁ninety
▁Bruno
▁Jade
▁Rising
▁RPM
▁Cork
▁inherently
▁Octa
sync
▁Delay
▁skate
tolerant
▁MSN
▁unload
OUND
▁3:12
▁boldly
▁Define
▁sweeping
.02.20
▁DEC
▁Minami
▁20000
▁Heng
▁Verify
▁pat
1234
▁Insider
▁Mora
▁MRT
cter
▁trait
dollar
Travel
Through
broken
▁Scientist
▁Parameter
0001
▁discerning
until
▁Medici
▁Teenage
▁Linen
street
▁Evangel
▁restriction
agent
resolution
money
▁subscriber
Nu
RATION
▁Alta
china
▁dared
▁leaning
▁11:18
Mother
Arab
urable
knowledge
▁LEE
▁bomber
petit
▁12:15
corp
MIC
635
▁Aged
▁beheld
▁Amor
▁liner
▁timetable
▁drip
▁Fog
▁mama
ethyl
{{
▁abolish
▁Novo
▁Pest
cea
▁Hale
▁Retrieve
9.1
▁gradual
Wise
▁10:15
▁Ecclesiastes
▁Execut
▁Megan
▁Basin
347
bourne
▁Atlantis
▁Dinosaur
▁Extruder
▁Kowloon
▁Kyushu
▁Nairobi
▁Panorama
▁Rochester
▁SYSTEM
▁Scenic
▁caucasian
▁majestic
▁millennium
▁sanitation
▁Glacier
▁enacted
▁unselfish
▁clutch
▁courier
▁accelerator
▁Emotional
▁flirt
▁Comparison
▁Acquisition
▁Cusco
▁obsession
▁complies
▁Whisky
▁cyclist
▁tranny
▁bureau
▁Amorites
▁Fedora
▁Minecraft
▁Tianjin
phthal
▁Loyalty
reliance
▁drastically
tomi
▁Whitney
▁focal
▁forgave
▁Submission
▁salmon
/2019
▁millimeter
▁parliamentary
▁Ctrl
▁ASME
▁Huntington
▁adulthood
▁deduct
▁informative
▁landlord
▁kitten
▁slab
▁iMac
▁deserving
▁Regina
▁Salou
zhi
▁undergone
▁conformity
▁Yoko
▁slam
▁reflective
▁formulated
deep
▁07:50
▁Vending
▁Lutheran
RNA
▁Runtime
▁Somehow
Cola
▁bacterial
▁FPS
plicat
▁Ethiopian
▁weaker
▁merger
Cellular
▁Laugh
▁Idol
▁Tv
237
▁Electricity
brain
▁dispersed
STER
common
Code
826
▁labeling
List
▁HTTPS
872
▁1:7
rish
▁admired
▁Chuo
RUS
onian
▁consciously
▁12.5
bourg
▁trendy
▁lever
▁Fail
▁corresponded
▁folded
together
▁Liv
magnetic
Western
▁Assist
hov
Model
discover
▁discusses
▁660
▁Fem
▁Brent
Germany
oooo
▁competed
▁SUR
▁Kush
▁2:13
371
▁Guru
727
▁slap
nier
▁12:13
▁Pour
▁Stro
isto
▁Specifie
▁Held
coat
▁tee
oodle
SEN
xml
LING
▁±0.
Poly
▁3500
545
▁Vita
▁Goes
361
▁10:17
▁embark
▁Theresa
▁10:14
PET
▁(110
▁Cub
▁(28)
024
▁11:2
▁ferment
▁ANSWER
▁Bracelet
▁Bracket
▁Britannica
▁Effort
▁Flamingo
▁Hampshire
▁Intellectual
▁Lauderdale
▁Moisture
▁Significant
▁fertility
▁fluctuation
▁iniquities
▁insignificant
▁irrigation
▁mercies
▁militant
▁negotiating
▁potassium
▁tweak
Attribute
▁Waterloo
▁intrinsic
▁Bournemouth
▁vinyl
▁Analyst
▁Neutral
▁elbow
▁Telescope
▁Nitrogen
704
▁noisy
▁Shandong
▁Claudi
▁spokesman
▁Imaging
▁Ladyboy
▁entreat
▁concurrent
▁Harlem
776
▁Wuhan
▁Balaam
▁Bodybuilding
▁Tracy
▁distill
▁Exploration
ggling
▁resentment
▁Caroline
villa
KJV
▁Combination
▁assassination
▁Genre
▁Ahmed
▁Hughes
▁authorised
▁hereby
▁Attachment
▁16:1
▁rewrite
▁frost
▁Freud
▁scientifically
▁regeneration
▁5:22
▁Glue
▁illuminated
▁Graph
▁10:11
▁06:04
706
▁laminate
▁FAX
▁miraculously
▁CHI
▁endangered
TAIN
ün
▁Nehemiah
▁orbital
▁Joomla
▁camel
▁Michelin
▁alarming
Pop
▁Meiji
▁Dealer
ggio
▁MMC
rito
531
wha
▁1350
▁MTV
PIN
▁pushes
▁199
Card
▁(24)
▁Swap
▁Qty
▁ROI
America
▁Vital
Yu
▁lending
▁Tho
379
respect
Little
equipped
477
Wire
corporate
▁Ruler
▁SEE
▁vein
▁Barra
End
▁VoIP
3:06
MARK
Step
4-1
▁Expression
▁Barber
polo
▁PAN
bolic
▁fullest
▁Protecting
OUT
▁Hoist
▁alternat
575
259
▁crashing
▁Juda
▁Directed
bbie
lost
▁Porta
▁allied
izo
JP
019
▁Actual
LAST
▁Türk
▁Mohammed
▁Pilgrim
▁Zedekiah
▁Arsenal
▁Comprehensive
▁Creativity
▁Jacques
▁Rugby
▁Sanitary
▁Waikiki
▁Zagreb
▁endeavour
▁evacuation
▁hamburger
▁identities
▁idolatry
▁imminent
▁junction
▁liberated
▁medicinal
▁perpetrator
▁physiological
▁solidarity
▁wretched
▁Flamenco
▁Nozzle
▁Transcend
▁reinvent
▁Awareness
▁congratulations
▁Ibiza
▁diffuse
▁malfunction
▁abhor
▁remarkably
▁syrup
▁Fiesta
▁shave
▁Infant
▁dictatorship
▁(2012)
▁Ascend
▁agile
▁broadband
▁cunt
▁Cecil
▁Cornell
▁Restart
▁shook
▁Scanning
▁dubbe
▁Fairfield
▁Banana
▁Diaper
▁Endpoint
eastern
▁stronghold
▁Bound
▁Sharon
▁Seong
▁organise
436
▁naive
▁Batch
▁4:11
▁Lili
▁CRI
▁Hurt
▁Joyce
GEN
▁Radical
▁Specialty
Select
▁uprising
▁hut
▁immensely
▁Chest
▁Discuss
▁ballet
▁chant
▁progressively
:7.1
855
▁personalize
▁Scent
▁choke
394
insta
▁authenticate
▁overlay
▁Bore
▁Trainer
▁Parkway
▁Bark
▁Como
▁Largest
836
▁Navi
percent
begotten
Application
Material
Child
Queen
development
▁Sail
produced
▁Italia
▁Glenn
▁filler
▁tubing
factory
▁Scha
▁Freeze
election
778
▁solicit
▁----
▁Backpacker
Fear
guan
central
▁cue
1100
▁initialise
▁justification
▁dp
processing
stuff
▁Kart
opp
▁SHR
▁ruining
bow
gul
▁endanger
▁disco
▁criticize
endi
enchant
▁programmer
Eye
▁10.5
▁signify
▁tomato
▁Acrobat
▁Arduino
▁Dedicated
▁Jomtien
▁Kubernetes
▁MACHINE
▁Memphis
▁Mesopotamia
▁PinkRod
▁QUESTION
▁deceptive
▁degradation
▁embroidery
▁european
▁hurried
▁implied
▁prosecution
▁relevance
▁reputable
▁turmoil
▁Leopold
▁Twain
▁ulcer
▁Swimsuit
▁precepts
▁Toledo
▁sensing
▁Dongguan
▁autism
▁programmable
▁Fraser
▁conditional
▁Queenstown
▁lcd
nomiya
▁Sloan
▁Tram
▁referral
▁Beginner
▁persistence
▁Childhood
▁crust
▁Asahi
▁prefix
▁Heather
▁plating
▁worshippers
▁confidentiality
▁NEVER
▁TUV
laughs
▁Taken
▁Tamil
▁05:04
▁Appear
▁srt
▁05:58
▁Mitsu
▁Automatically
▁carrot
▁Glossy
▁logger
▁encoded
▁Collector
INO
ikan
▁backdrop
▁disposed
▁customary
356
▁villagers
▁subset
strom
▁£1
▁Miner
▁summoned
448
▁Ole
▁Leah
▁workstation
▁falsely
kong
▁coordinated
▁revived
▁suburb
▁outrage
▁booklet
▁3:00
▁Tango
609
▁Fir
▁asserted
▁regained
▁slaughtered
357
▁parse
▁grape
▁BSD
▁grinder
▁Mesa
▁Carrie
▁sailed
05:29
Yet
▁Leviticus
▁620
▁sharpen
ARA
Develop
follow
School
▁sticky
income
Internet
▁hooked
▁spann
▁15-20
▁ancestor
▁conserve
▁10:12
378
Boy
▁Gaza
▁commemorat
▁rushing
▁departing
fighting
meaning
CAT
▁Argo
▁Highlight
▁Mild
8.3
30%
Station
▁Combine
▁Haman
▁3,500
▁1902
physi
▁relocate
▁favorit
▁eff
8.8
bler
▁resign
▁Serious
▁99.9
▁3:14
▁802.11
▁Aberdeen
▁Buddhism
▁Eleazar
▁FIRST
▁Innsbruck
▁Madonna
▁Mickey
▁Olivia
▁Opportunities
▁Pokemon
▁Poverty
▁Prospekt
▁Seychelles
▁Toshiba
▁Toulouse
▁Travelodge
▁catastrophic
▁glitter
▁protagonist
▁reservoir
▁Incident
▁OECD
▁Encyclop
▁reunion
▁invading
▁Empflix
▁Lagoon
▁Cigarette
▁Indianapolis
▁lymphoma
▁capita
▁dragged
▁exponential
▁(2007)
▁Cocktail
▁dialect
▁Abroad
▁servo
▁Insulated
▁Curators
▁Forgotten
▁Pantone
▁Julius
▁Antivirus
▁Knox
▁systematically
▁correspondence
▁Documentary
▁elasticity
wu
▁Circus
▁Supper
▁Steak
▁Nagano
▁9.7
▁distortion
▁Mirage
▁bakery
▁authenticity
hereinafter
Custom
▁pierced
▁Engel
▁06:59
><
▁04:25
▁unborn
▁readiness
▁paired
▁tonnes
▁navigat
▁advantageous
▁gladness
▁handmade
▁detached
▁Travelling
▁pissed
341
▁motherboard
▁Workout
grin
▁360°
Mini
▁Happened
▁$1,000
▁Received
motor
509
▁abundantly
▁sway
▁Panther
▁Raid
▁disrupted
lich
▁Amount
8.6
853
▁resumed
▁uttered
▁Lama
▁excluding
▁contention
▁Corning
Centre
growth
shaft
▁Tee
Jack
▁technician
office
SAS
KRW
▁Uploaded
▁candid
xial
▁curb
▁Kuro
▁Pico
zl
cula
loop
7-8
▁Bryan
▁Shima
▁Canton
kV
725
Tree
▁Rex
▁Maine
▁endorse
▁cite
▁Chad
▁summarize
▁prolong
▁Duran
region
▁Toyo
473
tropin
▁Compass
▁Amusement
▁Brigade
▁Byzantine
▁Furnace
▁Lisboa
▁Magnesium
▁Majestic
▁Nuremberg
▁Reliability
▁Rockefeller
▁Uruguay
▁arrogance
▁carpenter
▁embracing
▁exemplary
▁hormonal
▁innocence
▁resilient
▁sacrificial
▁susceptible
▁terrific
▁territorial
▁unanimous
▁ungrateful
▁versatility
▁Yield
▁cassette
▁molten
▁succumb
▁Merchant
▁USCIS
▁synthesize
▁communion
▁holistic
▁Opinion
▁Proceed
▁crises
▁sulfur
▁bankruptcy
▁compulsory
Ezek
▁waiver
▁Daisy
▁farewell
▁(2010)
▁Shangri
▁Garcia
▁dependency
▁Rhine
▁retardant
▁paddle
▁Rouge
▁4:12
▁exult
▁SOME
▁evildoers
▁zipper
▁Offset
▁Smell
▁flare
scribing
▁dividend
▁spotlight
▁Harley
▁Curry
1-7
▁attainment
▁toughest
▁Harper
▁Macao
▁magnifi
▁encoder
9.6
▁distorted
kv
▁SMB
▁discarded
▁Oven
▁Polished
▁Spell
▁Guan
▁erected
▁Swear
▁experimentation
▁kneel
feat
▁validated
quel
▁Cesar
799
▁Hye
▁2:21
▁kindled
Chi
▁Mud
▁MRI
▁Organizer
▁sharply
▁Patriot
▁porch
▁MINI
▁routinely
▁Fol
dolph
▁punching
▁Robb
▁sung
808
▁Tired
▁grind
effect
▁2400
▁Willis
Google
weather
would
›
▁≤0.
client
physical
▁drilled
▁fib
▁mediator
▁9:5
▁glut
▁Roofing
▁preset
▁Lever
▁transfusion
▁rumor
▁statute
State
RIP
▁Critic
▁grim
▁conspir
▁Masa
792
▁Newport
rau
assa
▁beginner
970
▁Mk
▁Shade
▁vibe
▁annoy
nix
Though
▁Chor
Shop
▁Piper
8:2
▁traveller
▁Tick
▁PLAN
ICA
▁1.00
334
▁bleed
▁Alive
UTC
▁outset
▁admonish
▁Aya
▁JP
▁latin
took
▁infringe
vascular
▁questionable
▁Celebration
▁Forbidden
▁Griffith
▁Hannover
▁Sculpture
▁Separation
▁Stunning
▁Stylish
▁Windermere
▁chemotherapy
▁flavour
▁perimeter
▁sleek
▁splendor
▁Ethnic
▁LDAP
▁Sicily
▁incidence
▁regenerate
▁estrogen
▁expend
▁skating
▁Aspire
▁delusion
▁Hittite
▁reseller
▁agility
▁microbes
▁Meditation
▁uploading
▁WEEK
▁(2009)
▁profane
▁Preferred
▁Luminous
▁LEGO
▁Salesforce
▁expedi
▁AutoForm
▁Punishment
▁northeast
▁stirred
▁wrapping
▁Sacramento
▁Krabi
▁chapel
▁hostility
▁Utiliz
▁Jeep
▁UNIT
▁darkened
▁repentant
▁diverge
[21]
▁consequently
▁yeast
▁Servo
▁Madness
▁tithe
09)
▁Ooh
Ware
▁Allison
▁troll
▁stringent
Trust
Ku
657
▁flawless
TSU
ische
____
▁Braun
▁(109
▁inquired
(19
▁(107
▁Conrad
▁disbelieved
▁1904
WON
▁Defender
873
▁stare
▁Medina
▁sam
▁dc
▁Manga
028
lco
▁violently
LLE
strength
Advanced
pipe
Teacher
Grand
Movie
voltage
brother
Express
▁spoiled
general
seeking
▁1907
domain
Server
▁3/8
▁3:3
▁pretending
328
▁Digit
▁Finishing
▁herds
▁Cooled
387
LESS
638
supported
▁EQ
▁Dip
pick
▁Roo
Dear
bull
547
▁rethink
▁Bead
▁Brandy
▁Wong
coated
▁Lara
quan
▁Machu
▁Schi
▁Barco
▁elevate
▁lol
DNS
▁196
▁likened
▁Swim
000000
ograph
▁Asphalt
▁Colosseum
▁DIRECT
▁JEHOVAH
▁Sanhedrin
▁Versailles
▁YORK
▁bladder
▁dormitory
▁executable
▁kindergarten
▁lubrication
▁quilting
▁SolidWorks
▁Whistler
▁conscientious
▁harlot
▁harmonious
▁Cassette
▁blaming
▁lantern
▁GitHub
▁Oyster
▁Servant
▁Strawberry
▁Wikimedia
▁Lantern
▁Sevilla
▁whither
▁oxidation
리아
▁denominator
▁rotten
▁congress
▁gloom
▁Oakwood
▁digestive
▁Awakening
▁Firewall
▁equate
▁deactivate
▁1915
▁Arrest
▁footwear
▁jug
create
▁wedge
XXX
[22]
▁Galleries
▁nineteenth
▁Sasha
▁Fault
▁tomatoes
▁Sake
xiang
▁Tractor
▁Namba
Tu
▁journalism
Connor
▁bait
▁Dansk
▁Depart
▁picturesque
▁Examine
▁coastline
▁rotor
▁Conductor
▁Passive
▁brightest
RIA
428
▁sown
▁blower
▁incorrectly
▁Taxes
▁Anavar
▁Stability
608
▁Rah
Hub
▁tuned
▁Closer
▁recruited
grid
RAIL
beck
▁Hof
▁(113
▁optimiz
▁Badge
optic
▁maiden
UCK
1250
▁merry
rrell
elecommunication
▁HOT
▁1909
▁Bala
▁Shaped
▁silo
kaku
682
SHIP
electronic
Excellent
formerly
spirit
malware
kko
▁Linde
▁Casey
▁Hou
459
▁sweating
▁Preserve
▁Greeting
download
Forex
▁Mack
carton
▁stripes
▁Odd
▁wig
898
▁#9
447
wolf
▁coping
feel
016
▁Gian
/06
▁SELL
▁straighten
▁booster
▁12:10
376
▁disgust
FIC
▁10:22
fighter
▁critically
shine
▁Fare
20%
▁Hue
3-6
▁SMA
▁Arkansas
▁Arlington
▁Beirut
▁BlizzCon
▁Disclaimer
▁Fundamental
▁Impossible
▁RESULTS
▁Recognize
▁Tohoku
▁Treasury
▁WEBSITE
▁blaspheme
▁blazing
▁collagen
▁contagious
▁deformation
▁divinity
▁masculine
▁perseverance
▁prefecture
▁sediment
▁unintentional
텔
▁Louvre
▁academy
▁apprentice
▁treacherous
▁Invitation
▁groove
▁Knock
▁communism
▁kayak
▁Beacon
▁alumni
▁eradicate
▁spherical
▁scoring
▁ICANN
▁Vessel
▁Bliss
▁Catalogue
▁Moldova
▁Picchu
▁(2008)
▁Flip
▁communal
▁swamp
705
▁Fireworks
▁noteworthy
▁scarlet
▁Workstation
▁AISI
▁Blackjack
[26]
▁raging
▁jig
▁Nak
▁Powell
▁Objective
▁unnatural
▁foul
▁Showcase
▁lighten
▁07:02
▁Radar
▁Latvian
Their
▁bitterness
▁blot
▁iphone
▁backbone
▁Masturbating
▁exemption
RAY
▁supper
▁perverse
▁wherefore
▁Pip
446
▁BACK
▁feeble
▁Headset
494
▁Scheme
▁DRM
▁drowning
▁comma
▁Diary
▁lodged
▁darkest
▁Ease
▁guitarist
▁workspace
▁reckoning
▁migrated
▁hoist
IDA
frag
▁Seventh
▁5:5
▁vile
▁infinitely
millennial
▁Rene
▁persisted
▁Prep
▁apologized
▁14:6
▁policeman
rmament
skirt
646
7:2
▁PSA
ieu
▁spelled
▁12:27
wara
▁0~
resident
Seoul
perhaps
Family
Word
Local
765
890
▁Terme
▁Praying
disciplinary
▁increment
CENT
▁Thorn
▁7:13
(9
▁astronomer
evolution
caine
entry
micro
852
delete
mask
▁Tune
▁rocky
▁CSR
▁Pam
rchitectural
▁Dye
3-7
▁HIM
Ref
▁BUS
06:13
▁Cooler
OBE
▁CCC
▁summon
▁Clan
▁Kuta
="3
363
▁Marty
▁Achieve
▁5:28
▁resisted
3.00
▁Curvature
▁Leipzig
▁Minneapolis
▁SIGMA
▁Sullivan
▁Twice
▁Volleyball
▁calculating
▁crocodile
▁imaginary
▁molybdenum
▁rainforest
▁sympathetic
▁Assassin
▁bullshit
▁irrational
▁Amalek
▁hurdle
▁jelly
▁Domingo
▁spectator
▁Sterling
▁Necklace
▁shortcomings
▁classmates
▁Draft
▁Hopkins
▁Norfolk
phobia
▁ASEAN
▁Keysight
▁skateboard
▁cowgirl
▁Gilbert
▁tendencies
▁praising
▁Groove
▁pantry
▁biography
▁Antioch
▁bidding
▁Ankara
▁Radiation
chloro
▁Tongue
▁pouch
▁mobilize
▁HBM
▁warner
▁Truman
▁differing
▁horsemen
▁Consultant
biz
▁intentional
▁artery
▁exclaimed
▁MAP
▁Calculate
▁handbag
▁Diane
▁Viewpoint
▁DirectX
atrix
▁Collar
▁Camel
▁23:59
.06.201
899
▁Econo
▁mph
▁Castell
rika
▁turnover
▁Fiore
▁standby
▁professed
▁Popularity
▁96%
▁Gig
▁93%
▁Clarke
Boo
977
▁Invite
illian
lova
▁Baba
▁Sahara
gee
▁bundled
▁14:30
Train
▁Abba
created
90%
▁computational
▁blameless
▁parish
▁Conditioner
▁Prussia
▁Activ
▁logically
▁designate
natal
▁Luz
▁Rita
▁CGI
▁ADD
▁sling
benz
▁Seeking
▁deploying
soluble
according
Awake
between
buri
409
▁Tig
▁EMI
Satan
▁deceitful
volt
▁lev
Enter
▁Ballet
▁Observ
▁Spit
▁Projector
▁Jill
▁6:7
471
▁SHE
▁Gale
CAS
▁Garni
▁Ariel
zai
cession
▁accommodated
bao
▁FAST
▁troop
▁Sib
▁sued
805
gina
▁Botanic
▁Moor
quisition
▁Physi
▁Occupation
▁Svenska
InterContinental
▁Balcony
▁Capacitive
▁Eclipse
▁Envelope
▁Fragrance
▁NUMBER
▁Nicaragua
▁Optimization
▁Participate
▁Pleasant
▁Tuscany
▁cavity
▁cultivation
▁curfew
▁diarrhea
▁erroneous
▁evangelical
▁juvenile
▁metropolitan
▁pistol
▁poultry
▁proclamation
▁rectangular
▁stunned
▁undesirable
▁unreliable
▁Census
▁fingertips
▁magnify
▁Cluster
▁Exhaust
▁Jasmine
▁Nineveh
▁caregiver
▁circus
▁whistle
▁Worst
▁slash
▁Carnations
▁regulating
▁inexperienced
▁impatient
▁Wendy
▁SHOW
▁discrete
▁Microscope
▁Madame
▁Spotify
▁Greenwich
▁Encryption
▁procurement
▁Particle
▁terry
▁effortlessly
▁Staple
▁latency
▁hallow
▁childbirth
▁loot
▁transmitting
▁posing
▁eventual
▁Kenny
▁Gren
▁Hypo
▁Somewhere
▁3:6
partisan
▁COVER
▁puffy
▁paperwork
▁INCA
▁uneven
▁Leeds
▁augmented
▁Hung
▁carving
▁diary
▁ascertain
478
4°
▁lethal
▁Stalinist
▁Reaction
▁Engage
▁surpassed
▁disconnected
▁suppressed
▁Prospect
▁devoured
▁Booster
▁mutually
▁Electron
▁seriousness
7:06
FU
▁enriched
netsh
▁careless
466
▁hinge
champ
elected
▁Buckle
▁marched
▁Docker
jong
▁1/2"
▁northwest
▁11:28
673
286
(18
▁Yeo
Group
convenient
published
NEW
shemale
collect
Update
ienne
Lost
erry
passion
596
truth
ocular
Market
▁11:14
▁Feeding
▁computation
addon
▁Tate
ccio
▁Jewel
Made
▁1870
476
bread
▁Yah
▁Valeri
▁allocate
mbra
686
GPS
381
index
later
expo
▁arbitra
ONY
▁Cheerleader
▁Chevrolet
▁StarCraft
▁Trinidad
----------------
▁Accelerate
▁Candidate
▁Dormitory
▁Explosion
▁Precise
▁SOFTWARE
▁Scratch
▁Symposium
▁accreditation
▁credible
▁displaced
▁epoxy
▁filament
▁fraudulent
▁inconsistent
▁irrelevant
▁savage
▁scourge
▁suicidal
▁ultraviolet
▁yogurt
▁juicy
▁streak
▁Entire
▁Paphos
▁maritime
▁ferries
▁sprout
Hewlett
▁Psychological
▁SOCKS
▁wield
▁Estimate
▁presidency
▁intestine
▁Crescent
▁genital
▁jackpot
▁WHEN
▁FOOD
▁Reddit
▁Savoy
▁CHINA
▁refract
▁(2018)
▁Retweet
▁Freight
▁alkaline
▁Aruba
▁MIDI
▁unmarried
▁Interrail
▁21:4
▁joking
▁footnote
▁floral
▁shoppers
▁Constantine
▁crank
▁cleanliness
▁Cardiff
▁Samui
▁Splitter
▁heartbeat
▁armour
▁swine
▁Parque
▁misled
GbE
▁contractual
▁tapping
▁flashlight
▁Meyer
▁unsure
▁Debug
▁uncleanness
▁Coverage
▁Pullman
▁Authorized
▁Elena
▁Anglo
▁Fancy
▁robbery
▁prohibition
▁Saba
▁Lighthouse
▁TRY
▁novice
opia
▁6061
▁flux
▁barley
▁Boris
▁Torch
▁sweetness
▁RTD
▁Yugoslavia
▁Reminder
▁dwellers
shiki
▁workpiece
▁prevailed
WIN
letter
▁Shun
▁heroin
▁Reformed
862
▁DIP
jung
▁prevailing
▁Quiz
▁Pierce
▁Stark
▁WSP
469
677
▁10:05
▁CARE
technology
▁Schl
Saturday
Women
Africa
certified
driving
▁brit
▁Killed
Nobody
▁Combo
▁{{/
bak
Total
735
▁recreate
▁pitched
vite
cube
▁DLL
▁Fold
▁1830
▁graceful
azione
▁spun
▁Couldn
▁Shine
HEL
▁Hardy
Network
powerful
Saxon
PSK
▁SEM
Law
467
859
▁12:9
▁dissolve
▁Orion
▁devise
▁frank
Hold
769
OFF
▁drastic
▁intimidate
▁reimburse
psychiatric
▁Argentine
▁Casablanca
▁Conversely
▁Distribute
▁Fahrenheit
▁GeForce
▁Liqueur
▁Odessa
▁TECHNOLOGY
▁consumable
▁diabetic
▁enquiry
▁fluorescent
▁immersive
▁knives
▁knob
▁pestilence
▁prototyping
▁societal
▁vigilant
▁Economist
▁Kawasaki
▁Recycling
▁CENTER
▁Ebola
▁VERY
▁slack
▁biotechnology
▁Meteor
▁Puppy
▁forensic
▁trophy
▁Attach
▁motif
▁Cambria
▁harmonize
▁spawn
▁Mutual
▁TODAY
▁bullock
▁Toxic
▁subordinate
▁impending
▁Olympus
▁Infantry
▁Fairmont
▁Yamaha
▁Kyung
▁Bradley
▁raven
▁Foldable
▁Havona
▁Supermarket
▁Wasn
▁Vault
▁Contrast
▁testifies
▁Timber
▁Virtualization
▁flap
▁exhortation
▁Avast
▁crib
Fast
▁undu
▁Icelandic
794
393
▁predictive
▁Pellet
▁Shaving
▁Hunger
▁Fier
▁flawed
▁Zeus
▁Petr
▁Hazel
▁stride
▁6:2
▁statu
foo
(12
▁reactive
▁Laban
▁sexuality
▁Nag
▁pcb
▁entertained
▁taxation
▁pleaded
742
often
▁Basil
Diagram
▁Byron
Ball
▁13:20
lette
▁Enhance
▁Mahal
▁65%
though
▁Acer
bile
hopping
▁Libyan
▁photographic
▁ETF
▁vial
hydrate
▁photographed
▁rebuilding
▁conserv
▁firsthand
▁Introduce
▁contentment
terior
KEN
598
▁crushing
▁faulty
Central
positive
▁Canary
Sunday
▁villain
wild
meta
▁Protected
▁incorporat
Media
▁mapped
floor
question
▁45%
595
hostel
687
Print
559
▁Archi
creation
▁youthful
esque
Judg
adian
DOS
▁resurrect
▁reconcile
▁synchronize
near
▁27500
finger
▁$11
▁Starr
▁Methyl
▁psalm
▁resent
▁Structural
▁Belief
▁Contribution
▁Disclosure
▁Hairdryer
▁Knife
▁Kyrgyzstan
▁Raffles
▁Strategies
▁Tribune
▁Whilst
▁capacitor
▁countenance
▁fertile
▁gourmet
▁kiosk
▁pediatric
▁simplifies
▁uninterrupted
▁viscosity
▁starvation
▁Bronx
▁CZK
▁thermocouple
▁Adolf
▁Dolby
▁bosom
▁Ubud
▁apostate
▁fowl
▁Coconut
▁Walmart
▁Ethical
▁Wavelength
▁bleach
▁canopy
▁urging
▁Exotic
▁Pencil
▁Belgrade
▁Wolfram
▁Tahoe
▁Curtis
▁latitude
▁Brutal
▁vaginal
▁hotspot
▁Edgar
▁Goodbye
▁slightest
▁Liberation
▁MAKE
▁imitation
Clean
▁Jongno
373
▁owl
▁Wound
mozilla
▁Shechem
▁STEM
588
▁Sauce
▁Fate
▁immersed
▁nationalities
▁worshipping
▁synchronized
USER
▁Feli
▁Magi
▁vitality
▁reproduc
▁Creed
▁baseline
▁Lego
▁Pickup
▁Fern
▁Packet
▁cherished
▁MTR
▁97%
▁$14
▁campuses
▁BMI
▁Jail
▁shortened
6:06
▁Crab
▁Rotation
▁deities
Suppl
▁mute
▁Kurt
▁cyclo
Indian
▁9:6
▁Satania
▁freeware
▁SOC
▁Tina
▁Vest
nau
▁Joey
▁12:29
434
▁conveyed
384
▁advert
route
▁louder
▁doubtful
asaki
appointed
consuming
Content
phrase
Small
▁thankfully
Earth
Micro
▁mustard
Friday
Angel
IoT
Sports
80°
plated
▁trio
707
INFO
▁Racer
▁Karma
MAT
sufficient
▁southwest
Hour
▁Pear
learning
▁convict
▁congratulate
▁discard
▁Vig
▁1895
Classic
manufactu
▁Burma
Zephaniah
▁Beethoven
▁Samantha
▁Archbishop
▁Beppu
▁Canterbury
▁Chancellor
▁Jaipur
▁Mechanism
▁Millennial
▁Perspective
▁Phantom
▁Physician
▁Rebekah
▁Ryokan
▁Samurai
▁Trolley
▁appreciative
▁chloride
▁collaborating
▁eldest
▁estimation
▁hypocrisy
▁luminous
▁muscular
▁outsourcing
▁rehearsal
▁relativity
▁secrecy
▁upstairs
oops
▁GREAT
▁Bareback
▁Kakao
▁dominance
▁Roulette
▁Rendering
▁Polynesia
▁Sigma
▁Pigtail
▁shovel
▁Syrup
▁Employer
▁PTSD
▁Interchange
▁Refund
▁vinegar
▁prerequisite
▁exchanging
▁Grandmother
▁Angola
▁Palau
▁FULL
▁Accessory
▁50/60
▁stub
▁Rugged
▁whisk
▁Reformation
▁Warcraft
▁redtube
▁birthplace
▁rinse
dera
▁Reject
▁replication
▁drawback
▁democrat
▁Alison
utonomous
▁reconnect
▁Hacker
▁mattresses
▁enslaved
4-2
▁Premiere
▁GoPro
▁Slovenian
▁axle
▁Wicked
▁Roland
▁deliveries
▁Ideally
▁Cava
[...]
