<unk>
<s>
</s>
.
,
의
▁
는
에
을
▁이
▁수
이
)
를
은
가
?
▁그
▁있습니다
에서
▁(
:
▁을
▁의
▁한
로
과
(
▁,
▁및
와
▁에
도
▁전
▁있는
▁들
▁것
▁1
▁“
▁-
▁모든
고
▁더
▁할
▁은
▁"
으로
▁2
s
한
지
▁가
▁3
▁를
!
-
하고
▁년
▁다른
하는
▁있다
입니다
년
▁는
인
▁그리고
▁대한
▁내
▁하는
▁:
▁위해
할
▁4
▁때
다
’
▁일
▁‘
▁우리는
▁우리
”
▁많은
기
"
▁것을
▁5
▁호텔
/
▁또는
일
▁가장
▁사람
▁나는
합니다
▁중
나
▁것입니다
▁10
자
▁합니다
만
월
라
▁그러나
▁인
▁내가
▁두
▁말
▁과
.”
▁어떤
▁함께
▁또한
▁것이다
▁될
▁6
시
▁그는
▁위한
▁주
이다
▁에서
'
하지
▁나
...
▁것이
▁같은
해
▁로
게
서
▁것은
스
▁어떻게
▁하지만
▁대해
▁된
된
▁경우
▁제
했다
▁하고
▁보기
어
▁해
적
들이
하기
▁[
▁다
▁으로
▁한다
▁큰
▁7
▁좋은
하여
▁당신은
하게
에게
▁새로운
2
사
야
▁우리가
▁/
▁8
▁그들은
요
들은
면
▁개월
▁그것은
▁'
;
▁당신의
▁후
▁도
들을
▁우리의
라고
▁A
리
▁미국
▁다시
▁안
▁당신이
▁동안
▁그의
▁와
▁the
▁잘
▁하
▁사용
들
▁자
▁12
▁9
수
한다
▁통해
]
3
▁데
아
▁시간
▁다음
▁모두
▁입니다
했습니다
분
지도
▁매우
S
C
▁B
▁가지
▁of
주
▁xHamster
."
▁않습니다
▁여호와
▁또
▁에게
1
▁따라
▁대
성
▁하나님
▁11
▁고
▁지금
▁20
▁없습니다
▁왜
m
▁서비스
니
▁세
▁생각
▁아니라
까지
▁시
▁이렇게
▁아
D
▁15
▁몇
▁S
▁저는
▁하나님의
에는
▁C
▁제공합니다
▁네
B
▁가지고
▁자신의
A
▁이러한
적인
▁18
▁그래서
장
▁때문에
▁하지
▁이런
▁분
트
▁그들의
▁있으며
대
▁볼
▁그런
▁세계
▁의해
드
▁이제
화
▁이상
마
진
하며
▁약
ing
▁사람들이
▁그들이
▁제품
히
▁많이
개
▁현재
▁알고
오
▁없는
세
▁날
하
▁정보
해야
▁있을
▁...
▁오
▁)
부
이나
비
소
▁이것은
▁비
▁난
▁&
▁하나
▁시작
▁여러
▁저
▁이다
▁그것을
4
▁알
▁_
보다
▁자기
전
mm
신
▁30
용
▁들어
▁지
▁그가
▁제가
er
치
▁그렇게
▁같이
▁a
▁있었다
▁예수
▁바로
▁줄
▁없다
V
G
▁개
a
제
d
▁and
▁P
▁높은
되는
▁무료
▁가진
y
▁등
▁본
com
▁사람이
▁개인
▁방법
됩니다
W
▁계속
▁게임
▁월
▁D
상
t
▁사
▁않는
구
▁각
▁바
▁사랑
▁사실
▁M
F
▁됩니다
T
미
며
▁첫
▁히
▁다양한
개의
▁항상
e
▁16
▁나의
▁위하여
▁있고
▁당신
▁–
보
▁여행
▁게
라는
▁to
M
실
5
▁정말
▁중요한
명
▁T
▁작은
▁제공
▁되는
원
▁I
▁너무
▁새
▁기술
▁명
선
▁만
▁수도
▁관리
이라고
▁전에
▁성
▁하기
▁물
▁14
▁중국
▁G
▁문제
우
▁있도록
▁E
▁in
▁선택
▁서
▁24
▁연구
▁번째
▁아주
네
될
▁데이터
ed
▁거
그
▁파일
▁웹
▁지역
▁H
▁이름
▁사람들은
▁되어
▁13
▁추가
▁일부
▁일을
하면
▁일본
타
되어
▁아니
▁않을
정
▁시스템
x
▁R
▁얼마나
거
▁나를
▁The
▁17
▁하게
▁해야
▁개의
▁최고의
들의
▁마
▁차
▁이미
에서는
▁보호
n
▁않은
이며
▁K
습니다
▁지원
▁번
P
▁호텔은
▁F
▁것으로
▁수있는
▁하였다
▁전체
▁지도
▁산
▁거의
▁>
▁말씀
던
년에
▁어느
▁사용할
▁기계
K
▁19
▁성서
▁필요
o
르
▁신
▁때문
▁하여
▁온
▁그러한
▁했다
▁보고
▁자신
▁예
▁관한
▁라
산
바
▁곧
L
하십시오
처럼
▁다운로드
질
▁있다는
▁원
차
되고
형
▁까지
H
즈
▁이는
▁오늘
하거나
크
조
죠
하였다
▁예약
▁열
거나
프
▁그녀는
▁피
▁여기
▁하느님
▁N
▁사진
데
▁V
▁L
▁사용자
▁정보를
▁이야기
되지
여
▁있습니까
▁국제
▁특히
▁비디오
식
▁된다
6
▁있다고
▁관련
▁최대
▁교육
▁일이
▁건
▁HD
디
▁살
▁너희
▁생산
▁집
▁구
▁보
동
▁미
내
▁가족
적으로
▁부
▁기
▁25
코
▁여러분
카
시간
단
레
되었다
▁개발
▁100
▁있어
▁어
8
들과
러
▁그분
▁말했다
노
▁영국
▁않는다
▁X
회
부터
▁않았다
▁선
▁필요한
▁비즈니스
▁총
모
▁그들을
▁호스텔
당
란
▁온라인
▁Porn
▁정도
▁따라서
▁못
▁좀
▁걸
▁그것
▁도시
▁업체
물
▁이유
호
▁인간
g
▁이스라엘
R
▁없이
▁센터
▁공급
▁기록
토
▁되었다
▁단
되었습니다
▁강
▁W
▁%
▁아닙니다
▁「
티
▁면
▁유
▁영화
▁아들
N
▁영
>
▁모
▁50
위
▁당신을
관
▁회사
~
▁아니다
▁설명
i
▁사람은
▁달
▁무엇
▁않고
중
al
▁당
▁무슨
▁여자
▁쉽게
▁무
파
▁고객
▁전화
▁그를
이라는
▁점
▁정
▁발
▁결과
▁즉
▁검색
▁배
▁소
▁크기
in
있는
▁가능한
▁그런데
▁스
▁TV
▁주요
▁#
▁*
▁그러므로
▁그것이
하다
▁판매
▁그녀의
b
▁만약
7
▁하나님은
▁지난
▁km
▁포함
E
▁귀하의
_
X
▁위치
▁여
▁파일을
▁마지막
▁적
건
▁리
▁이후
로부터
9
▁서비스를
▁사용하여
?”
▁21
▁기타
▁설정
▁위
▁양
▁생활
▁0
▁가운데
▁갈
▁되었습니다
도록
▁누가
체
유
▁물론
무
더
[
이었다
▁인도
c
▁이용
▁아직
▁반
▁유지
▁작업
」
▁상
▁만들
▁카
▁22
▁기도
▁있게
▁단지
▁설치
▁J
▁자동차
10
▁말을
▁시간을
▁영향을
▁무엇을
▁보다
▁확인
▁모델
▁있지만
포
▁연결
▁복구
▁프로그램
계
이고
▁하나님이
려
▁숙박
▁께서
▁예를
▁서로
▁불
▁발견
▁조
▁가격
▁있었습니다
▁가능
들에게
O
터
▁참
키
▁그냥
린
▁Hotel
이라
f
▁대부분의
▁이상의
▁네가
▁제조
▁했습니다
▁부터
▁후에
▁해당
▁경험
▁국가
▁+
Tube
▁디자인
안
▁원하는
▁이탈리아
▁전기
▁인터넷
▁더욱
▁2018
▁운영
k
▁종
r
▁질문
▁대학
엔
▁An
▁친구
▁책
▁우리를
▁재
하도록
▁이것이
▁직접
▁장
▁의미
방
▁우리에게
피
p
▁간
▁곳
▁유럽
▁에는
지만
h
▁코
▁호
▁보안
루
▁기능
▁계획
▁함
▁속
▁방법을
▁안전
▁께서는
하라
▁거리에
▁있지
▁변경
▁먼저
▁번호
▁너희가
초
된다
▁길
▁여전히
▁40
▁제공하는
▁좋아하는
▁실제로
▁O
▁훨씬
▁힘
저
면서
공
▁혹은
▁안에
▁건강
▁하면
법
▁for
하지만
▁처음
▁매일
▁최근
연
▁환경
▁여성
▁카드
▁하나의
▁아내
▁요구
▁사람을
▁준비
▁소프트웨어
두
▁따르면
▁아이
▁행동
▁있어요
론
▁그들
▁23
였다
지는
▁데이터를
▁Windows
해서
▁완전히
▁특정
on
▁역시
▁활동
▁Q
국
▁하였습니다
▁저장
▁처리
Hub
심
▁방
발
▁시험
함
▁공
▁받은
▁오늘날
음
▁산업
▁문
▁아버지
▁웹사이트
▁최고
▁결정
▁도움이
▁왕
▁타
▁음악
▁그리스도
▁아시아
▁2019
▁나라
▁컴퓨터
▁그들에게
▁아름다운
+
en
▁스포츠
▁<
▁있다면
나는
▁표시
I
▁겁니다
▁분석
▁러시아
w
Y
▁사회
▁업데이트
▁결코
▁노
점
▁사용하는
군
력
—
▁가정
▁$
▁이미지
▁대하여
▁어머니
감
는데
▁결국
브
▁증인
▁주는
▁결혼
▁태그
▁홈
금
▁마음
▁실제
▁제어
경
간
▁인해
▁기간
▁찾아
es
▁~
▁존재
▁그리스도인
▁초
▁프랑스
▁만드는
▁시간이
▁상태
▁파
▁주의
▁눈
▁그룹
▁만들어
or
임
*
▁전자
J
길
▁너
▁있는지
▁표준
▁장치
▁이전
▁2017
▁되고
▁아마츄어
▁이러
▁적용
▁찾을
판
▁얻을
재
▁is
▁있기
The
▁응용
▁사이트
▁학교
▁기업
▁아무
v
으로부터
학
▁방문
▁동
▁관계
▁저희
▁머리
버
문
▁네트워크
▁이동
▁바랍니다
기를
▁언어
▁자신을
▁수행
&
▁테스트
le
▁보내
번
▁올
l
성급
▁매
천
▁공항
?"
▁우
▁구성
▁필요가
▁일반적으로
km
▁거리
▁스타일
▁땅
▁이번
▁이해
▁US
.—
매
▁제거
▁치료
▁에너지
었다
▁디지털
▁너는
▁객실
▁등록
▁독일
ly
▁공식
▁평균
▁기본
명의
츠
$
▁거야
예
▁하며
▁입
▁내게
▁섹스
역
▁노력
▁시설
▁위해서
▁종교
▁28
▁이름을
▁유형
▁남
▁사람의
▁인쇄
▁감사
▁사람들을
▁소개
▁돈
▁받을
교
▁전문
▁학생
th
▁포
▁위치한
▁아침
▁알게
▁진
▁설계
▁장비
운
▁문제를
▁병
re
▁26
▁등이
12
살
▁의사
▁대한민국
▁실행
▁품질
▁남자
든
▁행
▁과학
▁외
▁손
에도
▁치
으며
권
▁교회
▁것도
▁빠른
▁실
▁아니면
로서
▁한국
▁오래
온
▁정의
▁60
▁동물
▁형제
▁하나님께서
▁임
있다
절
▁밤
▁자유
▁약속
▁좋아
▁스스로
▁U
▁x
▁것에
▁키
▁되
▁그러면
▁영어
되
▁훌륭한
▁위에
영
▁기능을
▁공장
▁자동
▁2016
▁법
▁부모
▁변화
▁코드
것
▁그에게
▁하나님을
▁표현
▁자연
▁27
류
케
▁만일
▁자주
▁운동
반
▁뒤
▁것처럼
▁아마
너
▁것과
▁토
▁돌
▁문제가
난
▁공유
▁등을
▁클럽
▁조금
▁단계
▁심지어
했고
종
▁않았습니다
▁버스
▁아래
▁자녀
▁지불
했던
▁뉴욕
▁s
행
▁기억
▁우주
▁생명
▁(18+)
▁역
랑
▁상품을
▁도움
▁풀
배
병
▁삭제
15
▁최신
까
▁사업
▁음식
하세요
양
▁세상
▁중요
▁창조
▁나무
▁하루
▁것이라고
▁되지
▁둘
▁PC
약
▁같습니다
▁사는
▁주문
U
▁진행
▁이를
▁성장
▁공격
민
▁편집
▁없었다
▁알려
▁행복
▁심
▁당신에게
▁위험
주의
▁조직
▁금
▁증가
려고
▁뉴스
21
ar
▁확장
▁LED
▁꽃
▁통합
▁오직
▁니
어요
▁빛
▁뿐
▁그럼
▁해결
▁관
▁특별한
▁전혀
▁전쟁
▁발전
▁봉사
▁2015
▁돈을
▁아닌
▁앞
링
u
25
▁투자
▁조사
▁대답
집
▁빨리
▁암
▁혼자
11
색
층
▁북한
▁Co
▁you
▁길이
▁•
▁드
▁있는가
▁보는
is
▁평가
말
▁버전
후
▁경제
▁요청
▁거래
▁분명
강
▁구조
▁갖고
▁구매
▁크게
▁사이
▁꼭
▁중에
▁위치하고
▁de
▁샤워
▁그렇지
▁사이트를
▁광고
▁기사
▁m
▁소리
하면서
▁왕국
▁너희는
▁말라
▁사람들
▁보면
▁할인
▁만든
us
▁받고
으
대로
테
▁프리
▁앞에
▁여기에
▁같다
들에
▁진짜
▁아파트
▁Z
▁어디
▁내용
증
▁호스팅
▁다음과
▁프로젝트
▁긴
▁무엇입니까
림
▁정부
불
▁종종
▁그게
본
▁대신
▁포장
▁때문이다
하실
▁이나
▁낮은
▁때까지
▁언제나
▁라고
▁In
▁살고
▁입력
백
an
▁달러
▁on
▁있어서
▁팔
▁공기
▁유일한
▁지구
석
▁곳에서
▁있
▁용
▁의하여
18
▁언제
져
▁놀라운
▁제안
▁색깔
▁명의
▁당시
▁이것을
자가
▁29
▁작동
▁믿음
▁잘못
▁적이
▁주변
▁젊은
▁이메일
▁번역
▁아는
▁성경
▁것이며
▁사이에
▁사람들에게
▁참여
▁정책
▁가슴
▁증거
▁이것
▁전송
▁페이지
▁맞는
▁글
▁종류의
▁애
▁벌
▁도착
▁시리즈
▁여러분이
13
▁경
▁내에
▁발생
▁캐나다
▁장소
▁받아
▁끝
▁접근
▁일반
▁미디어
생
▁측정
20
▁삼
니다
▁플라스틱
달
Z
▁제품을
▁가까운
▁김
▁막
et
십시오
하려면
▁태양
▁드라이브
%
▁현대
17
▁대해서
▁늘
날
▁앤
▁죄
▁여기서
▁받는
▁너의
▁진리
▁팀
하신
▁보통
16
▁외부
▁않다
▁가서
▁룸
▁하신
▁자신이
▁어린
24
이란
▁참조
▁없을
▁수정
at
▁가는
▁엄마
세요
▁말씀을
▁로마
▁때문입니다
▁소녀
메
▁있나요
co
▁질
▁그림
it
▁섬
▁의료
▁모바일
▁변
▁구원
▁노래
▁성공
▁어린이
▁01
▁02
▁비용
▁너를
입
억
▁쉬운
▁않으면
▁온도
▁삶을
▁제한
우리
▁알아
▁길을
▁싶은
▁너희에게
▁멋진
▁디
▁때에
▁천
▁검사
▁솔루션
▁사망
뿐만
▁가치
▁인정
복
▁백
▁동시에
▁마치
▁이건
▁Street
▁수백
▁시대
▁없
▁하드
▁선물
▁화
을위한
▁언급
▁그때
▁해서
래
이었습니다
▁있는데
▁그대로
▁대부분
▁그건
속
▁생각합니다
▁없어
▁계시
▁31
▁부분
▁존
▁아무도
▁은행
▁·
▁레
▁기대
▁여러분은
▁c
▁방식으로
▁께
▁2014
▁처럼
쿠
aldin
▁명령
▁인식
to
박
▁도구
el
▁유명한
▁프로그램을
▁금속
▁지방
▁32
▁깊은
▁카메라
▁알지
14
▁기술을
▁말하는
▁나에게
해야합니다
▁서버
▁발표
▁떨어져
▁연
▁집단
19
▁영향
다고
▁기회를
▁리뷰
▁있어야
▁그렇다면
▁07
▁야
▁06
▁플레이
편
커
▁역사
▁관련된
▁방법은
®
▁자료
▁편
·
▁나은
▁누구
▁고통
▁요
▁적어도
▁동영상
직
▁몸
▁귀
▁사람들의
▁파리
▁창
▁b
▁별
▁말할
▁죽은
거야
▁능력
▁Re
창
네요
▁케이블
▁강력한
▁중앙
ia
▁보여
▁희망
▁공개
▁p
▁필요합니다
청
▁Y
▁에서는
▁세계에서
없이
하였습니다
▁나쁜
Q
▁큰가슴
▁관심
▁차량
▁제작
▁경험을
▁마음을
▁05
▁동일한
각
▁상품
z
▁사무실
등
▁속도
▁런던
▁옵션
▁반드시
▁시도
▁No
▁Mac
▁건축
▁이라고
▁집에
▁하나님께
▁35
50
걸
리라
▁Read
▁훈련
▁보장
목
▁정신
▁알루미늄
▁영적
▁주소
▁기관
▁베
▁상자
▁More
▁전문가
▁않
▁2012
▁완벽한
▁통제
▁즉시
▁하나는
▁범위
▁남성
▁평화
▁식사
▁첫째
줄
▁대화
▁200
▁무엇이
▁하늘
▁안에서
▁얼마
▁시장
스트
▁날짜
▁자세한
▁파티
우리는
통
▁뭐
▁하라
긴
▁하다
▁생성
▁그래
▁가득
▁인기
▁주장
▁없음
▁대로
▁공간
▁만족
▁De
▁목록
▁IP
▁박
▁섹시한중년여성
▁이들은
▁불구하고
▁수집
▁가능합니다
▁상황
급
▁듣고
▁사도
▁결과를
갈
▁스페인
▁2010
했을
▁완료
▁책임
▁딱
▁추천
▁벽
ri
▁믿는
▁미터
▁옷
였습니다
▁왜냐하면
▁쇼핑
▁아무것도
▁앞으로
▁자는
▁아기
▁통신
▁한번
가지
▁고려
▁모두가
▁문화
▁내부
▁KAYAK
▁일은
▁작업을
업
▁협력
▁도움을
▁커피
▁비치
▁아마도
▁곳에
▁물자
▁03
▁시티
▁RF
글
▁수많은
▁그녀가
30
▁지역에
▁남편
▁자체
▁기름
▁것이라
▁있던
▁여호와께서
▁압력
▁액세스
▁이벤트
퍼
▁2013
▁2011
▁예술
▁브랜드
!”
▁재생
다면
▁이야기를
냐
▁딸
▁흑인
마다
▁이유는
▁비교
▁만들기
▁손실
▁앱
▁특별
워
님
▁경우에
량
▁경쟁
▁be
▁글로벌
40
▁인가
하려고
▁반대
▁승리
함을
:10
ic
▁종이
▁정말로
0
니까
▁감
▁기초
▁입니까
▁소유
▁단어
▁찾고
▁순간
▁Pro
▁경고
▁관해
▁음
▁응답
▁있음
um
▁행사
▁인증
▁초기
▁가까이
울
▁감소
별
▁St
▁줍니다
만이
애
▁엔진
현
더라
▁원래
▁리조트
▁공원
man
▁게임을
:11
ine
▁유리
▁미국의
▁정치
▁채널
▁감사합니다
▁라인
품
▁아직도
▁종류
▁나와
성을
남
▁형
▁사용자가
▁절대
▁백성
표
-1
lo
▁박물관
▁출시
▁목
하는데
▁회복
▁진정한
슨
▁아프리카
출
▁되면
:00
▁시스템을
▁필요로
▁속에
었습니다
작
▁사실을
▁La
▁전달
▁사랑하는
▁f
▁가스
▁목적
▁나이
▁하이틴
ta
▁연방
▁아마추어
▁완전
베
▁실로
▁방식
▁80
▁침대
ation
▁실패
▁살아
들도
▁영상
▁마십시오
인지
▁점점
▁뜻
▁건물
28
▁회사는
망
▁도메인
▁연락
▁판
▁어려운
▁사건
▁분야
▁운전
▁마사지
▁회원
▁준
▁마케팅
▁500
▁한다는
▁작성
▁연합
처
▁좋습니다
일에
▁일반적인
▁사항
개월
▁역할을
▁계약
▁조각
▁예언
때
▁멕시코
▁조정
▁USB
이야
▁너희를
▁야외
나요
▁반응
▁두고
▁로열티
▁건설
▁요리
▁못할
▁손상
열
▁빠르게
▁e
▁메모리
▁화학
▁사람에게
▁찾기
▁관광
▁계산
▁보세요
합니까
투
▁몇몇
▁간단한
▁핵심
▁결합
▁지혜
▁청소년
▁여름
▁나이든여자
▁참으로
락
▁파괴
▁선택할
▁문서
▁묘사
▁색상
▁식품
▁직업
지를
▁부족
▁악
▁싶어
▁성인
▁카지노
▁with
▁증명
32
▁것인가
ur
▁매년
지요
ers
▁쇼
▁Google
▁특징
▁인간의
▁말한다
▁메
▁씨
▁강철
▁가이드
▁강한
▁이들
설
▁소식
▁멀리
했으며
▁물질
으면
22
▁떠나
▁중단
▁파트너
▁45
릴
▁거기
▁90
▁식
▁뒤에
▁데이터시트
▁08
▁앞에서
내가
▁못한
▁허용
▁색
▁순
▁대회
▁군
li
▁대표
▁책을
▁윈도우
▁구입
▁관하여
id
▁있었던
▁보이는
▁말이
▁세기
▁출력
▁기회
▁나중에
▁기반
▁이내에
▁식물
▁방법으로
▁홍콩
보고
자는
:12
▁우선
외
▁제일
▁대상
▁얼굴
▁프로
▁저를
▁과연
▁전시
▁세포
▁단위
▁맥
▁자가
ion
인가
▁지정
▁보지
▁대체
▁금융
▁시즌
▁속에서
▁집중
▁오는
▁by
▁있을까
▁블랙
▁형성
▁스크린
▁04
▁잠
▁찾는
▁특성
ra
이에요
▁높이
▁절
▁이르되
ro
un
▁바다
▁제도
다는
립
▁목표
▁등의
성급의
▁금발
▁전력
29
▁고대
▁말합니다
▁시설을
▁합니까
▁우린
▁범죄
▁연락처
▁안내
:20
:15
▁바울
▁칼
▁Red
▁2008
▁스파
▁《
:17
탄
la
명이
▁링크
35
▁펌프
▁대통령
▁그리
▁경찰
▁현
▁티
▁Park
▁채
▁지식
▁와서
▁이게
▁부품
▁즐길
▁한다고
새
ol
▁저렴한
▁도전
▁과정
함으로써
▁화면
▁설립
를위한
27
▁사고
▁플랫폼
▁광
▁전부
▁문의
▁생각을
▁생각하는
▁생각해
족
▁넌
▁변환
▁뜨거운
▁가로되
▁Dr
▁깊이
▁이름은
▁확신
▁개선
알
▁개인정보
▁알려진
▁법률
▁병원
▁모른다
de
▁JizzBunker
▁추적
▁회중
머
으니
태
▁뿐만
ie
▁신청
il
▁받지
▁받았다
▁33
▁얘기
▁파크
▁업무
▁행위
▁2009
▁최소
▁쓰
▁걱정
되며
▁저희는
인데
시키는
▁신경
▁체계
:30
st
65
▁허
▁문제는
한다면
▁메시지
하시는
▁장난감
ton
▁쿠키
▁각각
▁통
▁힘을
▁감독
▁형태
▁We
▁나도
!!
▁무게
:19
▁먹을
▁레즈비언
▁차로
▁반복
▁»
▁용서
격
▁사이의
▁축구
든지
▁300
▁어떠한
▁정원
▁충분히
▁Al
▁재료
▁세상을
리아
▁도로
▁회의
▁고급
os
▁사진을
▁삶의
▁최종
보기
▁짧은
▁지속
▁하면서
ter
▁자세히
▁피부
▁말고
▁마을
▁디스크
▁축복
▁가입
▁확실히
▁동료
▁무역
31
근
▁모양
▁거짓
▁세계의
렌
▁일에
▁거예요
▁할머니
▁지역의
▁그분의
▁마음에
▁위로
▁=
해요
se
▁루
▁소년
막
▁것보다
▁콘텐츠
▁없고
▁취
▁올바른
▁지금은
▁마련
▁배경
▁스타
na
▁저녁
▁Road
기도
▁학습
만큼
▁팬
▁기준
합
▁전파
500
▁신호
▁현실
▁70
▁취소
▁나서
▁지지
이지만
▁타고
ne
▁만한
광
▁저도
:13
▁빈
▁세상에
▁시간에
▁that
▁저희가
페
▁크리스마스
ry
▁단체
▁신뢰
▁TXXX
▁못하는
▁다섯
▁선생님
▁그럴
▁참석
26
▁어떠
90
▁미래
▁싱가포르
▁최초의
▁장식
▁플레이어
60
▁강화
▁d
▁북
▁배터리
▁나머지
▁t
으로서
▁승인
▁프로그램은
▁이어
▁스마트
볼
▁하우스
▁나오는
▁위대한
▁둘째
▁레이저
▁제시
령
▁실험
▁○
▁욕실
▁페
te
▁달리
▁모터
▁공동
▁만큼
▁왔다
▁삽
▁하나입니다
▁클릭
▁심장
▁주식
▁관리자
▁36
구나
▁포트
▁두려워
▁교
▁전환
▁ISO
곳
▁편안한
▁영광
:18
▁박사
▁검토
▁09
▁레스토랑
축
▁g
▁사용합니다
▁개발자
에있는
한다는
▁기반으로
▁있음을
▁오래된
▁교통
씨
son
▁선수
33
▁가질
▁계정
추
▁전략
담
▁삶
▁시계
▁큰엉덩이
:16
▁보라
▁올드
▁바이
승
암
또는
▁지배
▁스타킹
▁검색하여
션
▁관계를
▁커플
▁표
한테
▁무엇인가
▁크
▁규정
▁의심
▁무선
▁내려
결
술
군요
년부터
▁만들고
100
됐다
▁or
▁회
됨
▁사회적
▁그리스
▁널
▁준다
▁포함한
▁방송
▁문자
▁하도록
▁되기
▁지금까지
▁밖에
▁re
▁분명히
ve
시는
▁이와
▁밀
▁그걸
▁뇌
▁제공됩니다
▁i
▁읽기
▁보증
▁지적
▁New
시고
▁OS
웃음
▁않아
▁저항
▁예약하세요
시킬
▁관심을
졌다
▁고객의
▁대학교
되면
▁한다면
▁My
▁집에서
▁스위트
▁동의
적이고
▁소셜
▁단일
▁넘는
▁제목
▁인류
‘
▁왔습니다
▁적절한
▁케
▁직원
as
▁처음으로
에서도
▁전용
.”—
▁2000
▁자리
▁부활
▁남아
▁Bravo
▁비밀
▁커뮤니티
▁더블
▁보이
▁생
▁유혹
ut
▁오히려
스터
▁위해서는
▁터
▁태도
▁패
▁약간
올
▁비행
▁조건
▁로봇
▁환자
▁오후
▁도보
▁하는가
am
▁있으면
탈
▁응
▁주고
▁마찬가지로
▁편지
▁능력을
▁보험
▁주신
▁없다는
:22
ul
▁2007
▁사전
▁예상
▁근육
책
▁패널
▁Wi
▁로그인
▁제대로
▁통하여
▁권
▁사용되는
▁클라우드
▁PDF
까요
습니까
▁손을
▁안전한
▁참고
▁엘
▁코스
▁세트
▁오디오
미터
▁(19
▁자전거
▁You
액
▁배치
▁바이러스
▁방지
▁전세계
자를
▁구축
▁이전에
▁쪽
▁오류
▁봄
▁세대
▁그것의
▁호텔에서
▁게시
▁아이들
▁철
왕
▁성능
▁금지
▁부인
▁중에서
▁100%
▁모릅니다
▁담
23
▁덜
▁조명
먼
ate
▁주십시오
▁블로그
▁08:00
▁영원히
▁땅에
▁분리
99
▁거기에
48
▁버
▁싶습니다
64
-2
▁감정
▁지상
!"
▁죽음
▁시작했다
▁이며
언
▁혁신
▁교환
▁배달
ment
45
▁술
▁혹시
▁공공
▁불러
이자
cm
3)
▁하나를
▁원칙
▁국내
했지만
▁있을까요
▁배송
▁국
▁청
@
▁같
손
▁성취
▁도쿄
▁영원
▁부엌
같은
▁테이블
▁꿈
▁천사
▁있죠
▁일어나
46
▁활용
▁Home
팅
▁말했습니다
▁만나
ity
▁그저
이요
-10
▁신체
▁빌라
▁요한
▁애플리케이션
항
▁우수한
▁하십시오
▁정확한
▁me
2)
▁Microsoft
▁미리
▁체
▁통과
▁포함되어
one
▁무기
정보
▁투
▁종료
▁진실
▁진화
▁걸쳐
▁널리
▁커
01
라도
마태
▁층
▁뭔가
▁해도
습
▁골프
이지
하기를
75
▁항목
▁권리
▁서울
▁형식
▁소스
▁협회
지고
▁뉴
들로
▁누
▁받았습니다
▁맹세
▁효과
▁하나님께서는
▁공정
▁경기
▁꽤
▁●
▁향상
턴
▁경우에는
▁마침내
▁소재
▁사랑을
라면
▁요소
▁마지막으로
▁질병
▁허락
▁정상
▁내일
쳐
▁세부
▁숭배
순
▁일단
▁태국
▁자지
▁물을
▁자원
▁이웃
모든
▁정보는
▁있었고
시켜
료
▁그날
▁시기
되기
▁촬영
쉬
▁거부
▁통해서
▁34
▁근처에
▁선택한
▁제품은
▁것이고
▁에도
▁갑자기
ad
▁때때로
▁국립
:24
▁2020
▁않도록
▁위협
▁재미
▁예측
▁작가
▁올해
▁그것에
▁녹색
느냐
▁엔
▁실내
한다고
▁주로
향
▁울
▁싶지
▁호주
▁소프트웨어를
▁하실
:28
스타
▁폭
▁포함하여
est
j
▁중심
▁상호
▁Le
▁캘리포니아
▁다만
▁없다고
▁넓은
요한
▁갖추고
▁있읍니다
▁단순히
▁거유
▁부여
▁블록
▁교수
▁v
주는
니라
▁했던
▁노동
없는
:4
▁눈을
▁소비
go
▁가고
엘
▁투어
▁그러
▁(2
▁심판
and
▁영역
▁공부
▁첫번째
▁없었습니다
▁의식
▁유익
이죠
67
▁수술
▁City
▁스위스
▁IT
ent
▁답
플
95
-5
▁교사
▁군대
▁아빠
▁초대
:5
▁완전한
▁축제
▁방법이
▁수음
▁않게
▁오랜
▁통계
▁Via
▁금고
▁애널
▁브라질
▁멸망
▁관심이
▁일정
▁체코
▁주님의
ty
▁도와드립니다
▁것들을
▁37
▁mm
49
▁GotPorn
▁봐
하려는
▁사용하고
▁보인다
▁디스플레이
▁개별
▁생각한다
1)
▁특가
▁문을
세기
▁내용은
▁배우
튼
▁정치적
▁내용을
▁관찰
▁탱크
▁역할
입니까
▁이라는
▁손에
에게서
▁고양이
▁믿을
▁do
▁뛰어난
▁알려져
▁전압
▁환영
▁숫자
▁비슷한
▁House
34
▁조회
▁실시
▁일치
▁유다
▁우유
▁라는
되어야
▁해요
▁배울
66
▁모습
▁말이죠
▁판단
▁어디에
▁숙소
블
▁사까시
▁믿지
▁생물
▁순종
센터
년대
▁잠시
▁무리
▁먹고
▁향
▁중심에
▁중요합니다
▁통화
름
▁하나가
▁맨
▁고객이
▁마리아
▁앉아
▁독립
거리
채
:23
》
▁저의
▁때는
▁메뉴
ang
▁체험
▁스테인리스
▁희생
▁여행을
▁년에
▁인터페이스
▁달려
▁방법에
▁노출
ti
▁무료로
▁가공
▁수학
▁네게
▁폴
▁감염
▁포인트
▁분류
▁그래도
▁주택
▁하셨습니다
▁없어요
철
▁방향
▁전원
▁누구나
▁의학
▁홀
ap
▁기차
36
▁it
구요
▁새로
▁돼
하니
▁보도
▁나가
른
▁어제
▁사용됩니다
▁48
▁제품의
▁공항에서
▁찬
▁제출
▁전통
▁수영장
▁안드로이드
▁청소
▁일상
▁고객님께서
▁가게
age
변
38
하자
▁유대인
▁헤
▁Me
하리라
▁하거나
▁보이지
▁사용하면
▁작품
▁표면
▁접촉
▁변화를
-4
▁들어가
▁섬유
▁상표
▁못하고
▁그녀를
▁태
▁마세요
▁38
▁값
▁문제에
▁행성
▁훌륭
▁영혼
독
▁본인에게
▁보관
▁거대한
딩
▁수천
▁예약하실
▁극
▁완성
▁스웨덴
▁진정
▁비록
▁객실에
▁잊지
▁활성화
▁have
▁말하고
▁00
▁n
▁보고서
▁가져
▁분야에서
▁(1)
▁갖춘
▁아일랜드
곡
▁공화국
▁라이브
▁같아요
▁아파트는
▁그와
▁요금
▁가상
▁귀여운
▁잘못된
:7
▁구역
준
▁왕이
▁센서
▁제조업체
▁가치가
▁접속
▁페티쉬
▁눈에
im
았다
TM
▁해변
▁뭘
▁복
위원회
▁수가
▁오랫동안
▁출발
37
▁합금
▁화장실
▁베이
ma
▁임신
▁쓸
▁not
▁와인
▁Be
mo
기는
이기
도다
▁시민
▁XXX
▁위성
▁인하여
▁고용
05
ir
▁말해
▁트럭
느니라
▁방어
▁Inn
▁스트립
집니다
▁1000
서는
움
▁과정을
▁전망
:25
▁캐
▁그분은
▁오픈
▁엄청난
▁느낌
“
▁모듈
▁주기
▁대기
▁메일
44
▁란제리
리는
▁자연산
▁블루
▁도와
▁오르가즘
▁기존
▁갖게
▁분말
▁기기
no
▁도달
▁상대
Fi
▁임명
▁수출
able
▁받게
▁테
▁그리하여
▁흡연
▁부동산
▁왔
▁개최
▁위치를
있을
▁전투
▁Mar
ian
▁사용자의
골
▁맞
▁소비자
▁are
▁텍스트
▁십
85
▁호텔을
▁주차
▁하려고
▁못했다
▁이었다
▁신문
▁때마다
▁이유로
▁백업
는지
람
▁from
▁개념
▁패키지
▁Apple
▁모습을
▁털이
▁어쩌면
▁상상
▁150
▁마음이
▁제자
▁만듭니다
▁사람들과
▁메시지를
▁먹는
▁읽고
▁투표
▁수준의
▁옵션을
▁근거
▁비트
▁항공
▁냉각
▁다리
▁앨범
슈
▁at
39
▁이에
▁과거
▁]
▁불법
하였고
북
▁지역에서
▁제공하고
했어요
▁수준
▁이집트
▁신앙
▁웹캠
▁미국에서
em
▁충분한
▁근데
▁무엇인지
▁AC
▁바닥
▁항
▁샤
Porn
만을
▁교훈
per
▁국민
▁황
▁잔
▁더불어
▁모드
▁상승
▁회사의
:27
▁질문을
55
▁your
▁규칙
인종간
▁가능성이
▁저자
63
▁강조
▁음료
43
▁타워
▁레벨
ong
ard
▁아이디어
ist
▁분수
악
셨다
▁네덜란드
▁원인
▁아무런
▁보십시오
▁이름이
▁영원한
▁말은
-3
▁건강한
▁수있다
=
뿐
▁수상
04
▁복잡한
▁조언
▁돌아가
▁못한다
▁인치
▁라디오
▁거죠
▁질문에
▁겨울
▁테마
▁의지
ce
▁백색
되었고
▁차단
-6
▁키스
▁독특한
▁내에서
▁배포
▁상점
07
▁현지
이기도
자들은
▁보게
▁했
▁비율
▁통한
▁각자
▁접
사람
우스
▁여부
▁w
▁시내
▁일반인
▁카테고리
노라
▁사용자는
▁실현
▁준수
▁모니터링
▁충족
▁이용할
▁가죽
▁클래스
▁To
▁폰
▁사용하기
80
자의
셨습니다
▁작용
▁모르는
▁계획을
54
▁활동을
▁Car
:26
▁프로세스
▁기다리고
ac
▁시간은
▁등급
▁유명
▁사람과
▁민족
▁해외
▁저에게
51
▁날씨
▁보수
▁편의
–
59
▁기독교
스는
▁생각이
▁복원
70
▁압축
▁냉장고
▁중간
환
▁주세요
▁폭력
▁시스템은
om
▁보존
▁후장
▁사용하지
57
▁노예
▁비용을
기에
▁도보로
▁적은
렸다
녀
▁이론
▁나온
▁계신
▁필
kg
평
▁들면
▁열기
▁열차
ig
▁갤러리
▁결혼식
▁균형
▁패션
리니
▁만들어진
곤
▁사항을
▁명이
다가
▁앞서
▁can
▁Con
▁DC
▁브라우저
▁바람
압
리스
▁독
▁읽어
다른
▁Li
▁정확히
▁주차장
▁넘
율
▁받기
▁친
▁추
▁아줌마
▁기원
▁2006
▁돌아
▁고정
▁선지자
▁알아야
:29
09
▁선언
42
▁짓
슬
▁달성
충
200
▁선거
▁소형
▁발행
▁가르침
5)
▁지도자
▁자극
71
▁공연
▁심각한
▁하니
▁모형
ha
68
▁스튜디오
▁낮
▁밖으로
▁an
▁이유가
land
▁상기
▁로부터
밀
▁퍼
되었으며
▁간격
▁호스트
▁곳이
▁대해서는
▁음식을
▁헌신
58
빌
▁죄를
▁양식
하려
▁전통적인
▁해석
▁생존
▁제공할
▁수업
▁것들이
▁약물
▁집을
▁근처
▁사례
▁참가
?’
-8
▁갔다
톤
▁의한
▁자매
▁존중
찬
▁생명을
▁베트남
▁Beach
▁계
▁애플
▁화이트
▁라틴
▁빌
▁문신
io
Dan
:8
47
싱
▁바라
안에
▁답변
누
▁자동으로
▁담배
팀
▁흥미로운
▁의미합니다
▁율법
침
:6
▁불과
▁정리
▁하시는
▁때로는
▁탈
▁입장
▁위원회
▁마이크로
▁필수
86
-12
61
▁가치를
잖아
ina
▁연주
▁걸어
▁망
▁견해
:1
▁느낄
▁회전
▁하이
53
ca
▁믿고
었고
▁범
송
▁모르
▁글을
▁하여금
▁필터
친
▁인구
▁저가
▁말하기를
▁거절
▁업계
▁의하면
▁아이들이
▁And
빈
▁송
▁되게
▁않기
▁·⁠·⁠·
▁열심히
me
▁지시
ee
받을
▁부정
▁구글
▁시스템에
▁어찌
▁42
▁드라이버
레이
ster
▁얻기
▁노인
▁맛
▁수입
▁점을
▁상담
ot
▁일곱
▁남은
▁효과적인
port
록
▁예수께서
▁고무
▁성전환
02
▁각각의
▁않으며
▁흔히
하시고
▁수리
▁400
▁미소녀
▁마리
▁2005
룸
▁축
하던
▁싶다
▁슈퍼
79
▁리더
런
▁킬로미터
▁시설이
▁코어
▁짐
▁환영합니다
▁많다
▁마약
▁그렇지만
▁단순
▁셀
년간
▁쓴
56
▁인지
▁아담
▁일부는
려면
▁폴란드
▁시작할
▁h
up
▁오른쪽
do
▁얻는
▁구현
▁→
돌
▁39
▁업그레이드
:01
▁기후
▁그래픽
▁예루살렘
▁대략
ant
600
▁누군가
박수
▁그곳
▁대응
성이
▁귀하가
▁El
▁마스터
ge
▁최적화
▁충돌
임을
▁예방
▁그린
▁푸
▁하나님과
▁숲
킹
:31
▁도울
min
▁게다가
▁말한
▁Do
받은
▁가격이
▁하였읍니다
▁르
▁가실
▁규제
▁준비가
▁공간을
▁워싱턴
▁Center
▁터키
▁두려움
▁솔루션을
▁컬러
▁일찍
ci
84
하나
▁부르
▁통치
▁인기있는
▁목적으로
▁도입
97
▁그랜드
▁떨어진
▁너희의
하죠
▁벤
72
▁이란
▁충분
▁한편
▁밤에
▁절반
번째
▁주제
▁포르노
▁ID
au
▁세인트
랜드
▁용접
▁목표를
▁규모
셔
▁곡
봉
▁빈티지
▁글꼴
▁지원합니다
▁변호사
▁스위치
▁악한
혀
▁인생
▁조합
▁@
net
▁옷을
패
하시기
▁한국어
로마
▁서명
▁도구를
▁근무
▁그럼에도
▁120
▁©
▁칠
▁재산
41
▁당신과
▁적합한
▁조절
▁도시의
▁복사
▁지원을
달러
▁쓰리
▁장로
▁법적
▁직
▁정부는
▁싸움
▁머무실
▁모세
▁직면
▁위치해
▁클라이언트
▁업로드
▁말씀이
▁이제는
▁San
▁품
▁대량
겠습니다
여호와
▁확대
았
▁Bar
▁누구도
▁넘어
벨
▁써
▁상징
▁원격
▁똑같은
▁비행기
▁물건
▁베스트
▁핵
맨
▁잡지
▁USD
▁세상에서
▁것이요
샤
▁대중
▁프레임
ka
▁데이터베이스
▁그대
▁논의
8)
▁충실
▁따
▁오염
▁부서
▁댓글
▁이때
▁--
▁이걸
짐
▁동일
▁무시
be
▁민
In
닝
▁조지
▁감시
레스
▁육
▁밝은
▁하셨다
▁비난
▁World
삼
▁브루넷
▁괴물
▁미니
▁행동을
▁택시
▁케이스
▁OEM
▁주지
▁분이
▁거기서
▁사실상
▁as
▁아니었다
▁옆에
da
▁향해
▁삽입
▁추구
▁연구소
▁제기
▁일어날
왔다
필
06
-20
▁세계를
ab
▁날에
진다
all
▁석
▁꿈을
▁베를린
ick
▁반면
▁결정을
▁절약
▁근
▁아름다움
▁사이트에
▁일본의
▁학생들은
▁나일론
▁쓰는
더니
▁희
▁공동체
틀
▁이름으로
▁숨
▁둔
▁것이었다
사를
▁성령
▁듯
▁엉덩이
▁먼
▁간호사
했다고
▁여기에서
▁All
▁입은
스러운
호텔
그리고
▁거짓말
IN
먹
▁목욕
▁진단
▁죽을
▁상태로
▁시트
▁펜
▁오신
자들이
이라면
▁친절
지지
▁식별
▁특허
98
▁우리와
▁수단
▁먹
▁세금
▁정보가
▁가구
▁PVC
▁k
▁자산
께서
▁법을
▁연기
▁°
▁레이
▁상황을
▁기쁨
▁선택합니다
▁하는데
▁지켜
▁64
▁그러니까
▁55
▁순서
96
▁의무
▁my
▁환경을
▁아이들은
▁Inc
ll
▁상당히
end
03
300
있어
ah
▁놀이
▁아래에
▁즐거운
▁받
▁(2)
▁생각하고
▁Museum
월에
▁사용을
▁박스
92
▁다윗
▁땅을
읍니다
▁체크
졌습니다
▁비해
▁가르쳐
▁않지만
”(
▁객실을
▁가난한
취
▁대형
▁성급
▁친구가
▁아니고
▁Man
▁없으며
되거나
▁지속적으로
▁오전
▁레드
▁주었다
▁왼쪽
▁팩
▁뿌리
▁혁명
▁프로젝트를
▁빛을
▁나타내
▁플래시
▁게이
▁않았
니아
▁제국
▁티켓
▁CD
▁셔틀
▁로드
▁성전
▁선정
▁쿠
▁보상
▁일어나는
▁유전자
▁하자
▁올림픽
▁몸을
▁스트레스
▁하느님의
▁밝혔다
▁보니
▁자를
▁스캔
▁크림파이
▁정확
▁강력
▁보드
▁덕분에
시기
87
▁명소
쓰
관리
▁채택
에게는
▁잡아
▁최
▁혈액
▁고품질
희
▁이거
려는
▁식당
▁시절
62
했
▁컬렉션
▁만화
ai
▁방수
하시
9)
▁성분
▁서비스에
▁칩
▁싶
▁음성
mp
▁일하는
귀
▁열린
▁방해
▁적응
▁카드를
▁실수
▁보여줍니다
▁집으로
▁팬티
▁탄소
▁욕조
▁강도
▁기여
시키고
▁출판
op
):
▁해결책
▁때가
기가
▁도그
▁인한
▁포맷
▁SD
ak
▁연속
▁제임스
▁획득
▁(1
년까지
▁밴드
▁CO
▁마찬가지
▁노트북
기술
풍
께
었던
▁가능성
▁넣어
ner
▁Mo
ive
▁그만
▁단백질
▁보았다
▁부부
▁연료
▁책임을
69
▁나아가
지라
▁생각하지
▁포기
▁찬양
▁경영
▁함수
08
▁Ar
하나님
클
▁것인지
▁그들과
▁부분을
▁설
▁—
74
ba
▁위치에
▁미래를
▁너무나
▁특수
▁톤
▁체제
▁갖는
▁수백만
▁카페
▁충전
52
▁좋다
▁땅에서
▁요인
▁권리를
▁반영
하였으며
ice
▁페이지를
ip
▁격
▁로스앤젤레스
▁과학자
▁유형의
▁과일
ch
있습니다
▁LCD
▁아들이
▁공포
▁싸
▁따른
▁고민
ber
음을
▁당사의
▁대부분은
▁성적
="
▁신발
칭
▁주인
랄
▁계속해서
▁댄스
회사
▁후기
미국
▁정도로
81
▁확보
▁생일
▁현대적인
▁International
▁수신
▁이중
▁하드웨어
▁선포
▁데리고
▁이었습니다
잔
▁수용
▁빠져
▁미국인
▁신뢰할
▁못하게
▁듣는
▁부탁
기관
거든
▁완벽하게
-7
▁뿐이다
▁영업
▁쓰기
the
▁쌍
▁엔지니어
염
ay
▁호수
했는데
▁항구
▁안전하게
▁않음
하다고
칠
▁교체
▁용량
▁디자이너
▁시드니
▁this
▁보낸
▁연습
▁마크
▁실망
▁프
▁주께서
▁중국의
▁DVD
Re
십
▁43
▁분위기
▁05:00
▁시작했습니다
▁복음
▁신용
76
▁농업
▁자라
▁최대한
▁읽을
쯤
▁기념
▁세상의
▁행하는
▁하는지
▁시각
▁결론
▁노동자
▁지식을
겨
▁시작합니다
▁Di
나무
▁인물
PS
▁않는다면
▁군사
봐
▁나타내는
아이
▁힘든
▁바꿀
▁얼굴을
▁안경
▁2003
▁십대
▁브
▁적절
▁의존
풀
▁코팅
▁이해할
▁최근에
ana
US
▁속성
▁메인
▁광장
▁사물
▁소유자
▁트리
▁사이에서
▁탄생
▁시스템의
▁예비
▁도서관
▁퍼센트
▁아침에
▁홈페이지
▁고객에게
듯
▁골
▁직물
der
▁아버지의
고요
▁Android
▁필리핀
▁절벽
▁완벽
▁결제
▁리눅스
▁주님
▁프로필
▁슬
▁외국인
▁상황에서
▁슈
82
▁자세
▁분노
▁운송
▁갔
핑
▁콜
▁범주
▁간주
착
▁다양
▁버튼을
#
▁Ro
▁물고기
▁철학
▁거룩한
으로써
▁오일
▁차원
89
세계
황
▁결과는
-11
▁것들
▁Villa
▁이미지를
▁않아요
▁지침
▁이혼
▁파워
▁어디서
▁저작권
동안
십니다
▁타입
▁600
가요
▁습관
▁폭발
▁골드
▁혼합
73
▁중지
▁www
▁주어진
▁깨끗
▁됨
▁성공적으로
▁없지만
▁소설
▁합
:34
▁그러니
0°
▁코드를
PC
▁부대
AL
▁시행
▁혼
▁말입니다
범
▁없다면
▁당사는
▁곳으로
▁보조
▁액체
▁베드로
GB
ru
▁으로써
▁지속적인
▁에어
▁렌즈
어야
▁University
ver
겠죠
▁격려
▁250
:40
▁대비
▁못했습니다
▁믿
셨
ko
way
7)
▁진리를
▁당사
▁과정에서
▁So
인가요
센
▁경제적
▁제품에
▁트럼프
▁미치는
▁혜택을
▁URL
▁등장
▁75
▁South
▁독자
4)
▁행복한
ER
▁의견
▁미래에
대의
400
▁열어
▁오브
▁유용한
▁이용하여
▁담당
▁탭
잖아요
▁자들이
▁직장
94
▁태어난
▁각종
▁졸업
▁극장
▁One
▁흑단
▁존재하지
Porno
▁오르
▁입고
▁[...]
▁직경
거든요
ex
졌
▁대전
▁싫어
ance
나니
▁싱글
▁드릴
▁동작
▁드립니다
▁얻은
ft
di
▁평생
누가
▁검
▁입증
▁방식을
▁샘플
▁토론
▁암호화
▁베이징
▁풍부한
▁교황
▁주목
이든
IS
▁ex
▁혼란
이니
▁팀은
▁샌프란시스코
▁영웅
°
▁목표는
▁암호
▁뜻을
▁위에서
▁기회가
83
▁엘리베이터
▁에어컨
▁트
▁현금
▁월드
▁높
▁인사
▁약간의
▁피곤
헤
▁의회
▁인간이
SA
▁간다
▁충성
것을
▁con
▁사업을
▁되어야
함이
▁발명
▁기본적으로
▁음악을
▁모임
▁그렇습니다
▁것일까
▁저희에게
▁드리
▁마라
▁Facebook
▁기술은
▁떠
하고자
ence
▁제발
▁사양
▁별로
▁굉장히
é
▁미인
▁소리를
▁개인적인
Zilla
▁주문을
・
▁확인할
▁Outlook
▁공학
▁급
▁저렴
▁차지
▁지원하는
▁제외
▁팁
▁2004
▁약관
▁애니메이션
▁예정
▁뚱녀
▁앱을
▁Go
:33
▁믿음을
:35
▁작
:45
▁드는
▁44
전에
▁서비스는
▁Xo
▁좋지
▁개인적
▁책은
▁쿠폰
▁뷰
▁컵
▁다이아몬드
▁은혜
ga
▁존재하는
:37
▁그녀
린다
▁헤어드라이기
▁든
▁생각할
▁(5
▁Bo
▁받았
▁일어난
▁인간은
)’
▁란
▁우크라이나
▁힘이
시스템
▁핀
만한
▁아니야
▁국가의
▁방콕
▁되었고
▁보유하고
돼
▁도망
▁오스트레일리아
▁이르시되
▁텔레비전
총
▁심각
▁구리
▁스파이
▁도매
▁옆
▁바퀴
▁요즘
▁기적
▁경로
▁외국
주세요
▁제공하기
▁€
ni
▁미래의
▁필요하다
▁간의
▁폴리
▁인용
▁옛
▁여인
▁뉴질랜드
▁Vi
▁지나
존
▁알아보기
숙
si
▁채팅
▁마르
lu
▁것이라는
】
버스
6)
씩
sa
MA
▁로고
▁꾸
▁알았
▁기구
▁성격
했는지
▁역사를
▁기뻐
▁캐스팅
쇼
▁램프
▁이익
▁가동
:32
▁침례
▁위험을
▁중요하다
▁트랙
▁아메리카
▁삶에
▁보낼
▁너와
▁정부가
▁연구에
sh
▁덮
▁로서
▁논쟁
▁성과
▁있으니
▁II
▁스테로이드
▁절단
▁통통
▁동생
▁구멍
였던
▁혁신적인
▁Ra
▁유로
▁스토리지
▁커다란
▁시카고
▁휴대
▁대규모
▁구분
▁있었
▁국경
▁아브라함
▁프로그램의
▁Server
93
▁보유
▁손님께서는
▁관련하여
▁단순한
▁이사
▁비슷
시킵니다
하기도
▁가야
:39
▁다운
▁가방
▁느끼는
▁가끔
▁말하지
▁41
▁폴더
▁죽
▁Na
▁곳을
▁나타나
ub
▁탄
▁연장
▁올라
▁인종
▁모두를
ite
▁검색하세요
▁아이가
▁석유
▁아동
▁Ma
▁번에
▁델
00
▁권장
▁식사를
▁가면
ting
▁잭
▁환경에서
▁전국
▁바보
▁장치를
사가
ure
▁사용될
▁진공
▁그러자
▁아이를
으나
예요
▁원하지
▁킹
▁보일
▁보입니다
▁값을
▁같아
였
AR
▁10:00
▁있으므로
▁고속
▁언론
고린도
▁기분
91
▁리스트
▁기꺼이
▁이곳
▁이용하실
하므로
con
▁했어요
▁경주
힐
▁걸릴
렉
▁65
▁낼
▁만날
▁레이아웃
▁저기
▁상황에
▁MP
▁날이
▁했을
▁경계
▁권력
▁광범위한
:07
▁수없는
ear
▁에게는
5%
▁쓰고
▁주위
▁살인
BS
▁보자
▁금요일
▁빌딩
▁고객을
▁당연히
▁결
▁빠르고
▁EU
▁축하
▁분출
▁보다는
팔
▁명령을
▁아트
극
▁벗어나
▁예언자
이면
▁싶다면
력을
로운
hi
▁별도
▁녹
▁밥
▁패턴
▁프로그램에
▁소련
▁경험이
▁체인
▁사탄
▁핸드잡
▁차를
벌
▁고도
▁수십
▁효과를
IC
▁상처
▁밝혀
▁커버
▁산타
▁검은
▁세계에
▁하나로
▁조심
ps
교육
▁바탕으로
-15
▁바르셀로나
▁끊
▁Hot
▁사이즈
▁갖춰진
겠다
▁스틸
▁부분은
lin
▁장기
하기로
▁체크인
▁에너지를
▁{
▁제공되는
▁부르는
▁아이콘
큰
▁확실
▁형태로
▁농장
제품
▁어둠
▁백만
돈
▁Am
pa
▁불리는
▁솔
▁몰
▁방법입니다
▁혜택
▁페리
▁해안
▁페이스북
▁하려
▁아이폰
▁자유롭게
▁Sa
▁정책을
▁게임은
▁자살
▁못합니다
겐
▁배우고
:59
▁하리라
▁용기
▁비유
▁가든
▁자손
▁거룩
▁장면
▁질환
▁자비
▁돕는
ou
』
▁벨
▁자동화
EN
칸
▁보았
:36
▁롤
육
▁의문
▁언어를
▁현장
김
▁놀
▁극복
▁휴가
▁집회
이스
▁데스크
ho
▁두바이
▁특별히
▁위의
▁그만큼
▁유산
▁여관
▁측
▁영광을
▁최소한
▁창조주
▁최선을
징
콘
▁흐름
▁노력을
▁봅니다
▁마다
88
▁차이
▁모델을
▁사용해
▁예산
ow
:38
CA
▁버리
▁크고
▁모스크바
bo
견
▁영화를
폐
▁되리라
▁API
/1
ies
▁웨스트
IP
▁숙박시설
▁셀카
업체
▁보내는
▁연설
▁처
ary
▁Remo
화된
▁세계적으로
▁기능이
▁쉬
▁발생할
▁이민
▁합의
▁반환
EC
▁로컬
▁차례
▁검색엔진
▁장애
드는
▁가기
▁신부
▁완
▁끊임없이
▁회로
▁만든다
▁아랍
▁기본적인
▁절차
▁트위터
▁되었
저는
ss
▁얻게
▁감지
것이
▁변형
▁위험한
▁항공기
▁할아버지
▁포함합니다
▁파일이
▁으로부터
▁정확하게
ᄂ
▁짐승
▁West
▁천국
▁가난
▁손으로
왜
▁뒤로
욕
▁학생들이
웨이
▁돌려
번호
▁결심
:44
즉
▁월요일
▁무덤
▁He
▁거주
▁공급자
인이
▁이기
▁다음에
▁오늘은
800
▁취득
za
Me
▁머
▁누군가가
-9
▁교육을
▁까
▁사기
▁휴대용
▁뼈
^^
물을
옥
▁출
례
▁난방
▁허가
ke
▁좋아요
▁할지
▁이들이
▁인내
교회
셀
▁성숙한
▁사과
▁최상의
▁헤어
▁여섯
▁보너스
사항
▁선택하십시오
▁건너
▁와이파이
왔
▁분쟁
ino
▁모여
▁휴식
▁시켜
▁YouTube
▁방금
▁맥주
년이
했어
▁편리한
▁불안
▁착용
▁실시간
▁당장
▁영양
▁우편
▁요셉
▁Web
▁설정을
▁아이디어를
our
▁열매
▁어두운
▁취급
▁홍보
▁체중
장을
▁따르는
▁컴퓨터에
ron
▁회개
▁스키
▁웃
ley
▁튜브
▁46
▁위기
▁입을
va
▁r
▁지옥
▁연구를
??
▁먹이
에만
▁택
▁근원
▁스타일의
77
▁세우
▁부상
▁속한
▁그곳에
▁부분이
▁흡수
▁현상
Tuber
▁머물
▁Avenue
▁방향으로
▁Ha
장이
que
▁`
▁필름
▁우수
▁객실은
대학교
었
TS
문화
▁관점
pe
▁필드
▁받아서
로우
▁남부
▁구두
▁가르치는
▁달라
×
었는데
▁버튼
ud
▁체포
▁리얼
▁구별
이었고
▁인터뷰
▁호르몬
▁없게
겁니다
▁잡고
▁붙
▁이하
:57
▁변수
▁호텔입니다
▁부담
▁논문
▁말이다
▁Pa
▁전화를
▁충격
▁돈이
▁품목
▁승
지에
▁시청
▁흥미
▁시작하는
▁아니지만
▁발달
▁we
자와
▁잡
▁하시고
▁벗
▁예수님은
▁(4
▁포함됩니다
▁계정을
▁지점
ts
▁흰색
▁멀티
▁탐색
▁무언가를
▁들고
▁Air
▁적용됩니다
잡
▁800
▁아비
시오
비아
▁여성의
▁정부의
▁비디오를
뇨
시아
▁고통을
ph
▁존경
)"
▁프레스
지역
ler
org
▁사랑은
▁밖
▁반대로
▁힐
▁미친
▁읽는
▁사실은
▁점은
▁주었습니다
▁인형
▁폐
▁실리콘
dy
▁주실
▁침실
▁호출
낼
듯이
▁Your
▁싶어요
-19
▁자신에게
▁드레스
▁불가능
▁하루에
he
▁컨트롤
▁포함된
St
ill
▁주어
▁버전을
더라도
▁탑
하겠습니다
▁법칙
쪽
▁머신
▁재단
사는
▁자격
▁권한
▁럭셔리
당신은
▁억
:56
▁홍수
78
▁콘
▁있었는데
시키기
▁능
▁고기
▁숙
▁일이다
베이
▁빵
▁오스트리아
:05
▁부문
밖에
▁상세
▁그리스도의
▁핀란드
▁대화를
▁성공적인
▁효과가
▁토요일
ms
▁사이트에서
▁알맞은
▁환불
▁즐거움
▁데이트
▁프로그래밍
▁언제든지
▁아웃
:58
▁캠페인
▁아버지가
▁추출
▁얼음
▁철도
▁Ch
OS
▁세션
AT
▁개혁
▁포르투갈
les
▁지붕
보세요
▁이르
▁컨트롤러
▁캐릭터
▁고전
젠
▁이끌어
▁옥외
▁※
▁매장
▁유사
서비스
▁용품
므로
nd
▁평점
▁포함하는
▁현재의
▁중국에서
▁상태를
▁온라인으로
▁영계
▁백인
▁운
▁일요일
▁백성이
▁말미암아
▁이익을
▁all
▁다니엘
단계
:06
▁구름
▁모두에게
나이다
▁(3
▁유압
▁아이들을
▁재판
▁주민
▁손님
렛
▁국가에서
▁밀라노
▁매체
덕
▁설교
에서부터
▁상업
▁며칠
▁벌써
ide
▁만들었습니다
▁본인
▁옛날
님의
▁파이프
값
▁소통
▁인도네시아
▁프라하
▁아들을
▁이상이
▁아니하고
▁52
▁출처
▁시키는
▁링크를
▁목록을
홀
▁목적을
▁구성되어
▁복잡
▁치유
몬
▁좌석
▁욕망
▁마련되어
같이
▁해방
▁1.5
▁주시기
▁0.5
▁장소를
▁듣지
▁솔로몬
▁겸손
▁도박
▁촉진
▁오지
▁떼
▁임시
▁특
▁우승
▁···
▁보여주는
폰
:43
▁말로
▁APK
▁우려
▁경력
▁소프트웨어는
▁섭취
낸
ight
보다는
▁2)
▁휴
▁그릇
밍
▁For
▁App
▁풍
▁권위
▁문서를
▁모래
▁곳은
킨
흐
▁재정
▁두번째
▁예외
▁예배
▁하시
▁애굽
▁툴
▁긍정적
▁부가
MS
▁자리한
▁좋아합니다
▁결과가
▁드디어
립니다
우리가
tor
▁Da
:50
▁사용자에게
년에는
▁된다는
소리
▁왕의
▁49
기업
▁홀리데이
▁라이트
수록
▁진보
▁그렇다
▁빨간
:04
▁세워
리고
▁대표적인
:49
사회
▁아니요
▁Du
▁돌아오
▁소매
▁마우스
▁거라고
▁불평
▁아르
▁관련이
▁시간과
▁보건
▁사랑의
▁보았습니다
이라도
:47
▁영감을
▁재미있는
ell
chi
줍니다
롤
일까
▁이상한
SI
▁만에
▁알기
▁data
▁너에게
▁스페인어
ach
▁많습니다
vi
▁감동
참
▁막대
▁얼굴마사지
▁끌어
▁리그
▁피해
▁강의
▁가격을
:42
PA
▁차트
▁추정
▁참조하십시오
인은
벤
AM
▁되며
▁부티크
▁Datasheet
▁승객
▁시스템이
▁염려
▁적합
스의
▁가르치
▁탐험
▁들었다
tic
▁육체
했기
텐
▁l
▁칭찬
▁발생하는
받는
▁1)
혈
▁은혜를
▁인권
▁보석
▁형상
▁헝가리
▁수하물
▁새롭게
▁요가
▁인프라
있었습니다
▁열쇠
ham
하시면
▁좋을
▁물어
▁진실로
▁하이힐
▁『
▁It
답니다
▁의미를
▁투쟁
사랑
▁2002
:02
▁세탁
▁변화가
▁단계를
▁고유
▁이루
▁y
▁됐
겠지
000
산업
겠지만
▁아시아의
▁(10
칼
RI
▁하죠
▁안정
▁수치
▁형태의
▁속도를
▁따뜻한
▁사용한
ES
▁흥분
▁물리적
▁옳은
▁붉은
MP
▁믿는다
이니라
▁대개
▁향한
로써
▁삼키기
푸
▁보트
▁악마
▁비자
▁필요할
ag
▁기계를
▁주도
▁대상으로
▁la
▁파이
▁믿습니다
▁오사카
▁장미
익
▁상황이
▁휘
▁he
▁배우자
▁프로모션
▁아니에요
얼
혼
▁운명
릿
▁대륙
델
▁마이클
▁Apartment
▁섹션
▁척
po
▁사자
▁공중
영어
ml
▁Po
▁매력적인
▁어쨌든
▁본다
시다
oc
▁패스
조차
▁터치
▁클로즈업
명을
▁유효한
섬
▁■
▁롤러
장치
▁회사가
▁변경할
▁센
짓
▁않는다는
▁법원
▁보였다
▁제공하며
▁도덕적
▁철사
▁수익
▁주시
▁식으로
▁iPhone
▁블
▁안다
▁타이
▁pro
qui
▁내리
▁업
▁낙원
tal
CC
▁절대로
▁인수
▁51
▁노래를
▁콘텐츠를
▁나올
▁이루어진
백만
▁가라사대
시며
학교
자에게
▁고객은
수를
▁모험
▁냄새
택
▁하려면
▁사랑이
스키
▁다이
▁능력이
▁파운드
ara
▁호흡
ous
▁학
▁의자
▁새끼
▁평면
시장
▁청년
▁타임
덴
함에
ug
▁확인하십시오
느
▁성능을
」(
▁1990
▁특정한
▁iOS
▁사상
red
허
}
▁건조
▁했고
능
▁얻고
▁배우는
ish
▁게스트
당신
▁방문자
▁하려는
▁없기
▁성공을
▁연간
▁자식
▁것이죠
▁이후로
하셨습니다
▁의도
AS
▁게시물
▁모자
▁그렇다고
▁내내
잠언
ise
▁제사장
궁
있
▁실천
▁Lo
상의
▁불리
▁물이
▁0.1
▁어려움
▁밸브
이트
▁다음은
▁나오
▁창출
▁지키
▁눈이
벽
▁거울
▁부모님
ash
대학
://
▁one
▁하였으며
▁좋
▁엄청
중에
▁받아야
▁이후에
▁의견을
ja
▁VPN
▁동기
▁산소
사도
ness
q
▁중인
▁워
▁님
스티
▁숨겨진
▁거에요
규
▁굴
▁어디로
▁집안
▁년간
▁기업의
▁프로토콜
▁가져올
▁치료를
▁승마
거늘
▁47
▁이유를
텔
쳤다
권을
▁좋아한다
▁초점을
TV
▁가격은
▁will
▁자랑
▁가족이
▁장관
DS
RE
▁식량
▁춤
▁스키니
▁일입니다
▁러
▁전시회
▁미국은
▁임대
▁구할
▁정보에
▁available
▁가벼운
심을
▁올라가
▁SP
▁부츠
:48
롱
▁분자
감을
▁제공한다
▁행정
▁천천히
▁휴대폰
han
▁깨
▁효과적으로
:41
▁기능은
우드
▁파일의
▁효율적인
▁데이
TO
▁조상
▁여왕
▁【
SP
▁금연
▁비판
▁At
▁표시됩니다
명은
▁끌
▁책상
▁테이프
▁생각했다
▁CEO
tra
▁묻
ung
▁자취방
▁해제
▁낚시
az
▁백성을
▁텅스텐
스크
았습니다
▁지금도
▁끝에
닌
▁궁금
Lust
▁확실한
▁린
죄
▁라이센스
▁자들은
▁MS
▁데이터가
▁스스로를
▁나누
▁항문
bit
▁DNA
▁논
:46
하셨다
▁탈출
▁비타민
▁연결된
:55
▁태블릿
상을
"(
▁되었을
▁얻어
었어요
▁후원
렸
죽
▁여자가
▁Per
버리
▁그녀에게
▁북쪽
▁공구
eg
▁화재
지기
▁임금
▁종합
▁Can
▁가능하게
▁나라를
이스라엘
▁무대
사업
▁집행
ST
▁유지하는
▁클릭하십시오
▁신고
▁점심
▁가톨릭
▁부속
▁07:00
해도
▁과정은
▁죽어
▁무거운
▁회색
▁남쪽
▁여러분을
▁아버지는
랜
▁08:0
▁stars
그는
▁외에도
▁살해
▁회사를
▁머리를
▁나타냅니다
▁멤버
▁여러분에게
▁Ad
▁그분이
▁궁전
리스트
▁자리에
탑
ue
▁시대에
▁이메일을
이여
성과
▁인생을
▁선을
▁호텔에
▁모두는
나라
▁침묵
Hamster
릭
▁게임의
Clips
▁검정
▁시편
▁가져다
▁CNC
▁Th
게임
정도
▁so
▁Office
▁Gu
▁의미한다
▁증언
▁주위에
▁정착
TA
과학
▁Is
▁선택을
mi
해질
▁양의
ator
▁드라이브를
▁차이가
▁남자가
▁실험실
▁영국의
▁필요하지
、
▁장착
▁받는다
AN
▁목적지
:08
▁원한다
ast
▁은퇴
ical
nm
▁시뮬레이션
▁패밀리
▁록
▁산책
▁Se
▁자유를
▁양심
▁기다리
▁사운드
▁센트럴
▁시도해
ek
▁대처
▁녹음
▁자리를
▁건전지
▁빨간머리
▁모텔
)'
Hz
▁최초
▁Su
데요
▁가족을
다니
AC
ica
▁2.5
vo
솔
답
▁온갖
▁시장에서
▁가족과
▁있었지만
▁독일편
▁선택하고
▁텍사스
▁산출
▁프린터
주고
▁커뮤니케이션
▁[1]
▁열정
기로
▁있었어요
완
▁시설은
따
기구
▁요약
▁자기의
▁경우가
▁환경에
▁프로세서
ran
ning
▁표본
▁Mi
▁CAS
▁존재한다
균
▁봉
res
▁다르게
▁di
▁자네
▁자들을
▁자신들의
▁She
▁어디에서
▁no
스가
▁신선한
▁돼지
▁죽음을
▁하녀
트리
▁알리
▁합성
▁어깨
▁파악
▁평
▁스러운
ath
▁젖은
▁기술이
▁포스트
▁선반
▁금액
▁신의
oz
▁피터
▁의해서
▁쉽지
▁하던
▁되도록
▁운전자
▁옮겨
▁젖
▁만나보세요
▁다릅니다
▁저주
▁맞아
아니
▁♪
▁했지만
접
▁나라의
ID
▁갈색
▁개체
▁종교적
▁비용이
▁측면
▁미만
▁조작
▁건강을
▁외에
700
▁일본어
▁핫
▁긴급
지금
틴
▁2001
▁IC
시켰다
▁홍
▁대단
▁인공
▁숙소는
▁테러
▁출생
▁피할
▁엿
▁그렇기
▁고향
큐
▁특징으로
▁사이버
▁기자
▁신세
ok
mon
▁단단한
▁투자자
▁쿠키를
▁초과
▁개인적으로
▁하셨
▁그랬
▁제게
▁안녕하세요
▁이곳에
▁인자
mer
▁가능성을
▁북부
▁중국어
▁부드러운
▁이래
▁간단
▁사정
생활
▁서비스와
에요
▁야생
ix
▁인증서
▁위반
▁National
▁만들었다
▁주소를
less
▁마무리
▁상당한
▁즐기
▁180
ya
▁자의
▁삶은
정부
▁자기가
▁소중한
▁믿어
▁50%
▁뛰어
SE
렸습니다
▁쉽고
▁엔지니어링
▁해주
▁구성된
▁로그
▁말이야
▁온다
▁두뇌
련
닥
▁어찌하여
▁지하철
▁유행
ySex
▁퇴
▁(3)
▁서서
▁환
▁Str
ᄀ
▁목적은
▁항공사
cal
▁피트
▁권한을
▁보여주
▁칸
gen
▁천연
▁출신
▁다들
하고있다
▁유틸리티
▁생활을
▁110
▁네트워크를
▁일어나고
▁제휴
▁플러스
▁노르웨이
▁손가락
▁시작하기
▁초래
▁동맹
▁쓰레기
▁떨
▁May
▁받습니다
▁온전
갑
▁요구에
럴
▁기부
제가
▁필요는
▁아래의
▁우울증
▁묵
▁과제
▁항공편
▁신속하게
▁그분을
▁취한
▁AI
주기
▁민주주의
▁서로를
▁즐겁게
▁하나요
▁확인하기
▁공사
▁친구를
▁났
갔다
▁헤드
▁2.0
치는
▁매주
너희
▁54
▁학위
▁지닌
▁가능하다
▁Lu
▁슬픔
▁있었을
▁Tube
영화
▁없애
▁팀이
▁지하
▁안녕
▁영향력
▁주말
▁스토리
▁도와주
▁분산
▁나타납니다
:54
▁곰
▁똑같이
▁감각
▁Pre
▁자격이
▁클립
▁삼성
▁반지
▁창문
▁사우스
art
RA
▁점수
▁개방
▁주셔서
▁56
하느님
▁날짜를
▁따로
▁마이크
▁유사한
▁삶이
▁ST
▁자문
▁선택하는
▁데이비드
▁단어를
▁원한다면
▁한계
▁강아지
▁참가자
▁좋아하지
▁GPS
sion
▁배운
▁옥
▁효율성
▁악화
▁도대체
▁고성능
▁대안
이었던
엄
▁내장
▁지출
▁복용
▁눈물
▁세상은
Flix
▁자금
섹스
▁^^
▁여성이
▁있거나
인들은
▁시작한
▁53
:09
▁스트리트
Shemale
▁임무
회의
▁노력하고
업자
▁시장에
▁밑
ave
▁할당
▁명예
ism
iv
den
▁엔터테인먼트
gu
▁매력
▁주파수
히브리
▁익스프레스
▁수수료
들어
꾼
▁아테네
▁아닐
▁낙
▁후보
▁세계적인
▁세상이
거에요
▁HP
▁연구는
▁타이어
시니
▁마일
▁그림을
좋은
▁마귀
▁잎
▁물리
▁독일어
▁먼지
▁On
qu
▁장갑
▁구원을
▁이용해
였고
▁뒷
▁En
▁귀하는
▁있나
▁좀더
▁납품
▁수동
▁노아
객
▁72
oo
▁구독
힌
▁광학
IA
거죠
▁먹지
▁지능
▁주님께서
▁봅시다
▁전역
▁Cor
▁프랑스어
▁숙박시설은
▁이사야
▁향후
▁평화를
ling
▁소요
▁배열
:53
▁정도의
▁길로
▁War
▁예정입니다
▁화가
▁그중
둘
lan
▁그대는
▁일하고
▁끔찍한
논
▁자본
▁세부사항
▁정렬
▁애완
▁해결할
▁기쁘게
▁캠퍼스
펜
▁긍정적인
▁오늘의
▁도시에서
▁유연한
▁이내
▁태평양
장은
act
▁Business
▁구경
▁밑에
2%
▁이해하는
▁대적
▁즐겨
▁계약을
그래
▁셋
▁연결되어
수가
▁Sp
▁하겠습니다
▁것들은
▁맞이
들로부터
▁시대의
▁이들의
▁기술의
(19
▁IN
▁마시
▁목사
▁언
line
그러나
탕
-30
▁자유로운
▁달러를
ake
name
cy
▁했는데
일부터
:03
▁자에게
▁보물
▁Data
▁Studio
▁고등학교
프리
▁전망을
▁사냥
-13
▁공간이
▁이해하고
창세
out
▁(6
CO
▁기분이
▁프리미엄
▁맞게
▁쉽습니다
▁년대
▁침
▁미칠
▁발송
더군요
">
▁East
▁적당한
▁동기화
▁(18
▁감정을
▁논리
률
▁순위
찰
▁많
▁co
MI
▁개요
ama
:51
▁추측
시면
▁그곳에서
▁스마트폰
드리
▁행한
▁뭐가
▁쥐
당신이
▁이라
일본
▁영혼을
학생
▁족속
분의
-18
▁Art
Th
좌
▁수송
▁기어
▁비키니
▁닥터
하나요
▁원피스
▁계좌
▁회장
▁목표로
▁주방
▁Ho
▁올려
바울
▁장비를
▁모니터
▁신이
▁평안
▁주시는
▁집합
▁시체
▁가짜
▁미술관
▁의미가
▁자들에게
od
▁생애
▁신규
▁패배
▁메이
▁태어나
ial
▁채용
베드로
▁용어
▁제약
▁대출
▁개인의
▁컨퍼런스
훈
▁계기
하니라
▁원본
▁데이터는
▁처음에는
▁역사적인
▁아티스트
▁초콜릿
▁안전하고
▁검증
▁이라크
▁소금
▁수영
▁컴퓨터를
▁소득
하였
▁번째로
▁알림
▁원치
▁지진
너는
ki
▁출연
만의
▁절감
빛
▁아래로
▁정복
▁프로그램이
▁바위
▁대학의
▁관점에서
▁채워
▁헬
LS
위를
▁들어갈
▁Ta
점을
▁욕실이
자리
으리라
▁로버트
▁사이트의
▁영감
▁배출
▁주변에
▁소파
▁거짓말을
시키
▁몰카
▁농
▁관계가
▁□
▁조립
▁면역
이것은
▁유료
--
▁다중
▁거품
7%
ec
▁가운데서
▁할까요
하라고
ray
▁본래
\
일까요
▁신뢰성
▁협상
▁차별
▁키를
▁지어
▁온천
▁일부를
▁닫
여자
▁원수
▁오줌
▁유한
▁이르기를
▁교회의
▁up
▁시리아
▁고난
▁모두의
▁선박
▁모아
▁Booking
▁메리
▁마법
▁증
▁man
▁기술적
▁빼
▁걸음
▁Hell
-01
▁컨텐츠
▁프랑스편
▁움직임
▁피해자
하길
퍼센트
▁권고
▁클릭합니다
▁진동
▁힐튼
▁서부
지게
▁점화
되었을
▁Ti
▁이상적인
▁이들을
ass
니까요
▁여호와께
▁SC
▁심한
-16
▁핑크
▁WEB
▁권세
▁일반적
▁(20
▁도움말
▁소식을
▁딜도
▁분들이
▁맞춰
▁조치
ated
▁복종
▁취할
▁비싼
▁난민
UN
ita
▁진정으로
럼
ny
ov
▁시스템에서
▁유의
▁친구와
앤
▁헌법
▁되었으며
이드
▁뜻이
▁more
Mo
▁황금
▁수녀
▁난교
▁성장을
▁꺼
가능
▁이르는
이사야
하셨
pcs
▁다르다
▁향하여
▁회사에
▁플러그인
▁특권
▁원합니다
:52
▁순환
▁연구원
eng
▁떠날
▁이르기까지
▁풀어
▁하늘에
▁조치를
▁강제
적이
하다는
old
▁내어
▁CA
▁벨트
▁리셉션
▁폐쇄
▁초점
성은
사진
MB
트라
하기위한
을까
▁언어로
겠다고
▁사랑에
롬
ase
▁목소리
▁부정적인
▁공항에
▁원리
▁테라스
▁끝내
▁이동하면
▁10%
▁Jo
▁이상을
▁슬롯
▁Group
▁미술
▁John
▁말하면
▁인생의
시대
▁주셨습니다
▁소음
▁차이를
▁1998
▁Open
▁속박
ris
▁×
▁연예인
했죠
ib
▁마감
▁바란다
▁해양
▁추진
▁에서도
▁사막
▁자들
▁전체를
if
▁학교에서
▁거역
가있는
▁복합
▁엄
▁How
▁서울특별시
핀
▁이른
▁게시물을
▁해군
▁무언가
▁보내기
▁연결을
▁아무리
▁상위
▁풍부
인들이
▁사실이
▁거두
▁본질
ore
▁끝난
▁대통령은
▁윌리엄
▁내지
멸
▁아니라는
gi
▁마이애미
▁단계에서
▁버리고
▁예수님을
we
▁마시는
▁환상
`
▁으
소서
▁남겨
▁상당
▁사람도
▁투숙객
▁셋째
젤
▁리더십
할까
▁걸어서
▁복수
▁고백
IT
▁가격으로
ten
▁지연
▁터미널
▁(15
▁Pi
▁지키는
▁결과에
▁처벌
▁정상적인
day
▁아니며
▁혀
▁달라고
ING
▁거지
▁백신
▁계절
▁콘서트
▁견
▁다수
▁겪고
▁됐다
▁0.3
▁보충
으므로
▁정당
이어야
▁목숨을
▁낭비
▁나타났다
▁수명
▁스트랩
LA
▁발표했다
째
되었
▁Cloud
▁수용량
▁비상
▁결함
▁돌아가기
ium
▁청구
▁곳입니다
▁증상
▁과거에
▁빚
▁급료
▁후기를
▁않았고
EX
▁세계적
▁없으면
▁Ca
▁될까요
▁조용한
▁일종의
▁이끌
▁발코니
▁al
▁대만
▁학대
▁케이
EL
▁뛰
▁스쿠터
▁웰빙
▁라이브러리
▁포함한다
▁본문
sp
▁어렵다
▁으로서
▁시설과
▁묻는
▁1980
▁그룹의
▁먹어
▁예수님의
▁58
▁기준으로
▁워드
▁Play
▁캠프
▁예술가
AP
하러
▁뜨
▁생각은
▁나사
▁썼다
직업적인
내는
▁빛이
▁기차역
몰
NET
▁이처럼
▁의로운
▁링
▁전쟁을
▁부다페스트
▁오류가
▁구절
▁동안에
▁뭐라고
▁체육
▁액션
ei
▁담당자
▁엄격한
row
▁크기의
▁어른
▁출구
▁버전의
▁대학에서
▁끼
기간
▁유엔
항공
▁out
▁un
▁호환
▁명세
▁오락
▁보내고
▁뭔가를
넬
▁이행
▁st
▁돕기
▁Day
▁95
▁긴장
▁Of
▁잃어버린
▁준비를
▁중독
▁압니다
▁체결
tin
▁약속을
▁즐기는
▁포럼
2018
▁학교에
▁오기
디모데
▁아냐
▁복제
▁지내
king
▁베풀
150
넷
겠는가
▁엘리
▁느낌을
-17
▁진실을
ding
ik
▁지급
▁플랜
▁광저우
▁마스크
빙
▁덴마크
▁학자
▁멸
▁정기적으로
▁액세서리
▁규모의
▁멀
▁j
▁North
▁교회는
▁부패
▁Power
▁있으
att
▁처음부터
오늘
8%
▁프로세스를
▁지위
▁최악의
▁헨리
ven
MO
▁Ver
▁상실
▁오렌지
▁Resort
컬
▁평방
▁사진은
▁물었다
▁성별
놓
었으며
▁증명서
▁확률
uck
뜨
▁디자인을
▁Love
앙
▁등에
▁생긴
▁정지
-14
DA
▁곱
▁리뷰를
▁대신에
▁was
▁과학적
▁테스트를
▁성당
▁안으로
해보세요
▁알아보
▁토큰
▁소리가
▁대해서도
▁Ri
▁플라자
▁인근
▁유두
▁우리나라
▁Min
▁1999
▁충고
▁노선
▁0.2
iz
▁캠
(1
▁간에
▁던져
▁했어
▁무릎
▁장소에
▁탐
않
▁뱀
▁말하길
BC
▁활
▁무한
자로
▁웹사이트를
받지
▁모르지만
▁웃음
▁중의
▁노스
▁장소에서
▁친구들
▁360
▁있었기
▁문명
▁정규
▁자료를
▁소프트
▁손상된
득
▁다시는
▁소수
▁Drive
▁요소를
pi
▁사울
▁되돌아
▁것이니
▁팀을
ev
900
▁최적의
▁Ex
사의
▁실린더
▁크리스
ds
▁세력
▁기다려
▁비밀번호
▁나아
▁놓고
▁어서
▁하였고
▁요리를
▁로스
▁피렌체
▁기존의
▁서비스가
PE
▁Life
▁사용자를
▁Ba
라인
▁중동
▁경향
▁장점
▁보호를
▁여자는
▁주님을
)”
▁프레
▁스캐너
▁후회
실의
에겐
▁염
▁로운
▁워터
▁EN
▁경향이
▁99
▁서비스의
ea
▁바지
멘
▁유도
To
▁Ka
어서
Ch
▁콩
SS
▁등등
중국
드립니다
로드
▁나누어
▁조화
cu
계시
▁스트리밍
▁끈
▁강요
▁팩스
▁지역을
▁부자
간의
▁평범한
▁요법
되도록
▁풍경
▁지하철역
▁Airwheel
▁PP
▁동쪽
▁레이스
▁요구를
▁지갑
▁설탕
▁Next
▁저희를
▁놓
SC
▁정직
▁상관
▁사명
▁장치에
휴
▁분할
▁느끼
▁확인해
▁적합합니다
▁라텍스
▁섬기는
시티
▁잠깐
▁짜
▁생기
▁압
▁MB
▁유통
▁파티션
▁크림
▁미워
▁그것들을
▁대단히
▁220
▁Hostel
검
▁View
▁나라에서
▁믿음이
십니까
운동
▁트윈
주지
▁갱신
▁영어로
▁이슬람
▁운동을
tro
▁교복
▁발사
▁유용
▁경배
▁마음의
▁>>
▁빅
▁JR
▁않아도
▁윌
▁야곱
▁얘기를
▁Bay
▁원자
텍
▁Super
▁수행하는
그룹
▁친한
▁느끼게
▁(11
▁탁월한
▁항문핥기
▁무서운
▁놈
▁버려
▁강하게
▁라이
▁아님
eat
▁거대
▁잇
▁장소입니다
▁이곳에서
▁사단
ens
▁전적으로
함으로
wa
▁3000
▁건강에
▁여친
▁영국편
마리
시킨다
▁책임이
▁신비
▁블록체인
▁역사가
까지는
▁분야에
▁봤
로스
▁문화적
▁방출
▁역사적
▁천장
찌
▁잠금
▁필자
▁소송
▁깨어
▁무엇인가요
▁선생
▁God
▁아르헨티나
국제
▁걷는
해주세요
스와
▁Ko
▁SS
▁모유
▁있느냐
방법
▁대사
▁설비
ever
▁거래를
OR
펠
▁때에는
▁있을지
▁하더라도
▁CE
▁바꾸
▁따르
▁기록을
▁서쪽
www
▁시킬
▁줄을
▁주여
겠어
▁깊은목구멍
▁시나리오
틸
▁그림자
▁만난
RS
뉴스
토리
▁코트
▁박해
▁법정
▁계층
▁계급
▁PE
▁화요일
▁파일에
▁면접
▁지정된
▁구하는
▁스퀘어
▁나타나는
비트
야만
bl
ale
▁해킹
ier
▁아이템
었을
▁케이크
식을
▁고전적인
▁수준을
▁말도
▁1,000
▁두께
▁남아프리카
응
혜
▁그대의
▁즐기실
▁두려워하지
온라인
▁열고
▁일들을
▁챔피언
▁아이들에게
▁할까
측
app
▁군인
▁판지
▁책이
일까지
▁수직
▁하심
▁전설
▁흘러
ual
▁권리가
▁저장할
gar
▁유대
▁마음은
겠어요
▁조회수
▁다루는
카드
▁않습니까
▁작품을
▁인상
▁부산
▁PCB
▁자랑합니다
▁모세가
▁살펴
▁세면
▁백성에게
▁질서
포트
▁맛있는
▁휴식을
3%
▁물어보
▁전략적
▁구성원
▁폭탄
▁선호
최
▁time
▁답을
▁프로젝트에
▁기다리는
▁언덕
▁부분에
「
▁빼앗
콜
▁마음으로
▁오늘날의
side
▁죄인
▁중재
▁커넥터
人
▁붕괴
6%
▁대지
딘
▁증오
▁누구든지
▁그분께서
것은
Pro
▁클래식
ren
NA
데이
▁남녀
▁도시를
▁윤
</
▁전략을
▁pre
제를
MM
윈
▁분열
▁깨끗한
▁뚱보
▁클릭하여
▁개가
냈다
▁Fe
이므로
ted
▁PST
▁환율
▁궤도
시에
▁안티
님이
ada
2017
척
개가
tan
AD
▁겁
▁초음파
▁전자부품
▁상하이
▁항목을
▁질문이
▁새벽
▁전면
▁흑
▁PS
▁이젠
▁발생합니다
▁알고리즘
▁예수님
▁57
ess
▁계십니다
▁대통령이
▁크기를
▁앉
▁범위를
▁다수의
▁이용하는
할까요
멜
▁젊은이
▁가시
▁개를
▁틀
▁미국과
▁85
▁라이선스
▁앤드
ez
▁생명의
▁억제
브라
▁포도주
▁구매자
▁전도
▁미국에
▁Mon
▁판결
LE
▁물건을
▁나갈
▁처음에
▁빌어
▁Sha
▁Port
▁점이
▁자체가
▁Hu
해지고
▁위대
하되
▁의류
맥
▁상품명
▁느낌이
▁윤간
▁언젠가
나가
▁속도로
▁좋게
▁하세요
▁마이
▁시간의
▁광고를
▁비전
▁페이지에
▁조항
개국
▁유전
▁솔직히
▁AS
▁Ltd
▁아니라고
그러
▁게스트하우스
▁공개동영상
▁당연
▁Ga
트는
▁최소화
▁공주
▁플로
이어
▁컨테이너
▁벨기에
▁후에는
und
▁양식을
▁하였
라이
▁브라
▁덕
▁하더라
▁기업이
활동
by
▁유럽의
▁서비스로
▁눌러
▁IBM
▁도촬
ET
▁다가
ene
▁유효
▁목록에
▁허브
▁1970
▁흙
▁발생한
▁기숙사
▁쌍둥이
▁예쁜
관계
▁공의
▁CS
년의
TP
인데요
▁들어오
▁이루어
▁흰
테르
▁우상
▁언약
▁순수한
▁이용가능
▁start
▁새엄마
▁내의
▁들려
▁Or
▁분은
▁중대한
▁동시
▁그러면서
▁웹사이트에
▁조건을
▁파타야
대를
▁뿐입니다
▁미소
▁Qu
▁UV
▁외관
▁선물을
함과
뉴
▁선한
▁몰라
▁즐겨찾기
둥
An
▁구동
▁죽었다
▁마주
▁샘
▁고문
▁황제
▁죽는
화를
▁땅의
▁매춘부
▁좋음
log
에서만
▁(13
▁찾지
▁측면에서
▁듣기
▁카운티
▁움직
▁된다고
my
개발
▁찾아보세요
▁이동할
거라
▁홀로
▁아닌가
▁입구
▁붙여
▁아저씨
▁농담
▁않았지만
하사
▁위험에
▁Gra
▁페이스
▁경우에도
▁소망
▁교류
▁냉난방
▁주입
▁입학
맞
▁Fi
▁나이트
▁출판물
▁◆
▁요구하는
닉
폭
▁코인
amp
▁제품이
yo
▁돌아올
▁파일은
nt
▁인터
▁조언을
▁경기장
▁괜찮아
▁영화는
▁몸에
▁불편
▁부른다
▁효율
▁얻
▁포커
▁돌아갈
▁요새
▁그거
▁점령
▁스카이
▁침해
▁래
해서는
▁공식적으로
▁성형
▁자기를
은행
▁1960
성의
▁자유분방
▁가져오
▁최초로
▁놀라
▁마술
인간
Name
▁700
▁말하기
▁번호를
▁기술과
자들
▁글자
▁영토
▁매달
▁(12
▁가자
ld
▁한때
▁신체적
fo
▁Si
4%
▁구입할
▁Free
▁What
▁습도
▁브루
왔습니다
▁다소
▁운반
▁내면
▁술을
주의자
▁타락
연구
▁타운
▁설득
▁임상
▁페인트
▁일주일
▁(4)
▁여자를
▁열심
～
▁웨스턴
▁사용한다
▁익
▁규칙을
▁룸을
▁Sc
▁도구는
’(
▁얼
▁Ja
▁York
▁교리
lic
▁비서
▁질문은
▁코치
▁무척
▁전화번호
▁관리를
자료
▁주석
ura
ign
지가
▁그대가
▁통치자
▁목격
▁지구의
▁30%
cl
▁주간
국가
▁없었
▁개입
▁다양성
▁위험이
▁당국
▁350
▁모델은
▁무엇이든
mg
겠습니까
〉
▁재배
▁평등
▁말에
▁UN
▁원인이
▁효율적으로
시설
▁충만
ory
▁있기를
▁문장
스카
▁아이는
▁않다는
ost
▁맞서
▁Green
▁썼
했다는
▁데려
하심
▁다를
협회
ition
▁20%
▁없었던
▁팝
▁59
eo
▁가격에
이제
여행
▁동부
효
▁서류
▁현명
분이
▁Work
▁예정이다
▁맞춤
윤
▁적게
▁항해
▁저희의
▁Comp
▁그리하면
▁주사
▁재고
▁Centre
▁바르
▁아론
▁안됩니다
ep
▁유지할
▁볼륨
EA
▁나한테
▁방에
▁강연
tu
▁Suites
low
버그
▁곁에
▁들킨
▁빅토리아
▁균형을
▁호스
롭게
리지
Cafe
사이트
▁돕고
▁끝날
▁아카데미
파일
▁렌터카
력이
▁Un
▁who
▁am
서를
▁Square
▁디바이스
▁데스크톱
▁목요일
▁환난
▁3)
▁실수를
▁안된다
▁발견했습니다
RP
끼
▁붙이
▁니가
▁모르고
▁사이트는
▁School
▁오고
▁장벽
(2
필드
웠
▁섹시한
▁여기는
▁정자
▁소중
▁Ac
▁에피소드
▁유부녀
▁확산
▁순간에
▁귀를
▁게임에
▁달에
▁것이니라
▁날개
킬로미터
▁바라는
▁재무
이있는
었죠
▁작전
▁중요성
▁펠
▁시기에
학자
▁싸우
▁늙은
▁나왔
▁메시지가
성에
▁교정
▁효과적
▁이스탄불
▁늑대
des
▁몫
▁덮개
are
▁죽었
▁보냈
▁단계는
▁최선의
▁품질의
▁신성한
▁코끼리
하지는
▁있으리라
▁그러고
▁한가지
▁연결관
었어
▁Ni
IL
▁1.2
받
▁푸른
▁06:00
지라도
▁라벨
▁엄마가
▁때문이죠
폴
▁믿음으로
▁내릴
▁ch
▁사회의
▁조건에
ker
옵니다
▁들어가는
▁일생
▁만남
▁3.5
▁남자는
av
▁하늘의
▁아니하며
▁양쪽
▁신성
용으로
▁XP
▁화려한
▁욕
br
픽
묘
▁이전의
▁요청을
▁Pe
▁예전
▁협업
▁아들은
▁5000
▁잊어
▁자신과
▁유발
▁같지
▁잔디
캐
▁진술
▁«
▁힘들
▁너도
스턴
▁의원
▁목소리를
cc
▁않았을
▁통증
▁리소스
▁한정
▁퍼즐
PP
▁보호정책
▁상태에서
스테
짜리
ano
▁꼬
▁저와
개를
▁돌리
▁어플리케이션
▁흑인큰자지
HD
▁드리는
ind
▁잠을
DC
▁족
▁십자가
셔야
▁dis
▁우정
▁다르
▁조약
자들의
▁공격을
PI
랴
yl
▁크롬
▁몽
▁코일
▁신호를
롭
갔
▁쓰지
▁관심사
네가
▁상트페테르부르크
▁옹호
▁Island
▁시키
▁당한
▁순수
▁세월
▁물체
▁만이
밤
셋
▁오토바이
▁착
▁다이빙
금을
▁물리학
▁해당되는
▁였다
▁클라
▁Big
▁찾
천만
▁씻
▁여기를
▁감정적
시킨
▁Black
▁〈
(3
let
럽
들에서
▁몸이
sk
▁설치된
▁수여
핵
▁테니스
첩
▁처녀
▁광택
▁품질을
▁창고
▁톰
▁Tags
▁보호하기
-21
▁160
so
▁중국은
▁Sch
타이
▁컨벤션
air
▁원료
▁국가에
문제
▁선택입니다
특
▁이야기는
▁로즈
▁love
▁코멘트
▁스테이션
▁올리
하기에
fi
▁이루는
▁Bedroom
▁By
▁오페라
▁다운타운
여러분
▁우리도
▁탑승
▁역량
mb
▁인생에서
▁브리
▁공용
▁피를
▁내용이
과정
간다
▁죽일
▁이주
▁명확
CH
▁전문적인
▁클
어떤
▁마드리드
▁어댑터
▁잃을
▁Central
▁저장된
▁앉아서
▁계단
▁여부를
▁번의
또
▁연대
▁왕자
▁가족의
▁노트
넌
▁카탈로그
▁Alpha
▁무렵
▁책임자
▁관습
▁벌을
▁유지하고
물질
▁사랑과
디아
프로
2019
▁성읍
▁알레르기
▁템플릿
▁인터넷을
▁혹
▁브라운
che
▁바뀌
▁전공
▁후손
▁비용은
▁}
▁설계되었습니다
-0
▁연관
경제
▁명확한
리가
▁비롯한
▁환자의
▁가리
▁이야기가
▁들었습니다
SD
▁라이프
ini
▁헌
머리
처리
▁시험을
KW
▁인터내셔널
PO
▁go
▁님이
▁기둥
▁액세스할
하였으니
▁깜짝
시키지
▁발음
농
▁1.6
▁대우
사이
▁1996
▁움직이는
▁시작하고
▁일으키
▁비교적
▁발휘
▁머물고
ari
▁입자
▁살기
▁켜
▁누릴
당신의
▁골든
▁제품과
▁SA
▁넷
▁보려면
▁기호
▁스미스
▁다음날
▁King
눈
▁게임에서
▁않는다고
▁이같이
0%
▁시애틀
▁터널
▁여자친구
▁표시합니다
▁열리는
▁이용자
▁된다면
▁직무
▁살아있는
▁보냈다
▁물질적
▁어려움을
FA
▁확인하고
▁닭
▁Sea
▁더러운
▁여러가지
▁친절한
▁하십니다
rs
▁제외하고
ger
▁방위
▁저장소
하우스
▁환상적인
▁일부가
▁보내어
▁진심으로
▁있으나
▁피아노
De
▁합당
▁그렇
uk
▁맛보
CS
▁사원
▁프로젝트는
▁즐거워
▁일으키는
▁수락
하신다
오는
였어요
▁거쳐
▁사랑하고
▁욕구
하였더라
데스
지원
섭
▁활동에
▁굽
▁주거
▁자세히보기
▁같았다
▁Airport
▁계획이
▁사용에
▁찬성
▁궁
▁관리하는
▁교차
리어
중인
하시며
타임
▁Adobe
▁LA
▁악성
▁탐구
▁문제점
수도
LC
▁HTML
▁Win
▁성과를
▁스크립트
▁1995
▁소속
▁오리
▁의미하는
▁마법사
▁백보지
▁입술
많은
▁미니바
▁대여
ons
▁포르노를
▁인텔
▁점에서
갑니다
▁국제공항
▁개념을
ans
▁기계는
▁잉글랜드
2016
▁보아
▁정밀도
▁불신
▁분명한
단다
▁에게서
▁정신적
▁등과
당한
▁작업이
▁깨닫게
▁귀하
▁치즈
▁퀸
▁접수
▁불가
▁매니저
▁아시아인
되게
▁찰스
OL
▁백과사전
▁문화를
▁사라
▁묶여
▁수행할
▁경건
▁가지는
▁압축기
▁기지
▁피어싱
▁키보드
▁like
▁출산
▁1997
▁어머니는
▁참된
▁정격
▁밭
▁설명합니다
▁NO
▁유일
▁누리
ern
▁친구들과
받고
▁보상을
▁주님은
pl
▁경기를
▁얻지
치를
▁베르
▁기준을
▁사촌
▁생겼
ert
▁use
▁열려
▁수요일
<
▁아니하리라
/8
las
▁듣
▁(7
▁작년
▁걸리
땅
▁첨단
bi
느뇨
▁잃어
▁Global
▁알라
▁치료법
가족
▁Korea
▁Express
▁당뇨병
▁교회에
▁GB
▁키트
▁(17
▁Blue
▁분배
▁여호와를
▁느끼고
CE
법을
aw
웨어
▁IS
▁하소서
▁후반
.[1]
하여야
▁흔들
혔
▁방문하는
▁프로젝트의
▁상을
▁밀어
ser
▁나옵니다
▁노드
▁듀
▁죽지
ct
▁손이
베르
ful
▁하늘에서
▁느
량을
▁Club
▁관측
▁변화는
▁app
sc
▁66
▁소문
▁인류의
▁하위
▁기원전
▁용도
됐
▁요건
▁계정에
▁사역
BA
▁시작한다
▁희망을
▁부하
▁쳐
▁경우는
▁일으킬
!!!
▁줄일
▁충
▁맞춤형
▁독일의
▁시설입니다
▁이고
▁발급
▁여행자
ef
▁Hi
▁게임이
▁면에서
▁사태
▁흘리
▁ASTM
▁야구
▁발매
PDF
세의
fa
▁권능
▁해상도
▁불행
렴
▁해수욕장
▁System
▁질량
▁드라마
ney
에선
▁지파
▁사제
▁상관없이
▁뉴욕의
▁Trans
▁그려
form
▁Grand
켈
You
▁3.0
▁만들었
▁이해하지
▁얻었
▁광산
▁나이가
▁속으로
Co
하는지
자기
▁컴퓨터에서
▁판매용
▁플로리다
▁불꽃
▁시인
▁공통
▁1991
▁이번에는
of
▁것이었습니다
▁아나
▁안전을
▁예수를
▁종일
▁은총
▁메리어트
▁무서워
▁벡터
납
▁반응을
▁불륜
힘
아버지
▁그룹은
▁가라
-25
▁en
▁안정성
▁수면
▁영역을
▁이용한
엽
▁라스베이거스
▁비트코인
▁줄어들
▁감옥
스코
▁전쟁이
base
▁북미
▁그래야
ze
보니
▁Ke
▁그것들은
일을
▁성도착
놀
▁잉크
▁Word
신다
▁숙박을
▁매출
▁압박
▁산업용
이하
ctor
▁러시아어
▁양말
▁발리
▁사무엘
▁운행
▁디렉토리
▁고속도로
▁감사드립니다
▁앙
꽃
▁잠자는
hu
OP
ye
▁우아한
▁언니
줘
▁무엇보다
스런
▁예제
하느냐
▁휠
이거나
▁정액먹기
▁파키스탄
▁부작용
▁정확도
▁주장했다
▁지극
▁웨이
120
▁자녀가
/2
▁티타늄
▁말아야
▁바꿔
▁사랑한다
준다
▁파란
두고
▁떡
▁(16
별로
▁피로
▁Time
▁설명서
▁동네
▁합시다
탁
▁서양
선을
드라
▁포함하고
▁건가요
▁일본인
▁복지
▁조성
▁타일
sen
▁픽셀
ck
▁플랫폼을
▁박사는
▁교회를
▁관여
▁성경은
0.0
▁밖에서
250
▁청바지
▁어리석은
▁아파트먼트
▁오빠
bar
▁됩니까
▁롯
겠
og
▁사형
▁Star
▁명시
▁예금
▁루트
납니다
▁Tri
▁이리
▁겨우
▁스프링
▁세련된
▁활성
▁끝까지
bra
1%
▁유럽에서
▁구체적인
엄마
▁보장합니다
▁유래
▁날을
▁크리
▁업데이트를
예를
▁68
▁장소는
쳤습니다
▁해줍니다
▁국제적인
▁Live
▁SE
▁카르
sy
▁도중
▁다니
틱
▁하나이다
▁잊
▁이사회
렘
▁섞
세상
▁변환기
▁멈추
▁취미
분야
▁끝이
▁신자
▁살았
2.5
▁수줍
코드
▁확인합니다
▁폭풍
bu
▁고치
TI
▁있읍니까
▁형식으로
ala
▁유닛
▁흠
▁£
9%
ving
▁싼
나의
RO
▁마켓
......
▁“‘
▁성원
▁이들에게
▁Sun
▁(8
ration
▁Gi
▁털
▁징계
▁나라가
▁굳게
ys
리오
▁대단한
TH
▁올해의
▁탓
▁(14
세가
▁즐기고
ire
▁몹시
▁바쁜
▁연결할
께서는
▁똑똑한
▁62
▁산다
▁레코드
▁읽
▁허리
▁계획은
▁이길
▁작업에
▁플
▁몰랐
▁아니오
▁오해
▁하고자
▁친구들이
▁목록으로
▁싶으십니까
▁RE
▁셔츠
▁부과
▁도금
▁썼습니다
▁웃긴
▁특성을
▁타이즈
▁중국에
▁학생들에게
▁너가
▁죄악
▁Any
▁위치하여
▁도덕
▁며
▁설명을
▁주머니
▁객실이
▁주인이
▁부유
▁sex
▁기획
▁운영하는
▁접근할
▁원하시는
제도
▁제주
▁매개
▁분들은
▁보호하는
?'
▁아니한
▁했죠
▁아내가
학과
▁변화에
▁안테나
▁1.0
▁소니
▁아가씨
▁짓을
▁것이기
▁바깥
▁제정
▁불만
▁기술에
▁마실
▁타인
하이
▁받아들이
보라
▁전에는
▁Har
▁알았다
▁130
니스
▁객체
▁그레이
▁완화
ins
해야만
▁플라
MC
▁MA
자들에게
▁아이의
▁THE
▁싶었다
LO
ative
▁MT
▁임신부
▁Fa
▁화상
▁1950
▁주스
▁였습니다
▁인테리어
field
▁일할
▁그래프
▁사항에
▁과거의
van
▁묶
▁옷장
▁편지를
▁느껴
에너지
▁목자
▁행복을
▁거실
▁관광객
▁Ne
▁정밀
▁레지던스
▁낯선
▁라운지
맹
▁화폐
컨
▁은하
▁발견했다
정책
보호
▁이해하기
▁살게
▁1994
▁140
▁궁금해
▁담배를
▁쌀
▁지표
▁더이상
▁아마존
▁찾아내
▁작동하지
DP
▁주인공
▁객실에서
▁1992
▁Ph
▁살펴보
▁캡슐
렐
▁스토어
▁윤리
-02
바이
세를
▁세라믹
▁방사선
거지
▁빠
▁여기에는
yn
▁but
▁감상
▁Chi
다음
▁Casa
▁AM
▁거듭
▁메이커
▁해결하기
▁조종
DI
▁아시
▁있는지를
봤
팩
▁교토
▁구출
▁막을
▁재앙
▁인민
▁중요하지
▁역사상
▁답변을
▁잃은
▁컴퓨팅
▁들여
▁상태에
▁TS
ric
▁거친
▁Market
▁Real
▁자녀들
▁투자를
▁PM
▁주관
▁높다
0000
둔
▁입력하고
자신
▁분들
▁Service
장의
▁느낀다
▁정류장
▁였
▁동전
▁상단
▁High
▁상업적
함은
▁표적
▁동영상을
이었어요
▁경악
▁브레
ound
야합니다
마일
▁추종자
▁프랑스의
▁포드
▁법안
▁쏘
▁민간
▁인원
▁몬
▁발전기
▁이점
▁고용주
▁장래
▁자아
네스
▁액
nes
▁필요성
▁활용할
fer
▁사람으로
보는
케이
▁엄마는
▁토지
▁확인하는
▁토마스
▁덧붙였다
▁충분하지
▁본부
▁바탕
▁하시기
▁베드
▁있었으며
▁시점에서
▁구조를
TC
▁정액
▁가족은
기능
▁보여줄
")
보험
py
▁PA
▁돼요
▁마땅
▁iPad
▁꿀
▁Tra
▁추가로
리기
▁mo
5,000
▁집이
▁아프
▁받으
IM
▁일자리
▁del
▁이르렀
lt
▁Firefox
▁스코틀랜드
▁기업은
▁첨부
▁전까지
▁드러내
▁결과로
▁나왔다
tion
.*
▁비가
ns
▁정권
▁관계에
light
환경
▁작동합니다
▁나눠
▁암스테르담
ste
▁일들이
▁이삭
▁타이트
▁comp
▁사용된
▁합리적인
ED
▁조선
▁검사를
▁Design
▁거다
▁손님들을
▁위안
▁나타날
▁소규모
▁수영복
▁창녀
▁With
▁사람들에
냈
촌
▁흐
▁외에는
잘
▁나중
▁욕실을
학적
▁취업
▁about
▁대답을
▁추세
▁악기
▁체류
▁최저가
▁불을
어진
▁약한
코스
협
ng
아시아
▁Lake
▁아니하
▁정화
▁위키백과
해보
▁재활용
셔서
▁수확
▁던
▁나온다
▁예수님이
▁lo
▁데이터에
시마
▁주를
▁행운
▁간단히
▁제공하지
AI
rea
NS
▁거치
▁들을
비를
▁EC
▁86
▁방을
▁화장품
봐야
▁생길
▁와이어
ming
잠
▁고마워
men
▁메모
▁레위
▁악을
▁생각했습니다
했으나
▁설정합니다
▁CPU
▁1989
▁음반
▁될까
▁아우
▁전류
세포
▁예수님께서
-23
▁제작자
속에
RC
▁추억
다운로드
▁캐시
▁바이오
▁실행할
지어다
▁캡처
▁박람회
식이
lf
▁계명
▁사람들도
▁하였을
wood
▁무장
2015
▁AD
하였으나
▁제외한
▁안식일
▁행위를
era
▁보면서
▁파란색
▁조직의
Pa
▁보스턴
그들은
▁형식을
▁맞지
▁장군
부분
퇴
▁알려주
▁그래요
스토
▁성품
▁괴
▁너희와
보드
메이
▁69
▁Hostelworld
▁마시고
일이
▁세륨
IF
▁시련
▁늦게
NO
▁소화
▁공항까지
▁상속
▁자석
▁중심으로
▁분석을
▁SCP
▁리모델링이
보자
▁63
▁잃게
▁곤충
pp
▁중력
그것은
▁릴리스
▁Up
▁패드
▁98
▁위생
▁직원이
▁공유할
▁빙
▁승리를
▁미국이
놈
▁가장자리
▁has
▁Cha
▁모습이
뢰
▁소유하고
▁실버
▁점차
▁Best
▁생각에
1.5
▁단독
▁이해를
▁운이
▁꺼내
▁이스트
▁종양
▁과정에
Con
ls
스를
▁귀신
▁기쁨을
▁성숙
▁As
▁의사가
▁이방인
▁이르러
▁학위를
롭고
▁머리카락
▁손해
▁한국의
▁그것도
▁자연적인
vis
▁자르
▁동의합니다
▁낸
▁둥근
▁name
/15
▁동굴
▁아버지와
▁좌
▁화물
▁맡기
▁있었죠
▁도움이됩니다
▁Station
▁일련의
▁데이터의
▁하신다
▁포로
▁복음을
▁Cl
▁밝히
▁AP
달라고
▁유아
▁안정적인
BO
▁Pan
pro
였으며
▁갈라
tel
▁ES
oh
▁많아
▁문자열
▁로얄
▁랜
유대
▁설정할
▁부를
For
없
▁개정
▁회의실
▁여성은
▁지점에
▁제안을
▁핸드
▁브레이크
닐
rit
▁작업은
▁가을
▁못하리라
▁스타일을
꺼
▁Spa
▁재난
▁조차
▁생산성
-22
켓
▁관해서
-24
ating
▁불어
▁드라이브에서
▁지난해
▁딸딸이
플레이
TT
▁길은
kw
▁해당하는
이신
▁빛나는
▁지향
▁오버
웰
팬
▁다니는
▁#1
▁절차를
▁분의
수는
게요
스럽게
▁콘돔
마이
▁찬송
▁레이크
▁문제의
▁궤
러스
그것
▁Old
▁장치에서
▁당사자
▁발을
▁빌려
▁팀의
▁하느님께서
▁최저
FT
▁Del
▁HOME
▁한남자
프트
▁통지
▁값이
▁도우
▁만들지
mar
▁안심
ich
▁해결책을
▁호소
장에
▁멜버른
▁협정
▁식민지
▁근처의
▁디젤
씨는
ics
▁대조
오르
님께서
▁참여할
▁싫
▁Place
ON
▁피해를
▁연령
꼬
FC
▁낮추
▁인증을
▁이외의
▁만약에
▁말씀은
▁석사
이로다
▁이번에
▁톱
ral
각주
▁옵션이
▁바와
▁자연의
행위
▁알아요
▁워치
2000
▁유기
킬
▁예레미야
▁증거를
▁리스본
▁사탄의
널
▁저서
▁찍
▁제곱
use
▁경보
트로
문의
▁dur
▁365
▁하시니라
상품
▁늦
▁휴일
▁동반
▁놓은
▁페이지에서
▁신화
▁장난
▁시작된
▁[2]
▁사용되고
▁감자
트를
▁악인
▁빨
▁이루어져
.+
▁영역에
▁일어나지
▁여전
▁스티커
▁결과적으로
▁양육
▁납
▁상대방
▁개발을
▁었
▁빛의
▁회계
▁탐지
▁요원
▁지니고
▁결정할
▁State
▁냉
▁총리
▁스테인레스
▁치마속
▁합류
▁머물러
이상
▁보실
▁젤
▁중에는
▁심리학
▁수립
냐고
af
▁SSD
가고
예루살렘
단체
▁데모
▁기록된
▁반사
▁조용히
▁지킬
Ro
▁보냈습니다
▁여유
▁가져야
▁지수
mit
▁했다고
▁공감
▁살리
▁네트워킹
군은
비치
▁1200
▁공지
ple
▁존스
▁자위
▁않으
▁us
▁이날
▁달력
▁영국에서
▁빠진
▁판사
링크
▁웹사이트에서
▁오프
▁재미있
머스
late
▁나타낼
▁만났
▁보여준다
1000
▁종족
▁춤을
▁가열
▁딸이
▁아래에서
었는지
▁0.6
▁여성들이
▁수익을
▁분해
맛
▁연구가
▁인간을
▁기다릴
▁두여자와
▁거리를
▁지나치게
▁그동안
▁조금씩
해지는
160
ization
▁펴
▁시점
▁조지아
▁Reg
▁주님이
ings
▁성경을
ail
▁생명체
No
▁성실
대회
▁개장
▁어려울
▁웨딩
▁RFID
▁본사
ella
▁궁극적으로
▁눈으로
▁sp
▁보이고
여성
▁걸려
▁걸까요
▁컨설팅
활
▁막대기
▁강사
▁Garden
성경
ize
▁클로
확
▁일자리를
▁방문할
▁구속
위에
▁Par
▁닦
▁부드럽게
▁시작됩니다
▁SQL
▁기금
봐요
▁1.1
▁90%
▁단추
/10
져서
꾸
rin
밥
및
끈
▁바른
▁배워
상태
001
▁면적
wi
▁헤이
▁인구의
▁존슨
ware
▁900
▁음식점
▁Sal
▁마틴
▁다윗이
▁개별적으로
잉
▁맵
▁베이스
▁줘
▁겪는
▁자동차로
갔습니다
count
▁농부
▁걸까
▁지도에서
▁다루
▁설명했다
▁있지요
▁햇빛
▁프로파일
로서의
▁똑똑
▁하늘을
▁\
▁죽음의
▁그대에게
▁농구
리를
▁라운드
▁겸
▁무엇일까
CM
▁스티븐
▁하라고
▁있습
버릴
▁Vip
시스
▁모음
-00
▁시골
▁만물
ira
보이
ther
▁상태가
▁말레이시아
▁원주민
와서
▁빈곤
▁빨간색
▁아픈
▁아파트에
▁하니라
▁문학
220
▁음경
▁Bu
▁new
ction
▁등으로
도시
현재
▁포도
▁안돼
▁현장에서
▁나라에
well
▁물품
▁군중
살이
▁자선
헌
▁갖지
ava
▁좋았
▁절연
▁갑니다
것입니다
ute
▁설치할
▁직접적인
▁알파
비스
▁지나가
▁잡을
ock
▁함유
▁되나요
▁피자
▁기름부음
▁가용성
▁주에
▁아내를
▁모세에게
▁Her
▁나눌
▁예약을
ola
▁추가할
gg
▁고등
▁1993
▁짓는
▁정면
▁찾았
▁있어야합니다
▁교실
▁예수는
▁확고
▁다리미
▁이슈
int
ries
ME
▁진출
▁해주는
▁명백
▁장애인
▁같은데
PM
ship
▁배를
는데요
SM
ace
▁무리가
▁지구에
▁외과
▁Act
▁필요에
▁버그
넣
셜
▁고립
▁College
▁what
▁말씀하셨다
▁Xbox
▁보시고
▁버릴
▁팜
UR
▁맹
▁않았던
ally
졌고
▁랩
▁80%
▁상의
▁해줄
ey
전도
▁뿔
▁화성
▁고장
옵
▁Technology
▁호기심
▁피트니스
▁스피커
자들을
▁000
sch
세대
▁전부터
▁페어
▁욥
▁발전을
▁사용하실
▁자손이
▁업무를
▁재능
IR
▁여덟
▁잠재적
▁어렵습니다
▁China
▁위탁
▁고리
▁않았어요
EE
▁둘이
can
▁붙잡
lon
▁61
▁길에
었으니
ank
▁디즈니
▁맨체스터
▁복귀
버린
▁추가적인
▁선전
▁모범
▁인력
▁높습니다
▁84
5-
▁않다고
▁친히
▁배웠
▁여겨
▁Health
▁편안
▁몸은
▁사이클
▁커컬드
▁전했다
프랑스
▁불가리아
ero
▁상처를
▁그들에
조차도
▁흐르는
▁정비
소개
▁아이들과
ata
KB
룩
앞
▁자들의
▁수건
▁토끼
▁비롯
▁되찾
▁행실
▁책의
▁각기
▁계획에
NC
▁방법과
▁환자가
▁액세스를
차원
▁죽여
벳
▁받아들일
▁있겠습니까
▁슬퍼
tes
▁0.4
▁Che
▁신사
▁훈련을
인치
ade
▁가지를
▁지성
▁중입니다
▁혈
MHz
▁내려가
▁메시
▁어머니가
들이다
▁부스
▁1500
▁Cap
▁콜롬비아
▁틀림
▁투명
▁질투
▁사용된다
▁times
하나님의
▁야간
▁전립선
▁드리고
cent
▁합리적
계획
▁사무
▁하셨읍니다
하늘
▁스페인편
▁세척
▁삶에서
▁없이는
▁실체
▁여정
전자
▁놓치지
▁450
ane
▁컴
▁날아
▁이것에
3-
brand
▁도시에
▁나가는
▁작은자지
▁크루즈
▁행복하게
▁편견
▁보고서를
▁말하자면
▁철강
끔
▁있었는지
▁결정하는
▁것입니까
년대에
▁자본주의
cho
▁누군가를
-07
▁MO
val
▁Val
르는
페이지
▁갖
▁잃고
Al
▁자연스럽게
▁제조자
▁사건을
음악
▁편안하게
▁보스
star
치고
ML
▁때부터
▁아니었습니다
ring
▁지식이
▁크로스
▁설계된
▁Dropbox
▁방정식
▁see
sky
겠다는
!’
▁저널
▁토론토
▁놓여
보면
▁사회주의
▁효
main
▁방향을
간에
▁연결하는
▁아내와
▁성도
원이
thing
▁학사
▁고르
▁지역은
▁대학원
굴
▁리드
▁부식
mark
▁강간
du
―
▁폴더를
물이
▁생선
▁입으로
nc
ria
▁플레이스
▁자신에
▁바꾸는
▁콘테스트
▁놀랄
타운
▁모르겠다
▁추방
▁Gr
box
▁American
▁기사를
car
▁대다수
▁생명이
110
▁싸우는
▁일본에서
▁독서
▁볼트
▁것만
▁씩
▁상황은
▁1.8
▁근접
▁대답하여
▁전반적인
▁말씀에
하에
선택
▁멜
▁샷
▁당할
▁당신도
▁무슬림
▁예시
▁상세한
▁파도
해진
▁육군
▁달하는
▁SK
▁떠난
▁많지
▁tr
▁프런트
▁픽업
▁펼쳐
▁검출
▁게재
▁복을
되었지만
▁재질
▁때문이
▁마태
▁땅이
▁쉴
▁부족한
▁섬기
len
▁주님께
▁Hat
▁만나는
삭
▁석탄
여기
▁때도
▁・
▁흔
▁NAS
▁선출
▁아프가니스탄
dia
▁교제
▁발언
▁상해
▁여성들은
▁Sh
▁센터에서
ather
EP
LM
▁주소서
▁확
▁보다도
▁페이지의
▁광섬유
▁익명
▁상인
▁부릅니다
▁외교
에게도
▁얻었다
▁전해
▁매트
▁롭게
▁인체
tech
GA
▁수준에서
리에
▁버전은
kr
▁경력을
▁Holiday
▁디럭스
▁테스토스테론
▁말씀하신
▁공룡
▁않다면
▁수량
▁Network
ame
▁부속품
lm
▁확인함
▁폭포
쇄
가지고
▁접착제
▁네모
▁기독교인
~~
유럽
▁티켓을
▁포함할
▁않을까
▁주일
▁베팅
웨
▁내구성
▁한쪽
▁지구를
ward
▁관광지
▁사항은
ush
▁고린도
퀴
▁잠언
olo
▁핸들
▁요구사항
하도다
▁표정
▁던지
▁서버에
▁행사를
▁SM
▁인접해
▁원형
르고
▁죽이
nu
▁단점
▁유지하기
▁그것으로
▁루이
▁여자의
▁Town
▁Mor
▁들어서
▁자금을
▁96
피스
▁박테리아
▁염소
AA
▁가르치고
▁집은
이터
Ex
▁진동기
▁네트워크에
▁여호수아
못
▁짧은머리
▁계곡
▁하얀
홍
▁Pu
▁맡
▁행동에
▁English
▁정보와
▁아연
▁Cal
겔
▁여름에
▁에어포트
▁둘러
▁전형적인
▁점검
▁속의
▁사항이
▁엘리야
▁유출
▁88
▁증기
▁연구에서
▁버렸
ile
▁날짜가
hr
PR
▁무조건
▁III
▁가축
ova
▁숫자를
▁수평
▁두가지
▁가져온
▁역에서
▁요소가
▁당신에
▁얘
DR
▁그룹에
▁혼자서
▁롱
▁레이어
▁태어났
00,000
▁영역에서
▁다음으로
믹
▁생각하기
▁보겠습니다
▁United
▁Bitcoin
▁반란
▁뮤직
▁부모가
▁연극
만약
▁무한한
▁나이에
▁12:00
▁Light
▁부착
탐
▁신분
에베소
▁진입
▁직후
▁컨
▁류
▁잡는
디스
이었죠
▁아메리칸
ean
하리니
▁피조물
▁when
▁그처럼
▁하락
▁누워
lor
oy
▁화석
▁있니
▁사악한
▁물에
▁저런
▁높아
▁곱하기
▁얼굴에
원을
▁다음의
▁▲
주시
▁남편이
su
▁사로잡
▁PornoX
싸
하시나요
▁않았기
▁삽니다
▁중요성을
▁부르짖
▁UPS
New
▁입양
▁대상이
군의
▁인생은
▁감기
▁그토록
▁나머지는
▁공유하는
▁배신
▁보이기
▁에이전트
▁콘솔
▁조용
▁비명
원은
▁괜찮은
▁125
아프리카
딸
»
▁개시
VA
▁만료
▁최선
져야
▁루프
▁Store
▁해결하는
▁앳
▁야채
▁머무르
켄
플라
▁잭슨
▁쿠바
▁밀도
win
tri
▁넘게
▁Beeg
▁시위
▁생태계
▁나면
▁떠나지
▁히브리
▁각도
가능한
사이드
▁기업가
▁RS
▁낫다
▁치수
HZ
▁건축물
▁내맘대로
▁다이어트
▁마이크로소프트
▁리튬
▁공헌
▁Water
CT
▁지면
▁걔
▁인터페이스를
▁대부분이
▁표시된
▁달콤한
있게
▁무엇보다도
▁무지
▁적어
▁굿
야마
하십니다
▁폼
▁크라
우주
eb
▁정제
▁번영
▁Micro
▁믿기
▁싶을
▁마운트
▁남자의
▁지은
▁Plaza
▁규격
▁유니
놓고
부족하지
▁(200
▁Pr
신세
▁업적
능력
ati
EU
▁사건이
▁cm
▁비탄
만으로
set
-05
▁4.0
파크
▁워크
tain
▁심사
▁Institute
▁엄청나게
▁페이
▁이온
▁헤더
한국
nch
▁선형
▁있나니
▁중국인
리안
▁MI
▁사전에
▁전기를
▁304
▁존재를
▁리처드
▁오프라인
▁빨강
▁그렇죠
▁있노라
털
▁중반
▁명확하게
▁Key
▁세미나
대가
▁어머니의
채널
▁그녀와
▁감지기
▁못하
▁주조
피아
tle
▁노란색
lip
▁대항
▁느꼈다
/3
▁뒤를
▁돌아왔다
▁2.4
▁Top
▁응원
HS
▁교회가
▁학생들을
▁자물쇠
▁다림질
▁사본
▁슬라이드
ink
경기
▁보좌
사와
▁떨어지
▁로비
▁Don
었지만
▁마디
▁돌보는
스톤
▁ma
ula
▁패치
▁동물원
▁팰리스
▁신장
하셔야
▁그리스도교
▁해보
350
거래
▁들어가서
▁안보
다운
▁해리
ors
▁Cat
▁옵션은
등록
▁시장을
칙
▁소프트웨어의
▁바라보
its
▁그대를
▁상자를
fe
ali
▁하이브리드
▁이끄는
▁베어링
▁억압
▁갖춰져
▁이탈리아어
▁희생자
jo
▁죄송합니다
▁디모데
-06
나이
▁주시고
▁종말
되지만
뷰
ord
좀
-08
▁게이트
본다
▁좀비
▁›
▁절망
▁인터넷에
▁방식은
▁세계가
사용
▁아카이브
▁Ben
-03
티브
▁경외
▁하늘과
▁Inter
kin
▁친척
▁신념
▁새해
▁원할
ob
▁자녀를
▁연인
▁남자를
전쟁
▁증진
▁담고
▁그룹을
슬리
▁암시
▁불의
press
▁Out
▁촉구
▁이든
▁넘치는
▁돌아와
▁중이다
▁끔찍
▁손실을
▁적극적으로
10)
졌으며
▁갓
▁그리스어
▁걸으면
▁sa
▁셰
▁일일
▁Ab
▁유방
sta
▁칭
해드립니다
─
▁Yodot
▁제물
▁바디
▁새롭고
▁LG
님은
-09
▁루이스
▁충전기
ele
어스
▁결혼을
▁모델링
▁곤
ona
▁카사
▁kg
▁실험을
▁숨어
▁여러분들
▁Akamai
▁체크아웃
해주는
▁우울
▁작동하는
▁http
▁건전
ky
ture
▁경로를
▁$1
▁살아가는
▁적용되는
▁이뤄
▁끓
▁보여주고
over
▁우리들
▁101
주년
▁흉
▁최상
▁성공적
▁이것들은
ust
위한
▁일러가로되
▁포트폴리오
▁항공권
▁여행객
▁화합물
▁동성애
▁영어를
▁불렀
▁지대
▁담아
▁생물학적
tz
▁행진
ford
▁학교를
zz
어떻게
였을
▁도서
TE
해졌다
무료
▁고쳐
▁찾아야
▁HTTP
▁트레
PL
촉
▁사무소
TER
▁타이틀
▁필수적인
▁싸울
put
▁태어났다
▁봐야
토록
▁사이드
하나니
▁사진기
▁키워드
▁견적
▁Rock
▁주제에
▁과학자들은
▁Royal
▁데려가
▁손님을
▁사망했다
들보다
ville
▁소원
▁이동합니다
▁규
▁주식회사
CI
▁선택된
▁전자레인지
▁왜냐면
▁벨브
▁오피스
▁닫기
▁달린
▁피어
2-
▁읽으
▁Tna
▁부분적으로
▁반역
▁줄여
▁빗
▁마리오
▁도심
▁옥수수
▁카운터
▁비엔나
view
▁기반의
▁Tu
▁지능형
▁높여
롯
;;
▁층이
▁선교
304
▁▶
▁양성
▁싶었
▁늦은
▁산업의
▁론
▁돈은
(10
▁있었어
lex
▁전사
까지도
템
▁쉽다
주님
▁Bed
▁소켓
세이
ena
▁근본적인
▁몇가지
▁무엇일까요
▁명성
▁잊을
짜
▁per
▁가수
▁일과
▁유형을
▁진노
▁자와
적이며
▁멈춰
▁승무원
▁방문객
▁나타났습니다
-04
▁이곳은
▁오류를
체를
ode
▁타는
4,
▁걸리는
화물
▁샌
▁칠레
했음
▁제공해
▁뭐야
년을
VI
▁괜찮
▁David
▁환자는
▁이스라엘을
▁영사관
▁혐오
▁일기
▁know
▁듀얼
rus
sol
▁과정이
▁문제로
▁발견할
▁온전히
▁돌아보
pr
▁러시아의
▁야기
{
▁목록에서
FS
▁디자인은
▁명을
▁이틀
▁초월
▁아니하는
~!
▁내리는
▁97
▁이상으로
▁빌리
▁양성애
▁크리스탈
▁탑재
▁문구
정말
▁사진이
▁file
▁생물학
▁작년에
▁죽이고
▁불신자들
▁연출
▁있는데요
합시다
▁안되는
▁밸리
▁처리할
▁일치하는
▁리버
▁TO
문을
▁진지
▁맛을
▁다가오는
▁바꾸어
▁배낭
▁누구를
▁조롱
▁River
▁77
▁에스
뇌
▁누구인지
▁밤을
▁알코올
cr
▁이루어지
▁녹화
▁운영하고
ole
▁죽게
▁ad
▁죽인
▁정기적
▁자신감
▁배우기
안내
▁할리우드
的
▁가지가
▁그리스도교국
▁되었읍니다
▁Smart
▁4000
▁좌우
마르
▁설문
ks
▁나무를
▁양을
세기에
어도
▁관계는
sing
ult
랩
▁귀하에게
▁work
▁권력을
▁약점
▁일러
▁VR
▁얇은
▁어려워
▁알았어
▁테이블에
vin
KG
▁자동차를
▁News
▁되자
▁해답
▁기계적
▁아버지께서
▁1:1
▁쏟아
▁쿨
둬
▁사우나
▁정식
사단
▁이라면
vent
▁내는
▁묘
▁82
▁총을
▁바벨론
shi
▁개발하고
▁공작
▁부위
▁귀중한
▁사회에
▁나타난
▁땀
EM
▁크로
▁가졌
▁좋겠다
으신
년도
▁교훈을
▁하시며
▁누르
▁주셨다
▁비즈니스를
▁≤
▁채널을
▁Way
▁까만
▁샌드위치
▁알아보십시오
▁멀지
▁대사관
▁아버지를
▁스트림
▁일어났
란다
▁유연성
▁128
냅니다
▁나가서
▁인기가
▁불가능한
▁실시간으로
▁독점
▁Source
▁일정한
La
DM
▁주권
don
▁썩
nn
▁빈도
▁졸
▁편집기
▁Auto
가장
▁줄이는
▁if
▁공유하고
▁89
전화
을까요
▁장치는
▁0.8
모두
카지노
▁가량
▁토크
▁상자에
。
▁뮌헨
▁엔터프라이즈
▁처방
▁비어
▁데에
burg
▁배가
▁삶과
냥
▁IR
▁보러
ble
▁돌보
▁본성
들입니다
으면서
9001
▁상대적으로
▁(5)
▁퍼져
▁아니었
▁농도
▁애정
▁번도
웠다
▁맘에
▁ᄒᄒ
▁재밌
▁Game
▁윈
▁드러나
▁아파트에서
▁스승
▁솔로
ora
▁간단하게
▁제공자
카이
▁Hall
-26
TB
▁나노
house
zi
▁계시는
▁가속화
▁실수로
▁영구
깁니다
▁교만
▁Management
▁주먹넣기
▁대성당
▁server
이게
▁CP
▁공평
겠지요
빠
▁봉사자
▁관계없이
▁EUR
HO
▁젠
▁큐
▁여지가
깨
▁아예
헬
▁이르게
▁깔
▁중점을
.5+
mail
ible
▁고객과
▁칵테일
렁
▁선지자들
▁협조
▁가속
▁장애물
▁알렉스
▁두지
안전
▁했는지
▁0.7
▁없어서
▁민감
▁아스
괴
▁설명할
▁히틀러
try
▁표지
▁94
▁Video
▁거라
까지의
▁Gar
▁인터넷에서
▁코르
통신
▁아날로그
子
▁착륙
▁Great
▁냉동
▁hd
▁공업
▁분실
▁폐기물
음이
▁type
DE
▁귀사
▁메디
▁서식
fu
▁민감한
라스
▁통일
그럼
▁같고
ology
▁▪
▁패킹
▁있듯이
▁재생할
▁잃었다
▁평가를
▁짝
▁하리니
▁인격
▁양자
▁혁신을
리나
▁끌고
ike
했을까
▁개설
stan
붙
▁Hy
▁책에
ets
▁복구하는
건가요
▁재건
예수
▁Linux
NuVid
▁달러의
tre
▁삼각형
gsm
▁겪
▁심히
▁코너
▁Bi
▁신뢰를
▁감사를
▁애플리케이션을
▁계란
▁동행
▁끝나
▁견고
▁지혜를
atch
▁오시는
▁권한이
▁쌓아
하노라
▁편의시설
▁생기는
▁않아야
▁곡물
자연
▁얻었습니다
▁든다
▁연락을
▁버린
▁Wa
▁쉽
▁형태를
▁기간은
ski
/5
▁남을
▁피드
bin
▁선행
▁뭔지
▁실크
▁호치민
▁보냅니다
▁쇼핑몰
▁걸립니다
tr
▁닿
▁진지하게
일간
▁가득한
▁파이오니아
▁보호자
▁놀라게
▁mg
▁걸린
▁학년
▁성질
욥
지며
▁줄이기
▁생각해요
▁VMware
▁호환성
▁해서는
▁낙태
▁셈
레이션
이랑
▁꽉
ani
▁있겠
▁카트
hen
▁단축
▁일자
▁3*
하십니까
▁Hill
▁동등한
▁바치
▁동안만
▁재정적
▁파트
▁실행하는
즘
해진다
장님
▁드리겠습니다
넘
랭
▁붙어
▁make
▁읽어보
▁뉴욕에서
ions
▁이민자
▁전체적인
▁임무를
|
▁Casino
▁카트리지
▁당일
pos
▁삼촌
▁지부
spec
▁순간을
▁않겠다
▁공급업체
▁제거하는
▁mi
▁미안
IG
▁프라이
▁미션
OT
time
짝
cher
연합
▁못하였다
▁음식은
▁건지
▁루마니아
▁교도소
▁견딜
▁넣고
▁신용카드
▁철학자
념
bon
▁죽였
거니와
▁소위
▁0.9
▁일도
▁틴
▁천재
▁동적
▁수준에
▁의뢰
릅니다
▁가지게
▁베풀어
▁선택하여
▁속도가
▁갈등
▁상상력
이즈
▁접시
군이
지면
berg
▁작품은
▁천사가
▁도둑
▁스페셜
▁숙녀
pt
▁선적
▁베이브
▁하매
▁꼬리
였죠
▁위치에서
▁섹시
그리
▁부합
▁사회에서
▁우연
▁필요를
▁Gen
나게
▁떠났
▁나치
▁Sw
▁중심에서
했다면
▁보안을
UL
▁UL
▁갤럭시
▁스팽킹
▁오바마
▁베타
▁작고
▁것임을
▁천사들
▁06:15
▁Fr
▁이동하는
▁개량
▁종류를
하더라
▁자원을
130
▁기능에
ome
▁70%
ain
▁띠
book
iff
▁증가하고
콤
파이
FP
▁죽기
Cl
▁시작되었다
▁몸의
▁오로지
우리의
▁멜번
▁Not
▁서버를
▁차가운
▁회사에서
▁걱정하지
▁서로에게
Le
▁말하되
▁경도
화가
▁향상된
▁예전에
비는
/4
▁Ah
▁미사일
▁2.1
▁아이스크림
▁설문조사
면서도
▁효율성을
▁시스템과
ji
장에서
▁씨발
▁관리할
▁내고
▁갔습니다
▁갈망
▁건물에서
친구
일은
lia
▁베니스
▁죽고
▁내놓
▁사용하십시오
▁개조
▁DE
▁시사
▁논리적
▁정책에
rt
새로운
This
▁전능
▁했습니까
▁단계에
▁가져가
▁관대
▁묻는다
▁말며
▁벌이
▁백성들
▁컴퓨터의
▁아사
▁사회를
포스
박스
str
▁페스티벌
섰
▁인정받
link
▁향기
▁물류
▁깊게
▁파라다이스
▁포털
부는
▁제조사
▁벽돌
ado
구조
▁者
▁하루를
lot
▁프랑
▁78
▁배워야
▁Amazon
▁쪽으로
▁이메일로
▁또다른
▁두려워하는
zo
▁다하고
▁요소는
▁차량을
▁이야기하고
▁거기에서
▁Post
ien
▁녀석
되면서
▁외계인
포드
륜
▁절대적으로
▁car
▁크다
▁Project
▁손잡이
보십시오
▁스티브
▁따뜻
(4
▁le
▁놀랍게도
마음
티스
▁처해
???
▁과목
▁받아들이는
);
▁Emp
▁내세
▁하나에
▁머리에
▁열대
FI
하든
unt
▁꾸준히
▁아홉
▁차고
▁기술적인
▁미세
▁선택이
lk
▁File
▁남자와
▁참여하는
세금
▁직업을
▁사랑합니다
▁건물은
▁땅으로
▁이벤트를
▁Tour
▁than
▁메커니즘
▁축적
▁깃발
루스
▁1/2
▁맘
▁열정을
▁되는데
▁현황
▁잠재
▁유치
▁낫
▁set
▁신중
▁Gal
▁파트너가
▁원시
▁손에서
▁법인
▁넘어서
▁변동
▁수석
▁공장에서
▁하시니
▁능력은
▁후에도
점이
몽
▁불렀다
뒤
oth
▁설명하는
▁일본유부녀
▁휴스턴
▁신학
▁계십니까
▁직원을
▁숨을
▁대학은
▁사용해야
▁팀에
만원
▁73
▁육신
ses
▁감수
▁여과기
▁표준을
▁언젠가는
word
펀
▁지휘
▁똑같
▁여러분들은
ony
▁드럼
▁다행히
▁모욕
▁명상
▁혈관
▁이하의
▁스틱
▁Suite
▁되기를
cha
▁헐
▁심천
▁4*
▁정체
▁더블린
으라
▁CAD
▁체계를
때문에
껏
봅니다
▁공정한
-27
▁스펙트럼
▁Em
▁데스크탑
▁놓아
▁ac
▁비밀을
▁스럽게
RM
▁Long
▁부팅
▁될지
▁하나인
▁못했
▁역사는
▁깨닫지
만은
▁나팔
▁Mc
▁지식과
대는
▁Ave
리게
▁모집
▁월드컵
▁보였
▁지키고
▁value
▁NY
▁우연히
시켜야
베리
▁음식이
▁유령
▁주전자
▁굳이
▁1988
▁금발의
▁수밖에
▁지원하고
vid
▁미치지
▁여분
▁죽음에
▁관용
클럽
▁유효합니다
▁무게를
년동안
▁방음
이지요
gan
▁갱
▁정확성
▁좁은
▁감옥에
레이트
으니까
▁92
▁엘리자베스
▁친구는
▁에디션
해라
▁Exchange
▁손쉽
▁손상을
▁스레드
▁엔드
▁졸업생
▁CH
▁MC
▁받았고
▁Us
▁떠나는
▁카메라를
▁텔레비젼
▁재즈
▁간구
*1
▁소유권
▁히브리어
▁매매
▁타사
▁준비하고
▁선택권
RT
▁자고
dom
▁지명
▁독특
▁장치가
사실
▁최대의
▁주셨
eu
▁지원되는
▁값은
▁아키텍처
▁접근법
▁장례식
부가
▁연결이
▁그램
그가
▁주저
top
▁유일하게
bel
▁요청할
▁일어났다
▁Bur
▁내기
▁이름과
▁구해
▁징
▁번성
▁블로그를
무릇
▁가나안
생산
▁찾습니다
▁것일
▁서적
▁자신들이
▁아빠가
san
▁씨앗
▁DIN
BR
▁사법
▁않았다면
▁쫓아
▁they
▁날마다
▁없었고
▁퓨
▁Media
ull
▁나라는
하매
▁재물
▁여동생
▁아름답게
▁체육관
▁침투
▁파라오
▁느끼지
▁반면에
▁만나게
▁화장
▁증거가
▁쉐
품을
▁거리입니다
▁신을
하진
운다
▁현재는
▁흔한
▁오라
▁76
▁격리
▁감히
▁제공하여
▁산화
▁되었다고
▁메세지
▁아라비아
▁iPod
▁가졌다
지로
▁느린
▁출현
▁견디
▁함이라
▁사랑스러운
▁대부분을
▁계수
▁1945
▁견고한
▁사장
▁계셨
▁일주일에
끝
▁주요한
▁bu
▁z
▁아내는
▁Enterprise
▁레이디보이
▁플로리스트
▁편리
▁경우에만
▁사용법
▁플러그
▁얻습니다
OM
▁진화론
▁거래소
▁인재
▁가르
ax
▁이룰
We
▁Ser
▁암호화폐
▁목적이
▁잡으
▁구매할
▁향수
▁휴가를
겁
▁있어도
▁th
ken
▁Dis
▁LC
▁**
▁베개
▁커피를
주소
▁보호하고
▁전체가
▁안나
▁그리워
▁여권
공학
▁비교할
▁눈은
▁모션
▁먹기
ask
▁덕분
▁매번
▁서브
▁Com
-40
▁개발에
▁지켜보
자유
▁끊어
▁도시는
▁분포
▁Hol
▁옮기
▁제단
▁진짜로
▁Santa
▁영화의
▁심하게
▁any
▁유권자
▁동물의
치료
▁부호
▁플레이트
▁형성하는
갈라디아
ju
▁날은
▁사람이다
▁선고
▁India
▁보급
▁Photo
▁놀랍
▁CR
평가
ere
5°
▁Church
▁Previous
▁두꺼운
▁유튜브
▁침략
▁어렸을
bre
ison
▁포스터
조건
▁240
▁대접
Ma
▁만성
▁방식이
▁진전
▁축소
▁목숨
On
▁중앙에
▁이득
▁동물을
▁와트
▁Ag
OD
▁구제
▁SO
덤
▁옳
-100
쿼
▁팔아
▁iTunes
▁말씀하시기를
▁Bridge
서울
▁자격을
▁Lab
▁미치
▁기능과
▁사람입니다
180
▁오른
▁ICO
▁증권
보지
▁공간에
▁조류
작업
제로
▁정의를
▁쫓
고객
▁잃었
▁전문가들은
춘
▁재해
▁fa
▁주교
▁오게
▁바다를
▁프로그램입니다
비용
▁받았으며
먼트
▁당황
▁담긴
ule
aya
lie
▁이어지는
되므로
되었던
▁돌아온
bb
▁Book
▁주장한다
lam
▁동력
▁빌드
GS
▁조사를
되었다고
시나요
▁읽은
ature
병원
된다는
▁바이너리
▁재킷
▁있었읍니다
▁고객께서는
▁전하는
▁보완
▁않으시
으려고
▁지원할
xi
▁고생
▁그리스도께서
right
▁other
▁하시겠습니까
▁암호를
용품
▁AT
▁명백한
▁살아가
▁보고서는
▁스트
tis
▁좋고
▁느낍니다
▁레이싱
▁전쟁의
▁피치
▁바늘
▁방황
▁자신만의
▁바트
▁중세
GO
룬
▁불필요한
작은
▁여러분께
▁이유입니다
▁관계자
▁곁
▁생산을
▁성장하고
므
▁급속
▁MD
▁그분께
평화
lock
▁크레딧
var
▁크기가
무엇
▁독립적인
gent
▁자연스러운
우는
gh
하노니
▁his
릭스
고자
▁초청
▁제한된
▁의약품
▁용기를
▁고려해야
▁했으며
▁않거나
륙
▁Music
▁67
자로서
▁더보기
▁학생들의
++
▁불교
▁손님들
전을
▁보며
▁연계
것이다
하여라
▁갖는다
▁다이오드
▁이산화탄소
▁무제한
▁브라이언
해야한다
▁Saint
▁약을
▁트렌드
기계
erry
▁늘어
내에
▁음주
▁일어나서
▁음모
▁시온
▁CI
▁이외에
▁전체에
▁이내의
▁오면
▁없는데
해야하는
▁이름의
셨고
ack
ius
llactionhost
▁nbsp
▁얼굴앉기
▁Tower
▁쉬워
How
▁막아
▁비극
mic
▁오늘도
ras
▁축복을
▁절단기
▁독신
▁하와이
▁심각하게
▁Mobile
적이다
흘
▁치고
▁감독자
▁인간에게
▁랜드
▁시리즈는
브리
▁창세기
내고
▁움직일
ö
▁first
▁꼭대기
▁넣을
▁책임감
▁돕
▁스톡
센트
▁전쟁은
▁점수를
▁TNT
▁크기는
▁해고
▁설립된
▁학회
▁부시
▁단어는
▁백성의
▁잘라
▁살아남
▁여성을
랍
▁과부
▁열망
였어
▁수있게
ect
도로
▁시에
▁1920
▁많았
냈습니다
쟁이
▁영혼이
▁사모
▁형사
▁올랜도
▁사라져
▁가만히
UM
▁대표자
▁또다시
▁Java
▁차가
els
(1)
▁제목은
▁포토
▁명칭
▁비밀번호를
들만
▁1.3
▁RGB
▁지키기
▁엑스
CP
▁바구니
▁범죄자
▁비싸
▁주며
▁보고서에
▁수요
▁도어
▁직원들
▁170
▁li
▁2.2
▁아니라면
▁씨는
▁대리인
▁껍질
▁킬
▁추구하는
▁나타나지
▁현재까지
II
▁74
▁야고보
▁풍선
▁판매를
▁명은
▁줄이고
같
▁기업에
▁짐을
pot
▁곡선
▁프랑크푸르트
▁희귀
▁담겨
▁캡
▁길에서
awa
▁준비되어
▁당하는
101
▁위함
시길
▁수동으로
▁cr
▁America
혁명
days
▁want
▁퍼지
gy
인과
읍
▁국제적
▁원천
▁운전사
▁Corporation
▁서둘러
▁핸드폰
▁EP
▁먹으
▁학업
BI
▁저지른
어머니
ao
ith
▁대가
▁시각화
ress
-60
▁공부를
ping
▁달아
sha
▁접착
▁말인가
▁드라이브에
▁Uni
▁행동이
▁지워
▁기재
▁되는지
▁시장의
▁Ju
▁크로아티아
FE
▁화살표
▁스트레스를
▁(9
lay
▁명심
▁느꼈
▁일부분
▁지낼
je
되었는지
night
▁스쿨
방식
ball
▁추출물
▁떨어지는
▁문화의
▁방식에
▁즐거움을
지마
티아
self
▁읽다
▁기운
▁sub
▁필요해
pin
▁버지니아
for
▁호스텔은
▁웨
예약은
▁신속
▁활용하여
▁납치
▁자꾸
▁독립적
tur
▁Sex
제는
▁듣게
▁처리하는
▁구조물
▁없지
▁5%
기록
LI
▁쯤
뱅
▁응급
▁71
▁지루
으십시오
▁10,000
lit
▁Company
▁SAP
▁회사소개
▁어떨까요
▁산맥
▁역사의
▁운영되는
▁왕은
▁있었다는
나이까
▁문제입니다
-28
▁예증
ose
▁작성자
▁±
▁여군
▁Plus
이니이다
▁도착할
▁공기를
cer
▁성소
▁잃지
그리스도
▁아크릴
었노라
▁남기
▁봐요
▁위협을
▁왔으며
Com
▁도와줄
▁여러분들이
공원
▁무력
겠느냐
▁싫어하는
보다도
▁왕을
▁경험할
ations
▁Sky
▁우물
▁숫자가
fr
▁자랑하는
님께
ff
▁상사
▁종사
One
관련
▁만군
▁po
에게로
▁듯한
▁하트
▁건축가
▁말하며
▁모델이
大
하리로다
2.1
▁Played
▁천막
mal
▁사람에
▁FA
▁피하는
▁선호하는
▁세운
그대
▁들지
▁탐사
▁과도
▁음악은
▁떠났다
▁life
▁토양
▁붐
▁기업을
▁HIV
▁국가들
▁부어
▁ME
▁존재합니다
▁블루투스
몸
▁징후
▁버렸다
남자
▁가정에서
▁예보
▁광도
▁인디언
표를
어져
▁사업자
▁주말에
▁선택은
▁따를
▁셀프
inch
▁기억하고
NT
략
버트
▁su
▁받아들여
랙
렬
늘
▁뻔
cam
CR
개인
▁Mont
공간
▁나타낸다
▁불완전
넥
▁화면에
▁get
▁부채
▁인도의
▁모르겠습니다
▁전개
▁모를
▁보내신
▁Char
▁내린
▁천국에
▁WA
▁성공한
만명
▁CC
▁람
FF
▁공을
OC
건의
nel
▁over
▁선두
▁단계로
▁채로
▁그러다
▁대답은
▁설명해
▁Instant
▁슬픈
▁레슬링
▁파장
▁점프
▁타협
▁다름
▁몰아
▁밖의
▁PR
▁법이
▁런던의
기와
▁가려
He
ities
▁RO
▁요청에
마가
▁여지
▁참여하고
▁부르고
났다
▁시력
PT
▁장려
▁2,000
▁아기가
옹
바라
▁설치하는
▁생각한
▁창업
닷
▁매뉴얼
▁인덱스
aff
▁중심지
▁앞으로도
▁퇴실
▁↑
▁저것
월부터
▁Who
▁불이
▁할수
▁추천합니다
지구
전기
▁말하였다
▁선도
조사
▁락
으려
▁말라고
▁인데
pic
▁부분에서
Be
▁단기
했으니
▁여러분과
▁도구가
▁아이슬란드
▁사용이
▁따르지
▁중간에
▁취향
▁주름
▁석방
아래
▁요금을
▁국가를
▁메가
▁학부
▁위원
▁창작
▁사실에
▁Pen
예술
▁에게도
▁라틴어
▁컴퓨터가
▁Vol
▁user
▁아직까지
▁수행합니다
지니
▁플레이어가
▁잠재력을
▁승인을
▁문서는
▁속임수
▁핵무기
▁이식
▁사마리아
▁system
▁싶어하는
▁멸종
▁경험에
▁성장하는
▁역사에
▁협약
▁길게
▁1986
산염
▁일년
▁병원에
▁계산기
마치
▁하였으나
▁이봐
세는
▁무기를
▁걷
▁오실
uch
리카
▁진심
끼리
▁분위기를
스탄
부를
오리
▁좁
▁시작되었습니다
▁불행히도
▁헬멧
▁렌털
▁황폐
▁캔
▁상어
▁1.4
▁번째는
▁파견
▁긴밀
▁알려지지
옴
▁기술자
ello
▁말씀으로
저희
판매
▁Room
TF
▁Bel
▁81
▁경비
하네
▁지고
▁제품군
▁근심
▁학교는
▁스톤
▁용이
▁남아있
mA
▁Family
▁Residence
▁유월절
▁아름다움을
▁지팡이
WA
▁항복
▁o
▁강조했다
들에게는
▁1987
톨
▁고마워요
▁This
▁BC
▁표면에
▁London
▁배관
▁시스템으로
▁의미에서
▁세계는
▁노란
▁것들에
▁380
싶
▁캄보디아
ability
었읍니다
▁상상할
▁제트
셨습니까
▁진주
▁에릭
▁열리
▁이점을
▁피하기
▁넣는
끄
▁프로그램에서
리로다
▁같아서
▁그로
▁불안정
▁실제로는
▁세탁기
▁1985
▁PLC
▁관행
▁중심은
그라
▁아카
yan
▁군대를
▁알았습니다
HA
ox
BT
▁(6)
▁AR
CD
사로
▁화산
너희가
해야합니까
▁입금
▁둘은
▁VIP
방향
▁Max
▁살지
▁걷고
▁멈추지
▁전진
▁83
▁넘어가
▁White
ALL
씬
▁지중해
▁착한
serv
기만
▁솔직
▁07:30
▁년부터
▁국민들
▁광범위
▁놓는
▁이신
▁켄
▁왔을
▁주께
▁Try
▁앱은
피트
▁건강과
▁day
yer
▁고압
▁경찰은
▁Good
▁기간에
▁1.7
▁인조
▁마음과
▁국가가
킷
▁숨기
긋
▁애완동물
▁당하고
ram
▁간단하고
▁바닥에
▁원숭이
▁이었읍니다
▁장막
받습니다
▁승진
▁로켓
▁지나지
▁찍은
▁바람직
▁DS
▁나오지
▁기억이
▁AVI
▁출전
들아
▁트레이
하심을
TR
▁라인을
내용
▁익숙
▁네트워크의
▁진실한
▁망치
▁샹하이
▁어째서
▁수업을
ART
▁월에
▁기울이
▁소멸
▁79
▁FDA
▁행할
점은
▁세번째
ND
▁거리에서
▁기법
▁사슬
▁공인
▁Han
▁나누고
rid
▁제사
▁바라보는
▁플레이어는
▁Point
RD
▁이야기하는
▁이어서
분을
프라
▁좋아할
문자
gin
▁어디서나
▁메이크업
▁취리히
▁상호작용
▁하드코어
▁앱이
▁93
cle
▁5.0
▁근방
▁다윗의
▁리프트
프로그램
▁애들
back
▁시몬
▁찾은
▁같았
▁Walk
▁튼튼한
▁여신
LP
▁아름
▁많고
▁음식과
칩니다
▁남용
▁안전성
▁Res
▁정부에
▁하였으니
▁1914
▁Paul
▁칼라
▁콘크리트
▁달걀
▁나라들
▁잠들
▁부탁드립니다
▁관념
▁학술
▁면제
만으로도
▁받으실
▁노력이
▁있었다고
▁미팅
▁지나면
ui
▁수소
▁표기
▁하다는
▁전체적으로
할때
▁배반
▁IoT
▁정성
▁피드백
▁물은
off
▁FM
▁되죠
하느니라
▁아기를
▁가져오기
▁Pin
▁아니할
▁즐
▁part
▁소모
神
▁(24
▁만나고
▁DHL
▁확정
▁★
▁전지
▁만들어야
드리겠습니다
▁부정적
▁가운
▁평판
▁Pal
▁없도록
oli
CK
▁철회
▁Sam
▁지우
▁Back
load
▁조식
ami
▁하단
럭
▁일로
LT
▁속하는
▁끝났다
▁화학물질
▁용납
▁데뷔
host
▁사랑해
▁답은
uit
▁성령의
▁편안함을
▁구체적으로
▁제품입니다
▁주립
▁기기를
▁자리에서
최대
▁회수
▁윗
이었을
cus
츄
▁캠페인을
▁스탠다드
▁WiFi
▁BS
▁심리
▁대학생
▁HDMI
▁비활성화
▁1984
▁인천
하면서도
파티
▁도움으로
▁요청한
르트
▁보이게
하나이다
▁국적
▁8.1
▁Nu
▁신속한
▁시민권
▁막기
▁읽지
▁꿈이
NE
할지
하라는
▁직원들은
▁민주당
▁Los
▁열매를
심이
▁정치인
▁까닭
▁Men
▁단면도
▁푸켓
▁잡힌
pen
▁소피아
▁신원
▁없느니라
▁금액을
▁어때
마지막
▁남성과
▁청중
▁부상을
▁Alex
▁드문
▁살려
!」
▁FI
투스
▁입국
▁붓
▁패턴을
▁SMS
▁살았다
(5
▁일어난다
그런
▁장소가
-50
▁공개적으로
▁공군
▁매니
▁온수
즈는
셨으며
▁갇혀
▁메서드
▁제네바
▁1972
▁나아갈
▁참을성
▁있겠는가
▁되었습니까
▁되었는데
비가
아웃
2014
▁담대
▁영문
▁Kar
킴
▁보여주기
▁only
▁천지
▁학생이
▁지원하지
▁두려움을
분들
▁115
▁없죠
▁기억할
▁왜곡
▁NC
▁형식의
▁남편은
▁트래픽
▁나는이
▁좇
▁경험과
INE
▁해커
▁여호와여
▁발견한
▁고품질의
왔던
▁PO
▁교직자
▁삼위일체
▁Tableau
▁일어
▁영향력을
▁어린아이
▁직류
▁누나
▁고개
aka
▁하나씩
은즉
역에서
▁소프트웨어가
▁SU
▁언급한
▁1080
▁방에서
▁안락
열왕
었으나
▁기준에
▁아리
▁부유한
▁위험성
▁학생들
▁다리를
▁분명하게
μ
눅
▁멈출
▁낡은
▁타임스
▁고지
▁현명한
▁누구의
▁통로
ark
▁pa
search
주의를
▁대학에
▁Intel
▁기밀
▁가문
▁움직이
▁차있는
▁show
▁요점
▁바이트
▁사망자
▁금방
▁피우
▁Sim
▁정답
GI
▁클레
▁외모
▁금형
▁의미하지
▁분별
▁쓰러
nic
▁안에는
▁숫자는
▁긍휼
sis
▁돌아가는
▁커널
▁기계장치
▁성도들
▁치아
▁않은가
▁구하기
▁누군가의
동물
[3]
▁성향
▁브리지
층에
▁여성들
▁하느냐
▁구호
▁차이는
▁이해가
▁생존자
▁폭스
▁최후의
▁회사와
우릴
▁엔진을
구역
▁심리적
▁공간에서
▁AlotPorn
▁극대화
골로새
▁PL
▁두어
▁당사가
▁엠
낭
▁Camp
▁가르침을
▁그보다
▁Ki
▁수록
▁채우
▁동정심
프는
▁목재
▁경쟁력
▁홀더
▁그늘
▁재산을
▁Village
▁조종사
▁에드
▁선수들
▁말해서
▁정책은
▁room
pc
하소서
ICE
▁BO
▁인디
▁발전소
▁고객님
▁치는
▁EX
key
▁점이다
▁Foursquare
▁스톡홀름
▁악몽
▁식탁
▁스노우
▁지도된
(18
▁가사
▁않았으며
▁동양
법에
▁Night
▁클릭하세요
▁그런즉
컴
▁se
What
▁SMD
였는데
▁뚫
라이트
▁장신
▁돔
▁창립
자면
eth
▁직장에서
▁국회
▁변화하는
▁지금의
▁버전에서
▁등록된
▁라스
▁부품을
pu
▁칼리
▁Research
▁가지고있다
▁죽이는
▁살짝
▁다룰
스팅
▁광경
▁나비
▁업계에서
셨어요
스포츠
▁기상
▁드래곤
▁고기를
여야
PD
▁돌아왔
▁힘은
▁못해
▁약화
▁주었
▁전문가가
▁백성들이
월드
CL
▁상대로
생명
real
▁저술
▁기저귀
▁그런데도
▁good
▁나열
SH
▁찍어
▁파멸
▁Mark
ification
▁Mini
▁것일까요
▁미생물
▁중량
▁없었어요
▁합계
▁한글
▁바다에
▁PU
▁엘리트
▁이루고
드로
▁폐지
▁접근성
됐습니다
▁역학
▁Ass
3.5
▁매력적
▁Science
▁터치스크린
▁컨셉
▁오른손
▁단어가
십시요
▁동의하지
▁need
▁민박
▁젠장
▁Now
▁웹사이트의
▁him
▁그릴
▁사탄이
▁광선
시니라
▁유명합니다
▁줄기
▁판매자
▁흔적
á
▁텔레
ᆞ
▁건물을
▁경우도
▁조기
영국
▁익숙해
▁부류
▁주장을
▁하다고
▁Part
▁여행하는
▁Fin
▁들어보
▁않았다는
▁침대에
▁소지
▁벽지
▁열두
▁Shemale
▁파노라마
▁놈들
▁캠핑
▁Ru
▁외치
▁팽창식
너희는
▁있었다면
▁our
▁질병을
받았다
자마자
구를
▁너머
▁그것들이
▁보호합니다
▁의무를
▁인생이
▁논란
▁선생님이
신명
▁Twitter
ii
▁경험은
bs
0.5
▁꽃을
▁그다지
▁섰
▁여긴
▁보유한
一
▁돌이켜
▁뷔페
▁유머감각
▁호랑이
▁링컨
▁스팸
pornia
▁변화의
▁로타리
▁성경에
▁공산주의
▁Party
▁우리에게는
▁심령
▁알아내
▁직접적으로
시죠
▁간주됩니다
▁딜
▁메시아
▁연맹
하지도
▁Cam
▁아뇨
ments
▁뜻이다
▁하사
▁결과물
dB
▁것인데
▁da
▁파라
mor
자에
▁내버려
▁원소
▁런던에서
▁스타디움
데살로니가
▁관세
▁항문의
▁하노이
▁조건이
22)
▁맹세하
cia
▁편리하게
▁본능
▁Es
▁모순
▁아름답고
쇠
▁평소
주신
▁쳐서
▁트랜스
▁변하지
▁화면에서
▁소개합니다
디오
▁지르
레나
▁시키기
▁것이나
라고도
▁인간과
▁브라우저에서
주의적
▁삼아
▁전념
덱
▁방지하기
파수대
▁국립공원
▁팝업
3/
▁처한
▁시간대
회원
▁여객
▁일본엄마
▁쾌적한
It
▁첫째로
▁4)
누스
아가
▁싸우고
▁경량
있고
8,000
rd
▁걸친
▁똥
▁치르
▁높이는
조직
▁저축
▁거리는
▁마비
cks
만큼이나
▁기간이
셨나요
▁수도원
▁특이
푼
▁입는
▁트윗
▁버리지
▁했다는
▁찾아오
▁found
슬라
▁4.5
량이
▁모양의
▁지침을
▁행동은
eau
▁how
▁이끌고
▁모양을
▁놓으
율을
▁프라
이있다
▁깨우
빅
기기
▁처분
▁Bra
▁확실하게
▁하나만
정상
IO
▁크레
▁센터에
▁뿐이라
넨
카와
▁색상을
▁렌
▁원조
▁post
▁밴
rate
팡
드릴
avi
▁친환경
시어
▁사용은
신청
▁105
▁쳐다보
▁소장
▁샀
▁잡은
▁잔인
▁허물
투자
▁재현
▁경쟁자
▁적립
▁뒤에서
▁죄가
하였는데
▁선택의
▁Copyright
▁안되
▁형제들
UE
▁Ku
▁Te
▁결정했습니다
팽
▁옷입고하기
▁전염병
▁Foundation
▁메뉴에서
▁***
rr
▁합법적
▁설립자
bus
▁40%
▁부모는
바로
▁전구
▁베리
확인
▁Je
▁기간을
▁EM
TL
▁덮어
264
▁프로그램과
▁먹는다
공장
▁fl
▁운용
▁나와서
ae
그림
컵
▁수준이
밭
▁ro
gra
▁개는
▁먹었
▁구강
▁지금부터
▁750
해보자
▁되시
▁적재
▁MOV
▁미군
해줄
▁인도하여
▁물의
▁중립
▁사업에
▁토니
▁넷이서
▁수족관
▁따릅니다
▁고양이는
이십니다
lar
hy
▁알리는
▁여학생
▁관람
▁흥미롭
▁Tru
▁타격
125
▁친구에게
▁산악
▁장수
감이
▁딸을
▁부근
▁지원하기
▁올해는
▁살아야
야고보
깃
븐
▁손자
▁후보자
▁1930
▁영화가
▁생산하는
rist
▁접합기
uc
▁대제사장
▁분홍색
▁구획
▁fuck
▁있었습니까
▁Log
▁무섭
▁RT
▁(30
▁자전거를
▁일시
▁않나요
▁BBC
▁애쓰
▁알렉산더
▁사방
▁주어야
▁지도했습니다
이냐
▁정당화
▁압력을
▁좌절
함께
▁기뻐하
▁놓을
▁예수가
위원
USD
▁올바르게
▁가리켜
▁가져옵니다
▁근로자
▁부도덕
▁말했듯이
▁같네요
▁보도록
선생님
▁“[
▁TM
▁책에서
▁메뉴를
▁띄는
라며
▁기반을
욱
▁수용소
▁알람
▁로마의
즐
▁Apartments
▁예로
▁AMD
▁6000
사에
그러므로
▁보였습니다
▁탁월
▁편안하고
▁진행되는
Lib
▁Search
분이면
▁동산
▁명령어
pm
▁하나님에
▁선택하면
▁직원들이
▁휠체어
놨
▁벗어날
NV
▁Guest
▁적을
▁레몬
▁받아들이고
▁위스키
▁들어오는
▁서로의
▁아니하였
▁째
▁순결
▁From
▁말하노라
▁완전하게
▁이론을
▁Tom
spi
▁1940
▁OST
▁주행
▁로열
▁GO
▁그러지
▁!!
▁것이지만
▁기소
▁보호할
▁버리는
▁Direct
▁햄
관광
▁도달할
하였도다
오고
로그
▁뒷받침
▁죄책감
▁인스턴스
른다
▁Artec
▁브로커
▁트레일러
▁포스팅
▁시민들
▁올리브
▁동참
▁FL
▁몰랐다
pre
▁이쪽
▁찌
▁독성
▁이성
▁동향
▁고래
▁뷰티
▁지형
▁법에
▁내부에
▁더욱이
▁할지라도
그녀는
▁조사에
▁직선
▁고위
▁기업들이
하겠다
▁경찰이
푸르
▁페루
도르
▁Des
이었
그분
12)
▁Chrome
▁Cisco
▁쓴다
▁밀봉
▁Bal
▁누락
해왔다
▁기울여
▁끝나면
▁CT
▁험
▁시간입니다
▁사귀
0.1
▁아까
물은
▁품질과
▁규정을
▁공식적인
이런
▁원인은
▁물결
ces
▁EA
▁속해
▁외장
▁초기에
▁못했던
▁도구입니다
▁알림을
▁어렵지
위로
거리는
▁드라이클리닝
▁티셔츠
▁도와줍니다
이네요
▁주리라
▁풍성
▁있겠죠
▁높고
▁bo
▁과정의
▁99%
▁사랑하지
▁발견된
▁대장
▁Ana
▁정신을
▁86-
▁소아
▁낮아
▁끝났
▁2:1
▁신약
▁두루
▁릴
▁비평
▁카라
겼
▁퀄리티
▁바닷가
▁Software
레이터
▁어쩔
▁수술을
▁지문
그래서
▁자랑스럽게
▁Fort
친다
페이
▁위장
▁순서를
치가
▁근본적으로
▁산업에서
▁만나기
▁Hong
▁부분으로
232
리온
▁시장은
▁제공된
옷
이었으며
▁감사의
포인트
곱
▁Poly
▁꼴
▁벽에
▁Mal
TRA
▁해가
▁미만의
▁부분입니다
▁지각
▁인상을
UT
▁때보다
밋
▁프리미어
▁Ocean
▁융합
▁현실을
▁팬들
▁활약
▁걸리지
▁Cu
▁점에
▁숙소입니다
▁trans
플러
▁천문학
▁드림
▁마녀
▁괜찮아요
▁있네요
▁->
▁아니하면
▁오키나와
사람이
ros
▁수색
▁Bio
하였을
1.1
▁의복
reg
▁입력하십시오
▁쓸모
▁더하여
▁도시로
▁관해서는
숫
ool
▁방은
▁믹서
▁Program
▁앨
역사
▁임원
▁구성됩니다
▁성구
했었다
▁장거리
▁저녁에
▁비율은
ery
▁UC
▁영생
▁채소
har
대표
▁영예
▁Security
▁≥
정신
컴퓨터
빵
ska
▁글쎄
▁요구되는
받아
법인
▁수준으로
▁지내는
▁보아야
▁수있을
▁심판을
▁which
▁이르노니
모델
슨은
▁(0)
▁DB
▁은혜로
▁푸드
▁거주자
하시겠습니까
▁있느니라
▁투입
▁학살
▁존재할
AG
▁이전에는
▁Get
▁라면
LL
▁건조한
MT
▁SF
▁충동
▁세우고
Do
Hit
▁장르
▁신은
▁생활에
▁코드는
▁파는
셈
▁HS
말씀
주의자들
▁벤치
▁사용되지
▁관객
▁대신하여
아나
▁과장
▁카드가
▁적외선
▁차라리
▁Palace
▁쿼리
▁아픔
▁유지합니다
▁바로가기
데일
.”(
▁실용적
▁틈
▁걷기
금속
▁나폴리
▁world
▁산업에
App
▁3:1
바르
▁일종
셨을
▁로마에서
▁1973
▁피가
▁말자
▁비웃
▁배려
▁건물의
▁높이고
▁Net
rc
▁그러기
2.0
(_
▁선택하세요
rian
▁감싸
▁구성하는
▁don
▁반도체
▁들어간
▁배우게
▁AWS
▁이루어질
▁애니
▁주가
▁서서히
▁빠지
▁게시되고
dra
town
▁프로젝트가
▁레일
장애
▁사용해서
▁신기
tar
또한
▁적도
됩니까
cur
▁정기
누구
▁사실입니다
OO
16)
테이션
▁덴
된다면
▁구간
▁빌리지
모세
elle
▁District
▁장학금
▁에드워드
▁신들
필요
▁CF
▁땐
노니
▁창을
▁위조
▁구원받
▁공장을
▁희망이
▁파업
▁묵상
▁레저
오니
▁페이지가
▁명성을
닉스
▁개념은
▁비교해
▁신선
▁잃는
adi
내기
▁나누는
▁복장
▁넘겨
했지
▁편하게
다니엘
▁처리된
tube
▁용도로
엇
ette
eck
▁어셈블리
▁공화당
▁진흙
▁베이비
▁베푸시
▁백성은
▁개개인
▁문이
▁레스토랑에서
▁말씀하셨습니다
▁돌아가서
라니
▁25%
▁Master
▁실종
▁파랑
▁자체는
▁home
▁설치되어
▁Palm
다리
▁마음속에
헨
▁명명
▁말씀드리
▁Control
▁덩어리
독일
핸
bor
▁클릭하고
▁다채로운
▁마이그레이션
▁몬트리올
▁블레셋
▁일광욕
▁FIFA
▁전차
▁끄
▁고안
▁거슬러
▁대의
▁발효
▁응답을
▁추운
▁방침
▁신제품
▁라이더
ington
▁삭제할
▁쇼를
▁TA
450
▁유기농
▁DM
▁음료를
▁서면
▁망원경
▁단단
시가
▁플랫폼은
▁Japan
▁고수
▁모인
적이지
▁저지르
그들이
▁Dell
NI
14)
▁아이디어는
프레
▁상용
SL
마크
sto
▁부당
Box
▁만났다
▁하였는데
▁밴쿠버
▁큽니다
▁필라델피아
▁누릅니다
▁해체
mes
▁아들과
▁멘토
▁간섭
▁필요조건
Br
▁(25
▁성공할
있지
▁Ge
▁직원은
▁1969
만회
▁발광
▁Af
▁얻으
▁버전이
길을
▁떠나기
▁확인하세요
cat
엠
▁인생에
▁치과
▁어미
▁멋지
실험
렇
▁흥
▁적용할
▁입지
▁다크
▁않았다고
▁윤리적
결과
▁비영리
▁세르비아
▁드레스룸
▁But
▁사탄은
▁하였지만
▁연구의
▁포착
▁왕에게
SO
몬트
▁목소리가
▁먹은
▁못하면
▁이래로
▁FC
ida
들이여
VR
효과
ato
▁수분
▁복이
르노
법은
bil
려서
▁그들로
▁저항하는
▁모드에서
▁히트
▁급격
범죄
륨
▁다녀
▁맞추
aj
▁DJ
▁없었을
▁환영하고
2012
닛
테크
▁율법을
▁위선
▁바라보고
▁컨설턴트
▁습득
▁혈압
▁북극
▁곧바로
▁NA
una
anda
▁혐의
물론
▁치킨
▁정신과
▁오토
▁게시판
▁Av
▁사용하도록
▁짧
▁ho
▁고집
▁기념일
시간이
▁자국
▁시작된다
▁기본적
▁way
▁따르고
▁vs
duc
▁발레
▁간편
오프
어를
출장
쾌
ote
▁read
▁이브
LD
▁올린
특히
▁회화
▁Ste
앗
▁심리학자
플렉스
▁경기에서
▁상세정보
▁봉투
하셔서
▁연례
fin
▁고아
▁얼굴이
▁보았을
▁사랑할
▁Mos
▁결말
▁찾아가
▁Ly
▁거주하는
▁원칙을
uri
▁바꾸고
랍니다
Mar
언어
었는가
▁인출
▁마시지
▁관리하고
▁폴리에스테
▁BMW
▁Manager
▁유저
▁대리석
▁안개
▁근본
▁벌어진
▁죽는다
▁가루
▁엘리사
▁190
▁주장하는
▁사탕
her
▁되어서
부의
▁아이들에
▁당시에
ett
건강
'(
▁ᄏᄏ
▁유익한
▁맞습니다
▁3.1
▁다행
rain
▁들어온
▁경제학
▁say
공항
▁결론을
▁some
대한
산화
▁턱
▁지도를
▁레오
▁유용합니다
▁페이지로
▁저지
▁87
ander
▁따라야
▁발견하고
▁동성애자
테이
▁음악이
▁식단
▁심어
▁VI
▁프록시
▁매트리스
▁알다시피
하더라도
▁커튼
▁지체
▁씻어
▁에덴
▁주의를
▁취하고
▁Gold
▁못하며
tus
rent
▁실행하고
▁교회에서
2011
하시오
▁해설
▁좋아하고
▁빔
만일
▁play
▁End
▁얻는다
▁필수적
▁HE
▁해로운
▁이제까지
딜
▁영광이
▁Cr
▁죄의
ille
▁States
가스
▁총회
不
▁필요없
▁챔피언십
▁무의식
23)
▁SH
▁1.9
경영
▁음향
하겠느냐
하시리라
tv
장소
▁보일러
get
▁◇
170
▁다스리
▁이빨
▁적용되지
세트
▁Vo
▁플랫폼에서
졌을
▁준비하는
▁불가능하다
블리
▁평화와
▁수사
▁기다려야
▁단편
▁보장하기
▁대표하는
uro
▁젊은이들
묵
▁OK
박물관
▁못하였
▁떨어
▁즉각
▁배웠다
▁아니냐
IX
▁우회
▁누구에게
▁뽑아
ico
▁진료
하거든
▁카이
속에서
▁굴복
▁보편적
▁¥
▁정도는
▁나타내고
▁광야
▁사내
▁Sur
▁중요하게
▁추산
zy
▁부름
▁적당
▁몰라요
▁5,000
▁산을
발전
▁카드에서
▁모험을
-35
▁육체적
▁them
▁침입
ify
▁전선
▁Mega
▁속죄
▁ass
▁행로
▁바람이
▁최소한의
▁가진다
▁맞추어
inger
DB
▁고객님의
▁있잖아
톡
gr
▁저하
스러워
▁골짜기
▁최첨단
Boobs
▁휴게실
▁창조적
uff
▁공연을
▁행렬
▁길고
▁합격
▁상거래
▁침공
▁회담
▁방안
anna
▁기술로
▁표현할
▁싱
▁일호
▁수행하고
▁1983
▁대답했다
▁루터
▁상징적
▁Ap
▁빠르
▁아들들
▁생활의
kh
커스
▁흐름을
▁품고
▁Pass
▁Access
▁천하
시리라
▁마른
▁ᆞ
▁물질을
▁우주선
▁Dan
▁Pay
▁무인
형제
▁집어
▁Br
▁Services
▁제안합니다
▁누구인가
▁건물에
▁나이지리아
▁디저트
▁조만간
▁자습서
▁득점
▁낭독
▁마카오
▁골라
▁320
▁장사
▁생각하십니까
▁보시
말라
vel
클리
▁매월
140
▁결정은
▁이루어지는
led
▁건축을
▁대변
▁내렸다
▁Product
▁DNS
이었는데
▁깨끗하게
하다면
바시
▁시선
▁면허
▁경고를
치기
▁필요로하는
▁나게
▁수년
▁원하고
▁보괄실
▁프레젠테이션
비자
▁Online
}}
▁높일
▁도전을
▁합쳐
▁니켈
▁파트너십
▁Anti
▁합동
▁발표했습니다
▁하버
해집니다
▁문화에
ima
▁디렉터리
▁mar
▁누르면
▁같다고
▁MBA
▁찰리
▁실용적인
▁하되
gal
ense
▁관련한
▁회원국
▁물과
▁수년간
gate
▁패키지를
학년
▁정부를
▁하겠다
▁화면을
▁남는
봅시다
단의
▁내려오
▁해독
▁실패한
▁Xvideos
▁가볍게
▁브루클린
▁iCloud
▁대통령의
▁맡겨
시험
▁Johnson
pha
▁Page
320
▁사라질
테스
▁한국인
▁Space
▁염증
▁당신들이
▁소프트웨어에
▁죄인들
▁일원
▁중대
▁창조물
퍼드
▁함정
▁만드
▁만들어졌다
▁간직
stra
▁사이트가
lation
▁진리가
HR
▁밤이
▁했기
▁살펴볼
▁의미는
▁key
▁구약
▁문법
▁리터
▁free
▁숨겨
▁번이나
▁알고있는
▁출입
▁독립적으로
달라
▁맺고
▁하룻밤
▁관절
타나
▁점입니다
▁휴대전화
▁환자를
▁list
번의
▁어워드
질을
되었다는
▁배웠습니다
▁갖추
▁튜
rey
▁한번도
med
▁재앙이
기사
▁PHP
했나
▁쿠키는
FO
▁모기
▁IV
dam
▁무사
▁파생
▁부르심
999
으세요
▁나타난다
▁느껴지
▁목표가
erson
▁숨기기
▁명시된
▁증상이
▁총기
정치
VPN
▁부재
▁일꾼
이브
자동차
▁허용하는
▁스킨
▁계신다
▁펼
▁자막
ᅮ
▁프랭크
츄럴
own
국의
▁오만
▁확증
▁인구가
▁아이스
키아
▁판매하는
Get
▁fo
▁드려
▁법령
▁캄
증을
▁CL
되기도
이시다
▁무언가가
창조
▁may
▁분을
▁조달
▁확률이
▁끝나지
잡이
▁일체
▁정해진
▁신앙을
더라구요
▁운명을
▁배제
▁개국
▁움직임을
▁협력하여
▁높게
▁꿈은
웅
▁독일에서
▁이럴
come
▁응답자
▁섬의
▁그레
者
▁걸렸
잖
▁시작하여
oi
▁국가는
▁낳았
뚝
▁GT
▁렌더링
▁사이트맵
▁살인자
tern
▁향상시킬
소녀
▁사랑으로
▁싶었습니다
▁인상적인
▁체재
▁고고학
흥
인증
▁옵니다
▁면도
클린
▁정체성
▁Mu
었기
▁이로써
나와
▁선배
▁정교한
▁Sol
▁비스타
▁사실이다
▁일련
▁감추
어가
▁스테이
▁gets
▁카드는
▁바울은
▁구멍을
▁Internet
겼다
▁세계로
▁바르샤바
짱
▁취하는
▁WordPress
XX
▁친구들을
▁Bre
▁끝을
1.2
▁수있었습니다
▁Excel
▁믿으
▁아시는
▁말야
▁치명적인
▁1979
▁보내지
▁투여
▁되었던
board
▁피부를
▁그라
▁훈장
▁페르
▁inter
▁간호
▁재료를
▁위치로
▁병원에서
▁빼고
▁TED
▁오션
▁비누
▁단순화
▁말이에요
▁두개
베스
▁하지는
▁권장합니다
▁취급하는
750
▁확립
▁FAQ
▁적용될
▁화소
▁평온
▁일환으로
▁스프레이
▁왔어요
▁왔고
▁연금
▁받아들이지
▁Las
잇
▁문화와
줬
▁포함되지
imp
관을
▁포괄적
▁들어가지
▁신청서
▁GP
-29
지방
▁서구
,000,000
ique
▁개성
▁바비
▁버전으로
▁개미
rad
▁1800
▁사업가
▁고소
▁야훼
▁자유의
장으로
하고있는
시간을
▁왕국회관
▁튜토리얼
랏
▁종들
▁암흑
▁몬스터
▁자국어
▁외환
▁아가
▁연애
▁지역사회
rk
읽기
▁1976
▁개발하는
▁벌레
▁성명
▁싶다고
▁포괄적인
▁보르
▁포크
어로
▁협력을
해왔습니다
cast
▁Form
▁change
되기를
▁의견이
▁딸아
▁조직을
셨던
▁힘과
oma
▁승자
▁분기
▁Lee
▁중국과
▁갔을
나를
▁number
▁뉴스레터
▁맨해튼
▁기쁜
▁남긴
▁갑
▁더블룸
▁사례를
▁무엇이며
▁Lord
▁센터는
하곤
▁짜증
▁정수
▁아무튼
▁데려다
▁신중하게
▁수축
▁해변에서
IE
▁장점은
▁능력과
▁경사
▁외상
▁믿었
▁마술사
거라고
▁이번엔
▁맥스
▁주류
할만한
거예요
▁잠재적인
관은
mag
▁복잡성
▁멘
lis
▁선사
▁Series
▁겪은
▁도난
▁운항
뜨리
러시아
▁활동은
▁협박
▁불멸
그램
더러
▁탁
▁hand
▁민주
20)
AF
▁누군가에게
▁모습으로
▁기억해
▁받으며
gram
▁316
▁방송국
▁되는가
▁미국을
▁인접한
▁달이
▁수령
토스
▁행하여
▁죽음이
▁her
▁생성할
▁어울리는
더스
▁색깔을
▁사라진
▁듯이
인터넷
even
del
검색
▁입력합니다
텐데
▁가설
▁상업적인
어는
▁About
▁샘플을
▁위치는
▁스페이스
▁허용합니다
▁포켓
vol
▁활력
▁하옵소서
360
▁스카이팀
▁포인트를
▁사생활
▁Korean
space
▁2.3
▁열거
^
▁꽃집
하네요
▁학문
▁무료입니다
▁상업용
▁틀린
지니라
▁Nor
버렸다
▁용서를
iro
▁동화
▁Land
▁누드
▁한데
클레
▁Wal
▁찾아볼
낙
▁Law
▁태아
홈
▁옵
▁프린트
▁용감
▁샴푸
▁센트
▁깔끔
▁블로거
▁주니어
▁미드
▁카펫
▁UI
▁담은
▁GDP
phone
▁유죄
▁띄
▁NE
▁맡은
▁기온
▁싸워
▁미래가
▁시야
긴다
▁Mag
▁인류를
ᄒᄒ
▁펄
2008
▁로맨틱
▁당신들은
버렸
sl
▁Show
▁죽으
▁저한테
▁가족에게
▁회의를
▁후속
이름
▁사회가
▁수퍼
▁산에
▁과도한
rest
▁자네가
▁str
▁유량
시켰습니다
▁우드
▁팽창
옵션
▁Let
▁부끄러워
▁결핍
▁즐깁니다
▁우리들은
▁너희들은
▁Peter
coin
▁비닐
▁힘으로
▁처형
Bo
SR
▁AL
▁부러
DO
▁활동이
aki
▁레슨
▁Christ
▁들어갔다
▁동반자
▁계실
▁벌어
▁암살
▁시작해
▁수신기
▁전화기
/11
▁06:5
▁튼튼
▁Ya
▁불쌍
▁사면
자들과
▁말하
▁도착한
▁des
▁쫓아내
겠네요
▁CV
dent
▁아버지께
▁into
▁나만의
▁구하고
▁1900
▁복용량
미니
▁거리가
모스
▁필요하다고
▁없으
뜻
▁앉으
주를
▁브뤼셀
▁Azure
▁스폰서
▁타이베이
met
▁there
▁불량
▁딜러
▁통찰력
▁SI
▁본질적으로
▁::
▁바코드
▁모르겠어요
▁충격을
uni
▁들어올
으니까요
▁두는
▁Fo
▁룸에서
▁급여
▁FAT
▁간절
▁SEO
▁별명
▁AB
▁****
▁자회사
▁깨끗하고
▁Paris
▁경관
▁임무는
▁유선
▁Im
kW
▁보디
▁인기를
tics
▁쓰여
▁장교
GP
쥐
▁컷
主
▁건의
[1]
▁기대하고
▁Pinterest
▁스케줄
▁플랫
▁Skype
▁몽골
▁간략
▁전쟁에서
▁SGS
▁형벌
▁이탈리아의
▁WI
▁변명
▁리틀
▁일부입니다
▁지는
▁성벽
▁멋
▁봤다
▁장악
▁정도가
하겠
트가
▁레인
▁스코
▁증상을
ope
▁구석
▁부수
2020
rap
▁추가합니다
오스
▁back
비교
▁램
리언
▁OP
가톨릭
룡
▁Bank
▁나타났
쵸
▁둡니다
▁스낵
▁앨리스
▁Ed
▁위를
▁발굴
▁Sub
▁교육의
▁just
▁새틴
▁다큐멘터리
▁소식은
▁제외하고는
par
▁유감
▁제국의
▁천체
선은
max
▁Sign
산책
▁증후군
▁마을에
ient
▁튀
차를
▁장기간
▁까지도
▁노화
▁통합된
▁경우를
▁뜻은
▁투명한
▁주십니다
▁USA
▁맡고
▁IEC
▁각국
▁뉴스를
▁목록은
디자인
앵
▁발렌타인
▁비지니스
▁워크샵
▁모로코
▁알바니아
▁부사장
▁RAM
▁가르칠
▁말아라
▁아니기
▁입장을
▁현존
▁하노라
▁헝가리편
▁피스톤
▁운영자
▁없음을
▁기계의
▁王
▁둘러보
회를
연구소
rac
ssa
▁팔라
▁되겠
▁클리
▁방문해
리이다
▁im
chan
▁주최
▁기대를
▁Player
▁미안해
ized
자위
ates
ters
▁log
▁아니죠
▁실적
▁초당
EST
▁첫날
▁욕심
yu
▁남편과
▁여는
▁시대를
▁Over
▁Dream
▁database
▁작풍
▁곤란
▁Year
▁훈
pan
bol
들처럼
▁코딩
▁내각
▁텔
▁무수
▁키우
값을
▁병을
위치
▁다가가
▁바다의
▁view
hua
▁생겨
▁능력에
▁플레
주로
▁제공한
▁결정했다
▁선수가
▁생산성을
소를
▁영적인
원의
화학
▁James
los
▁sc
▁현상이
멀
▁질을
마사지
▁철수
▁Boulevard
▁삿포로
▁클리토리스
▁관제사
▁토너먼트
▁유태인
되었음을
▁컨트리
▁낭만적
▁타기
빌딩
▁크라운
▁편집자
▁문헌
▁이기는
▁좋겠습니다
ency
▁다루고
▁지혜로운
▁나름
▁뚱뚱한
▁어렵게
▁번제
Ar
▁반대하는
TX
▁1982
▁차이점은
▁시내에서
▁줌
▁정결
▁관할
gel
▁모르겠
▁여성과
권의
▁문의하십시오
▁동정
아스
읍니까
▁비추
▁버스를
▁Digital
▁화를
▁Cur
▁가리키는
▁마리나
▁많으
▁고온
▁케이블을
▁움직여
▁여행은
▁들어갔
▁그때에
▁모두들
2/
▁걸어가
뒀
텀
▁존재가
쓸
흔
▁비로소
뉴욕
▁애드
▁열렸고
▁예루살렘에
데이터
터스
▁폭격
▁하버드
▁효율적
▁받으면
▁기능의
리의
▁찾아서
-34
▁효소
▁필립
▁이모
오며
▁트리플
▁행운을
▁수상자
▁인류가
▁이스라엘이
▁경기도
▁정통
▁기르
렀
▁보시기
아서
▁용사
▁한국에서
▁모드를
▁명단
▁전술
할수
▁의사는
▁회상
▁한계를
▁신세계
mas
isa
흡
▁않는가
▁Arm
▁없으니
▁아크
▁생각하면
▁차는
▁까다로운
▁유란시아
▁Machine
▁(8)
셰
•
illa
▁Sy
▁수학적
▁징조
▁관례
▁중국이
▁습관을
▁집착
▁방언
▁아이디어가
겠고
일반
▁이지만
▁1971
▁연관된
▁사라졌다
▁에코
▁더하기
▁지구상
▁떼어
마저
▁웅
▁Dec
▁손목
So
▁눈치
▁통보
▁성교
하듯이
▁때문이라
메일
▁dr
▁전쟁에
▁머무는
▁번개
▁움직이지
▁쉐라톤
▁오클랜드
天
▁라우터
앱
속도
블러
▁펜션
▁평화로운
▁몰래
▁Class
▁실질적인
▁픽
▁실습
3000
낸다
Car
▁세금을
▁턴
▁받으시
part
park
▁보시는
다시
▁쇠
▁친구의
하긴
(6
▁전반
▁물었습니다
▁지리
▁찰
▁선도적
▁Tre
▁지정할
▁키가
▁주위를
물로
+]
악한
카르
▁많았다
뮤
▁숙소에서
웹
▁함께하는
▁포기하지
▁아라
▁하늘이
▁친밀
▁짐작
▁고객들에게
▁따른다
▁가끔은
▁Tool
▁음악과
▁질소
책을
▁즉각적인
생각
▁두려움이
▁인식하고
BB
▁본체
▁가까워
▁연약한
▁요구합니다
▁검색을
▁헛
▁끌려
▁처리를
▁TR
▁잠재력
▁Dar
DL
▁나왔습니다
FR
▁식사는
SK
▁헤르
▁보시면
하나님이
스트리
▁가능하며
▁고난을
▁됐습니다
▁어렵
▁더욱더
▁헛되
▁죽음은
하냐
日
▁쾌락
▁Mountain
▁있어서는
▁쿼드
▁펀드
▁George
▁test
▁그룹이
▁아파
▁PRO
으매
▁현세
▁빛은
▁윌슨
▁That
▁한동안
▁활용하는
▁알려졌다
파리
-200
oto
▁찢
▁십자가에
▁취해
VER
▁친화적
▁요셉이
7.1
▁싸움을
itt
▁문서에
▁롭
주일
▁돌아와서
▁그만두
것도
▁기억을
▁효력
.[2]
rie
▁도래
▁미스
▁행하고
단은
lb
▁Will
ew
▁한달
380
해져
▁화려
▁백악관
▁인공지능
▁횟수
▁인코딩
분석
▁맞춘
▁드러
316
▁추락
▁척추
▁도움이되는
▁스탠드
▁악의
En
▁다해
호선
▁France
26)
▁왕립
▁버터
▁빛과
▁조직이
셨읍니다
▁민간인
▁전문화
▁FO
▁라마
▁개발한
NG
▁이어질
▁video
▁2.6
이용
▁맞추고
▁작아
▁잔치
▁미래는
EG
▁마친
▁135
dd
깨어라
▁조직에
▁별도로
▁sh
따라
▁협동
▁속도는
cell
▁못하도록
▁분들께
▁Visual
▁마운틴
▁샐러드
▁의사소통
▁흡입
▁변압기
▁깃털
▁초등학교
GE
Mi
▁곳이다
▁중년
bed
▁없나요
▁의무가
▁그립
좋아
▁used
▁SSL
▁1975
▁다윈
zer
▁Vista
▁걸을
행사
▁기도는
11)
▁잊어버리
▁기업들은
▁지리적
▁다운로드할
▁받았을
HP
박당
boy
▁그러다가
▁글은
▁주부
▁내용에
▁https
▁평화의
▁mod
cker
▁가로
▁내게로
해지
▁끝나고
혔다
▁기독교인들
▁랑
▁둘러싼
▁쉬메일
▁답이
cas
▁수치를
▁겁니까
▁Tel
▁기인
▁나쁘지
▁없나니
▁차세대
▁하이퍼
/0
체가
▁하였더라
▁출간
▁미칩니다
▁마루
▁영접
▁←
▁꾸란
▁사무실에서
▁방문한
▁info
mAh
다윗
듬
▁저장하는
쪽으로
file
▁발표한
▁외로움
로워
▁태도를
▁반응은
▁영화관
계약
더라고요
렸던
▁출장
램
▁간단합니다
▁Bon
/6
이없는
▁TH
▁동물들
▁믿음은
▁역사와
hin
▁마법의
▁피우지
▁도표
▁나무가
▁Bluetooth
▁현미경
▁대역폭
▁탐욕
▁싶습니까
예레미야
▁07:5
웹사이트
상황
미아
4.5
IST
▁Eco
▁친구들은
▁울고
▁알고있다
요금
▁call
▁사건에
▁위상
▁낭
1-3
▁폐기
판을
▁선별
▁카드에
▁동물이
mat
▁Little
▁양도
▁바알
▁어떻
▁엑
체계
▁OF
wall
▁Sand
550
▁감당
▁girl
▁아닙니까
▁댄
▁섭리
▁조각을
▁활기
▁늙
▁3,000
▁GNU
▁메일을
▁Watch
떨
▁수혈
▁선교사
▁뜻입니다
▁1978
표준
COM
▁리가
▁꼽
▁품종
▁내려다
▁후쿠오카
▁인접
▁커서
부르
▁이용됩니다
(?)
▁Sho
▁제품으로
났습니다
▁함을
▁누군가는
가격
▁어른들
AU
하겠다고
▁당사에서
▁잠재적으로
》(
상으로
▁결정에
▁터보
▁돌아오지
í
▁Voyeur
▁유니폼
▁인지를
▁스윙
▁드롭
7,000
▁主
▁시멘트
▁시켰습니다
▁경이
사무엘
▁군주
▁살았던
▁양극
5000
▁Mill
었지요
▁참여한
▁소요됩니다
▁1/4
▁설정하는
ution
▁좇아
▁동원
▁새번역
▁화해
명으로
▁LE
검사
▁지니
▁닉
▁충전물
cing
었다고
▁증가했습니다
rm
식으로
▁느낀
▁가져와
▁숙련
▁혁명적
▁실업
▁만들어지는
▁베어
rn
sia
레아
율이
▁vi
출력
▁되길
▁맛이
▁생성하는
▁도구로
▁Plan
▁Breakfast
▁결혼여부
이건
▁멀티미디어
을때
▁여배우
dc
숨
▁캐나다에서
▁sha
ika
▁귀족
▁마땅히
▁병사
▁순간이
▁Multi
▁Op
▁해준다
▁되었는지
▁Times
▁응시
▁1981
▁Rose
ela
▁지났
인들에게
▁도리어
▁장점을
▁사회는
▁달리기
투어
▁Sta
▁102
▁노래는
▁기대할
▁수익성
▁Two
났
▁종교의
▁Travel
▁SW
▁써야
▁거하는
▁영화제
주가
▁더럽
▁전달하는
해졌습니다
▁지원이
▁있으신가요
▁아웃룩
▁리버풀
▁나고야
▁일관성
▁따르십시오
▁학기
▁평강
최고
▁기억하는
▁날에는
▁아니지
▁알아보세요
▁시작했고
▁스택
ori
▁메달
▁많을
▁give
하였느니라
난다
▁책망
베이스
▁차량의
▁간격으로
▁연마
▁것이지요
▁펄스
▁않았어
▁머리가
▁시각적
▁뇌의
▁학생은
부인
나스
▁이용하고
▁Ban
▁고려할
▁묶어
런트
▁Fair
▁메타
▁피에
▁킨
▁구조는
VC
▁팔을
▁작곡
FD
▁그물
▁Er
▁허용되지
▁찢어
▁William
▁아닐까
웁니다
▁클릭하면
▁살피
▁저렇게
▁다이얼
▁파리에서
▁넣은
▁목욕탕
▁남자친구
▁깨달았다
▁중요하다고
▁사진과
▁눈물을
되었거나
▁남았
▁지혜가
디언
▁정죄
▁대답하지
▁계정이
였지만
▁수정할
tory
▁달성하기
▁작업장
▁처리합니다
교수
▁치료에
▁벌어지고
▁First
▁창의적인
▁않아서
▁Map
▁실재
▁Bit
▁걱정할
▁배로
▁족장
▁말하지만
▁control
▁재개
media
ood
▁Bri
city
▁동등
▁텍스트를
▁Pat
▁이르기
▁화제
▁예수님께서는
▁초에
rum
▁IM
▁아랍에미리트
▁밧줄
▁아무래도
▁누군지
▁할로윈
▁페르시아
▁자산을
▁계신가요
▁공경
▁별을
▁자율
▁드릴링
▁하라는
▁그러던
▁호텔과
▁그들도
떼
▁Ten
▁//
▁중에서도
▁1968
방송
▁어린이는
▁AV
If
▁학교의
▁재앙을
▁Standard
ree
▁갖기
▁HPE
▁KO
▁딥
▁질병의
▁있는지에
~4
▁입원
▁CM
▁(7)
물의
▁전까지는
▁자바
2,000
▁탄력
▁입에
하다가
hor
▁로지
▁벽을
▁조리
▁강하고
▁변수를
▁현대의
▁식기세척기
▁바뀔
▁사소한
▁꿈꾸
▁들었
▁119
▁창의력
▁떨어질
nis
▁가까이에
Shaft
▁모습은
▁민족들
폴리스
▁완료되면
▁다음글
FL
▁명확히
▁육지
▁짧게
▁올릴
으로서의
계를
▁행정부
▁냄새가
▁간청
면에서
▁PSD
웃
스토리
▁니스
▁역대
sil
▁하다가
▁모색
VE
▁RAR
My
▁스테
▁230
▁시키고
work
▁나오고
▁Limited
▁맺는
▁MOQ
▁자체를
▁루블
▁벌금
raw
▁du
아무
▁케냐
햄
▁부분의
▁측면을
▁콤
▁설치를
마리아
리우스
▁몬테
▁텐데
pal
▁세균
EO
▁됐어요
▁출원
모리
▁포스
으실
▁싸웠
인도
310
▁실력
▁인사를
▁[3]
▁전투에서
▁간음
리그
Po
1:14
▁사인
2:14
▁보장하는
▁지켜보고
▁여러분도
1.0
▁포르
888
▁나트륨
▁프로그래머
▁어차피
▁공무원
▁이루어집니다
▁레이블
▁영이
▁수학자
30)
▁에이즈
▁ᄀ
▁있은
장비
[4]
▁Mat
▁막는
-31
▁Hand
▁배움
▁List
▁열차가
▁GS
job
▁스스로에게
nal
▁발생했습니다
▁우월
▁죄수
▁맞아요
▁앓고
바람
▁멍청
Fox
▁자녀의
▁불쾌
▁104
▁자제
라이드
▁650
▁이자
▁취사
▁표준화
▁부딪
bert
▁축하합니다
▁조카
qua
▁드래그
▁유지보수
▁앨런
▁분야를
얀
▁재사용
▁맞다
▁모르겠지만
▁특색
▁배척
▁감탄
▁고통받
꿈
▁Den
▁빠지게
▁15%
▁SDK
▁건가
크라
210
▁엄격
▁입법
▁NH
이었지만
▁경영진
▁않고도
▁자궁
태그
▁빨라
▁Off
▁제조업
오카
ats
▁선교인
▁섬에
▁적절하게
▁사건은
▁아키
사용자
▁수있습니다
▁투자자들
▁믿게
3.1
▁입히는
▁ja
▁05:5
▁너희들
▁음성을
▁일으켜
☆
▁판타지
▁끈팬티
▁세계대전
▁국제적으로
rim
함이라
▁둘러싸여
▁대리
▁오븐
▁강좌
▁모세와
파운드
▁계시록
▁묻지
▁한마디
▁이번주
▁₩
하마
▁웹사이트는
▁인상적
▁내역
Sp
▁답했다
▁롬
road
▁약제
▁Shi
보안
▁한참
read
▁생겼다
▁쇼핑을
▁웬
650
▁특징을
좋
▁초기화
onic
▁Ci
▁병력
▁이겨
▁요소들
nor
▁2.8
aker
계의
하기가
▁부면
▁감각을
▁이방
▁알아볼
▁헬리콥터
▁Association
▁슈퍼마켓
▁얼룩
▁흐르
▁코미디
▁필요도
했음을
▁도와주세요
▁재능을
▁Chan
265
▁전제
스테이
▁달라질
▁갈아
National
▁지옥에
▁읽었
겠소
▁차에
개는
▁총알
해줘
▁생각하게
▁4:1
되었는데
▁떠나고
▁아들아
▁저자는
▁묘지
스파
▁신청을
VAC
▁목표에
▁다윗에게
▁청결
▁Sil
▁드렸
콕
▁Blvd
▁스타트업
▁캐비닛
▁클러스터
▁풀무비
▁센터를
▁바를
▁파일럿
▁살면서
▁Flash
▁Food
▁있답니다
2010
▁언약을
▁하느님을
123
▁필사자
사람들은
▁Main
▁DA
▁브라우저를
놓은
덜
▁파일로
▁Bill
씨가
▁목적에
▁기도하는
▁정교
lly
▁전극
▁메시지는
▁스팀
▁하나하나
▁입히
▁임의의
▁빙하
▁뚜렷
▁HA
▁중복
▁개수
▁3:16
▁실무
스틴
▁텐
▁재미를
▁차지하고
▁기한
▁설명한다
2013
▁이상은
▁기분을
▁3.2
print
▁Bus
/12
아르
▁같을
▁etc
▁써서
▁아래와
ald
▁Systems
▁Hotels
▁소식이
▁EVA
▁갈릴리
▁사우디
▁훔치
JPY
more
▁침착
▁Heart
▁예쁘
▁철저히
▁악귀
▁수십억
▁조정할
녹
▁외국어
▁런
▁특징은
arm
▁정당한
사건
▁[[
▁사유
485
바닥
감독
▁돌아서
▁연구자들은
itch
▁들었을
세에
▁멸시
GHz
▁상영
▁태우
▁노력합니다
▁야마
▁원인을
▁플래
▁정상적으로
퍼스
그녀
▁Union
▁60%
▁표현하는
store
▁LAN
일지도
▁제국주의
▁Card
▁규정에
▁Tech
Vi
▁융
▁잉
▁Ulitsa
▁application
▁바빌론
▁꽃다발
▁탈퇴
▁위젯
▁접근을
▁회사입니다
▁ne
▁솟아
▁영국인
▁유해
▁조상들
▁고양이가
▁도시가
메뉴
▁내년
▁》
▁음식에
▁Rd
▁무엇이든지
mil
vers
▁년까지
래요
▁있을지도
▁독감
▁용지
▁전략은
▁지도자들
111
했었
▁Mr
▁선택해야
▁이곳을
▁테라
▁베푸는
▁씁니다
여서
▁동상
vil
▁진행되고
▁Site
해봅시다
Go
▁Cy
▁그리드
벡
▁Convention
▁샌디에이고
▁뉴저지
써
▁테일러
▁패킷
▁구사
▁재설정
▁놀고
▁이력서
▁생활상황
티노
▁GM
▁바가
▁뜰
종의
▁양질
▁자란
▁모으
▁혼동
▁불타는
냉
뭐
자동
종교
▁91
대상
▁RC
▁비용으로
▁참조하세요
▁투명성
TU
▁모던
▁본인이
▁자비를
▁중부
▁최후
hz
바나
폴리
▁소리로
▁바라고
▁드물
▁code
▁오크
으로도
▁찾으
▁Box
▁Ob
▁주체
▁해지
▁개장한
▁광대
페이스
▁컴파일
▁울리
▁브랜드명
▁Beijing
▁베냐민
▁여드름
▁History
버려
▁온난화
▁로맨스
▁Modern
skaya
▁Guide
▁노력할
▁방패
▁운동은
▁tri
▁통행
▁Just
▁파트너를
▁저장합니다
봄
▁보람
믿음
▁Full
▁알았어요
▁어릴
▁넣으
IVE
▁곡식
▁주물
▁장소로
▁즐기기
부모
▁리본
인에게
4.8
eli
▁화학적
Babe
▁전문가들
PU
▁범인
▁불에
▁표현을
Cr
▁주제는
▁브랜드를
▁데이터와
▁박물관에
되는지
▁대책
▁실린
UB
▁NT
▁캘린더
▁콘테이너
▁항생제
▁어려웠
▁규례
▁종교는
▁글쓰기
▁홈스테이
▁당연한
▁모스크
▁Roman
컨대
년전
▁루시
▁예수께서는
▁알려줍니다
▁빵을
ü
꺼야
▁크로네
노아
▁Pol
▁Condo
▁술집
▁예측할
▁어울리
▁성공에
▁바로잡
▁즐겼다
▁나로
▁태양계
▁해를
▁취약점
-32
▁테크
▁단락
상에서
AX
▁기관의
▁말하여
ENT
제작
rat
hotel
▁run
어지고
▁Kong
▁자체로
▁색을
▁IQ
▁당신께
▁믿었다
▁시점에
▁도피
직을
▁혼인
▁WP
0.00
▁디자인과
▁지켜야
▁필요성을
▁주소로
▁ODM
▁주소가
Shrine
▁똑바로
▁프라이빗
▁애호가
▁Social
▁징벌
▁시공
▁페이지는
▁Tur
▁팀과
▁부지
▁일본은
▁제자들이
38)
▁개선하기
이야말로
▁됐어
▁테니까
▁u
▁Exp
SU
낳
ese
▁등에서
ious
▁선발
처음
▁Yu
▁확신을
▁Pra
▁연합군
▁5.5
▁Gene
▁어딘가에
▁무너
cs
▁지혜로
/20
우며
둥이
▁분노를
une
버전
▁에베소
▁반도
▁이룬
▁자녀들이
▁실제적인
해온
▁설정되어
7.5
▁법률에
▁번씩
▁걸렸다
▁꿈의
▁돌연변이
▁샴페인
▁우선순위
▁치어리더
color
▁음악가
▁떨어졌
▁없으므로
▁터빈
▁검은색
▁페니
▁정한
▁태양광
watch
▁모리
▁NASA
▁불과하다
▁내부의
▁염두에
▁sw
ges
▁알아서
▁메시야
128
▁교수는
렉스
▁광주
기본
▁Dia
▁살던
▁세트를
▁1974
▁나랑
any
▁상관이
하였나이다
▁나갔
▁표를
▁오후에
렵
하듯
노스
▁하차
▁의식을
▁[4]
트레
▁해소
▁글로
240
스트로
▁차이점
▁BI
▁일부로
▁Yo
▁1%
▁끊임없는
▁듭니다
▁메신저
▁세비야
▁지정합니다
▁당했다
..."
잡담
▁GA
▁충분하다
▁조정가능한
▁묻고
▁Castle
▁보려고
재료
▁청각
미노
▁위키
크는
▁간편하게
▁시청자
▁맑은
▁직원의
현대
▁겨울에
▁Zoo
live
gue
동기
▁벨라
▁이동하실
▁기근
▁Ol
▁Van
▁위임
▁설정됩니다
▁산업을
하였던
▁요단
Ad
▁없어지
▁겨
tec
▁도널드
cept
▁들어가기
▁종류가
ines
수단
▁비참
▁여행에
셉
▁Milf
▁찾아보
▁요구할
▁Fetish
▁클린턴
5*
▁Mad
▁Col
▁멈추고
▁원자력
▁밤새
▁9001
▁행위에
워크
년과
action
ᄋ
스페인
John
잎
▁모양이
었지
이번
▁판매가
▁부르지
rant
NP
▁나눈
▁용의자
via
▁언어는
▁사람들로
량은
▁성장할
▁NI
▁공부하고
▁진보된
▁전문성
50,000
▁내밀
Time
▁불확실
님들
▁법은
▁감정이
440
▁아바
했나요
▁자신감을
▁냈
▁뮤지컬
▁AG
ivud
och
▁왼쪽에
▁여가
▁일간
일부
었습니까
▁기기에서
▁말았다
▁만들어졌습니다
▁곳의
Sa
▁불확실성
▁뜻대로
▁기관에
▁자사의
▁명령에
▁섹스를
받았
▁이것도
▁학교가
▁회의에서
▁종결
▁웰
▁하와
▁표시되는
▁쉘
하였음
▁아이에게
무려
LAN
▁레벨을
oke
▁미러
▁레터
▁선택에
▁이용해서
▁습기
▁않을까요
▁힘들어
▁가상화
세스
ffer
▁성격을
중심
▁본인은
너무
▁당신께서
▁유체
▁확신합니다
mont
▁Ji
▁없었기
▁당신들
▁길르앗
▁울타리
uan
▁균열
▁머물기
▁출혈
▁났다
dro
▁견본
▁내리고
▁받으리라
DN
▁미리보기
rack
▁XML
▁전체의
▁있도다
▁불린다
▁무용
량의
▁프랑스에서
▁동료들
무역
▁아직은
PH
▁집의
▁엄마와
▁작물
실로
흑
▁가슴으로
▁기록하고
▁에러
▁인턴
▁결박
금융
▁배수
KA
일로
▁비결
▁비교하여
ook
▁단추를
AUD
▁둘다
▁95%
▁냉각기
card
스럽고
▁채우기
soft
공사
▁밀리
2:9
▁속성을
▁평화가
▁파일과
▁연결합니다
9]
주문
라드
▁Michael
뭇
⁠
▁기쁘시게
▁훼손
▁two
▁스크롤
▁칼로리
▁캔버스
▁모노
▁제로
▁pe
▁간절히
▁off
friend
리이까
cial
▁마태복음
▁리스크
▁리브
▁이제부터
▁유학
▁프로필을
브로
주었습니다
▁포함해
▁Test
했으면
▁계열사
▁끝나는
▁컴팩트
yr
▁늘어나
음에도
▁잠깐만
▁뉴욕시
▁몰려
▁도미
▁right
▁부자가
▁보정
단지
▁Tro
▁도와주는
▁그림은
▁그것들
스에
care
ema
▁이룩
▁Ven
tha
▁모듈을
젯
▁균
▁QNAP
▁information
▁1600
▁켈리
▁사냥꾼
▁절약할
▁조셉
▁참고로
▁Fl
▁논평
하나님은
▁모델로
드리는
티나
휘
▁왕과
235
▁대수
▁부적절한
▁있겠지만
기위한
▁통역
낮
▁시킨
▁시작하면
▁추상
ties
-45
▁now
▁지칭
봤다
▁전화로
▁생성합니다
▁인정하고
▁배급
▁전통을
Un
▁사라지고
▁시원
▁변호
▁Pack
▁메트로
는지를
예약
4,000
나서
wer
▁기본값
온다
▁되면서
room
mun
▁러시아인
▁뛰어나
▁1977
▁전송할
▁집중할
▁TP
▁Kr
▁너무나도
▁모방
첼
▁Fire
▁뮤
▁청정
▁가능성은
▁벗어
▁Oracle
▁Edition
▁중심부에
▁간소화
uz
▁이용약관
▁보낸다
▁돌아다니
▁Wood
아마
▁정적
▁생리
▁없읍니다
▁지불해야
▁삭감
▁가깝게
▁사려
▁요트
▁대구
▁방주
영상
▁지구에서
▁page
▁개발할
▁개척
▁Tor
Mac
*2
▁Mall
▁서핑
▁하였기
▁깨닫는
쟁
▁생체
후에
▁---
▁프로젝트에서
목을
ache
▁하네요
데르
▁재림
▁판단을
감사
▁게임이다
▁배양
▁습
▁가요
stone
▁112
▁사출
실제
▁인터뷰에서
▁할례
▁their
▁윌리엄스
▁공상
▁일하기
▁회원이
▁Run
해준
Ph
▁Lin
▁전날
일러
▁복구를
풋
▁SOLIDWORKS
dic
▁발렌시아
▁칼슘
atter
▁성경적
▁04:5
하겠다는
▁밝혀졌다
iki
▁방문하여
▁심판의
▁배터리를
test
▁장인
▁맑
▁회원들
106
▁조국
▁브로
▁256
▁현상을
head
ket
▁다닐
▁BTC
줘요
bot
▁도자기
▁경매
▁사이를
unk
▁Sk
▁초보자
▁해주세요
▁없거나
▁불필요
ann
▁1/3
▁Fu
▁여길
▁높아지
▁우주에서
년간의
▁간이
.]”
▁므
▁여자들
포르
셨으니
▁트릭
▁잘하는
▁Robert
▁Rec
▁조금만
960
▁달은
출장안마
▁넓게
▁하얏트
▁Luxury
▁북아메리카
▁공간은
▁팔찌
▁인증서를
▁검열
▁잤
▁왕좌
▁사흘
▁태워
▁없노라
엘리
▁중심의
▁두렵
▁무죄
gs
▁너희로
▁자치
▁좋았다
▁편에
▁내보내
lav
▁아십니까
▁플랫폼에
▁회피
▁언어가
urs
에스겔
White
율은
▁하느니라
▁되었기
▁지역으로
▁위협이
▁기대합니다
▁평범
▁약탈
▁행하신
위해
▁차단기
▁마치고
돔
▁사용자와
▁때를
▁Luc
▁^
▁채우는
아들
스럽다
▁Code
춰
▁안전하지
▁생각과
전략
hot
url
▁바꾸기
▁신앙의
▁돌아오는
▁Instagram
▁팔레스타인
▁커피메이커
▁Court
rel
▁트럼프는
▁천만
▁압도
▁table
▁필터링
▁문제와
▁글이
▁지식의
▁디스코
▁땅은
▁독일인
▁실외
▁델타
lect
▁수반
▁강렬한
▁아랍어
뿐입니다
oul
▁날씨가
▁드론
▁몸과
▁밀려
▁굳
▁변함
함이니라
eas
설정
▁live
그레
▁돋
▁교량
▁Dong
▁숭배자
▁붙은
ete
▁아기의
눌
▁식사가
▁Connect
▁기적을
덩
하리이다
▁단호
▁Flat
▁장소들
▁관련되어
▁process
▁아브람
▁안타깝게도
▁고맙습니다
▁있느뇨
▁깨달았습니다
▁동작을
uld
▁장차
▁좋다고
▁Sexu
▁고체
uth
▁Christian
▁Type
타스
ular
▁바치는
▁피부에
▁나르
▁착수
strong
tom
▁PT
▁생활에서
eri
▁서로가
▁노력하는
▁하나님이여
ᄏᄏ
▁제거할
▁출신의
lum
▁테이블을
▁브랜드의
사리
▁마개
0-
heng
▁직전
▁(27
▁백업을
▁사울이
▁분량
▁구체적
▁과학의
▁넘치
▁보편적인
▁당신들의
▁첨가
oe
▁더해
화는
無
▁2015-05-0
▁Motel
▁타이밍
▁합병
▁허가를
▁지점에서
▁성을
▁PV
▁하는지를
▁Jack
▁못했을
▁개인이
유로
▁뜻에
▁Boy
▁열정적
▁미소를
▁입어
길이
듀
띠
▁찬미
place
▁내년에
▁병사들
▁Line
▁유학생
▁왈
마라
▁PD
▁LI
▁나오게
▁간식
▁진실은
▁하나님으로부터
▁Son
▁역설
▁부친
▁케어
▁깨달았
3.3
▁DI
인생
▁Bell
니언
갤
▁베네치아
▁키예프
生
▁암컷
▁러셀
너의
▁깨어나
너스
▁성관계
▁콘도
▁주제를
안을
▁자신은
신다면
▁어린이들
▁아시나요
▁123
oon
▁소변
WS
een
▁꼬마
▁1963
▁말하라
▁MM
▁조합을
나갈
▁이루기
▁06:0
▁룰
▁모델에
▁편안함
붓
아일랜드
▁임재
▁바쳐
▁욕실에
결혼
▁했지요
▁열쇠를
▁AA
▁here
850
▁삭
▁사람들에게는
▁증가하는
▁성공은
블라
▁BR
▁건축과
2.2
▁데카
▁이론에
▁EB
▁탕
▁하수
헤드
하였으므로
▁과학은
혹은
부르크
▁Gallery
▁슬로베니아
▁최우선
▁훔쳐
▁스케일
▁타겟
▁지어진
▁올리는
▁달의
▁해야만
▁채굴
사람들이
▁반짝
하시길
단위
▁고통스러운
▁바에서
▁나타낸
▁내셔널
▁제인
▁뿌리를
▁대체로
▁열립니다
edit
▁불평등
▁add
올라
▁마가
▁행동하는
만으로는
▁군사적
▁좋아해요
각형
▁섬길
▁회당
▁Maria
rick
▁공항은
▁결합하여
World
미술관
▁두어야
조정
▁107
▁상금
▁증명서를
▁2500
▁도면
놀이
레드
▁리프
exe
바다
▁돌봐
▁대행
▁숙제
▁의상
▁디자인에
▁연도
▁배정
loy
▁정부와
▁뭄바이
▁에스토니아
랬
▁궁금한
▁속옷
▁리듬
▁있으니까
▁유럽연합
▁별이
▁아프리카의
▁복사본
▁공예
▁끝없는
▁코드가
업계
▁조이기
▁압제
▁기회는
tail
쉽
▁지키지
▁파이어
▁다기능
콩
▁그러는
▁가정을
▁사용했습니다
▁힘들다
▁RSS
▁디자인의
▁기판
▁유대인들
▁귀한
▁Mus
▁산물
▁일이야
▁기울
셨도다
▁뭔가가
▁자동적으로
▁비행기를
▁효과는
▁증대
▁포르투갈어
▁제자들에게
▁주민들
▁상이
▁넘기
▁향하는
▁SL
▁었습니다
MAX
▁파산
▁다행히도
찔
▁method
▁푸에르토
늄
▁윤곽
▁조식제공
▁워크숍
▁고강도
▁Western
▁손톱
▁확실하지
▁추녀
▁증거는
▁무겁
▁발생하지
▁법규
▁제어할
▁편이
타워
▁예수께
iti
Li
ude
▁SR
ston
첨
장관
벼
option
▁찾았다
▁않죠
enti
▁연동
MD
▁Lane
▁앓
▁타인에게
▁UP
▁에너지의
이야기
▁해변에
▁여론
차량
▁시도를
▁기업으로
▁거요
스틱
▁service
▁해상
▁아브라함이
sure
▁저장하고
▁센터의
▁ON
▁필터를
▁GE
▁시계를
▁관리자는
▁Step
▁하러
rill
▁작업의
▁짓고
▁폭넓
킨스
어느
▁활동의
▁테러리스트
▁놀라움
서요
▁FBI
▁원하십니까
▁제거하고
▁갈수록
▁황색
▁작성된
기념
▁작용하는
▁비전을
▁누리고
▁셈이다
▁교육에
mond
▁Nov
▁통상
했었습니다
님을
▁기업들
▁고기와
hang
▁나갔다
▁제비
▁부모님이
▁죽이지
▁잘못을
▁반응이
▁연로
어리
260
▁서울시
▁친구들에게
▁있는다
▁순수성
▁pri
▁145
▁불가능합니다
▁전반에
0.3
▁백성들을
▁이십
▁Cra
▁책자
▁When
▁Language
▁스판덱스
insta
▁버섯
-80
▁가능할
▁격자
▁식욕
▁스테이크
▁무너지
▁ATM
▁하셨느니라
▁실례
▁스테이트
▁스피
chen
▁$2
▁가져오는
▁CSS
▁let
▁틀림없이
▁일이었다
▁비롯하여
▁수행하기
▁통화를
▁살아나
▁부리
7.4
▁설치하고
103
▁사용하거나
▁자로
inal
▁특이한
▁지사
▁번역자
▁단위로
▁등은
(12
▁주제로
▁미디어를
픈
law
▁영화에
▁설계를
▁기사는
라노
280
▁망가
마스
▁침대와
▁HR
(“
play
▁교육은
▁그분께서는
▁Cho
▁깊숙
▁방화벽
▁불균형
▁다국어
▁온도를
▁작별
▁놔
▁불빛
▁오늘밤
dar
▁채울
찍
▁게이지
▁되었어요
▁일어서
어린이
편집
▁TE
▁끼치
▁확인을
mart
stru
▁숭
아담
▁함량
▁자기들
변화
▁젊음
▁음란
▁던졌
▁108
▁우승자
▁마르코
▁마침
▁알면
▁DO
▁아람
▁Ter
▁연수
▁버전에
itz
세탁
▁릴레이
▁수감자
▁인식을
▁영혼은
여명
▁이비스
▁고발
릉
▁Public
▁Theatre
룽
퐁
▁독수리
▁select
▁팔레트
▁방문을
▁차원에서
▁Temple
▁괴로움
ban
▁실패를
▁메쉬
순간
▁위엄
▁좋았습니다
▁싶었던
▁빠졌
▁싶으면
▁세례
cor
▁야망
▁행하지
▁접종
▁과실
▁제공업체
▁복음서
▁프로세스가
▁사용자에
Si
▁히터
▁포도원
kov
▁좋으
!'
등급
View
체스터
▁안겨
lement
▁144
설명
▁가르쳤
▁상태입니다
▁class
협력
105
▁물러
▁사용량
▁표시할
3.8
▁Gran
▁power
앰
山
▁불순종
▁콜레스테롤
▁두려운
▁가라앉
▁성직자
▁유방암
▁엎드려
▁Young
fit
▁컬
▁수집하고
Star
▁다음에는
▁금식
▁항의
▁Wall
주십시오
▁미쳤다
▁관료
▁저희와
▁와인을
▁자들과
▁Alt
▁PCI
▁서류상
▁bar
▁온유
▁깨닫고
▁부문에서
▁(32
▁함으로써
▁진실이
▁토대로
0.2
▁발전에
▁하지요
재단
아주
ulation
▁뒷면
ject
▁물로
곳의
있었다
세기의
▁존재하고
▁Nord
▁나가고
▁제재
▁왔어
ender
▁겉
▁이미지가
AND
▁기억하십시오
▁Well
▁상상해
▁경찰관
코프
드리고
aga
▁서클
▁늦었
되나요
았고
▁귀중
▁Framework
▁휴지통
▁요르단
▁Version
몬드
▁닌자
▁큐브
▁남아있는
▁Report
▁정직한
▁BA
▁높이기
▁아세요
▁엽니다
▁논문을
▁점진적
▁감성
슬러
460
▁단식
▁구원자
▁내일은
▁측면에
BP
▁핏
▁산에서
Net
▁지경
▁망할
▁노르
▁Mary
▁삼키
eria
톱
▁영구적으로
오피
▁모세는
▁창에서
dis
▁원망
▁모으고
▁모금
▁용량을
맵
▁열조
▁믿음과
▁위치가
▁Care
Comment
▁기억나
UC
▁GR
▁Bet
▁시작해야
▁재발
쁘
▁투표를
▁대중의
▁강력하고
▁건데
cd
▁연소
▁번식
▁동의를
point
하겠습니까
stro
▁언제든
▁동물은
3:14
▁공통점
▁QC
▁시도하고
▁덤
▁UEFA
▁글로리홀
▁기쁩니다
▁전신
orn
▁와일드
bal
▁스콧
▁must
▁대회에서
▁국방
▁부흥
레이크
▁step
▁살아있
해줍니다
술을
MU
▁주옵소서
▁10:10
전체
▁전도인
렸고
▁창설
▁혜
▁죽임을
▁현실적인
▁나무로
▁감시자
밖
▁봤습니다
▁Arts
▁식물을
oxy
▁것이오
▁노력에
▁이니라
▁설명하고
▁섬기고
▁지나가는
▁무리를
~5
▁선수권
게이트
iya
▁보아라
▁옥상
As
lea
▁조직은
▁People
▁잡았
태평양
▁군함
▁기억에
▁고침
▁주님께서는
▁한국에
쿠스
Free
▁주변에서
▁살아남을
▁남북
▁장력
▁2-3
▁중소
▁흥미를
▁사후
▁ABS
▁리치
▁관계에서
▁거민
▁12:1
▁의학적
GH
▁블로그에
출애굽
▁굴착기
▁시뮬레이터
▁여성생식기
▁자존심
▁대서양
▁유레일
▁블레이드
▁following
▁잠잠
▁Martin
▁달라집니다
▁세우는
▁대피
레트
▁다운로드하고
▁메탈
호프
센스
▁기능으로
die
▁웃는
▁때에도
▁추론
▁젊
성서
▁벗어난
▁쉼
▁베푸
▁Jan
▁이벤트가
▁재판관
▁RAW
▁선명
▁못한다면
▁Hard
▁개봉
유산
▁보거나
키스
▁PH
▁로이드
▁말과
▁210
▁Tan
▁뭐라
▁완수
▁어려움이
▁1100
동영상
▁썬
▁역사에서
5.6
▁하나다
].”
And
비디오
▁시료
▁당시에는
vision
▁Are
주셔서
▁자기에게
▁성공의
▁공백
▁일몰
▁때문이었다
▁키워
▁지속적
▁염색
년은
▁봤어
▁가정용
▁적용된
룰
안에서
▁생생
▁Valley
▁파라미터
Book
▁아케이드
▁GSM
▁블랙홀
▁동맥
▁망설
EI
분간
▁현저
▁태양이
▁구비되어
▁실질적으로
▁오른쪽에
?—
▁기기에
raz
CAD
행복
▁저택
▁동남
▁랭
▁실은
▁720
▁공부하는
▁살펴보면
르드
▁피팅
▁규칙은
▁사안
다르
▁올라오
▁열릴
▁자격증
▁1939
▁하나이며
쌍
▁달러에
▁드린
▁온도는
위험
▁하느님께
유다
▁익숙한
▁해에
▁어느날
pack
▁들어와
▁삽화
로도
▁운영을
▁인도에서
▁프론트
tract
▁바쁘
위원회는
▁약국
이니까
▁움
▁수중
▁그다음
▁access
▁애틀랜타
▁불행하게도
혹
▁어땠
▁헤드폰
950
▁DIY
완전
▁오스틴
▁꾀
▁살롱
▁좌표
▁Mur
종이
▁릴리
▁VM
uel
▁group
해주신
▁의논
▁시즌에
가지의
배우
▁공동으로
▁아이디
환자
▁Pic
▁용해
▁아닌가요
nb
▁불쌍한
▁생식
ó
▁용기가
▁성령이
▁긴장을
▁혼합물
3.0
큼
▁참석자
▁여기가
▁학생들과
▁장비는
▁션
hai
쿠라
볼까
▁Asia
▁유연
▁아닌지
▁Kh
▁뜻하는
▁낸다
GM
上
뚱
▁나폴레옹
▁식료품
▁히스기야
▁스케이트
▁발자국
▁뜨겁
▁Republic
▁누르십시오
▁옳다
▁대답하되
▁않으므로
▁중독자
▁레닌
▁준비해
▁환자에게
▁수감
▁Foot
▁선택해
▁Story
스타일
빨
하나님께서
▁big
▁놓았
▁사지
자원
▁나보다
▁어딘가
▁완비
▁윙
▁부디
▁발생한다
9.5
▁1964
▁KR
▁살펴보고
▁밝기
▁서버가
▁데이터베이스를
race
▁사용하려면
상담
▁미국에서는
▁min
meter
▁걸로
International
▁Host
▁갖다
BE
HI
▁짚
3.4
▁불길
▁포위
심으로
▁사람보다
▁전문가의
▁감명
▁자손의
▁지나간
▁보증금
▁연구와
а
и
▁바티칸
▁펌웨어
▁대시보드
▁object
UP
▁help
▁전반적으로
▁유쾌
▁하이킹
▁리스팅
번째로
▁입찰
▁결의
▁Sin
▁따위
▁Wil
▁LLC
8.2
▁가담
▁풍력
▁끄는
▁OD
ott
▁타임즈
▁Area
▁부모님은
▁굉장한
▁프로그램으로
▁삼고
식물
text
KI
▁Tele
▁되었다는
▁하이드
▁순회
▁알아보고
▁무어
치게
▁빚을
군을
▁」
▁이미지는
▁잔인한
▁있었음
▁Trade
▁코리아
▁있네
▁지정한
▁걸린다
대요
▁이벤트에
학회
드릴게요
▁주소는
▁역사적으로
▁동일하게
▁사무실에
▁랙
점으로
선수
.4)
▁사고를
▁먹어야
▁세울
▁(9)
▁배너
뤼
▁Building
▁through
▁vCenter
▁중소기업
▁피난처
▁오스
▁외면
▁케빈
▁구체
▁꾸며
war
하고자하는
▁Kates
당했다
▁하워드
▁보조금
ified
▁Imp
▁온실
아트
▁있었으면
▁자녀들아
▁창조하신
▁다운로드하여
▁Fall
줘서
▁고객들이
사키
▁일시적으로
▁IO
▁모델의
▁양이
▁비율이
rio
▁네트워크는
▁가치는
ATE
▁Bro
BL
Windows
VO
▁봤을
▁도시와
tive
뿐이다
▁필요하다는
rich
▁과거를
작품
▁목사님
▁기도할
asse
▁남성이
▁사령관
3.9
lad
▁사라지
아직
측정
▁체스
▁되었는가
▁결정적인
중고
▁09:00
ᄒ
▁맞았
▁견해를
▁지원되지
▁뚜껑
▁이더넷
▁견뎌
니카
map
▁뒤집
성장
▁출근
▁sign
▁다양성을
▁존귀
▁롯데
▁같았습니다
▁알고리즘을
▁없었지만
▁크기에
▁이웃을
▁건물입니다
▁사서
▁스페인의
▁본다면
▁어때요
▁Make
▁103
▁Steam
하였노라
▁의도적으로
▁자손에게
▁조건에서
▁빌라는
▁나빠
▁사라졌
▁길거리
월까지
▁철저한
▁섹션에서
▁수집합니다
▁코스트
All
▁요금이
▁Int
▁멍청한
우라
▁뉘
▁있으시
▁스탠
▁스토
▁사고가
▁시작되는
▁먹으면
▁곡을
사람들
스케
▁Hope
뼈
▁하십니까
▁그레이트
▁See
▁발병
roll
할지니라
▁사람들입니다
301
절을
▁시작을
▁지불하는
ij
▁서방
냅
▁수명을
펙
릅
지대
▁고열
뱃
▁every
▁should
▁애비뉴
▁Explorer
▁편평한
▁피라미드
윅
졌어요
▁Downtown
▁무늬
▁있소
▁서버에서
▁잊고
Pri
▁앤드류
▁화염
▁실존
[2]
께요
스텔
▁ha
▁바다에서
▁즐기며
▁광범위하게
ili
시겠습니까
셔도
▁정신병
PCS
▁엑스포
아요
Mpa
▁있으면서
102
▁봤어요
▁이것들
▁정치가
▁가족들이
겠네
받기
지난
▁취약
▁베니
TY
▁럭셔리한
▁Wet
▁공산당
▁귀에
▁영국과
숭
HTML
미네
시리즈
▁국가와
▁Ze
구리
▁Hua
▁마리의
▁놀랐다
▁사업은
ISO
▁채권
▁생성된
▁여성에게
▁치료하는
시민
▁이니셔티브
♡
▁people
▁르네상스
▁스캐닝
▁펭귄
▁목걸이
▁지남에
▁조심스럽게
▁밝혔습니다
▁정녕
acc
▁잠자리
▁수컷
▁대법원
▁끝낼
▁가로등
▁매력을
▁규칙이
▁믹스
▁탭을
▁로딩
uang
▁Views
▁결정합니다
▁플래그
▁전후
▁가지고있는
▁너한테
anger
▁550
▁상원
▁스웨덴어
ku
▁소유한
▁설명한
▁이송
▁여기고
▁포함될
▁마셔
▁종속
▁환경의
▁매직
▁비만
▁행위는
▁리스
▁설명이
riv
(11
▁수강
▁킬로그램
▁너무도
▁지식은
▁Scan
▁전동
▁세관
▁말씀과
Jo
ove
▁마스
▁은혜가
모토
패스
▁입에서
▁본사를
6.2
mate
텍스
mission
▁트랜잭션
▁토마토
▁넷째
▁트레이닝
▁앎
▁피닉스
[“
▁느꼈습니다
▁돕습니다
▁초상화
▁궁극적
▁파고
jan
▁원활한
▁모압
▁얹
▁쟤
성인
▁노동자들
▁특허를
▁키우는
▁개종
round
roid
▁야심
▁비데
코리아
▁조처
▁Metro
타카
▁약혼
▁문화가
istic
식품
▁청동
▁있든
▁반전
▁다하여
▁나선
▁공유하기
▁약품
▁분리된
UI
▁속히
▁끝에서
▁Queen
리얼
▁미용
첫
【
▁예상치
▁편한
▁연회
▁달려가
▁멀어
add
nit
▁고려해
▁TC
BN
▁도착했다
노동
▁문서화
▁트레일
long
였다고
되는데
▁11:00
▁컴포넌트
道
공식
▁MPEG
▁준비된
▁분들을
봇
제공
험
▁세속
▁정책이
▁잃어버렸
dle
▁지휘관
▁드라이
▁나누기
▁리라
▁손길
▁Why
▁추수
▁꾸미
▁콜린
SF
▁가치관
▁관리에
▁SIM
▁전문가를
▁편리합니다
▁농민
▁때입니다
▁Para
▁생각했던
▁Name
▁시장이
▁long
현실
▁open
face
▁주신다
non
▁엎
RF
때까지
▁보신
▁송금
▁지분
▁느끼기
▁어머니와
▁인류는
케어
▁방문하십시오
▁년전
님과
▁이르지
▁말씀하셨
▁연산
ches
▁내보내기
콥
▁Lodge
ー
▁아시다시피
▁복도
▁헤드셋
▁Gor
▁대다수의
▁Tea
▁찾는다
▁몰입
▁슬프
▁유리한
▁본격적
▁Games
부대
▁이용하면
▁어린이의
code
gon
▁딴
▁Ham
▁아빠는
▁경계를
절에
▁만나서
▁위기에
▁셀러
▁강점
▁Bor
▁대변인
▁화목
▁현실이
▁왕복
▁했지
▁Whi
▁(10)
wan
▁정글
▁삼가
▁대기업
▁플랜트
rl
▁non
HT
▁통제를
률을
▁차려
아내
▁마을을
거리가
▁남자들
34)
▁레이디
term
떡
▁월급
▁했었
▁정도를
▁거들
▁come
▁{{
▁공격에
시까지
▁기울이고
▁미국인들은
타르
omb
ech
▁작성한
Data
▁배출량
▁구비
▁별들
▁href
▁Private
▁오리지널
▁코펜하겐
▁미네랄
▁Active
▁차별화
▁환대
▁표징
▁Za
▁자유주의
▁분들에게
▁스위트룸
▁report
▁ZIP
▁무효
▁국내외
▁만들어낸
▁찾았습니다
▁훈계
▁향상을
▁기업과
▁지적했다
ido
▁정서적
민족
▁죽습니다
매우
▁놈이
▁협
▁시작하십시오
▁미움
▁적극적인
▁시동
주간
▁하느님은
▁궁극적인
▁하였던
쓰기
llow
▁크기와
▁최근에는
▁뻗어
▁안정되어
▁해야할
▁파트너와
▁상관없
▁스카
▁본토
ANG
109
▁구하라
▁생산할
▁plan
▁속도와
▁et
▁위원장
ila
케이블
이었기
▁유형은
▁앨범을
zh
tent
▁당기
▁장성
▁생태
zhou
ily
▁먹이를
▁BL
▁환기
했는가
▁Euro
▁Festival
▁옮겼
有
▁만끽
▁율
▁아닌데
▁평평
▁Motor
▁횡단
그건
▁곤경
▁환경과
▁라이온
지식
4.6
▁사람에게는
▁UK
▁만드신
▁있으니까요
▁따뜻하게
▁온라인에서
▁제한을
▁파티를
▁교수님
서버
▁Share
▁물가
등을
▁범위는
ough
이시며
▁창조자
.[1
▁Application
▁텅
330
▁동방
▁자연과
▁Human
▁공원에서
▁치우
1.4
▁안정성을
▁취하여
▁4.2
빌립보
▁열방
▁자도
▁1919
▁혁명을
▁이기적
▁심지어는
▁출판사
▁제자들
▁집중하고
list
▁Rue
▁만들어서
fil
▁허용하지
▁번만
▁아르메니아
▁어드벤처
▁오두막
▁컨버터
▁컨베이어
▁글래스
▁도저히
▁앗아
▁Baby
iga
▁플레이어를
pat
▁teen
▁계승
▁국민의
▁행복해
었느니라
▁거주지
워스
▁백성들에게
serve
▁추가하기
▁리오
bet
▁106
이시라
▁있잖아요
▁시신
▁행함
2:21
▁여우
▁틀림없
▁미국으로
▁마찬가지다
▁부른
shop
▁추천할
▁자라는
▁사르
들에게도
▁소프트웨어와
▁않으셨
▁도리
▁맞은
▁간편한
하자면
▁Eva
▁영웅이
▁공장은
▁놓았다
▁TOP
▁자식들
크리
▁마구
▁벌어졌
▁뻗
▁안쪽
▁창의적
캐나다
겹
[5]
핏
9,000
▁기록되어
▁호주의
▁take
▁방법이다
▁맛있
▁종목
▁해본
▁127
▁기념물
▁사용자들이
▁Il
햇
▁Cottage
딤
▁비둘기
▁NTFS
▁떠올리
▁빛으로
1.3
▁바나나
▁재구성
▁소방
▁궁극
▁누리는
▁계약에
▁Pl
▁계심
품질
학습
▁공허
▁오타
▁환자들
▁Cas
▁인내심
▁미스터리
▁요구한다
▁경청
▁곳곳에
▁반항
▁세탁물
▁미친다
▁온전한
▁여행사
▁버렸습니다
▁날려
2009
▁2*
▁1965
▁통제할
shan
▁빌라도
주민
▁전통적
▁돌을
▁돌아가고
했지요
▁서명을
셨는데
튜
졸
바벨론
이탈리아
▁유머
205
eh
었더라
▁강하다
▁아브라함과
poli
▁질의
▁솔루션입니다
▁예루살렘에서
천사
▁체제를
▁어쩌
▁Capital
▁마닐라
▁프로젝터
댁
▁Xiaomi
▁아쿠아
▁고화질
구매
▁모서리
▁규범
▁왔던
bird
▁능숙
▁OLED
▁LO
▁가깝습니다
▁자손들
▁설명하기
▁Hor
▁잃었습니다
▁압연
▁폴란드어
▁배운다
▁상단에
▁진행할
리움
▁있더라
▁로우
▁에바
▁토대
▁이슬람교
▁마을에서
▁해치
된다고
▁크레이
▁기쁨이
ants
▁덮여
▁되라
▁월간
▁Mari
▁어머니를
▁엉
영원
▁질문들
▁때면
▁연구생
있었
▁구축하고
▁우주에
▁성경이
▁절정
▁삼각
▁구축하는
▁구독자
▁전망대
▁크레인
▁Kim
▁유형에
▁킴
▁시작될
아리
▁감량
ime
▁표시하는
▁기하학
듣
공화국
바이러스
▁발라
▁줬
▁세가지
▁Opera
hp
▁여기지
▁나타나고
▁가지의
▁Ram
▁금액은
하시니라
▁부끄러움
▁수수께끼
▁코멘트를
▁크로스드레스
▁여기저기
▁첼시
인당
▁오프닝
▁micro
▁운영체제
7.6
▁살포
▁개인정보보호
▁열을
▁않겠습니까
▁예물
▁대용량
▁있으세요
▁파르
▁있지는
2.3
무지
eter
▁펼치
▁인증된
▁성장과
▁이론은
▁Rights
▁6.0
성공
▁건강하고
▁생계
Man
▁서기관
아침
▁총격
▁협의
▁1961
---
▁지도자들은
▁돈으로
주었다
▁총독
▁Sen
▁킹스
▁Edge
▁대면
-33
증인
▁적색
▁질병에
2.4
sec
▁그렇고
▁폭로
몇
▁물리치
▁Geo
▁General
▁떨어졌다
▁치료가
▁전례
path
▁모발
시즌
XT
▁전문가들이
▁좋아해
목록
▁입력하여
▁사본을
▁구성을
▁이루어졌다
▁연락하기
▁무단
▁강을
▁1300
▁Secure
▁아미노산
▁넬슨
▁기후변화
▁Think
▁유물
▁환승
▁고맙
core
▁칼리지
▁창의성
range
1,000
라이프
▁상수
▁Fish
▁합법적인
하신다면
▁자비로
▁올바
▁과학자들이
해주고
었나
▁제한이
134
았던
▁삼는
▁루비
▁상당수
대기
▁잃어버리
▁장시간
▁고착
bio
▁열었습니다
▁이념
▁녹차
▁신발을
▁주었고
▁온통
▁If
▁마찬가지입니다
▁노래가
▁투르
▁요소의
말을
▁Dor
▁high
▁판매에
쥬
벗
▁움직이고
라이즈
▁관리자가
글리
▁핵심적인
▁우승을
▁화면의
플리
▁―
▁들으라
Play
툰
쿤
ו
▁McAfee
▁겨드랑이
▁에든버러
▁우두머리
쑥
▁Education
▁불공평
▁아울러
▁웅장한
▁클리닉
198
▁생략
▁Recovery
▁고양이를
▁비롯해
cel
▁벤처
▁갖도록
▁좌파
ault
▁모호
▁07:59
▁매핑
▁Head
▁의지를
▁해산물
▁만들어집니다
누가복음
▁알콜
▁개발된
▁너희들이
iano
~10
▁조건은
▁시작하였다
▁요소에
▁맞을
▁텐트
▁이것으로
▁1941
▁누이
▁그러하다
집단
EK
▁왔는지
▁기억해야
▁버는
▁안식
129
6.1
▁계획하고
▁장면을
ACE
▁너회
HC
▁역할에
▁다르지
▁(35
rov
▁경화
hall
▁평균적으로
▁독일군
곰
▁포터
▁우아
▁118
할게요
▁스크
▁못하다
▁부지런
uge
▁주자
▁레바논
▁브리즈번
▁옥스포드
▁Jesus
▁신주쿠
▁핍박
▁헨
▁냄비
▁컬럼비아
스러울
▁기술적으로
▁어떻습니까
NK
master
▁두통
[11]
▁춤추
▁Cross
▁얻으려면
▁속삭
버리는
▁합병증
▁거라는
▁Last
줘야
▁현대적
▁장을
추가
▁무관
▁쓰이는
제조
▁시정
시키려고
▁Model
▁닐
수준
▁있고요
건데
푸스
▁Link
▁작동하는지
▁누리게
▁하였노라
9.2
▁책들
▁증명할
02)
년에서
▁Mira
▁추리
▁벌어지는
▁말리
▁신속하고
▁생각하며
버립니다
▁KB
▁남편을
▁바리새인
El
▁따랐
상자
▁been
▁디렉터
xx
▁에너지는
▁Mil
▁직관적
▁밝혀진
▁support
통제
▁제거합니다
▁3/4
▁인터뷰를
▁연구실
▁향상시키는
▁최악
글로벌
▁분석기
olone
바드
▁놓인
104
▁엄마의
▁천년
▁어떨까
버리고
sty
드려
▁춥
▁떠나야
기준
▁제공해야
▁down
amo
▁진행됩니다
퉁
▁어두워
▁자외선
html
▁냈습니다
▁선생님은
▁무의미
▁Our
▁개구리
▁언급했다
56)
▁귀환
왕국
▁개선하는
▁동일합니다
▁세련
수정
전문
▁카이로
▁최적화된
▁미라
▁밤에는
▁대도시
▁디스
▁-1
음식
▁표현은
▁살았습니다
▁저장됩니다
▁편의를
▁집과
inder
▁연습을
▁하기로
▁유입
fect
emi
▁기차역에서
▁고유의
▁에스겔
▁사이에는
Click
▁왕조
▁8.0
▁Ann
▁수집하는
었을까
▁치러
▁뭔
▁초반
▁입사
샘
→
▁호주에서
7.2
▁노리
▁추가하고
▁만들어질
▁기울여야
▁하든지
파르
▁추가하는
▁갚아
▁사우디아라비아
▁스리랑카
▁태어날
▁훗날
뚜
▁줍니까
▁에브라임
▁시달리
(20
▁시킨다
▁즈음
하시거나
▁뉴턴
▁태어났습니다
▁선임
▁선조들
▁인적
▁Tits
▁역할은
▁나라와
▁운행됩니다
▁보답
▁원하시면
▁+86
1:21
▁심정
▁귀가
▁공유합니다
▁지옥의
▁자루
▁백성들은
▁올리고
▁방전
▁청소기
▁공급망
chu
▁군인들
▁경기에
LY
▁라이언
▁공모
▁채식
▁알리라
려니와
운영
▁주목할
(2)
osa
▁game
ality
▁퇴치
ret
CNY
▁덧붙
▁뉴욕에
aba
▁There
▁문은
▁원한
39)
▁old
타니
딕
▁TEL
▁우리에겐
enna
됐고
▁175
빗
▁생각에는
nie
▁여자들은
▁상에서
▁발표된
▁form
37)
5.4
▁감염된
시키며
▁Ren
▁주면
▁하게도
地
▁부끄러운
▁이음새가
▁케네디
▁Download
사도행전
▁대하는
▁아내교환
하루
▁공짜
▁지휘자
▁왓슨
▁국왕
▁증발
▁머릿속
▁보셨
vest
▁확인해보세요
▁Mail
▁아레나
▁쉬는
▁도둑질
▁마찰
▁자질
▁살아갈
▁구입하는
▁갤러리에
▁진행하고
omo
▁언제까지
▁gr
▁산성
높은
▁작품의
▁기계로
▁알수
▁테스트는
▁색인
nov
▁Jin
▁설립되었습니다
▁남지
gle
107
기타
▁6:9
▁절반은
▁대치
▁중순
▁실행합니다
7:14
lle
▁hard
▁미워하는
▁후지
▁덧
▁허위
▁철저
▁치기
▁Gre
sys
ᅲᅲ
첸
▁주재
▁하중
▁겪어
▁시리즈를
▁하면서도
▁주기를
▁HC
▁땅과
▁부피
했거나
▁카우
▁라스베가스
▁올랐다
▁촛불
▁관광명소
▁부르주아
▁발걸음
▁Platform
▁궁핍
▁포켓몬
▁하이라이트
▁Angeles
▁전능하신
▁어휘
▁그놈
▁말씀하시되
117
▁주력
▁처지
▁싶어합니다
▁냈다
▁볼거리
Link
▁둘러싸인
oni
모어
▁좋아했다
▁03:00
▁필리
anta
트랙
▁2.9
▁콩고
▁감당할
▁VS
▁세대를
▁거미
▁미쳐
▁최고급
▁이용될
교사
▁함대
켜
▁요구하지
▁cap
74)
▁주려고
유료
41)
▁지미
Di
▁괴롭
▁믿어야
▁1967
▁말씀하시
결정
란드
▁괴롭히
▁뱅크
▁스스로가
bro
▁직책
▁사역을
6.3
▁잔을
▁연구하고
떠
아메리카
▁결혼은
★
네덜란드
FX
ws
▁적대
▁위쪽
▁거만
▁Mozilla
▁부카케
▁저질렀
▁예기치
▁자쿠지
▁낳은
▁아이팟
▁기계가
▁Phone
▁접합
▁당첨
▁마라톤
▁워커
해주십시오
느라
▁KDE
▁연필
▁게임입니다
format
▁hotels
▁부적
▁Kin
▁par
flow
050
ROM
▁트리거
▁산호
▁연민
118
▁작용을
▁잡히
▁사도들
▁요청이
▁조건으로
▁야후
▁병이
획
RY
▁Like
▁HI
▁주장은
▁여인이
▁아래쪽
▁거룩하게
▁경제적인
▁기체
▁객
▁지난주
▁세일
▁75%
▁되신
없고
▁연구자
270
▁누구보다
Place
마태복음
▁캐리
▁이루어진다
rch
▁더미
▁장비에
이예요
FM
▁통찰력을
미래
▁측정하는
▁가구가
Bar
플로
▁요구하고
AE
tree
▁견인
▁앉을
▁선수들이
▁애가
▁작품이
▁세르
솜
▁매끄러운
▁오하이오
▁옮길
즙
▁Floor
▁글쓴이
▁꽃이
▁되풀이
▁아폴로
ales
▁트로피
▁대중교통
▁구세주
▁초록색
▁바다가
▁커리어
▁구덩이
▁자재
▁Total
차례
롭지
▁우측
▁출석
▁모든것을
▁취하지
▁들어가게
▁하므로
RL
▁짠
▁놋
▁영구적
센터에서
▁백합
photo
▁말아요
kan
▁문서에서
▁덫
▁혼자가
메르
▁Ye
▁기록한
rew
▁걸고
음이라
INA
▁행위가
▁달러가
봤습니다
주시기
▁op
▁체계는
▁생각보다
▁그리는
▁남자들은
▁카나
eva
무라
▁겪을
▁용감한
▁백화점
▁용어는
▁설정하고
▁어떻게든
▁보복
▁Sar
07:01
156
▁안락한
▁예배를
mann
▁근거를
▁어리석
▁얘기해
▁부양
▁고독
▁전통적으로
▁조금도
▁무엇인가를
▁다스리는
▁수양
▁그분에게
▁넘어지
▁논쟁을
시편
▁문화는
340
3.2
▁혐의로
▁中
특별
▁강의를
108
티켓
▁혁명의
ONE
▁존경심
냄
▁보이지만
이었더라
▁가브리엘
▁아인슈타인
▁이를테면
▁퀴즈
▁불공정
▁길어
▁발견하는
▁갑판
조선
▁개선하고
▁양측
▁시작하세요
무기
▁숙박할
▁현실적
230
▁전달할
▁판결을
있어요
▁하여라
flu
▁데이타
내어
Gu
▁1958
▁한잔
▁너비
▁급히
▁알았지
른바
▁수치는
36)
▁고칠
GN
▁생겨났
▁109
▁체험을
▁분만
▁sur
▁구주
았어요
▁두번
▁ab
나잇
▁방해기
7:9
▁하였는가
▁본지
▁기대하는
oll
▁육성
▁파인
▁표명
캠
▁당선
▁취임
었음
번가
allow
▁Au
▁생산량
▁회원님
▁필립스
▁남겨두
되었으나
삽
▁오른쪽으로
▁대립
▁여과
▁길이는
▁Mel
후기
▁Med
199
▁도착했을
▁되돌려
뽀
탬
▁스테레오
▁Photoshop
카타
▁CCTV
▁제작된
LED
▁세션을
010
▁said
년째
▁리소스를
▁하늘나라
▁갖추어
ific
iel
▁스킬
▁가져왔
▁좋겠어요
▁리포트
▁시즌을
배송
▁느리게
사오니
▁경치
▁데이터베이스에
운영하고
▁그랬던
▁광속
▁Sound
▁설정된
▁알바
▁권리와
▁시절에
▁작정
verse
▁산업은
▁형제를
▁안내서
▁가족들
▁다량
▁만들어졌
▁1962
▁오퍼
▁마음대로
▁나님
▁작품에
였기
▁밝
아빠
▁범용
▁girls
▁구상
▁개인화
▁비료
-70
이었어
▁투어를
▁pass
▁이용이
▁물러나
▁example
▁체력
▁페트
▁운하
▁지나갔
▁컬렉션을
▁빼앗아
으론
▁126
▁강력하게
▁과학과
페어
▁되다
▁끌어들
▁강제로
▁보전
▁건물이
▁의미있는
▁Gardens
▁마모
▁Ash
▁남쪽으로
▁지역과
계시록
▁정밀한
▁로빈
▁+1
▁불행한
▁타당
▁님은
▁사업이
о
▁Development
▁치앙마이
▁편방미터
▁again
했잖아
▁시네마
▁뱀파이어
▁카페인
▁베로나
▁맥박
▁also
▁아키텍처를
188
▁아니하니
▁배웁니다
▁착각
▁변화와
시매
▁예고
▁사각형
▁왕궁
되다
▁몰두
▁에이미
▁천사들이
▁미스터
▁1918
▁♫
▁거기에는
제곱
stay
how
▁나아가는
▁마음속
AH
▁병합
▁Acc
야말로
▁OT
▁왕위
▁군대가
리노
▁광원
▁만찬
▁감안
▁FR
▁청원
하였기
▁하더군요
▁선수는
▁Aqua
▁사료
▁웃기
007
▁죄악을
▁극단
Georg
▁Archive
▁서기
▁두었다
dust
TN
▁일원이
▁비슷하게
lash
ded
▁ᄋ
▁박물관에서
▁자유가
워드
주시면
믿
▁건강하게
▁논란이
▁시험은
▁개념이
STA
▁설사
▁#2
222
▁수수료를
▁비추어
Gem
▁예수님께
해볼
1-4
事
벧
è
▁프라이버시
▁브러시
▁코스타리카
▁공용영역
▁마르크스
▁게이트웨이
▁RoHS
▁나사렛
▁바꿨
▁스냅
었읍니까
▁구매를
▁착색
▁무관심
▁부드럽고
▁명령은
▁협의회
▁꼬리표
▁소유물
▁SN
▁빠질
now
▁상품이
▁밀링
▁기억하지
여름
▁절차는
▁바람을
▁딸들
▁라도
▁납부
▁농사
▁동의하는
▁전략에
▁이라도
▁보충제
▁사용했다
sim
berry
▁어부
▁풀려
▁선거에서
이었다고
▁Far
▁상반
▁이익이
▁돌아오게
▁달리는
ride
▁상장
▁Mer
▁'%
▁PPT
▁구문
▁모토
▁틀렸
어린
▁blo
▁does
▁밀러
scape
맘
▁100,000
▁양상
포함
개혁
▁자연적으로
슐
′′
▁날카로운
깰
▁섹터
▁Regular
▁활기찬
▁공지사항
▁빠지지
▁만났을
▁계측
▁혼돈
▁UFO
▁그나마
▁당사에
▁아미
▁가뭄
6,000
▁싶었어요
▁Marina
▁해적
▁단단히
▁부응
▁문장을
▁수단으로
▁무례
▁5:1
▁만났습니다
▁발견되는
▁변화시킬
▁어린이들이
▁Mod
▁커터
▁인정하는
▁창이
▁사망한
▁경제를
▁Color
▁대가를
▁투자가
▁자료에
▁민족의
▁푹
▁방문하면
렌즈
▁러브
▁방울
웠습니다
▁세미
▁Bas
영문
▁end
▁연결됩니다
▁Quick
▁where
▁벼
관리하는
▁공휴일
▁다카
▁요리사
테니
▁Chang
▁손님은
▁와우
CHF
질환
▁방면
월에는
되어야합니다
▁들려주
▁바스
▁열리고
▁것만으로
진리
▁소녀는
땐
audi
새끼
▁사용되어
52)
▁보상이
▁vSphere
▁액티비티
▁어두움
▁챙겨
▁파나마
▁트라
▁소비에트
▁카르멘
▁있냐
▁쏴
▁마음껏
▁Font
▁기다렸
▁850
▁다툼
▁뒤쪽
▁User
▁팔로우
▁영혼들
▁하였습니까
▁만들거나
sel
▁서두르
▁모드로
▁되지만
Or
▁직장을
▁해왔다
▁서있
phy
▁힘쓰
▁많아요
▁ᅲᅲ
▁접촉을
▁요소입니다
▁표준시
▁버퍼
▁청구서
▁대속
▁죽으면
▁Ak
▁몇몇은
달러를
▁장치와
▁요나
▁프로브
▁평가하고
▁변경하는
pur
▁비방
▁둔다
SAR
▁노력은
▁선원
▁FX
▁활동적
▁소유주
비행
exp
▁머물렀다
!—
년생
▁정의된
▁붙들
▁릭
▁여자와
ito
▁그랬다
▁신권
랫
▁조수
ᅲ
▁청년들
▁말미암
▁이외에도
▁비밀이
mus
▁중심부에서
▁영성
아노
▁측정을
▁활동적인
▁프로듀서
▁플라즈마
엡
▁파우더
▁Vintage
195
▁5.1
▁싶은데
▁Money
▁엄밀
body
▁사슴
▁충족시키기
▁정치적인
▁방대한
6.5
▁정신이
▁식별자
▁테이
▁메이저
▁스피드
▁살균
etting
혁
▁Monte
▁대리점
▁대고
살아
▁일어나기
셨는지
▁NBA
▁FOR
▁절대적
▁q
▁치료할
▁계정으로
작용
▁다가오고
공공
▁파티션을
▁기쁨과
분기
▁코코
▁핵심은
▁안될
▁자료는
▁보장할
▁복음의
작가
▁대중에게
진실
abi
▁다리가
▁어디든
8.3
▁카타
참고
din
▁급속한
라곤
▁모자를
9000
▁0.00
▁web
▁메르
ACK
▁강렬
▁열렬
▁미식
▁구글은
▁Perv
▁4.1
emb
5:21
▁들릴
pol
▁나귀
▁20,000
▁그루
yp
▁서약
▁Note
숍
쓴
▁이상하게
▁싹
HL
▁분명하다
▁4:8
ped
ת
▁Washington
▁before
▁찜질방
▁가리킨다
▁Movie
168
▁피해야
▁선택적
▁착취
▁향상시키기
▁투옥
행동
phi
▁갖습니다
▁Flex
date
lines
▁저장하기
▁없습니까
▁04:00
▁폭행
▁오셨
던데
▁드라이어
사람의
▁요즘은
▁구매한
▁Train
▁여자들이
▁적극
NY
▁3:2
▁바랄
▁인간적인
▁무엇으로
억원
▁1948
▁Four
▁코스를
▁아오
▁계명을
코트
▁Pacific
▁원했다
▁주지사
▁에밀리
▁마요
▁놓치
▁지었다
▁상한
▁변기
▁뜻한다
▁가변
▁서버는
7.8
▁가져다가
▁증가했다
▁네트워크에서
영업
660
▁일으켰
▁말씀대로
([
▁물개
▁치명적
▁신랑
▁가입자
▁사용되었다
▁누르고
▁결혼한
▁우산
참다운
▁사람들보다
▁각주
▁책임은
▁베이커
▁슬로바키아
▁아세테이트
▁애리조나
▁생명은
블랙
▁객관적
▁노동계급
천국
▁그리기
▁검색할
▁애국
삭제
▁king
▁(0
Sharing
▁생겼습니다
▁트레이너
▁계시니라
mod
connect
▁멕시코편
▁2.7
▁기다렸다
▁전역에서
▁cat
▁마당
225
▁재산권
▁균일
▁들리는
▁장착되어
▁예술가들
▁book
▁만족도
▁IPv
▁종류에
▁재미있게
tag
Option
▁델리
▁싶어한다
▁유럽과
▁과학적인
들에겐
▁수시로
▁ᄏ
▁야곱이
▁이해하
▁친밀한
▁생긴다
▁구성할
▁동성
쁜
▁몰라도
▁4:4
▁자리가
▁내적
ELL
복지
▁대중적인
▁영영
▁필요해요
▁다양하게
eon
ological
▁앱에
▁영화에서
▁진리에
▁내리지
▁개선을
▁Forex
▁저쪽
▁높음
95)
▁Frank
▁결국에는
칩
▁보았고
▁항체
http
툴
▁방으로
▁컴퓨터와
▁타르
퀘
▁Hospital
▁마그네슘
▁일본무삭제
▁캐주얼
Ω
▁슬리퍼
▁노하우
Material
▁포토샵
▁챔버
ios
▁매일매일
▁가끔씩
▁넘쳐
▁소망을
▁Apt
▁일어났습니다
▁았
▁찾아낼
▁거둔
▁시작했을
840
▁입장에서
▁앉은
▁세례를
▁있으라
▁Wind
▁발생했다
uo
135
▁숙소를
44)
▁풍경을
▁Low
스트라
▁원정
▁양면
었으면
▁박사님
▁붕
▁Add
▁state
▁she
▁동사
비안
graph
(14
▁거처
▁Side
마스터
onia
▁3.7
cht
ination
▁판권
▁진행하는
▁자녀들에게
▁생각한다면
소식
▁Days
▁않기로
213
▁들어있는
▁들었어요
▁레인지
Ho
▁전부를
▁13:1
▁Cer
▁인간성
▁충만하심이
▁씨가
드려요
▁퍼스
▁계열
닫
▁나아지
앉
쩍
▁송신
핫
갱
▁곳에는
▁기다리지
▁도약
껍
▁룩셈부르크
▁벚꽃
팍
▁콜로라도
▁거꾸로
▁Front
▁Sports
▁오메가
▁알제리
▁납득
▁정전
▁농촌
오늘날
▁스크류
했을까요
uda
▁나눔
▁480
▁즐기세요
▁없으리라
db
▁뿌려
팀은
▁없도다
▁형광
▁쟁점
▁Flow
▁260
▁리비아
▁죄에
ape
베르크
ESS
▁돌릴
▁내부에서
▁만연
▁받거나
▁좋겠
▁가졌던
▁준비가되어
▁아파치
▁1942
▁아끼
▁없네요
▁DN
▁뇌가
370
우치
▁사망률
▁지원한다
▁로렌
▁FS
▁Ken
운전
uv
style
▁ᄏᄏᄏ
▁절실
urt
▁축복이
▁정상적
했어야
▁평가하는
▁후방
3,000
-300
▁어업
브레
▁BE
▁숙고
▁발작
▁톨
▁스트라
▁전자기
▁적합하지
▁Core
둑
620
▁항목에
▁이해합니다
▁정치인들
▁색깔은
▁참여를
굽
▁윈도
쑤
Movs
낌
................
ᅵ
▁안내해드리고
▁오케스트라
싯
▁코코넛
▁즐긴다
▁데이빗
▁모르겠네요
▁0.01
▁116
5.3
▁same
▁이동하고
▁여정을
▁전투기
cut
▁완공
bat
3.6
▁소량
▁Girl
ago
mu
연결
▁작곡가
▁138
▁실상
▁가리키
하셨고
▁되거나
▁포용
▁Ang
5-7
▁러닝
▁찾게
▁경험하고
▁한가운데
▁경작
니이까
중앙
▁웅대
▁크리스티나
~8
eno
▁연관성
▁부르기
▁¶
▁줄리아
▁유리제
nz
밸
▁Coin
-36
▁111
코인
▁피하고
5.8
stein
erman
▁기념비
▁주먹
720
▁하였느니라
당하는
▁찾아온
▁2/3
▁윤활
▁법적으로
▁프린스
▁Xi
(16
▁Academy
▁Vegas
▁방글라데시
▁스튜어트
▁휩쓸
▁조밀도
▁영수증
▁은밀한
▁엉망
다시피
▁토리노
시안
보고서
▁침대에서
▁긁
▁폴더에
▁Mas
▁안토니오
▁경멸
▁완성된
▁열었다
▁반죽
table
▁배럴
HU
할지어다
▁IE
▁결단
▁빈번
뜨려
630
▁너로
▁유독
▁겪게
190
▁QR
▁덧붙여
▁아프게
▁있단
▁규칙에
▁엘레
▁잠수함
하셨던
▁선장
▁감사하는
▁경기가
▁앱에서
설치
▁Les
▁1947
▁곡은
하더니
▁말했죠
▁전세계에
eur
▁창립자
▁Jun
무스
▁올라가서
문학
렀다
▁있나이다
읽
door
▁누구든
▁Charles
▁포함된다
▁내게서
▁그후
▁익스
gas
▁......
▁EMC
▁의견에
bis
▁512
▁웃고
니즘
bc
영역
▁힘들었
샵
▁발생하면
hal
tool
[6]
▁Community
▁세그먼트
▁깨달음
▁앤더슨
▁매거진
▁고주파
▁신실
▁기뻤
▁구강섹스
▁정체성을
▁Golf
CIS
▁오락거리
▁별자리
lli
이익
▁단계가
inary
▁CG
▁술에
▁올라가는
▁밝게
1.6
▁보인
▁바뀌었다
▁묻습니다
▁퍼스트
▁태양열
그런데
▁증가합니다
▁차량에
▁WW
▁않으셨다
예수님
▁중심지에
-90
▁트래픽을
▁Angel
▁옳지
bang
▁했었다
▁Journal
▁Pool
▁소수의
▁번역판
▁것임
▁지속될
프렌
▁떠나게
▁통신을
건지
▁사례가
▁연산자
개국에서
▁배부
▁Thomas
파이어
이것이
엑스
eep
사이클
였읍니까
305
Safe
▁6:1
스퍼
▁사라지지
each
1200
레인
▁지퍼
bri
▁가방을
▁반품
▁답장
▁아니니
js
▁수영을
▁필드를
ᄏ
모르
▁사용되었습니다
▁custom
▁Sleep
▁길쌈
▁바르셀로나의
▁듣는다
▁139
▁AIDS
▁즐겨보세요
6000
▁워킹
▁다가올
▁24/7
▁비중
▁세웠다
▁부족하다
부문
▁불렀습니다
기반
▁Ball
▁플라이
▁시간표
5.5
▁감옥에서
▁5*
▁받도록
▁지원자
▁지상에
▁수집된
▁ᅳ
▁그것과
보셨나요
▁관통
/7
▁차원의
tim
▁적시
▁극단적인
▁계약서
▁Film
있다면
▁말씀하시는
▁1955
script
▁데려오
fish
▁간결
▁Press
▁놓치고
▁보관실
▁경과
▁도모
tty
▁그곳은
정확
▁토너
▁싶다는
▁역임
▁왕실
ua
▁앤디
▁하든
▁몸에서
OFF
▁방문하기
▁삼십
ife
▁배선
▁친화적인
▁물고기를
8.8
▁나타나게
▁만드셨
ders
▁머리카락을
4.2
▁경험하는
률이
▁중심부
내려
▁샌드
설계
▁Unit
mph
▁알레
▁절차에
▁봐도
▁나카
oid
하셨어요
777
▁WhatsApp
▁니코틴
▁인슐린
▁크리스토퍼
▁DVB
▁트래블
▁알파벳
tw
▁크리켓
▁뛰어넘
▁효능
▁네이버
▁얼른
▁Lex
▁측정할
▁연못
▁ECU
▁희랍어
▁정해
▁서랍
▁무대에
끄러
▁인사말
▁변할
▁05:30
▁둘러싸고
하시니
▁소중히
하니까
▁포함하지
공급
▁있긴
▁트렌
▁들어요
▁NEW
178
Pre
▁3.6
▁행동으로
67)
▁받음
bag
▁수용할
▁장기적인
▁볼수
▁2030
▁강타
54)
112
▁1966
▁털어놓
▁공간으로
▁감사하고
▁밑에서
▁같으니
▁10000
uzz
▁아담과
▁말해야
▁Quality
▁속하지
▁주민들은
▁등산
▁진지한
▁어플
가슴
▁베드룸
▁YOU
▁원했던
▁노벨
▁받았다고
▁서술
▁행사에
▁Bang
▁280
▁점포
▁죄송
▁모르게
▁재밌는
▁파악할
▁미루
▁욕망을
▁위치와
▁옴
▁Restaurant
▁Shanghai
▁macOS
▁굶주림
▁맺어
▁익지않
▁햄프턴
▁되실
▁Medical
힙니다
펄
▁따름
Build
WEB
▁보여주었습니다
▁손가락을
▁사파리
▁책임지
▁6,000
▁지으신
▁예술을
▁4,000
▁변경될
▁능가
▁쟁
▁시도하는
▁소환
▁플리
▁목소리는
▁조장
▁98%
8.6
▁순종하는
▁시험해
▁Nik
▁물려
민수
▁its
▁봄에
쿨
▁모른다는
론자
▁작가가
1-6
▁구름이
640
수술
▁자수
Count
▁이득을
종류
▁끼치는
icon
▁혜성
▁6.5
▁전원을
▁똑
공업
▁ago
▁권유
▁XL
81)
▁계좌를
▁디자인으로
▁다짐
▁도전에
▁201
▁평소에
▁곳곳에서
▁먹게
99)
▁평행
▁뿐이었다
▁않으신다
듭
▁맥주를
opp
sight
▁자발적
긍
넛
е
▁크라쿠프
▁PowerPoint
▁슬라이더
▁스텝
▁범죄를
▁아들에게
▁보여준
430
▁공간과
▁인구는
▁장애를
▁▷
▁장자
72)
▁보리
▁국한
▁슬림
▁(40
▁일본식
▁GIF
▁헛된
▁mini
ground
▁익히
▁원제
▁미화
▁Call
▁근처에서
▁들어가고
▁틀리
▁뿐이야
plus
▁자리잡고
▁인식하는
▁안돼요
202
▁삼림
▁◎
▁비례
▁제작한
food
▁0%
▁일이죠
▁내렸
porn
▁택시를
▁관련해
▁냅니다
▁독립을
▁목제
▁듯하다
▁생기면
▁쳐다
▁누른
▁간과
▁몸으로
▁예상됩니다
하셨나요
kill
▁일시적
▁그리스인
▁푸시
Kg
지혜
▁현관
▁성문
▁원고
rou
▁맡아
▁Jul
▁하곤
▁모으는
라틴
▁결승
UK
vy
▁싶어서
▁다루기
▁행하라
▁시간당
▁소원을
▁선물로
▁오세요
▁Epi
▁Pet
층으로
我
▁맺은
▁홋카이도
▁우분투
前
▁Women
▁일어납니다
▁provide
▁캡틴
▁춘
▁고작
155
▁걱정이
▁표시되지
▁Job
▁남미
▁기대하지
▁Only
▁퇴직
▁GPU
▁연결하고
▁트레이더
▁사라지는
▁방귀
▁놀랐
▁지나친
4.1
▁TCP
▁MAC
▁사업부
▁구입하신
▁장치로
MAN
Pad
나가는
▁look
▁괜찮다
▁1953
축제
▁(33
▁신학자
▁광동
▁발현
▁165
matic
▁만족할
▁Cook
▁실패했다
▁기질
▁반경
▁8000
▁비롯된
▁정품
/16
▁밥을
▁닮은
**
▁부부는
▁달콤
▁Song
▁콜라
▁괜찮을
▁주문할
▁베드로가
▁싱크
▁혁명은
▁현실은
▁국기
▁연약
▁뭔가요
義
▁Analytics
▁TubeWolf
▁키프로스
딛
▁몸무게
▁after
▁펀치
▁Ultra
▁great
리뷰
▁Canada
▁렌탈
▁청춘
덩이
▁소행성
▁공부할
▁어디서든
▁Close
020
자본
▁자동화된
▁판독
▁바울이
▁주시옵소서
080
▁일행
▁사다리
▁광물
▁비아
▁최상위
▁한편으로는
코어
▁절대적인
▁플루
▁엄격하게
inc
▁싫어한다
002
▁유대교
down
▁시켰다
164
num
▁sin
▁가두
▁심문
▁아침식사
▁여기까지
▁변화시키는
제거
한국어
▁제목을
▁평일
▁소외
▁강남
▁기념품
▁곳과
▁내려놓
▁연설을
zen
▁계속할
▁나타나기
▁단정
▁모른다고
▁만들려고
시겠어요
▁형성된
양식
▁AND
트릭
▁모피
dal
▁하셨으니
▁스프링스
얄
6.4
hel
~20
▁토르
▁왼쪽으로
0:14
▁OR
7.3
▁Sm
▁학부모
▁의사와
▁인류에게
▁지도자가
ä
▁Boutique
▁XenMobile
▁스카우트
▁챕터
XVideos
▁브로드웨이
▁룰렛
▁튀김
구만
▁신뢰도
▁칸느
▁검찰
▁찾으십시오
▁Under
▁미혹
▁둥지
▁상쾌
▁비공개
▁재능이
▁מ
▁작성하는
560
▁아파트호텔
▁기반한
▁기준이
char
block
▁지구가
▁첸
▁독창적인
▁패스트
웨스트
남편
▁저항을
lp
▁표면을
▁SMT
▁폭력을
▁학자들
2007
6.6
▁들어간다
▁계통
▁여자애
▁병든
▁인질
▁발견되었다
▁마커
▁주인은
lux
oro
▁들으면
▁Medi
▁대해서만
▁육상
▁Vin
▁돌로
▁이론적
▁처치
전력
▁정확하고
▁풍요
▁소집
▁간접적
보단
▁사적
법원
▁병거
▁사교
▁볼륨을
맷
컷
▁뭉
▁Conference
▁프로덕션
▁흩어져
▁기다립니다
아마겟돈
▁섭씨
▁포지션
▁신진대사
▁발가락
▁맹렬
▁컴포트
▁신청자
sson
▁MacBook
▁heart
소스
▁온도가
▁잡혀
▁OM
▁부모와
6:3
▁다윗은
中
싹
▁후면
elli
▁특집
▁지지하는
▁남극
▁붙인
밴드
▁금기
▁스핀
▁항성
zu
▁국방부
▁들여다
▁측량
진짜
▁죽였다
ists
▁유명인
▁Eye
▁시선을
▁외출
협정
▁느리
▁쏠
▁초등
▁집계
▁과잉
▁마티
▁Ali
RUB
▁촌
▁지적인
▁직접적
▁자들아
▁유스
▁자손을
▁음부
▁딸은
▁것이라면
▁XM
▁개막
▁피복
▁백성과
▁실용
▁다양하고
▁인도하는
▁만족하지
▁활발
▁쫓겨
▁동물들이
▁이후에는
▁복권
▁시술
▁사업체
col
▁나이를
▁Dom
▁화살
▁미녀
▁구슬
되고있다
▁공격자
601
▁순위를
▁다투
▁Fre
▁창조하셨
▁개발했습니다
▁진단을
젼
▁인정하지
לונ
▁깊고
▁인디애나
▁카자흐스탄
▁벧엘
▁간행물
▁깨달을
▁캠브리지
oca
▁true
▁Engine
▁울트라
▁단서
▁반점
▁신생아
▁친족
▁이르렀다
▁가졌습니다
▁않겠습니다
▁늘려
▁민속
▁인접하여
구멍
▁제리
▁보라색
▁아랍인
높으신
▁114
4000
▁떠난다
▁고해상도
185
▁천문학자
▁24:14
▁참가자들은
ury
▁먹었다
본부
▁위협에
▁공급하는
▁270
▁136
▁송신기
▁안전합니다
izer
▁사악
▁가치있는
▁능력으로
▁ED
▁Leg
345
▁아벨
▁Support
▁은혜의
해준다
126
▁방법론
▁기쁘
▁달성할
▁해피
답게
▁best
▁건네
▁당하지
▁가족들은
▁선수들은
▁용어를
Don
▁대출을
광고
▁펼쳐진
▁스탈린
▁에너지와
▁격차
▁지시를
▁1400
▁목소리로
▁해결하고
훼
▁퍼시픽
댈
▁Society
▁방사성
▁프레임워크
▁contain
▁기증
▁113
▁문서가
▁멤버십
▁경험한
▁Review
▁루멘
▁아들들이
▁결점
▁Board
▁당국은
▁근거한
▁무지개
▁Golden
▁니트
▁에스더
해지기
▁유효성
▁세워진
▁통해서만
최근
▁TFT
▁관리합니다
▁있거든요
▁CN
프스
▁타입을
▁가혹한
▁반대편
▁안정된
When
▁기관은
▁MK
▁말하면서
▁교재
▁Fran
▁후퇴
▁마취
▁찍는
Su
▁Clar
030
진흥
dan
▁1949
▁Ice
▁맡았
▁성경에서
▁rights
480
그러면
gna
▁적용하는
▁잠수
▁덴마크어
▁증상은
▁제공되며
▁활동하고
290
680
▁해낼
▁지배하는
왔으며
▁전철
▁Double
▁언급하지
커피
▁했다면
stock
2004
▁Audi
▁궁금합니다
▁발발
▁실제적
▁안정적
섹
▁효력을
▁베일리
▁1,500
lab
▁확장성
▁로더
8.5
그들의
▁합당한
▁되기도
▁Energy
▁미얀마
▁잘츠부르크
▁해밀턴
▁우체국
▁Victoria
슈타인
▁나눴
▁밝힌
▁칸쿤
▁상식
▁남아메리카
204
▁검색하는
SCO
▁캐롤
▁낙담
▁수염
▁박물관은
▁섬에서
▁이야기할
▁고도로
▁판매하고
▁맛볼
▁가능하지
▁맞출
오스트레일리아
4:2
▁측정기
▁검을
▁windows
▁트랙터
▁오셔서
▁관련해서
겨운
▁GL
▁ᅲ
▁파손
▁유대인들이
▁의심할
▁해주고
▁하늘로
리티
▁암석
▁손과
▁정치적으로
880
쿄
조합
▁조화를
▁이야기입니다
만남
▁용인
▁쿡
▁팔리
▁연락하십시오
▁겸손한
▁이전글
줬다
재판
eigh
▁눈과
/22
▁1944
▁부트
▁기입
organ
▁생겨나
질문
돼야
▁들어왔
▁hot
▁충실한
175
신문
TION
510
▁성능과
▁팔았
시리니
드레
▁Bad
▁외계
▁학원
▁죽임
▁아들들은
▁생각엔
▁Yobt
▁다림기구
▁베네수엘라
▁요코하마
▁퀘벡
▁포인터
▁노숙자
▁돌이키
▁남성들
▁에스테르
▁개인용
▁사기꾼
▁캐슬
▁제이슨
▁시스템입니다
▁승차
lio
▁군단
▁임신한
쌀
▁공존
mos
▁바라지
▁모건
▁일류
▁골목
스타킹
▁마시기
▁나아와
▁필요하다면
▁years
▁무고
했는데요
하게됩니다
▁팔고
▁모르겠어
▁전설적인
▁깃
▁가깝다
까진
▁속이는
~9
▁주시면
▁절연제
▁영리
오후
▁호박
겼습니다
▁집니다
▁광대한
▁조직에서
82)
AZ
▁손님이
으리니
▁판정
▁올렸다
▁8.4
▁세웠
▁처소
▁힌
▁구하지
하느라
▁들리지
▁언급된
▁쪼
▁성기
▁세월이
▁달라지
▁create
▁여겨지
▁트라이
여개
73)
▁Citrix
▁Piazza
▁넉넉
▁메트로폴리탄
▁콜럼버스
▁프랭클린
▁돌고래
▁무결성
▁싶으신가요
▁카바이드
▁requested
▁박쥐
▁연결되는
▁힘써
▁가까웠
드린
▁4.3
▁좋을까요
▁매크로
▁않으셨습니다
fra
▁입힌
▁요나단
▁Ty
▁점유율
▁저주를
▁커트
▁유치원
▁월터
graphic
Sha
▁using
▁Phil
▁놀이터
▁국가적
▁ASP
▁서식지
거룩
▁1957
▁지폐
▁로마서
iva
▁반열
▁생생한
▁풀리
▁교회와
▁점심을
▁CAT
하는지에
▁경연
▁직분
추천
근무
▁사고로
070
active
들리
▁진영
▁추가되었습니다
▁구금
▁희생을
▁이집트에서
▁생산적인
277
▁California
▁파악하고
▁강화하고
▁예술적
▁여긴다
▁천국의
rma
60°
▁Rub
▁HDD
▁극한
▁Age
▁COM
▁Advanced
▁룻
▁Fil
aging
▁도착하기
▁불만을
▁인연
▁친절하고
▁글에서
▁횡
▁ml
580
▁Magic
▁기업에서
▁추적하는
▁대화가
태양
▁육아
▁공개적
▁낮게
admin
▁point
붉
國
▁주황색
▁팜플렛
▁풋잡
▁리차드
▁고귀한
▁사회적인
▁트램
▁불규칙
GR
▁튜터
▁Know
▁수치가
▁올라갈
▁돌볼
▁작성하고
제국
▁원문
언제
청소년
▁mp
▁잡기
▁현장에
61)
▁매료
▁되겠습니다
▁나뉘어
▁탈린
▁기록했다
sex
▁Roll
▁되었죠
▁ft
▁공급할
▁예약할
▁led
▁피드백을
대부분
▁봇
▁피렌체의
▁full
▁매입
▁힘들게
▁3.3
▁정작
▁괴롭히는
▁압출
▁부품명
▁가능성에
하였지만
▁장점이
▁CJ
▁신청할
▁Tai
▁하나님께로
▁강화된
Ha
▁후원자
unny
ODM
▁도착하는
sum
til
▁근대
6:14
6.7
▁아합
tex
▁선택권을
▁꽂
NU
▁지나서
▁왜냐
로이드
0.000
▁성전을
96)
▁학점
노동자
年
깜
▁Acronis
▁레코딩
▁리투아니아
▁Brazil
▁도미니카
▁꿈꾸는
▁될거야
kar
nia
▁귀엽
했습니까
▁받으세요
[12]
▁int
▁행복하고
▁거부하는
▁러시아에서
▁빨아
▁읽었습니다
▁않으리라
▁요청하는
▁후드
▁몰랐습니다
퓨
뛰
▁선진
Sc
▁하셨을
▁발견되지
자녀
▁형태가
▁교역
순환
▁22:16
▁맞죠
▁911
▁일요일에
▁돌아갔다
▁등급을
▁했는가
▁기계적인
rpm
겠나이다
▁초래할
▁Tam
▁멍
▁아프리카에서
▁바리
▁이동하여
▁놀아
▁Set
model
무슨
▁끌어내
▁위기를
▁해마다
▁EV
▁은혜와
sub
iana
▁캐릭터를
▁고든
▁만져
▁목장
▁세상과
▁고맙다
▁모여서
▁같지만
▁지지자
ante
▁생각하지만
올리
▁살아남은
▁피크
클라
▁딸기
▁반박
▁라트비아
▁배트맨
꽁
▁Field
▁Shopping
▁FARO
▁구성요소
▁민첩
▁리케이션
▁총괄
▁상륙
▁있었는가
▁원활하게
▁이용합니다
멘트
▁LTE
▁경치를
▁대선
▁브로드
시작
▁이용가능한
▁교외
▁소홀
디지털
소득
▁극단적
▁Ky
하오니
▁머물렀
▁임박
▁부정한
▁명하여
▁추가됩니다
▁가르쳤다
▁추억을
▁부추
▁레이더
▁신조
mel
▁링크가
92)
urg
▁시간이다
신다는
▁거두어
▁구입한
▁녀석이
tte
바스
▁모듈은
Am
▁의도를
▁쭉
▁도심에서
명령
ias
▁창조적인
▁레스토랑은
▁철학적
내게
듯한
gua
▁누구와
했듯이
▁져야
;;;
미술
녕
업무
nan
▁변신
▁신분증
dex
▁자네는
▁도구와
▁애들이
▁팁을
Custom
▁앗수르
▁에티오피아
밧
▁RAID
▁배심원
▁도요타
▁싶은가
▁RJ
▁넣기
▁베푼
▁간혹
▁되었지만
▁event
▁찾으실
▁서지
▁친근
▁히어로
▁승천
▁계세요
▁지도자들이
▁3:13
▁서비스뿐만
튀
그렇게
할머니
▁충분합니다
▁유기체
bury
dor
▁1-2
▁다음주
▁줘야
▁모이는
arch
▁드러났
▁기억합니다
▁숙련된
train
▁own
ONG
4:14
▁취약한
▁반복적으로
▁떨어져서
▁머물기를
▁클릭한
▁출시된
▁분쇄
▁Calle
▁얘기하고
▁검색하고
▁주당
▁데서
DAY
▁속한다
▁모양으로
▁Richard
▁크루
▁야드
▁사설
TOR
▁테니
만족
▁않나
리터
▁content
▁딘
▁Team
124
197
▁배후
▁장애물을
span
▁끝으로
▁기도하고
▁연안
책임자
▁때문일
보스
▁창조한
▁물음
그들
▁몰고
▁단계별
▁읽어야
▁교인
▁리더가
▁특수한
▁전염
▁보너스를
▁끊어지
聖
▁쾰른
뮬
▁앤젤레스
▁자카르타
▁트로츠키
▁Collection
▁Protection
▁Tranny
▁이음쇠
▁카운트
▁동남아시아
▁토론을
▁Brown
▁드레싱
138
▁자랑스러워
▁Miami
▁집주인
▁Common
▁{\
▁장애가
▁만나지
▁without
화면
▁날아가
▁몰락
▁알려드립니다
▁크리스천
▁하느뇨
▁따르기
▁생성하고
▁검증된
해야한다고
하겠지만
▁청종
자세히보기
▁걸렸습니다
▁게이머
aria
▁쥬
▁자에게는
9.99
▁누구에게나
▁새우
▁느려
▁최적
LU
▁결합된
▁보시기에
▁부르며
▁형편
▁Virtual
▁네팔
▁3-5
sey
▁구하다
▁line
▁카레
▁시라
▁놓친
▁피오
▁의견은
▁고통과
▁사람이었다
▁향하고
혁신
▁유명하다
▁연중
▁벗어나지
▁수련
▁1956
▁로저
▁이었습니까
보아야
▁초안
▁보여드리
cover
▁(12)
ᅳ
▁(11)
하였느냐
Lu
문서
었더니
▁이윤
▁돌리는
570
▁전송하는
▁감동을
iao
▁틸
127
hon
▁키즈
▁under
06:10
ement
▁길러
▁알잖아
▁신전
▁감정은
tina
▁14:1
티드
▁무엇이냐
▁통치권
ç
ᄉ
▁고능률
▁멜기세덱
▁알츠하이머
▁온타리오
心
▁풋볼
▁Smith
▁외식
▁이국적인
▁잉태
▁기능성
▁아내에게
▁국가들이
▁앞두고
▁향상시키고
▁Snow
▁충절
▁사무국
▁만족스러운
▁알약
▁싫다
되어서는
▁Start
▁누구입니까
▁게시글
▁숨겨져
SER
▁교통편
▁나니
▁소개하는
▁결승전
멕시코
마케팅
▁죽었습니다
할수록
▁되려면
vert
▁루크
들이었다
▁법도
▁선사합니다
었음을
▁검색어
▁민족이
▁낙관
article
▁Ul
하느뇨
169
▁못했지만
▁분석하고
▁(48
하시되
▁하계
Create
▁여겼
▁지냈
▁대나무
sche
157
KR
EUR
▁말씀해
▁보관소
▁자랄
gio
▁Apps
▁평가판
▁애인
▁택한
▁긍정적으로
▁기술력
▁들어본
▁설득력
하시려면
▁어렵고
365
pet
▁연사
▁사용자들은
VM
▁05:4
▁분당
thy
▁돌아온다
▁작게
▁돌려주
▁않으면서
lc
▁벅
▁계시며
▁had
▁말이지
이어서
▁하시지
▁동기를
▁찾아보기
요리
했더라
윗
▁내리기
▁top
홉
bank
▁시민들이
둠
▁실험실에서
▁이겼
public
▁없었다면
ᄃ
▁Information
▁reserved
▁매개변수
▁맥도날드
▁사업자등록번호
▁가솔린
▁쇠퇴
▁목회자
dri
front
▁데이비스
▁자유롭
▁무선인터넷
용량
▁변화하고
▁트윈룸
short
▁트러스
▁index
▁지탱
▁투숙
▁건너편
▁더럽히
▁Cent
Object
▁외로운
Zog
▁HTC
▁분들도
158
▁선택하기
▁거칠
▁이뤄지
▁바꾸지
▁정욕
▁하나였다
▁필드에
▁멀어지
벅
American
▁Wo
뿔
hou
▁product
▁대응할
66)
▁살펴보기
▁적극적
▁나오기
▁초대장
그냥
▁숙박했습니다
▁부활절
▁범위에서
▁반지를
▁표제
▁[5]
▁Bai
▁차지하는
▁욕실에서
CON
▁시작했어요
KO
▁세계화
115
▁LP
▁무작위
▁가집니다
▁돌아갔
0.9
▁충족하는
lib
▁330
▁아실
볼게요
▁영양소
▁키우고
년도에
-800
▁격렬
▁Easy
▁벗은
졌지만
▁부처님
▁발간
▁기뻐하는
under
▁당신을위한
▁통증을
▁음식물
▁반환합니다
▁채우고
왔어요
▁비슷하다
▁하시면
▁복원하는
▁어기
ept
▁Hilton
▁Magazine
▁깜빡
▁낱말
▁젖꼭지
▁텔아비브
▁프랜차이즈
▁햄버거
▁모퉁이
▁괴롭힘
▁에디터
▁기중기
▁닭고기
▁가증한
▁이상적입니다
▁헤롯
▁9.0
▁되셨
▁Tree
▁제어판
셨으면
▁하심이라
▁효율적이고
▁능률
▁정맥
러리
62)
▁FU
RAM
▁꺼져
▁기갑
▁♥
옵소서
177
▁사이먼
odi
▁중요하고
벌리
카메라
▁다니고
47)
▁경제학자
▁기울일
tivity
▁뿌
공연
▁루스
▁감속
하거든요
▁헌금
▁받침
ication
▁Audio
▁1946
활동을
▁커지고
인권
▁필요했다
▁1933
▁죄와
▁매치
▁명하신
▁뭐든
▁주주
▁MIT
▁버티
▁물어봐
▁유효하지
141
▁요한복음
▁처음엔
Print
▁Have
▁결정적
▁관중
▁못된
▁다행이
▁나쁘
▁LM
▁전투를
WP
▁지오
▁치료사
▁고베
mble
▁요셉은
[10]
▁버려진
케이션
▁Prince
▁포기하고
공정
375
겠군요
▁베네
с
∼
▁브러쉬
▁시퀀스
▁허리케인
▁헬싱키
▁매디슨
▁산티아고
▁가볍고
▁County
▁엠파이어
▁스케치
▁겨냥
▁매트릭스
▁think
▁장바구니
145
▁구부리
▁울려
▁받아들이기
▁굳건
▁읽으십시오
▁카세트
▁흘러가
▁태풍
▁133
▁알프스
▁알아낼
▁엄격히
목적
▁사람처럼
▁변하기
▁Blu
hold
▁설치하십시오
wire
JI
▁저들은
▁박탈
융
▁FTP
▁법적인
▁거둘
▁글렌
Per
▁생각해야
Guard
▁직면하고
▁떠오르는
춤
▁획기적인
▁음행
▁대체할
▁묻어
▁노동력
9.6
2005
▁사람들을위한
▁만나러
▁알려주는
▁168
▁하여야
▁벗기
Tech
방지
BU
▁light
tric
▁종교적인
▁군데
iu
▁Come
반응
렸을
▁로맨틱한
▁멍에
▁많아서
▁이용되는
▁테리
구치
▁자녀에게
교류
▁이해해야
▁보강
웠던
▁겹
▁경제적으로
Wi
▁알리고
▁파기
▁솔라
괄
그때
▁객실내
▁자기들이
▁아서
▁유인
1-5
준비
▁거북이
iden
▁Spec
▁고정된
메인
▁프랑스인
Ra
▁Pla
rail
cin
hole
겟
엣
▁의회는
▁갚으
▁유니버설
샹
▁Bentley
▁넓고
▁도끼자국
▁밀레니엄
惡
쯔
之
知
▁black
▁밤낮
▁놀랐습니다
▁여자에게
NZD
···
▁품위
▁암몬
▁웹페이지
▁9:00
vor
▁08:30
▁성공했다
▁지속되는
▁들어갑니다
▁가르치기
After
▁책정
▁악어
mouth
▁금지되어
아브라함
▁읽었다
▁튀어
훈련
▁베들레헴
▁가깝
▁되세요
▁연말
▁기울이지
some
▁중개인
▁:::
▁망명
▁와이드
410
▁일대
870
▁먹다
2.7
▁적합성
▁해산
▁취해야
▁수준은
▁행복하다
번역
▁풀고
▁없을까
▁남아있다
hour
었나요
▁3%
▁가능하고
0.4
▁되려고
▁공고
▁다루어
▁바뀌었
▁왔는데
▁옵션으로
▁사람이라면
▁지상에서
▁사용하세요
▁틀렸다
시부터
▁둘레
▁명세서
hotels
▁싸워야
▁수집한
▁이동식
▁Dog
520
fact
▁등불
허가
▁GHz
펫
▁Creative
▁미네소타
▁벌거벗
▁한꺼번에
시켰고
萬
▁아니함
▁실행되는
▁샤프트
▁만드십시오
▁Europe
▁벗겨
밀리
▁Pornoid
▁않았읍니다
▁실패했습니다
location
▁German
▁로빈슨
▁SATA
9.3
▁오늘날까지
▁each
▁장엄
▁양수
렸어요
▁Bow
▁정찰
94)
선거
▁지구상에서
▁다니며
▁열렸습니다
▁낙타
▁매혹적인
하려고합니다
▁지원됩니다
▁증가할
▁콧
깔
▁강화하는
미디어
▁KA
▁헷
▁풍미
갤러리
이벤트
자세히
▁속담
▁영역은
▁선악
▁밀고
▁잡았다
▁Fun
▁1959
▁대응하는
▁빌립보
▁1943
▁True
▁않았는데
Short
189
▁못하겠
▁있겠지
폭력
▁안드레
▁Oh
▁1935
▁만다
▁살펴보자
▁유지됩니다
란트
▁수십만
겠읍니까
▁많음
▁Ray
모드
▁플러그인을
▁올라갔
▁유적
▁[7
▁얘기하는
▁사각
▁한마디로
▁가시성
TRY
▁투쟁을
▁누적
▁삼았
/50
▁super
▁언론인
▁죽음과
STAR
▁열려있는
▁알지만
▁제프
클로
119
블루
2.8
1-1
▁못함
▁가입하기
▁결정한다
▁날까지
▁Award
▁어른이
▁북쪽으로
▁알렉산드
▁이동성
▁Cathedral
▁미성년자
댔
▁존엄성
▁임산부
▁Commission
▁스탠포드
▁흘렀
▁지나고
▁불타
▁교과서
▁오라클
▁임직원
▁찾으세요
▁왕비
▁스프
▁성장률
▁예컨대
▁경쟁력있는
inter
▁Wank
tron
▁감도
▁전지판
▁좆
position
▁Kan
▁보컬
▁불립니다
▁Brand
▁섬광
▁JIS
▁말라리아
마당
▁우상을
8.7
▁강관
▁1917
▁꾸준한
▁알았는데
▁여자아이
샌
♪
잭
버튼을
▁가령
해외
04:59
▁Stay
▁기울이는
Port
▁도중에
4.4
▁반복해서
▁낮음
▁소망이
▁카터
▁137
여호
▁리트
▁통증이
▁art
▁너희들의
▁태어나지
▁구멍이
▁성모
▁여행하기
▁내장된
▁지낸
▁소생
2.6
polis
▁낚
위키
▁들었던
니크
▁head
More
▁아름답다
▁입었다
▁기억력
▁그야말로
▁유동
▁바라볼
까봐
ional
올해
Sec
Up
▁얀
114
▁멤버들
▁마법을
시키거나
▁자연적
▁변하는
▁학습자
▁기도합니다
▁지지자들
▁Lan
法
▁Lenovo
▁second
▁깊어
▁알래스카
킵
▁오디션
▁융통성
▁친애하는
女
▁Berlin
mid
▁랜드마크
닷컴
▁인종차별
▁선구자
카야마
▁등반
▁Week
▁즐기십시오
▁관용과
▁Event
▁터키편
▁미국인들이
▁마사
교인
▁계속되는
▁아니하리니
▁nano
VDC
ota
ering
▁강물
40,000
텐데요
▁악행
인즉
▁Sony
▁복무
▁다리미대
[7]
▁온화
돋
국제공항
▁허용되는
401
▁들으시고
Easy
▁Rome
받아야
보겠습니다
kit
▁이민자들
▁자사
▁귀하와
▁건축된
▁않으려고
6-8
갑시다
fast
▁두려움은
76)
▁HK
▁사서함
▁순간부터
~19
▁물리학자
▁동물들은
▁차분
▁살고있는
▁연고
5.7
▁과학자들
▁7.5
▁시험기
▁리플
항상
▁예리
▁필요가있다
▁권위를
생물
:%
▁Ref
7:21
▁낙관적
▁없었어
▁아베
브룩
▁따서
▁작성할
▁그쪽
▁Moo
탄소
Web
▁이루어지고
mount
▁체제에서
▁얘기할
▁TOEFL
▁므낫세
長
Mbps
▁update
▁계몽
▁전문적으로
▁돌아갑니다
하시지
▁도와줘
▁헤엄
▁답답
▁노키아
▁never
▁볼보
▁청취
▁노력해
▁칭호
▁카타르
▁분비
rance
▁연결하여
▁씰
▁영생을
▁특유
▁닦아
▁늦어
▁입력한
▁MDF
▁보리라
Dis
▁Record
▁샀다
149
▁활발한
▁채무
▁희미
▁경쟁력을
▁모시고
블록
▁지불할
▁고모
ITE
▁(100
▁MX
▁법무
▁날짜와
▁수요를
2-4
Shift
▁Image
▁압도적
▁Farm
▁풍성한
▁만들었고
▁제공함으로써
▁7000
▁살펴본
▁원통
걸요
▁잊었
▁극적인
▁없네
▁제어하는
▁찌르
▁신자들
▁되고자
▁Matt
▁121
Please
관계를
▁성명서
▁(60
▁협상을
해야한다는
trip
▁PET
▁Wild
▁예상된다
▁리모델링을
555
▁장착된
▁평가할
▁당해
▁요정
▁건조기
카라
ager
률은
▁Professional
▁August
▁Stadium
▁어젯밤
▁포틀랜드
▁종업원
▁솜씨
▁촉매
▁temp
▁햇살
▁싶어하지
▁레지스트리
▁program
▁임기
테스트
▁불지옥
▁의롭다
▁사야
▁CIA
▁땅콩
▁받았는데
▁도시들
but
하드
▁시리얼
▁와이프
▁고객지원
▁흡연자
▁Oct
▁클렌
▁바친
asi
▁배리
▁Singapore
▁방영
▁Pur
tsu
▁불구
▁딕
▁환전
▁KRW
▁낫게
▁무시하고
빌리
▁의사에게
▁열렸다
흰
▁sm
꼭
▁xxx
+1
free
▁비틀
▁Zen
▁필수적입니다
▁확신할
▁벤더
▁Opti
▁벽면
▁03:0
▁고조
▁아버지에게
▁이었지만
▁사십
cott
186
Dr
▁조경
공개
rag
크림
▁총장
▁Met
▁꿈과
▁기쁨으로
▁저울
▁155
▁고려하여
▁뭐하는
▁구현할
▁딱히
대학원
▁경찰서
▁염두
▁추위
국민
▁신념을
▁지우기
▁쉬고
▁유전적
-86
팟
▁달성하는
▁물고기가
▁연료를
▁because
▁멈췄
▁Future
▁죽이기
▁device
you
▁손질
출판
▁굴욕
▁Carl
▁극도로
▁함부르크
▁영적으로
▁확신한다
ᅳᅳ
번씩
▁미용실
izz
▁라오스
▁men
▁이내입니다
▁증강
▁디자인된
▁Down
▁신속히
Can
▁서류를
▁물어볼
▁단련
▁게놈
▁동맹국
▁숨길
▁되니
▁개발되었습니다
▁진화하는
▁개체를
▁방문하고
▁나쁘다
▁상하게
▁Shop
▁조리법
ATA
~7
▁Dead
▁9.1
512
1.8
꼴
▁미시간
체제
行
Hotel
▁스테이지
▁테크놀로지
▁뭐지
▁(45
139
레이드
▁갔고
그라운드
어디
▁쥐고
RU
▁지내고
aught
▁제거하기
resh
▁전역에
▁176
섬유
▁익사
▁합법적으로
▁배상
▁버진
▁직장인
통화
SEK
▁버드
▁미사
▁어둡
▁급수
agon
▁돕는다
▁앉았
▁버튼이
▁(36
▁해결책은
plan
▁어떤가요
▁뭐든지
▁미신
▁탄성
하시느니라
69)
하십시요
▁기여를
캘
▁Budget
▁Library
▁얼라이언스
▁비주얼
▁일리노이
▁다국적
▁these
ANKO
▁불어넣
▁운임
▁불편한
▁번쩍
▁기사에서
▁슈퍼맨
187
▁깔판
▁혼잡
501
▁경외하는
▁롤링
psi
▁poly
159
▁Hen
졌는데
▁쪼개
▁POS
▁육류
▁Need
네이션
▁초록
▁놓습니다
하리요
8:14
▁주님과
etta
이시여
▁활용해
▁댄서
▁아이언
▁1952
▁나사로
lite
▁box
▁단조
▁힌트
▁Kat
content
▁폭동
▁바다와
▁씹
inner
▁강령
▁있으시면
▁실어
qual
▁몰타
▁개인성
▁알겠습니다
▁생각하세요
▁text
▁섞어
▁활용하고
▁참가자들
▁치료제
▁전세계에서
▁맞고
테러
했더니
▁싶지만
▁양보
▁사격
▁송아지
금액
▁언제부터
▁메카
▁추가적으로
▁동계
▁이루지
new
▁자진
uma
직원
▁요크
죽음
▁자행
건축
▁입체
▁예후
▁말이니라
Ed
▁대해선
▁슬기
▁IDE
▁살아가고
▁시연
▁결정하기
▁안쪽에
▁있겠다
▁then
▁못했고
길래
275
▁기회입니다
▁제공했습니다
챙
▁맞추는
▁뉴올리언스
▁곰팡이
▁스폰지
스러움
▁11:1
▁김정은
▁LTD
▁더블침대
▁파트너십을
▁슬픔을
▁죄송해요
▁미셸
서비스를
▁보스니아
▁사용되며
▁일곱째
▁되던
▁미분
▁일상생활
▁교련
▁별개
▁광야에서
▁Three
▁►
▁베일
▁find
▁벌어질
▁않더라도
▁WHO
6.8
▁불가피
▁설립되었으며
▁원하노라
▁보스톤
▁[5
▁132
▁비자를
▁뜻으로
▁소개하고
▁담당하는
▁계획이다
▁만들어져
▁뜻합니다
▁해외에서
전문가
▁제공될
▁실시한
▁누군가와
▁뵈
▁활동하는
▁깨진
cio
레즈비언
▁Kon
천명
137
▁삭제합니다
▁몰리
묻
▁팀원
▁가르친다
▁자발적으로
노트
▁통제하는
▁최종적으로
▁house
▁대다수는
경찰
나이트
▁ju
▁이야기합니다
▁Fly
0-1
▁열국
▁분해합니다
▁안다고
▁확인하실
sole
▁왓
▁초대합니다
▁50,000
▁모독
▁녹아
렸으며
256
▁변환하는
▁남기지
▁SNS
▁Kill
▁사립
호스텔
▁있더라도
▁came
▁조용하고
aster
768
5.0
▁짧고
▁가까워지
▁벗어나게
때마다
▁아치
▁오십
해지지
▁급성
▁심플
▁Yes
▁강국
▁Every
런스
▁쓰게
~6
iller
▁해볼
erge
▁GmbH
▁바닷물
▁바인딩
▁방열기
▁나란히
▁으뜸
▁멜로디
▁Client
▁엑셀
▁Touch
▁습격
영원토록
▁밝혀졌습니다
▁연쇄
▁스펙
▁발견하게
▁IPL
▁향상시킵니다
▁눈빛
▁주소록
OST
▁칼럼
▁타이머
▁도달하는
▁준수하는
▁않으실
▁Oak
▁투영
▁such
▁장관은
해주셔서
▁리오데자네이루
▁드리며
대출
▁헬스
▁Trust
▁받으셨
쭉
룻
놔
▁도출
요한복음
옛
▁파편
▁Rob
사무소
▁자랑스럽
Work
겠나
▁direct
▁스릴
형태
▁연루
phen
계속
▁videos
▁클레어
▁대양
▁Fan
▁정의하는
prop
마켓
▁일부러
▁기아
▁Bla
▁막고
user
▁선호도
▁Take
축구
우린
onna
북한
▁않을거야
▁회심
▁굉장
▁악용
▁과거와
▁상부
▁설치하기
▁Where
▁신관
Pod
▁어디에서나
▁유성
니깐
PER
MPa
▁성령으로
▁Arc
lish
해져서
▁확인해야
build
▁부두
201
▁옛적
인줄
▁개선할
ried
165
▁만드는데
▁Technologies
됬
Official
▁PayPal
▁엠에디터
▁인스턴트
▁템플
▁Dubai
▁구타
▁내려다보
▁거짓말쟁이
▁거부할
▁나가기
자들이여
0.8
▁후계자
▁있겠느냐
▁회견
▁동아시아
차별
▁Lady
▁제사장들
하였나니
▁철저하게
▁갱구
봉사
▁산들
▁포탄
▁편이다
▁명백하게
웬
▁Rua
캔
ega
▁성스러운
▁직관적인
▁단언
▁재판소
▁열렬한
▁RH
Plus
▁주장합니다
▁장편
ots
▁독점적
▁재활
▁타자
▁기만
▁*****
브라질
HKD
신경
▁got
▁Cro
▁8.5
젊은
▁제공되지
▁진행되었습니다
▁개관
▁비극적
▁이기고
레타
하겠죠
kon
▁분광
▁옳고
▁Gro
▁죽었을
▁국가들은
▁회장은
▁ob
fine
▁Gate
▁불신자
2003
▁작동할
페르
드렸습니다
▁Fund
▁SV
▁폴로
▁해리스
▁양파
▁Milan
▁체리
▁설명된
illion
▁Pattaya
▁뉴델리
▁맺으
▁프린팅
브렉퍼스트
▁Number
▁솔리드
和
▁앵커
▁히로시마
▁저녁식사
▁require
▁꾸짖
▁수상한
▁쿼터
▁목구멍
▁Ross
▁들으시
▁말이뇨
▁놓았습니다
▁쉬울
±
▁펼쳐지는
▁가져왔다
▁Info
공격
▁나쁘게
Donald
▁무얼
▁개발하기
755
▁CAN
API
▁어느정도
▁광명
▁심볼
▁02:00
▁404
▁동결
▁알려줄
▁Merc
약관
▁Near
▁정교회
▁조치가
loss
보내
▁놀라지
ember
▁없던
▁젊은이들이
▁Glo
▁몸매
▁Lion
ancy
▁멈추게
7.7
▁결실
bridge
▁시원한
▁불려
▁너랑
▁[8]
▁멜라
▁기뻐할
▁수요가
▁봉사하는
▁경영자
플린
-500
▁CW
▁질러
▁삭제하는
▁Rep
▁이었으며
▁빠지는
▁드러내는
▁왔다고
▁시키지
omi
▁버림
▁크나
info
▁노력한다
9.7
▁배경으로
▁들어가면
▁식기
194
사이즈
받는다
▁제안했다
▁주겠다
▁쓸어
▁Tar
write
▁나오면
▁Var
▁5:12
펑
世
쿵
▁고혈압
▁다룹니다
▁바이올린
☞
▁Country
▁Engineering
▁다스릴
▁밀가루
▁저작물
▁function
▁일관된
▁노동조합
▁결핵
▁불경
▁주민들이
▁십자가를
▁새겨
▁소돔
▁돌보고
▁아래서
▁죽어가는
▁나간
▁끝났습니다
▁택배
horn
▁CNN
▁item
▁스노
▁톰슨
196
구성
▁개방형
▁합법화
▁Ferr
▁클라크
▁코스타
틱스
▁끼어
▁Spring
▁Miss
▁적용된다
▁멋있
780
곧
▁기내
▁서머
▁건립
David
▁기동
었도다
alia
▁지름
▁버린다
▁젊고
INT
▁애기
▁기온은
TEC
▁생산자
벌레
EAN
요소
▁그때부터
▁미국인들
chin
▁갑작스
▁돌아가셨
▁pay
객실
▁구운
▁place
▁[10
▁대충
▁조심해
▁혼다
▁훌
▁뚫고
ians
▁방지합니다
▁알릴
▁4:3
▁친절하게
▁떨어지지
▁소경
ARE
▁캐스트
▁떠오르
▁FCC
▁받아들여야
▁파동
▁종파
670
▁Bin
▁자원봉사자
-47
레스트
▁못하기
▁personal
렙
글루
▁기억하라
샴
▁Culture
▁Study
▁노보텔
▁보살핌
善
이모티콘
▁넣습니다
▁Russia
▁PTFE
▁에로틱
▁Syn
▁things
▁신뢰하는
▁다섯째
▁임대료
▁놀라울
▁young
▁스토브
odo
tai
▁출품
▁HFS
▁털어
▁반갑
▁Nan
베르트
93)
▁다듬
▁모습입니다
▁탐지기
mini
▁가족들에게
▁멋지게
▁용이하게
▁애통
▁만들어내
▁대항하여
scan
▁구원할
▁깨지
▁away
▁적습니다
▁전세계적으로
Sync
▁법원은
▁달릴
▁Financial
▁고객들의
▁바르게
▁옳았
▁보관함
▁UNI
▁source
캐스트
뱅크
▁version
▁도달하기
탈출
▁5:00
4.0
▁European
▁번창
▁말하더라
▁의존하는
▁홀리
88)
대사
▁항소
▁회사들이
스럽지
▁남편에게
Pi
밸리
▁느껴지는
▁값으로
▁해봐
▁부적절
▁숨기고
▁지울
▁하원
▁결혼할
▁전문적
▁Nano
▁error
▁투자하는
▁여보
▁부끄럽
▁공산주의자
탱
▁형벌을
Check
샬
▁Update
▁$30.00
▁DDoS
▁어마어마
▁오브젝트
▁고스룩
▁캐서린
▁레시피
▁이렇듯
▁테레사
▁single
▁겹쳐
▁제시하는
기가바이트
▁억지로
▁루시퍼
▁그레고리
▁절삭
▁드레
▁채식주의자
▁포르투
사령부
▁디아
▁Fab
▁레논
208
▁조그만
▁색칠
ied
▁찾으려
▁글리
▁소모품
▁던지는
crypt
▁마카
▁완전성
▁형제들아
▁비교하였습니다
▁올리버
▁의사들은
▁통과하는
760
▁북경
저우
▁rec
오직
그리스도인
해결
▁죽이려고
▁동요
맡
▁완벽히
▁주둔
▁찼
▁광부
-2019
딱
▁회사들은
itive
▁크리스티
▁변경된
▁1931
▁도장
1.7
▁승인된
▁Mah
▁오스카
▁같음
▁이루게
시계
개월간
됐다고
▁회전하는
▁Moon
ACT
606
▁나타나면
asa
하였는가
▁아브라함에게
▁중학교
▁자부심을
▁넣었
▁드러난
DVD
lies
NN
▁Led
▁출발점
808
▁sea
주여
ours
귤
▁방사능
▁부에노스아이레스
▁인센티브
▁인스타그램
▁카톨릭
▁패브릭
젓
▁추기경
▁those
▁저명한
9.4
▁ADHD
▁엑스트라
▁봉헌
▁Highway
▁코스프레
▁끼칠
▁리사
▁만드세요
▁끝납니다
▁동유럽
▁폭력적
▁무능
었나니
▁Thr
▁옮기는
▁고전압
▁조금이라도
▁Shin
▁떠났습니다
▁느껴질
▁바라보며
▁찾으시
▁답글
pad
▁지나갈
▁표지판
▁Stone
▁일으키고
east
▁보드카
980
▁소독
▁마쓰
▁극적으로
▁금지된
▁반응하는
▁공격적인
▁감금
▁미야
▁당하게
▁도착했습니다
▁여겨지는
복음
▁밝고
▁후대
폼
▁줬다
올림픽
▁Sale
경험
▁끄기
쇼핑
매일
▁던진
▁찾아라
▁만난다
zip
▁본문은
▁목격자
해주실
oil
▁정도면
▁눈앞에
▁배교
▁공통적
조각
255
With
▁스무
▁하니까
▁급식
▁꾸준
▁세종
▁여유가
▁방치
▁누구에게도
/24
▁은폐
▁작업자
▁미치고
dale
자격
▁거니
▁버클
303
▁UX
▁지질
설비
▁Czech
▁과소평가
▁맙소사
▁부쿠레슈티
▁직사각형
▁하우징
▁힙합
밈
️
▁그라나다
▁Visit
RON
▁돌려보내
▁척도
▁외곽
▁하이테크
▁Got
▁Hyper
▁%1$
▁일치하지
▁병아리
▁알칼리
▁헬렌
▁대결
▁코덱
▁3:15
가운데
730
multi
▁GUI
▁PAR
▁액수
▁신비한
▁알겠어
▁Scott
▁흔들리
▁출발하는
▁있구나
month
91)
▁당겨
▁띄게
▁따르라
▁상환
dian
▁식구
▁Tag
▁면밀
▁나타내지
▁날개를
▁발명품
▁1050
▁창업자
이라며
▁복잡하고
▁찾으려고
▁AAA
줌
▁있었으니
▁크로나
보트
uba
540
-150
▁AMP
말리
Art
▁등장하는
▁호세
▁씨앗을
▁독특하고
▁진행된
▁쓸모없
Life
oop
ISS
▁캔디
최소
▁Mind
▁보라고
담당
▁팬들은
▁요금으로
▁광고주
fair
1.00
III
▁찜
▁4.4
▁WE
▁포즈
▁근사
▁비슷합니다
email
침대
▁문의하기
소재
公
十
α
▁Melbourne
▁Safari
▁떠올랐
▁프란시스
性
삿
▁Earth
▁깜박
▁볼리비아
▁퀘스트
▁최우수
▁Sweet
▁Theater
▁뒤덮
▁Francisco
▁리마
▁Want
▁힐러리
▁project
▁퍼레이드
▁알렉산드리아
▁것이냐
▁닥치
▁트로이
aci
▁바카라
▁숍
▁싶네요
셨나이다
▁420
▁가져갈
▁미끼
▁한편으로
▁채광
▁실감
▁Mount
▁모리스
▁아시안
▁부분이다
시키려는
목표
▁여겨졌
▁알아내는
▁않았죠
▁오스만
▁교장
▁Nav
▁법학
▁드실
▁격렬한
셨죠
▁돌보아
▁행하며
▁강의실
▁도처
▁합작
▁네덜란드어
유리
레즈
▁정정
▁대폭
Trans
삶
이렇게
▁절제
▁1936
▁명언
▁넘겨주
data
▁도망치
▁파괴하는
▁피하십시오
해보십시오
▁동전을
▁죽었어
역학
적이거나
▁죽음으로
송아지
179
▁살아있다
▁백작
yuan
wing
되었기
▁Base
fort
▁살아서
▁세팅
▁혼합된
▁포함해서
ental
▁먹여
▁버블
▁Blog
▁사치
▁플랫폼입니다
stat
▁요구했다
▁필사
▁트루
▁남기고
Manage
060
섀
§
▁Python
▁include
▁갑상선
▁뮤지엄
▁스쿠버
▁페더럴
言
프로테스탄트
▁구급차
▁포르쉐
displaystyle
▁미가엘
▁JavaScript
▁순교자
▁Gateway
▁LGBT
토르
▁관절염
그레이
▁check
▁원단
bell
▁Living
▁guy
040
▁가이드라인
▁전자공학
▁환전소
▁비틀즈
스토어
▁피에르
▁마늘
▁웨이브
▁채택합니다
▁Viva
▁의혹
▁명시적으로
▁급증
▁믿었습니다
▁Ir
▁되리니
aku
▁명백히
▁버클리
▁15:1
269
▁7.0
▁고객센터
박사
▁간접
▁뒤집어
▁구매하기
했노라
fly
▁위협하는
▁7:1
▁곳곳
▁상급
Power
▁헌터
방문
하였음이라
▁나타내기
▁지질학
▁자들이라
▁MR
▁악명
▁방학
life
결제
2006
▁마야
▁tea
으소서
▁맡을
▁네임
▁이점이
▁여권을
6:2
▁Rooms
▁직전에
▁Text
OUT
Ah
▁order
▁읽는다
▁계속되고
▁지불금
▁아름답
▁이루어졌
wel
><
▁발포
▁확장할
pop
▁다이버
▁식물원
TZ
▁Bath
▁쉬지
Steve
▁의료진
▁디트로이트
▁컨시어지
썸
콘티넨탈
▁닥칠
所
▁이따금
▁배지
present
라운드
▁Self
▁샵
Script
▁Summer
▁뺨
▁좋습니까
▁심화
▁교구
▁잠겨
▁고의적
shire
▁돌아왔습니다
▁요압
▁원하신다면
▁수천명
astic
▁하자면
▁괴롭게
▁서포트
▁소총
▁점착
▁솔직하게
▁Change
nik
▁EOS
▁마차
▁작성일
▁계신다면
▁남겼다
▁발판
itation
더뇨
▁유언
▁뭔데
▁커지
플랜
▁1951
▁두십시오
▁부여하는
▁읽게
▁EMS
▁집중력
▁문자적
똥
▁Some
▁판단하는
kins
▁기초하여
▁1929
▁배우지
▁늘어나고
Open
해야하는지
upon
▁댐
▁Soft
보통
틀리
▁오늘날에도
▁압출기
▁여성들에게
▁Lock
▁만들어내는
역대
▁Six
5.00
▁어색
▁셸
▁Bob
▁남게
▁물리적으로
WI
▁상기시켜
▁보류
체크
▁Qui
▁받아들인다
ATION
▁겸비
▁재량
쿠키
▁신축
▁실력을
볼트
▁스핀들
▁Talk
pes
지옥
씌
낯
▁Council
▁Hollywood
▁IELTS
▁오순절
▁탄수화물
爲
▁더더욱
▁배고픈
▁벽난로
▁그랜트
white
▁닝보
▁오프셋
CZK
▁그랬더니
▁게이밍
▁다이닝
▁했읍니다
▁않겠는가
▁선진국
▁뭐냐
▁노이즈
▁내리게
봤는데
▁점차적으로
▁body
▁영주
0.6
▁덴버
▁주님으로부터
크루
▁두려워하고
▁Nature
▁환자들은
▁Fast
▁청색
▁엘라
ELE
▁방식입니다
유형
note
▁책장
tten
▁이루어지지
▁침구
▁앉아있는
cross
▁말하노니
셀라
▁영리한
ici
▁성령님
▁명부
▁낮다
▁소포
▁데릭
▁역행
▁상대적
▁열광
▁것들입니다
cro
▁치매
아파트
▁서신
▁서원
트럭
변환
▁바래
▁차지한다
▁성립
-48
▁고원
▁따뜻하고
▁생각했어요
▁10.1
▁Joe
▁비판적
▁멀리서
▁行
Red
▁피난
▁정중
▁기억한다
kgs
▁선동
Point
XL
▁엽니
▁제시합니다
▁두었습니다
470
▁제자들은
-38
▁물러가
doc
었으므로
뷔
렉트
바이트
닙니다
▁터키어
뜯
늑
▁단절
р
命
▁금메달
▁매사추세츠
▁브라우징
▁이스마엘
▁힌두교
▁남동생
▁깨달은
▁blue
▁변속기
hydro
pdf
client
▁때문이라고
▁점성술
▁북마크
▁참여자
jpg
-39
306
▁관찰자
▁충족시킬
▁말씀하십니다
▁경영학
116
▁각오
▁나아가서
▁누출
▁하였더니
▁히이터
77)
▁외침
타입
▁닫습니다
▁간염
ensor
▁웜
▁[18
▁약속하신
▁지속가능한
놈들
bul
링턴
▁슬프게도
▁설명되어
▁공제
▁Awards
▁물러서
▁미용사
▁Coast
▁8:00
▁제공하려고
▁지나면서
▁감사드리
lent
▁DX
창세기
굿
왈
▁Jay
▁지옥으로
▁반석
▁Vic
▁부다페스트에서
▁성막
▁Pot
▁선도하는
IKE
▁신진
▁열등
통합
▁Dark
▁Zip
▁연관되어
▁덜어
▁14:00
▁볼까요
▁좋아했습니다
▁접지
IEC
▁차례로
vir
▁갈등을
▁첨
▁아시고
▁체계적인
▁가지며
▁말했던
▁시합
▁대령
▁강화합니다
▁장님
▁피임
계급
▁흐른
▁18:00
▁뛰어들
USB
비밀
▁봤는데
ugg
▁못하지만
▁하겠다고
▁재충전
Ni
싶어
▁porn
本
security
ñ
▁두브로브니크
▁유나이티드
▁자메이카
▁재빨리
▁Contact
▁코트야드
▁Process
▁Children
▁walk
▁보행자
▁생깁니다
▁낳을
▁Has
▁받아들입니다
레오
▁강남구
▁GBP
▁고급스러운
▁로그인하여
▁ABC
DER
safe
해주시기
▁Corp
▁떠나서
▁관광객들
▁참여했다
▁Canon
.’”
▁운전하는
aca
▁흔적을
▁집필
▁렌트
▁many
▁계산할
▁폐허
▁잼
▁극복할
▁파울
▁지하실
▁동일하다
▁연재
▁집중하는
▁염원
▁긍정
▁머니
▁단열
▁이삭과
현상
ggy
턱
탭
터미널
기독교
where
▁스미
▁권능과
▁4.7
이러한
▁March
ZAR
▁허용됩니다
▁니콜
▁시작됐다
▁웨인
▁부당한
7-9
▁버크
▁수용체
▁다가오
▁그때까지
시키면
▁개최되는
▁[23
▁cor
▁매기
▁폐수
▁여성들을
▁사랑해요
▁저건
▁선택했습니다
-42
▁라스트
▁주시며
▁파티오
▁다름없
▁Select
▁구축할
▁안전하다
▁올리기
▁고양
∙
▁가까우며
▁달랐다
▁머지않아
▁메릴랜드
▁쌓여
▁왼손
▁인터랙티브
▁퍼포먼스
▁호놀룰루
띤
▁network
▁design
▁일컬어
▁항아리
▁예루살렘으로
▁비우
▁포도나무
▁사로잡혀
▁즐겼습니다
▁내식성
▁최저가격
▁탈취
▁Other
144
▁VGA
▁다목적
not
정연한
▁last
▁세속적
▁기뻐하고
gt
▁Rio
▁없었죠
▁니콜라스
▁05:10
▁밝아
yi
▁자부심
▁Slot
▁받았던
▁원했습니다
▁보았던
▁모수
run
▁종식
▁십자가에서
gui
▁Gay
▁와중에
Ti
▁생성하기
▁순식간에
▁hotel
▁기념관
▁호환되는
▁마시며
nam
rip
▁ref
크리스
▁생기게
▁Description
▁배틀
▁기법을
▁CU
하였읍니다
Soft
xxx
안녕
▁PIN
▁서열
▁마시게
▁비싸다
▁Louis
▁국장
▁독재
▁천명
yne
하셔도
bad
▁끝내기
▁예정된
▁0.05
▁해보고
먹고
rab
OOK
▁시작했으며
hl
▁폭력적인
▁작품들
▁주심
버린다
루아
▁시에라
▁독창적
▁조절할
136
▁옆으로
▁같은데요
ational
▁유발할
▁떨어지고
▁중독성
▁Ep
▁Rain
▁역동적
▁연구진
▁auto
▁점성
▁철자
▁2:3
▁20:00
▁Electric
▁language
▁굶주린
▁캐롤라이나
▁화강암
듐
엮
▁빌어먹을
▁스커트
▁닥쳐
▁Evernote
▁왠지
▁모국어
▁시상식
▁상원의원
▁있으십니까
▁두개골
cycle
▁[6]
▁가로막
▁element
십대
▁줄곧
하든지
▁않았습니까
268
eller
▁올립니다
▁따지
▁화평
▁권투
▁없었으며
PRO
▁강당
▁게이츠
졌어
▁적혀
▁알려주세요
▁하셨고
▁이해한다
▁마린
▁엠마
hill
▁Arena
▁Sav
▁임명되었다
panel
▁기념식
▁war
▁내려가서
▁연락할
▁흑백
메트
AGE
▁계셨다
냐고요
▁사라진다
▁1954
하기엔
gun
cade
DY
Mark
▁제작되었습니다
▁대칭
▁1938
▁걸었다
민주주의
PORT
▁완료된
해주었다
▁기부금
▁하키
투표
드레스
▁경유
▁결성
▁폐하
▁받으신
▁천상
▁Spe
▁쿠르
▁단장
▁99.9
▁안정화
▁혁신적
rod
▁변경되었습니다
share
시키도록
▁IDD
▁어린이들은
▁환상적
▁충족하기
▁샤워실
文
à
▁Experience
▁return
욘
▁오아시스
▁baby
▁조그마
▁갑옷
▁발췌
▁플레잉
▁런타임
▁Terrace
▁도착하면
▁어도비
▁딱딱
▁Partner
hard
▁2007-11-
▁테슬라
▁틈새
▁타이완
ids
▁있거든
▁손바닥
▁달란트
▁차지할
▁밀어남
▁병렬
▁브래드
▁순찰
▁연상
머신
▁폴리머
▁억울
▁슬립
esh
▁애착
▁거룩함
▁양조
▁RNA
▁주어지는
▁수행됩니다
▁되겠죠
▁형통
▁기도하라
행성
▁저거
▁장담
▁형님
▁계량
▁되니라
▁지불합니다
▁Fuck
vic
9:14
출처
▁손가락으로
▁빠졌다
릇
SGD
들끼리
▁string
이랍니다
▁리즈
▁필요합니까
대통령
▁결혼했다
▁나열된
▁교수진
▁시도하십시오
▁회신
▁나간다
요법
▁무시할
▁해치지
▁없어졌
바흐
-2000
▁감상할
▁흔들어
▁편리함
스레
▁특별하게
version
▁그대들은
1-2
ben
▁진학
rp
▁Jean
HER
GL
▁목마
▁생각합니까
▁유전학
▁귀찮
paper
generat
▁Die
메드
volution
在
헥
▁래디슨
▁스웨터
▁아부다비
▁압살롬
▁이튿날
▁줄무늬
느헤미야
▁라우팅
▁자바스크립트
▁테두리
▁힘입어
▁제니퍼
▁에폭시
▁Daniel
▁가르칩니다
▁IcePorn
하잖아
▁wife
▁직렬
▁편입
force
▁현대화
▁SunPorno
▁조니
▁쟁반
▁Albert
▁순응
▁토머스
▁실행됩니다
/30
▁야훼께서
▁낙심
▁용액
▁사용권
▁믿으며
▁저온
▁다룬
▁were
mac
▁구현하는
▁쿠퍼
cid
▁데이브
▁불과합니다
▁운영되고
▁made
▁Xin
▁총명
▁확인했습니다
obi
heim
▁후안
▁Kingston
▁닮
3-5
▁악당
▁설계자
▁안전하다고
▁필수품
▁하셨습니까
▁더듬
▁케이트
▁그려진
법칙
works
▁울음
▁방지하는
온전
▁방해하는
▁설마
▁Lite
▁조율
▁돌리고
▁사람에게서
▁이후에도
▁Ever
▁ONE
▁고객님은
▁살며
책임
uring
▁거주하고
▁수신자
▁명칭은
▁대외
wen
▁15:00
kHz
▁만민
▁확장자
▁대저
т
▁Secret
▁격판덮개
▁넓히
▁댈러스
▁불러일으키
▁셰익스피어
▁인클로저
美
▁셜록
▁순전히
▁프렌치
▁닛산
▁회원가입
▁방갈로
▁아쿠아리움
▁feel
▁낳고
▁Seoul
▁워낙
▁쓰면
▁Local
▁경쟁가격
▁놓칠
umi
▁한반도
▁녀석은
▁30,000
▁묻혀
▁성폭력
▁틀어
노래
▁참가할
▁낫습니다
▁괜찮습니다
ival
생물학
▁술탄
해보죠
▁행하기
코르
▁상표입니다
▁Nero
▁열정과
▁않는데
페스트
▁Expo
▁엄지
▁글쎄요
utter
ador
▁살아남았
drive
더냐
▁만들려면
▁작다
▁통치체
▁양조장
▁본드
▁덥
003
▁연결될
▁제공하도록
▁겪었
▁하프
▁같으니라
▁피셔
댄
▁창피
▁약속된
▁잔여
motion
▁지켜주
▁아심
▁매수
▁수행해야
▁Dur
▁바뀌어
궤
University
▁발목
평균
▁광업
▁대담
폭탄
Drive
필름
▁되나
예수께서
game
▁MY
▁마리화나
▁환자들이
abb
▁2:2
▁SAS
▁관련성
▁힐스
water
▁찍었
▁나가지
있어서
▁Wave
▁부르짖음
4.3
▁[7]
▁노조
▁부모에게
깁
gree
▁농부들
▁ESXi
▁would
▁뮤지션
▁부통령
숯
▁초고속
你
▁앰프
▁고밀도
▁카카오
▁메타데이터
▁리서치
▁정반대
▁Single
▁Mid
▁Backup
▁대표이사
▁여지없이
▁크릭
▁사이클링
▁왕관
▁초우주
▁단축키
▁증세
▁Forum
▁소고기
▁서커스
▁레인저
▁고딕
▁하카타
▁분파
EMA
▁절기
▁바빠
▁싱크대
▁복사기
▁바쁘게
with
▁Bible
▁유능한
High
▁발휘할
▁캐리어
▁합판
▁선정되었습니다
▁찍을
▁삐
▁천국으로
▁규율
▁말지니라
-1000
▁모친
▁사육
▁전도성
▁처리됩니다
▁클레이
▁없으니까
▁의미합니까
▁사연
▁깨닫
▁요시
▁불안감
▁설립되었다
▁ROM
tek
▁역경
▁에세이
붕
logger
▁어리
European
[8]
빔
▁있으신
▁맥락에서
▁두려워하여
▁센티미터
완료
▁등록되어
▁Basic
cord
▁등대
▁잡스
Doc
▁열정적인
▁차이점을
변경
극심한
eye
isco
▁필요하면
▁기울기
미안
▁드러낸
▁분께
▁Face
▁못하더라
▁Australia
▁pH
푸드
짖
ᄅ
▁깎아
▁넓혀
▁바베큐
▁에스트로겐
▁햇볕
▁헤리티지
▁일컫는
ibility
▁보시다시피
▁강우량
▁셔터
▁롤렉스
▁스크린샷
▁Silver
▁살펴보겠습니다
▁일러스트
7.9
tch
▁얻으십시오
▁남자들이
▁생각하니
▁탈모
▁체조
▁권총
보았습니다
▁사쿠라
phe
▁바이킹
▁구내
▁많았습니다
크레
▁샘플링
함수
▁거부했다
▁5:3
worth
▁구입하기
▁받았지만
▁들어오지
셨느니라
틀란
▁소닉
▁뜻밖
▁미련한
▁효과적이고
▁검사자
▁셰프
▁Pos
▁동쪽으로
▁테니스장
▁행해지
RR
cap
Air
▁입력하세요
▁호별
▁보내십시오
▁없으시
▁침식
▁cock
▁아니란
ural
▁않으려
▁Special
▁강박
▁걷어
▁아끼지
ego
Best
개역
윈도우
▁자취
▁직면한
▁염화
▁Pie
▁부동
ception
같아
▁불화
ista
esse
▁펠리
▁짤
rig
Log
oda
▁물속
대신
5:9
▁캣
아니오
▁나뉘
▁마련된
cular
▁침상
haus
▁죽이려
▁환영받
▁발견된다
▁올렸
▁학문적
NZ
멧
Day
▁Sleazy
▁Orphek
▁Policy
▁개발도상국
▁국가대표팀
▁미끄럼
▁탄자니아
▁테라코타
▁트립어드바이저
궈
쿰
ú
▁붙박이
▁중합체
▁하코네
▁디테일
▁접이식
▁국회의원
▁Picture
▁Directory
▁초자연적
▁활짝
▁랭킹
▁잔혹
▁브로셔
▁않으십니다
▁잔해
▁아껴
▁포옹
Dupe
▁원하신다
420
▁재촉
▁있었으나
▁학급
▁쿠션
▁포르토
▁Look
▁부모들은
▁섬김
355
▁입수
▁image
▁원하십니다
정원
Psych
▁일회용
▁인디안
▁Eu
▁보여주었다
3.7
▁그치지
Joseph
트래
▁심장병
▁차지했다
▁냉전
▁하셨으며
놓았다
▁알겠어요
▁폭파
▁배팅
▁위험하다
▁사람들로부터
▁색조
▁Vid
▁아니하시고
▁래리
▁명철
▁떨어진다
▁anal
▁근본적
행정
▁24:3
▁water
Form
▁고추
교통
▁Band
▁동경
갓
Google
▁못해요
band
▁브릿지
츠키
▁노력해야
▁디지털화
▁85%
▁카피
▁박동
▁드러냈
포럼
▁바꾼
▁킥
티카
▁해칠
▁Rosa
▁충족시키는
규정
▁너네
공유
갈색
▁없어야
▁자니라
▁질렀
▁인식하지
화이트
dir
▁Here
▁Tax
▁뜬
▁죽어야
▁진행자
댓
▁Chapter
▁Samsung
▁between
▁뇌졸중
▁블리자드
▁아제르바이잔
▁어메니티
物
멕
옌
퀵
Environment
▁뇌물
▁배고프
▁저절로
▁삭제됩니다
▁예고편
▁디즈니랜드
▁담요
▁치열
▁시급
▁보냄
바이오
▁부정확
▁판매가격
▁여깁니다
▁기여할
▁놓지
▁DVR
▁봐라
opt
▁아프간
▁영주권
▁씀
▁가능하면
▁필연적으로
찾
▁연구개발
▁게시된
5-8
▁레알
▁세겔
▁같으며
▁소나무
▁왔지만
▁참여하지
▁포기하는
▁결정됩니다
▁식용
▁산화물
▁느부갓네살
▁Hills
▁둘러보기
▁선보였
라이언
▁판단할
▁소지자
▁기억하세요
저장
▁동료들은
▁박판
Comp
ashi
▁390
▁안정적으로
hoe
절차
▁초반에
▁뭐죠
▁지쳐
▁그러합니다
▁직관
▁이용하세요
Cloud
했네요
엉
Global
▁않았나
girl
source
▁Was
▁말았습니다
Read
브리지
▁효력이
▁부처
▁Dev
hof
HAN
▁봉지
▁자리잡
▁추구하고
▁예수님과
▁담당하고
동적인
▁노동자들은
▁보내거나
▁맞추기
슴
슈퍼
▁스물
iso
▁계시된
▁갖춰
그린
DU
lone
wick
플러스
agg
の
▁Communication
▁Creek
▁Railway
▁웨일즈
使
▁리무진
▁소책자
▁강수량
stream
▁오픈소스
▁나가사키
▁2,500
▁아이패드
▁코로나
▁맞은편
▁Vision
/100
▁Body
▁노골적
▁콰
▁대중적
▁중앙은행
▁탄약
▁망각
▁명품
▁있었나요
▁변태
야겠다
▁콜드
줍
9.8
▁명절
▁태초
▁신생
Cam
-400
▁있단다
▁CON
▁Studios
▁난관
▁CDN
▁낮습니다
▁Jim
▁바칠
높이
-240
▁주권자
▁Apartament
▁Kit
▁배포판
▁바라보았
체험
▁히브리서
IGHT
▁바뀌지
▁어쩌다
tti
▁명료
▁하늘로부터
▁내륙
▁음료수
burn
▁동양인
▁치워
▁받아들여지
▁별장
미르
▁무색
알코올
네트워크
▁1,200
445
▁악의적
▁있었지
▁헤비
▁스트로
조치
▁효과적입니다
▁청력
▁Cash
▁선정된
ENG
▁대가로
▁우르
▁남았다
▁말씀드렸
찐
▁찍고
▁Right
▁표현식
Dynamic
▁Premium
▁Storage
▁트랜지스터
궐
▁Natural
▁사춘기
▁인버터
▁원동력
▁케이프타운
▁규빗
전압
▁눈동자
▁keep
▁레이첼
▁침몰
▁의사결정
▁15,000
▁기다린다
▁1700
▁교묘
▁끈기
[16]
▁Forest
▁아버님
▁HGH
▁아니잖아
▁오로라
스쿨
▁통풍
베드
▁호응
년만에
▁누설
하시나니
▁누구라도
▁나선형
▁인격체
▁Zone
▁생각하시나요
▁아이돌
▁양산
범위
▁다시금
▁들어왔다
▁공립
▁일으킨다
▁공의회
ILL
▁치마
▁오존
리즘
싶은
▁위력
▁조개
니스트
▁언더
▁찾아낸
▁맡았다
▁가능하다면
▁로젤
▁교대
제목
▁즉석
▁Fur
톰
▁맥락
gli
파이오니아
뱀
▁주고받
▁핀란드어
▁가르친
▁것들이다
▁(18+)13
▁노동자들이
▁상징하는
여러
▁시위대
프레임
▁Recover
▁짧아
시키려
Michel
▁영위
▁탄식
보건
▁고객사
ario
▁매춘
▁성폭행
▁쿠웨이트
▁클램프
▁프리드리히
▁Israel
▁아늑한
▁애프터
▁십자군
▁세면도구
mobile
▁thought
▁Fluke
▁큐레이터
▁Again
▁원산지
▁milf
▁Peace
gie
▁close
▁너트
YA
▁염료
▁제출할
▁유닉스
▁Force
▁리옹
▁사라졌습니다
▁참전
▁04:26
▁데비안
더군
▁살짜리
▁기프트
▁만하다
▁되요
▁전형적으로
▁나아질
▁실제적으로
JO
▁제품소개
▁1937
▁요령
▁Costa
dev
▁Youth
▁나오미
▁공언
▁시안
vr
▁돌아가야
▁판명
▁벌이고
▁되지요
▁로렌스
▁재직
▁Turn
호세아
▁의존하고
▁불편함
▁판매량
176
▁누구냐
▁살해당
▁배치되어
▁돌아간다
€
▁지루한
▁페레
▁별들이
▁헬기
레벨
▁설레
다섯
바퀴
icom
▁브루스
289
▁밀접
NOK
▁제복
▁그들만
8000
6:9
▁표시되어
스톨
ought
카페
▁경계선
▁저장하십시오
▁거북
lian
ISA
Ø
定
▁Desktop
▁Marriott
▁록펠러
▁유네스코
▁임베디드
뤘
▁승용차
Universal
他
▁흘려
▁떨어뜨리
▁웨스틴
▁캘리
▁Antonio
▁창시자
▁모뎀
출장샵
▁트레이딩
▁Roger
▁죄지은
▁연삭
▁솟
▁권면
▁평화롭게
▁비폭력
▁이어폰
▁다녀왔
▁touch
▁일례
▁든든
▁FAX
그래피
▁나아오
▁도우미
▁고맙게
▁lead
____
▁먹거리
▁코칭
▁초과하는
▁카잔
▁Bull
▁미안해요
▁증가시킬
▁일괄
▁Marine
▁Mak
▁분리기
▁골절
줬어
▁Φ
▁키울
▁당신들에게
▁Extra
트론
▁타고난
7-8
ppm
▁마셨다
▁사카
obo
▁4:6
칼리
▁유용하다
▁5:14
▁받게됩니다
clear
▁살릴
▁기뻐하며
그리스
▁불쾌한
other
▁씻기
▁하나님께로부터
▁Rich
▁Henry
308
▁겪었다
▁머무를
▁녀석들
▁추천한다
▁정점
▁내려온
▁APP
▁잊어버렸
Love
▁선불
▁입문
쉐
▁에돔
촬영
▁Return
녹색
걸까
▁만들어진다
▁면책
▁고운
▁Pop
벨리
860
▁일으킨
methyl
▁권합니다
▁빼기
Key
▁가능하도록
▁놀란
▁예민
▁서쪽으로
셨으므로
flex
▁Adam
▁인디아
▁강조하고
▁초원
▁열린다
aire
▁친숙
ht
걸까요
▁레버
▁진행될
ETA
학원
type
▁연혁
direct
▁17:3
▁차선
008
▁Cool
▁자들로
▁선언했다
▁채찍
▁그레이스
▁깨달아
▁마케도니아
▁멀티플레이어
▁선글라스
▁인플레이션
▁컨텍스트
▁마라케시
▁불충분
▁송풍기
▁테네시
▁better
▁면류관
▁스냅샷
▁파이썬
▁쇠고기
▁풍요롭게
▁앨버트
▁라이프스타일
▁카우보이
▁level
▁perform
▁고등학생
▁커피숍
▁전리품
▁appear
▁노릇
▁받으려면
▁지도력
▁다양합니다
▁일본레즈비언
▁웨이퍼
▁노즐
▁있었을까
▁슈팅
▁있겠네요
▁플랜지
▁뉴런
▁채취
▁트롤리
▁문맥
▁일어났던
▁보잉
Learn
▁1928
▁1250
▁무상
▁받아들였
졌는지
▁주최자
▁개선된
▁적대적
▁바꿔야
▁만족감
She
288
▁달려있다
▁마킹
▁열람
386
▁뭉치
▁절망적
주택
ᄒᄒᄒ
▁이것들이
There
Not
섰습니다
사례
▁Chris
ambo
▁질감
보려고
▁무시하는
sko
▁놔두
CAP
▁불러오
▁보내야
▁편리하고
▁신형
▁독재자
▁개별적인
amine
▁1:2
『
▁모른
꼽
거리며
▁기혼
~15
캠프
▁초보
vie
▁EZ
▁예상되는
▁캘리포니아주
▁기절
▁스님
8.1
해지면
시키는데
▁Chat
▁받으라
▁입안
▁처하게
▁Alliance
▁갇힌
▁챌린지
▁쿠알라룸푸르
▁프로세싱
城
自
쉰
▁벤자민
▁잊혀진
▁기드온
▁튀니지
▁형제자매
▁타오르는
▁네이티브
▁초창기
▁filter
▁에스코트
▁ROHS
▁PADI
▁여럿
▁여겨진다
▁파이프라인
▁Trip
▁쏜
▁Loft
[13]
▁발톱
권력
uh
▁바둑
▁캐빈
관리자
▁참고하시기
▁상쇄
▁비춰
▁닫아
▁외교관
▁빠져들
▁광기
교환
▁암호화된
▁친숙한
▁민중
▁새겨진
▁존속
▁물려받
sq
아무도
▁재화
▁요청하신
home
▁야영
▁유예
▁Git
▁생겨난
소설
296
▁증서
File
▁찾고있는
▁뚜렷한
▁공표
▁Child
▁왕께
▁투기
▁Rhino
항목
iger
▁Indian
▁무슨일이
프로젝트
예배
▁Stan
레위
gro
▁육체적으로
▁Dun
▁섬기기
겨울
AWG
▁이전보다
▁브랜
▁Save
▁Sant
▁나가야
▁Emer
▁아멘
▁하는데요
green
▁돌아가게
正
Tumblr
▁Economic
▁Guangzhou
▁Lisbon
▁Mexico
▁column
▁little
▁옥스퍼드
▁일깨워
▁호화로운
▁current
▁result
▁갤런
▁깡통
▁상응하는
罪
▁Method
▁더글러스
對
British
reference
science
찌어다
해보면
▁중산층
▁동의한다
struction
▁취약성
▁통찰
사이언스
1/2
▁click
▁팀원들
TECH
▁Clean
▁생화학
▁드레스덴
▁마이닝
▁없애고
▁태스크
▁Lar
▁Joy
~30
일지라도
▁물어보세요
▁흉내
▁낳았다
▁켜기
▁연봉
▁이어졌다
▁조절자
sort
▁출입구
요청
▁Case
국내
HOW
▁Kam
▁전국적으로
▁일어나게
콜라
▁밀접한
▁취재
▁일으켰다
▁충당
▁파열
▁상세히
▁Anton
▁Rule
rock
▁정직하게
hir
▁따랐다
▁비참한
하시게
▁유해한
▁바라며
cious
▁대역
스테인
▁벗어났
▁탐색기
▁홍해
▁Track
테이블
▁끝내고
▁이론적으로
▁놀리
▁루피
러므로
샷
Blue
도서관
개인정보
▁구성원들
였는지
혹시
gov
uf
▁함선
▁단결
770
▁파괴적인
▁사장님
^2
브랜드
].”—
▁순례자
이시요
툼
Out
▁Eng
▁무엇이라고
CHE
uction
▁것이므로
▁림프
Har
理
▁Exhibition
▁Expedia
▁Netflix
▁가로질러
▁넷플릭스
▁맬웨어
▁볼티모어
▁빕니다
▁스타벅스
▁울부짖
솥
팻
▁슬로건
▁Learning
▁learn
▁Collins
craft
▁함부로
lice
▁산호초
.]”—
습니
[17]
[15]
마귀
▁좋겠어
▁골격
있던
▁‚
▁놀랍습니다
▁의심하지
▁탁구
워치
▁만나면
▁케이프
▁Visa
▁아니었지만
▁지금껏
▁찾으면
▁어머님
▁단풍
▁분자량
약품
▁근절
▁Playa
▁아니예요
▁얻으려고
▁Oil
▁맞춤화
▁자각
모양
▁위태
▁시집
ending
▁투수
▁아니하셨
▁있었더라
▁출마
chel
▁되겠다
성령
▁추후
rough
▁야수
▁Spy
udd
▁값진
▁단기간
▁대금
6.9
love
테라
▁만지지
얘
▁Kir
wide
▁습지
▁사업장
그릇
▁얻고자
▁버거
SON
▁반성
▁선언문
iron
▁골수
▁Liber
▁Marco
저항
▁기계식
경쟁
Stack
Inter
고양이
탠
hao
힙
н
▁Shenzhen
▁XNUMX
▁different
▁넓어
▁에콰도르
▁이그제큐티브
▁클리블랜드
△
靈
▁발자취
▁미묘한
▁하루종일
▁제퍼슨
▁Comfort
▁break
▁접히는
▁살펴봄
▁할로겐
▁Croco
asso
▁대화상자
▁포획
▁very
▁출범
▁편차
▁상공
▁클락
▁없잖아
▁제이크
▁받으십시오
▁UTC
onda
▁루핑
▁저스틴
▁커팅
▁해결해야
▁진압
▁뷰어
▁평지
▁본교
▁배구
▁폭풍우
▁천문
▁사임
▁늘릴
▁호환됩니다
▁털실
▁빈민
▁즉각적으로
▁Flu
▁흔들리지
▁내린다
▁되었으니
▁GMP
아마도
▁보여줬
▁밝히고
change
▁Eric
8:21
▁걸작
▁1906
▁눕
ethyl
▁Action
슬링
▁보죠
▁볶
▁영구적인
lev
콜걸
하시리니
▁사하라
NX
▁간신
▁Value
▁His
▁정전기
▁선호합니다
▁없어질
종합
▁닫고
러닝
▁글씨
스럽습니다
사태
비싼
호흡
▁Roma
▁Speed
0:21
▁year
Back
Good
rv
▁안료
▁앞선
▁점유
lick
▁McC
광장
줬습니다
▁발상
▁JPEG
▁Website
▁pvc
▁볼셰비키
▁인텔리전스
▁캠코더
▁펜실베니아
늪
firefox
▁농산물
▁JPG
下
▁파블로
▁address
▁Florence
▁Guesthouse
▁셰퍼드
▁싱글침대
▁Honor
▁느껴진다
▁종이컵
▁림프종
▁나름대로
▁많기
[14]
▁아주머니
연구원
▁story
▁Prime
▁장례
됐어
▁유니언
▁NGO
▁국제법
투데이
▁언제쯤
하시도다
▁Mission
istance
경우
번이나
▁등재
▁21:1
▁밝히지
chat
{0}
하셨으니
▁유적지
▁cannot
▁포커스
Operation
▁GMT
▁클리어
Supp
▁추정된다
▁리모델링
▁기쁘다
▁뜨고
▁제트기
▁정하신
▁신기술
OUR
▁자유롭고
bug
▁most
했네
▁입주
UX
▁라임
▁싸우지
받게
▁많지만
▁경전
▁생명력
더블
▁Vel
▁하시더라
▁변조
ished
▁1934
▁구성된다
kt
▁그렇듯이
수업
▁제자리
윙
마이크로
▁반복되는
받았습니다
▁21:3
▁역전
cloud
졌던
▁가꾸
order
▁연주자
각각
0.7
▁Rod
▁훌륭하게
일째
▁발견되었습니다
▁1923
▁Hai
▁보유합니다
born
▁사람들처럼
▁2~3
▁collection
▁기생충
▁다녔다
▁부산광역시
▁비정상적인
▁아름다워
▁헐리우드
▁헤아릴
▸
빤
쟈
▁Spirit
▁소아마비
▁포유류
▁호감
엥
▁카를로스
▁코스튬
▁지게차
▁밑바닥
▁account
▁리드타임
바운드
▁꿀벌
▁닫힌
유대인
▁얻으리라
▁Cell
▁충만한
▁내화성
Edit
▁고정밀
▁달라졌
▁동료들과
▁좋지만
▁잔액
▁알려지게
연방
▁Andrew
▁Deep
▁급행
로봇
▁Radio
▁요금제
▁풍속
▁현저하게
▁이끌었다
▁순례
▁여김
▁06:30
▁멸망케
▁있군요
▁Never
▁pov
전통
▁같게
▁글라스고
▁기다리며
▁이미징
hun
일본어
▁Cris
▁가늠자
▁기원합니다
▁닮아
web
▁환원
▁어디까지
▁입력하면
▁극단적으로
▁오늘부터
▁인자하심
\\
▁충격적
▁무너져
ón
됐으며
LAS
rah
▁관심있는
재생
혼자
중독
chie
철학
scar
▁대화형
▁관리자에게
▁제시카
First
mol
중간
▁관개
▁테오
TRO
▁수평한
▁Apart
▁가족들과
oria
염소
▁설교자
▁실천하는
연맹
ür
▁유권자들
PVC
였습니까
▁야곱에게
했었죠
:4.0.30319
▁Chinese
▁Entertainment
▁Privacy
▁굶주리
▁밸런스
▁크리에이티브
▁퍼블릭
뛸
찻
▁에워싸
="%(
▁캔자스
Message
▁짙은
▁보청기
strasse
▁집어넣
▁것임이니라
▁부르시
▁빅데이터
▁BIOS
▁페이팔
▁member
▁Norton
▁빈센트
▁천식
하건대
▁몰랐어요
Stream
▁꾸며져
▁양방향
anny
▁05:02
lves
▁검정색
▁패딩
▁보험료
ION
▁카바
극장
▁씨름
▁Bir
▁견학
▁Techni
▁듣습니다
▁변경사항
▁기간동안
▁——
▁간판
14001
▁않네요
▁06:01
▁Guy
790
ania
▁관장
▁사탄에게
▁황소
▁두드러진
▁주기적으로
▁석판
▁요리법
▁없으나
▁검진
▁Rev
THE
Protect
▁갔는데
▁유망
▁식수
▁말해줄
▁소수점
-120
wor
▁지난달
▁초상
▁구단
▁걸쳐서
▁한정된
▁빨기
▁불완전한
▁앞쪽
▁Shu
포토
열차
▁1905
소프트웨어
오사카
했거든요
특허
olly
스마트
▁열어주
▁흥미롭고
▁연단
▁원활
존재
▁Mass
▁받아들였다
▁내려야
▁Than
뻐
▁적합하다
center
▁Happy
▁NVIDIA
▁레오나르도
▁암모니아
▁프랜시스
水
█
▁에미레이트
▁Premier
런던
▁Glass
▁모자이크
▁display
Federal
▁another
▁알아차리
▁좌측
▁봉쇄
▁스카이라인
▁떠납니다
▁Daily
▁사고방식
▁잡혔
▁Quest
▁엔젤
▁의료기기
▁방문객들
▁서두
하기위해
▁흉터
▁호위
건설
▁포용력
▁조끼
▁같군요
▁웃으며
▁트림
▁Nations
▁JMP
▁매칭
▁보소서
▁ERP
▁좋아하지만
Coin
▁동등하게
▁의미하는지
센서
▁파스타
▁매달려
▁코튼
▁닫히
▁자켓
▁다르지만
▁좋아한다면
▁탁자
디안
▁멈추어
▁거시기
▁공통된
▁자주색
▁늘어났
▁금리
api
하자마자
wei
▁유용하게
▁일시적인
▁June
▁무너졌
▁많아지
Lab
▁수익률
▁충성심
겠니
▁민주적
▁Aero
었거든요
▁가해자
▁정신적으로
bian
▁해결되지
▁동의어
▁커브
▁나타냈
▁않으니
osis
▁낫지
쏘
퀸
팝
edge
새번역
픽셀
▁동의했다
▁ICT
▁실려
빌라
▁의해서만
▁니즈
▁우즈
▁고른
나쁜
참조
▁8.9
▁통합되어
▁여종
2002
왔는데
뿜
▁차지합니다
ô
▁SurveyMonkey
▁깔따구
▁시끄러운
▁안탈리아
▁앨리슨
▁여로보암
▁워드프레스
▁흩어지
▁Historic
▁살충제
▁April
▁지저분
▁훔친
▁샌디에고
▁무자비
▁섬세한
▁올란도
▁단말기
▁애드웨어
Error
▁두루마리
▁바오로
▁백그라운드
▁용융
▁맨끝
▁Crown
▁아시리아
.”—「
▁혈통
▁Season
음이니라
▁거리에있는
▁안뜰
▁살펴보십시오
▁아니하였느냐
▁이태리
▁해리슨
▁바실리
▁열처리
▁흘렸
701
▁공황
▁단속
▁Solutions
AVE
▁그녀들
▁아드님
▁조심해야
▁공압
▁데려왔
▁결여
889
▁양국
▁치열한
nell
▁관할권
▁Arch
duct
브루
▁마르티
▁주인에게
▁기울였
▁싸우기
▁우림
▁로저스
▁좌절감
▁대처할
▁무작위로
▁프레드
줬어요
▁Table
▁ESL
▁입방
▁인라인
신세계역
▁바람직한
패드
할지라도
▁DOC
▁다운받
솔로몬
텔레비젼
▁네번째
▁공세
▁저마다
▁보여줘
▁태국어
▁투표권
▁아리아
▁mind
886
▁빠르다
▁시작하려면
▁직원에게
▁동문
▁크래
▁Effect
▁나이아가라
▁농작물
▁여호사밧
▁오리엔탈
▁요세미티
▁즐겁고
▁콤팩트
▁프로토타입
▁핑계
▁could
▁스터드
▁싶으세요
▁Things
Str
▁옐로우
▁수술실
버렸어
▁Crypto
현장
ᄏᄏᄏᄏᄏ
▁책임을지지
▁레트로
▁봉급
▁선천적
▁바뀌었습니다
▁추격
▁맨션
▁NFC
digit
▁Jeff
▁고갈
atic
▁[9]
▁느슨한
feed
▁생각하나
▁철거
▁고안된
▁예견
▁Cyber
▁니콜라
▁만들어지고
▁믿으라
ube
▁기울인
▁소액
▁되십시오
▁부언
▁겉으로
100%
▁1922
▁쓰여진
▁1932
Break
부품
▁연령대
▁발표하였다
하지않
▁님에게
▁Made
Let
셨나니
5.1
▁물통
▁Cup
▁실질적
▁파커
andra
▁05:3
▁벌어지
▁보배
jp
mile
gb
저작권
누군가
워터
▁편성
NES
▁지난번
신앙
▁돌파
Provide
▁않았을까
한국어판
rush
Now
낀
윽
▁default
▁뒤셀도르프
▁베스트셀러
▁손쉬운
▁죔쇠
▁플로렌스
實
▁기다림
▁모나코
▁겉옷
▁정거장
▁랍비
▁괴로워
▁Disney
▁resource
▁Content
▁패트릭
▁협곡
▁Small
▁마일리지
▁균등
▁복부
▁소용이
▁Yan
▁메틸
▁컴파일러
▁양념
▁냉장
nak
▁문득
803
▁SUV
부모님
▁일어났는지
▁로케이션
▁베른
▁않느냐
▁던질
▁않던
▁당뇨
▁자넨
했을때
60,000
▁절박
OH
▁칼날
▁보육
▁퍼졌
▁Laser
▁닿지
▁학계
▁rule
▁접점
▁우표
▁제프리
되어야한다
▁국토
▁간단하다
▁미안하다
▁미키
▁서른
▁들어와서
▁들여다보
▁프로토
▁이루어져야
iles
테니까
▁말씀드리고
▁수상했다
▁Kai
etch
렸는데
ᄏᄏᄏ
KU
오래
▁보병
▁건배
▁그랬어
▁구직
개인책
캄
저녁
▁별거
하셨습니까
일반적으로
▁영양분
▁블루스
본토
exec
영혼
댄스
905
선생
Korea
있나요
▁무심
▁Temp
▁참여하기
▁홈즈
땡
▁Sydney
▁Texas
▁알렉시스
▁카이사르
▁카탈루냐
▁크리스토프
잣
▁레코더
▁시베리아
▁나섰다
▁왁스
▁해병대
ANA
▁블럭
끌
▁Device
▁놀랄만한
▁혹독
▁예뻐
▁캐논
▁베가스
▁프라임
▁않았는가
▁자라나
▁윤활유
▁찾으러
▁입장료
~~~
▁공격력
▁생각해보면
▁되겠습니까
클릭
▁얼마인가요
▁혈당
▁필요하십니까
▁이어집니다
▁귀찮게
▁자원봉사
▁쏟아져
00:00
조약
▁스텐
Delete
▁분별력
▁있겠습니다
▁사찰
dong
▁온화한
▁불결
oji
▁막강
▁테디
▁플라야
▁못했어요
▁생각해보세요
▁해협
▁하셨기
▁신학교
▁노바
▁did
Big
▁떠들
rai
▁영업소
▁레지스
▁청결한
▁Gil
▁들으셨
▁주어졌
*10
▁흐르고
▁침입자
▁Siri
▁울프
▁방해하지
def
▁쉬웠
wind
때문
▁Buy
▁말씀하신다
▁산림
▁직원들에게
SQL
▁안다면
world
긍정적
▁사랑받는
gia
▁쾌적
fix
▁미끄러지
▁카누
▁색소
레이어
조절
루시아
▁완벽하지
▁표시하십시오
▁save
▁간다면
▁접어
혐
줬으면
왁
全
▁프롬프트
州
▁Harbour
▁always
▁꼼꼼
▁크레디트
▁펩티드
▁Wonder
▁독생자
▁펑크
▁Horizon
▁삼인조
▁스프레드
▁코카인
▁섀시
▁까마귀
▁브라더스
▁애썼
▁액티브
▁퍼뜨리
▁식물성
▁안식처
▁매튜
▁신나는
▁쇠약
▁것임이라
▁판독기
▁운동장
▁GDPR
▁DMX
▁응벌
▁소호
웍스
▁네바다
▁04:58
005
▁치욕
▁있었지요
▁살리라
▁적군
▁외쳐
▁아닐까요
▁불렸다
▁CFD
증권
▁아시죠
▁CRM
▁우버
▁Sep
▁먹습니다
▁되려
▁Beat
▁비콘
▁넘어선
▁갈래
▁증폭기
▁Est
▁아니하니라
5.9
▁어린이들에게
witch
▁추종자들
계열
조금
▁경쟁사
hong
▁택하신
▁충격적인
▁많게
▁담보
▁낭비하지
▁Flor
▁이룬다
▁호텔로서의
▁1:3
GBP
prise
▁자세하게
▁06:4
£
그렇지
tica
group
이어야합니다
news
UAH
남성
ente
해달라
▁명확하지
▁라이너
mix
▁지날
ITY
004
▁무신론자
▁컴퍼니
껄
캉
▁Alerts
▁Semiconductor
▁message
▁스탬프
▁에미리트
▁팔꿈치
빡
▁지평선
▁이더리움
▁타원형
▁BBQ
▁줄어든
▁웰링턴
▁귀걸이
프레미스
▁Christmas
▁IEEE
▁눈썹
▁느긋
▁빠릅니다
▁없앨
스트림
▁남겨주세요
▁늦추
해드릴
▁Price
▁해부학
▁오웬
▁후지산
여호와께서
▁회귀
▁Zero
먼저
▁밀접하게
▁아이티
▁색다른
rome
수익
▁페달
▁국제사회
▁목성
▁결의안
▁스캔들
▁패역
▁봉인
909
tip
▁기침
▁ACC
드라마
▁있길
▁높았
▁합법
▁영업시간
chain
idi
▁차축
hub
▁호의적
▁옳다고
▁증여
▁남길
BRL
▁Bern
▁있었나
▁붙잡아
▁증폭
연료
▁테드
▁Springs
커버
▁준수해야
콧
▁개통
삐
팜
데이터시트
▁Bird
▁속이고
illo
백색
팬티
▁해충
해져야
(...)
플릿
▁Lind
쁠
투쟁
▁개척자
쁨
찮
었을까요
볍
▁다이어그램
▁바다표범
▁아비멜렉
▁옷차림
▁익스플로러
▁차이나타운
▁트리트먼트
냑
global
福
▁미크론
▁어르신
▁Axis
▁십계명
▁더러워
▁오슬로
▁도상국
▁LORD
▁WIFI
▁챙기
▁Turbo
▁깨뜨리
▁낭송
DKK
club
▁벨소리
▁SaaS
▁Rental
▁비전문가
▁Death
▁문의사항
▁릴리즈
침실
킹제임스
▁타일러
▁MSN
▁있구요
▁얼마든지
▁진료소
DOS
▁염색체
▁방수포
▁놀러
virus
▁Lang
▁꺼지
▁퇴원
도쿄
▁메이드
▁바쿠
▁마블
▁남겨진
▁도움이되지
▁바리새인들
▁1901
커플
▁다니지
▁빌더
버렸습니다
▁가득차
▁가능케
하였는지
셨음을
▁솔직한
▁잠든
▁타당성
CHA
▁읽음
2.9
밴
▁받으면서
▁Meta
quot
▁명함
▁우크라이나어
딴
규칙
홍콩
▁주겠다고
▁편의점
해줘야
illi
Black
▁변종
KRW
협약
OME
rose
Why
▁Jane
frame
▁Say
▁걷지
▁Cast
▁고객님께
핍
ā
▁OECD
▁release
▁디스트릭트
▁샌안토니오
▁에뮬레이터
▁우라늄
▁초콜렛
▁필라멘트
껌
뇽
明
썽
퀄
▁티베트
家
▁하노버
▁far
▁interface
▁저작자
▁얘들아
▁고속인터넷
▁칭송
▁Motion
▁아팠
▁채워진
▁떨쳐
▁국한되지
▁스테판
하셨다면
▁에이커
▁어딜
▁아바타
▁포르노스타
1500
▁다뤄
▁Polar
▁안쪽으로
▁Simon
▁공개되지
▁외쳤다
▁미처
sqm
▁리빙
▁거칠게
▁냉정
▁토착
fold
없음
▁휴무
춥니다
▁굴러
▁가혹
▁다낭
퍼트
▁모닝
▁필요한가요
8:9
▁대담한
▁Lost
▁데니스
님들께
▁고통스럽
▁기울어
▁매각
▁강탈
▁진행된다
▁청산
▁깨닫기
되었으므로
▁Plat
OLE
▁극심
▁주셨으니
줄래
효율
ICO
▁전략적인
root
▁수호자
▁중앙역
▁의존하지
▁시각적으로
▁아침부터
▁일원으로
▁사제들
꿀
맞춤
▁섬기지
▁절개
▁아무것
▁표상
三
썰
л
ᄇ
▁Mercedes
▁Reserved
▁나뭇잎
▁되돌릴
▁레크리에이션
▁르우벤
▁셀룰러
뉴우요오크
샨
Department
▁불투명
▁브라이턴
▁췌장
▁잊혀지
▁원어민
▁윈덤
▁랜덤
▁분사구
▁CMOS
▁소셜미디어
▁워크로드
▁프린스턴
▁셀레
▁납치범
▁놀이쇠
▁Help
▁케플러
▁부러워
▁Orange
▁기계설비
Base
▁스톱
개씩
▁급진적
▁침술
789
trans
▁물어보십시오
▁간증
마가복음
▁아랫
▁왔습니까
▁블랑
▁might
▁하셨나이다
▁Posted
▁IDC
▁묻자
▁악령
▁굳어
▁올려놓
▁농축
▁잡아먹
▁풀어주
▁Block
▁동북
▁체온
기획
▁킬러
▁박판으로
▁극복하기
▁끼친
▁소름
▁1926
▁레온
봤어요
▁포도당
메이트
▁환자들에게
▁선명한
▁비극적인
▁거점
8.0
▁확인하려면
▁타이거
▁Fred
▁카테
▁조부모
▁하필
▁결국엔
▁예언자들
었더라면
관절
▁끝나기
▁기병
parent
▁허비
588
▁가늠
소프트
▁정기적인
▁익숙하지
▁미혼
▁앤드루
王
▁키르
플라스틱
377
돌아
음료
▁유능
랗
永
月
▁쌓았
▁Deluxe
▁미시시피
▁통조림
▁파인애플
▁패러다임
▁플라멩코
因
쭈
▁computer
▁라파엘
▁스가랴
헥타르
▁문재인
▁웅덩이
▁무너뜨리
▁볼로냐
▁온실가스
▁마인드
▁움직인다
▁겸허
▁Wolf
▁메시징
mir
▁라이벌
▁좋겠네요
▁누굴
▁CMS
▁워크플로우
▁아름답습니다
▁마옵소서
▁방황케
▁브래
[19]
RED
▁덤프
▁읽으면서
▁트립
▁없나이다
▁요시야
▁추상적인
▁뭘까요
Shame
▁면허증
▁벤츠
▁삼손
▁먹었습니다
▁아이레스
▁정돈
▁침체
930
BER
투성이
▁지친
▁민족주의
▁당근
▁독점적인
grade
▁스탠리
▁takes
▁move
▁밀크
▁경비원
▁앉았다
▁얼어
▁울며
▁인사이트
▁탄산
jin
▁싫어요
8:2
arrow
▁Brun
otto
▁구체화
▁쉬어
▁Twin
▁편지함
캘리포니아
해주었습니다
▁형편없
파트너
▁혼란스럽
lake
▁이뤄진
855
TEX
▁SUS
▁편의성
해야할지
к
ン
▁Barcelona
▁Manhattan
▁Resources
▁Taylor
▁business
▁떠올려
▁프란치스코
깍
팰
„
▁Athens
▁school
▁과테말라
▁복숭아
▁슬라이딩
▁아쉬운
▁페미니스트
▁Second
▁대홍수
▁이르시기를
▁촉발
▁타임스퀘어
▁촉수
▁잔뜩
▁마이너스
▁Seagate
▁오랜만에
▁Style
홍색
▁08:5
▁태어나기
▁블룸
▁Enter
▁채찍질
▁의심스러운
▁바하마
법률
▁Unity
▁바바라
▁내쫓
▁스몰
▁만드시
▁못하느냐
▁메이슨
▁작지만
yun
▁뿐이죠
▁Marketing
▁뜻인지
▁알려져있다
▁포괄
▁Pont
▁외설
rage
문화재
▁원작
▁받아들인
▁자랑하며
▁3:9
겠는데
▁부족함
▁어린양
▁섬기게
▁나타냈다
▁mode
▁인종적
mad
▁정해져
▁던지기
-----
▁인물들
▁어느새
jet
made
▁fun
▁말이지요
▁못하였습니다
BET
▁유배
▁울산
▁붙들어
868
중략
▁세우신
▁있든지
801
♥
원숭이
잘못
안녕하세요
Add
▁놓기
▁닮았
▁미련
▁회계사
新
Elizabeth
â
−
▁effect
▁machine
▁게으른
▁스위칭
▁아스팔트
▁칫솔
▁프로페셔널
씽
▁립스틱
▁괄호
Gbps
▁next
▁이듬해
▁Japanese
▁Display
▁나그네
▁League
▁저널리스트
▁마분지
▁외딴
Host
▁언급했듯이
▁적었다
▁카지노사이트
▁Chain
▁선생님께서
▁설령
▁around
▁증류
▁VOD
▁흑연
마르크
▁리셋
▁아모리
▁shall
▁석영
post
▁이기적인
▁트레이드
▁장기적으로
피렌체에서
▁오셨다
베스트
▁먹으며
▁몸집
▁적당합니다
▁하시면서
선언
▁도심부
▁종사자
▁비옥
▁Girls
▁끝났어
▁축하해
▁그렇듯
▁잊어버린
▁막내
▁신령
690
▁감사하다
▁오셨습니다
시나이까
grad
▁카약
▁요동
렸지만
▁크신
▁Wine
▁성령께서
▁탄원
▁Dai
▁섞여
▁승부
▁글라스
▁밝혔
Singapore
절대적으로
팁
비즈니스
South
▁Solar
케이스
▁만족스럽
▁Came
▁관문
▁여겼다
갯
witcasting
▁Adventure
▁Chicago
▁나눕니다
▁놀랍게
▁소용돌이
▁알부페이라
▁컨디셔너
▁프놈펜
▼
✔
젝
툭
▁Safety
륵
▁Computer
▁UHF
▁command
▁고마운
▁마누라
▁랩톱
▁엔드포인트
▁납세자
▁something
▁개신교
▁Legend
▁반짝이는
▁한눈에
▁least
▁Index
▁북유럽
▁렌트카
fiber
▁자랑스러운
거짓
▁흑암
▁시작되기
▁황홀
▁징역
담배
▁밀폐
▁복싱
▁비켜
▁망쳐
page
▁우간다
▁잡음
▁우호적
▁투구
▁늙어
▁순서대로
▁스완
▁Mike
▁+82
hood
▁ETH
boot
뤄
dorf
ulu
▁앞날
▁허무
▁있음에도
▁대표팀
▁1880
1080
Philip
▁개최됩니다
▁띄지
▁민주화
▁비준
▁연주회
▁데려갔
▁지키게
▁강림
▁13:00
▁손님에게
었네요
▁12:3
의외로
00000
ᅲᅲᅲᅲ
▁전염성
하니까요
로움을
▁육체적인
▁현실적으로
▁대행사
▁천문대
▁우수성
▁짧다
378
¥
얼마나
▁군사력
▁부르신
▁상징적인
▁Andre
▁상태였다
▁도와드릴
▁Ava
됐어요
찾기
챔
뜩
▁뜨거워
▁Urban
▁character
▁nipples
▁술취한
▁스노클링
▁아리스토텔레스
▁지킵니다
▁플래티넘
▁허드슨
▁헤어드라이어
▁Sierra
軍
▁텍스처
▁대주교
▁교통사고
했잖아요
▁아름다웠
▁three
▁불일치
블린
▁Revolution
▁Trump
▁CBD
▁운동선수
▁냉담
▁받았읍니다
▁미첼
▁알려준다
▁tell
▁진찰
크로스
▁반납
▁브랜치
688
▁빨래
▁좋았던
▁만들어낼
▁변화시키고
▁세븐
▁발매되었다
▁대상체
▁계셨습니다
▁즉각적
▁Soul
▁예배당
▁going
▁소풍
RES
ography
▁시럽
▁Tian
겠노라
온천
▁지속가능성
▁표시줄
oshi
▁아프리카계
▁몰드
▁결정된다
▁버즈
▁여행자들
▁Iron
▁주었으며
시옵소서
▁고려하십시오
▁변모
▁유지하면서
▁축선
▁낸시
1998
▁국영
cz
▁Final
▁소비량
▁샌들
흠
캠퍼스
▁Cay
▁그리스도께
숙박
▁Circ
Lock
뿌리
民
書
ا
▁Dublin
▁fetish
▁옮긴
믈
시켰으며
▁넥타이
▁엄선된
▁애초에
▁오르가슴
▁돋보이
▁버릇
▁엄숙
▁헌장
▁알아보려면
▁죄송하지만
▁Middle
▁몰몬
▁이정표
▁turn
▁오른편
▁알아봅니다
▁카스텔
▁밝혀지지
▁연구팀은
▁Left
Product
▁05:08
▁코르크
▁낮출
▁못하리니
▁어디인가요
▁size
▁알버트
OWN
zone
▁워너
▁무익
▁난이도
▁두렵게
▁아뢰
Master
798
▁얘야
▁회전식
▁생각했죠
▁Prat
▁어둡고
lang
▁지존
harm
▁비취
▁없지요
▁가깝고
▁호환되지
▁부스터
▁맞았다
▁신경쓰지
▁잃는다
liver
할지니
696
▁상류
Preview
▁Steel
▁사악함
stitut
스피어
하겠고
990
gang
cheng
▁세워졌
앨
캡
틈
박람회
베트남
▁유용성
▁Hay
876
ré
곽
있죠
▁Beautiful
▁Memorial
▁Trenbolone
▁배고픔
▁생년월일
▁솔레노이드
▁자랐다
詩
돗
왑
▁Innovation
▁package
떴
퍽
▁철망사
▁십일조
▁독창성
▁SharePoint
▁즐거웠
▁남서부
▁비공식
▁복음주의
▁샌더스
스바냐
▁Jet
▁훔쳤
▁record
▁더우기
▁신비로운
▁섹스캠
▁물방울
▁교활
▁Today
▁푸틴
▁리얄
▁다룬다
▁Leica
▁연방정부
▁UFC
▁05:09
▁환급
▁알려주십시오
▁진멸
477
▁직통
▁Gmail
▁몰랐던
▁Dance
Gold
▁있었을까요
▁접목
▁예멘
▁성모님
▁사라지게
±0.
▁유제품
였으나
▁HTTPS
방울
갔으며
▁불변
▁끝없이
▁다가왔다
izing
▁요양
sync
▁Thai
▁도덕성
▁유로파
▁나갑니다
ridge
▁위급
▁1927
▁물어봤
▁가르치시
▁1.25
4.7
enny
▁Asian
▁두드러
▁채웠
ADA
system
North
▁스태
숲
아름다운
▁Math
빠른
싸움
▁안드레아
enne
스스로
그렇다면
lap
▁긴장감
後
東
google
▁멈춘
▁볼베어링
▁적포도주
숀
켐
▁무시무시
▁프리랜서
▁국무부
▁아놀드
▁부에노스
▁앵글
▁어울려
▁명목상
▁Huawei
▁우매한
▁IWC
▁싣고
▁무질서
▁컬럼
▁Course
▁낳아
▁헨타이
▁RPG
▁로지텍
▁Kingdom
▁겁쟁이
▁맹목적
▁버킷
▁미디안
▁브랜디
▁광대역
셔츠
▁두려웠
▁스트로크
▁잠자기
ifier
▁살아간다
▁요구르트
▁워렌
▁변환장치
▁Camera
▁아무에게도
▁미닛
2001
▁바랬
emia
▁멸절
▁아쉽
▁게시됨
▁색채
▁분이시라
▁party
building
▁보응
▁DDR
국립
IDE
▁환호
▁부과됩니다
▁SAE
rue
▁유황
▁뿐이에요
이미지
▁바꾸었다
▁행하시는
Communi
006
▁리턴
▁TPE
▁미치게
▁1:9
▁불릴
▁Lux
하르트
▁Edwards
peak
▁Glen
▁시범
uki
▁자연스럽
Paul
▁인도하심
trol
▁앱솔루
▁독소
▁주사위
하시죠
korea
▁여러분께서
TON
state
1800
▁Mun
50%
Drop
oxi
IAN
▁뚱뚱
▁보이는데
뜰
베르토
▁Disc
0.10
▁$100
▁두렵지
▁필사적
Next
크리스마스
화장실
▁Give
팸
현황
▁합류했다
意
▁contact
▁woman
▁개인정보처리방침
▁골동품
▁그나저나
▁반려동물
▁튤립
相
語
닻
뫼
얌
φ
▁책갈피
以
說
▁대마초
▁Address
▁Snap
▁엘리엇
▁Zhong
▁Jones
▁도박꾼
▁넣지
스부르크
▁카툰
라이브
▁퇴근
▁되셨나요
▁혈류
▁폐암
▁좋네요
▁수업료
▁기이한
▁양털
▁협력업체
▁재능있는
▁그리곤
▁맥북
▁속력
하구요
▁아모스
▁청량
▁Found
하였더니
▁애쉬
plex
되네요
KVA
agan
아랍
▁Exam
▁Centro
▁지키며
▁빼내
▁발람
Ray
▁Five
ige
▁보쉬
▁발렌
▁Seven
▁살아온
▁귀국
BTC
▁Castel
▁0.25
▁열성적
▁Mono
했었는데
enberg
▁입장권
▁몸체
리오스
▁감추어
▁Arab
▁경감
▁능동적
▁돌아간
▁Berg
▁분쇄기
▁소품
▁ICC
▁뿌린
▁데이터센터
▁04:0
▁빛난
pay
▁Anna
밑
▁머릿
866
공단
프로필
[18]
▁이루시
ross
쎄
훔
tribute
꿰
▁Tokyo
▁디스커버리
▁레이캬비크
▁머큐어
▁몰리브덴
▁이더네트
▁캘리브레이션
▁탈레반
▁힌디어
볼루션
챠
▁자폐증
▁적혈구
맬
居
▁웨일스
VIEW
▁기가비트
▁명시되
▁모르드개
▁FREE
▁충만하시니라
Arthur
규모
▁Dragon
scope
▁물었을
▁트리플룸
▁리프팅
▁무서웠
▁드레이크
▁당혹
▁엔트리
▁바레인
▁Circle
▁숨쉬
▁능률적인
▁탄탄
▁특급
▁부지런히
▁변덕
케이드
했답니다
▁적당히
▁조심하세요
▁Tab
BASE
▁다치게
▁보혈
▁소요될
▁Nico
678
개념
▁팬들에게
▁예정이며
▁부록
▁방광
평등
▁신하들
▁낳으
▁생물학자
▁은하계
zie
▁붙어있
fill
▁소감
SET
▁손님들에게
많
azar
▁쏘아
12345
▁바꾼다
▁Santo
▁높았다
2°
▁빼놓
핑크
just
▁friends
▁거래량
▁Paint
훌륭
심지어
▁Coll
칼럼
▁Mile
9.9
▁Colon
퀼
▁크라이스트처치
北
▁Industry
▁property
▁百姓
▁마그네틱
▁바꿉니다
▁빌헬름
▁캔버라
▁펌핑
▁펜실베이니아
떄
바빌로니아
삯
샛
平
▁흡사
▁Diamond
▁벼룩
▁아이러니
▁치솟
▁에디슨
▁MySQL
▁댓가
▁망상
▁조깅
▁변혁
▁갖추어져
▁UpdateTube
▁느껴집니다
▁채용정보
▁Switch
▁끼워
▁좋았어요
▁프리웨어
▁Race
▁프롤레타리아트
▁외장형
동맹
feng
wear
▁망막
▁백성들이여
▁만나볼
▁샌즈
▁읽거나
▁걸맞
▁이어진다
시키게
▁잡초
trust
▁우편물
▁배우십시오
▁홈런
▁미끄러
▁느끼며
▁Planet
▁젊어
proof
▁역동적인
▁시스코
dpi
분들께
eff
▁모르죠
608
이치적
▁공주님
▁외래
▁반격
뿐이었다
▁증식
▁Phen
TED
▁존중심
▁Tim
7.0
pass
gress
clar
Fire
▁지속가능
▁괜찮았
라디오
하더군요
▁내장되어
▁직감
대륙
▁맺었다
해오고
CHI
villa
프스키
▁잘라내
olic
▁알아냈
lant
칫
value
▁직위
쩌
▁기자들
▁Battle
▁교향곡
▁보살펴
▁취급방침
▁코카서스
▁트렁크
▁폴리에틸렌
時
▁Document
▁Medicine
▁respon
▁베이루트
▁트라우마
땋
▁보살피
▁브래지어
❤
▁ANSI
▁손전등
▁메소드
▁인코더
▁하물며
▁Volume
Install
▁저널리즘
▁카네기
culture
▁뜯어
▁타이페이
piece
▁교직원
▁사무라이
▁파랗
▁개장하였으며
▁올라갑니다
▁JSON
▁Cinema
▁Profile
독립
▁험난
▁마샬
▁주어집니다
▁고효율
▁밤하늘
▁가까왔
▁얘길
▁로깅
▁박힌
▁Keep
▁숨어있는
▁IMF
▁펄프
▁교단
▁통곡
▁섬겨
▁히가시
▁평소보다
▁예를들어
▁섬기며
▁달빛
▁편향
▁꾸며진
▁피해자들
▁칠십
▁되나니
▁주시겠습니까
검정
▁청구됩니다
▁가능한가요
▁천둥
▁반송
▁ISP
▁승려
▁필수적이다
▁놓으면
▁추모
▁향유
▁Riad
되리라
▁소결
▁DAC
▁ARM
▁허블
▁따뜻함
▁가로장
668
▁Mit
▁머무
▁전환점
녀석
없어
NAME
9:9
▁사회학
▁흥미진진
SDI
▁융자
▁되었을까
그렇다
▁슬프게
708
▁베푸신
※
쇼핑몰
House
됐는지
product
▁Teen
껴
펌
TEL
일요일
헝
作
市
▁Puerto
▁가리킵니다
▁건너뛰기
▁대중음식점
▁메르세데스
▁바뀝니다
▁앙골라
▁오클라호마
▁폴리우레탄
▁헤브론
▁흐리브
귈
넋
댕
▁노무현
分
defined
▁피카소
▁호이스트
▁OBD
▁선보입니다
▁페라리
▁반바지
▁지킨다
▁우에노
▁흐리게
▁헬륨
▁신명기
▁Comments
▁더럽혀
▁그레이엄
flowers
▁Level
SSC
▁포레스트
▁베이컨
▁침범
▁UAE
▁사진작가
▁평탄
▁검색결과
▁fail
▁몸짓
▁찾아보십시오
▁개정판
▁되었지요
▁산호세
▁내리시
▁않노라
▁공익
▁서유럽
▁세웠습니다
▁사나이
컬러
▁유연하게
캐럿
▁남았습니다
aaS
▁언제라도
▁참고하세요
▁들어맞
▁선출된
Mont
있으며
▁진격
▁섬겼
jack
ption
렐리
poly
▁켄트
▁기하학적
▁어리석음
Part
glass
▁강해지
stead
▁장식품
▁마주치
▁늘어난
▁말씀드릴
▁넘버
▁지나치
▁지냈다
xml
▁저항력
jia
▁cum
든간에
외국인
웁
멈
▁Avenida
▁Coffee
▁Galaxy
▁닌텐도
▁마켓플레이스
▁않연결광고
▁엉뚱한
▁워크스테이션
▁이데올로기
♦
社
귄
▁Tesla
▁target
▁캘거리
▁껴안
▁조밀한
▁심오한
스케이프
▁미주리
▁Perfect
▁Cruz
▁딜런
▁겉보기
▁why
▁알아듣
▁사라집니다
▁닫혀
저널
파괴
▁최상급
▁많으면
▁화합
▁황혼
▁Korun
▁당분간
▁핸드백
▁세일즈
▁자칫
▁초밥
▁PNG
▁테스터
▁생각해보십시오
▁Estate
▁빅터
▁활발하게
▁깨어있
▁혁신적이고
▁듀크
80,000
▁청약
▁밀집
▁스파이더
▁깃들
▁생후
▁매혹적
▁강변
▁그대들의
▁숲속
꺼에요
겠구나
▁KBS
▁열려있
▁Porto
▁연회장
▁Owner
▁첨가물
▁정립
scale
970
▁Jung
776
hui
▁1908
▁Hey
once
▁비교했을
9.1
▁기증자
▁지키려
alized
vari
logic
▁넣었다
metric
1.9
opera
럿
▁1903
▁일방적
▁Theme
콰
Service
진정한
금요일
얼굴
왼쪽
privacy
얽
▁Executive
▁Leopard
▁Paradise
▁Suunto
▁software
▁디버깅
▁미켈란젤로
▁버밍엄
▁상파울루
탤
휩
▁바느질
▁내보낼
▁하찮은
▁Location
▁휴양지
▁시어터
▁다시한번
▁connection
▁랄프
탱크
▁limit
▁money
▁불가사의
+00:00
릅니까
▁죽어가고
▁축하드립니다
▁getting
▁스톰
▁블랙베리
▁자유로워
▁말해봐
▁말씀드린
▁응용프로그램
▁Paper
▁거주는이
▁되셨습니까
희망
▁클릭하시면
menu
▁이루어졌습니다
▁05:05
▁안정적이고
▁환각
▁stop
Full
▁얻도록
▁06:09
▁뭘까
9:21
▁이겨내
gmail
▁실업률
하였음이니라
▁부활하신
▁DLC
▁머피
▁마소서
▁develop
청컨대
펀드
▁Idea
▁시청자들
▁난폭
cient
▁희생자들
▁움직이게
▁11:3
▁공공연
▁Nice
etti
SION
▁처방전
pair
▁다이브
Chem
▁LPG
Adapt
▁생리학
▁Quant
▁Neu
▁Feel
▁Jose
769
▁행해진
항문
▁CCD
yang
▁다양하다
hoo
▁구속력
냐구요
▁빌립
8-9
있음
으리로다
Studio
협의회
모바일
%1$
▁Bangkok
▁Ethereum
▁눈여겨
▁리뉴얼
▁안타까운
▁콜롬보
滅
金
뚤
▁며느리
▁사무총장
▁순중량
▁열교환기
폿
▁Cebu
▁Discovery
▁페인팅
▁인공위성
▁키시미
▁씌우
▁한밤중
▁스파이더맨
노미야
▁끌어올리
▁스텔라
▁suite
▁인서트
드라이브
/05/
dependent
[26]
▁최극
▁숨김
guard
▁공략
▁카리브해
오픈
▁브렌
▁프리젠
▁빌릴
▁학비
▁간사이
▁프랑크
▁Disk
878
▁돌파구
▁신탁
TRI
▁추석
▁다니면서
▁여느
▁느껴졌다
▁유혈
▁05:17
▁맛있게
▁미덕
▁받아보고
BAR
▁주어질
▁노벨상
▁갖추게
▁허약
▁결론적으로
▁상충
▁허영
▁충전식
▁먹거나
▁마칠
▁늙었
▁1~2
▁Juan
pool
▁되었으면
▁불완전성
▁3:3
.[2
▁내버려두
▁후손들
▁가져갔
표현
▁주어졌다
였지요
▁매혹
▁즐겼
▁Pier
▁마셔야
Pay
▁생각해본
▁BEST
-_-
▁Olymp
라이더
roma
카톡
Great
Virgin
▁Protocol
▁family
▁꿰뚫
▁스트레칭
챈
▁Phuket
▁standard
▁닉네임
▁레노버
▁레지던트
▁미츠비시
▁박근혜
▁올림피아
▁임플란트
▁재결합
▁커리큘럼
▁클러치
▁휘발유
뺄
폈
▁이리저리
twitter
‐
▁please
▁눈부신
▁initial
▁일찌기
▁까맣
▁November
▁불면증
▁가로지르
▁Electronics
▁데리러
screen
▁세심한
▁스트레인
▁패스워드
▁Freedom
▁곁들
▁자서전
▁VoIP
하박국
▁still
▁칩셋
▁소시지
▁카네이션
바카라
▁enable
▁처칠
[24]
▁풍습
▁노략
었으되
▁유니온
▁자비로운
▁05:03
▁온전케
▁찾도록
tional
▁칼튼
NIC
lysis
▁퀸즈
▁헬스장
▁결속
▁NBC
▁Robot
셨노라
농업
lack
▁굽히
▁경탄
▁마쳤다
▁겸용
▁노벨라
▁않았으면
2.00
▁AVG
일어나
bach
Kw
start
▁낳는다
ANO
▁추진력
▁떠돌
▁눈앞
radio
▁샌디
▁평원
▁되었더라
▁유동성
▁소매점
▁복잡하다
▁믿으면
였음
▁같으면
▁느슨
▁안토니
是
祭
▁PowerShell
▁Practice
▁BookingSuite
▁CMYK
▁Committee
▁brother
▁whether
▁子孫
▁아사쿠사
▁외삼촌
▁피츠버그
갭
▁리큐어
▁Lewis
▁훼방
▁되돌리
▁조나단
▁비상사태
Type
▁Focus
Consumer
▁빠뜨리
▁Branch
▁엣지
▁Empire
▁런칭
▁추첨
출장마사지
▁향기로운
▁플래쉬
▁흘린
▁닮았다
▁돌아옵니다
▁Clear
▁이렇다
뮤직
▁세분화
▁제이미
▁터득
▁both
▁산업혁명
▁연휴
▁리넨
▁Solid
▁여행객들에게
▁<<
▁되었나요
Old
▁추워
▁읽습니다
평생
skiy
▁서빙
▁주거용
▁July
▁아니었어요
pine
▁유전체
▁뒷문
▁묻혔
▁재판장
실래요
▁SHA
Char
▁막으려
▁Metal
▁맡겼
firm
▁둘러싸
▁어디있
▁윈터
~^^
▁바깥쪽
▁Term
▁희랍
늦
딧
▁갑작스러운
▁몰디브
▁뻣뻣
▁월스트리트
▁자그레브
▁자랐습니다
▁커스텀
▁파빌리온
▁패키징
代
챌
▁시그널
化
▁드로잉
▁뱅킹
▁크리에이터
故
▁50/60
▁레거시
▁루카스
▁선보이는
▁돛대
▁Yellow
▁얼어붙
▁시부야
▁Surface
▁미드타운
▁스트레이트
▁Harbor
▁벤틀리
▁로그아웃
▁Carrer
▁제삼자
▁콘센트
▁클리닝
street
젖
트럼프
주머니
▁재시작
▁Wifi
▁이르니
▁cnc
▁재충전용
▁mature
▁권익
▁NFL
▁역사학자
▁표범
ovo
▁뭐예요
778
▁느꼈던
▁결혼생활
▁부끄럽게
▁받았어요
▁DLL
▁추종
▁심중에
계좌
▁표출
▁부정직
▁메탄
▁내려갔
▁감소시키는
이신가요
▁지뢰
▁논증
▁enter
깐
power
▁케이티
▁윈치
80*
.02.20
▁Brad
oku
05:06
▁윈드
iety
Pack
▁클리프
▁coll
겠으며
▁남겼
PAN
▁활동가들
TOP
즌
▁몰아내
Once
shine
▁워크플로
둡
信
▁Alldatasheet
▁Cultural
▁Photonics
▁while
▁네비게이션
▁백패커스
▁와이키키
▁위스콘신
▁카탈로니아
뺀
쐈
큘
▁침팬지
Component
▁다운로더
▁이렇습니다
▁헬스케어
▁젖가슴
▁스캇
▁모질라
▁율례
▁Cancer
▁룸메이트
▁욕되게
▁베드앤
▁가르시아
▁항공우주
▁매듭
▁넣으십시오
여호수아
System
▁무책임
마운트
앨범
▁스팟
멋
▁넣었습니다
▁Stock
▁결단코
▁Kids
▁놀람
▁겪었던
▁twin
▁모음집
travel
▁의로움
▁베델
▁잡았습니다
▁있었노라
▁늘리고
▁절친
살짜리
▁탈락
▁Grace
▁않으려면
▁알몸
론자들
▁적힌
원칙
complete
olla
▁훌륭하다
▁명시되어
해보겠습니다
▁Manufactur
▁통제권
ASX
▁속죄제
▁Hour
▁15:3
▁낳는
▁teach
▁유효하다
▁내다보
셔널
安
能
뎅
벵
젬
м
▁BeFuck
▁Blood
▁自己
▁콜렉션
▁파충류
===
▁Organization
▁주유소
▁익스트림
▁진진한
▁Prague
▁Authority
▁tesa
▁항저우
▁NATO
▁ASME
▁보시려면
▁새겨져
▁망해라
▁올라간다
▁크리스틴
▁AISI
▁drop
▁누룩
▁북아프리카
▁보내주십시오
▁않겠느냐
▁Yang
썩
▁지어졌다
▁디버그
▁신흥
▁격투
프린트
▁콤보
▁원자재
▁자치구
▁못하노라
▁대속물
▁05:29
▁웃었다
▁보시죠
Trade
Max
▁감축
▁아니겠습니까
▁Rating
10,000
▁남자아이
▁어린이를위한
▁집행위원회
▁동독
▁당사국
▁하나님이시라
rise
ucci
social
하심이라
▁119:1
▁무슬림들
ibo
945
7000
▁옴니
iddle
ummer
▁친척들
멍
名
▁Student
Frankfurt
▁Nandrolone
▁Shield
▁갈릴레오
▁머시닝
▁백향목
▁에딘버러
▁잘생긴
▁짐바브웨
▁탁상용
い
애니매이션
▁feature
▁네바돈
▁에이전시
▁형무소
▁Nyc
▁골판지
▁배설물
▁human
▁모조리
▁둥글
▁코티지
▁쓸데없
▁스크랩
▁movie
▁Stephen
▁미나미
▁프라이비트
▁어떡하
▁놓쳤다
▁여섯째
▁장쑤
▁늘어날
뜬
Michael
Linux
《
알루미늄
▁Mother
▁맡길
Super
▁미안하지만
▁겪었습니다
▁살펴보세요
▁겨울철
▁Inside
자전거
▁업데이
▁가져왔습니다
펌프
▁person
▁나쁠
▁dick
▁07:50
▁맞나요
▁이런식으로
▁천연두
▁파이버
▁생겼는지
Follow
▁Ferry
▁굴절
▁0.02
▁리모델링했습니
▁표창
▁EDM
▁상관관계
▁거두었다
▁응급실
Press
▁뒤틀
.03.20
▁얻으려
488
▁MRT
▁Brook
겠느뇨
immer
▁React
ague
6.0
▁McG
▁Surf
▁압박감
magic
▁내려왔
787
▁메이플
▁Shell
쫓
▁Canal
벙
ë
▁Budapest
▁꼼짝
▁바뀐다
▁벨파스트
▁비엔티안
▁세라핌
▁싱가폴
▁와이너리
▁재검토
괌
질내사정
헤르체고비나
▁Swift
▁나침반
쾨
▁Canyon
▁낯설
▁이것저것
▁하스스톤
方
▁통틀어
▁Animal
▁리모트
▁켈러
▁이루려
▁일러스트레이션
▁French
▁Interface
▁바나바
▁서사시
▁티끌
▁이발소
▁Jackson
▁식재료
▁애써
▁Mansion
맛사지
▁much
▁지혜롭게
▁모니카
▁더블트리
▁Load
United
Robert
▁경련
▁바램
▁Yep
▁match
▁아니하였도다
▁찾으려면
▁Olympic
▁프레드릭
▁최강
▁증가시키고
▁법무부
▁출국
물리학
▁않았는지
▁Burn
▁맺었
▁첨가제
▁관계자들
ASH
▁이끌려
▁Artist
Institut
ogue
(102)
BOX
án
▁식구들
▁고해상
높
겜
퀀
냇
▁Brooklyn
▁JAPAN
▁PinkRod
▁picture
▁내비게이션
▁랜섬웨어
▁리디렉션
▁리모컨
▁무함마드
▁브라이트코브
▁블리즈컨
▁유니버셜
▁챔피언스리그
▁푸에르토리코
▁프로비저닝
▁amateur
▁식습관
▁헷갈리
▁AXIS
▁동대문
▁의미심장
▁극소수
▁카니발
config
▁Terminal
▁셀룰라
▁갈대아
▁제스처
▁Editor
▁브리스톨
▁Apache
▁초신성
▁Hydro
▁Developer
▁Brother
▁having
▁고상한
▁엽서
▁버젼
▁뒤돌아
▁계략
▁괴로운
▁office
▁삼켜
▁캡쳐
▁칼륨
▁플라톤
▁액압
▁가톨릭교회
▁특화된
▁베컴
▁우뚝
▁HANA
▁굴곡
wave
▁죽으리라
▁srt
▁즉흥
▁성가신
Electronic
▁심층적
스프링스
흉
■
▁통나무
Microsoft
Talk
▁부딪히
▁이러하니라
빨간
위대한
▁맛집
클루
▁인간관계
ISE
▁신도들
▁없잖아요
▁만들었어요
▁승차권
▁도우심
▁tax
▁geo
▁접어들
▁Thank
▁grow
▁Nova
Write
여섯
chang
4.00
해줘요
▁알아낸
▁대대적
▁바꾸려
ORY
▁기다린
▁Author
司
Strategy
▁Antalya
▁Broadway
▁Courtyard
▁Oxford
▁component
▁women
▁거느리고
▁라즈베리
▁바닐라
▁소말리아
▁스타크래프트
▁실시예들에서
▁어딨어
▁왼편
▁인터컨티넨탈
▁파킨슨
▁홈메이드
펩
四
▁Article
▁구부러
▁가파른
▁주얼리
▁Deutsch
▁제이콥
▁Century
▁끼워넣
▁나이로비
▁브룩스
▁빅뱅
▁Boston
▁갈고리
▁하루하루
▁크리스티안
▁파우치
▁Intl
▁성곽
009
▁그치만
▁없었는데
▁스튜
▁탄압
▁부드럽게니다
▁기술설계
▁휘트니스
▁오랫
▁읽어보세요
뭔
싱가포르
워싱턴
James
도움말
▁악취
게시판
▁지켜봐
▁엎드리
▁코넬
하시려
▁Route
▁업종
▁성읍들
▁빠져나가
bai
Query
▁Fax
▁신부님
ALE
▁쫓겨났
▁Ship
500,000
▁Plant
했느뇨
izon
ISH
그리스도교
MER
▁질투심
▁신경쓰
것이야말로
▁다가왔
▁반대쪽
해주면
▁window
▁필연적
anca
6-7
촬
▁follow
二
ᄆ
▁Heritage
▁Prospekt
▁레크레이션
▁르완다
▁모차르트
▁무브먼트
▁줄리엣
▁폴리프로필렌
뽕
휼
material
▁꿰매
▁백분율
▁더러움
▁심포니
전자상거래
▁TUV
▁버나드
▁반가워
▁미끄러짐
▁BBW
▁밝힐
▁돼지고기
▁과수원
astro
▁항산화
▁Avast
▁저수지
▁세이프
▁music
▁null
▁쓰인다
▁보도자료
vice
▁세겜
▁머레이
▁방백들
▁없었읍니다
▁스태프
▁켜져
▁깨워
▁메모리얼
000000
▁스카프
Australian
▁목마르
▁빠졌습니다
▁단념
▁death
William
▁주치의
아메리칸
덩어리
Green
▁있으십시오
▁specific
▁beach
혜택
▁공예품
▁임의로
▁05:58
EMS
▁Stand
IMO
▁합친
솔루션
onne
▁겹치
▁소방관
Qua
9:6
DATA
biz
▁Solution
▁알려드리
낡
늬
ル
ø
▁September
▁parameter
▁specified
▁마누엘
▁블라디미르
▁지적재산권
▁콜로세움
▁클래딩
弟
갠
쌤
▁리젠시
▁바우처
▁인터레일
體
▁LDAP
▁북동부
▁Session
▁불분명
▁셰이크
▁히타치
▁떠오른
▁럭비
▁앙코르
▁한걸음
▁울음소리
▁해수면
▁쟁취
▁관람객
▁backup
▁Museo
▁유효기간
▁파트너쉽
▁테스팅
▁짜릿
▁타임라인
▁빌보드
▁페드로
▁머스크
▁받아들였습니다
안마방
▁흐르면서
▁혈청
▁못하느뇨
▁커져
▁데려갈
▁루틴
▁풍족
▁무쇠
▁쓰레기통
▁평창
Select
Bedroom
완벽한
▁사자들
하이틴
자세한
(0)
high
health
▁승률
ether
▁created
▁멋져
▁부모님께
▁우아함
▁빗물
977
OEM
▁열악
▁Torre
▁여러분들께
MENT
▁Alba
슘
▁LinkedIn
▁Memory
▁Performance
▁Studies
▁라벤더
▁맏아들
▁몽고메리
▁블로깅
▁코뿔소
▁향신료
훅
▁Atlantic
▁메뚜기
뮌
▁대니얼
▁딜레마
▁트래커
▁뜨개질
▁버텨
▁벙커
▁멀쩡
▁Lionbridge
▁슬라브
▁선보일
▁아드리아
▁크래프트
txt
▁Italian
▁폼페이
▁관련하여광고
▁하보나
▁낮춰
▁Adult
▁Trend
▁생방송
▁헌혈
▁엑스레이
▁푼타
▁쿠스코
▁호스탈
▁Hack
▁대학원생
▁상품코드
▁놀라워
▁망칠
▁테크닉
▁재건축
▁격언
▁≤0.
▁Quad
주셨어요
공동체
고등학교
귀하의
연혁
▁Winter
▁Robin
User
▁유대감
▁죽으셨
▁Grove
▁Taxi
8.4
걱정
했었던
룹
멜리아
706
CDMA
▁카리브
꿨
멤
百
촛
▁802.11
▁Crystal
▁Dictionary
▁HOTEL
▁Nintendo
▁레오파드
▁렉싱턴
▁로테르담
▁숟가락
▁액추에이터
▁이용하심으로써
▁임페리얼
▁케임브리지
〜
眞
댜
헴
▁트리니티
▁블라우스
▁수도꼭지
▁수페리어
▁여쭤
▁선샤인
▁벨리즈
▁건져내
▁힘차게
▁HBM
▁reason
▁Kitchen
▁구부려
▁IGF
GbE
▁이슬점
▁웰컴
하였으되
▁로터리
▁테러리즘
▁꿈꿔
▁피크닉
▁레버리지
옳
낚
찜
맙
取
в
ス
슛
쬐
퓰
當
親
海
헉
옆
닭
≤
β
­
小
쩐
쏙
氣
횡
똑
겸
쪼
눔
要
西
갸
귓
팥
動
記
力
궂
⇒
身
윌
섯
깅
됩
낄
可
‧
死
숏
욜
約
꽂
늙
팠
經
五
š
깡
듦
톈
펍
外
랠
非
≫
훗
ᄌ
光
間
갖
잊
›
«
©
門
ل
食
告
캣
텝
돛
路
я
果
녘
펭
훨
É
來
石
都
利
깝
士
′
見
イ
́
뮈
죤
〕
짚
○
걱
싣
合
낱
リ
닳
셧
〔
낫
▲
從
反
部
맏
會
걘
렝
콴
밝
닿
좁
엑
왠
д
學
귐
깬
高
짤
왼
뜸
ᅢ
у
敎
걍
곶
꽝
멩
쾅
엎
뻔
씁
▣
켤
国
半
成
田
펨
族
識
넵
뿌
쉴
휠
⁄
λ
界
О
ı
‹
仁
퓌
智
同
빼
끓
킥
봅
잦
亡
火
川
핼
章
뎀
몹
◈
白
太
م
千
情
뎁
뗄
業
썼
덧
꿔
옐
〓
願
ο
√
≪
敵
꼰
也
殿
先
셸
맴
Т
島
遠
넉
슝
쫒
〒
댑
훤
훌
然
꿋
å
†
│
쥔
孫
權
手
必
싼
就
重
第
č
넴
쩜
ᅥ
元
目
祖
原
¶
떤
홋
禮
꾹
슥
펐
ر
空
敬
な
π
列
論
쌔
텁
↔
뻘
各
戰
處
흙
出
常
母
用
ß
똘
욤
如
父
짧
붐
듈
쌈
굉
А
古
ي
ト
ꀰ
괘
멎
잌
老
馬
面
왓
쩔
野
⋅
苦
껀
쭐
켠
兄
數
ã
뻥
쫄
官
녜
밉
풉
南
놉
썬
텅
≥
●
思
Р
多
報
求
ê
字
富
種
굼
쳇
퍅
п
⊙
♬
異
찡
ア
便
羊
ι
ν
誓
八
君
式
造
ᅡ
♣
り
뛴
잽
찹
タ
댐
웍
괜
й
욧
튠
و
支
傳
짙
땜
י
得
С
ᄑ
其
木
臣
ま
武
몄
¢
✓
通
韓
롄
뵐
뺐
춧
฿
漢
꿉
依
엿
녁
컫
会
這
至
ن
保
李
證
캬
向
慧
歸
宮
몫
뉘
걷
곁
끗
쥴
딥
샀
◆
뒷
뽐
챗
己
쿡
쉘
빕
젊
탓
헛
슷
땀
Ü
맑
싫
닙
껑
뮴
볶
얻
츨
볕
헐
헹
救
튬
떻
썹
푹
륭
色
찼
픔
눕
닮
뀌
꼼
얏
칵
펴
▶
끊
뻤
덮
맣
뎌
屬
윔
씹
뭉
촘
묶
굳
뭘
뭄
쏠
〈
쌉
돕
◇
솟
◎
₩
렷
耶
華
잼
쩡
뷸
덥
빚
캇
숟
姓
Φ
얹
쟤
뵈
헷
□
췌
핌
뻑
쉼
↑
챕
깥
걀
캥
씻
덫
걔
섞
웜
늠
딪
챤
答
♫
꽤
盟
찢
겉
낍
겅
←
끽
튤
씀
놋
짠
뚫
씰
띄
앳
엊
떳
쨋
닦
좆
꾀
앓
낵
릎
ל
援
춥
펼
מ
뻗
잤
꽉
눠
힉
邑
נ
‚
▷
숴
밌
뭅
겪
좇
샅
뻣
►
앎
눴
긁
쏴
▪
텨
뺨
뿍
튿
쏜
뀔
땠
튕
섣
깄
잿
왙
뭣
젋
땄
읊
갛
횃
뗏
뷴
뭡
츰
겊
깼
숱
̋
쐐
뉜
끕
뾰
챘
훑
們
뀝
얗
팎
슭
죔
얕
짊
쌌
빽
뺏
뱉
빴
쾰
딨
⠀
뵙
굵
컸
벚
탔
꿇
뀐
쁩
횟
큽
꺾
췄
깎
탉
샐
덟
흩
얇
녔
갇
밟
굶
갚
쏟
뽑
핥
쨌
꼈
쌓
엌
맺
옮
켰
넓
쳤
랐
잃
깊
쭤
