{"<unk>": 0, "<s>": 1, "</s>": 2, ".": 3, ",": 4, "\uc758": 5, "\u2581": 6, "\uc5d0": 7, "\u2581\uc774": 8, "\uc774": 9, ")": 10, "?": 11, "\u2581(": 12, ":": 13, "\ub85c": 14, "(": 15, "\u2581,": 16, "\u2581\uc5d0": 17, "\u25811": 18, "\u2581\u201c": 19, "\u2581-": 20, "\u2581\"": 21, "\u25812": 22, "s": 23, "\u25813": 24, "!": 25, "-": 26, "\uc778": 27, "\u2581:": 28, "\u25814": 29, "\ub2e4": 30, "\u2019": 31, "\u2581\u2018": 32, "\u201d": 33, "\uae30": 34, "\"": 35, "\u25815": 36, "\u2581\ud638\ud154": 37, "/": 38, "\u258110": 39, "\u2581\uc778": 40, ".\u201d": 41, "\u25816": 42, "\uc2dc": 43, "'": 44, "...": 45, "\u2581\ub85c": 46, "\uc2a4": 47, "\uc5b4": 48, "\u2581[": 49, "\u2581\ub2e4": 50, "\u25817": 51, "2": 52, "\uc0ac": 53, "\u2581/": 54, "\u25818": 55, "\u2581'": 56, ";": 57, "\u2581A": 58, "\ub9ac": 59, "\u2581the": 60, "\u258112": 61, "\u25819": 62, "]": 63, "3": 64, "\uc544": 65, "S": 66, "C": 67, "\u2581B": 68, "\u2581of": 69, "\u2581xHamster": 70, ".\"": 71, "1": 72, "\u258111": 73, "\u258120": 74, "m": 75, "\u2581\uc2dc": 76, "\u2581\uc544": 77, "D": 78, "\u258115": 79, "\u2581S": 80, "\u2581C": 81, "B": 82, "A": 83, "\u258118": 84, "\ud2b8": 85, "ing": 86, "\u2581...": 87, "\u2581)": 88, "\u2581&": 89, "4": 90, "\u2581_": 91, "mm": 92, "\u258130": 93, "er": 94, "\u2581a": 95, "V": 96, "G": 97, "a": 98, "d": 99, "\u2581and": 100, "\u2581P": 101, "y": 102, "com": 103, "W": 104, "\u2581D": 105, "t": 106, "\u2581\uc0ac": 107, "\u2581M": 108, "F": 109, "T": 110, "e": 111, "\u258116": 112, "\u2581\u2013": 113, "\u2581to": 114, "M": 115, "5": 116, "\u2581T": 117, "\u2581I": 118, "\u258114": 119, "\u2581G": 120, "\u2581E": 121, "\u2581in": 122, "\u258124": 123, "ed": 124, "\u2581H": 125, "\u258113": 126, "x": 127, "\u2581R": 128, "\u2581The": 129, "\u258117": 130, "n": 131, "\u2581K": 132, "P": 133, "\u2581F": 134, "\u2581>": 135, "K": 136, "\u258119": 137, "o": 138, "L": 139, "H": 140, "\u2581N": 141, "\u2581V": 142, "\u2581L": 143, "6": 144, "\u2581HD": 145, "\u2581\uae30": 146, "\u258125": 147, "\u2581100": 148, "8": 149, "\u2581X": 150, "\u2581Porn": 151, "\ud638": 152, "g": 153, "R": 154, "\u2581W": 155, "\u2581%": 156, "N": 157, ">": 158, "\u258150": 159, "~": 160, "i": 161, "al": 162, "in": 163, "\u2581\uc2a4": 164, "\u2581TV": 165, "\u2581#": 166, "\u2581*": 167, "b": 168, "7": 169, "\u2581km": 170, "E": 171, "_": 172, "X": 173, "\u2581\ub9ac": 174, "9": 175, "?\u201d": 176, "\u258121": 177, "\u25810": 178, "[": 179, "c": 180, "\u258122": 181, "\u2581J": 182, "10": 183, "O": 184, "\u2581Hotel": 185, "f": 186, "\u2581+": 187, "Tube": 188, "\u25812018": 189, "k": 190, "r": 191, "\u2581An": 192, "p": 193, "h": 194, "\u258140": 195, "\u2581O": 196, "\u2581for": 197, "\u258123": 198, "\u2581Windows": 199, "on": 200, "\u2581Q": 201, "\uad6d": 202, "Hub": 203, "\u25812019": 204, "+": 205, "en": 206, "\u2581<": 207, "I": 208, "w": 209, "Y": 210, "\u2014": 211, "\u2581$": 212, "es": 213, "\u2581~": 214, "or": 215, "*": 216, "J": 217, "\u25812017": 218, "\u2581is": 219, "The": 220, "v": 221, "&": 222, "le": 223, "l": 224, "?\"": 225, "km": 226, "\u2581US": 227, "ly": 228, "$": 229, "\u258128": 230, "th": 231, "re": 232, "\u258126": 233, "12": 234, "\u258160": 235, "\u2581U": 236, "\u2581x": 237, "\u25812016": 238, "\u258127": 239, "\u2581(18+)": 240, "15": 241, "\u2581PC": 242, "U": 243, "21": 244, "ar": 245, "\u2581LED": 246, "\u25812015": 247, "u": 248, "25": 249, "11": 250, "\u2581Co": 251, "\u2581you": 252, "\u2581\u2022": 253, "is": 254, "\u2581de": 255, "\u2581m": 256, "us": 257, "\u2581Z": 258, "\u2581In": 259, "an": 260, "\u2581on": 261, "18": 262, "\u258129": 263, "13": 264, "20": 265, "Z": 266, "et": 267, "%": 268, "17": 269, "16": 270, "24": 271, "at": 272, "co": 273, "it": 274, "\u258101": 275, "\u258102": 276, "\u2581Street": 277, "\u258131": 278, "\u2581\u00b7": 279, "\u2581c": 280, "\u25812014": 281, "to": 282, "el": 283, "\u258132": 284, "14": 285, "19": 286, "\u258107": 287, "\u258106": 288, "\u00ae": 289, "\u00b7": 290, "\u2581b": 291, "\u2581Re": 292, "ia": 293, "\u2581p": 294, "\u2581Y": 295, "Q": 296, "\u258105": 297, "z": 298, "\u2581No": 299, "\u2581Mac": 300, "\u258135": 301, "50": 302, "\u2581Read": 303, "\u2581More": 304, "\u25812012": 305, "\u2581200": 306, "\uc2a4\ud2b8": 307, "\u2581De": 308, "\u2581IP": 309, "\u25812010": 310, "ri": 311, "\u2581KAYAK": 312, "\u258103": 313, "\u2581RF": 314, "30": 315, "\u25812013": 316, "\u25812011": 317, "!\u201d": 318, "\u2581be": 319, "40": 320, ":10": 321, "ic": 322, "0": 323, "\u2581Pro": 324, "um": 325, "\u2581St": 326, "man": 327, ":11": 328, "ine": 329, "-1": 330, "lo": 331, ":00": 332, "\u2581La": 333, "\u2581f": 334, "ta": 335, "\u258180": 336, "ation": 337, "28": 338, "\u2581500": 339, "\u2581USB": 340, "\u2581e": 341, "\u2581with": 342, "32": 343, "ur": 344, "ers": 345, "\u2581Google": 346, "22": 347, "\u258145": 348, "\u258190": 349, "\u258108": 350, "li": 351, "id": 352, ":12": 353, "ion": 354, "\u2581by": 355, "\u258104": 356, "ra": 357, "ro": 358, "un": 359, "29": 360, ":20": 361, ":15": 362, "\u2581Red": 363, "\u25812008": 364, ":17": 365, "la": 366, "35": 367, "\u2581Park": 368, "ol": 369, "27": 370, "\u2581Dr": 371, "de": 372, "\u2581JizzBunker": 373, "ie": 374, "il": 375, "\u258133": 376, "\u25812009": 377, ":30": 378, "st": 379, "65": 380, "ton": 381, "\u2581We": 382, "!!": 383, ":19": 384, "\u2581\u00bb": 385, "\u2581300": 386, "\u2581Al": 387, "\ub9ac\uc544": 388, "os": 389, "ter": 390, "31": 391, "\u2581=": 392, "se": 393, "na": 394, "\u2581Road": 395, "500": 396, "\u258170": 397, "ne": 398, ":13": 399, "\u2581that": 400, "ry": 401, "\u2581TXXX": 402, "26": 403, "90": 404, "60": 405, "\u2581d": 406, "\u2581t": 407, "te": 408, "\u258136": 409, "\u2581ISO": 410, ":18": 411, "\u258109": 412, "\u2581g": 413, "son": 414, "33": 415, ":16": 416, "100": 417, "\u2581or": 418, "\u2581re": 419, "ve": 420, "\u2581i": 421, "\u2581New": 422, "\u2581OS": 423, "\u2581My": 424, "\u2018": 425, "as": 426, ".\u201d\u2014": 427, "\u25812000": 428, "\u2581Bravo": 429, "ut": 430, "am": 431, ":22": 432, "ul": 433, "\u25812007": 434, "\u2581Wi": 435, "\u2581PDF": 436, "\u2581(19": 437, "\u2581You": 438, "\u2581100%": 439, "23": 440, "ate": 441, "\u258108:00": 442, "99": 443, "48": 444, "64": 445, "-2": 446, "!\"": 447, "ment": 448, "45": 449, "cm": 450, "3)": 451, "@": 452, "46": 453, "\u2581Home": 454, "ity": 455, "-10": 456, "\u2581me": 457, "2)": 458, "\u2581Microsoft": 459, "one": 460, "01": 461, "75": 462, "\u2581\u25cf": 463, "\u258134": 464, "ad": 465, ":24": 466, "\u25812020": 467, ":28": 468, "est": 469, "j": 470, "\u2581Le": 471, "\u2581v": 472, ":4": 473, "go": 474, "\u2581(2": 475, "and": 476, "67": 477, "\u2581City": 478, "\u2581IT": 479, "ent": 480, "95": 481, "-5": 482, ":5": 483, "\u2581Via": 484, "ty": 485, "\u258137": 486, "\u2581mm": 487, "49": 488, "1)": 489, "\u2581do": 490, "\u2581House": 491, "34": 492, "66": 493, ":23": 494, "ang": 495, "ti": 496, "ap": 497, "36": 498, "\u2581it": 499, "\u258148": 500, "age": 501, "38": 502, "\u2581Me": 503, "-4": 504, "\u258138": 505, "\u2581have": 506, "\u258100": 507, "\u2581n": 508, "\u2581(1)": 509, ":7": 510, "im": 511, "TM": 512, "37": 513, "ma": 514, "\u2581not": 515, "\u2581Be": 516, "mo": 517, "\u2581XXX": 518, "05": 519, "ir": 520, "\u2581Inn": 521, "\u25811000": 522, ":25": 523, "\u201c": 524, "44": 525, "no": 526, "Fi": 527, "able": 528, "\u2581Mar": 529, "ian": 530, "\u2581are": 531, "85": 532, "\u2581from": 533, "\u2581Apple": 534, "\u2581150": 535, "\u2581at": 536, "39": 537, "\u2581]": 538, "em": 539, "\u2581AC": 540, "Porn": 541, "per": 542, ":27": 543, "55": 544, "\u2581your": 545, "63": 546, "43": 547, "ong": 548, "ard": 549, "ist": 550, "-3": 551, "=": 552, "04": 553, "ce": 554, "-6": 555, "07": 556, "\u2581w": 557, "\u2581To": 558, "80": 559, "54": 560, "\u2581Car": 561, ":26": 562, "ac": 563, "51": 564, "\u2013": 565, "59": 566, "70": 567, "om": 568, "57": 569, "kg": 570, "ig": 571, "\u2581can": 572, "\u2581Con": 573, "\u2581DC": 574, "\ub9ac\uc2a4": 575, "\u2581Li": 576, "\u25812006": 577, ":29": 578, "09": 579, "42": 580, "200": 581, "5)": 582, "71": 583, "ha": 584, "68": 585, "\u2581an": 586, "land": 587, "58": 588, "-8": 589, "\u2581Beach": 590, "io": 591, "Dan": 592, ":8": 593, "47": 594, ":6": 595, "86": 596, "-12": 597, "61": 598, "ina": 599, ":1": 600, "53": 601, "ca": 602, "\u2581And": 603, "me": 604, "ee": 605, "\u258142": 606, "ster": 607, "ot": 608, "port": 609, "02": 610, "\u2581400": 611, "\u25812005": 612, "79": 613, "56": 614, "\u2581h": 615, "up": 616, "do": 617, "\u2581\u2192": 618, "\u258139": 619, ":01": 620, "ant": 621, "600": 622, "\u2581El": 623, "ge": 624, ":31": 625, "min": 626, "\u2581Do": 627, "\u2581Center": 628, "ci": 629, "84": 630, "97": 631, "72": 632, "\u2581ID": 633, "au": 634, "\u2581@": 635, "net": 636, "\u2581120": 637, "\u2581\u00a9": 638, "41": 639, "\u2581San": 640, "\u2581Bar": 641, "\u2581USD": 642, "ka": 643, "8)": 644, "\u2581--": 645, "be": 646, "In": 647, "\u2581World": 648, "\u2581OEM": 649, "\u2581as": 650, "da": 651, "06": 652, "-20": 653, "ab": 654, "all": 655, "ick": 656, "\u2581All": 657, "IN": 658, "98": 659, "\u2581PVC": 660, "\u2581k": 661, "\u2581\u00b0": 662, "\u258164": 663, "\u258155": 664, "96": 665, "\u2581my": 666, "\u2581Inc": 667, "ll": 668, "end": 669, "03": 670, "300": 671, "ah": 672, "\u2581(2)": 673, "\u2581Museum": 674, "92": 675, "\u2581Man": 676, "\u2581CD": 677, "87": 678, "62": 679, "ai": 680, "9)": 681, "mp": 682, "op": 683, "):": 684, "\u2581SD": 685, "ak": 686, "\u2581(1": 687, "\u2581CO": 688, "ner": 689, "\u2581Mo": 690, "ive": 691, "69": 692, "08": 693, "\u2581Ar": 694, "\u2581\u2014": 695, "74": 696, "ba": 697, "52": 698, "ice": 699, "ip": 700, "ch": 701, "\u2581LCD": 702, "ber": 703, "=\"": 704, "81": 705, "\u2581International": 706, "-7": 707, "the": 708, "ay": 709, "\u2581this": 710, "\u2581DVD": 711, "Re": 712, "\u258143": 713, "\u258105:00": 714, "76": 715, "\u2581Di": 716, "PS": 717, "\u25812003": 718, "ana": 719, "US": 720, "der": 721, "\u2581Android": 722, "82": 723, "#": 724, "\u2581Ro": 725, "89": 726, "-11": 727, "\u2581Villa": 728, "\u2581600": 729, "73": 730, "\u2581www": 731, ":34": 732, "0\u00b0": 733, "PC": 734, "AL": 735, "GB": 736, "ru": 737, "\u2581University": 738, "ver": 739, "\u2581250": 740, ":40": 741, "ko": 742, "way": 743, "7)": 744, "\u2581So": 745, "\u2581URL": 746, "\u258175": 747, "\u2581South": 748, "4)": 749, "ER": 750, "400": 751, "94": 752, "\u2581One": 753, "Porno": 754, "\u2581[...]": 755, "ex": 756, "ance": 757, "ft": 758, "di": 759, "IS": 760, "\u2581ex": 761, "\u00b0": 762, "83": 763, "SA": 764, "\u2581con": 765, "\u2581Facebook": 766, "ence": 767, "\u00e9": 768, "Zilla": 769, "\u30fb": 770, "\u2581Outlook": 771, "\u25812004": 772, "\u2581Go": 773, ":33": 774, ":35": 775, ":45": 776, "\u258144": 777, "\u2581Xo": 778, "ga": 779, ":37": 780, "\u2581(5": 781, "\u2581Bo": 782, "\u2581\u20ac": 783, "ni": 784, "\u2581Vi": 785, "si": 786, "lu": 787, "\u3011": 788, "6)": 789, "sa": 790, "MA": 791, ":32": 792, "sh": 793, "\u2581II": 794, "\u2581Ra": 795, "\u2581Server": 796, "93": 797, ":39": 798, "\u258141": 799, "\u2581Na": 800, "ub": 801, "ite": 802, "\u2581Ma": 803, "00": 804, "ting": 805, "ure": 806, "AR": 807, "\u258110:00": 808, "91": 809, "con": 810, "\u258165": 811, "\u2581MP": 812, ":07": 813, "ear": 814, "5%": 815, "BS": 816, "\u2581EU": 817, "hi": 818, "IC": 819, "ps": 820, "-15": 821, "\u2581Hot": 822, "lin": 823, "\u2581{": 824, "\u2581Am": 825, "pa": 826, "\u2581Sa": 827, ":59": 828, "ou": 829, "EN": 830, ":36": 831, "ho": 832, "88": 833, "ow": 834, ":38": 835, "CA": 836, "bo": 837, "\u2581API": 838, "/1": 839, "ies": 840, "IP": 841, "ary": 842, "\u2581Remo": 843, "EC": 844, "\u2581West": 845, ":44": 846, "\u2581He": 847, "800": 848, "za": 849, "Me": 850, "-9": 851, "^^": 852, "ke": 853, "ino": 854, "\u2581YouTube": 855, "\u2581Web": 856, "our": 857, "ron": 858, "ley": 859, "\u258146": 860, "va": 861, "\u2581r": 862, "77": 863, "Tuber": 864, "\u2581Avenue": 865, "\u2581Ha": 866, "que": 867, "\u2581`": 868, "TS": 869, "pe": 870, "\u00d7": 871, "ud": 872, ":57": 873, "\u2581Pa": 874, "\u2581we": 875, "\u2581(4": 876, "\u2581Air": 877, "\u2581800": 878, "ph": 879, "ler": 880, "org": 881, "dy": 882, "\u2581Your": 883, "-19": 884, "he": 885, "St": 886, ":56": 887, "78": 888, ":05": 889, ":58": 890, "\u2581Ch": 891, "OS": 892, "AT": 893, "les": 894, "nd": 895, "\u2581all": 896, "\u2581(3": 897, "ide": 898, "\u258152": 899, "\u25811.5": 900, "\u25810.5": 901, ":43": 902, "\u2581APK": 903, "ight": 904, "\u25812)": 905, "\u2581For": 906, "\u2581App": 907, "MS": 908, "tor": 909, "\u2581Da": 910, ":50": 911, "\u258149": 912, ":04": 913, ":49": 914, "\u2581Du": 915, ":47": 916, "ell": 917, "chi": 918, "SI": 919, "\u2581data": 920, "ach": 921, "vi": 922, ":42": 923, "PA": 924, "AM": 925, "\u2581Datasheet": 926, "tic": 927, "\u2581l": 928, "\u25811)": 929, "ham": 930, "\u2581It": 931, "\u25812002": 932, ":02": 933, "\u2581y": 934, "000": 935, "\u2581(10": 936, "RI": 937, "ES": 938, "MP": 939, "ag": 940, "\u2581la": 941, "\u2581he": 942, "\u2581Apartment": 943, "po": 944, "ml": 945, "\u2581Po": 946, "oc": 947, "\u2581iPhone": 948, "\u2581pro": 949, "qui": 950, "tal": 951, "CC": 952, "\u258151": 953, "ara": 954, "ous": 955, "ug": 956, "\u25811990": 957, "\u2581iOS": 958, "red": 959, "}": 960, "ish": 961, "AS": 962, "ise": 963, "\u2581Lo": 964, "\u25810.1": 965, "ash": 966, "://": 967, "\u2581one": 968, "ja": 969, "\u2581VPN": 970, "ness": 971, "q": 972, "\u258147": 973, "\ud154": 974, "TV": 975, "\u2581will": 976, "DS": 977, "RE": 978, "\u2581available": 979, "\u2581SP": 980, ":48": 981, "han": 982, ":41": 983, "TO": 984, "\u2581\u3010": 985, "SP": 986, "\u2581At": 987, "\u2581CEO": 988, "tra": 989, "ung": 990, "az": 991, "Lust": 992, "\u2581MS": 993, "bit": 994, "\u2581DNA": 995, ":46": 996, ":55": 997, "\u2581Per": 998, "eg": 999, "\u2581Can": 1000, "ST": 1001, "\u258107:00": 1002, "\u258108:0": 1003, "\u2581stars": 1004, "\u2581Ad": 1005, "ue": 1006, "Hamster": 1007, "\u2581CNC": 1008, "\u2581Th": 1009, "\u2581so": 1010, "\u2581Office": 1011, "\u2581Gu": 1012, "TA": 1013, "\u2581Is": 1014, "mi": 1015, "ator": 1016, "AN": 1017, ":08": 1018, "ical": 1019, "nm": 1020, "\u2581Se": 1021, "ek": 1022, "Hz": 1023, "\u2581Su": 1024, "AC": 1025, "ica": 1026, "\u25812.5": 1027, "vo": 1028, "\u2581[1]": 1029, "ran": 1030, "ning": 1031, "\u2581Mi": 1032, "\u2581CAS": 1033, "\u2581di": 1034, "\u2581She": 1035, "\u2581no": 1036, "ath": 1037, "oz": 1038, "\u2581\u266a": 1039, "ID": 1040, "700": 1041, "\u25812001": 1042, "\u2581IC": 1043, "ok": 1044, "mon": 1045, "mer": 1046, "ix": 1047, "\u2581National": 1048, "less": 1049, "\u2581180": 1050, "ya": 1051, "\u258150%": 1052, "SE": 1053, "ySex": 1054, "\u2581(3)": 1055, "\u2581Str": 1056, "cal": 1057, "gen": 1058, "\u2581110": 1059, "\u2581May": 1060, "\u2581AI": 1061, "\u25812.0": 1062, "\u258154": 1063, "\u2581Lu": 1064, "\u2581Tube": 1065, ":54": 1066, "\u2581Pre": 1067, "art": 1068, "RA": 1069, "\u258156": 1070, "\u2581ST": 1071, "\u2581GPS": 1072, "sion": 1073, "Flix": 1074, "\u258153": 1075, ":09": 1076, "ism": 1077, "iv": 1078, "den": 1079, "gu": 1080, "\u2581HP": 1081, "\u2581On": 1082, "qu": 1083, "\u2581En": 1084, "\u258172": 1085, "oo": 1086, "IA": 1087, "\u2581Cor": 1088, "ling": 1089, ":53": 1090, "\u2581War": 1091, "lan": 1092, "act": 1093, "\u2581Business": 1094, "2%": 1095, "\u2581Sp": 1096, "(19": 1097, "\u2581IN": 1098, "line": 1099, "-30": 1100, "ake": 1101, "name": 1102, "cy": 1103, ":03": 1104, "\u2581Data": 1105, "\u2581Studio": 1106, "-13": 1107, "out": 1108, "\u2581(6": 1109, "CO": 1110, "\">": 1111, "\u2581East": 1112, "\u2581(18": 1113, "\u2581co": 1114, "MI": 1115, "ama": 1116, ":51": 1117, "-18": 1118, "\u2581Art": 1119, "Th": 1120, "\u2581Ho": 1121, "od": 1122, "ial": 1123, "ki": 1124, "LS": 1125, "\u2581Ta": 1126, "\u2581\u25a1": 1127, "--": 1128, "7%": 1129, "ec": 1130, "ray": 1131, "\\": 1132, "\u2581up": 1133, "\u2581Booking": 1134, "\u2581man": 1135, "\u2581Hell": 1136, "-01": 1137, "\u2581Ti": 1138, "ass": 1139, "\u2581SC": 1140, "-16": 1141, "\u2581WEB": 1142, "\u2581(20": 1143, "ated": 1144, "UN": 1145, "ita": 1146, "ny": 1147, "ov": 1148, "\u2581more": 1149, "Mo": 1150, "pcs": 1151, ":52": 1152, "eng": 1153, "old": 1154, "\u2581CA": 1155, "MB": 1156, "ase": 1157, "\u258110%": 1158, "\u2581Jo": 1159, "\u2581Group": 1160, "\u2581John": 1161, "\u25811998": 1162, "\u2581Open": 1163, "ris": 1164, "\u2581\u00d7": 1165, "ib": 1166, "if": 1167, "\u2581How": 1168, "ore": 1169, "gi": 1170, "we": 1171, "`": 1172, "IT": 1173, "ten": 1174, "\u2581(15": 1175, "\u2581Pi": 1176, "day": 1177, "ING": 1178, "\u25810.3": 1179, "LA": 1180, "\u2581Cloud": 1181, "ium": 1182, "EX": 1183, "\u2581Ca": 1184, "\u2581al": 1185, "EL": 1186, "sp": 1187, "\u25811980": 1188, "\u258158": 1189, "\u2581Play": 1190, "AP": 1191, "NET": 1192, "ei": 1193, "row": 1194, "\u2581out": 1195, "\u2581un": 1196, "\u2581st": 1197, "\u2581Day": 1198, "\u258195": 1199, "\u2581Of": 1200, "tin": 1201, "2018": 1202, "king": 1203, "150": 1204, "-17": 1205, "ding": 1206, "ik": 1207, "\u2581j": 1208, "\u2581North": 1209, "\u2581Power": 1210, "8%": 1211, "ven": 1212, "MO": 1213, "\u2581Ver": 1214, "\u2581Resort": 1215, "uck": 1216, "\u2581Love": 1217, "-14": 1218, "DA": 1219, "\u2581was": 1220, "\u2581Ri": 1221, "\u2581Min": 1222, "\u25811999": 1223, "\u25810.2": 1224, "iz": 1225, "(1": 1226, "BC": 1227, "\u2581360": 1228, "\u2581Drive": 1229, "pi": 1230, "ev": 1231, "900": 1232, "\u2581Ex": 1233, "PE": 1234, "\u2581Life": 1235, "\u2581Ba": 1236, "\u2581EN": 1237, "\u258199": 1238, "ea": 1239, "To": 1240, "\u2581Ka": 1241, "Ch": 1242, "SS": 1243, "cu": 1244, "\u2581Airwheel": 1245, "\u2581PP": 1246, "\u2581Next": 1247, "SC": 1248, "\u2581MB": 1249, "\u2581220": 1250, "\u2581Hostel": 1251, "\u2581View": 1252, "tro": 1253, "\u2581>>": 1254, "\u2581JR": 1255, "\u2581Bay": 1256, "\u2581Super": 1257, "\u2581(11": 1258, "eat": 1259, "ens": 1260, "wa": 1261, "\u25813000": 1262, "\u2581God": 1263, "\u2581Ko": 1264, "\u2581SS": 1265, "ever": 1266, "OR": 1267, "\u2581CE": 1268, "www": 1269, "RS": 1270, "\u2581PE": 1271, "bl": 1272, "ale": 1273, "ier": 1274, "\u25811,000": 1275, "app": 1276, "ual": 1277, "gar": 1278, "\u2581PCB": 1279, "3%": 1280, "\u2581time": 1281, "side": 1282, "6%": 1283, "Pro": 1284, "ren": 1285, "NA": 1286, "</": 1287, "\u2581pre": 1288, "MM": 1289, "\u2581Fe": 1290, "ted": 1291, "\u2581PST": 1292, "ada": 1293, "2017": 1294, "tan": 1295, "AD": 1296, "\u2581PS": 1297, "\u258157": 1298, "ess": 1299, "\u258185": 1300, "ez": 1301, "\u2581Mon": 1302, "LE": 1303, "\u2581Sha": 1304, "\u2581Port": 1305, "\u2581Hu": 1306, "\u2581AS": 1307, "\u2581Ltd": 1308, "\u2581Ga": 1309, "und": 1310, "by": 1311, "\u2581IBM": 1312, "ET": 1313, "ene": 1314, "\u25811970": 1315, "\u2581CS": 1316, "TP": 1317, "\u2581start": 1318, "\u2581Or": 1319, "\u2581Qu": 1320, "\u2581UV": 1321, "An": 1322, "log": 1323, "\u2581(13": 1324, "my": 1325, "\u2581Gra": 1326, "\u2581Fi": 1327, "amp": 1328, "yo": 1329, "nt": 1330, "\u25811960": 1331, "Name": 1332, "\u2581700": 1333, "\u2581(12": 1334, "ld": 1335, "fo": 1336, "\u2581Si": 1337, "4%": 1338, "\u2581Free": 1339, "\u2581What": 1340, "\u2581(4)": 1341, "\uff5e": 1342, "\u2581Sc": 1343, "\u2581Ja": 1344, "\u2581York": 1345, "lic": 1346, "ura": 1347, "ign": 1348, "\u258130%": 1349, "cl": 1350, "\u2581350": 1351, "mg": 1352, "\u2581UN": 1353, "ory": 1354, "\u2581Green": 1355, "ition": 1356, "\u258120%": 1357, "\u258159": 1358, "eo": 1359, "\u2581Work": 1360, "\u2581Comp": 1361, "\u2581Centre": 1362, "ep": 1363, "EA": 1364, "tu": 1365, "\u2581Suites": 1366, "low": 1367, "Cafe": 1368, "\uc0ac\uc774\ud2b8": 1369, "\u2581Un": 1370, "\u2581who": 1371, "\u2581am": 1372, "\u2581Square": 1373, "\u25813)": 1374, "RP": 1375, "\u2581School": 1376, "(2": 1377, "\u2581Ac": 1378, "des": 1379, "are": 1380, "\u2581Ni": 1381, "IL": 1382, "\u25811.2": 1383, "\u258106:00": 1384, "\u2581ch": 1385, "ker": 1386, "\u25813.5": 1387, "av": 1388, "\u2581XP": 1389, "br": 1390, "\u2581Pe": 1391, "\u25815000": 1392, "\u2581\u00ab": 1393, "cc": 1394, "PP": 1395, "ano": 1396, "HD": 1397, "DC": 1398, "\u2581dis": 1399, "PI": 1400, "yl": 1401, "\u2581Island": 1402, "\u2581Big": 1403, "\u2581Black": 1404, "(3": 1405, "let": 1406, "sk": 1407, "\u2581Tags": 1408, "-21": 1409, "\u2581160": 1410, "so": 1411, "\u2581Sch": 1412, "air": 1413, "\u2581love": 1414, "fi": 1415, "\u2581Bedroom": 1416, "\u2581By": 1417, "mb": 1418, "CH": 1419, "\u2581Central": 1420, "\u2581Alpha": 1421, "2019": 1422, "che": 1423, "\u2581}": 1424, "-0": 1425, "SD": 1426, "ini": 1427, "KW": 1428, "PO": 1429, "\u2581go": 1430, "\u25811.6": 1431, "\u25811996": 1432, "ari": 1433, "\u2581SA": 1434, "\u2581King": 1435, "FA": 1436, "\u2581Sea": 1437, "rs": 1438, "ger": 1439, "De": 1440, "uk": 1441, "CS": 1442, "\u2581Airport": 1443, "\u2581Adobe": 1444, "\u2581LA": 1445, "LC": 1446, "\u2581HTML": 1447, "\u2581Win": 1448, "\u25811995": 1449, "ons": 1450, "ans": 1451, "2016": 1452, "OL": 1453, "\u2581like": 1454, "\u25811997": 1455, "\u2581NO": 1456, "ern": 1457, "pl": 1458, "ert": 1459, "\u2581use": 1460, "<": 1461, "/8": 1462, "las": 1463, "\u2581(7": 1464, "bi": 1465, "\u2581Global": 1466, "\u2581Korea": 1467, "\u2581Express": 1468, "\u2581GB": 1469, "\u2581(17": 1470, "\u2581Blue": 1471, "CE": 1472, "aw": 1473, "\u2581IS": 1474, ".[1]": 1475, "ct": 1476, "ful": 1477, "\u2581Club": 1478, "\u2581app": 1479, "sc": 1480, "\u258166": 1481, "BA": 1482, "!!!": 1483, "ef": 1484, "\u2581Hi": 1485, "\u2581ASTM": 1486, "PDF": 1487, "fa": 1488, "\u2581System": 1489, "ney": 1490, "\u2581Trans": 1491, "form": 1492, "\u2581Grand": 1493, "You": 1494, "\u25813.0": 1495, "Co": 1496, "\u25811991": 1497, "of": 1498, "-25": 1499, "\u2581en": 1500, "base": 1501, "ze": 1502, "\u2581Ke": 1503, "\u2581Word": 1504, "ctor": 1505, "hu": 1506, "OP": 1507, "ye": 1508, "120": 1509, "/2": 1510, "\u2581(16": 1511, "\u2581Time": 1512, "sen": 1513, "ck": 1514, "0.0": 1515, "250": 1516, "bar": 1517, "og": 1518, "\u2581Star": 1519, "\u2581Tri": 1520, "bra": 1521, "1%": 1522, "\u258168": 1523, "\u2581Live": 1524, "\u2581SE": 1525, "2.5": 1526, "bu": 1527, "TI": 1528, "ala": 1529, "\u2581\u00a3": 1530, "9%": 1531, "ving": 1532, "RO": 1533, "\u2581\u201c\u2018": 1534, "\u2581Sun": 1535, "\u2581(8": 1536, "ration": 1537, "\u2581Gi": 1538, "TH": 1539, "\u2581(14": 1540, "\u258162": 1541, "\u2581RE": 1542, "\u2581Any": 1543, "\u2581sex": 1544, "\u25811.0": 1545, "\u2581Har": 1546, "\u2581130": 1547, "ins": 1548, "MC": 1549, "\u2581MA": 1550, "\u2581THE": 1551, "LO": 1552, "ative": 1553, "\u2581MT": 1554, "\u2581Fa": 1555, "\u25811950": 1556, "field": 1557, "van": 1558, "\u2581Ne": 1559, "\u25811994": 1560, "\u2581140": 1561, "DP": 1562, "\u25811992": 1563, "\u2581Ph": 1564, "-02": 1565, "yn": 1566, "\u2581but": 1567, "\u2581Chi": 1568, "\u2581Casa": 1569, "\u2581AM": 1570, "DI": 1571, "\u2581TS": 1572, "ric": 1573, "\u2581Market": 1574, "\u2581Real": 1575, "\u2581PM": 1576, "0000": 1577, "\u2581Service": 1578, "\u2581High": 1579, "nes": 1580, "fer": 1581, "TC": 1582, "\")": 1583, "py": 1584, "\u2581PA": 1585, "\u2581iPad": 1586, "\u2581Tra": 1587, "\u2581mo": 1588, "5,000": 1589, "IM": 1590, "\u2581del": 1591, "lt": 1592, "\u2581Firefox": 1593, "tion": 1594, ".*": 1595, "ns": 1596, "light": 1597, "\u2581comp": 1598, "ED": 1599, "\u2581Design": 1600, "\u2581With": 1601, "\u2581about": 1602, "ng": 1603, "\u2581Lake": 1604, "\u2581lo": 1605, "AI": 1606, "NS": 1607, "\u2581EC": 1608, "\u258186": 1609, "ming": 1610, "men": 1611, "\u2581CPU": 1612, "\u25811989": 1613, "-23": 1614, "RC": 1615, "lf": 1616, "wood": 1617, "2015": 1618, "\u2581AD": 1619, "era": 1620, "Pa": 1621, "\u258169": 1622, "\u2581Hostelworld": 1623, "IF": 1624, "NO": 1625, "\u2581SCP": 1626, "\u258163": 1627, "pp": 1628, "\u2581Up": 1629, "\u258198": 1630, "\u2581has": 1631, "\u2581Cha": 1632, "\u2581Best": 1633, "1.5": 1634, "Con": 1635, "ls": 1636, "\u2581As": 1637, "vis": 1638, "\u2581name": 1639, "/15": 1640, "\u2581Station": 1641, "\u2581Cl": 1642, "\u2581AP": 1643, "BO": 1644, "\u2581Pan": 1645, "pro": 1646, "tel": 1647, "\u2581ES": 1648, "oh": 1649, "For": 1650, "\u2581Spa": 1651, "-22": 1652, "-24": 1653, "ating": 1654, "TT": 1655, "kw": 1656, "\u2581#1": 1657, "\u2581Old": 1658, "FT": 1659, "\u2581Del": 1660, "\u2581HOME": 1661, "mar": 1662, "ich": 1663, "ics": 1664, "\u2581Place": 1665, "ON": 1666, "FC": 1667, "ral": 1668, "2000": 1669, "use": 1670, "\u2581dur": 1671, "\u2581365": 1672, "\u2581[2]": 1673, "\u2581State": 1674, "af": 1675, "\u2581SSD": 1676, "Ro": 1677, "mit": 1678, "\u25811200": 1679, "ple": 1680, "\u2581us": 1681, "late": 1682, "1000": 1683, "\u25810.6": 1684, "160": 1685, "ization": 1686, "\u2581Reg": 1687, "No": 1688, "\u2581RFID": 1689, "ella": 1690, "\u2581sp": 1691, "\u2581Garden": 1692, "ize": 1693, "\u2581Par": 1694, "\u2581SQL": 1695, "\u25811.1": 1696, "\u258190%": 1697, "/10": 1698, "rin": 1699, "001": 1700, "wi": 1701, "ware": 1702, "\u2581900": 1703, "\u2581Sal": 1704, "count": 1705, "\u2581\\": 1706, "CM": 1707, "\u2581Vip": 1708, "-00": 1709, "ira": 1710, "ther": 1711, "220": 1712, "\u2581Bu": 1713, "\u2581new": 1714, "ction": 1715, "well": 1716, "ava": 1717, "ute": 1718, "ock": 1719, "\u2581Her": 1720, "ola": 1721, "gg": 1722, "\u25811993": 1723, "int": 1724, "ries": 1725, "ME": 1726, "PM": 1727, "ship": 1728, "SM": 1729, "ace": 1730, "\u2581Act": 1731, "\u2581College": 1732, "\u2581what": 1733, "\u2581Xbox": 1734, "UR": 1735, "ally": 1736, "\u258180%": 1737, "ey": 1738, "\u2581Technology": 1739, "\u2581000": 1740, "sch": 1741, "IR": 1742, "\u2581China": 1743, "EE": 1744, "can": 1745, "lon": 1746, "\u258161": 1747, "\u258184": 1748, "\u2581Health": 1749, "ero": 1750, "ata": 1751, "KB": 1752, "NC": 1753, "tes": 1754, "\u25810.4": 1755, "\u2581Che": 1756, "ade": 1757, "MHz": 1758, "\u25811500": 1759, "\u2581Cap": 1760, "\u2581times": 1761, "cent": 1762, "\u2581450": 1763, "ane": 1764, "3-": 1765, "brand": 1766, "cho": 1767, "-07": 1768, "\u2581MO": 1769, "val": 1770, "\u2581Val": 1771, "Al": 1772, "star": 1773, "ML": 1774, "ring": 1775, "\u2581Dropbox": 1776, "\u2581see": 1777, "sky": 1778, "main": 1779, "mark": 1780, "du": 1781, "nc": 1782, "ria": 1783, "\u2581Gr": 1784, "box": 1785, "\u2581American": 1786, "car": 1787, "110": 1788, "\u25811.8": 1789, "\u2581SK": 1790, "\u2581tr": 1791, "len": 1792, "\u2581Hat": 1793, "\u2581\u30fb": 1794, "\u2581NAS": 1795, "dia": 1796, "\u2581Sh": 1797, "EP": 1798, "LM": 1799, "tech": 1800, "GA": 1801, "kr": 1802, "\u2581Holiday": 1803, "\u2581Network": 1804, "ame": 1805, "lm": 1806, "ward": 1807, "olo": 1808, "\u2581SM": 1809, "nu": 1810, "\u2581Town": 1811, "\u2581Mor": 1812, "\u258196": 1813, "AA": 1814, "Ex": 1815, "\u2581Pu": 1816, "\u2581English": 1817, "\u2581Cal": 1818, "\u258188": 1819, "ile": 1820, "hr": 1821, "PR": 1822, "\u2581III": 1823, "ova": 1824, "DR": 1825, "00,000": 1826, "\u2581United": 1827, "\u2581Bitcoin": 1828, "\u258112:00": 1829, "\u2581Light": 1830, "ean": 1831, "\u2581when": 1832, "lor": 1833, "oy": 1834, "su": 1835, "\u2581PornoX": 1836, "\u2581UPS": 1837, "New": 1838, "\u2581125": 1839, "\u00bb": 1840, "VA": 1841, "\u2581Store": 1842, "win": 1843, "tri": 1844, "\u2581Beeg": 1845, "\u2581RS": 1846, "HZ": 1847, "\u2581Water": 1848, "CT": 1849, "eb": 1850, "\u2581Micro": 1851, "\u2581Plaza": 1852, "\u2581Pr": 1853, "ati": 1854, "EU": 1855, "\u2581cm": 1856, "set": 1857, "-05": 1858, "\u25814.0": 1859, "tain": 1860, "\u2581Institute": 1861, "nch": 1862, "\u2581MI": 1863, "\u2581304": 1864, "\u2581Key": 1865, "tle": 1866, "lip": 1867, "/3": 1868, "\u25812.4": 1869, "\u2581Top": 1870, "HS": 1871, "ink": 1872, "\u2581Don": 1873, "\u2581ma": 1874, "ula": 1875, "350": 1876, "\u2581Cat": 1877, "its": 1878, "fe": 1879, "ali": 1880, "jo": 1881, "-06": 1882, "-08": 1883, "\u2581\u203a": 1884, "\u2581Ben": 1885, "-03": 1886, "\u2581Inter": 1887, "kin": 1888, "ob": 1889, "press": 1890, "\u2581Out": 1891, "10)": 1892, "\u2581sa": 1893, "\u2581Ab": 1894, "sta": 1895, "\u2581Yodot": 1896, "\u2581LG": 1897, "-09": 1898, "ele": 1899, "ona": 1900, "\u2581kg": 1901, "\u2581Akamai": 1902, "\u2581http": 1903, "ky": 1904, "ture": 1905, "\u2581$1": 1906, "over": 1907, "\u2581101": 1908, "tz": 1909, "ford": 1910, "zz": 1911, "TE": 1912, "\u2581HTTP": 1913, "PL": 1914, "TER": 1915, "put": 1916, "\u2581Rock": 1917, "\u2581Royal": 1918, "ville": 1919, "CI": 1920, "2-": 1921, "\u2581Tna": 1922, "view": 1923, "\u2581Tu": 1924, "304": 1925, "(10": 1926, "lex": 1927, "\u2581Bed": 1928, "ena": 1929, "\u2581per": 1930, "-04": 1931, "ode": 1932, "VI": 1933, "\u2581David": 1934, "\u2581know": 1935, "rus": 1936, "sol": 1937, "pr": 1938, "{": 1939, "FS": 1940, "\u258197": 1941, "\u2581file": 1942, "\u2581TO": 1943, "\u2581River": 1944, "\u258177": 1945, "cr": 1946, "ole": 1947, "\u2581Smart": 1948, "\u25814000": 1949, "ks": 1950, "ult": 1951, "\u2581work": 1952, "\u2581VR": 1953, "vin": 1954, "KG": 1955, "\u2581News": 1956, "\u25811:1": 1957, "vent": 1958, "\u258182": 1959, "shi": 1960, "EM": 1961, "\u2581\u2264": 1962, "\u2581Way": 1963, "\u2581128": 1964, "\u2581Source": 1965, "La": 1966, "DM": 1967, "don": 1968, "nn": 1969, "\u2581Auto": 1970, "\u2581if": 1971, "\u258189": 1972, "\u25810.8": 1973, "burg": 1974, "\u2581IR": 1975, "ble": 1976, "9001": 1977, "\u2581(5)": 1978, "\u2581Game": 1979, "ora": 1980, "\u2581Hall": 1981, "-26": 1982, "TB": 1983, "house": 1984, "zi": 1985, "\u2581Management": 1986, "\u2581server": 1987, "\u2581CP": 1988, "\u2581EUR": 1989, "HO": 1990, ".5+": 1991, "mail": 1992, "ible": 1993, "\u25810.7": 1994, "try": 1995, "\u258194": 1996, "\u2581Video": 1997, "\u2581Gar": 1998, "\u2581Great": 1999, "\u2581hd": 2000, "\u2581type": 2001, "DE": 2002, "fu": 2003, "ology": 2004, "ike": 2005, "stan": 2006, "\u2581Hy": 2007, "ets": 2008, "\u2581Linux": 2009, "NuVid": 2010, "gsm": 2011, "\u2581Bi": 2012, "\u2581Wa": 2013, "ski": 2014, "/5": 2015, "bin": 2016, "tr": 2017, "\u2581mg": 2018, "\u2581VMware": 2019, "ani": 2020, "hen": 2021, "\u25813*": 2022, "\u2581Hill": 2023, "\u2581make": 2024, "ions": 2025, "\u2581Casino": 2026, "pos": 2027, "spec": 2028, "\u2581mi": 2029, "IG": 2030, "OT": 2031, "time": 2032, "cher": 2033, "bon": 2034, "\u25810.9": 2035, "berg": 2036, "pt": 2037, "\u2581Gen": 2038, "\u2581Sw": 2039, "UL": 2040, "\u2581UL": 2041, "\u258106:15": 2042, "\u2581Fr": 2043, "130": 2044, "ome": 2045, "\u258170%": 2046, "ain": 2047, "book": 2048, "iff": 2049, "FP": 2050, "Cl": 2051, "\u2581Not": 2052, "Le": 2053, "/4": 2054, "\u2581Ah": 2055, "\u25812.1": 2056, "ji": 2057, "lia": 2058, "\u2581DE": 2059, "rt": 2060, "This": 2061, "str": 2062, "link": 2063, "ado": 2064, "lot": 2065, "\u258178": 2066, "\u2581Amazon": 2067, "zo": 2068, "\u2581Post": 2069, "ien": 2070, "\u2581car": 2071, "\u2581Project": 2072, "(4": 2073, "\u2581le": 2074, "???": 2075, ");": 2076, "\u2581Emp": 2077, "FI": 2078, "lk": 2079, "\u2581File": 2080, "\u2581Tour": 2081, "\u2581than": 2082, "\u25811/2": 2083, "\u2581set": 2084, "\u2581Gal": 2085, "oth": 2086, "\u258173": 2087, "word": 2088, "ony": 2089, "\u2581Suite": 2090, "cha": 2091, "\u25814*": 2092, "\u2581CAD": 2093, "-27": 2094, "\u2581Em": 2095, "RM": 2096, "\u2581Long": 2097, "\u2581Mc": 2098, "\u2581Ave": 2099, "\u2581value": 2100, "\u2581NY": 2101, "\u25811988": 2102, "vid": 2103, "gan": 2104, "\u258192": 2105, "\u2581Exchange": 2106, "\u2581CH": 2107, "\u2581MC": 2108, "\u2581Us": 2109, "*1": 2110, "RT": 2111, "dom": 2112, "eu": 2113, "top": 2114, "bel": 2115, "\u2581Bur": 2116, "san": 2117, "\u2581DIN": 2118, "BR": 2119, "\u2581they": 2120, "\u2581Media": 2121, "\u258176": 2122, "\u2581iPod": 2123, "\u25811945": 2124, "\u2581z": 2125, "\u2581Enterprise": 2126, "OM": 2127, "ax": 2128, "We": 2129, "\u2581Ser": 2130, "\u2581th": 2131, "ken": 2132, "\u2581Dis": 2133, "\u2581LC": 2134, "\u2581**": 2135, "ask": 2136, "\u2581Com": 2137, "-40": 2138, "\u2581Hol": 2139, "\u2581Santa": 2140, "\u2581any": 2141, "ju": 2142, "\u2581India": 2143, "\u2581Photo": 2144, "\u2581CR": 2145, "5\u00b0": 2146, "\u2581Church": 2147, "\u2581Previous": 2148, "ison": 2149, "\u2581240": 2150, "Ma": 2151, "On": 2152, "\u2581Ag": 2153, "OD": 2154, "\u2581SO": 2155, "-100": 2156, "\u2581iTunes": 2157, "\u2581Bridge": 2158, "\u2581Lab": 2159, "180": 2160, "\u2581ICO": 2161, "\u2581fa": 2162, "ule": 2163, "aya": 2164, "lie": 2165, "bb": 2166, "\u2581Book": 2167, "lam": 2168, "GS": 2169, "ature": 2170, "xi": 2171, "right": 2172, "\u2581other": 2173, "\u2581AT": 2174, "tis": 2175, "GO": 2176, "\u2581MD": 2177, "lock": 2178, "var": 2179, "gent": 2180, "gh": 2181, "\u2581his": 2182, "\u2581Music": 2183, "\u258167": 2184, "++": 2185, "\u2581Saint": 2186, "erry": 2187, "\u2581CI": 2188, "ack": 2189, "ius": 2190, "\u2581Tower": 2191, "How": 2192, "mic": 2193, "ras": 2194, "\u2581Mobile": 2195, "\u00f6": 2196, "\u2581first": 2197, "\u2581TNT": 2198, "ect": 2199, "\u25811920": 2200, "UM": 2201, "\u2581Java": 2202, "els": 2203, "(1)": 2204, "\u25811.3": 2205, "\u2581RGB": 2206, "CP": 2207, "\u2581170": 2208, "\u2581li": 2209, "\u25812.2": 2210, "II": 2211, "\u258174": 2212, "pot": 2213, "awa": 2214, "101": 2215, "\u2581cr": 2216, "\u2581America": 2217, "days": 2218, "\u2581want": 2219, "gy": 2220, "\u2581Corporation": 2221, "\u2581EP": 2222, "BI": 2223, "ao": 2224, "ith": 2225, "-60": 2226, "ping": 2227, "sha": 2228, "\u2581Uni": 2229, "\u2581Ju": 2230, "FE": 2231, "\u2581(9": 2232, "lay": 2233, "je": 2234, "night": 2235, "ball": 2236, "self": 2237, "\u2581sub": 2238, "pin": 2239, "for": 2240, "tur": 2241, "\u2581Sex": 2242, "\u25815%": 2243, "LI": 2244, "\u258171": 2245, "\u258110,000": 2246, "lit": 2247, "\u2581Company": 2248, "\u2581SAP": 2249, "-28": 2250, "ose": 2251, "\u2581\u00b1": 2252, "\u2581Plus": 2253, "cer": 2254, "Com": 2255, "ations": 2256, "\u2581Sky": 2257, "fr": 2258, "ff": 2259, "One": 2260, "\u2581po": 2261, "2.1": 2262, "\u2581Played": 2263, "mal": 2264, "\u2581FA": 2265, "\u2581life": 2266, "\u2581HIV": 2267, "\u2581ME": 2268, "inch": 2269, "NT": 2270, "\u2581su": 2271, "cam": 2272, "CR": 2273, "\u2581Mont": 2274, "\u2581get": 2275, "\u2581Char": 2276, "\u2581WA": 2277, "\u2581CC": 2278, "FF": 2279, "OC": 2280, "nel": 2281, "\u2581over": 2282, "\u2581Instant": 2283, "\u2581PR": 2284, "He": 2285, "ities": 2286, "\u2581RO": 2287, "PT": 2288, "\u25812,000": 2289, "aff": 2290, "\u2581Who": 2291, "pic": 2292, "Be": 2293, "\u2581Pen": 2294, "\u2581Vol": 2295, "\u2581user": 2296, "\u2581system": 2297, "\u25811986": 2298, "uch": 2299, "\u25811.4": 2300, "ello": 2301, "\u2581Room": 2302, "TF": 2303, "\u2581Bel": 2304, "\u258181": 2305, "mA": 2306, "\u2581Family": 2307, "\u2581Residence": 2308, "WA": 2309, "\u2581o": 2310, "\u25811987": 2311, "\u2581This": 2312, "\u2581BC": 2313, "\u2581London": 2314, "\u2581380": 2315, "ability": 2316, "\u25811985": 2317, "\u2581PLC": 2318, "yan": 2319, "HA": 2320, "ox": 2321, "BT": 2322, "\u2581(6)": 2323, "\u2581AR": 2324, "CD": 2325, "\u2581VIP": 2326, "\u2581Max": 2327, "\u258183": 2328, "\u2581White": 2329, "ALL": 2330, "serv": 2331, "\u258107:30": 2332, "\u2581Try": 2333, "\u2581day": 2334, "yer": 2335, "\u2581Good": 2336, "\u25811.7": 2337, "ram": 2338, "\u2581DS": 2339, "\u2581AVI": 2340, "TR": 2341, "ART": 2342, "\u258179": 2343, "\u2581FDA": 2344, "ND": 2345, "\u2581Han": 2346, "rid": 2347, "\u2581Point": 2348, "RD": 2349, "gin": 2350, "\u258193": 2351, "cle": 2352, "\u25815.0": 2353, "back": 2354, "\u2581Walk": 2355, "LP": 2356, "\u25811914": 2357, "\u2581Paul": 2358, "ui": 2359, "\u2581IoT": 2360, "off": 2361, "\u2581FM": 2362, "\u2581Pin": 2363, "\u2581part": 2364, "\u2581(24": 2365, "\u2581DHL": 2366, "\u2581\u2605": 2367, "\u2581Pal": 2368, "oli": 2369, "CK": 2370, "\u2581Sam": 2371, "\u2581Back": 2372, "load": 2373, "ami": 2374, "LT": 2375, "host": 2376, "uit": 2377, "cus": 2378, "\u2581WiFi": 2379, "\u2581BS": 2380, "\u2581HDMI": 2381, "\u25811984": 2382, "\u25818.1": 2383, "\u2581Nu": 2384, "NE": 2385, "\u2581Los": 2386, "\u2581Men": 2387, "pen": 2388, "\u2581Alex": 2389, "\u2581FI": 2390, "\u2581SMS": 2391, "(5": 2392, "-50": 2393, "\u25811972": 2394, "2014": 2395, "\u2581Kar": 2396, "\u2581only": 2397, "\u2581115": 2398, "\u2581NC": 2399, "INE": 2400, "\u2581PO": 2401, "\u2581Tableau": 2402, "aka": 2403, "\u2581SU": 2404, "\u25811080": 2405, "ark": 2406, "\u2581pa": 2407, "search": 2408, "\u2581Intel": 2409, "\u2581show": 2410, "\u2581Sim": 2411, "nic": 2412, "sis": 2413, "[3]": 2414, "\u2581AlotPorn": 2415, "\u2581PL": 2416, "\u2581Camp": 2417, "\u2581Ki": 2418, "\u2581Village": 2419, "\u2581room": 2420, "pc": 2421, "ICE": 2422, "\u2581BO": 2423, "\u2581EX": 2424, "key": 2425, "\u2581Foursquare": 2426, "(18": 2427, "\u2581Night": 2428, "\u2581se": 2429, "What": 2430, "\u2581SMD": 2431, "eth": 2432, "pu": 2433, "\u2581Research": 2434, "PD": 2435, "CL": 2436, "real": 2437, "\u2581good": 2438, "SH": 2439, "\u2581Mark": 2440, "ification": 2441, "\u2581Mini": 2442, "\u2581PU": 2443, "\u2581Ass": 2444, "3.5": 2445, "\u2581Science": 2446, "\u2581need": 2447, "\u2581Now": 2448, "\u2581him": 2449, "\u00e1": 2450, "\u2581Part": 2451, "\u2581Fin": 2452, "\u2581Shemale": 2453, "\u2581Ru": 2454, "\u2581our": 2455, "\u2581Twitter": 2456, "ii": 2457, "0.5": 2458, "pornia": 2459, "\u2581Party": 2460, "\u2581Cam": 2461, "ments": 2462, "dB": 2463, "\u2581da": 2464, "mor": 2465, "22)": 2466, "cia": 2467, "3/": 2468, "It": 2469, "\u25814)": 2470, "8,000": 2471, "rd": 2472, "\u2581found": 2473, "\u25814.5": 2474, "eau": 2475, "\u2581how": 2476, "\u2581Bra": 2477, "IO": 2478, "\u2581post": 2479, "rate": 2480, "avi": 2481, "\u2581105": 2482, "\u2581Copyright": 2483, "UE": 2484, "\u2581Ku": 2485, "\u2581Te": 2486, "\u2581Foundation": 2487, "\u2581***": 2488, "rr": 2489, "bus": 2490, "\u258140%": 2491, "\u2581Je": 2492, "\u2581EM": 2493, "TL": 2494, "264": 2495, "\u2581fl": 2496, "ae": 2497, "\u2581ro": 2498, "gra": 2499, "\u2581750": 2500, "\u2581MOV": 2501, "lar": 2502, "hy": 2503, "\u2581Tru": 2504, "125": 2505, "\u25811930": 2506, "rist": 2507, "uc": 2508, "\u2581fuck": 2509, "\u2581Log": 2510, "\u2581RT": 2511, "\u2581(30": 2512, "\u2581BBC": 2513, "USD": 2514, "\u2581\u201c[": 2515, "\u2581TM": 2516, "\u2581Apartments": 2517, "\u2581AMD": 2518, "\u25816000": 2519, "\u2581Search": 2520, "pm": 2521, "NV": 2522, "\u2581Guest": 2523, "\u2581From": 2524, "\u2581Tom": 2525, "\u25811940": 2526, "\u2581OST": 2527, "\u2581GO": 2528, "\u2581!!": 2529, "\u2581Direct": 2530, "\u2581Artec": 2531, "\u2581FL": 2532, "pre": 2533, "\u2581Des": 2534, "12)": 2535, "\u2581Chrome": 2536, "\u2581Cisco": 2537, "\u2581Bal": 2538, "\u2581CT": 2539, "0.1": 2540, "\u2581EA": 2541, "\u2581bo": 2542, "\u258199%": 2543, "\u2581Ana": 2544, "\u258186-": 2545, "\u25812:1": 2546, "\u2581Software": 2547, "\u2581Fort": 2548, "\u2581Hong": 2549, "232": 2550, "\u2581Poly": 2551, "\u2581Mal": 2552, "TRA": 2553, "UT": 2554, "\u2581Ocean": 2555, "\u2581Cu": 2556, "\u2581trans": 2557, "\u2581->": 2558, "ros": 2559, "\u2581Bio": 2560, "1.1": 2561, "reg": 2562, "\u2581Program": 2563, "ery": 2564, "\u2581UC": 2565, "har": 2566, "\u2581Security": 2567, "ska": 2568, "\u2581which": 2569, "\u2581(0)": 2570, "\u2581DB": 2571, "AG": 2572, "\u2581Get": 2573, "LL": 2574, "MT": 2575, "\u2581SF": 2576, "Do": 2577, "Hit": 2578, "\u2581HS": 2579, "\u2581Palace": 2580, "\u2581world": 2581, "App": 2582, "\u25813:1": 2583, "\u25811973": 2584, "\u2581Net": 2585, "rc": 2586, "2.0": 2587, "rian": 2588, "\u2581don": 2589, "\u2581AWS": 2590, "dra": 2591, "town": 2592, "tar": 2593, "cur": 2594, "OO": 2595, "16)": 2596, "elle": 2597, "\u2581District": 2598, "\u2581CF": 2599, "adi": 2600, "tube": 2601, "ette": 2602, "eck": 2603, "\u258125%": 2604, "\u2581Master": 2605, "\u2581home": 2606, "\u2581Palm": 2607, "\u2581Control": 2608, "bor": 2609, "\u2581FIFA": 2610, "ington": 2611, "\u2581TA": 2612, "450": 2613, "\u2581DM": 2614, "\u2581Japan": 2615, "\u2581Dell": 2616, "NI": 2617, "14)": 2618, "SL": 2619, "Box": 2620, "mes": 2621, "Br": 2622, "\u2581(25": 2623, "\u2581Ge": 2624, "\u25811969": 2625, "\u2581Af": 2626, "cat": 2627, "\u2581But": 2628, "SO": 2629, "\u2581FC": 2630, "ida": 2631, "VR": 2632, "ato": 2633, "bil": 2634, "aj": 2635, "\u2581DJ": 2636, "2012": 2637, "\u2581NA": 2638, "una": 2639, "anda": 2640, "\u2581Av": 2641, "\u2581ho": 2642, "\u2581way": 2643, "\u2581vs": 2644, "ote": 2645, "\u2581read": 2646, "LD": 2647, "\u2581Ste": 2648, "fin": 2649, "\u2581Ly": 2650, "uri": 2651, "Mar": 2652, "\u2581BMW": 2653, "\u2581Manager": 2654, "\u2581190": 2655, "her": 2656, "ett": 2657, "\u25813.1": 2658, "rain": 2659, "\u2581say": 2660, "\u2581some": 2661, "\u258187": 2662, "ander": 2663, "\u2581VI": 2664, "\u2581Gold": 2665, "tus": 2666, "rent": 2667, "2011": 2668, "\u2581play": 2669, "\u2581End": 2670, "\u2581HE": 2671, "\u2581Cr": 2672, "ille": 2673, "\u2581States": 2674, "23)": 2675, "\u2581SH": 2676, "\u25811.9": 2677, "get": 2678, "170": 2679, "\u2581Vo": 2680, "uro": 2681, "\u2581OK": 2682, "IX": 2683, "ico": 2684, "\u2581\u00a5": 2685, "\u2581Sur": 2686, "zy": 2687, "\u25815,000": 2688, "-35": 2689, "\u2581them": 2690, "ify": 2691, "\u2581Mega": 2692, "\u2581ass": 2693, "DB": 2694, "gr": 2695, "Boobs": 2696, "uff": 2697, "anna": 2698, "\u25811983": 2699, "\u2581Ap": 2700, "kh": 2701, "\u2581Pass": 2702, "\u2581Access": 2703, "\u2581Dan": 2704, "\u2581Pay": 2705, "\u2581Services": 2706, "\u2581320": 2707, "vel": 2708, "140": 2709, "led": 2710, "\u2581Product": 2711, "\u2581DNS": 2712, "\u2581Online": 2713, "}}": 2714, "\u2581Anti": 2715, "ima": 2716, "\u2581mar": 2717, "\u2581MBA": 2718, "gal": 2719, "ense": 2720, "gate": 2721, "\u2581Xvideos": 2722, "\u2581iCloud": 2723, "\u2581Johnson": 2724, "pha": 2725, "\u2581Page": 2726, "320": 2727, "\u2581Space": 2728, "stra": 2729, "lation": 2730, "HR": 2731, "\u2581key": 2732, "\u2581free": 2733, "\u2581list": 2734, "med": 2735, "\u2581PHP": 2736, "FO": 2737, "\u2581IV": 2738, "dam": 2739, "999": 2740, "erson": 2741, "VPN": 2742, "own": 2743, "Get": 2744, "\u2581fo": 2745, "\u2581CL": 2746, "\u2581may": 2747, "oi": 2748, "\u2581GT": 2749, "tern": 2750, "\u2581Mu": 2751, "\u2581Sol": 2752, "\u2581gets": 2753, "\u2581Internet": 2754, "\u2581WordPress": 2755, "XX": 2756, "\u2581Bre": 2757, "1.2": 2758, "\u2581Excel": 2759, "\u25811979": 2760, "board": 2761, "\u2581inter": 2762, "\u2581TED": 2763, "750": 2764, "\u2581FAQ": 2765, "\u2581Las": 2766, "imp": 2767, "\u2581GP": 2768, "-29": 2769, ",000,000": 2770, "ique": 2771, "rad": 2772, "\u25811800": 2773, "rk": 2774, "\u25811976": 2775, "cast": 2776, "\u2581Form": 2777, "\u2581change": 2778, "oma": 2779, "\u2581Lee": 2780, "\u2581number": 2781, "\u2581Lord": 2782, "IE": 2783, "mag": 2784, "lis": 2785, "\u2581Series": 2786, "\u2581hand": 2787, "20)": 2788, "AF": 2789, "gram": 2790, "\u2581316": 2791, "\u2581her": 2792, "even": 2793, "del": 2794, "\u2581About": 2795, "vol": 2796, "360": 2797, "\u2581Korean": 2798, "space": 2799, "\u25812.3": 2800, "^": 2801, "\u2581Nor": 2802, "iro": 2803, "\u2581Land": 2804, "\u2581Wal": 2805, "\u2581Law": 2806, "\u2581UI": 2807, "\u2581GDP": 2808, "phone": 2809, "\u2581NE": 2810, "\u2581Mag": 2811, "2008": 2812, "\u2581Show": 2813, "rest": 2814, "\u2581str": 2815, "\u2581Let": 2816, "\u2581Peter": 2817, "coin": 2818, "Bo": 2819, "SR": 2820, "\u2581AL": 2821, "DO": 2822, "aki": 2823, "\u2581Christ": 2824, "/11": 2825, "\u258106:5": 2826, "\u2581Ya": 2827, "\u2581des": 2828, "\u2581CV": 2829, "dent": 2830, "\u2581into": 2831, "\u25811900": 2832, "\u2581Azure": 2833, "met": 2834, "\u2581there": 2835, "\u2581SI": 2836, "\u2581::": 2837, "uni": 2838, "\u2581Fo": 2839, "\u2581FAT": 2840, "\u2581SEO": 2841, "\u2581AB": 2842, "\u2581****": 2843, "\u2581Paris": 2844, "kW": 2845, "GP": 2846, "[1]": 2847, "\u2581Pinterest": 2848, "\u2581Skype": 2849, "\u2581SGS": 2850, "\u2581WI": 2851, "ope": 2852, "2020": 2853, "rap": 2854, "\u2581back": 2855, "\u2581OP": 2856, "\u2581Bank": 2857, "\u2581Ed": 2858, "\u2581Sub": 2859, "\u2581just": 2860, "par": 2861, "max": 2862, "\u2581Sign": 2863, "ient": 2864, "\u2581USA": 2865, "\u2581IEC": 2866, "\u2581RAM": 2867, "rac": 2868, "ssa": 2869, "\u2581im": 2870, "chan": 2871, "\u2581Player": 2872, "ized": 2873, "ates": 2874, "ters": 2875, "\u2581log": 2876, "EST": 2877, "yu": 2878, "\u2581Over": 2879, "\u2581Dream": 2880, "\u2581database": 2881, "\u2581Year": 2882, "pan": 2883, "bol": 2884, "\u2581view": 2885, "hua": 2886, "\u2581James": 2887, "los": 2888, "\u2581sc": 2889, "\u2581Boulevard": 2890, "ency": 2891, "Ar": 2892, "TX": 2893, "\u25811982": 2894, "gel": 2895, "\u2581Digital": 2896, "\u2581Cur": 2897, "2/": 2898, "-34": 2899, "mas": 2900, "isa": 2901, "\u2581Arm": 2902, "\u2581Machine": 2903, "\u2581(8)": 2904, "\u2022": 2905, "illa": 2906, "\u2581Sy": 2907, "\u25811971": 2908, "\u2581Dec": 2909, "So": 2910, "\u2581dr": 2911, "\u2581Class": 2912, "3000": 2913, "Car": 2914, "part": 2915, "park": 2916, "(6": 2917, "\u2581Tre": 2918, "\u2581Tool": 2919, "BB": 2920, "\u2581TR": 2921, "\u2581Dar": 2922, "DL": 2923, "FR": 2924, "SK": 2925, "\u2581Mountain": 2926, "\u2581George": 2927, "\u2581test": 2928, "\u2581PRO": 2929, "\u2581That": 2930, "-200": 2931, "VER": 2932, "7.1": 2933, ".[2]": 2934, "rie": 2935, "lb": 2936, "\u2581Will": 2937, "ew": 2938, "380": 2939, "316": 2940, "En": 2941, "\u2581France": 2942, "26)": 2943, "\u2581FO": 2944, "NG": 2945, "\u2581video": 2946, "\u25812.6": 2947, "EG": 2948, "\u2581135": 2949, "\u2581sh": 2950, "cell": 2951, "\u2581Visual": 2952, "GE": 2953, "Mi": 2954, "bed": 2955, "\u2581used": 2956, "\u2581SSL": 2957, "\u25811975": 2958, "zer": 2959, "\u2581Vista": 2960, "11)": 2961, "HP": 2962, "boy": 2963, "\u2581https": 2964, "\u2581mod": 2965, "cker": 2966, "cas": 2967, "\u2581Tel": 2968, "/0": 2969, "\u2581info": 2970, "mAh": 2971, "file": 2972, "\u2581Bon": 2973, "/6": 2974, "\u2581TH": 2975, "hin": 2976, "\u2581Bluetooth": 2977, "\u258107:5": 2978, "4.5": 2979, "IST": 2980, "\u2581Eco": 2981, "\u2581call": 2982, "mat": 2983, "\u2581Little": 2984, "\u2581OF": 2985, "wall": 2986, "\u2581Sand": 2987, "550": 2988, "\u2581girl": 2989, "\u25813,000": 2990, "\u2581GNU": 2991, "\u2581Watch": 2992, "\u25811978": 2993, "COM": 2994, "\u2581Sho": 2995, "AU": 2996, "\u00ed": 2997, "\u2581Voyeur": 2998, "7,000": 2999, "5000": 3000, "\u2581Mill": 3001, "\u25811/4": 3002, "ution": 3003, "\u2581LE": 3004, "cing": 3005, "rm": 3006, "rn": 3007, "sia": 3008, "\u2581vi": 3009, "\u2581Plan": 3010, "\u2581Breakfast": 3011, "\u2581sha": 3012, "ika": 3013, "\u2581Multi": 3014, "\u2581Op": 3015, "\u2581Times": 3016, "\u25811981": 3017, "\u2581Rose": 3018, "ela": 3019, "\u2581Sta": 3020, "\u2581102": 3021, "\u2581Two": 3022, "\u2581Travel": 3023, "\u2581SW": 3024, "ori": 3025, "\u2581give": 3026, "\u2581Ban": 3027, "\u2581Fair": 3028, "VC": 3029, "\u2581Er": 3030, "\u2581William": 3031, "tory": 3032, "\u2581First": 3033, "\u2581Map": 3034, "\u2581Bit": 3035, "\u2581control": 3036, "media": 3037, "ood": 3038, "\u2581Bri": 3039, "city": 3040, "\u2581Pat": 3041, "rum": 3042, "\u2581IM": 3043, "\u2581Ten": 3044, "\u2581//": 3045, "\u25811968": 3046, "\u2581AV": 3047, "If": 3048, "\u2581Standard": 3049, "ree": 3050, "\u2581HPE": 3051, "\u2581KO": 3052, "\u2581CM": 3053, "\u2581(7)": 3054, "2,000": 3055, "hor": 3056, "\u2581119": 3057, "nis": 3058, "Shaft": 3059, "FL": 3060, "\u2581PSD": 3061, "sil": 3062, "VE": 3063, "\u2581RAR": 3064, "My": 3065, "\u2581230": 3066, "work": 3067, "\u2581Limited": 3068, "\u2581MOQ": 3069, "raw": 3070, "\u2581du": 3071, "pal": 3072, "EO": 3073, "310": 3074, "\u2581[3]": 3075, "Po": 3076, "1.0": 3077, "888": 3078, "30)": 3079, "[4]": 3080, "\u2581Mat": 3081, "-31": 3082, "\u2581Hand": 3083, "\u2581List": 3084, "\u2581GS": 3085, "job": 3086, "nal": 3087, "Fox": 3088, "\u2581104": 3089, "\u2581650": 3090, "bert": 3091, "qua": 3092, "\u2581Den": 3093, "\u258115%": 3094, "\u2581SDK": 3095, "210": 3096, "\u2581NH": 3097, "\u2581Off": 3098, "3.1": 3099, "\u2581ja": 3100, "rim": 3101, "road": 3102, "\u2581Shi": 3103, "read": 3104, "650": 3105, "onic": 3106, "\u2581Ci": 3107, "nor": 3108, "\u25812.8": 3109, "aker": 3110, "\u2581Association": 3111, "\u2581Chan": 3112, "265": 3113, "National": 3114, "\u25814:1": 3115, "VAC": 3116, "\u2581Sil": 3117, "\u2581Blvd": 3118, "\u2581Flash": 3119, "\u2581Food": 3120, "2010": 3121, "123": 3122, "\u2581Main": 3123, "\u2581DA": 3124, "\u2581Bill": 3125, "\u2581HA": 3126, "\u25813:16": 3127, "2013": 3128, "\u25813.2": 3129, "print": 3130, "\u2581Bus": 3131, "/12": 3132, "\u2581etc": 3133, "\u2581Systems": 3134, "\u2581Hotels": 3135, "\u2581EVA": 3136, "JPY": 3137, "more": 3138, "\u2581Heart": 3139, "arm": 3140, "\u2581[[": 3141, "485": 3142, "itch": 3143, "GHz": 3144, "\u2581Union": 3145, "\u258160%": 3146, "store": 3147, "\u2581LAN": 3148, "\u2581Card": 3149, "\u2581Tech": 3150, "Vi": 3151, "\u2581Ulitsa": 3152, "\u2581application": 3153, "\u2581ne": 3154, "\u2581Rd": 3155, "mil": 3156, "vers": 3157, "111": 3158, "\u2581Mr": 3159, "vil": 3160, "\u2581Site": 3161, "Go": 3162, "\u2581Cy": 3163, "\u2581Convention": 3164, "\u2581GM": 3165, "\u258191": 3166, "\u2581RC": 3167, "TU": 3168, "hz": 3169, "\u2581code": 3170, "\u2581Box": 3171, "\u2581Ob": 3172, "\u2581Beijing": 3173, "\u2581History": 3174, "\u2581Modern": 3175, "skaya": 3176, "\u2581Guide": 3177, "\u2581tri": 3178, "\u2581Just": 3179, "\u2581Full": 3180, "IVE": 3181, "4.8": 3182, "eli": 3183, "Babe": 3184, "PU": 3185, "Cr": 3186, "UB": 3187, "\u2581NT": 3188, "\u2581Roman": 3189, "\u00fc": 3190, "\u2581Pol": 3191, "\u2581Condo": 3192, "-32": 3193, "AX": 3194, "ENT": 3195, "rat": 3196, "hotel": 3197, "\u2581run": 3198, "\u2581Kong": 3199, "\u2581IQ": 3200, "\u2581WP": 3201, "0.00": 3202, "\u2581ODM": 3203, "Shrine": 3204, "\u2581Social": 3205, "\u2581Tur": 3206, "38)": 3207, "\u2581u": 3208, "\u2581Exp": 3209, "SU": 3210, "ese": 3211, "ious": 3212, "\u2581Yu": 3213, "\u2581Pra": 3214, "\u25815.5": 3215, "\u2581Gene": 3216, "/20": 3217, "une": 3218, "7.5": 3219, "color": 3220, "watch": 3221, "\u2581NASA": 3222, "\u2581sw": 3223, "128": 3224, "\u2581Dia": 3225, "\u25811974": 3226, "any": 3227, "\u2581[4]": 3228, "240": 3229, "\u2581BI": 3230, "\u2581Yo": 3231, "\u25811%": 3232, "...\"": 3233, "\u2581GA": 3234, "\u2581Castle": 3235, "\u2581Zoo": 3236, "live": 3237, "gue": 3238, "\u2581Ol": 3239, "\u2581Van": 3240, "Ad": 3241, "tec": 3242, "cept": 3243, "\u2581Milf": 3244, "\u2581Fetish": 3245, "\u2581Mad": 3246, "\u2581Col": 3247, "\u25819001": 3248, "action": 3249, "John": 3250, "NP": 3251, "via": 3252, "\u2581NI": 3253, "50,000": 3254, "Time": 3255, "440": 3256, "\u2581AG": 3257, "ivud": 3258, "och": 3259, "Sa": 3260, "LAN": 3261, "oke": 3262, "ffer": 3263, "mont": 3264, "\u2581Ji": 3265, "uan": 3266, "dro": 3267, "DN": 3268, "rack": 3269, "\u2581XML": 3270, "PH": 3271, "KA": 3272, "ook": 3273, "AUD": 3274, "\u258195%": 3275, "card": 3276, "soft": 3277, "\u2581Michael": 3278, "\u2581two": 3279, "\u2581pe": 3280, "\u2581off": 3281, "friend": 3282, "cial": 3283, "\u2581Test": 3284, "yr": 3285, "\u2581right": 3286, "\u2581Tro": 3287, "care": 3288, "ema": 3289, "\u2581Ven": 3290, "tha": 3291, "\u2581QNAP": 3292, "\u2581information": 3293, "\u25811600": 3294, "\u2581Fl": 3295, "235": 3296, "ties": 3297, "-45": 3298, "\u2581now": 3299, "Un": 3300, "\u2581Pack": 3301, "4,000": 3302, "wer": 3303, "room": 3304, "mun": 3305, "\u25811977": 3306, "\u2581TP": 3307, "\u2581Kr": 3308, "\u2581Fire": 3309, "\u2581Oracle": 3310, "\u2581Edition": 3311, "uz": 3312, "\u2581Wood": 3313, "\u2581page": 3314, "\u2581Tor": 3315, "Mac": 3316, "*2": 3317, "\u2581Mall": 3318, "ache": 3319, "stone": 3320, "\u2581112": 3321, "\u2581their": 3322, "\u2581Run": 3323, "\u2581Lin": 3324, "\u2581SOLIDWORKS": 3325, "dic": 3326, "atter": 3327, "\u258104:5": 3328, "iki": 3329, "test": 3330, "106": 3331, "\u2581256": 3332, "head": 3333, "ket": 3334, "\u2581BTC": 3335, "bot": 3336, "unk": 3337, "\u2581Sk": 3338, "ann": 3339, "\u25811/3": 3340, "\u2581Fu": 3341, "\u2581Robert": 3342, "\u2581Rec": 3343, "960": 3344, "\u2581Luxury": 3345, "lav": 3346, "White": 3347, "\u2581Luc": 3348, "\u2581^": 3349, "\u2581Code": 3350, "hot": 3351, "url": 3352, "\u2581Instagram": 3353, "\u2581Court": 3354, "rel": 3355, "\u2581table": 3356, "lect": 3357, "\u2581live": 3358, "\u2581Dong": 3359, "ete": 3360, "\u2581Connect": 3361, "\u2581Flat": 3362, "\u2581process": 3363, "\u2581Sexu": 3364, "uth": 3365, "\u2581Christian": 3366, "\u2581Type": 3367, "ular": 3368, "strong": 3369, "\u2581PT": 3370, "eri": 3371, "lum": 3372, "heng": 3373, "\u2581(27": 3374, "oe": 3375, "\u25812015-05-0": 3376, "\u2581Motel": 3377, "\u2581PV": 3378, "\u2581Jack": 3379, "\u2581Boy": 3380, "place": 3381, "\u2581Line": 3382, "\u2581PD": 3383, "\u2581LI": 3384, "\u2581Son": 3385, "3.3": 3386, "\u2581DI": 3387, "\u2581Bell": 3388, "\u2581123": 3389, "oon": 3390, "WS": 3391, "een": 3392, "\u25811963": 3393, "\u2581MM": 3394, "\u258106:0": 3395, "\u2581AA": 3396, "\u2581here": 3397, "850": 3398, "\u2581BR": 3399, "2.2": 3400, "\u2581EB": 3401, "\u2581Gallery": 3402, "edit": 3403, "\u2581add": 3404, "\u2581Maria": 3405, "rick": 3406, "World": 3407, "\u2581107": 3408, "\u25812500": 3409, "exe": 3410, "loy": 3411, "tail": 3412, "\u2581RSS": 3413, "\u2581Mus": 3414, "\u2581SL": 3415, "MAX": 3416, "\u2581method": 3417, "\u2581Western": 3418, "iti": 3419, "Li": 3420, "ude": 3421, "\u2581SR": 3422, "ston": 3423, "option": 3424, "MD": 3425, "\u2581Lane": 3426, "\u2581UP": 3427, "\u2581service": 3428, "sure": 3429, "\u2581ON": 3430, "\u2581GE": 3431, "\u2581Step": 3432, "\u2581FBI": 3433, "mond": 3434, "\u2581Nov": 3435, "hang": 3436, "260": 3437, "\u2581pri": 3438, "\u2581145": 3439, "0.3": 3440, "\u2581Cra": 3441, "\u2581When": 3442, "\u2581Language": 3443, "insta": 3444, "-80": 3445, "\u2581ATM": 3446, "chen": 3447, "\u2581$2": 3448, "\u2581CSS": 3449, "\u2581let": 3450, "7.4": 3451, "103": 3452, "(12": 3453, "law": 3454, "280": 3455, "\u2581HR": 3456, "play": 3457, "\u2581Cho": 3458, "dar": 3459, "\u2581TE": 3460, "mart": 3461, "\u2581108": 3462, "\u2581DO": 3463, "\u2581Ter": 3464, "itz": 3465, "\u2581Public": 3466, "\u2581Theatre": 3467, "\u2581select": 3468, "\u2581Temple": 3469, "ban": 3470, "cor": 3471, "Si": 3472, "kov": 3473, "View": 3474, "\u2581144": 3475, "\u2581class": 3476, "105": 3477, "3.8": 3478, "\u2581Gran": 3479, "\u2581power": 3480, "\u2581Young": 3481, "fit": 3482, "Star": 3483, "\u2581Wall": 3484, "\u2581Alt": 3485, "\u2581PCI": 3486, "\u2581bar": 3487, "\u2581(32": 3488, "0.2": 3489, "ulation": 3490, "ject": 3491, "\u2581Nord": 3492, "ender": 3493, "AND": 3494, "\u2581Well": 3495, "aga": 3496, "\u2581Framework": 3497, "\u2581Version": 3498, "\u2581Report": 3499, "\u2581BA": 3500, "460": 3501, "BP": 3502, "Net": 3503, "\u2581Mary": 3504, "eria": 3505, "dis": 3506, "\u2581Care": 3507, "Comment": 3508, "UC": 3509, "\u2581GR": 3510, "\u2581Bet": 3511, "cd": 3512, "point": 3513, "\u2581QC": 3514, "\u2581UEFA": 3515, "orn": 3516, "bal": 3517, "\u2581must": 3518, "\u2581step": 3519, "MU": 3520, "\u258110:10": 3521, "\u2581Arts": 3522, "oxy": 3523, "iya": 3524, "As": 3525, "lea": 3526, "\u2581People": 3527, "Free": 3528, "\u25812-3": 3529, "\u2581ABS": 3530, "\u258112:1": 3531, "GH": 3532, "\u2581following": 3533, "\u2581Martin": 3534, "die": 3535, "\u2581Jan": 3536, "\u2581RAW": 3537, "\u2581Hard": 3538, "\u2581PH": 3539, "\u2581210": 3540, "\u2581Tan": 3541, "\u25811100": 3542, "5.6": 3543, "And": 3544, "vision": 3545, "\u2581Are": 3546, "\u2581Valley": 3547, "Book": 3548, "\u2581GSM": 3549, "EI": 3550, "raz": 3551, "CAD": 3552, "\u2581720": 3553, "\u25811939": 3554, "pack": 3555, "\u2581access": 3556, "950": 3557, "\u2581DIY": 3558, "\u2581Mur": 3559, "\u2581VM": 3560, "uel": 3561, "\u2581group": 3562, "\u2581Pic": 3563, "\u00f3": 3564, "3.0": 3565, "hai": 3566, "\u2581Asia": 3567, "\u2581Kh": 3568, "GM": 3569, "\u2581Republic": 3570, "\u2581Foot": 3571, "\u2581Story": 3572, "\u2581big": 3573, "9.5": 3574, "\u25811964": 3575, "\u2581KR": 3576, "race": 3577, "\u2581min": 3578, "meter": 3579, "International": 3580, "\u2581Host": 3581, "BE": 3582, "HI": 3583, "3.4": 3584, "\u2581object": 3585, "UP": 3586, "\u2581help": 3587, "\u2581Sin": 3588, "\u2581Wil": 3589, "\u2581LLC": 3590, "\u2581OD": 3591, "\u2581Area": 3592, "text": 3593, "KI": 3594, "\u2581Tele": 3595, "\u2581Trade": 3596, "\u2581(9)": 3597, "\u2581Building": 3598, "\u2581through": 3599, "\u2581vCenter": 3600, "war": 3601, "\u2581Kates": 3602, "ified": 3603, "\u2581Imp": 3604, "\u2581Fall": 3605, "rio": 3606, "ATE": 3607, "\u2581Bro": 3608, "BL": 3609, "Windows": 3610, "VO": 3611, "tive": 3612, "rich": 3613, "asse": 3614, "3.9": 3615, "\u258109:00": 3616, "map": 3617, "\u2581sign": 3618, "\u2581Make": 3619, "\u2581103": 3620, "\u2581Steam": 3621, "All": 3622, "\u2581Hope": 3623, "\u2581See": 3624, "roll": 3625, "301": 3626, "ij": 3627, "\u2581every": 3628, "\u2581should": 3629, "\u2581Explorer": 3630, "\u2581Downtown": 3631, "[2]": 3632, "\u2581ha": 3633, "ili": 3634, "PCS": 3635, "Mpa": 3636, "102": 3637, "TY": 3638, "\u2581Wet": 3639, "HTML": 3640, "\u2581Ze": 3641, "\u2581Hua": 3642, "ISO": 3643, "\u2581people": 3644, "\u2581Views": 3645, "\u2581550": 3646, "ku": 3647, "\u2581Scan": 3648, "Jo": 3649, "6.2": 3650, "mate": 3651, "mission": 3652, "jan": 3653, "round": 3654, "roid": 3655, "\u2581Metro": 3656, "istic": 3657, "UI": 3658, "\u2581Queen": 3659, "\u3010": 3660, "add": 3661, "nit": 3662, "\u2581TC": 3663, "BN": 3664, "long": 3665, "\u258111:00": 3666, "\u2581MPEG": 3667, "dle": 3668, "\u2581Why": 3669, "SF": 3670, "\u2581SIM": 3671, "\u2581Para": 3672, "\u2581Name": 3673, "\u2581long": 3674, "\u2581open": 3675, "face": 3676, "non": 3677, "RF": 3678, "ches": 3679, "\u2581Lodge": 3680, "\u2581Gor": 3681, "\u2581Tea": 3682, "\u2581Games": 3683, "code": 3684, "gon": 3685, "\u2581Ham": 3686, "\u2581Bor": 3687, "\u2581Whi": 3688, "\u2581(10)": 3689, "wan": 3690, "rl": 3691, "\u2581non": 3692, "HT": 3693, "34)": 3694, "term": 3695, "\u2581come": 3696, "\u2581{{": 3697, "omb": 3698, "ech": 3699, "Data": 3700, "\u2581href": 3701, "\u2581Private": 3702, "\u2581Active": 3703, "\u2581Za": 3704, "\u2581report": 3705, "\u2581ZIP": 3706, "ido": 3707, "ANG": 3708, "109": 3709, "\u2581plan": 3710, "\u2581et": 3711, "ila": 3712, "zh": 3713, "zhou": 3714, "ily": 3715, "\u2581BL": 3716, "\u2581Euro": 3717, "\u2581Festival": 3718, "\u2581Motor": 3719, "4.6": 3720, "\u2581UK": 3721, "\u2581Share": 3722, "ough": 3723, ".[1": 3724, "\u2581Application": 3725, "330": 3726, "\u2581Human": 3727, "1.4": 3728, "\u25814.2": 3729, "\u25811919": 3730, "list": 3731, "\u2581Rue": 3732, "fil": 3733, "\u2581Baby": 3734, "iga": 3735, "pat": 3736, "\u2581teen": 3737, "serve": 3738, "bet": 3739, "\u2581106": 3740, "shop": 3741, "\u2581Eva": 3742, "\u2581TOP": 3743, "[5]": 3744, "9,000": 3745, "\u2581take": 3746, "\u2581127": 3747, "\u2581Il": 3748, "\u2581Cottage": 3749, "\u2581NTFS": 3750, "1.3": 3751, "\u2581Pl": 3752, "\u2581Cas": 3753, "2009": 3754, "\u25812*": 3755, "\u25811965": 3756, "shan": 3757, "205": 3758, "eh": 3759, "poli": 3760, "\u2581Capital": 3761, "\u2581Xiaomi": 3762, "bird": 3763, "\u2581OLED": 3764, "\u2581LO": 3765, "\u2581Hor": 3766, "ants": 3767, "\u2581Mari": 3768, "\u2581Kim": 3769, "ime": 3770, "\u2581Opera": 3771, "hp": 3772, "\u2581Ram": 3773, "\u2581micro": 3774, "7.6": 3775, "2.3": 3776, "eter": 3777, "\u2581Rights": 3778, "\u25816.0": 3779, "Man": 3780, "\u25811961": 3781, "---": 3782, "\u2581Sen": 3783, "\u2581Edge": 3784, "-33": 3785, "2.4": 3786, "sec": 3787, "\u2581Geo": 3788, "\u2581General": 3789, "path": 3790, "XT": 3791, "\u25811300": 3792, "\u2581Secure": 3793, "\u2581Think": 3794, "core": 3795, "range": 3796, "1,000": 3797, "\u2581Fish": 3798, "134": 3799, "bio": 3800, "\u2581If": 3801, "\u2581Dor": 3802, "\u2581high": 3803, "Play": 3804, "\u2581McAfee": 3805, "\u2581Education": 3806, "198": 3807, "\u2581Recovery": 3808, "cel": 3809, "ault": 3810, "\u258107:59": 3811, "\u2581Head": 3812, "iano": 3813, "\u25811941": 3814, "EK": 3815, "129": 3816, "6.1": 3817, "ACE": 3818, "HC": 3819, "\u2581(35": 3820, "rov": 3821, "hall": 3822, "\u2581118": 3823, "uge": 3824, "\u2581Jesus": 3825, "NK": 3826, "master": 3827, "[11]": 3828, "\u2581Cross": 3829, "\u2581Last": 3830, "\u2581Model": 3831, "\u2581Link": 3832, "9.2": 3833, "\u2581Mira": 3834, "\u2581KB": 3835, "El": 3836, "\u2581been": 3837, "xx": 3838, "\u2581Mil": 3839, "\u2581support": 3840, "\u25813/4": 3841, "104": 3842, "\u2581down": 3843, "amo": 3844, "html": 3845, "\u2581Our": 3846, "56)": 3847, "inder": 3848, "fect": 3849, "emi": 3850, "Click": 3851, "\u25818.0": 3852, "\u2581Ann": 3853, "\u2192": 3854, "7.2": 3855, "(20": 3856, "\u2581Tits": 3857, "\u2581+86": 3858, "chu": 3859, "LY": 3860, "(2)": 3861, "osa": 3862, "\u2581game": 3863, "aba": 3864, "\u2581There": 3865, "39)": 3866, "\u2581old": 3867, "\u2581TEL": 3868, "\u2581175": 3869, "nie": 3870, "\u2581form": 3871, "37)": 3872, "5.4": 3873, "\u2581Ren": 3874, "\u2581Download": 3875, "\u2581Mail": 3876, "omo": 3877, "\u2581gr": 3878, "nov": 3879, "\u2581Jin": 3880, "gle": 3881, "107": 3882, "\u25816:9": 3883, "lle": 3884, "\u2581hard": 3885, "\u2581Gre": 3886, "sys": 3887, "\u2581HC": 3888, "\u2581Platform": 3889, "\u2581Angeles": 3890, "117": 3891, "Link": 3892, "oni": 3893, "\u258103:00": 3894, "anta": 3895, "\u25812.9": 3896, "\u2581VS": 3897, "\u2581cap": 3898, "74)": 3899, "41)": 3900, "Di": 3901, "\u25811967": 3902, "bro": 3903, "6.3": 3904, "\u2605": 3905, "FX": 3906, "\u2581Mozilla": 3907, "\u2581Phone": 3908, "\u2581KDE": 3909, "format": 3910, "\u2581hotels": 3911, "\u2581Kin": 3912, "\u2581par": 3913, "flow": 3914, "050": 3915, "ROM": 3916, "118": 3917, "RY": 3918, "\u2581Like": 3919, "\u2581HI": 3920, "\u258175%": 3921, "270": 3922, "Place": 3923, "rch": 3924, "FM": 3925, "Bar": 3926, "tree": 3927, "\u2581Floor": 3928, "\u2581Total": 3929, "RL": 3930, "photo": 3931, "kan": 3932, "\u2581Ye": 3933, "INA": 3934, "\u2581op": 3935, "eva": 3936, "\u2581Sar": 3937, "156": 3938, "mann": 3939, "340": 3940, "3.2": 3941, "108": 3942, "ONE": 3943, "230": 3944, "flu": 3945, "Gu": 3946, "\u25811958": 3947, "36)": 3948, "GN": 3949, "\u2581109": 3950, "\u2581sur": 3951, "allow": 3952, "\u2581Au": 3953, "\u2581Mel": 3954, "\u2581Med": 3955, "199": 3956, "\u2581Photoshop": 3957, "\u2581CCTV": 3958, "LED": 3959, "010": 3960, "\u2581said": 3961, "ific": 3962, "iel": 3963, "\u2581Sound": 3964, "verse": 3965, "\u25811962": 3966, "\u2581girls": 3967, "-70": 3968, "\u2581pass": 3969, "\u2581example": 3970, "\u2581126": 3971, "\u2581Gardens": 3972, "\u2581Ash": 3973, "\u2581+1": 3974, "\u2581Development": 3975, "\u2581again": 3976, "\u2581also": 3977, "188": 3978, "\u25811918": 3979, "stay": 3980, "how": 3981, "AH": 3982, "\u2581OT": 3983, "\u2581FR": 3984, "\u2581Aqua": 3985, "007": 3986, "\u2581Archive": 3987, "dust": 3988, "ded": 3989, "\u2581#2": 3990, "222": 3991, "1-4": 3992, "\u2581RoHS": 3993, "\u2581SN": 3994, "now": 3995, "sim": 3996, "berry": 3997, "\u2581Far": 3998, "ride": 3999, "\u2581Mer": 4000, "\u2581PPT": 4001, "\u2581does": 4002, "scape": 4003, "\u2581100,000": 4004, "\u2032\u2032": 4005, "\u2581Regular": 4006, "\u2581UFO": 4007, "6,000": 4008, "\u2581Marina": 4009, "\u25815:1": 4010, "\u2581Mod": 4011, "\u2581Color": 4012, "\u2581Bas": 4013, "\u2581end": 4014, "\u2581Quick": 4015, "\u2581where": 4016, "\u2581Chang": 4017, "audi": 4018, "52)": 4019, "\u2581vSphere": 4020, "\u2581Font": 4021, "\u2581850": 4022, "\u2581User": 4023, "sel": 4024, "Or": 4025, "phy": 4026, "\u2581Ak": 4027, "pur": 4028, "\u2581FX": 4029, "ito": 4030, "mus": 4031, "\u2581Vintage": 4032, "195": 4033, "\u25815.1": 4034, "\u2581Money": 4035, "body": 4036, "6.5": 4037, "\u2581Monte": 4038, "\u2581NBA": 4039, "\u2581FOR": 4040, "\u2581q": 4041, "abi": 4042, "8.3": 4043, "din": 4044, "9000": 4045, "\u25810.00": 4046, "\u2581web": 4047, "ACK": 4048, "\u25814.1": 4049, "pol": 4050, "\u258120,000": 4051, "yp": 4052, "\u2581Note": 4053, "HL": 4054, "\u25814:8": 4055, "ped": 4056, "\u2581Washington": 4057, "\u2581before": 4058, "\u2581Movie": 4059, "168": 4060, "phi": 4061, "\u2581Flex": 4062, "date": 4063, "lines": 4064, "\u2581Train": 4065, "NY": 4066, "\u25813:2": 4067, "\u25811948": 4068, "\u2581Four": 4069, "\u2581Pacific": 4070, "7.8": 4071, "660": 4072, "\u2581king": 4073, "\u2581(0": 4074, "Sharing": 4075, "mod": 4076, "connect": 4077, "\u25812.7": 4078, "\u2581cat": 4079, "225": 4080, "\u2581book": 4081, "\u2581IPv": 4082, "tag": 4083, "Option": 4084, "\u25814:4": 4085, "eon": 4086, "ological": 4087, "\u2581Forex": 4088, "95)": 4089, "\u2581Frank": 4090, "http": 4091, "\u2581Hospital": 4092, "Material": 4093, "ios": 4094, "\u2581Apt": 4095, "840": 4096, "\u2581Wind": 4097, "uo": 4098, "135": 4099, "44)": 4100, "\u2581Low": 4101, "\u2581Add": 4102, "\u2581state": 4103, "\u2581she": 4104, "graph": 4105, "\u2581Side": 4106, "onia": 4107, "\u25813.7": 4108, "cht": 4109, "\u2581Days": 4110, "213": 4111, "Ho": 4112, "\u258113:1": 4113, "\u2581Cer": 4114, "\u2581Front": 4115, "\u2581Sports": 4116, "uda": 4117, "\u2581480": 4118, "db": 4119, "\u2581Flow": 4120, "\u2581260": 4121, "ESS": 4122, "\u25811942": 4123, "\u2581DN": 4124, "370": 4125, "\u2581FS": 4126, "\u2581Ken": 4127, "uv": 4128, "style": 4129, "3,000": 4130, "-300": 4131, "\u2581BE": 4132, "\u2581Core": 4133, "620": 4134, "Movs": 4135, "\u25810.01": 4136, "\u2581116": 4137, "5.3": 4138, "\u2581same": 4139, "cut": 4140, "bat": 4141, "3.6": 4142, "\u2581Girl": 4143, "ago": 4144, "mu": 4145, "\u2581138": 4146, "\u2581Ang": 4147, "5-7": 4148, "eno": 4149, "nz": 4150, "\u2581Coin": 4151, "-36": 4152, "\u2581111": 4153, "5.8": 4154, "stein": 4155, "720": 4156, "\u25812/3": 4157, "\u2581Xi": 4158, "\u2581Academy": 4159, "\u2581Vegas": 4160, "\u2581Mas": 4161, "table": 4162, "HU": 4163, "630": 4164, "190": 4165, "\u2581QR": 4166, "\u2581Les": 4167, "\u25811947": 4168, "eur": 4169, "\u2581Jun": 4170, "door": 4171, "\u2581Charles": 4172, "gas": 4173, "\u2581EMC": 4174, "\u2581512": 4175, "bc": 4176, "hal": 4177, "tool": 4178, "[6]": 4179, "\u2581Community": 4180, "\u2581Golf": 4181, "lli": 4182, "\u2581CG": 4183, "1.6": 4184, "\u2581WW": 4185, "-90": 4186, "\u2581Angel": 4187, "bang": 4188, "\u2581Journal": 4189, "\u2581Pool": 4190, "\u2581Thomas": 4191, "305": 4192, "Safe": 4193, "\u25816:1": 4194, "each": 4195, "1200": 4196, "bri": 4197, "js": 4198, "\u2581custom": 4199, "\u2581Sleep": 4200, "\u2581139": 4201, "\u2581AIDS": 4202, "6000": 4203, "\u258124/7": 4204, "\u2581Ball": 4205, "5.5": 4206, "\u25815*": 4207, "/7": 4208, "tim": 4209, "\u2581Film": 4210, "\u25811955": 4211, "script": 4212, "fish": 4213, "\u2581Press": 4214, "tty": 4215, "ua": 4216, "OFF": 4217, "ife": 4218, "8.8": 4219, "4.2": 4220, "\u2581Unit": 4221, "oid": 4222, "777": 4223, "\u2581WhatsApp": 4224, "\u2581DVB": 4225, "\u2581Lex": 4226, "\u2581ECU": 4227, "\u258105:30": 4228, "\u2581NEW": 4229, "178": 4230, "Pre": 4231, "\u25813.6": 4232, "67)": 4233, "bag": 4234, "\u25812030": 4235, "54)": 4236, "112": 4237, "\u25811966": 4238, "\u258110000": 4239, "\u2581Quality": 4240, "\u2581YOU": 4241, "\u2581Bang": 4242, "\u2581280": 4243, "\u2581Restaurant": 4244, "\u2581Shanghai": 4245, "\u2581macOS": 4246, "\u2581Medical": 4247, "Build": 4248, "WEB": 4249, "\u25816,000": 4250, "\u25814,000": 4251, "\u258198%": 4252, "8.6": 4253, "\u2581its": 4254, "640": 4255, "Count": 4256, "icon": 4257, "\u25816.5": 4258, "\u2581ago": 4259, "\u2581XL": 4260, "81)": 4261, "\u2581201": 4262, "99)": 4263, "opp": 4264, "\u2581PowerPoint": 4265, "430": 4266, "72)": 4267, "\u2581(40": 4268, "\u2581GIF": 4269, "\u2581mini": 4270, "ground": 4271, "\u2581Call": 4272, "plus": 4273, "202": 4274, "food": 4275, "\u25810%": 4276, "porn": 4277, "kill": 4278, "Kg": 4279, "rou": 4280, "\u2581Jul": 4281, "UK": 4282, "vy": 4283, "\u2581Epi": 4284, "\u2581Pet": 4285, "\u2581Women": 4286, "\u2581provide": 4287, "155": 4288, "\u2581Job": 4289, "\u2581Only": 4290, "\u2581GPU": 4291, "4.1": 4292, "\u2581TCP": 4293, "\u2581MAC": 4294, "MAN": 4295, "Pad": 4296, "\u2581look": 4297, "\u25811953": 4298, "\u2581165": 4299, "matic": 4300, "\u2581Cook": 4301, "\u25818000": 4302, "/16": 4303, "**": 4304, "\u2581Song": 4305, "\u2581Analytics": 4306, "\u2581TubeWolf": 4307, "\u2581after": 4308, "\u2581Ultra": 4309, "\u2581great": 4310, "\u2581Canada": 4311, "\u2581Close": 4312, "020": 4313, "080": 4314, "inc": 4315, "002": 4316, "down": 4317, "164": 4318, "num": 4319, "\u2581sin": 4320, "zen": 4321, "\u2581AND": 4322, "dal": 4323, "6.4": 4324, "hel": 4325, "\u2581OR": 4326, "7.3": 4327, "\u2581Sm": 4328, "\u2581Boutique": 4329, "\u2581XenMobile": 4330, "XVideos": 4331, "\u2581Under": 4332, "560": 4333, "char": 4334, "block": 4335, "lp": 4336, "\u2581SMT": 4337, "2007": 4338, "6.6": 4339, "lux": 4340, "oro": 4341, "\u2581Medi": 4342, "\u2581Vin": 4343, "\u2581Conference": 4344, "sson": 4345, "\u2581MacBook": 4346, "\u2581heart": 4347, "\u2581OM": 4348, "elli": 4349, "zu": 4350, "ists": 4351, "\u2581Eye": 4352, "\u2581Ali": 4353, "\u2581XM": 4354, "col": 4355, "601": 4356, "\u2581Fre": 4357, "\u2581true": 4358, "\u2581Engine": 4359, "\u2581114": 4360, "4000": 4361, "185": 4362, "\u258124:14": 4363, "ury": 4364, "\u2581270": 4365, "\u2581136": 4366, "izer": 4367, "\u2581ED": 4368, "\u2581Leg": 4369, "345": 4370, "\u2581Support": 4371, "126": 4372, "\u2581best": 4373, "Don": 4374, "\u25811400": 4375, "\u2581Society": 4376, "\u2581contain": 4377, "\u2581113": 4378, "\u2581Review": 4379, "\u2581Board": 4380, "\u2581Golden": 4381, "\u2581TFT": 4382, "\u2581CN": 4383, "When": 4384, "\u2581MK": 4385, "\u2581Fran": 4386, "Su": 4387, "030": 4388, "dan": 4389, "\u25811949": 4390, "\u2581Ice": 4391, "\u2581rights": 4392, "480": 4393, "gna": 4394, "290": 4395, "680": 4396, "\u2581Double": 4397, "stock": 4398, "2004": 4399, "\u2581Audi": 4400, "\u25811,500": 4401, "lab": 4402, "8.5": 4403, "\u2581Energy": 4404, "\u2581Victoria": 4405, "204": 4406, "\u2581windows": 4407, "\u2581GL": 4408, "880": 4409, "/22": 4410, "\u25811944": 4411, "organ": 4412, "\u2581hot": 4413, "175": 4414, "TION": 4415, "510": 4416, "\u2581Bad": 4417, "\u2581Yobt": 4418, "lio": 4419, "mos": 4420, "\u2581years": 4421, "82)": 4422, "AZ": 4423, "\u25818.4": 4424, "\u2581create": 4425, "73)": 4426, "\u2581Citrix": 4427, "\u2581Piazza": 4428, "\u2581requested": 4429, "\u25814.3": 4430, "fra": 4431, "\u2581Ty": 4432, "graphic": 4433, "Sha": 4434, "\u2581using": 4435, "\u2581Phil": 4436, "\u2581ASP": 4437, "\u25811957": 4438, "iva": 4439, "\u2581CAT": 4440, "070": 4441, "active": 4442, "277": 4443, "\u2581California": 4444, "rma": 4445, "60\u00b0": 4446, "\u2581Rub": 4447, "\u2581HDD": 4448, "\u2581Age": 4449, "\u2581COM": 4450, "\u2581Advanced": 4451, "\u2581Fil": 4452, "aging": 4453, "\u2581ml": 4454, "580": 4455, "\u2581Magic": 4456, "admin": 4457, "\u2581point": 4458, "GR": 4459, "\u2581Know": 4460, "\u2581mp": 4461, "61)": 4462, "sex": 4463, "\u2581Roll": 4464, "\u2581ft": 4465, "\u2581led": 4466, "\u2581full": 4467, "\u25813.3": 4468, "\u2581CJ": 4469, "\u2581Tai": 4470, "Ha": 4471, "unny": 4472, "ODM": 4473, "sum": 4474, "til": 4475, "6.7": 4476, "tex": 4477, "NU": 4478, "0.000": 4479, "96)": 4480, "\u2581Acronis": 4481, "\u2581Brazil": 4482, "kar": 4483, "nia": 4484, "[12]": 4485, "Sc": 4486, "\u2581911": 4487, "rpm": 4488, "\u2581Tam": 4489, "\u2581Set": 4490, "model": 4491, "\u2581EV": 4492, "sub": 4493, "iana": 4494, "ante": 4495, "\u2581Field": 4496, "\u2581Shopping": 4497, "\u2581FARO": 4498, "\u2581LTE": 4499, "\u2581Ky": 4500, "mel": 4501, "92)": 4502, "tte": 4503, "Am": 4504, "gua": 4505, "nan": 4506, "dex": 4507, "Custom": 4508, "\u2581RAID": 4509, "\u2581RJ": 4510, "\u2581event": 4511, "\u25813:13": 4512, "bury": 4513, "dor": 4514, "\u25811-2": 4515, "arch": 4516, "train": 4517, "\u2581own": 4518, "ONG": 4519, "\u2581Calle": 4520, "DAY": 4521, "\u2581Richard": 4522, "TOR": 4523, "\u2581content": 4524, "\u2581Team": 4525, "124": 4526, "197": 4527, "span": 4528, "\u2581Collection": 4529, "\u2581Protection": 4530, "\u2581Tranny": 4531, "\u2581Brown": 4532, "138": 4533, "\u2581Miami": 4534, "\u2581Common": 4535, "\u2581{\\": 4536, "\u2581without": 4537, "aria": 4538, "9.99": 4539, "LU": 4540, "\u2581Virtual": 4541, "\u25813-5": 4542, "sey": 4543, "\u2581line": 4544, "\u25811956": 4545, "cover": 4546, "\u2581(12)": 4547, "\u2581(11)": 4548, "Lu": 4549, "570": 4550, "127": 4551, "hon": 4552, "\u2581under": 4553, "06:10": 4554, "ement": 4555, "tina": 4556, "\u258114:1": 4557, "\u2581Smith": 4558, "\u2581Snow": 4559, "\u2581Start": 4560, "SER": 4561, "vert": 4562, "\u2581Ul": 4563, "169": 4564, "Create": 4565, "157": 4566, "KR": 4567, "EUR": 4568, "gio": 4569, "\u2581Apps": 4570, "365": 4571, "pet": 4572, "VM": 4573, "thy": 4574, "\u2581had": 4575, "\u2581top": 4576, "bank": 4577, "public": 4578, "\u2581Information": 4579, "\u2581reserved": 4580, "dri": 4581, "front": 4582, "short": 4583, "\u2581index": 4584, "\u2581Cent": 4585, "Object": 4586, "Zog": 4587, "\u2581HTC": 4588, "158": 4589, "American": 4590, "\u2581Wo": 4591, "hou": 4592, "\u2581product": 4593, "66)": 4594, "\u2581[5]": 4595, "\u2581Bai": 4596, "CON": 4597, "KO": 4598, "115": 4599, "\u2581LP": 4600, "0.9": 4601, "lib": 4602, "\u2581330": 4603, "-800": 4604, "\u2581Easy": 4605, "under": 4606, "ept": 4607, "\u2581Hilton": 4608, "\u2581Magazine": 4609, "\u25819.0": 4610, "\u2581Tree": 4611, "62)": 4612, "\u2581FU": 4613, "RAM": 4614, "177": 4615, "odi": 4616, "47)": 4617, "ication": 4618, "\u2581Audio": 4619, "\u25811946": 4620, "\u25811933": 4621, "\u2581MIT": 4622, "141": 4623, "Print": 4624, "\u2581Have": 4625, "\u2581LM": 4626, "WP": 4627, "[10]": 4628, "\u2581Prince": 4629, "375": 4630, "\u2581County": 4631, "\u2581think": 4632, "145": 4633, "\u2581133": 4634, "\u2581Blu": 4635, "hold": 4636, "wire": 4637, "JI": 4638, "\u2581FTP": 4639, "Per": 4640, "Guard": 4641, "9.6": 4642, "2005": 4643, "\u2581168": 4644, "Tech": 4645, "BU": 4646, "\u2581light": 4647, "tric": 4648, "iu": 4649, "\u2581Come": 4650, "iden": 4651, "\u2581Spec": 4652, "Ra": 4653, "\u2581Pla": 4654, "rail": 4655, "hole": 4656, "\u2581Bentley": 4657, "\u2581black": 4658, "\u25819:00": 4659, "vor": 4660, "\u258108:30": 4661, "After": 4662, "mouth": 4663, "some": 4664, "\u2581:::": 4665, "410": 4666, "870": 4667, "2.7": 4668, "hour": 4669, "\u25813%": 4670, "0.4": 4671, "hotels": 4672, "\u2581Dog": 4673, "520": 4674, "fact": 4675, "\u2581GHz": 4676, "\u2581Creative": 4677, "\u2581Europe": 4678, "\u2581Pornoid": 4679, "location": 4680, "\u2581German": 4681, "\u2581SATA": 4682, "9.3": 4683, "\u2581each": 4684, "\u2581Bow": 4685, "94)": 4686, "\u2581KA": 4687, "\u2581Fun": 4688, "\u25811959": 4689, "\u25811943": 4690, "\u2581True": 4691, "Short": 4692, "189": 4693, "\u2581Oh": 4694, "\u25811935": 4695, "\u2581Ray": 4696, "/50": 4697, "\u2581super": 4698, "STAR": 4699, "119": 4700, "2.8": 4701, "1-1": 4702, "\u2581Award": 4703, "\u2581Cathedral": 4704, "\u2581Commission": 4705, "inter": 4706, "tron": 4707, "position": 4708, "\u2581Kan": 4709, "\u2581Brand": 4710, "\u2581JIS": 4711, "8.7": 4712, "\u25811917": 4713, "\u266a": 4714, "04:59": 4715, "\u2581Stay": 4716, "Port": 4717, "4.4": 4718, "\u2581137": 4719, "\u2581art": 4720, "2.6": 4721, "polis": 4722, "\u2581head": 4723, "More": 4724, "ional": 4725, "Sec": 4726, "Up": 4727, "114": 4728, "\u2581Lan": 4729, "\u2581Lenovo": 4730, "\u2581second": 4731, "\u2581Berlin": 4732, "mid": 4733, "\u2581Week": 4734, "\u2581Event": 4735, "\u2581nano": 4736, "VDC": 4737, "ota": 4738, "ering": 4739, "40,000": 4740, "\u2581Sony": 4741, "[7]": 4742, "401": 4743, "Easy": 4744, "\u2581Rome": 4745, "kit": 4746, "fast": 4747, "76)": 4748, "\u2581HK": 4749, "5.7": 4750, "\u25817.5": 4751, "\u2581Ref": 4752, "\u2581Moo": 4753, "Web": 4754, "mount": 4755, "\u2581TOEFL": 4756, "Mbps": 4757, "\u2581update": 4758, "\u2581never": 4759, "rance": 4760, "\u2581MDF": 4761, "Dis": 4762, "\u2581Record": 4763, "149": 4764, "ITE": 4765, "\u2581(100": 4766, "\u2581MX": 4767, "2-4": 4768, "Shift": 4769, "\u2581Image": 4770, "\u2581Farm": 4771, "\u25817000": 4772, "\u2581Matt": 4773, "\u2581121": 4774, "Please": 4775, "\u2581(60": 4776, "trip": 4777, "\u2581PET": 4778, "\u2581Wild": 4779, "555": 4780, "ager": 4781, "\u2581Professional": 4782, "\u2581August": 4783, "\u2581Stadium": 4784, "\u2581temp": 4785, "\u2581program": 4786, "\u2581CIA": 4787, "but": 4788, "\u2581Oct": 4789, "asi": 4790, "\u2581Singapore": 4791, "\u2581Pur": 4792, "tsu": 4793, "\u2581KRW": 4794, "\u2581sm": 4795, "\u2581xxx": 4796, "+1": 4797, "free": 4798, "\u2581Zen": 4799, "\u2581Opti": 4800, "cott": 4801, "186": 4802, "Dr": 4803, "rag": 4804, "\u2581Met": 4805, "\u2581155": 4806, "\u2581because": 4807, "\u2581Future": 4808, "\u2581device": 4809, "you": 4810, "\u2581Carl": 4811, "\u2581men": 4812, "\u2581Down": 4813, "Can": 4814, "\u2581Shop": 4815, "ATA": 4816, "\u2581Dead": 4817, "\u25819.1": 4818, "512": 4819, "1.8": 4820, "Hotel": 4821, "139": 4822, "RU": 4823, "aught": 4824, "\u2581176": 4825, "agon": 4826, "plan": 4827, "69)": 4828, "\u2581Budget": 4829, "\u2581Library": 4830, "\u2581these": 4831, "187": 4832, "501": 4833, "\u2581poly": 4834, "159": 4835, "\u2581Hen": 4836, "\u2581POS": 4837, "\u2581Need": 4838, "etta": 4839, "\u25811952": 4840, "lite": 4841, "\u2581box": 4842, "\u2581Kat": 4843, "content": 4844, "inner": 4845, "qual": 4846, "\u2581text": 4847, "new": 4848, "uma": 4849, "\u2581IDE": 4850, "\u2581then": 4851, "275": 4852, "\u258111:1": 4853, "\u2581LTD": 4854, "\u2581Three": 4855, "\u2581find": 4856, "\u2581WHO": 4857, "6.8": 4858, "\u2581132": 4859, "cio": 4860, "\u2581Kon": 4861, "137": 4862, "\u2581house": 4863, "\u2581ju": 4864, "\u2581Fly": 4865, "0-1": 4866, "sole": 4867, "\u258150,000": 4868, "256": 4869, "\u2581SNS": 4870, "\u2581Kill": 4871, "\u2581came": 4872, "aster": 4873, "768": 4874, "5.0": 4875, "\u2581Yes": 4876, "\u2581Every": 4877, "iller": 4878, "\u2581GmbH": 4879, "\u2581Client": 4880, "\u2581Touch": 4881, "\u2581IPL": 4882, "OST": 4883, "\u2581Oak": 4884, "\u2581such": 4885, "\u2581Trust": 4886, "\u2581Rob": 4887, "Work": 4888, "\u2581direct": 4889, "phen": 4890, "\u2581videos": 4891, "\u2581Fan": 4892, "prop": 4893, "\u2581Bla": 4894, "user": 4895, "\u2581Take": 4896, "\u2581Where": 4897, "PER": 4898, "MPa": 4899, "\u2581Arc": 4900, "lish": 4901, "build": 4902, "201": 4903, "165": 4904, "\u2581Technologies": 4905, "Official": 4906, "\u2581PayPal": 4907, "\u2581Dubai": 4908, "0.8": 4909, "\u2581Lady": 4910, "\u2581Rua": 4911, "ega": 4912, "\u2581RH": 4913, "Plus": 4914, "\u2581*****": 4915, "\u2581got": 4916, "\u2581Cro": 4917, "\u25818.5": 4918, "kon": 4919, "\u2581Gro": 4920, "\u2581ob": 4921, "fine": 4922, "\u2581Gate": 4923, "2003": 4924, "\u2581Fund": 4925, "\u2581SV": 4926, "\u2581Milan": 4927, "illion": 4928, "\u2581Pattaya": 4929, "\u2581Number": 4930, "\u2581require": 4931, "\u2581Ross": 4932, "\u00b1": 4933, "\u2581Info": 4934, "755": 4935, "\u2581CAN": 4936, "API": 4937, "\u258102:00": 4938, "\u2581404": 4939, "\u2581Merc": 4940, "\u2581Near": 4941, "loss": 4942, "ember": 4943, "\u2581Glo": 4944, "\u2581Lion": 4945, "ancy": 4946, "7.7": 4947, "bridge": 4948, "-500": 4949, "\u2581CW": 4950, "\u2581Rep": 4951, "omi": 4952, "info": 4953, "9.7": 4954, "194": 4955, "\u2581Tar": 4956, "write": 4957, "\u2581Var": 4958, "\u25815:12": 4959, "\u2581Country": 4960, "\u2581Engineering": 4961, "\u2581function": 4962, "horn": 4963, "\u2581CNN": 4964, "\u2581item": 4965, "196": 4966, "\u2581Ferr": 4967, "\u2581Spring": 4968, "\u2581Miss": 4969, "780": 4970, "David": 4971, "alia": 4972, "INT": 4973, "TEC": 4974, "EAN": 4975, "chin": 4976, "\u2581pay": 4977, "\u2581place": 4978, "ians": 4979, "\u25814:3": 4980, "\u2581FCC": 4981, "670": 4982, "\u2581Bin": 4983, "-47": 4984, "\u2581personal": 4985, "\u2581Culture": 4986, "\u2581Study": 4987, "\u2581Russia": 4988, "\u2581PTFE": 4989, "\u2581Syn": 4990, "\u2581things": 4991, "\u2581young": 4992, "tai": 4993, "\u2581HFS": 4994, "\u2581Nan": 4995, "93)": 4996, "mini": 4997, "scan": 4998, "\u2581away": 4999, "Sync": 5000, "\u2581Financial": 5001, "\u2581UNI": 5002, "\u2581source": 5003, "\u2581version": 5004, "\u25815:00": 5005, "4.0": 5006, "\u2581European": 5007, "88)": 5008, "Pi": 5009, "\u2581Nano": 5010, "\u2581error": 5011, "Check": 5012, "\u2581Update": 5013, "\u2581DDoS": 5014, "\u2581single": 5015, "\u2581Fab": 5016, "208": 5017, "ied": 5018, "crypt": 5019, "760": 5020, "\u2581rec": 5021, "-2019": 5022, "itive": 5023, "\u25811931": 5024, "1.7": 5025, "\u2581Mah": 5026, "\u2581Moon": 5027, "ACT": 5028, "606": 5029, "asa": 5030, "DVD": 5031, "lies": 5032, "NN": 5033, "\u2581Led": 5034, "808": 5035, "\u2581sea": 5036, "\u2581those": 5037, "9.4": 5038, "\u2581ADHD": 5039, "\u2581Highway": 5040, "\u2581Thr": 5041, "\u2581Shin": 5042, "pad": 5043, "\u2581Stone": 5044, "east": 5045, "980": 5046, "\u2581Sale": 5047, "zip": 5048, "oil": 5049, "255": 5050, "With": 5051, "/24": 5052, "dale": 5053, "303": 5054, "\u2581UX": 5055, "\u2581Czech": 5056, "\u2581Visit": 5057, "RON": 5058, "\u2581Got": 5059, "\u2581Hyper": 5060, "\u2581%1$": 5061, "\u25813:15": 5062, "730": 5063, "multi": 5064, "\u2581GUI": 5065, "\u2581PAR": 5066, "\u2581Scott": 5067, "month": 5068, "91)": 5069, "dian": 5070, "\u2581Tag": 5071, "\u25811050": 5072, "\u2581AAA": 5073, "uba": 5074, "540": 5075, "-150": 5076, "\u2581AMP": 5077, "Art": 5078, "Life": 5079, "ISS": 5080, "\u2581Mind": 5081, "fair": 5082, "1.00": 5083, "III": 5084, "\u25814.4": 5085, "\u2581WE": 5086, "email": 5087, "\u2581Melbourne": 5088, "\u2581Safari": 5089, "\u2581Earth": 5090, "\u2581Sweet": 5091, "\u2581Theater": 5092, "\u2581Francisco": 5093, "\u2581Want": 5094, "\u2581project": 5095, "\u2581420": 5096, "\u2581Mount": 5097, "\u2581Nav": 5098, "Trans": 5099, "\u25811936": 5100, "data": 5101, "179": 5102, "yuan": 5103, "wing": 5104, "\u2581Base": 5105, "fort": 5106, "ental": 5107, "\u2581Blog": 5108, "stat": 5109, "060": 5110, "\u2581Python": 5111, "\u2581include": 5112, "\u2581JavaScript": 5113, "\u2581Gateway": 5114, "\u2581LGBT": 5115, "\u2581check": 5116, "bell": 5117, "\u2581Living": 5118, "\u2581guy": 5119, "040": 5120, "\u2581Viva": 5121, "aku": 5122, "\u258115:1": 5123, "269": 5124, "\u25817.0": 5125, "fly": 5126, "\u25817:1": 5127, "Power": 5128, "\u2581MR": 5129, "life": 5130, "2006": 5131, "\u2581tea": 5132, "\u2581Rooms": 5133, "\u2581Text": 5134, "OUT": 5135, "Ah": 5136, "\u2581order": 5137, "wel": 5138, "><": 5139, "pop": 5140, "\u2581Bath": 5141, "present": 5142, "\u2581Self": 5143, "Script": 5144, "\u2581Summer": 5145, "shire": 5146, "\u2581Change": 5147, "nik": 5148, "\u2581EOS": 5149, "\u25811951": 5150, "\u2581EMS": 5151, "\u2581Some": 5152, "kins": 5153, "\u25811929": 5154, "Open": 5155, "upon": 5156, "\u2581Soft": 5157, "\u2581Lock": 5158, "\u2581Six": 5159, "5.00": 5160, "\u2581Bob": 5161, "\u2581Qui": 5162, "ATION": 5163, "\u2581Talk": 5164, "\u2581Council": 5165, "\u2581Hollywood": 5166, "\u2581IELTS": 5167, "white": 5168, "\u2581body": 5169, "0.6": 5170, "\u2581Nature": 5171, "\u2581Fast": 5172, "note": 5173, "cross": 5174, "ici": 5175, "cro": 5176, "-48": 5177, "\u258110.1": 5178, "\u2581Joe": 5179, "Red": 5180, "kgs": 5181, "Point": 5182, "XL": 5183, "470": 5184, "doc": 5185, "\u2581blue": 5186, "hydro": 5187, "pdf": 5188, "client": 5189, "jpg": 5190, "-39": 5191, "306": 5192, "116": 5193, "77)": 5194, "bul": 5195, "\u2581Awards": 5196, "\u2581Coast": 5197, "\u25818:00": 5198, "lent": 5199, "\u2581DX": 5200, "\u2581Jay": 5201, "\u2581Vic": 5202, "\u2581Pot": 5203, "\u2581Dark": 5204, "\u2581Zip": 5205, "\u258114:00": 5206, "IEC": 5207, "vir": 5208, "\u258118:00": 5209, "USB": 5210, "ugg": 5211, "Ni": 5212, "\u2581porn": 5213, "security": 5214, "\u2581Contact": 5215, "\u2581Process": 5216, "\u2581Children": 5217, "\u2581walk": 5218, "\u2581Has": 5219, "\u2581GBP": 5220, "\u2581ABC": 5221, "DER": 5222, "safe": 5223, "\u2581Corp": 5224, "\u2581Canon": 5225, ".\u2019\u201d": 5226, "aca": 5227, "\u2581many": 5228, "ggy": 5229, "where": 5230, "\u25814.7": 5231, "\u2581March": 5232, "7-9": 5233, "\u2581cor": 5234, "\u2581Select": 5235, "\u2581network": 5236, "\u2581design": 5237, "\u2581Other": 5238, "144": 5239, "\u2581VGA": 5240, "not": 5241, "\u2581last": 5242, "\u2581Rio": 5243, "\u258105:10": 5244, "yi": 5245, "\u2581Slot": 5246, "run": 5247, "gui": 5248, "\u2581Gay": 5249, "Ti": 5250, "\u2581hotel": 5251, "nam": 5252, "rip": 5253, "\u2581Description": 5254, "\u2581CU": 5255, "Soft": 5256, "xxx": 5257, "\u2581PIN": 5258, "\u2581Louis": 5259, "yne": 5260, "bad": 5261, "\u25810.05": 5262, "hl": 5263, "136": 5264, "\u2581Ep": 5265, "\u2581Rain": 5266, "\u2581auto": 5267, "\u25812:3": 5268, "\u258120:00": 5269, "\u2581Electric": 5270, "\u2581language": 5271, "\u2581Evernote": 5272, "cycle": 5273, "\u2581element": 5274, "268": 5275, "eller": 5276, "PRO": 5277, "hill": 5278, "\u2581Arena": 5279, "\u2581Sav": 5280, "panel": 5281, "\u2581war": 5282, "AGE": 5283, "\u25811954": 5284, "gun": 5285, "cade": 5286, "DY": 5287, "Mark": 5288, "\u25811938": 5289, "PORT": 5290, "\u2581Spe": 5291, "\u258199.9": 5292, "rod": 5293, "share": 5294, "\u2581IDD": 5295, "\u2581Experience": 5296, "\u2581return": 5297, "\u2581baby": 5298, "\u2581Terrace": 5299, "\u2581Partner": 5300, "hard": 5301, "\u25812007-11-": 5302, "esh": 5303, "\u2581RNA": 5304, "\u2581Fuck": 5305, "vic": 5306, "\u2581string": 5307, "-2000": 5308, "version": 5309, "1-2": 5310, "ben": 5311, "rp": 5312, "\u2581Jean": 5313, "HER": 5314, "GL": 5315, "paper": 5316, "\u2581Die": 5317, "\u2581Daniel": 5318, "\u2581IcePorn": 5319, "\u2581wife": 5320, "force": 5321, "\u2581SunPorno": 5322, "\u2581Albert": 5323, "/30": 5324, "\u2581were": 5325, "mac": 5326, "cid": 5327, "\u2581made": 5328, "\u2581Xin": 5329, "obi": 5330, "heim": 5331, "\u2581Kingston": 5332, "3-5": 5333, "works": 5334, "\u2581Lite": 5335, "\u2581Ever": 5336, "\u2581ONE": 5337, "uring": 5338, "wen": 5339, "\u258115:00": 5340, "kHz": 5341, "\u2581Secret": 5342, "\u2581feel": 5343, "\u2581Seoul": 5344, "\u2581Local": 5345, "umi": 5346, "\u258130,000": 5347, "ival": 5348, "\u2581Nero": 5349, "\u2581Expo": 5350, "utter": 5351, "ador": 5352, "drive": 5353, "003": 5354, "motion": 5355, "\u2581Dur": 5356, "University": 5357, "Drive": 5358, "game": 5359, "\u2581MY": 5360, "\u25812:2": 5361, "\u2581SAS": 5362, "water": 5363, "\u2581Wave": 5364, "4.3": 5365, "\u2581ESXi": 5366, "\u2581would": 5367, "\u2581Single": 5368, "\u2581Mid": 5369, "\u2581Backup": 5370, "\u2581Forum": 5371, "EMA": 5372, "with": 5373, "\u2581Bible": 5374, "High": 5375, "-1000": 5376, "\u2581ROM": 5377, "tek": 5378, "European": 5379, "[8]": 5380, "\u2581Basic": 5381, "cord": 5382, "eye": 5383, "isco": 5384, "\u2581Face": 5385, "\u2581Australia": 5386, "\u2581pH": 5387, "ibility": 5388, "\u2581Silver": 5389, "7.9": 5390, "tch": 5391, "phe": 5392, "\u25815:3": 5393, "worth": 5394, "cap": 5395, "Air": 5396, "\u2581cock": 5397, "ural": 5398, "\u2581Special": 5399, "ego": 5400, "Best": 5401, "\u2581Pie": 5402, "ception": 5403, "ista": 5404, "rig": 5405, "Log": 5406, "oda": 5407, "haus": 5408, "NZ": 5409, "Day": 5410, "\u2581Sleazy": 5411, "\u2581Orphek": 5412, "\u2581Policy": 5413, "\u2581Picture": 5414, "\u2581Directory": 5415, "Dupe": 5416, "420": 5417, "\u2581Look": 5418, "355": 5419, "\u2581image": 5420, "\u2581Eu": 5421, "3.7": 5422, "Joseph": 5423, "\u2581Vid": 5424, "\u2581anal": 5425, "\u258124:3": 5426, "\u2581water": 5427, "Form": 5428, "\u2581Band": 5429, "Google": 5430, "band": 5431, "\u258185%": 5432, "\u2581Rosa": 5433, "dir": 5434, "\u2581Here": 5435, "\u2581Tax": 5436, "\u2581Chapter": 5437, "\u2581Samsung": 5438, "\u2581between": 5439, "\u2581DVR": 5440, "\u2581Hills": 5441, "Comp": 5442, "ashi": 5443, "\u2581390": 5444, "hoe": 5445, "Cloud": 5446, "Global": 5447, "girl": 5448, "source": 5449, "\u2581Was": 5450, "Read": 5451, "\u2581Dev": 5452, "hof": 5453, "HAN": 5454, "iso": 5455, "DU": 5456, "lone": 5457, "wick": 5458, "\u2581Communication": 5459, "\u2581Creek": 5460, "\u2581Railway": 5461, "stream": 5462, "\u25812,500": 5463, "\u2581Vision": 5464, "/100": 5465, "\u2581Body": 5466, "9.8": 5467, "Cam": 5468, "-400": 5469, "\u2581CON": 5470, "\u2581Studios": 5471, "\u2581CDN": 5472, "\u2581Jim": 5473, "-240": 5474, "\u2581Apartament": 5475, "\u2581Kit": 5476, "IGHT": 5477, "tti": 5478, "burn": 5479, "\u25811,200": 5480, "445": 5481, "\u2581Cash": 5482, "ENG": 5483, "\u2581Right": 5484, "\u2581Premium": 5485, "\u2581Storage": 5486, "\u2581Natural": 5487, "\u2581keep": 5488, "\u258115,000": 5489, "\u25811700": 5490, "[16]": 5491, "\u2581Forest": 5492, "\u2581HGH": 5493, "\u2581Zone": 5494, "\u2581Fur": 5495, "gli": 5496, "\u2581Recover": 5497, "ario": 5498, "\u2581Israel": 5499, "mobile": 5500, "\u2581thought": 5501, "\u2581Fluke": 5502, "\u2581Again": 5503, "\u2581milf": 5504, "\u2581Peace": 5505, "gie": 5506, "\u2581close": 5507, "\u2581Force": 5508, "\u258104:26": 5509, "JO": 5510, "\u25811937": 5511, "\u2581Costa": 5512, "\u2581Youth": 5513, "\u2581Turn": 5514, "176": 5515, "\u20ac": 5516, "289": 5517, "8000": 5518, "ought": 5519, "lian": 5520, "ISA": 5521, "\u2581Desktop": 5522, "\u2581Marriott": 5523, "\u2581Antonio": 5524, "\u2581Roger": 5525, "\u2581touch": 5526, "\u2581FAX": 5527, "\u2581lead": 5528, "____": 5529, "\u2581Bull": 5530, "\u2581Marine": 5531, "\u2581Mak": 5532, "\u2581Extra": 5533, "7-8": 5534, "ppm": 5535, "obo": 5536, "\u25814:6": 5537, "\u25815:14": 5538, "clear": 5539, "other": 5540, "\u2581Rich": 5541, "\u2581Henry": 5542, "308": 5543, "\u2581APP": 5544, "Love": 5545, "\u2581Return": 5546, "\u2581Pop": 5547, "methyl": 5548, "Key": 5549, "flex": 5550, "\u2581Adam": 5551, "aire": 5552, "type": 5553, "direct": 5554, "\u258117:3": 5555, "008": 5556, "\u2581Cool": 5557, "\u2581better": 5558, "\u2581level": 5559, "\u2581perform": 5560, "\u2581appear": 5561, "Learn": 5562, "\u25811928": 5563, "\u25811250": 5564, "She": 5565, "288": 5566, "386": 5567, "There": 5568, "Not": 5569, "\u2581Chris": 5570, "ambo": 5571, "CAP": 5572, "amine": 5573, "\u25811:2": 5574, "vie": 5575, "\u2581EZ": 5576, "8.1": 5577, "\u2581Chat": 5578, "\u2581Alliance": 5579, "\u2581filter": 5580, "\u2581ROHS": 5581, "\u2581PADI": 5582, "\u2581Trip": 5583, "\u2581Loft": 5584, "[13]": 5585, "uh": 5586, "home": 5587, "\u2581Git": 5588, "296": 5589, "File": 5590, "\u2581Child": 5591, "\u2581Rhino": 5592, "iger": 5593, "\u2581Indian": 5594, "\u2581Stan": 5595, "gro": 5596, "\u2581Dun": 5597, "AWG": 5598, "\u2581Save": 5599, "\u2581Sant": 5600, "\u2581Emer": 5601, "green": 5602, "\u2581Economic": 5603, "\u2581Guangzhou": 5604, "\u2581Lisbon": 5605, "\u2581Mexico": 5606, "\u2581column": 5607, "\u2581little": 5608, "\u2581current": 5609, "\u2581result": 5610, "\u2581Method": 5611, "British": 5612, "reference": 5613, "science": 5614, "1/2": 5615, "\u2581click": 5616, "TECH": 5617, "\u2581Clean": 5618, "\u2581Lar": 5619, "\u2581Joy": 5620, "sort": 5621, "\u2581Case": 5622, "\u2581Kam": 5623, "\u2581Anton": 5624, "\u2581Rule": 5625, "rock": 5626, "hir": 5627, "\u2581Track": 5628, "Blue": 5629, "gov": 5630, "uf": 5631, "770": 5632, "Out": 5633, "\u2581Eng": 5634, "uction": 5635, "Har": 5636, "\u2581Exhibition": 5637, "\u2581Expedia": 5638, "\u2581Netflix": 5639, "\u2581Learning": 5640, "\u2581learn": 5641, "\u2581Collins": 5642, "craft": 5643, "lice": 5644, "[17]": 5645, "[15]": 5646, "\u2581Visa": 5647, "\u2581Playa": 5648, "\u2581Oil": 5649, "ending": 5650, "chel": 5651, "rough": 5652, "\u2581Spy": 5653, "udd": 5654, "6.9": 5655, "love": 5656, "\u2581Kir": 5657, "wide": 5658, "SON": 5659, "iron": 5660, "\u2581Liber": 5661, "\u2581Marco": 5662, "Inter": 5663, "\u2581Shenzhen": 5664, "\u2581different": 5665, "\u2581Comfort": 5666, "\u2581break": 5667, "\u2581Croco": 5668, "\u2581very": 5669, "\u2581UTC": 5670, "\u2581Flu": 5671, "\u2581GMP": 5672, "change": 5673, "\u2581Eric": 5674, "\u25811906": 5675, "ethyl": 5676, "\u2581Action": 5677, "NX": 5678, "\u2581Value": 5679, "\u2581His": 5680, "\u2581Roma": 5681, "\u2581Speed": 5682, "\u2581year": 5683, "Back": 5684, "Good": 5685, "lick": 5686, "\u2581JPEG": 5687, "\u2581Website": 5688, "\u2581pvc": 5689, "firefox": 5690, "\u2581JPG": 5691, "\u2581address": 5692, "\u2581Florence": 5693, "\u2581Guesthouse": 5694, "\u2581Honor": 5695, "[14]": 5696, "\u2581story": 5697, "\u2581Prime": 5698, "\u2581NGO": 5699, "\u2581Mission": 5700, "\u258121:1": 5701, "chat": 5702, "\u2581cannot": 5703, "\u2581GMT": 5704, "OUR": 5705, "bug": 5706, "\u2581most": 5707, "UX": 5708, "\u2581Vel": 5709, "ished": 5710, "\u25811934": 5711, "\u258121:3": 5712, "cloud": 5713, "order": 5714, "0.7": 5715, "\u2581Rod": 5716, "\u25811923": 5717, "\u2581Hai": 5718, "born": 5719, "\u2581collection": 5720, "\u2581Spirit": 5721, "\u2581account": 5722, "\u2581Cell": 5723, "Edit": 5724, "\u2581Andrew": 5725, "\u2581Deep": 5726, "\u2581Radio": 5727, "\u258106:30": 5728, "\u2581Never": 5729, "\u2581pov": 5730, "hun": 5731, "\u2581Cris": 5732, "web": 5733, "\\\\": 5734, "\u00f3n": 5735, "LAS": 5736, "rah": 5737, "First": 5738, "mol": 5739, "TRO": 5740, "\u2581Apart": 5741, "PVC": 5742, ":4.0.30319": 5743, "\u2581Chinese": 5744, "\u2581Entertainment": 5745, "\u2581Privacy": 5746, "=\"%(": 5747, "Message": 5748, "strasse": 5749, "\u2581BIOS": 5750, "\u2581member": 5751, "\u2581Norton": 5752, "Stream": 5753, "\u258105:02": 5754, "lves": 5755, "ION": 5756, "\u2581\u2014\u2014": 5757, "14001": 5758, "\u258106:01": 5759, "\u2581Guy": 5760, "790": 5761, "ania": 5762, "\u2581Rev": 5763, "THE": 5764, "Protect": 5765, "-120": 5766, "\u2581Shu": 5767, "\u25811905": 5768, "\u2581Mass": 5769, "\u2581Than": 5770, "center": 5771, "\u2581Happy": 5772, "\u2581NVIDIA": 5773, "\u2581Premier": 5774, "\u2581Glass": 5775, "\u2581display": 5776, "\u2581another": 5777, "\u2581Daily": 5778, "\u2581Quest": 5779, "\u2581Nations": 5780, "\u2581JMP": 5781, "\u2581ERP": 5782, "Coin": 5783, "wei": 5784, "\u2581June": 5785, "Lab": 5786, "\u2581Aero": 5787, "bian": 5788, "osis": 5789, "edge": 5790, "\u2581ICT": 5791, "\u25818.9": 5792, "2002": 5793, "\u2581SurveyMonkey": 5794, "\u2581Historic": 5795, "\u2581April": 5796, "Error": 5797, "\u2581Crown": 5798, "\u2581Season": 5799, "701": 5800, "\u2581Solutions": 5801, "AVE": 5802, "889": 5803, "nell": 5804, "\u2581Arch": 5805, "duct": 5806, "\u2581Table": 5807, "\u2581ESL": 5808, "\u2581DOC": 5809, "\u2581mind": 5810, "886": 5811, "\u2581Effect": 5812, "\u2581could": 5813, "\u2581Things": 5814, "\u2581Crypto": 5815, "\u2581NFC": 5816, "digit": 5817, "\u2581Jeff": 5818, "atic": 5819, "feed": 5820, "\u2581Cyber": 5821, "100%": 5822, "\u25811922": 5823, "\u25811932": 5824, "\u2581Made": 5825, "Let": 5826, "5.1": 5827, "\u2581Cup": 5828, "\u258105:3": 5829, "jp": 5830, "mile": 5831, "gb": 5832, "NES": 5833, "rush": 5834, "Now": 5835, "\u2581default": 5836, "\u2581Disney": 5837, "\u2581resource": 5838, "\u2581Content": 5839, "\u2581Small": 5840, "\u2581Yan": 5841, "\u2581SUV": 5842, "60,000": 5843, "\u2581Laser": 5844, "\u2581rule": 5845, "\u2581Kai": 5846, "KU": 5847, "905": 5848, "Korea": 5849, "\u2581Temp": 5850, "\u2581Sydney": 5851, "\u2581Texas": 5852, "ANA": 5853, "\u2581Device": 5854, "00:00": 5855, "Delete": 5856, "dong": 5857, "oji": 5858, "\u2581did": 5859, "Big": 5860, "rai": 5861, "\u2581Gil": 5862, "*10": 5863, "\u2581Siri": 5864, "def": 5865, "wind": 5866, "\u2581Buy": 5867, "SQL": 5868, "world": 5869, "gia": 5870, "fix": 5871, "\u2581save": 5872, "\u2581Harbour": 5873, "\u2581always": 5874, "\u2581Wonder": 5875, "\u2581Horizon": 5876, "\u2581GDPR": 5877, "\u2581DMX": 5878, "005": 5879, "\u2581CFD": 5880, "\u2581CRM": 5881, "\u2581Sep": 5882, "\u2581Beat": 5883, "\u2581Est": 5884, "5.9": 5885, "witch": 5886, "hong": 5887, "\u2581Flor": 5888, "\u25811:3": 5889, "\u258106:4": 5890, "\u00a3": 5891, "tica": 5892, "group": 5893, "ente": 5894, "mix": 5895, "ITY": 5896, "004": 5897, "\u2581Alerts": 5898, "\u2581Semiconductor": 5899, "\u2581message": 5900, "\u2581BBQ": 5901, "\u2581Christmas": 5902, "\u2581IEEE": 5903, "\u2581Price": 5904, "\u2581Zero": 5905, "909": 5906, "tip": 5907, "\u2581ACC": 5908, "chain": 5909, "idi": 5910, "hub": 5911, "\u2581Bern": 5912, "\u2581Springs": 5913, "\u2581Bird": 5914, "illo": 5915, "(...)": 5916, "\u2581Lind": 5917, "global": 5918, "\u2581Axis": 5919, "\u2581LORD": 5920, "\u2581WIFI": 5921, "\u2581Turbo": 5922, "club": 5923, "\u2581SaaS": 5924, "\u2581Rental": 5925, "\u2581Death": 5926, "\u2581MSN": 5927, "DOS": 5928, "virus": 5929, "\u2581Lang": 5930, "\u25811901": 5931, "2.9": 5932, "\u2581Meta": 5933, "illi": 5934, "Black": 5935, "KRW": 5936, "rose": 5937, "Why": 5938, "\u2581Jane": 5939, "frame": 5940, "\u2581Say": 5941, "\u2581Cast": 5942, "\u2581OECD": 5943, "\u2581release": 5944, "\u2581far": 5945, "\u2581interface": 5946, "\u2581Motion": 5947, "1500": 5948, "\u2581Polar": 5949, "\u2581Simon": 5950, "sqm": 5951, "fold": 5952, "\u2581Lost": 5953, "\u2581Plat": 5954, "OLE": 5955, "ICO": 5956, "root": 5957, "\u2581Mercedes": 5958, "\u2581Reserved": 5959, "\u2581CMOS": 5960, "\u2581Help": 5961, "\u2581Orange": 5962, "Base": 5963, "789": 5964, "trans": 5965, "\u2581might": 5966, "\u2581Posted": 5967, "\u2581IDC": 5968, "\u2581Block": 5969, "\u25811926": 5970, "8.0": 5971, "\u2581Fred": 5972, "parent": 5973, "588": 5974, "377": 5975, "\u2581Deluxe": 5976, "\u2581computer": 5977, "\u2581Wolf": 5978, "mir": 5979, "\u2581CMS": 5980, "[19]": 5981, "RED": 5982, "Shame": 5983, "930": 5984, "BER": 5985, "grade": 5986, "\u2581takes": 5987, "\u2581move": 5988, "jin": 5989, "8:2": 5990, "arrow": 5991, "\u2581Brun": 5992, "otto": 5993, "\u2581Twin": 5994, "lake": 5995, "855": 5996, "TEX": 5997, "\u2581SUS": 5998, "\u2581Barcelona": 5999, "\u2581Manhattan": 6000, "\u2581Resources": 6001, "\u2581Taylor": 6002, "\u2581business": 6003, "\u2581Athens": 6004, "\u2581school": 6005, "\u2581Second": 6006, "\u2581Seagate": 6007, "\u2581Style": 6008, "\u258108:5": 6009, "\u2581Enter": 6010, "\u2581Unity": 6011, "yun": 6012, "\u2581Marketing": 6013, "\u2581Pont": 6014, "rage": 6015, "\u25813:9": 6016, "\u2581mode": 6017, "mad": 6018, "jet": 6019, "made": 6020, "\u2581fun": 6021, "BET": 6022, "868": 6023, "801": 6024, "Add": 6025, "\u00e2": 6026, "\u2581effect": 6027, "\u2581machine": 6028, "Gbps": 6029, "\u2581next": 6030, "\u2581Japanese": 6031, "\u2581Display": 6032, "\u2581League": 6033, "Host": 6034, "\u2581Chain": 6035, "\u2581around": 6036, "\u2581VOD": 6037, "\u2581shall": 6038, "post": 6039, "\u2581Girls": 6040, "690": 6041, "grad": 6042, "\u2581Wine": 6043, "\u2581Dai": 6044, "Singapore": 6045, "South": 6046, "\u2581Solar": 6047, "\u2581Came": 6048, "\u2581Adventure": 6049, "\u2581Chicago": 6050, "\u2581Safety": 6051, "\u2581Computer": 6052, "\u2581UHF": 6053, "\u2581command": 6054, "\u2581something": 6055, "\u2581Legend": 6056, "\u2581least": 6057, "\u2581Index": 6058, "fiber": 6059, "page": 6060, "\u2581Mike": 6061, "\u2581+82": 6062, "hood": 6063, "\u2581ETH": 6064, "boot": 6065, "dorf": 6066, "ulu": 6067, "\u25811880": 6068, "1080": 6069, "\u258113:00": 6070, "00000": 6071, "378": 6072, "\u00a5": 6073, "\u2581Ava": 6074, "\u2581Urban": 6075, "\u2581character": 6076, "\u2581nipples": 6077, "\u2581Sierra": 6078, "\u2581three": 6079, "\u2581Revolution": 6080, "\u2581Trump": 6081, "\u2581CBD": 6082, "\u2581tell": 6083, "688": 6084, "\u2581Soul": 6085, "\u2581going": 6086, "RES": 6087, "ography": 6088, "\u2581Tian": 6089, "oshi": 6090, "\u2581Iron": 6091, "cz": 6092, "\u2581Final": 6093, "\u2581Cay": 6094, "\u2581Circ": 6095, "Lock": 6096, "\u2581Dublin": 6097, "\u2581fetish": 6098, "\u2581Middle": 6099, "\u2581turn": 6100, "\u2581Left": 6101, "Product": 6102, "\u258105:08": 6103, "\u2581size": 6104, "zone": 6105, "Master": 6106, "\u2581Prat": 6107, "lang": 6108, "harm": 6109, "liver": 6110, "696": 6111, "Preview": 6112, "\u2581Steel": 6113, "stitut": 6114, "990": 6115, "gang": 6116, "cheng": 6117, "\u2581Hay": 6118, "876": 6119, "r\u00e9": 6120, "\u2581Beautiful": 6121, "\u2581Memorial": 6122, "\u2581Trenbolone": 6123, "\u2581Innovation": 6124, "\u2581package": 6125, "\u2581SharePoint": 6126, "\u2581Jet": 6127, "\u2581record": 6128, "\u2581Today": 6129, "\u2581Leica": 6130, "\u2581UFC": 6131, "\u258105:09": 6132, "477": 6133, "\u2581Gmail": 6134, "\u2581Dance": 6135, "\u2581HTTPS": 6136, "izing": 6137, "sync": 6138, "\u2581Thai": 6139, "ridge": 6140, "\u25811927": 6141, "\u25811.25": 6142, "4.7": 6143, "\u2581Asian": 6144, "ADA": 6145, "system": 6146, "North": 6147, "\u2581Math": 6148, "google": 6149, "\u2581Huawei": 6150, "\u2581IWC": 6151, "\u2581Course": 6152, "\u2581RPG": 6153, "\u2581Kingdom": 6154, "ifier": 6155, "\u2581Camera": 6156, "emia": 6157, "\u2581party": 6158, "building": 6159, "\u2581DDR": 6160, "IDE": 6161, "\u2581SAE": 6162, "006": 6163, "\u2581TPE": 6164, "\u25811:9": 6165, "\u2581Lux": 6166, "\u2581Edwards": 6167, "\u2581Glen": 6168, "uki": 6169, "Paul": 6170, "korea": 6171, "TON": 6172, "state": 6173, "1800": 6174, "\u2581Mun": 6175, "50%": 6176, "IAN": 6177, "\u2581Disc": 6178, "\u2581$100": 6179, "Next": 6180, "\u2581Give": 6181, "\u2581contact": 6182, "\u2581woman": 6183, "\u2581Address": 6184, "\u2581Snap": 6185, "\u2581Zhong": 6186, "\u2581Jones": 6187, "\u2581Found": 6188, "plex": 6189, "KVA": 6190, "agan": 6191, "\u2581Exam": 6192, "\u2581Centro": 6193, "Ray": 6194, "\u2581Five": 6195, "ige": 6196, "\u2581Seven": 6197, "BTC": 6198, "\u2581Castel": 6199, "\u25810.25": 6200, "\u2581Mono": 6201, "enberg": 6202, "\u2581Arab": 6203, "\u2581Berg": 6204, "pay": 6205, "\u2581Anna": 6206, "866": 6207, "[18]": 6208, "ross": 6209, "\u2581Tokyo": 6210, "VIEW": 6211, "\u2581FREE": 6212, "\u2581Dragon": 6213, "scope": 6214, "\u2581Circle": 6215, "\u2581Tab": 6216, "BASE": 6217, "\u2581Nico": 6218, "678": 6219, "zie": 6220, "fill": 6221, "azar": 6222, "\u2581Santo": 6223, "2\u00b0": 6224, "just": 6225, "\u2581friends": 6226, "\u2581Paint": 6227, "\u2581Coll": 6228, "\u2581Mile": 6229, "9.9": 6230, "\u2581Colon": 6231, "\u2581Industry": 6232, "\u2581property": 6233, "\u2581Diamond": 6234, "\u2581MySQL": 6235, "\u2581UpdateTube": 6236, "\u2581Switch": 6237, "\u2581Race": 6238, "feng": 6239, "wear": 6240, "trust": 6241, "\u2581Planet": 6242, "proof": 6243, "eff": 6244, "608": 6245, "\u2581Phen": 6246, "TED": 6247, "\u2581Tim": 6248, "7.0": 6249, "pass": 6250, "gress": 6251, "clar": 6252, "Fire": 6253, "villa": 6254, "value": 6255, "\u2581Battle": 6256, "\u2581Document": 6257, "\u2581Medicine": 6258, "\u2581ANSI": 6259, "\u2581Volume": 6260, "Install": 6261, "culture": 6262, "piece": 6263, "\u2581JSON": 6264, "\u2581Cinema": 6265, "\u2581Profile": 6266, "\u2581Keep": 6267, "\u2581IMF": 6268, "\u2581ISP": 6269, "\u2581Riad": 6270, "\u2581ARM": 6271, "668": 6272, "NAME": 6273, "9:9": 6274, "708": 6275, "House": 6276, "product": 6277, "\u2581Teen": 6278, "TEL": 6279, "\u2581Puerto": 6280, "defined": 6281, "\u2581OBD": 6282, "\u2581Comments": 6283, "\u2581Level": 6284, "SSC": 6285, "\u2581UAE": 6286, "\u2581fail": 6287, "jack": 6288, "poly": 6289, "Part": 6290, "glass": 6291, "stead": 6292, "xml": 6293, "\u2581cum": 6294, "\u2581Avenida": 6295, "\u2581Coffee": 6296, "\u2581Galaxy": 6297, "\u2581Tesla": 6298, "\u2581target": 6299, "\u2581Perfect": 6300, "\u2581Cruz": 6301, "\u2581why": 6302, "\u2581PNG": 6303, "\u2581Estate": 6304, "80,000": 6305, "\u2581Porto": 6306, "\u2581Owner": 6307, "scale": 6308, "970": 6309, "\u2581Jung": 6310, "776": 6311, "hui": 6312, "\u25811908": 6313, "\u2581Hey": 6314, "once": 6315, "9.1": 6316, "alized": 6317, "vari": 6318, "logic": 6319, "metric": 6320, "1.9": 6321, "\u25811903": 6322, "\u2581Theme": 6323, "Service": 6324, "privacy": 6325, "\u2581Executive": 6326, "\u2581Leopard": 6327, "\u2581Paradise": 6328, "\u2581Suunto": 6329, "\u2581software": 6330, "\u2581Location": 6331, "\u2581connection": 6332, "\u2581limit": 6333, "\u2581money": 6334, "+00:00": 6335, "\u2581getting": 6336, "\u2581Paper": 6337, "menu": 6338, "\u258105:05": 6339, "\u2581stop": 6340, "Full": 6341, "\u258106:09": 6342, "gmail": 6343, "\u2581DLC": 6344, "\u2581develop": 6345, "\u2581Idea": 6346, "cient": 6347, "\u258111:3": 6348, "\u2581Nice": 6349, "etti": 6350, "pair": 6351, "\u2581LPG": 6352, "\u2581Neu": 6353, "\u2581Feel": 6354, "\u2581Jose": 6355, "769": 6356, "\u2581CCD": 6357, "yang": 6358, "hoo": 6359, "8-9": 6360, "Studio": 6361, "%1$": 6362, "\u2581Bangkok": 6363, "\u2581Ethereum": 6364, "\u2581Cebu": 6365, "\u2581Discovery": 6366, "\u2581suite": 6367, "dependent": 6368, "[26]": 6369, "guard": 6370, "\u2581Disk": 6371, "878": 6372, "\u258105:17": 6373, "\u2581Juan": 6374, "pool": 6375, "\u25813:3": 6376, "\u2581Pier": 6377, "Pay": 6378, "\u2581BEST": 6379, "\u2581Olymp": 6380, "Great": 6381, "\u2581Protocol": 6382, "\u2581family": 6383, "\u2581Phuket": 6384, "\u2581standard": 6385, "twitter": 6386, "\u2581please": 6387, "\u2581initial": 6388, "\u2581November": 6389, "\u2581Electronics": 6390, "screen": 6391, "\u2581Freedom": 6392, "\u2581VoIP": 6393, "\u2581still": 6394, "\u2581enable": 6395, "[24]": 6396, "\u258105:03": 6397, "NIC": 6398, "\u2581NBC": 6399, "\u2581Robot": 6400, "2.00": 6401, "\u2581AVG": 6402, "bach": 6403, "radio": 6404, "\u2581PowerShell": 6405, "\u2581Practice": 6406, "\u2581BookingSuite": 6407, "\u2581CMYK": 6408, "\u2581Committee": 6409, "\u2581brother": 6410, "\u2581whether": 6411, "\u2581Lewis": 6412, "Type": 6413, "\u2581Focus": 6414, "\u2581Branch": 6415, "\u2581Empire": 6416, "\u2581Clear": 6417, "\u2581both": 6418, "\u2581Solid": 6419, "Old": 6420, "skiy": 6421, "\u2581July": 6422, "pine": 6423, "\u2581SHA": 6424, "Char": 6425, "\u2581Metal": 6426, "firm": 6427, "\u2581Term": 6428, "\u258150/60": 6429, "\u2581Yellow": 6430, "\u2581Surface": 6431, "\u2581Harbor": 6432, "\u2581Carrer": 6433, "street": 6434, "\u2581Wifi": 6435, "\u2581cnc": 6436, "\u2581mature": 6437, "\u2581NFL": 6438, "ovo": 6439, "778": 6440, "\u2581DLL": 6441, "\u2581enter": 6442, "power": 6443, ".02.20": 6444, "\u2581Brad": 6445, "oku": 6446, "05:06": 6447, "iety": 6448, "Pack": 6449, "\u2581coll": 6450, "TOP": 6451, "Once": 6452, "shine": 6453, "\u2581Alldatasheet": 6454, "\u2581Cultural": 6455, "\u2581while": 6456, "\u2581Cancer": 6457, "System": 6458, "\u2581Stock": 6459, "\u2581Kids": 6460, "\u2581twin": 6461, "travel": 6462, "\u2581Grace": 6463, "complete": 6464, "ASX": 6465, "\u2581Hour": 6466, "\u2581teach": 6467, "\u2581BeFuck": 6468, "\u2581Blood": 6469, "\u2581Organization": 6470, "\u2581Prague": 6471, "\u2581Authority": 6472, "\u2581tesa": 6473, "\u2581NATO": 6474, "\u2581ASME": 6475, "\u2581AISI": 6476, "\u2581drop": 6477, "\u2581Yang": 6478, "Trade": 6479, "Max": 6480, "\u2581Rating": 6481, "10,000": 6482, "rise": 6483, "ucci": 6484, "social": 6485, "ibo": 6486, "7000": 6487, "ummer": 6488, "\u2581Student": 6489, "\u2581Shield": 6490, "\u2581feature": 6491, "\u2581Nyc": 6492, "\u2581human": 6493, "\u2581movie": 6494, "\u2581Stephen": 6495, "Michael": 6496, "Linux": 6497, "\u2581Mother": 6498, "Super": 6499, "\u2581Inside": 6500, "\u2581person": 6501, "\u2581dick": 6502, "\u258107:50": 6503, "Follow": 6504, "\u2581Ferry": 6505, "\u25810.02": 6506, "\u2581EDM": 6507, "Press": 6508, "\u2581MRT": 6509, "\u2581Brook": 6510, "\u2581React": 6511, "6.0": 6512, "\u2581McG": 6513, "\u2581Surf": 6514, "magic": 6515, "787": 6516, "\u2581Shell": 6517, "\u2581Canal": 6518, "\u2581Budapest": 6519, "\u2581Swift": 6520, "\u2581Canyon": 6521, "\u2581Animal": 6522, "\u2581French": 6523, "\u2581Interface": 6524, "\u2581Jackson": 6525, "\u2581Mansion": 6526, "\u2581much": 6527, "\u2581Load": 6528, "United": 6529, "\u2581Yep": 6530, "\u2581match": 6531, "\u2581Olympic": 6532, "\u2581Burn": 6533, "\u2581Artist": 6534, "ogue": 6535, "BOX": 6536, "\u00e1n": 6537, "\u2581Brooklyn": 6538, "\u2581JAPAN": 6539, "\u2581PinkRod": 6540, "\u2581picture": 6541, "\u2581amateur": 6542, "\u2581AXIS": 6543, "config": 6544, "\u2581Terminal": 6545, "\u2581Editor": 6546, "\u2581Apache": 6547, "\u2581Hydro": 6548, "\u2581Developer": 6549, "\u2581Brother": 6550, "\u2581having": 6551, "\u2581office": 6552, "\u2581HANA": 6553, "wave": 6554, "\u2581srt": 6555, "Microsoft": 6556, "Talk": 6557, "ISE": 6558, "\u2581tax": 6559, "\u2581geo": 6560, "\u2581Thank": 6561, "\u2581grow": 6562, "\u2581Nova": 6563, "Write": 6564, "chang": 6565, "4.00": 6566, "ORY": 6567, "\u2581Author": 6568, "\u2581Antalya": 6569, "\u2581Broadway": 6570, "\u2581Courtyard": 6571, "\u2581Oxford": 6572, "\u2581component": 6573, "\u2581women": 6574, "\u2581Article": 6575, "\u2581Deutsch": 6576, "\u2581Century": 6577, "\u2581Boston": 6578, "\u2581Intl": 6579, "009": 6580, "James": 6581, "\u2581Route": 6582, "bai": 6583, "\u2581Fax": 6584, "\u2581Ship": 6585, "\u2581Plant": 6586, "ISH": 6587, "MER": 6588, "\u2581window": 6589, "6-7": 6590, "\u2581follow": 6591, "\u2581Heritage": 6592, "\u2581Prospekt": 6593, "material": 6594, "\u2581TUV": 6595, "\u2581BBW": 6596, "astro": 6597, "\u2581Avast": 6598, "\u2581music": 6599, "\u2581null": 6600, "vice": 6601, "000000": 6602, "\u2581death": 6603, "William": 6604, "Green": 6605, "\u2581specific": 6606, "\u2581beach": 6607, "\u258105:58": 6608, "EMS": 6609, "\u2581Stand": 6610, "Qua": 6611, "biz": 6612, "\u2581Solution": 6613, "\u2581September": 6614, "\u2581parameter": 6615, "\u2581specified": 6616, "\u2581LDAP": 6617, "\u2581Session": 6618, "\u2581backup": 6619, "\u2581Museo": 6620, "Select": 6621, "Bedroom": 6622, "(0)": 6623, "high": 6624, "health": 6625, "ether": 6626, "\u2581created": 6627, "977": 6628, "OEM": 6629, "\u2581Torre": 6630, "MENT": 6631, "\u2581Alba": 6632, "\u2581LinkedIn": 6633, "\u2581Memory": 6634, "\u2581Performance": 6635, "\u2581Studies": 6636, "\u2581Atlantic": 6637, "\u2581Lionbridge": 6638, "txt": 6639, "\u2581Italian": 6640, "\u2581Adult": 6641, "\u2581Trend": 6642, "\u2581Hack": 6643, "\u2581\u22640.": 6644, "\u2581Quad": 6645, "\u2581Winter": 6646, "\u2581Robin": 6647, "User": 6648, "\u2581Grove": 6649, "\u2581Taxi": 6650, "8.4": 6651, "706": 6652, "\u2581802.11": 6653, "\u2581Crystal": 6654, "\u2581Dictionary": 6655, "\u2581HOTEL": 6656, "\u2581Nintendo": 6657, "\u2581HBM": 6658, "\u2581reason": 6659, "\u2581Kitchen": 6660, "GbE": 6661, "\u2264": 6662, "\u203a": 6663, "\u00ab": 6664, "\u00a9": 6665, "\u2032": 6666, "\u25cf": 6667, "\u00a2": 6668, "\u25a1": 6669, "": 6670, "\ub294": 6671, "\uc744": 6672, "\u2581\uc218": 6673, "\ub97c": 6674, "\uc740": 6675, "\uac00": 6676, "\u2581\uadf8": 6677, "\u2581\uc788\uc2b5\ub2c8\ub2e4": 6678, "\uc5d0\uc11c": 6679, "\u2581\uc744": 6680, "\u2581\uc758": 6681, "\u2581\ud55c": 6682, "\uacfc": 6683, "\u2581\ubc0f": 6684, "\uc640": 6685, "\ub3c4": 6686, "\u2581\uc804": 6687, "\u2581\uc788\ub294": 6688, "\u2581\ub4e4": 6689, "\u2581\uac83": 6690, "\u2581\ubaa8\ub4e0": 6691, "\uace0": 6692, "\u2581\ub354": 6693, "\u2581\ud560": 6694, "\u2581\uc740": 6695, "\uc73c\ub85c": 6696, "\ud55c": 6697, "\uc9c0": 6698, "\u2581\uac00": 6699, "\u2581\ub97c": 6700, "\ud558\uace0": 6701, "\u2581\ub144": 6702, "\u2581\ub2e4\ub978": 6703, "\ud558\ub294": 6704, "\u2581\uc788\ub2e4": 6705, "\uc785\ub2c8\ub2e4": 6706, "\ub144": 6707, "\u2581\ub294": 6708, "\u2581\uadf8\ub9ac\uace0": 6709, "\u2581\ub300\ud55c": 6710, "\u2581\ub0b4": 6711, "\u2581\ud558\ub294": 6712, "\u2581\uc704\ud574": 6713, "\ud560": 6714, "\u2581\ub54c": 6715, "\u2581\uc77c": 6716, "\u2581\uc6b0\ub9ac\ub294": 6717, "\u2581\uc6b0\ub9ac": 6718, "\u2581\ub9ce\uc740": 6719, "\u2581\uac83\uc744": 6720, "\u2581\ub610\ub294": 6721, "\uc77c": 6722, "\u2581\uac00\uc7a5": 6723, "\u2581\uc0ac\ub78c": 6724, "\u2581\ub098\ub294": 6725, "\ud569\ub2c8\ub2e4": 6726, "\u2581\uc911": 6727, "\ub098": 6728, "\u2581\uac83\uc785\ub2c8\ub2e4": 6729, "\uc790": 6730, "\u2581\ud569\ub2c8\ub2e4": 6731, "\ub9cc": 6732, "\uc6d4": 6733, "\ub77c": 6734, "\u2581\uadf8\ub7ec\ub098": 6735, "\u2581\ub0b4\uac00": 6736, "\u2581\ub450": 6737, "\u2581\ub9d0": 6738, "\u2581\uacfc": 6739, "\u2581\uc5b4\ub5a4": 6740, "\u2581\ud568\uaed8": 6741, "\u2581\ub610\ud55c": 6742, "\u2581\uac83\uc774\ub2e4": 6743, "\u2581\ub420": 6744, "\u2581\uadf8\ub294": 6745, "\u2581\uc704\ud55c": 6746, "\u2581\uc8fc": 6747, "\uc774\ub2e4": 6748, "\u2581\uc5d0\uc11c": 6749, "\ud558\uc9c0": 6750, "\u2581\ub098": 6751, "\u2581\uac83\uc774": 6752, "\u2581\uac19\uc740": 6753, "\ud574": 6754, "\uac8c": 6755, "\uc11c": 6756, "\u2581\uac83\uc740": 6757, "\u2581\uc5b4\ub5bb\uac8c": 6758, "\u2581\ud558\uc9c0\ub9cc": 6759, "\u2581\ub300\ud574": 6760, "\u2581\ub41c": 6761, "\ub41c": 6762, "\u2581\uacbd\uc6b0": 6763, "\u2581\uc81c": 6764, "\ud588\ub2e4": 6765, "\u2581\ud558\uace0": 6766, "\u2581\ubcf4\uae30": 6767, "\u2581\ud574": 6768, "\uc801": 6769, "\ub4e4\uc774": 6770, "\ud558\uae30": 6771, "\u2581\uc73c\ub85c": 6772, "\u2581\ud55c\ub2e4": 6773, "\u2581\ud070": 6774, "\u2581\uc88b\uc740": 6775, "\ud558\uc5ec": 6776, "\u2581\ub2f9\uc2e0\uc740": 6777, "\ud558\uac8c": 6778, "\uc5d0\uac8c": 6779, "\u2581\uc0c8\ub85c\uc6b4": 6780, "\uc57c": 6781, "\u2581\uc6b0\ub9ac\uac00": 6782, "\u2581\uadf8\ub4e4\uc740": 6783, "\uc694": 6784, "\ub4e4\uc740": 6785, "\uba74": 6786, "\u2581\uac1c\uc6d4": 6787, "\u2581\uadf8\uac83\uc740": 6788, "\u2581\ub2f9\uc2e0\uc758": 6789, "\u2581\ud6c4": 6790, "\u2581\ub3c4": 6791, "\ub4e4\uc744": 6792, "\u2581\uc6b0\ub9ac\uc758": 6793, "\ub77c\uace0": 6794, "\u2581\ubbf8\uad6d": 6795, "\u2581\ub2e4\uc2dc": 6796, "\u2581\uc548": 6797, "\u2581\ub2f9\uc2e0\uc774": 6798, "\u2581\ub3d9\uc548": 6799, "\u2581\uadf8\uc758": 6800, "\u2581\uc640": 6801, "\u2581\uc798": 6802, "\u2581\ud558": 6803, "\u2581\uc0ac\uc6a9": 6804, "\ub4e4": 6805, "\u2581\uc790": 6806, "\uc218": 6807, "\ud55c\ub2e4": 6808, "\u2581\ud1b5\ud574": 6809, "\u2581\ub370": 6810, "\u2581\uc2dc\uac04": 6811, "\u2581\ub2e4\uc74c": 6812, "\u2581\ubaa8\ub450": 6813, "\u2581\uc785\ub2c8\ub2e4": 6814, "\ud588\uc2b5\ub2c8\ub2e4": 6815, "\ubd84": 6816, "\uc9c0\ub3c4": 6817, "\u2581\ub9e4\uc6b0": 6818, "\u2581\uac00\uc9c0": 6819, "\uc8fc": 6820, "\u2581\uc54a\uc2b5\ub2c8\ub2e4": 6821, "\u2581\uc5ec\ud638\uc640": 6822, "\u2581\ub610": 6823, "\u2581\uc5d0\uac8c": 6824, "\u2581\ub530\ub77c": 6825, "\u2581\ub300": 6826, "\uc131": 6827, "\u2581\ud558\ub098\ub2d8": 6828, "\u2581\uace0": 6829, "\u2581\uc9c0\uae08": 6830, "\u2581\uc5c6\uc2b5\ub2c8\ub2e4": 6831, "\u2581\uc65c": 6832, "\u2581\uc11c\ube44\uc2a4": 6833, "\ub2c8": 6834, "\u2581\uc138": 6835, "\u2581\uc0dd\uac01": 6836, "\u2581\uc544\ub2c8\ub77c": 6837, "\uae4c\uc9c0": 6838, "\u2581\uc774\ub807\uac8c": 6839, "\u2581\uba87": 6840, "\u2581\uc800\ub294": 6841, "\u2581\ud558\ub098\ub2d8\uc758": 6842, "\uc5d0\ub294": 6843, "\u2581\uc81c\uacf5\ud569\ub2c8\ub2e4": 6844, "\u2581\ub124": 6845, "\u2581\uac00\uc9c0\uace0": 6846, "\u2581\uc790\uc2e0\uc758": 6847, "\u2581\uc774\ub7ec\ud55c": 6848, "\uc801\uc778": 6849, "\u2581\uadf8\ub798\uc11c": 6850, "\uc7a5": 6851, "\u2581\ub54c\ubb38\uc5d0": 6852, "\u2581\ud558\uc9c0": 6853, "\u2581\uc774\ub7f0": 6854, "\u2581\ubd84": 6855, "\u2581\uadf8\ub4e4\uc758": 6856, "\u2581\uc788\uc73c\uba70": 6857, "\ub300": 6858, "\u2581\ubcfc": 6859, "\u2581\uadf8\ub7f0": 6860, "\u2581\uc138\uacc4": 6861, "\u2581\uc758\ud574": 6862, "\ub4dc": 6863, "\u2581\uc774\uc81c": 6864, "\ud654": 6865, "\u2581\uc774\uc0c1": 6866, "\ub9c8": 6867, "\uc9c4": 6868, "\ud558\uba70": 6869, "\u2581\uc57d": 6870, "\u2581\uc0ac\ub78c\ub4e4\uc774": 6871, "\u2581\uadf8\ub4e4\uc774": 6872, "\u2581\uc81c\ud488": 6873, "\ud788": 6874, "\u2581\ub9ce\uc774": 6875, "\uac1c": 6876, "\u2581\ud604\uc7ac": 6877, "\u2581\uc54c\uace0": 6878, "\uc624": 6879, "\u2581\uc5c6\ub294": 6880, "\uc138": 6881, "\u2581\ub0a0": 6882, "\ud558": 6883, "\u2581\uc815\ubcf4": 6884, "\ud574\uc57c": 6885, "\u2581\uc788\uc744": 6886, "\u2581\uc624": 6887, "\ubd80": 6888, "\uc774\ub098": 6889, "\ube44": 6890, "\uc18c": 6891, "\u2581\uc774\uac83\uc740": 6892, "\u2581\ube44": 6893, "\u2581\ub09c": 6894, "\u2581\ud558\ub098": 6895, "\u2581\uc2dc\uc791": 6896, "\u2581\uc5ec\ub7ec": 6897, "\u2581\uc800": 6898, "\u2581\uc774\ub2e4": 6899, "\u2581\uadf8\uac83\uc744": 6900, "\u2581\uc54c": 6901, "\ubcf4\ub2e4": 6902, "\u2581\uc790\uae30": 6903, "\uc804": 6904, "\uc2e0": 6905, "\uc6a9": 6906, "\u2581\ub4e4\uc5b4": 6907, "\u2581\uc9c0": 6908, "\u2581\uadf8\uac00": 6909, "\u2581\uc81c\uac00": 6910, "\uce58": 6911, "\u2581\uadf8\ub807\uac8c": 6912, "\u2581\uac19\uc774": 6913, "\u2581\uc788\uc5c8\ub2e4": 6914, "\u2581\uc608\uc218": 6915, "\u2581\ubc14\ub85c": 6916, "\u2581\uc904": 6917, "\u2581\uc5c6\ub2e4": 6918, "\u2581\uac1c": 6919, "\uc81c": 6920, "\u2581\ub192\uc740": 6921, "\ub418\ub294": 6922, "\u2581\ubb34\ub8cc": 6923, "\u2581\uac00\uc9c4": 6924, "\u2581\ub4f1": 6925, "\u2581\ubcf8": 6926, "\u2581\uc0ac\ub78c\uc774": 6927, "\u2581\uac1c\uc778": 6928, "\u2581\ubc29\ubc95": 6929, "\ub429\ub2c8\ub2e4": 6930, "\u2581\uacc4\uc18d": 6931, "\u2581\uac8c\uc784": 6932, "\u2581\uc6d4": 6933, "\uc0c1": 6934, "\u2581\uc54a\ub294": 6935, "\uad6c": 6936, "\u2581\uac01": 6937, "\u2581\ubc14": 6938, "\u2581\uc0ac\ub791": 6939, "\u2581\uc0ac\uc2e4": 6940, "\u2581\ub429\ub2c8\ub2e4": 6941, "\ubbf8": 6942, "\uba70": 6943, "\u2581\uccab": 6944, "\u2581\ud788": 6945, "\u2581\ub2e4\uc591\ud55c": 6946, "\uac1c\uc758": 6947, "\u2581\ud56d\uc0c1": 6948, "\u2581\ub098\uc758": 6949, "\u2581\uc704\ud558\uc5ec": 6950, "\u2581\uc788\uace0": 6951, "\u2581\ub2f9\uc2e0": 6952, "\ubcf4": 6953, "\u2581\uc5ec\ud589": 6954, "\u2581\uac8c": 6955, "\ub77c\ub294": 6956, "\uc2e4": 6957, "\u2581\uc815\ub9d0": 6958, "\u2581\uc911\uc694\ud55c": 6959, "\uba85": 6960, "\u2581\uc791\uc740": 6961, "\u2581\uc81c\uacf5": 6962, "\u2581\ub418\ub294": 6963, "\uc6d0": 6964, "\u2581\ub108\ubb34": 6965, "\u2581\uc0c8": 6966, "\u2581\uae30\uc220": 6967, "\u2581\uba85": 6968, "\uc120": 6969, "\u2581\ub9cc": 6970, "\u2581\uc218\ub3c4": 6971, "\u2581\uad00\ub9ac": 6972, "\uc774\ub77c\uace0": 6973, "\u2581\uc804\uc5d0": 6974, "\u2581\uc131": 6975, "\u2581\ud558\uae30": 6976, "\u2581\ubb3c": 6977, "\u2581\uc911\uad6d": 6978, "\u2581\ubb38\uc81c": 6979, "\uc6b0": 6980, "\u2581\uc788\ub3c4\ub85d": 6981, "\u2581\uc120\ud0dd": 6982, "\u2581\uc11c": 6983, "\u2581\uc5f0\uad6c": 6984, "\u2581\ubc88\uc9f8": 6985, "\u2581\uc544\uc8fc": 6986, "\ub124": 6987, "\ub420": 6988, "\u2581\ub370\uc774\ud130": 6989, "\u2581\uac70": 6990, "\uadf8": 6991, "\u2581\ud30c\uc77c": 6992, "\u2581\uc6f9": 6993, "\u2581\uc9c0\uc5ed": 6994, "\u2581\uc774\ub984": 6995, "\u2581\uc0ac\ub78c\ub4e4\uc740": 6996, "\u2581\ub418\uc5b4": 6997, "\u2581\ucd94\uac00": 6998, "\u2581\uc77c\ubd80": 6999, "\u2581\uc77c\uc744": 7000, "\ud558\uba74": 7001, "\u2581\uc77c\ubcf8": 7002, "\ud0c0": 7003, "\ub418\uc5b4": 7004, "\u2581\uc544\ub2c8": 7005, "\u2581\uc54a\uc744": 7006, "\uc815": 7007, "\u2581\uc2dc\uc2a4\ud15c": 7008, "\u2581\uc5bc\ub9c8\ub098": 7009, "\uac70": 7010, "\u2581\ub098\ub97c": 7011, "\u2581\ud558\uac8c": 7012, "\u2581\ud574\uc57c": 7013, "\u2581\uac1c\uc758": 7014, "\u2581\ucd5c\uace0\uc758": 7015, "\ub4e4\uc758": 7016, "\u2581\ub9c8": 7017, "\u2581\ucc28": 7018, "\u2581\uc774\ubbf8": 7019, "\uc5d0\uc11c\ub294": 7020, "\u2581\ubcf4\ud638": 7021, "\u2581\uc54a\uc740": 7022, "\uc774\uba70": 7023, "\uc2b5\ub2c8\ub2e4": 7024, "\u2581\uc9c0\uc6d0": 7025, "\u2581\ubc88": 7026, "\u2581\ud638\ud154\uc740": 7027, "\u2581\uac83\uc73c\ub85c": 7028, "\u2581\uc218\uc788\ub294": 7029, "\u2581\ud558\uc600\ub2e4": 7030, "\u2581\uc804\uccb4": 7031, "\u2581\uc9c0\ub3c4": 7032, "\u2581\uc0b0": 7033, "\u2581\uac70\uc758": 7034, "\u2581\ub9d0\uc500": 7035, "\ub358": 7036, "\ub144\uc5d0": 7037, "\u2581\uc5b4\ub290": 7038, "\u2581\uc0ac\uc6a9\ud560": 7039, "\u2581\uae30\uacc4": 7040, "\u2581\uc131\uc11c": 7041, "\u2581\ud544\uc694": 7042, "\ub974": 7043, "\u2581\uc2e0": 7044, "\u2581\ub54c\ubb38": 7045, "\u2581\ud558\uc5ec": 7046, "\u2581\uc628": 7047, "\u2581\uadf8\ub7ec\ud55c": 7048, "\u2581\ud588\ub2e4": 7049, "\u2581\ubcf4\uace0": 7050, "\u2581\uc790\uc2e0": 7051, "\u2581\uc608": 7052, "\u2581\uad00\ud55c": 7053, "\u2581\ub77c": 7054, "\uc0b0": 7055, "\ubc14": 7056, "\u2581\uace7": 7057, "\ud558\uc2ed\uc2dc\uc624": 7058, "\ucc98\ub7fc": 7059, "\u2581\ub2e4\uc6b4\ub85c\ub4dc": 7060, "\uc9c8": 7061, "\u2581\uc788\ub2e4\ub294": 7062, "\u2581\uc6d0": 7063, "\ucc28": 7064, "\ub418\uace0": 7065, "\ud615": 7066, "\u2581\uae4c\uc9c0": 7067, "\uc988": 7068, "\u2581\uc774\ub294": 7069, "\u2581\uc624\ub298": 7070, "\ud558\uac70\ub098": 7071, "\ud06c": 7072, "\uc870": 7073, "\uc8e0": 7074, "\ud558\uc600\ub2e4": 7075, "\u2581\uc608\uc57d": 7076, "\u2581\uc5f4": 7077, "\uac70\ub098": 7078, "\ud504": 7079, "\u2581\uadf8\ub140\ub294": 7080, "\u2581\ud53c": 7081, "\u2581\uc5ec\uae30": 7082, "\u2581\ud558\ub290\ub2d8": 7083, "\u2581\uc0ac\uc9c4": 7084, "\ub370": 7085, "\u2581\uc0ac\uc6a9\uc790": 7086, "\u2581\uc815\ubcf4\ub97c": 7087, "\u2581\uc774\uc57c\uae30": 7088, "\ub418\uc9c0": 7089, "\uc5ec": 7090, "\u2581\uc788\uc2b5\ub2c8\uae4c": 7091, "\u2581\uad6d\uc81c": 7092, "\u2581\ud2b9\ud788": 7093, "\u2581\ube44\ub514\uc624": 7094, "\uc2dd": 7095, "\u2581\ub41c\ub2e4": 7096, "\u2581\uc788\ub2e4\uace0": 7097, "\u2581\uad00\ub828": 7098, "\u2581\ucd5c\ub300": 7099, "\u2581\uad50\uc721": 7100, "\u2581\uc77c\uc774": 7101, "\u2581\uac74": 7102, "\ub514": 7103, "\u2581\uc0b4": 7104, "\u2581\ub108\ud76c": 7105, "\u2581\uc0dd\uc0b0": 7106, "\u2581\uc9d1": 7107, "\u2581\uad6c": 7108, "\u2581\ubcf4": 7109, "\ub3d9": 7110, "\u2581\ubbf8": 7111, "\ub0b4": 7112, "\u2581\uac00\uc871": 7113, "\uc801\uc73c\ub85c": 7114, "\u2581\ubd80": 7115, "\ucf54": 7116, "\u2581\uc5ec\ub7ec\ubd84": 7117, "\uce74": 7118, "\uc2dc\uac04": 7119, "\ub2e8": 7120, "\ub808": 7121, "\ub418\uc5c8\ub2e4": 7122, "\u2581\uac1c\ubc1c": 7123, "\u2581\uc788\uc5b4": 7124, "\u2581\uc5b4": 7125, "\ub4e4\uacfc": 7126, "\ub7ec": 7127, "\u2581\uadf8\ubd84": 7128, "\u2581\ub9d0\ud588\ub2e4": 7129, "\ub178": 7130, "\u2581\uc601\uad6d": 7131, "\u2581\uc54a\ub294\ub2e4": 7132, "\ud68c": 7133, "\ubd80\ud130": 7134, "\u2581\uc54a\uc558\ub2e4": 7135, "\u2581\uc120": 7136, "\u2581\ud544\uc694\ud55c": 7137, "\u2581\ube44\uc988\ub2c8\uc2a4": 7138, "\u2581\ucd1d": 7139, "\ubaa8": 7140, "\u2581\uadf8\ub4e4\uc744": 7141, "\u2581\ud638\uc2a4\ud154": 7142, "\ub2f9": 7143, "\ub780": 7144, "\u2581\uc628\ub77c\uc778": 7145, "\u2581\uc815\ub3c4": 7146, "\u2581\ub530\ub77c\uc11c": 7147, "\u2581\ubabb": 7148, "\u2581\uc880": 7149, "\u2581\uac78": 7150, "\u2581\uadf8\uac83": 7151, "\u2581\ub3c4\uc2dc": 7152, "\u2581\uc5c5\uccb4": 7153, "\ubb3c": 7154, "\u2581\uc774\uc720": 7155, "\u2581\uc778\uac04": 7156, "\u2581\uc774\uc2a4\ub77c\uc5d8": 7157, "\u2581\uc5c6\uc774": 7158, "\u2581\uc13c\ud130": 7159, "\u2581\uacf5\uae09": 7160, "\u2581\uae30\ub85d": 7161, "\ud1a0": 7162, "\u2581\ub418\uc5c8\ub2e4": 7163, "\u2581\ub2e8": 7164, "\ub418\uc5c8\uc2b5\ub2c8\ub2e4": 7165, "\u2581\uac15": 7166, "\u2581\uc544\ub2d9\ub2c8\ub2e4": 7167, "\u2581\u300c": 7168, "\ud2f0": 7169, "\u2581\uba74": 7170, "\u2581\uc720": 7171, "\u2581\uc601\ud654": 7172, "\u2581\uc544\ub4e4": 7173, "\u2581\uc601": 7174, "\u2581\ubaa8": 7175, "\uc704": 7176, "\u2581\ub2f9\uc2e0\uc744": 7177, "\uad00": 7178, "\u2581\ud68c\uc0ac": 7179, "\u2581\uc544\ub2c8\ub2e4": 7180, "\u2581\uc124\uba85": 7181, "\u2581\uc0ac\ub78c\uc740": 7182, "\u2581\ub2ec": 7183, "\u2581\ubb34\uc5c7": 7184, "\u2581\uc54a\uace0": 7185, "\uc911": 7186, "\u2581\ub2f9": 7187, "\u2581\ubb34\uc2a8": 7188, "\u2581\uc5ec\uc790": 7189, "\u2581\uc27d\uac8c": 7190, "\u2581\ubb34": 7191, "\ud30c": 7192, "\u2581\uace0\uac1d": 7193, "\u2581\uc804\ud654": 7194, "\u2581\uadf8\ub97c": 7195, "\uc774\ub77c\ub294": 7196, "\u2581\uc810": 7197, "\u2581\uc815": 7198, "\u2581\ubc1c": 7199, "\u2581\uacb0\uacfc": 7200, "\u2581\uc989": 7201, "\u2581\uac80\uc0c9": 7202, "\u2581\ubc30": 7203, "\u2581\uc18c": 7204, "\u2581\ud06c\uae30": 7205, "\uc788\ub294": 7206, "\u2581\uac00\ub2a5\ud55c": 7207, "\u2581\uadf8\ub7f0\ub370": 7208, "\u2581\uc8fc\uc694": 7209, "\u2581\uadf8\ub7ec\ubbc0\ub85c": 7210, "\u2581\uadf8\uac83\uc774": 7211, "\ud558\ub2e4": 7212, "\u2581\ud310\ub9e4": 7213, "\u2581\uadf8\ub140\uc758": 7214, "\u2581\ub9cc\uc57d": 7215, "\u2581\ud558\ub098\ub2d8\uc740": 7216, "\u2581\uc9c0\ub09c": 7217, "\u2581\ud3ec\ud568": 7218, "\u2581\uadc0\ud558\uc758": 7219, "\u2581\uc704\uce58": 7220, "\u2581\uc5ec": 7221, "\u2581\ud30c\uc77c\uc744": 7222, "\u2581\ub9c8\uc9c0\ub9c9": 7223, "\u2581\uc801": 7224, "\uac74": 7225, "\u2581\uc774\ud6c4": 7226, "\ub85c\ubd80\ud130": 7227, "\u2581\uc11c\ube44\uc2a4\ub97c": 7228, "\u2581\uc0ac\uc6a9\ud558\uc5ec": 7229, "\u2581\uae30\ud0c0": 7230, "\u2581\uc124\uc815": 7231, "\u2581\uc704": 7232, "\u2581\uc591": 7233, "\u2581\uc0dd\ud65c": 7234, "\u2581\uac00\uc6b4\ub370": 7235, "\u2581\uac08": 7236, "\u2581\ub418\uc5c8\uc2b5\ub2c8\ub2e4": 7237, "\ub3c4\ub85d": 7238, "\u2581\ub204\uac00": 7239, "\uccb4": 7240, "\uc720": 7241, "\u2581\ubb3c\ub860": 7242, "\ubb34": 7243, "\ub354": 7244, "\uc774\uc5c8\ub2e4": 7245, "\u2581\uc778\ub3c4": 7246, "\u2581\uc774\uc6a9": 7247, "\u2581\uc544\uc9c1": 7248, "\u2581\ubc18": 7249, "\u2581\uc720\uc9c0": 7250, "\u2581\uc791\uc5c5": 7251, "\u300d": 7252, "\u2581\uc0c1": 7253, "\u2581\ub9cc\ub4e4": 7254, "\u2581\uce74": 7255, "\u2581\uae30\ub3c4": 7256, "\u2581\uc788\uac8c": 7257, "\u2581\ub2e8\uc9c0": 7258, "\u2581\uc124\uce58": 7259, "\u2581\uc790\ub3d9\ucc28": 7260, "\u2581\ub9d0\uc744": 7261, "\u2581\uc2dc\uac04\uc744": 7262, "\u2581\uc601\ud5a5\uc744": 7263, "\u2581\ubb34\uc5c7\uc744": 7264, "\u2581\ubcf4\ub2e4": 7265, "\u2581\ud655\uc778": 7266, "\u2581\ubaa8\ub378": 7267, "\u2581\uc788\uc9c0\ub9cc": 7268, "\ud3ec": 7269, "\u2581\uc5f0\uacb0": 7270, "\u2581\ubcf5\uad6c": 7271, "\u2581\ud504\ub85c\uadf8\ub7a8": 7272, "\uacc4": 7273, "\uc774\uace0": 7274, "\u2581\ud558\ub098\ub2d8\uc774": 7275, "\ub824": 7276, "\u2581\uc219\ubc15": 7277, "\u2581\uaed8\uc11c": 7278, "\u2581\uc608\ub97c": 7279, "\u2581\uc11c\ub85c": 7280, "\u2581\ubd88": 7281, "\u2581\ubc1c\uacac": 7282, "\u2581\uc870": 7283, "\u2581\uac00\uaca9": 7284, "\u2581\uc788\uc5c8\uc2b5\ub2c8\ub2e4": 7285, "\u2581\uac00\ub2a5": 7286, "\ub4e4\uc5d0\uac8c": 7287, "\ud130": 7288, "\u2581\ucc38": 7289, "\ud0a4": 7290, "\u2581\uadf8\ub0e5": 7291, "\ub9b0": 7292, "\uc774\ub77c": 7293, "\u2581\ub300\ubd80\ubd84\uc758": 7294, "\u2581\uc774\uc0c1\uc758": 7295, "\u2581\ub124\uac00": 7296, "\u2581\uc81c\uc870": 7297, "\u2581\ud588\uc2b5\ub2c8\ub2e4": 7298, "\u2581\ubd80\ud130": 7299, "\u2581\ud6c4\uc5d0": 7300, "\u2581\ud574\ub2f9": 7301, "\u2581\uacbd\ud5d8": 7302, "\u2581\uad6d\uac00": 7303, "\u2581\ub514\uc790\uc778": 7304, "\uc548": 7305, "\u2581\uc6d0\ud558\ub294": 7306, "\u2581\uc774\ud0c8\ub9ac\uc544": 7307, "\u2581\uc804\uae30": 7308, "\u2581\uc778\ud130\ub137": 7309, "\u2581\ub354\uc6b1": 7310, "\u2581\uc6b4\uc601": 7311, "\u2581\uc885": 7312, "\u2581\uc9c8\ubb38": 7313, "\u2581\ub300\ud559": 7314, "\uc5d4": 7315, "\u2581\uce5c\uad6c": 7316, "\u2581\ucc45": 7317, "\u2581\uc6b0\ub9ac\ub97c": 7318, "\u2581\uc7ac": 7319, "\ud558\ub3c4\ub85d": 7320, "\u2581\uc774\uac83\uc774": 7321, "\u2581\uc9c1\uc811": 7322, "\u2581\uc7a5": 7323, "\u2581\uc758\ubbf8": 7324, "\ubc29": 7325, "\u2581\uc6b0\ub9ac\uc5d0\uac8c": 7326, "\ud53c": 7327, "\u2581\uac04": 7328, "\u2581\uacf3": 7329, "\u2581\uc720\ub7fd": 7330, "\u2581\uc5d0\ub294": 7331, "\uc9c0\ub9cc": 7332, "\u2581\ucf54": 7333, "\u2581\ud638": 7334, "\u2581\ubcf4\uc548": 7335, "\ub8e8": 7336, "\u2581\uae30\ub2a5": 7337, "\u2581\uacc4\ud68d": 7338, "\u2581\ud568": 7339, "\u2581\uc18d": 7340, "\u2581\ubc29\ubc95\uc744": 7341, "\u2581\uc548\uc804": 7342, "\u2581\uaed8\uc11c\ub294": 7343, "\ud558\ub77c": 7344, "\u2581\uac70\ub9ac\uc5d0": 7345, "\u2581\uc788\uc9c0": 7346, "\u2581\ubcc0\uacbd": 7347, "\u2581\uba3c\uc800": 7348, "\u2581\ubc88\ud638": 7349, "\u2581\ub108\ud76c\uac00": 7350, "\ucd08": 7351, "\ub41c\ub2e4": 7352, "\u2581\uae38": 7353, "\u2581\uc5ec\uc804\ud788": 7354, "\u2581\uc81c\uacf5\ud558\ub294": 7355, "\u2581\uc88b\uc544\ud558\ub294": 7356, "\u2581\uc2e4\uc81c\ub85c": 7357, "\u2581\ud6e8\uc52c": 7358, "\u2581\ud798": 7359, "\uc800": 7360, "\uba74\uc11c": 7361, "\uacf5": 7362, "\u2581\ud639\uc740": 7363, "\u2581\uc548\uc5d0": 7364, "\u2581\uac74\uac15": 7365, "\u2581\ud558\uba74": 7366, "\ubc95": 7367, "\ud558\uc9c0\ub9cc": 7368, "\u2581\ucc98\uc74c": 7369, "\u2581\ub9e4\uc77c": 7370, "\u2581\ucd5c\uadfc": 7371, "\uc5f0": 7372, "\u2581\ud658\uacbd": 7373, "\u2581\uc5ec\uc131": 7374, "\u2581\uce74\ub4dc": 7375, "\u2581\ud558\ub098\uc758": 7376, "\u2581\uc544\ub0b4": 7377, "\u2581\uc694\uad6c": 7378, "\u2581\uc0ac\ub78c\uc744": 7379, "\u2581\uc900\ube44": 7380, "\u2581\uc18c\ud504\ud2b8\uc6e8\uc5b4": 7381, "\ub450": 7382, "\u2581\ub530\ub974\uba74": 7383, "\u2581\uc544\uc774": 7384, "\u2581\ud589\ub3d9": 7385, "\u2581\uc788\uc5b4\uc694": 7386, "\ub860": 7387, "\u2581\uadf8\ub4e4": 7388, "\uc600\ub2e4": 7389, "\uc9c0\ub294": 7390, "\u2581\ub370\uc774\ud130\ub97c": 7391, "\ud574\uc11c": 7392, "\u2581\uc644\uc804\ud788": 7393, "\u2581\ud2b9\uc815": 7394, "\u2581\uc5ed\uc2dc": 7395, "\u2581\ud65c\ub3d9": 7396, "\u2581\ud558\uc600\uc2b5\ub2c8\ub2e4": 7397, "\u2581\uc800\uc7a5": 7398, "\u2581\ucc98\ub9ac": 7399, "\uc2ec": 7400, "\u2581\ubc29": 7401, "\ubc1c": 7402, "\u2581\uc2dc\ud5d8": 7403, "\ud568": 7404, "\u2581\uacf5": 7405, "\u2581\ubc1b\uc740": 7406, "\u2581\uc624\ub298\ub0a0": 7407, "\uc74c": 7408, "\u2581\uc0b0\uc5c5": 7409, "\u2581\ubb38": 7410, "\u2581\uc544\ubc84\uc9c0": 7411, "\u2581\uc6f9\uc0ac\uc774\ud2b8": 7412, "\u2581\ucd5c\uace0": 7413, "\u2581\uacb0\uc815": 7414, "\u2581\ub3c4\uc6c0\uc774": 7415, "\u2581\uc655": 7416, "\u2581\ud0c0": 7417, "\u2581\uc74c\uc545": 7418, "\u2581\uadf8\ub9ac\uc2a4\ub3c4": 7419, "\u2581\uc544\uc2dc\uc544": 7420, "\u2581\ub098\ub77c": 7421, "\u2581\ucef4\ud4e8\ud130": 7422, "\u2581\uadf8\ub4e4\uc5d0\uac8c": 7423, "\u2581\uc544\ub984\ub2e4\uc6b4": 7424, "\u2581\uc2a4\ud3ec\uce20": 7425, "\u2581\uc788\ub2e4\uba74": 7426, "\ub098\ub294": 7427, "\u2581\ud45c\uc2dc": 7428, "\u2581\uac81\ub2c8\ub2e4": 7429, "\u2581\ubd84\uc11d": 7430, "\u2581\ub7ec\uc2dc\uc544": 7431, "\u2581\uc0ac\ud68c": 7432, "\u2581\uc5c5\ub370\uc774\ud2b8": 7433, "\u2581\uacb0\ucf54": 7434, "\u2581\ub178": 7435, "\uc810": 7436, "\u2581\uc0ac\uc6a9\ud558\ub294": 7437, "\uad70": 7438, "\ub825": 7439, "\u2581\uac00\uc815": 7440, "\u2581\uc774\ubbf8\uc9c0": 7441, "\u2581\ub300\ud558\uc5ec": 7442, "\u2581\uc5b4\uba38\ub2c8": 7443, "\uac10": 7444, "\ub294\ub370": 7445, "\u2581\uacb0\uad6d": 7446, "\ube0c": 7447, "\u2581\uc99d\uc778": 7448, "\u2581\uc8fc\ub294": 7449, "\u2581\uacb0\ud63c": 7450, "\u2581\ud0dc\uadf8": 7451, "\u2581\ud648": 7452, "\uae08": 7453, "\u2581\ub9c8\uc74c": 7454, "\u2581\uc2e4\uc81c": 7455, "\u2581\uc81c\uc5b4": 7456, "\uacbd": 7457, "\uac04": 7458, "\u2581\uc778\ud574": 7459, "\u2581\uae30\uac04": 7460, "\u2581\ucc3e\uc544": 7461, "\u2581\uc874\uc7ac": 7462, "\u2581\uadf8\ub9ac\uc2a4\ub3c4\uc778": 7463, "\u2581\ucd08": 7464, "\u2581\ud504\ub791\uc2a4": 7465, "\u2581\ub9cc\ub4dc\ub294": 7466, "\u2581\uc2dc\uac04\uc774": 7467, "\u2581\uc0c1\ud0dc": 7468, "\u2581\ud30c": 7469, "\u2581\uc8fc\uc758": 7470, "\u2581\ub208": 7471, "\u2581\uadf8\ub8f9": 7472, "\u2581\ub9cc\ub4e4\uc5b4": 7473, "\uc784": 7474, "\u2581\uc804\uc790": 7475, "\uae38": 7476, "\u2581\ub108": 7477, "\u2581\uc788\ub294\uc9c0": 7478, "\u2581\ud45c\uc900": 7479, "\u2581\uc7a5\uce58": 7480, "\u2581\uc774\uc804": 7481, "\u2581\ub418\uace0": 7482, "\u2581\uc544\ub9c8\uce04\uc5b4": 7483, "\u2581\uc774\ub7ec": 7484, "\u2581\uc801\uc6a9": 7485, "\u2581\ucc3e\uc744": 7486, "\ud310": 7487, "\u2581\uc5bb\uc744": 7488, "\uc7ac": 7489, "\u2581\uc788\uae30": 7490, "\u2581\uc751\uc6a9": 7491, "\u2581\uc0ac\uc774\ud2b8": 7492, "\u2581\ud559\uad50": 7493, "\u2581\uae30\uc5c5": 7494, "\u2581\uc544\ubb34": 7495, "\uc73c\ub85c\ubd80\ud130": 7496, "\ud559": 7497, "\u2581\ubc29\ubb38": 7498, "\u2581\ub3d9": 7499, "\u2581\uad00\uacc4": 7500, "\u2581\uc800\ud76c": 7501, "\u2581\uba38\ub9ac": 7502, "\ubc84": 7503, "\ubb38": 7504, "\u2581\ub124\ud2b8\uc6cc\ud06c": 7505, "\u2581\uc774\ub3d9": 7506, "\u2581\ubc14\ub78d\ub2c8\ub2e4": 7507, "\uae30\ub97c": 7508, "\u2581\uc5b8\uc5b4": 7509, "\u2581\uc790\uc2e0\uc744": 7510, "\u2581\uc218\ud589": 7511, "\u2581\ud14c\uc2a4\ud2b8": 7512, "\u2581\ubcf4\ub0b4": 7513, "\ubc88": 7514, "\u2581\uc62c": 7515, "\uc131\uae09": 7516, "\u2581\ub9e4": 7517, "\ucc9c": 7518, "\u2581\uacf5\ud56d": 7519, "\u2581\uc6b0": 7520, "\u2581\uad6c\uc131": 7521, "\u2581\ud544\uc694\uac00": 7522, "\u2581\uc77c\ubc18\uc801\uc73c\ub85c": 7523, "\u2581\uac70\ub9ac": 7524, "\u2581\uc2a4\ud0c0\uc77c": 7525, "\u2581\ub545": 7526, "\u2581\uc774\ubc88": 7527, "\u2581\uc774\ud574": 7528, ".\u2014": 7529, "\ub9e4": 7530, "\u2581\uc81c\uac70": 7531, "\u2581\uce58\ub8cc": 7532, "\u2581\uc5d0\ub108\uc9c0": 7533, "\uc5c8\ub2e4": 7534, "\u2581\ub514\uc9c0\ud138": 7535, "\u2581\ub108\ub294": 7536, "\u2581\uac1d\uc2e4": 7537, "\u2581\ub4f1\ub85d": 7538, "\u2581\ub3c5\uc77c": 7539, "\u2581\uacf5\uc2dd": 7540, "\u2581\ud3c9\uade0": 7541, "\u2581\uae30\ubcf8": 7542, "\uba85\uc758": 7543, "\uce20": 7544, "\u2581\uac70\uc57c": 7545, "\uc608": 7546, "\u2581\ud558\uba70": 7547, "\u2581\uc785": 7548, "\u2581\ub0b4\uac8c": 7549, "\u2581\uc139\uc2a4": 7550, "\uc5ed": 7551, "\u2581\ub178\ub825": 7552, "\u2581\uc2dc\uc124": 7553, "\u2581\uc704\ud574\uc11c": 7554, "\u2581\uc885\uad50": 7555, "\u2581\uc774\ub984\uc744": 7556, "\u2581\uc720\ud615": 7557, "\u2581\ub0a8": 7558, "\u2581\uc0ac\ub78c\uc758": 7559, "\u2581\uc778\uc1c4": 7560, "\u2581\uac10\uc0ac": 7561, "\u2581\uc0ac\ub78c\ub4e4\uc744": 7562, "\u2581\uc18c\uac1c": 7563, "\u2581\ub3c8": 7564, "\u2581\ubc1b\uc744": 7565, "\uad50": 7566, "\u2581\uc804\ubb38": 7567, "\u2581\ud559\uc0dd": 7568, "\u2581\ud3ec": 7569, "\u2581\uc704\uce58\ud55c": 7570, "\u2581\uc544\uce68": 7571, "\u2581\uc54c\uac8c": 7572, "\u2581\uc9c4": 7573, "\u2581\uc124\uacc4": 7574, "\u2581\uc7a5\ube44": 7575, "\uc6b4": 7576, "\u2581\ubb38\uc81c\ub97c": 7577, "\u2581\ubcd1": 7578, "\u2581\ub4f1\uc774": 7579, "\uc0b4": 7580, "\u2581\uc758\uc0ac": 7581, "\u2581\ub300\ud55c\ubbfc\uad6d": 7582, "\u2581\uc2e4\ud589": 7583, "\u2581\ud488\uc9c8": 7584, "\u2581\ub0a8\uc790": 7585, "\ub4e0": 7586, "\u2581\ud589": 7587, "\u2581\uacfc\ud559": 7588, "\u2581\uc678": 7589, "\u2581\uc190": 7590, "\uc5d0\ub3c4": 7591, "\u2581\uce58": 7592, "\uc73c\uba70": 7593, "\uad8c": 7594, "\u2581\uad50\ud68c": 7595, "\u2581\uac83\ub3c4": 7596, "\u2581\ube60\ub978": 7597, "\u2581\uc2e4": 7598, "\u2581\uc544\ub2c8\uba74": 7599, "\ub85c\uc11c": 7600, "\u2581\ud55c\uad6d": 7601, "\u2581\uc624\ub798": 7602, "\uc628": 7603, "\u2581\uc815\uc758": 7604, "\u2581\ub3d9\ubb3c": 7605, "\u2581\ud615\uc81c": 7606, "\u2581\ud558\ub098\ub2d8\uaed8\uc11c": 7607, "\u2581\uc784": 7608, "\uc788\ub2e4": 7609, "\uc808": 7610, "\u2581\ubc24": 7611, "\u2581\uc790\uc720": 7612, "\u2581\uc57d\uc18d": 7613, "\u2581\uc88b\uc544": 7614, "\u2581\uc2a4\uc2a4\ub85c": 7615, "\u2581\uac83\uc5d0": 7616, "\u2581\ud0a4": 7617, "\u2581\ub418": 7618, "\u2581\uadf8\ub7ec\uba74": 7619, "\u2581\uc601\uc5b4": 7620, "\ub418": 7621, "\u2581\ud6cc\ub96d\ud55c": 7622, "\u2581\uc704\uc5d0": 7623, "\uc601": 7624, "\u2581\uae30\ub2a5\uc744": 7625, "\u2581\uacf5\uc7a5": 7626, "\u2581\uc790\ub3d9": 7627, "\u2581\ubc95": 7628, "\u2581\ubd80\ubaa8": 7629, "\u2581\ubcc0\ud654": 7630, "\u2581\ucf54\ub4dc": 7631, "\uac83": 7632, "\u2581\uadf8\uc5d0\uac8c": 7633, "\u2581\ud558\ub098\ub2d8\uc744": 7634, "\u2581\ud45c\ud604": 7635, "\u2581\uc790\uc5f0": 7636, "\ub958": 7637, "\ucf00": 7638, "\u2581\ub9cc\uc77c": 7639, "\u2581\uc790\uc8fc": 7640, "\u2581\uc6b4\ub3d9": 7641, "\ubc18": 7642, "\u2581\ub4a4": 7643, "\u2581\uac83\ucc98\ub7fc": 7644, "\u2581\uc544\ub9c8": 7645, "\ub108": 7646, "\u2581\uac83\uacfc": 7647, "\u2581\ud1a0": 7648, "\u2581\ub3cc": 7649, "\u2581\ubb38\uc81c\uac00": 7650, "\ub09c": 7651, "\u2581\uacf5\uc720": 7652, "\u2581\ub4f1\uc744": 7653, "\u2581\ud074\ub7fd": 7654, "\u2581\uc870\uae08": 7655, "\u2581\ub2e8\uacc4": 7656, "\u2581\uc2ec\uc9c0\uc5b4": 7657, "\ud588\uace0": 7658, "\uc885": 7659, "\u2581\uc54a\uc558\uc2b5\ub2c8\ub2e4": 7660, "\u2581\ubc84\uc2a4": 7661, "\u2581\uc544\ub798": 7662, "\u2581\uc790\ub140": 7663, "\u2581\uc9c0\ubd88": 7664, "\ud588\ub358": 7665, "\u2581\ub274\uc695": 7666, "\u2581s": 7667, "\ud589": 7668, "\u2581\uae30\uc5b5": 7669, "\u2581\uc6b0\uc8fc": 7670, "\u2581\uc0dd\uba85": 7671, "\u2581\uc5ed": 7672, "\ub791": 7673, "\u2581\uc0c1\ud488\uc744": 7674, "\u2581\ub3c4\uc6c0": 7675, "\u2581\ud480": 7676, "\ubc30": 7677, "\ubcd1": 7678, "\u2581\uc0ad\uc81c": 7679, "\u2581\ucd5c\uc2e0": 7680, "\uae4c": 7681, "\u2581\uc0ac\uc5c5": 7682, "\u2581\uc74c\uc2dd": 7683, "\ud558\uc138\uc694": 7684, "\uc591": 7685, "\u2581\uc138\uc0c1": 7686, "\u2581\uc911\uc694": 7687, "\u2581\ucc3d\uc870": 7688, "\u2581\ub098\ubb34": 7689, "\u2581\ud558\ub8e8": 7690, "\u2581\uac83\uc774\ub77c\uace0": 7691, "\u2581\ub418\uc9c0": 7692, "\u2581\ub458": 7693, "\uc57d": 7694, "\u2581\uac19\uc2b5\ub2c8\ub2e4": 7695, "\u2581\uc0ac\ub294": 7696, "\u2581\uc8fc\ubb38": 7697, "\u2581\uc9c4\ud589": 7698, "\u2581\uc774\ub97c": 7699, "\u2581\uc131\uc7a5": 7700, "\u2581\uacf5\uaca9": 7701, "\ubbfc": 7702, "\u2581\ud3b8\uc9d1": 7703, "\u2581\uc5c6\uc5c8\ub2e4": 7704, "\u2581\uc54c\ub824": 7705, "\u2581\ud589\ubcf5": 7706, "\u2581\uc2ec": 7707, "\u2581\ub2f9\uc2e0\uc5d0\uac8c": 7708, "\u2581\uc704\ud5d8": 7709, "\uc8fc\uc758": 7710, "\u2581\uc870\uc9c1": 7711, "\u2581\uae08": 7712, "\u2581\uc99d\uac00": 7713, "\ub824\uace0": 7714, "\u2581\ub274\uc2a4": 7715, "\u2581\ud655\uc7a5": 7716, "\u2581\uaf43": 7717, "\u2581\ud1b5\ud569": 7718, "\u2581\uc624\uc9c1": 7719, "\u2581\ub2c8": 7720, "\uc5b4\uc694": 7721, "\u2581\ube5b": 7722, "\u2581\ubfd0": 7723, "\u2581\uadf8\ub7fc": 7724, "\u2581\ud574\uacb0": 7725, "\u2581\uad00": 7726, "\u2581\ud2b9\ubcc4\ud55c": 7727, "\u2581\uc804\ud600": 7728, "\u2581\uc804\uc7c1": 7729, "\u2581\ubc1c\uc804": 7730, "\u2581\ubd09\uc0ac": 7731, "\u2581\ub3c8\uc744": 7732, "\u2581\uc544\ub2cc": 7733, "\u2581\uc55e": 7734, "\ub9c1": 7735, "\u2581\ud22c\uc790": 7736, "\u2581\uc870\uc0ac": 7737, "\u2581\ub300\ub2f5": 7738, "\uc9d1": 7739, "\u2581\ube68\ub9ac": 7740, "\u2581\uc554": 7741, "\u2581\ud63c\uc790": 7742, "\uc0c9": 7743, "\uce35": 7744, "\u2581\ubd81\ud55c": 7745, "\u2581\uae38\uc774": 7746, "\u2581\ub4dc": 7747, "\u2581\uc788\ub294\uac00": 7748, "\u2581\ubcf4\ub294": 7749, "\u2581\ud3c9\uac00": 7750, "\ub9d0": 7751, "\u2581\ubc84\uc804": 7752, "\ud6c4": 7753, "\u2581\uacbd\uc81c": 7754, "\u2581\uc694\uccad": 7755, "\u2581\uac70\ub798": 7756, "\u2581\ubd84\uba85": 7757, "\uac15": 7758, "\u2581\uad6c\uc870": 7759, "\u2581\uac16\uace0": 7760, "\u2581\uad6c\ub9e4": 7761, "\u2581\ud06c\uac8c": 7762, "\u2581\uc0ac\uc774": 7763, "\u2581\uaf2d": 7764, "\u2581\uc911\uc5d0": 7765, "\u2581\uc704\uce58\ud558\uace0": 7766, "\u2581\uc0e4\uc6cc": 7767, "\u2581\uadf8\ub807\uc9c0": 7768, "\u2581\uc0ac\uc774\ud2b8\ub97c": 7769, "\u2581\uad11\uace0": 7770, "\u2581\uae30\uc0ac": 7771, "\u2581\uc18c\ub9ac": 7772, "\ud558\uba74\uc11c": 7773, "\u2581\uc655\uad6d": 7774, "\u2581\ub108\ud76c\ub294": 7775, "\u2581\ub9d0\ub77c": 7776, "\u2581\uc0ac\ub78c\ub4e4": 7777, "\u2581\ubcf4\uba74": 7778, "\u2581\ud560\uc778": 7779, "\u2581\ub9cc\ub4e0": 7780, "\u2581\ubc1b\uace0": 7781, "\uc73c": 7782, "\ub300\ub85c": 7783, "\ud14c": 7784, "\u2581\ud504\ub9ac": 7785, "\u2581\uc55e\uc5d0": 7786, "\u2581\uc5ec\uae30\uc5d0": 7787, "\u2581\uac19\ub2e4": 7788, "\ub4e4\uc5d0": 7789, "\u2581\uc9c4\uc9dc": 7790, "\u2581\uc544\ud30c\ud2b8": 7791, "\u2581\uc5b4\ub514": 7792, "\u2581\ub0b4\uc6a9": 7793, "\uc99d": 7794, "\u2581\ud638\uc2a4\ud305": 7795, "\u2581\ub2e4\uc74c\uacfc": 7796, "\u2581\ud504\ub85c\uc81d\ud2b8": 7797, "\u2581\uae34": 7798, "\u2581\ubb34\uc5c7\uc785\ub2c8\uae4c": 7799, "\ub9bc": 7800, "\u2581\uc815\ubd80": 7801, "\ubd88": 7802, "\u2581\uc885\uc885": 7803, "\u2581\uadf8\uac8c": 7804, "\ubcf8": 7805, "\u2581\ub300\uc2e0": 7806, "\u2581\ud3ec\uc7a5": 7807, "\u2581\ub54c\ubb38\uc774\ub2e4": 7808, "\ud558\uc2e4": 7809, "\u2581\uc774\ub098": 7810, "\u2581\ub0ae\uc740": 7811, "\u2581\ub54c\uae4c\uc9c0": 7812, "\u2581\uc5b8\uc81c\ub098": 7813, "\u2581\ub77c\uace0": 7814, "\u2581\uc0b4\uace0": 7815, "\u2581\uc785\ub825": 7816, "\ubc31": 7817, "\u2581\ub2ec\ub7ec": 7818, "\u2581\uc788\uc5b4\uc11c": 7819, "\u2581\ud314": 7820, "\u2581\uacf5\uae30": 7821, "\u2581\uc720\uc77c\ud55c": 7822, "\u2581\uc9c0\uad6c": 7823, "\uc11d": 7824, "\u2581\uacf3\uc5d0\uc11c": 7825, "\u2581\uc788": 7826, "\u2581\uc6a9": 7827, "\u2581\uc758\ud558\uc5ec": 7828, "\u2581\uc5b8\uc81c": 7829, "\uc838": 7830, "\u2581\ub180\ub77c\uc6b4": 7831, "\u2581\uc81c\uc548": 7832, "\u2581\uc0c9\uae54": 7833, "\u2581\uba85\uc758": 7834, "\u2581\ub2f9\uc2dc": 7835, "\u2581\uc774\uac83\uc744": 7836, "\uc790\uac00": 7837, "\u2581\uc791\ub3d9": 7838, "\u2581\ubbff\uc74c": 7839, "\u2581\uc798\ubabb": 7840, "\u2581\uc801\uc774": 7841, "\u2581\uc8fc\ubcc0": 7842, "\u2581\uc80a\uc740": 7843, "\u2581\uc774\uba54\uc77c": 7844, "\u2581\ubc88\uc5ed": 7845, "\u2581\uc544\ub294": 7846, "\u2581\uc131\uacbd": 7847, "\u2581\uac83\uc774\uba70": 7848, "\u2581\uc0ac\uc774\uc5d0": 7849, "\u2581\uc0ac\ub78c\ub4e4\uc5d0\uac8c": 7850, "\u2581\ucc38\uc5ec": 7851, "\u2581\uc815\ucc45": 7852, "\u2581\uac00\uc2b4": 7853, "\u2581\uc99d\uac70": 7854, "\u2581\uc774\uac83": 7855, "\u2581\uc804\uc1a1": 7856, "\u2581\ud398\uc774\uc9c0": 7857, "\u2581\ub9de\ub294": 7858, "\u2581\uae00": 7859, "\u2581\uc885\ub958\uc758": 7860, "\u2581\uc560": 7861, "\u2581\ubc8c": 7862, "\u2581\ub3c4\ucc29": 7863, "\u2581\uc2dc\ub9ac\uc988": 7864, "\u2581\uc5ec\ub7ec\ubd84\uc774": 7865, "\u2581\uacbd": 7866, "\u2581\ub0b4\uc5d0": 7867, "\u2581\ubc1c\uc0dd": 7868, "\u2581\uce90\ub098\ub2e4": 7869, "\u2581\uc7a5\uc18c": 7870, "\u2581\ubc1b\uc544": 7871, "\u2581\ub05d": 7872, "\u2581\uc811\uadfc": 7873, "\u2581\uc77c\ubc18": 7874, "\u2581\ubbf8\ub514\uc5b4": 7875, "\uc0dd": 7876, "\u2581\uce21\uc815": 7877, "\u2581\uc0bc": 7878, "\ub2c8\ub2e4": 7879, "\u2581\ud50c\ub77c\uc2a4\ud2f1": 7880, "\ub2ec": 7881, "\u2581\uc81c\ud488\uc744": 7882, "\u2581\uac00\uae4c\uc6b4": 7883, "\u2581\uae40": 7884, "\u2581\ub9c9": 7885, "\uc2ed\uc2dc\uc624": 7886, "\ud558\ub824\uba74": 7887, "\u2581\ud0dc\uc591": 7888, "\u2581\ub4dc\ub77c\uc774\ube0c": 7889, "\u2581\ud604\ub300": 7890, "\u2581\ub300\ud574\uc11c": 7891, "\u2581\ub298": 7892, "\ub0a0": 7893, "\u2581\uc564": 7894, "\u2581\uc8c4": 7895, "\u2581\uc5ec\uae30\uc11c": 7896, "\u2581\ubc1b\ub294": 7897, "\u2581\ub108\uc758": 7898, "\u2581\uc9c4\ub9ac": 7899, "\u2581\ud300": 7900, "\ud558\uc2e0": 7901, "\u2581\ubcf4\ud1b5": 7902, "\u2581\uc678\ubd80": 7903, "\u2581\uc54a\ub2e4": 7904, "\u2581\uac00\uc11c": 7905, "\u2581\ub8f8": 7906, "\u2581\ud558\uc2e0": 7907, "\u2581\uc790\uc2e0\uc774": 7908, "\u2581\uc5b4\ub9b0": 7909, "\uc774\ub780": 7910, "\u2581\ucc38\uc870": 7911, "\u2581\uc5c6\uc744": 7912, "\u2581\uc218\uc815": 7913, "\u2581\uac00\ub294": 7914, "\u2581\uc5c4\ub9c8": 7915, "\uc138\uc694": 7916, "\u2581\ub9d0\uc500\uc744": 7917, "\u2581\ub85c\ub9c8": 7918, "\u2581\ub54c\ubb38\uc785\ub2c8\ub2e4": 7919, "\u2581\uc18c\ub140": 7920, "\uba54": 7921, "\u2581\uc788\ub098\uc694": 7922, "\u2581\uc9c8": 7923, "\u2581\uadf8\ub9bc": 7924, "\u2581\uc12c": 7925, "\u2581\uc758\ub8cc": 7926, "\u2581\ubaa8\ubc14\uc77c": 7927, "\u2581\ubcc0": 7928, "\u2581\uad6c\uc6d0": 7929, "\u2581\ub178\ub798": 7930, "\u2581\uc131\uacf5": 7931, "\u2581\uc5b4\ub9b0\uc774": 7932, "\u2581\ube44\uc6a9": 7933, "\u2581\ub108\ub97c": 7934, "\uc785": 7935, "\uc5b5": 7936, "\u2581\uc26c\uc6b4": 7937, "\u2581\uc54a\uc73c\uba74": 7938, "\u2581\uc628\ub3c4": 7939, "\u2581\uc0b6\uc744": 7940, "\u2581\uc81c\ud55c": 7941, "\uc6b0\ub9ac": 7942, "\u2581\uc54c\uc544": 7943, "\u2581\uae38\uc744": 7944, "\u2581\uc2f6\uc740": 7945, "\u2581\ub108\ud76c\uc5d0\uac8c": 7946, "\u2581\uba4b\uc9c4": 7947, "\u2581\ub514": 7948, "\u2581\ub54c\uc5d0": 7949, "\u2581\ucc9c": 7950, "\u2581\uac80\uc0ac": 7951, "\u2581\uc194\ub8e8\uc158": 7952, "\u2581\uc0ac\ub9dd": 7953, "\ubfd0\ub9cc": 7954, "\u2581\uac00\uce58": 7955, "\u2581\uc778\uc815": 7956, "\ubcf5": 7957, "\u2581\ubc31": 7958, "\u2581\ub3d9\uc2dc\uc5d0": 7959, "\u2581\ub9c8\uce58": 7960, "\u2581\uc774\uac74": 7961, "\u2581\uc218\ubc31": 7962, "\u2581\uc2dc\ub300": 7963, "\u2581\uc5c6": 7964, "\u2581\ud558\ub4dc": 7965, "\u2581\uc120\ubb3c": 7966, "\u2581\ud654": 7967, "\uc744\uc704\ud55c": 7968, "\u2581\uc5b8\uae09": 7969, "\u2581\uadf8\ub54c": 7970, "\u2581\ud574\uc11c": 7971, "\ub798": 7972, "\uc774\uc5c8\uc2b5\ub2c8\ub2e4": 7973, "\u2581\uc788\ub294\ub370": 7974, "\u2581\uadf8\ub300\ub85c": 7975, "\u2581\ub300\ubd80\ubd84": 7976, "\u2581\uadf8\uac74": 7977, "\uc18d": 7978, "\u2581\uc0dd\uac01\ud569\ub2c8\ub2e4": 7979, "\u2581\uc5c6\uc5b4": 7980, "\u2581\uacc4\uc2dc": 7981, "\u2581\ubd80\ubd84": 7982, "\u2581\uc874": 7983, "\u2581\uc544\ubb34\ub3c4": 7984, "\u2581\uc740\ud589": 7985, "\u2581\ub808": 7986, "\u2581\uae30\ub300": 7987, "\u2581\uc5ec\ub7ec\ubd84\uc740": 7988, "\u2581\ubc29\uc2dd\uc73c\ub85c": 7989, "\u2581\uaed8": 7990, "\u2581\ucc98\ub7fc": 7991, "\ucfe0": 7992, "aldin": 7993, "\u2581\uba85\ub839": 7994, "\u2581\uc778\uc2dd": 7995, "\ubc15": 7996, "\u2581\ub3c4\uad6c": 7997, "\u2581\uc720\uba85\ud55c": 7998, "\u2581\ud504\ub85c\uadf8\ub7a8\uc744": 7999, "\u2581\uae08\uc18d": 8000, "\u2581\uc9c0\ubc29": 8001, "\u2581\uae4a\uc740": 8002, "\u2581\uce74\uba54\ub77c": 8003, "\u2581\uc54c\uc9c0": 8004, "\u2581\uae30\uc220\uc744": 8005, "\u2581\ub9d0\ud558\ub294": 8006, "\u2581\ub098\uc5d0\uac8c": 8007, "\ud574\uc57c\ud569\ub2c8\ub2e4": 8008, "\u2581\uc11c\ubc84": 8009, "\u2581\ubc1c\ud45c": 8010, "\u2581\ub5a8\uc5b4\uc838": 8011, "\u2581\uc5f0": 8012, "\u2581\uc9d1\ub2e8": 8013, "\u2581\uc601\ud5a5": 8014, "\ub2e4\uace0": 8015, "\u2581\uae30\ud68c\ub97c": 8016, "\u2581\ub9ac\ubdf0": 8017, "\u2581\uc788\uc5b4\uc57c": 8018, "\u2581\uadf8\ub807\ub2e4\uba74": 8019, "\u2581\uc57c": 8020, "\u2581\ud50c\ub808\uc774": 8021, "\ud3b8": 8022, "\ucee4": 8023, "\u2581\uc5ed\uc0ac": 8024, "\u2581\uad00\ub828\ub41c": 8025, "\u2581\ubc29\ubc95\uc740": 8026, "\u2581\uc790\ub8cc": 8027, "\u2581\ud3b8": 8028, "\u2581\ub098\uc740": 8029, "\u2581\ub204\uad6c": 8030, "\u2581\uace0\ud1b5": 8031, "\u2581\uc694": 8032, "\u2581\uc801\uc5b4\ub3c4": 8033, "\u2581\ub3d9\uc601\uc0c1": 8034, "\uc9c1": 8035, "\u2581\ubab8": 8036, "\u2581\uadc0": 8037, "\u2581\uc0ac\ub78c\ub4e4\uc758": 8038, "\u2581\ud30c\ub9ac": 8039, "\u2581\ucc3d": 8040, "\u2581\ubcc4": 8041, "\u2581\ub9d0\ud560": 8042, "\u2581\uc8fd\uc740": 8043, "\uac70\uc57c": 8044, "\u2581\ub2a5\ub825": 8045, "\ucc3d": 8046, "\ub124\uc694": 8047, "\u2581\ucf00\uc774\ube14": 8048, "\u2581\uac15\ub825\ud55c": 8049, "\u2581\uc911\uc559": 8050, "\u2581\ubcf4\uc5ec": 8051, "\u2581\ud76c\ub9dd": 8052, "\u2581\uacf5\uac1c": 8053, "\u2581\ud544\uc694\ud569\ub2c8\ub2e4": 8054, "\uccad": 8055, "\u2581\uc5d0\uc11c\ub294": 8056, "\u2581\uc138\uacc4\uc5d0\uc11c": 8057, "\uc5c6\uc774": 8058, "\ud558\uc600\uc2b5\ub2c8\ub2e4": 8059, "\u2581\ub098\uc05c": 8060, "\u2581\ud070\uac00\uc2b4": 8061, "\u2581\uad00\uc2ec": 8062, "\u2581\ucc28\ub7c9": 8063, "\u2581\uc81c\uc791": 8064, "\u2581\uacbd\ud5d8\uc744": 8065, "\u2581\ub9c8\uc74c\uc744": 8066, "\u2581\ub3d9\uc77c\ud55c": 8067, "\uac01": 8068, "\u2581\uc0c1\ud488": 8069, "\u2581\uc0ac\ubb34\uc2e4": 8070, "\ub4f1": 8071, "\u2581\uc18d\ub3c4": 8072, "\u2581\ub7f0\ub358": 8073, "\u2581\uc635\uc158": 8074, "\u2581\ubc18\ub4dc\uc2dc": 8075, "\u2581\uc2dc\ub3c4": 8076, "\u2581\uac74\ucd95": 8077, "\u2581\uc774\ub77c\uace0": 8078, "\u2581\uc9d1\uc5d0": 8079, "\u2581\ud558\ub098\ub2d8\uaed8": 8080, "\uac78": 8081, "\ub9ac\ub77c": 8082, "\u2581\ud6c8\ub828": 8083, "\u2581\ubcf4\uc7a5": 8084, "\ubaa9": 8085, "\u2581\uc815\uc2e0": 8086, "\u2581\uc54c\ub8e8\ubbf8\ub284": 8087, "\u2581\uc601\uc801": 8088, "\u2581\uc8fc\uc18c": 8089, "\u2581\uae30\uad00": 8090, "\u2581\ubca0": 8091, "\u2581\uc0c1\uc790": 8092, "\u2581\uc804\ubb38\uac00": 8093, "\u2581\uc54a": 8094, "\u2581\uc644\ubcbd\ud55c": 8095, "\u2581\ud1b5\uc81c": 8096, "\u2581\uc989\uc2dc": 8097, "\u2581\ud558\ub098\ub294": 8098, "\u2581\ubc94\uc704": 8099, "\u2581\ub0a8\uc131": 8100, "\u2581\ud3c9\ud654": 8101, "\u2581\uc2dd\uc0ac": 8102, "\u2581\uccab\uc9f8": 8103, "\uc904": 8104, "\u2581\ub300\ud654": 8105, "\u2581\ubb34\uc5c7\uc774": 8106, "\u2581\ud558\ub298": 8107, "\u2581\uc548\uc5d0\uc11c": 8108, "\u2581\uc5bc\ub9c8": 8109, "\u2581\uc2dc\uc7a5": 8110, "\u2581\ub0a0\uc9dc": 8111, "\u2581\uc790\uc138\ud55c": 8112, "\u2581\ud30c\ud2f0": 8113, "\uc6b0\ub9ac\ub294": 8114, "\ud1b5": 8115, "\u2581\ubb50": 8116, "\u2581\ud558\ub77c": 8117, "\uae34": 8118, "\u2581\ud558\ub2e4": 8119, "\u2581\uc0dd\uc131": 8120, "\u2581\uadf8\ub798": 8121, "\u2581\uac00\ub4dd": 8122, "\u2581\uc778\uae30": 8123, "\u2581\uc8fc\uc7a5": 8124, "\u2581\uc5c6\uc74c": 8125, "\u2581\ub300\ub85c": 8126, "\u2581\uacf5\uac04": 8127, "\u2581\ub9cc\uc871": 8128, "\u2581\ubaa9\ub85d": 8129, "\u2581\ubc15": 8130, "\u2581\uc139\uc2dc\ud55c\uc911\ub144\uc5ec\uc131": 8131, "\u2581\uc774\ub4e4\uc740": 8132, "\u2581\ubd88\uad6c\ud558\uace0": 8133, "\u2581\uc218\uc9d1": 8134, "\u2581\uac00\ub2a5\ud569\ub2c8\ub2e4": 8135, "\u2581\uc0c1\ud669": 8136, "\uae09": 8137, "\u2581\ub4e3\uace0": 8138, "\u2581\uc0ac\ub3c4": 8139, "\u2581\uacb0\uacfc\ub97c": 8140, "\uac08": 8141, "\u2581\uc2a4\ud398\uc778": 8142, "\ud588\uc744": 8143, "\u2581\uc644\ub8cc": 8144, "\u2581\ucc45\uc784": 8145, "\u2581\ub531": 8146, "\u2581\ucd94\ucc9c": 8147, "\u2581\ubcbd": 8148, "\u2581\ubbff\ub294": 8149, "\u2581\ubbf8\ud130": 8150, "\u2581\uc637": 8151, "\uc600\uc2b5\ub2c8\ub2e4": 8152, "\u2581\uc65c\ub0d0\ud558\uba74": 8153, "\u2581\uc1fc\ud551": 8154, "\u2581\uc544\ubb34\uac83\ub3c4": 8155, "\u2581\uc55e\uc73c\ub85c": 8156, "\u2581\uc790\ub294": 8157, "\u2581\uc544\uae30": 8158, "\u2581\ud1b5\uc2e0": 8159, "\u2581\ud55c\ubc88": 8160, "\uac00\uc9c0": 8161, "\u2581\uace0\ub824": 8162, "\u2581\ubaa8\ub450\uac00": 8163, "\u2581\ubb38\ud654": 8164, "\u2581\ub0b4\ubd80": 8165, "\u2581\uc77c\uc740": 8166, "\u2581\uc791\uc5c5\uc744": 8167, "\uc5c5": 8168, "\u2581\ud611\ub825": 8169, "\u2581\ub3c4\uc6c0\uc744": 8170, "\u2581\ucee4\ud53c": 8171, "\u2581\ube44\uce58": 8172, "\u2581\uc544\ub9c8\ub3c4": 8173, "\u2581\uacf3\uc5d0": 8174, "\u2581\ubb3c\uc790": 8175, "\u2581\uc2dc\ud2f0": 8176, "\uae00": 8177, "\u2581\uc218\ub9ce\uc740": 8178, "\u2581\uadf8\ub140\uac00": 8179, "\u2581\uc9c0\uc5ed\uc5d0": 8180, "\u2581\ub0a8\ud3b8": 8181, "\u2581\uc790\uccb4": 8182, "\u2581\uae30\ub984": 8183, "\u2581\uac83\uc774\ub77c": 8184, "\u2581\uc788\ub358": 8185, "\u2581\uc5ec\ud638\uc640\uaed8\uc11c": 8186, "\u2581\uc555\ub825": 8187, "\u2581\uc561\uc138\uc2a4": 8188, "\u2581\uc774\ubca4\ud2b8": 8189, "\ud37c": 8190, "\u2581\uc608\uc220": 8191, "\u2581\ube0c\ub79c\ub4dc": 8192, "\u2581\uc7ac\uc0dd": 8193, "\ub2e4\uba74": 8194, "\u2581\uc774\uc57c\uae30\ub97c": 8195, "\ub0d0": 8196, "\u2581\ub538": 8197, "\u2581\ud751\uc778": 8198, "\ub9c8\ub2e4": 8199, "\u2581\uc774\uc720\ub294": 8200, "\u2581\ube44\uad50": 8201, "\u2581\ub9cc\ub4e4\uae30": 8202, "\u2581\uc190\uc2e4": 8203, "\u2581\uc571": 8204, "\u2581\ud2b9\ubcc4": 8205, "\uc6cc": 8206, "\ub2d8": 8207, "\u2581\uacbd\uc6b0\uc5d0": 8208, "\ub7c9": 8209, "\u2581\uacbd\uc7c1": 8210, "\u2581\uae00\ub85c\ubc8c": 8211, "\u2581\uc778\uac00": 8212, "\ud558\ub824\uace0": 8213, "\u2581\ubc18\ub300": 8214, "\u2581\uc2b9\ub9ac": 8215, "\ud568\uc744": 8216, "\u2581\uc885\uc774": 8217, "\u2581\uc815\ub9d0\ub85c": 8218, "\ub2c8\uae4c": 8219, "\u2581\uac10": 8220, "\u2581\uae30\ucd08": 8221, "\u2581\uc785\ub2c8\uae4c": 8222, "\u2581\uc18c\uc720": 8223, "\u2581\ub2e8\uc5b4": 8224, "\u2581\ucc3e\uace0": 8225, "\u2581\uc21c\uac04": 8226, "\u2581\uacbd\uace0": 8227, "\u2581\uad00\ud574": 8228, "\u2581\uc74c": 8229, "\u2581\uc751\ub2f5": 8230, "\u2581\uc788\uc74c": 8231, "\u2581\ud589\uc0ac": 8232, "\u2581\uc778\uc99d": 8233, "\u2581\ucd08\uae30": 8234, "\u2581\uac00\uae4c\uc774": 8235, "\uc6b8": 8236, "\u2581\uac10\uc18c": 8237, "\ubcc4": 8238, "\u2581\uc90d\ub2c8\ub2e4": 8239, "\ub9cc\uc774": 8240, "\uc560": 8241, "\u2581\uc5d4\uc9c4": 8242, "\ud604": 8243, "\ub354\ub77c": 8244, "\u2581\uc6d0\ub798": 8245, "\u2581\ub9ac\uc870\ud2b8": 8246, "\u2581\uacf5\uc6d0": 8247, "\u2581\uac8c\uc784\uc744": 8248, "\u2581\uc720\ub9ac": 8249, "\u2581\ubbf8\uad6d\uc758": 8250, "\u2581\uc815\uce58": 8251, "\u2581\ucc44\ub110": 8252, "\u2581\uac10\uc0ac\ud569\ub2c8\ub2e4": 8253, "\u2581\ub77c\uc778": 8254, "\ud488": 8255, "\u2581\uc544\uc9c1\ub3c4": 8256, "\u2581\uc885\ub958": 8257, "\u2581\ub098\uc640": 8258, "\uc131\uc744": 8259, "\ub0a8": 8260, "\u2581\ud615": 8261, "\u2581\uc0ac\uc6a9\uc790\uac00": 8262, "\u2581\uc808\ub300": 8263, "\u2581\ubc31\uc131": 8264, "\ud45c": 8265, "\u2581\ubc15\ubb3c\uad00": 8266, "\u2581\ucd9c\uc2dc": 8267, "\u2581\ubaa9": 8268, "\ud558\ub294\ub370": 8269, "\u2581\ud68c\ubcf5": 8270, "\u2581\uc9c4\uc815\ud55c": 8271, "\uc2a8": 8272, "\u2581\uc544\ud504\ub9ac\uce74": 8273, "\ucd9c": 8274, "\u2581\ub418\uba74": 8275, "\u2581\uc2dc\uc2a4\ud15c\uc744": 8276, "\u2581\ud544\uc694\ub85c": 8277, "\u2581\uc18d\uc5d0": 8278, "\uc5c8\uc2b5\ub2c8\ub2e4": 8279, "\uc791": 8280, "\u2581\uc0ac\uc2e4\uc744": 8281, "\u2581\uc804\ub2ec": 8282, "\u2581\uc0ac\ub791\ud558\ub294": 8283, "\u2581\uac00\uc2a4": 8284, "\u2581\ubaa9\uc801": 8285, "\u2581\ub098\uc774": 8286, "\u2581\ud558\uc774\ud2f4": 8287, "\u2581\uc5f0\ubc29": 8288, "\u2581\uc544\ub9c8\ucd94\uc5b4": 8289, "\u2581\uc644\uc804": 8290, "\ubca0": 8291, "\u2581\uc2e4\ub85c": 8292, "\u2581\ubc29\uc2dd": 8293, "\u2581\uce68\ub300": 8294, "\u2581\uc2e4\ud328": 8295, "\u2581\uc0b4\uc544": 8296, "\ub4e4\ub3c4": 8297, "\u2581\uc601\uc0c1": 8298, "\u2581\ub9c8\uc2ed\uc2dc\uc624": 8299, "\uc778\uc9c0": 8300, "\u2581\uc810\uc810": 8301, "\u2581\ub73b": 8302, "\u2581\uac74\ubb3c": 8303, "\u2581\ud68c\uc0ac\ub294": 8304, "\ub9dd": 8305, "\u2581\ub3c4\uba54\uc778": 8306, "\u2581\uc5f0\ub77d": 8307, "\u2581\ud310": 8308, "\u2581\uc5b4\ub824\uc6b4": 8309, "\u2581\uc0ac\uac74": 8310, "\u2581\ubd84\uc57c": 8311, "\u2581\uc6b4\uc804": 8312, "\u2581\ub9c8\uc0ac\uc9c0": 8313, "\u2581\ud68c\uc6d0": 8314, "\u2581\uc900": 8315, "\u2581\ub9c8\ucf00\ud305": 8316, "\u2581\ud55c\ub2e4\ub294": 8317, "\u2581\uc791\uc131": 8318, "\u2581\uc5f0\ud569": 8319, "\ucc98": 8320, "\u2581\uc88b\uc2b5\ub2c8\ub2e4": 8321, "\uc77c\uc5d0": 8322, "\u2581\uc77c\ubc18\uc801\uc778": 8323, "\u2581\uc0ac\ud56d": 8324, "\uac1c\uc6d4": 8325, "\u2581\uc5ed\ud560\uc744": 8326, "\u2581\uacc4\uc57d": 8327, "\u2581\uc870\uac01": 8328, "\u2581\uc608\uc5b8": 8329, "\ub54c": 8330, "\u2581\uba55\uc2dc\ucf54": 8331, "\u2581\uc870\uc815": 8332, "\uc774\uc57c": 8333, "\u2581\ub108\ud76c\ub97c": 8334, "\u2581\uc57c\uc678": 8335, "\ub098\uc694": 8336, "\u2581\ubc18\uc751": 8337, "\u2581\ub450\uace0": 8338, "\u2581\ub85c\uc5f4\ud2f0": 8339, "\u2581\uac74\uc124": 8340, "\u2581\uc694\ub9ac": 8341, "\u2581\ubabb\ud560": 8342, "\u2581\uc190\uc0c1": 8343, "\uc5f4": 8344, "\u2581\ube60\ub974\uac8c": 8345, "\u2581\uba54\ubaa8\ub9ac": 8346, "\u2581\ud654\ud559": 8347, "\u2581\uc0ac\ub78c\uc5d0\uac8c": 8348, "\u2581\ucc3e\uae30": 8349, "\u2581\uad00\uad11": 8350, "\u2581\uacc4\uc0b0": 8351, "\u2581\ubcf4\uc138\uc694": 8352, "\ud569\ub2c8\uae4c": 8353, "\ud22c": 8354, "\u2581\uba87\uba87": 8355, "\u2581\uac04\ub2e8\ud55c": 8356, "\u2581\ud575\uc2ec": 8357, "\u2581\uacb0\ud569": 8358, "\u2581\uc9c0\ud61c": 8359, "\u2581\uccad\uc18c\ub144": 8360, "\u2581\uc5ec\ub984": 8361, "\u2581\ub098\uc774\ub4e0\uc5ec\uc790": 8362, "\u2581\ucc38\uc73c\ub85c": 8363, "\ub77d": 8364, "\u2581\ud30c\uad34": 8365, "\u2581\uc120\ud0dd\ud560": 8366, "\u2581\ubb38\uc11c": 8367, "\u2581\ubb18\uc0ac": 8368, "\u2581\uc0c9\uc0c1": 8369, "\u2581\uc2dd\ud488": 8370, "\u2581\uc9c1\uc5c5": 8371, "\uc9c0\ub97c": 8372, "\u2581\ubd80\uc871": 8373, "\u2581\uc545": 8374, "\u2581\uc2f6\uc5b4": 8375, "\u2581\uc131\uc778": 8376, "\u2581\uce74\uc9c0\ub178": 8377, "\u2581\uc99d\uba85": 8378, "\u2581\uac83\uc778\uac00": 8379, "\u2581\ub9e4\ub144": 8380, "\uc9c0\uc694": 8381, "\u2581\uc1fc": 8382, "\u2581\ud2b9\uc9d5": 8383, "\u2581\uc778\uac04\uc758": 8384, "\u2581\ub9d0\ud55c\ub2e4": 8385, "\u2581\uba54": 8386, "\u2581\uc528": 8387, "\u2581\uac15\ucca0": 8388, "\u2581\uac00\uc774\ub4dc": 8389, "\u2581\uac15\ud55c": 8390, "\u2581\uc774\ub4e4": 8391, "\uc124": 8392, "\u2581\uc18c\uc2dd": 8393, "\u2581\uba40\ub9ac": 8394, "\ud588\uc73c\uba70": 8395, "\u2581\ubb3c\uc9c8": 8396, "\uc73c\uba74": 8397, "\u2581\ub5a0\ub098": 8398, "\u2581\uc911\ub2e8": 8399, "\u2581\ud30c\ud2b8\ub108": 8400, "\ub9b4": 8401, "\u2581\uac70\uae30": 8402, "\u2581\uc2dd": 8403, "\u2581\ub4a4\uc5d0": 8404, "\u2581\ub370\uc774\ud130\uc2dc\ud2b8": 8405, "\u2581\uc55e\uc5d0\uc11c": 8406, "\ub0b4\uac00": 8407, "\u2581\ubabb\ud55c": 8408, "\u2581\ud5c8\uc6a9": 8409, "\u2581\uc0c9": 8410, "\u2581\uc21c": 8411, "\u2581\ub300\ud68c": 8412, "\u2581\uad70": 8413, "\u2581\ub300\ud45c": 8414, "\u2581\ucc45\uc744": 8415, "\u2581\uc708\ub3c4\uc6b0": 8416, "\u2581\uad6c\uc785": 8417, "\u2581\uad00\ud558\uc5ec": 8418, "\u2581\uc788\uc5c8\ub358": 8419, "\u2581\ubcf4\uc774\ub294": 8420, "\u2581\ub9d0\uc774": 8421, "\u2581\uc138\uae30": 8422, "\u2581\ucd9c\ub825": 8423, "\u2581\uae30\ud68c": 8424, "\u2581\ub098\uc911\uc5d0": 8425, "\u2581\uae30\ubc18": 8426, "\u2581\uc774\ub0b4\uc5d0": 8427, "\u2581\uc2dd\ubb3c": 8428, "\u2581\ubc29\ubc95\uc73c\ub85c": 8429, "\u2581\ud64d\ucf69": 8430, "\ubcf4\uace0": 8431, "\uc790\ub294": 8432, "\u2581\uc6b0\uc120": 8433, "\uc678": 8434, "\u2581\uc81c\uc77c": 8435, "\u2581\ub300\uc0c1": 8436, "\u2581\uc5bc\uad74": 8437, "\u2581\ud504\ub85c": 8438, "\u2581\uc800\ub97c": 8439, "\u2581\uacfc\uc5f0": 8440, "\u2581\uc804\uc2dc": 8441, "\u2581\uc138\ud3ec": 8442, "\u2581\ub2e8\uc704": 8443, "\u2581\ub9e5": 8444, "\u2581\uc790\uac00": 8445, "\uc778\uac00": 8446, "\u2581\uc9c0\uc815": 8447, "\u2581\ubcf4\uc9c0": 8448, "\u2581\ub300\uccb4": 8449, "\u2581\uae08\uc735": 8450, "\u2581\uc2dc\uc98c": 8451, "\u2581\uc18d\uc5d0\uc11c": 8452, "\u2581\uc9d1\uc911": 8453, "\u2581\uc624\ub294": 8454, "\u2581\uc788\uc744\uae4c": 8455, "\u2581\ube14\ub799": 8456, "\u2581\ud615\uc131": 8457, "\u2581\uc2a4\ud06c\ub9b0": 8458, "\u2581\uc7a0": 8459, "\u2581\ucc3e\ub294": 8460, "\u2581\ud2b9\uc131": 8461, "\uc774\uc5d0\uc694": 8462, "\u2581\ub192\uc774": 8463, "\u2581\uc808": 8464, "\u2581\uc774\ub974\ub418": 8465, "\u2581\ubc14\ub2e4": 8466, "\u2581\uc81c\ub3c4": 8467, "\ub2e4\ub294": 8468, "\ub9bd": 8469, "\u2581\ubaa9\ud45c": 8470, "\u2581\ub4f1\uc758": 8471, "\uc131\uae09\uc758": 8472, "\u2581\uae08\ubc1c": 8473, "\u2581\uc804\ub825": 8474, "\u2581\uace0\ub300": 8475, "\u2581\ub9d0\ud569\ub2c8\ub2e4": 8476, "\u2581\uc2dc\uc124\uc744": 8477, "\u2581\ud569\ub2c8\uae4c": 8478, "\u2581\uc6b0\ub9b0": 8479, "\u2581\ubc94\uc8c4": 8480, "\u2581\uc5f0\ub77d\ucc98": 8481, "\u2581\uc548\ub0b4": 8482, "\u2581\ubc14\uc6b8": 8483, "\u2581\uce7c": 8484, "\u2581\uc2a4\ud30c": 8485, "\u2581\u300a": 8486, "\ud0c4": 8487, "\uba85\uc774": 8488, "\u2581\ub9c1\ud06c": 8489, "\u2581\ud38c\ud504": 8490, "\u2581\ub300\ud1b5\ub839": 8491, "\u2581\uadf8\ub9ac": 8492, "\u2581\uacbd\ucc30": 8493, "\u2581\ud604": 8494, "\u2581\ud2f0": 8495, "\u2581\ucc44": 8496, "\u2581\uc9c0\uc2dd": 8497, "\u2581\uc640\uc11c": 8498, "\u2581\uc774\uac8c": 8499, "\u2581\ubd80\ud488": 8500, "\u2581\uc990\uae38": 8501, "\u2581\ud55c\ub2e4\uace0": 8502, "\uc0c8": 8503, "\u2581\uc800\ub834\ud55c": 8504, "\u2581\ub3c4\uc804": 8505, "\u2581\uacfc\uc815": 8506, "\ud568\uc73c\ub85c\uc368": 8507, "\u2581\ud654\uba74": 8508, "\u2581\uc124\ub9bd": 8509, "\ub97c\uc704\ud55c": 8510, "\u2581\uc0ac\uace0": 8511, "\u2581\ud50c\ub7ab\ud3fc": 8512, "\u2581\uad11": 8513, "\u2581\uc804\ubd80": 8514, "\u2581\ubb38\uc758": 8515, "\u2581\uc0dd\uac01\uc744": 8516, "\u2581\uc0dd\uac01\ud558\ub294": 8517, "\u2581\uc0dd\uac01\ud574": 8518, "\uc871": 8519, "\u2581\ub10c": 8520, "\u2581\ubcc0\ud658": 8521, "\u2581\ub728\uac70\uc6b4": 8522, "\u2581\uac00\ub85c\ub418": 8523, "\u2581\uae4a\uc774": 8524, "\u2581\uc774\ub984\uc740": 8525, "\u2581\ud655\uc2e0": 8526, "\u2581\uac1c\uc120": 8527, "\uc54c": 8528, "\u2581\uac1c\uc778\uc815\ubcf4": 8529, "\u2581\uc54c\ub824\uc9c4": 8530, "\u2581\ubc95\ub960": 8531, "\u2581\ubcd1\uc6d0": 8532, "\u2581\ubaa8\ub978\ub2e4": 8533, "\u2581\ucd94\uc801": 8534, "\u2581\ud68c\uc911": 8535, "\uba38": 8536, "\uc73c\ub2c8": 8537, "\ud0dc": 8538, "\u2581\ubfd0\ub9cc": 8539, "\u2581\uc2e0\uccad": 8540, "\u2581\ubc1b\uc9c0": 8541, "\u2581\ubc1b\uc558\ub2e4": 8542, "\u2581\uc598\uae30": 8543, "\u2581\ud30c\ud06c": 8544, "\u2581\uc5c5\ubb34": 8545, "\u2581\ud589\uc704": 8546, "\u2581\ucd5c\uc18c": 8547, "\u2581\uc4f0": 8548, "\u2581\uac71\uc815": 8549, "\ub418\uba70": 8550, "\u2581\uc800\ud76c\ub294": 8551, "\uc778\ub370": 8552, "\uc2dc\ud0a4\ub294": 8553, "\u2581\uc2e0\uacbd": 8554, "\u2581\uccb4\uacc4": 8555, "\u2581\ud5c8": 8556, "\u2581\ubb38\uc81c\ub294": 8557, "\ud55c\ub2e4\uba74": 8558, "\u2581\uba54\uc2dc\uc9c0": 8559, "\ud558\uc2dc\ub294": 8560, "\u2581\uc7a5\ub09c\uac10": 8561, "\u2581\ucfe0\ud0a4": 8562, "\u2581\uac01\uac01": 8563, "\u2581\ud1b5": 8564, "\u2581\ud798\uc744": 8565, "\u2581\uac10\ub3c5": 8566, "\u2581\ud615\ud0dc": 8567, "\u2581\ub098\ub3c4": 8568, "\u2581\ubb34\uac8c": 8569, "\u2581\uba39\uc744": 8570, "\u2581\ub808\uc988\ube44\uc5b8": 8571, "\u2581\ucc28\ub85c": 8572, "\u2581\ubc18\ubcf5": 8573, "\u2581\uc6a9\uc11c": 8574, "\uaca9": 8575, "\u2581\uc0ac\uc774\uc758": 8576, "\u2581\ucd95\uad6c": 8577, "\ub4e0\uc9c0": 8578, "\u2581\uc5b4\ub5a0\ud55c": 8579, "\u2581\uc815\uc6d0": 8580, "\u2581\ucda9\ubd84\ud788": 8581, "\u2581\uc7ac\ub8cc": 8582, "\u2581\uc138\uc0c1\uc744": 8583, "\u2581\ub3c4\ub85c": 8584, "\u2581\ud68c\uc758": 8585, "\u2581\uace0\uae09": 8586, "\u2581\uc0ac\uc9c4\uc744": 8587, "\u2581\uc0b6\uc758": 8588, "\u2581\ucd5c\uc885": 8589, "\ubcf4\uae30": 8590, "\u2581\uc9e7\uc740": 8591, "\u2581\uc9c0\uc18d": 8592, "\u2581\ud558\uba74\uc11c": 8593, "\u2581\uc790\uc138\ud788": 8594, "\u2581\ud53c\ubd80": 8595, "\u2581\ub9d0\uace0": 8596, "\u2581\ub9c8\uc744": 8597, "\u2581\ub514\uc2a4\ud06c": 8598, "\u2581\ucd95\ubcf5": 8599, "\u2581\uac00\uc785": 8600, "\u2581\ud655\uc2e4\ud788": 8601, "\u2581\ub3d9\ub8cc": 8602, "\u2581\ubb34\uc5ed": 8603, "\uadfc": 8604, "\u2581\ubaa8\uc591": 8605, "\u2581\uac70\uc9d3": 8606, "\u2581\uc138\uacc4\uc758": 8607, "\ub80c": 8608, "\u2581\uc77c\uc5d0": 8609, "\u2581\uac70\uc608\uc694": 8610, "\u2581\ud560\uba38\ub2c8": 8611, "\u2581\uc9c0\uc5ed\uc758": 8612, "\u2581\uadf8\ubd84\uc758": 8613, "\u2581\ub9c8\uc74c\uc5d0": 8614, "\u2581\uc704\ub85c": 8615, "\ud574\uc694": 8616, "\u2581\ub8e8": 8617, "\u2581\uc18c\ub144": 8618, "\ub9c9": 8619, "\u2581\uac83\ubcf4\ub2e4": 8620, "\u2581\ucf58\ud150\uce20": 8621, "\u2581\uc5c6\uace0": 8622, "\u2581\ucde8": 8623, "\u2581\uc62c\ubc14\ub978": 8624, "\u2581\uc9c0\uae08\uc740": 8625, "\u2581\ub9c8\ub828": 8626, "\u2581\ubc30\uacbd": 8627, "\u2581\uc2a4\ud0c0": 8628, "\u2581\uc800\ub141": 8629, "\uae30\ub3c4": 8630, "\u2581\ud559\uc2b5": 8631, "\ub9cc\ud07c": 8632, "\u2581\ud32c": 8633, "\u2581\uae30\uc900": 8634, "\ud569": 8635, "\u2581\uc804\ud30c": 8636, "\u2581\uc2e0\ud638": 8637, "\u2581\ud604\uc2e4": 8638, "\u2581\ucde8\uc18c": 8639, "\u2581\ub098\uc11c": 8640, "\u2581\uc9c0\uc9c0": 8641, "\uc774\uc9c0\ub9cc": 8642, "\u2581\ud0c0\uace0": 8643, "\u2581\ub9cc\ud55c": 8644, "\uad11": 8645, "\u2581\uc800\ub3c4": 8646, "\u2581\ube48": 8647, "\u2581\uc138\uc0c1\uc5d0": 8648, "\u2581\uc2dc\uac04\uc5d0": 8649, "\u2581\uc800\ud76c\uac00": 8650, "\ud398": 8651, "\u2581\ud06c\ub9ac\uc2a4\ub9c8\uc2a4": 8652, "\u2581\ub2e8\uccb4": 8653, "\u2581\uc2e0\ub8b0": 8654, "\u2581\ubabb\ud558\ub294": 8655, "\u2581\ub2e4\uc12f": 8656, "\u2581\uc120\uc0dd\ub2d8": 8657, "\u2581\uadf8\ub7f4": 8658, "\u2581\ucc38\uc11d": 8659, "\u2581\uc5b4\ub5a0": 8660, "\u2581\ubbf8\ub798": 8661, "\u2581\uc2f1\uac00\ud3ec\ub974": 8662, "\u2581\ucd5c\ucd08\uc758": 8663, "\u2581\uc7a5\uc2dd": 8664, "\u2581\ud50c\ub808\uc774\uc5b4": 8665, "\u2581\uac15\ud654": 8666, "\u2581\ubd81": 8667, "\u2581\ubc30\ud130\ub9ac": 8668, "\u2581\ub098\uba38\uc9c0": 8669, "\uc73c\ub85c\uc11c": 8670, "\u2581\uc2b9\uc778": 8671, "\u2581\ud504\ub85c\uadf8\ub7a8\uc740": 8672, "\u2581\uc774\uc5b4": 8673, "\u2581\uc2a4\ub9c8\ud2b8": 8674, "\ubcfc": 8675, "\u2581\ud558\uc6b0\uc2a4": 8676, "\u2581\ub098\uc624\ub294": 8677, "\u2581\uc704\ub300\ud55c": 8678, "\u2581\ub458\uc9f8": 8679, "\u2581\ub808\uc774\uc800": 8680, "\u2581\uc81c\uc2dc": 8681, "\ub839": 8682, "\u2581\uc2e4\ud5d8": 8683, "\u2581\u25cb": 8684, "\u2581\uc695\uc2e4": 8685, "\u2581\ud398": 8686, "\u2581\ub2ec\ub9ac": 8687, "\u2581\ubaa8\ud130": 8688, "\u2581\uacf5\ub3d9": 8689, "\u2581\ub9cc\ud07c": 8690, "\u2581\uc654\ub2e4": 8691, "\u2581\uc0bd": 8692, "\u2581\ud558\ub098\uc785\ub2c8\ub2e4": 8693, "\u2581\ud074\ub9ad": 8694, "\u2581\uc2ec\uc7a5": 8695, "\u2581\uc8fc\uc2dd": 8696, "\u2581\uad00\ub9ac\uc790": 8697, "\uad6c\ub098": 8698, "\u2581\ud3ec\ud2b8": 8699, "\u2581\ub450\ub824\uc6cc": 8700, "\u2581\uad50": 8701, "\u2581\uc804\ud658": 8702, "\uacf3": 8703, "\u2581\ud3b8\uc548\ud55c": 8704, "\u2581\uc601\uad11": 8705, "\u2581\ubc15\uc0ac": 8706, "\u2581\uac80\ud1a0": 8707, "\u2581\ub808\uc2a4\ud1a0\ub791": 8708, "\ucd95": 8709, "\u2581\uc0ac\uc6a9\ud569\ub2c8\ub2e4": 8710, "\u2581\uac1c\ubc1c\uc790": 8711, "\uc5d0\uc788\ub294": 8712, "\ud55c\ub2e4\ub294": 8713, "\u2581\uae30\ubc18\uc73c\ub85c": 8714, "\u2581\uc788\uc74c\uc744": 8715, "\u2581\uc624\ub798\ub41c": 8716, "\u2581\uad50\ud1b5": 8717, "\uc528": 8718, "\u2581\uc120\uc218": 8719, "\u2581\uac00\uc9c8": 8720, "\u2581\uacc4\uc815": 8721, "\ucd94": 8722, "\u2581\uc804\ub7b5": 8723, "\ub2f4": 8724, "\u2581\uc0b6": 8725, "\u2581\uc2dc\uacc4": 8726, "\u2581\ud070\uc5c9\ub369\uc774": 8727, "\u2581\ubcf4\ub77c": 8728, "\u2581\uc62c\ub4dc": 8729, "\u2581\ubc14\uc774": 8730, "\uc2b9": 8731, "\uc554": 8732, "\ub610\ub294": 8733, "\u2581\uc9c0\ubc30": 8734, "\u2581\uc2a4\ud0c0\ud0b9": 8735, "\u2581\uac80\uc0c9\ud558\uc5ec": 8736, "\uc158": 8737, "\u2581\uad00\uacc4\ub97c": 8738, "\u2581\ucee4\ud50c": 8739, "\u2581\ud45c": 8740, "\ud55c\ud14c": 8741, "\u2581\ubb34\uc5c7\uc778\uac00": 8742, "\u2581\ud06c": 8743, "\u2581\uaddc\uc815": 8744, "\u2581\uc758\uc2ec": 8745, "\u2581\ubb34\uc120": 8746, "\u2581\ub0b4\ub824": 8747, "\uacb0": 8748, "\uc220": 8749, "\uad70\uc694": 8750, "\ub144\ubd80\ud130": 8751, "\u2581\ub9cc\ub4e4\uace0": 8752, "\ub410\ub2e4": 8753, "\u2581\ud68c": 8754, "\ub428": 8755, "\u2581\uc0ac\ud68c\uc801": 8756, "\u2581\uadf8\ub9ac\uc2a4": 8757, "\u2581\ub110": 8758, "\u2581\uc900\ub2e4": 8759, "\u2581\ud3ec\ud568\ud55c": 8760, "\u2581\ubc29\uc1a1": 8761, "\u2581\ubb38\uc790": 8762, "\u2581\ud558\ub3c4\ub85d": 8763, "\u2581\ub418\uae30": 8764, "\u2581\uc9c0\uae08\uae4c\uc9c0": 8765, "\u2581\ubc16\uc5d0": 8766, "\u2581\ubd84\uba85\ud788": 8767, "\uc2dc\ub294": 8768, "\u2581\uc774\uc640": 8769, "\u2581\ubc00": 8770, "\u2581\uadf8\uac78": 8771, "\u2581\ub1cc": 8772, "\u2581\uc81c\uacf5\ub429\ub2c8\ub2e4": 8773, "\u2581\uc77d\uae30": 8774, "\u2581\ubcf4\uc99d": 8775, "\u2581\uc9c0\uc801": 8776, "\uc2dc\uace0": 8777, "\uc6c3\uc74c": 8778, "\u2581\uc54a\uc544": 8779, "\u2581\uc800\ud56d": 8780, "\u2581\uc608\uc57d\ud558\uc138\uc694": 8781, "\uc2dc\ud0ac": 8782, "\u2581\uad00\uc2ec\uc744": 8783, "\uc84c\ub2e4": 8784, "\u2581\uace0\uac1d\uc758": 8785, "\u2581\ub300\ud559\uad50": 8786, "\ub418\uba74": 8787, "\u2581\ud55c\ub2e4\uba74": 8788, "\u2581\uc9d1\uc5d0\uc11c": 8789, "\u2581\uc2a4\uc704\ud2b8": 8790, "\u2581\ub3d9\uc758": 8791, "\uc801\uc774\uace0": 8792, "\u2581\uc18c\uc15c": 8793, "\u2581\ub2e8\uc77c": 8794, "\u2581\ub118\ub294": 8795, "\u2581\uc81c\ubaa9": 8796, "\u2581\uc778\ub958": 8797, "\u2581\uc654\uc2b5\ub2c8\ub2e4": 8798, "\u2581\uc801\uc808\ud55c": 8799, "\u2581\ucf00": 8800, "\u2581\uc9c1\uc6d0": 8801, "\u2581\ucc98\uc74c\uc73c\ub85c": 8802, "\uc5d0\uc11c\ub3c4": 8803, "\u2581\uc804\uc6a9": 8804, "\u2581\uc790\ub9ac": 8805, "\u2581\ubd80\ud65c": 8806, "\u2581\ub0a8\uc544": 8807, "\u2581\ube44\ubc00": 8808, "\u2581\ucee4\ubba4\ub2c8\ud2f0": 8809, "\u2581\ub354\ube14": 8810, "\u2581\ubcf4\uc774": 8811, "\u2581\uc0dd": 8812, "\u2581\uc720\ud639": 8813, "\u2581\uc624\ud788\ub824": 8814, "\uc2a4\ud130": 8815, "\u2581\uc704\ud574\uc11c\ub294": 8816, "\u2581\ud130": 8817, "\u2581\ud0dc\ub3c4": 8818, "\u2581\ud328": 8819, "\u2581\uc57d\uac04": 8820, "\uc62c": 8821, "\u2581\ube44\ud589": 8822, "\u2581\uc870\uac74": 8823, "\u2581\ub85c\ubd07": 8824, "\u2581\ud658\uc790": 8825, "\u2581\uc624\ud6c4": 8826, "\u2581\ub3c4\ubcf4": 8827, "\u2581\ud558\ub294\uac00": 8828, "\u2581\uc788\uc73c\uba74": 8829, "\ud0c8": 8830, "\u2581\uc751": 8831, "\u2581\uc8fc\uace0": 8832, "\u2581\ub9c8\ucc2c\uac00\uc9c0\ub85c": 8833, "\u2581\ud3b8\uc9c0": 8834, "\u2581\ub2a5\ub825\uc744": 8835, "\u2581\ubcf4\ud5d8": 8836, "\u2581\uc8fc\uc2e0": 8837, "\u2581\uc5c6\ub2e4\ub294": 8838, "\u2581\uc0ac\uc804": 8839, "\u2581\uc608\uc0c1": 8840, "\u2581\uadfc\uc721": 8841, "\ucc45": 8842, "\u2581\ud328\ub110": 8843, "\u2581\ub85c\uadf8\uc778": 8844, "\u2581\uc81c\ub300\ub85c": 8845, "\u2581\ud1b5\ud558\uc5ec": 8846, "\u2581\uad8c": 8847, "\u2581\uc0ac\uc6a9\ub418\ub294": 8848, "\u2581\ud074\ub77c\uc6b0\ub4dc": 8849, "\uae4c\uc694": 8850, "\uc2b5\ub2c8\uae4c": 8851, "\u2581\uc190\uc744": 8852, "\u2581\uc548\uc804\ud55c": 8853, "\u2581\ucc38\uace0": 8854, "\u2581\uc5d8": 8855, "\u2581\ucf54\uc2a4": 8856, "\u2581\uc138\ud2b8": 8857, "\u2581\uc624\ub514\uc624": 8858, "\ubbf8\ud130": 8859, "\u2581\uc790\uc804\uac70": 8860, "\uc561": 8861, "\u2581\ubc30\uce58": 8862, "\u2581\ubc14\uc774\ub7ec\uc2a4": 8863, "\u2581\ubc29\uc9c0": 8864, "\u2581\uc804\uc138\uacc4": 8865, "\uc790\ub97c": 8866, "\u2581\uad6c\ucd95": 8867, "\u2581\uc774\uc804\uc5d0": 8868, "\u2581\ucabd": 8869, "\u2581\uc624\ub958": 8870, "\u2581\ubd04": 8871, "\u2581\uc138\ub300": 8872, "\u2581\uadf8\uac83\uc758": 8873, "\u2581\ud638\ud154\uc5d0\uc11c": 8874, "\u2581\uac8c\uc2dc": 8875, "\u2581\uc544\uc774\ub4e4": 8876, "\u2581\ucca0": 8877, "\uc655": 8878, "\u2581\uc131\ub2a5": 8879, "\u2581\uae08\uc9c0": 8880, "\u2581\ubd80\uc778": 8881, "\u2581\uc911\uc5d0\uc11c": 8882, "\u2581\ubaa8\ub985\ub2c8\ub2e4": 8883, "\u2581\ub2f4": 8884, "\u2581\ub35c": 8885, "\u2581\uc870\uba85": 8886, "\uba3c": 8887, "\u2581\uc8fc\uc2ed\uc2dc\uc624": 8888, "\u2581\ube14\ub85c\uadf8": 8889, "\u2581\uc601\uc6d0\ud788": 8890, "\u2581\ub545\uc5d0": 8891, "\u2581\ubd84\ub9ac": 8892, "\u2581\uac70\uae30\uc5d0": 8893, "\u2581\ubc84": 8894, "\u2581\uc2f6\uc2b5\ub2c8\ub2e4": 8895, "\u2581\uac10\uc815": 8896, "\u2581\uc9c0\uc0c1": 8897, "\u2581\uc8fd\uc74c": 8898, "\u2581\uc2dc\uc791\ud588\ub2e4": 8899, "\u2581\uc774\uba70": 8900, "\uc5b8": 8901, "\u2581\ud601\uc2e0": 8902, "\u2581\uad50\ud658": 8903, "\u2581\ubc30\ub2ec": 8904, "\u2581\uc220": 8905, "\u2581\ud639\uc2dc": 8906, "\u2581\uacf5\uacf5": 8907, "\u2581\ubd88\ub7ec": 8908, "\uc774\uc790": 8909, "\u2581\ud558\ub098\ub97c": 8910, "\u2581\uc6d0\uce59": 8911, "\u2581\uad6d\ub0b4": 8912, "\ud588\uc9c0\ub9cc": 8913, "\u2581\uc788\uc744\uae4c\uc694": 8914, "\u2581\ubc30\uc1a1": 8915, "\u2581\uad6d": 8916, "\u2581\uccad": 8917, "\u2581\uac19": 8918, "\uc190": 8919, "\u2581\uc131\ucde8": 8920, "\u2581\ub3c4\ucfc4": 8921, "\u2581\uc601\uc6d0": 8922, "\u2581\ubd80\uc5cc": 8923, "\uac19\uc740": 8924, "\u2581\ud14c\uc774\ube14": 8925, "\u2581\uafc8": 8926, "\u2581\ucc9c\uc0ac": 8927, "\u2581\uc788\uc8e0": 8928, "\u2581\uc77c\uc5b4\ub098": 8929, "\u2581\ud65c\uc6a9": 8930, "\ud305": 8931, "\u2581\ub9d0\ud588\uc2b5\ub2c8\ub2e4": 8932, "\u2581\ub9cc\ub098": 8933, "\u2581\uadf8\uc800": 8934, "\uc774\uc694": 8935, "\u2581\uc2e0\uccb4": 8936, "\u2581\ube4c\ub77c": 8937, "\u2581\uc694\ud55c": 8938, "\u2581\uc560\ud50c\ub9ac\ucf00\uc774\uc158": 8939, "\ud56d": 8940, "\u2581\uc6b0\uc218\ud55c": 8941, "\u2581\ud558\uc2ed\uc2dc\uc624": 8942, "\u2581\uc815\ud655\ud55c": 8943, "\u2581\ubbf8\ub9ac": 8944, "\u2581\uccb4": 8945, "\u2581\ud1b5\uacfc": 8946, "\u2581\ud3ec\ud568\ub418\uc5b4": 8947, "\u2581\ubb34\uae30": 8948, "\uc815\ubcf4": 8949, "\u2581\ud22c": 8950, "\u2581\uc885\ub8cc": 8951, "\u2581\uc9c4\uc2e4": 8952, "\u2581\uc9c4\ud654": 8953, "\u2581\uac78\uccd0": 8954, "\u2581\ub110\ub9ac": 8955, "\u2581\ucee4": 8956, "\ub77c\ub3c4": 8957, "\ub9c8\ud0dc": 8958, "\u2581\uce35": 8959, "\u2581\ubb54\uac00": 8960, "\u2581\ud574\ub3c4": 8961, "\uc2b5": 8962, "\u2581\uace8\ud504": 8963, "\uc774\uc9c0": 8964, "\ud558\uae30\ub97c": 8965, "\u2581\ud56d\ubaa9": 8966, "\u2581\uad8c\ub9ac": 8967, "\u2581\uc11c\uc6b8": 8968, "\u2581\ud615\uc2dd": 8969, "\u2581\uc18c\uc2a4": 8970, "\u2581\ud611\ud68c": 8971, "\uc9c0\uace0": 8972, "\u2581\ub274": 8973, "\ub4e4\ub85c": 8974, "\u2581\ub204": 8975, "\u2581\ubc1b\uc558\uc2b5\ub2c8\ub2e4": 8976, "\u2581\ub9f9\uc138": 8977, "\u2581\ud6a8\uacfc": 8978, "\u2581\ud558\ub098\ub2d8\uaed8\uc11c\ub294": 8979, "\u2581\uacf5\uc815": 8980, "\u2581\uacbd\uae30": 8981, "\u2581\uaf64": 8982, "\u2581\ud5a5\uc0c1": 8983, "\ud134": 8984, "\u2581\uacbd\uc6b0\uc5d0\ub294": 8985, "\u2581\ub9c8\uce68\ub0b4": 8986, "\u2581\uc18c\uc7ac": 8987, "\u2581\uc0ac\ub791\uc744": 8988, "\ub77c\uba74": 8989, "\u2581\uc694\uc18c": 8990, "\u2581\ub9c8\uc9c0\ub9c9\uc73c\ub85c": 8991, "\u2581\uc9c8\ubcd1": 8992, "\u2581\ud5c8\ub77d": 8993, "\u2581\uc815\uc0c1": 8994, "\u2581\ub0b4\uc77c": 8995, "\uccd0": 8996, "\u2581\uc138\ubd80": 8997, "\u2581\uc22d\ubc30": 8998, "\uc21c": 8999, "\u2581\uc77c\ub2e8": 9000, "\u2581\ud0dc\uad6d": 9001, "\u2581\uc790\uc9c0": 9002, "\u2581\ubb3c\uc744": 9003, "\u2581\uc790\uc6d0": 9004, "\u2581\uc774\uc6c3": 9005, "\ubaa8\ub4e0": 9006, "\u2581\uc815\ubcf4\ub294": 9007, "\u2581\uc788\uc5c8\uace0": 9008, "\uc2dc\ucf1c": 9009, "\ub8cc": 9010, "\u2581\uadf8\ub0a0": 9011, "\u2581\uc2dc\uae30": 9012, "\ub418\uae30": 9013, "\u2581\ucd2c\uc601": 9014, "\uc26c": 9015, "\u2581\uac70\ubd80": 9016, "\u2581\ud1b5\ud574\uc11c": 9017, "\u2581\uadfc\ucc98\uc5d0": 9018, "\u2581\uc120\ud0dd\ud55c": 9019, "\u2581\uc81c\ud488\uc740": 9020, "\u2581\uac83\uc774\uace0": 9021, "\u2581\uc5d0\ub3c4": 9022, "\u2581\uac11\uc790\uae30": 9023, "\u2581\ub54c\ub54c\ub85c": 9024, "\u2581\uad6d\ub9bd": 9025, "\u2581\uc54a\ub3c4\ub85d": 9026, "\u2581\uc704\ud611": 9027, "\u2581\uc7ac\ubbf8": 9028, "\u2581\uc608\uce21": 9029, "\u2581\uc791\uac00": 9030, "\u2581\uc62c\ud574": 9031, "\u2581\uadf8\uac83\uc5d0": 9032, "\u2581\ub179\uc0c9": 9033, "\ub290\ub0d0": 9034, "\u2581\uc5d4": 9035, "\u2581\uc2e4\ub0b4": 9036, "\ud55c\ub2e4\uace0": 9037, "\u2581\uc8fc\ub85c": 9038, "\ud5a5": 9039, "\u2581\uc6b8": 9040, "\u2581\uc2f6\uc9c0": 9041, "\u2581\ud638\uc8fc": 9042, "\u2581\uc18c\ud504\ud2b8\uc6e8\uc5b4\ub97c": 9043, "\u2581\ud558\uc2e4": 9044, "\uc2a4\ud0c0": 9045, "\u2581\ud3ed": 9046, "\u2581\ud3ec\ud568\ud558\uc5ec": 9047, "\u2581\uc911\uc2ec": 9048, "\u2581\uc0c1\ud638": 9049, "\u2581\uce98\ub9ac\ud3ec\ub2c8\uc544": 9050, "\u2581\ub2e4\ub9cc": 9051, "\u2581\uc5c6\ub2e4\uace0": 9052, "\u2581\ub113\uc740": 9053, "\uc694\ud55c": 9054, "\u2581\uac16\ucd94\uace0": 9055, "\u2581\uc788\uc74d\ub2c8\ub2e4": 9056, "\u2581\ub2e8\uc21c\ud788": 9057, "\u2581\uac70\uc720": 9058, "\u2581\ubd80\uc5ec": 9059, "\u2581\ube14\ub85d": 9060, "\u2581\uad50\uc218": 9061, "\uc8fc\ub294": 9062, "\ub2c8\ub77c": 9063, "\u2581\ud588\ub358": 9064, "\u2581\ub178\ub3d9": 9065, "\uc5c6\ub294": 9066, "\u2581\ub208\uc744": 9067, "\u2581\uc18c\ube44": 9068, "\u2581\uac00\uace0": 9069, "\uc5d8": 9070, "\u2581\ud22c\uc5b4": 9071, "\u2581\uadf8\ub7ec": 9072, "\u2581\uc2ec\ud310": 9073, "\u2581\uc601\uc5ed": 9074, "\u2581\uacf5\ubd80": 9075, "\u2581\uccab\ubc88\uc9f8": 9076, "\u2581\uc5c6\uc5c8\uc2b5\ub2c8\ub2e4": 9077, "\u2581\uc758\uc2dd": 9078, "\u2581\uc720\uc775": 9079, "\uc774\uc8e0": 9080, "\u2581\uc218\uc220": 9081, "\u2581\uc2a4\uc704\uc2a4": 9082, "\u2581\ub2f5": 9083, "\ud50c": 9084, "\u2581\uad50\uc0ac": 9085, "\u2581\uad70\ub300": 9086, "\u2581\uc544\ube60": 9087, "\u2581\ucd08\ub300": 9088, "\u2581\uc644\uc804\ud55c": 9089, "\u2581\ucd95\uc81c": 9090, "\u2581\ubc29\ubc95\uc774": 9091, "\u2581\uc218\uc74c": 9092, "\u2581\uc54a\uac8c": 9093, "\u2581\uc624\ub79c": 9094, "\u2581\ud1b5\uacc4": 9095, "\u2581\uae08\uace0": 9096, "\u2581\uc560\ub110": 9097, "\u2581\ube0c\ub77c\uc9c8": 9098, "\u2581\uba78\ub9dd": 9099, "\u2581\uad00\uc2ec\uc774": 9100, "\u2581\uc77c\uc815": 9101, "\u2581\uccb4\ucf54": 9102, "\u2581\uc8fc\ub2d8\uc758": 9103, "\u2581\ub3c4\uc640\ub4dc\ub9bd\ub2c8\ub2e4": 9104, "\u2581\uac83\ub4e4\uc744": 9105, "\u2581GotPorn": 9106, "\u2581\ubd10": 9107, "\ud558\ub824\ub294": 9108, "\u2581\uc0ac\uc6a9\ud558\uace0": 9109, "\u2581\ubcf4\uc778\ub2e4": 9110, "\u2581\ub514\uc2a4\ud50c\ub808\uc774": 9111, "\u2581\uac1c\ubcc4": 9112, "\u2581\uc0dd\uac01\ud55c\ub2e4": 9113, "\u2581\ud2b9\uac00": 9114, "\u2581\ubb38\uc744": 9115, "\uc138\uae30": 9116, "\u2581\ub0b4\uc6a9\uc740": 9117, "\u2581\ubc30\uc6b0": 9118, "\ud2bc": 9119, "\u2581\uc815\uce58\uc801": 9120, "\u2581\ub0b4\uc6a9\uc744": 9121, "\u2581\uad00\ucc30": 9122, "\u2581\ud0f1\ud06c": 9123, "\u2581\uc5ed\ud560": 9124, "\uc785\ub2c8\uae4c": 9125, "\u2581\uc774\ub77c\ub294": 9126, "\u2581\uc190\uc5d0": 9127, "\uc5d0\uac8c\uc11c": 9128, "\u2581\uace0\uc591\uc774": 9129, "\u2581\ubbff\uc744": 9130, "\u2581\ub6f0\uc5b4\ub09c": 9131, "\u2581\uc54c\ub824\uc838": 9132, "\u2581\uc804\uc555": 9133, "\u2581\ud658\uc601": 9134, "\u2581\uc22b\uc790": 9135, "\u2581\ube44\uc2b7\ud55c": 9136, "\u2581\uc870\ud68c": 9137, "\u2581\uc2e4\uc2dc": 9138, "\u2581\uc77c\uce58": 9139, "\u2581\uc720\ub2e4": 9140, "\u2581\uc6b0\uc720": 9141, "\u2581\ub77c\ub294": 9142, "\ub418\uc5b4\uc57c": 9143, "\u2581\ud574\uc694": 9144, "\u2581\ubc30\uc6b8": 9145, "\u2581\ubaa8\uc2b5": 9146, "\u2581\ub9d0\uc774\uc8e0": 9147, "\u2581\ud310\ub2e8": 9148, "\u2581\uc5b4\ub514\uc5d0": 9149, "\u2581\uc219\uc18c": 9150, "\ube14": 9151, "\u2581\uc0ac\uae4c\uc2dc": 9152, "\u2581\ubbff\uc9c0": 9153, "\u2581\uc0dd\ubb3c": 9154, "\u2581\uc21c\uc885": 9155, "\uc13c\ud130": 9156, "\ub144\ub300": 9157, "\u2581\uc7a0\uc2dc": 9158, "\u2581\ubb34\ub9ac": 9159, "\u2581\uba39\uace0": 9160, "\u2581\ud5a5": 9161, "\u2581\uc911\uc2ec\uc5d0": 9162, "\u2581\uc911\uc694\ud569\ub2c8\ub2e4": 9163, "\u2581\ud1b5\ud654": 9164, "\ub984": 9165, "\u2581\ud558\ub098\uac00": 9166, "\u2581\ub9e8": 9167, "\u2581\uace0\uac1d\uc774": 9168, "\u2581\ub9c8\ub9ac\uc544": 9169, "\u2581\uc549\uc544": 9170, "\u2581\ub3c5\ub9bd": 9171, "\uac70\ub9ac": 9172, "\ucc44": 9173, "\u300b": 9174, "\u2581\uc800\uc758": 9175, "\u2581\ub54c\ub294": 9176, "\u2581\uba54\ub274": 9177, "\u2581\uccb4\ud5d8": 9178, "\u2581\uc2a4\ud14c\uc778\ub9ac\uc2a4": 9179, "\u2581\ud76c\uc0dd": 9180, "\u2581\uc5ec\ud589\uc744": 9181, "\u2581\ub144\uc5d0": 9182, "\u2581\uc778\ud130\ud398\uc774\uc2a4": 9183, "\u2581\ub2ec\ub824": 9184, "\u2581\ubc29\ubc95\uc5d0": 9185, "\u2581\ub178\ucd9c": 9186, "\u2581\ubb34\ub8cc\ub85c": 9187, "\u2581\uac00\uacf5": 9188, "\u2581\uc218\ud559": 9189, "\u2581\ub124\uac8c": 9190, "\u2581\ud3f4": 9191, "\u2581\uac10\uc5fc": 9192, "\u2581\ud3ec\uc778\ud2b8": 9193, "\u2581\ubd84\ub958": 9194, "\u2581\uadf8\ub798\ub3c4": 9195, "\u2581\uc8fc\ud0dd": 9196, "\u2581\ud558\uc168\uc2b5\ub2c8\ub2e4": 9197, "\u2581\uc5c6\uc5b4\uc694": 9198, "\ucca0": 9199, "\u2581\ubc29\ud5a5": 9200, "\u2581\uc804\uc6d0": 9201, "\u2581\ub204\uad6c\ub098": 9202, "\u2581\uc758\ud559": 9203, "\u2581\ud640": 9204, "\u2581\uae30\ucc28": 9205, "\uad6c\uc694": 9206, "\u2581\uc0c8\ub85c": 9207, "\u2581\ub3fc": 9208, "\ud558\ub2c8": 9209, "\u2581\ubcf4\ub3c4": 9210, "\u2581\ub098\uac00": 9211, "\ub978": 9212, "\u2581\uc5b4\uc81c": 9213, "\u2581\uc0ac\uc6a9\ub429\ub2c8\ub2e4": 9214, "\u2581\uc81c\ud488\uc758": 9215, "\u2581\uacf5\ud56d\uc5d0\uc11c": 9216, "\u2581\ucc2c": 9217, "\u2581\uc81c\ucd9c": 9218, "\u2581\uc804\ud1b5": 9219, "\u2581\uc218\uc601\uc7a5": 9220, "\u2581\uc548\ub4dc\ub85c\uc774\ub4dc": 9221, "\u2581\uccad\uc18c": 9222, "\u2581\uc77c\uc0c1": 9223, "\u2581\uace0\uac1d\ub2d8\uaed8\uc11c": 9224, "\u2581\uac00\uac8c": 9225, "\ubcc0": 9226, "\ud558\uc790": 9227, "\u2581\uc720\ub300\uc778": 9228, "\u2581\ud5e4": 9229, "\ud558\ub9ac\ub77c": 9230, "\u2581\ud558\uac70\ub098": 9231, "\u2581\ubcf4\uc774\uc9c0": 9232, "\u2581\uc0ac\uc6a9\ud558\uba74": 9233, "\u2581\uc791\ud488": 9234, "\u2581\ud45c\uba74": 9235, "\u2581\uc811\ucd09": 9236, "\u2581\ubcc0\ud654\ub97c": 9237, "\u2581\ub4e4\uc5b4\uac00": 9238, "\u2581\uc12c\uc720": 9239, "\u2581\uc0c1\ud45c": 9240, "\u2581\ubabb\ud558\uace0": 9241, "\u2581\uadf8\ub140\ub97c": 9242, "\u2581\ud0dc": 9243, "\u2581\ub9c8\uc138\uc694": 9244, "\u2581\uac12": 9245, "\u2581\ubb38\uc81c\uc5d0": 9246, "\u2581\ud589\uc131": 9247, "\u2581\ud6cc\ub96d": 9248, "\u2581\uc601\ud63c": 9249, "\ub3c5": 9250, "\u2581\ubcf8\uc778\uc5d0\uac8c": 9251, "\u2581\ubcf4\uad00": 9252, "\u2581\uac70\ub300\ud55c": 9253, "\ub529": 9254, "\u2581\uc218\ucc9c": 9255, "\u2581\uc608\uc57d\ud558\uc2e4": 9256, "\u2581\uadf9": 9257, "\u2581\uc644\uc131": 9258, "\u2581\uc2a4\uc6e8\ub374": 9259, "\u2581\uc9c4\uc815": 9260, "\u2581\ube44\ub85d": 9261, "\u2581\uac1d\uc2e4\uc5d0": 9262, "\u2581\uc78a\uc9c0": 9263, "\u2581\ud65c\uc131\ud654": 9264, "\u2581\ub9d0\ud558\uace0": 9265, "\u2581\ubcf4\uace0\uc11c": 9266, "\u2581\uac00\uc838": 9267, "\u2581\ubd84\uc57c\uc5d0\uc11c": 9268, "\u2581\uac16\ucd98": 9269, "\u2581\uc544\uc77c\ub79c\ub4dc": 9270, "\uace1": 9271, "\u2581\uacf5\ud654\uad6d": 9272, "\u2581\ub77c\uc774\ube0c": 9273, "\u2581\uac19\uc544\uc694": 9274, "\u2581\uc544\ud30c\ud2b8\ub294": 9275, "\u2581\uadf8\uc640": 9276, "\u2581\uc694\uae08": 9277, "\u2581\uac00\uc0c1": 9278, "\u2581\uadc0\uc5ec\uc6b4": 9279, "\u2581\uc798\ubabb\ub41c": 9280, "\u2581\uad6c\uc5ed": 9281, "\uc900": 9282, "\u2581\uc655\uc774": 9283, "\u2581\uc13c\uc11c": 9284, "\u2581\uc81c\uc870\uc5c5\uccb4": 9285, "\u2581\uac00\uce58\uac00": 9286, "\u2581\uc811\uc18d": 9287, "\u2581\ud398\ud2f0\uc26c": 9288, "\u2581\ub208\uc5d0": 9289, "\uc558\ub2e4": 9290, "\u2581\ud574\ubcc0": 9291, "\u2581\ubb58": 9292, "\u2581\ubcf5": 9293, "\uc704\uc6d0\ud68c": 9294, "\u2581\uc218\uac00": 9295, "\u2581\uc624\ub7ab\ub3d9\uc548": 9296, "\u2581\ucd9c\ubc1c": 9297, "\u2581\ud569\uae08": 9298, "\u2581\ud654\uc7a5\uc2e4": 9299, "\u2581\ubca0\uc774": 9300, "\u2581\uc784\uc2e0": 9301, "\u2581\uc4f8": 9302, "\u2581\uc640\uc778": 9303, "\uae30\ub294": 9304, "\uc774\uae30": 9305, "\ub3c4\ub2e4": 9306, "\u2581\uc2dc\ubbfc": 9307, "\u2581\uc704\uc131": 9308, "\u2581\uc778\ud558\uc5ec": 9309, "\u2581\uace0\uc6a9": 9310, "\u2581\ub9d0\ud574": 9311, "\u2581\ud2b8\ub7ed": 9312, "\ub290\ub2c8\ub77c": 9313, "\u2581\ubc29\uc5b4": 9314, "\u2581\uc2a4\ud2b8\ub9bd": 9315, "\uc9d1\ub2c8\ub2e4": 9316, "\uc11c\ub294": 9317, "\uc6c0": 9318, "\u2581\uacfc\uc815\uc744": 9319, "\u2581\uc804\ub9dd": 9320, "\u2581\uce90": 9321, "\u2581\uadf8\ubd84\uc740": 9322, "\u2581\uc624\ud508": 9323, "\u2581\uc5c4\uccad\ub09c": 9324, "\u2581\ub290\ub08c": 9325, "\u2581\ubaa8\ub4c8": 9326, "\u2581\uc8fc\uae30": 9327, "\u2581\ub300\uae30": 9328, "\u2581\uba54\uc77c": 9329, "\u2581\ub780\uc81c\ub9ac": 9330, "\ub9ac\ub294": 9331, "\u2581\uc790\uc5f0\uc0b0": 9332, "\u2581\ube14\ub8e8": 9333, "\u2581\ub3c4\uc640": 9334, "\u2581\uc624\ub974\uac00\uc998": 9335, "\u2581\uae30\uc874": 9336, "\u2581\uac16\uac8c": 9337, "\u2581\ubd84\ub9d0": 9338, "\u2581\uae30\uae30": 9339, "\u2581\ub3c4\ub2ec": 9340, "\u2581\uc0c1\ub300": 9341, "\u2581\uc784\uba85": 9342, "\u2581\uc218\ucd9c": 9343, "\u2581\ubc1b\uac8c": 9344, "\u2581\ud14c": 9345, "\u2581\uadf8\ub9ac\ud558\uc5ec": 9346, "\u2581\ud761\uc5f0": 9347, "\u2581\ubd80\ub3d9\uc0b0": 9348, "\u2581\uc654": 9349, "\u2581\uac1c\ucd5c": 9350, "\u2581\uc704\uce58\ub97c": 9351, "\uc788\uc744": 9352, "\u2581\uc804\ud22c": 9353, "\u2581\uc0ac\uc6a9\uc790\uc758": 9354, "\uace8": 9355, "\u2581\ub9de": 9356, "\u2581\uc18c\ube44\uc790": 9357, "\u2581\ud14d\uc2a4\ud2b8": 9358, "\u2581\uc2ed": 9359, "\u2581\ud638\ud154\uc744": 9360, "\u2581\uc8fc\ucc28": 9361, "\u2581\ud558\ub824\uace0": 9362, "\u2581\ubabb\ud588\ub2e4": 9363, "\u2581\uc774\uc5c8\ub2e4": 9364, "\u2581\uc2e0\ubb38": 9365, "\u2581\ub54c\ub9c8\ub2e4": 9366, "\u2581\uc774\uc720\ub85c": 9367, "\u2581\ubc31\uc5c5": 9368, "\ub294\uc9c0": 9369, "\ub78c": 9370, "\u2581\uac1c\ub150": 9371, "\u2581\ud328\ud0a4\uc9c0": 9372, "\u2581\ubaa8\uc2b5\uc744": 9373, "\u2581\ud138\uc774": 9374, "\u2581\uc5b4\uca4c\uba74": 9375, "\u2581\uc0c1\uc0c1": 9376, "\u2581\ub9c8\uc74c\uc774": 9377, "\u2581\uc81c\uc790": 9378, "\u2581\ub9cc\ub4ed\ub2c8\ub2e4": 9379, "\u2581\uc0ac\ub78c\ub4e4\uacfc": 9380, "\u2581\uba54\uc2dc\uc9c0\ub97c": 9381, "\u2581\uba39\ub294": 9382, "\u2581\uc77d\uace0": 9383, "\u2581\ud22c\ud45c": 9384, "\u2581\uc218\uc900\uc758": 9385, "\u2581\uc635\uc158\uc744": 9386, "\u2581\uadfc\uac70": 9387, "\u2581\ube44\ud2b8": 9388, "\u2581\ud56d\uacf5": 9389, "\u2581\ub0c9\uac01": 9390, "\u2581\ub2e4\ub9ac": 9391, "\u2581\uc568\ubc94": 9392, "\uc288": 9393, "\u2581\uc774\uc5d0": 9394, "\u2581\uacfc\uac70": 9395, "\u2581\ubd88\ubc95": 9396, "\ud558\uc600\uace0": 9397, "\ubd81": 9398, "\u2581\uc9c0\uc5ed\uc5d0\uc11c": 9399, "\u2581\uc81c\uacf5\ud558\uace0": 9400, "\ud588\uc5b4\uc694": 9401, "\u2581\uc218\uc900": 9402, "\u2581\uc774\uc9d1\ud2b8": 9403, "\u2581\uc2e0\uc559": 9404, "\u2581\uc6f9\ucea0": 9405, "\u2581\ubbf8\uad6d\uc5d0\uc11c": 9406, "\u2581\ucda9\ubd84\ud55c": 9407, "\u2581\uadfc\ub370": 9408, "\u2581\ubb34\uc5c7\uc778\uc9c0": 9409, "\u2581\ubc14\ub2e5": 9410, "\u2581\ud56d": 9411, "\u2581\uc0e4": 9412, "\ub9cc\uc744": 9413, "\u2581\uad50\ud6c8": 9414, "\u2581\uad6d\ubbfc": 9415, "\u2581\ud669": 9416, "\u2581\uc794": 9417, "\u2581\ub354\ubd88\uc5b4": 9418, "\u2581\ubaa8\ub4dc": 9419, "\u2581\uc0c1\uc2b9": 9420, "\u2581\ud68c\uc0ac\uc758": 9421, "\u2581\uc9c8\ubb38\uc744": 9422, "\u2581\uaddc\uce59": 9423, "\uc778\uc885\uac04": 9424, "\u2581\uac00\ub2a5\uc131\uc774": 9425, "\u2581\uc800\uc790": 9426, "\u2581\uac15\uc870": 9427, "\u2581\uc74c\ub8cc": 9428, "\u2581\ud0c0\uc6cc": 9429, "\u2581\ub808\ubca8": 9430, "\u2581\uc544\uc774\ub514\uc5b4": 9431, "\u2581\ubd84\uc218": 9432, "\uc545": 9433, "\uc168\ub2e4": 9434, "\u2581\ub124\ub35c\ub780\ub4dc": 9435, "\u2581\uc6d0\uc778": 9436, "\u2581\uc544\ubb34\ub7f0": 9437, "\u2581\ubcf4\uc2ed\uc2dc\uc624": 9438, "\u2581\uc774\ub984\uc774": 9439, "\u2581\uc601\uc6d0\ud55c": 9440, "\u2581\ub9d0\uc740": 9441, "\u2581\uac74\uac15\ud55c": 9442, "\u2581\uc218\uc788\ub2e4": 9443, "\ubfd0": 9444, "\u2581\uc218\uc0c1": 9445, "\u2581\ubcf5\uc7a1\ud55c": 9446, "\u2581\uc870\uc5b8": 9447, "\u2581\ub3cc\uc544\uac00": 9448, "\u2581\ubabb\ud55c\ub2e4": 9449, "\u2581\uc778\uce58": 9450, "\u2581\ub77c\ub514\uc624": 9451, "\u2581\uac70\uc8e0": 9452, "\u2581\uc9c8\ubb38\uc5d0": 9453, "\u2581\uaca8\uc6b8": 9454, "\u2581\ud14c\ub9c8": 9455, "\u2581\uc758\uc9c0": 9456, "\u2581\ubc31\uc0c9": 9457, "\ub418\uc5c8\uace0": 9458, "\u2581\ucc28\ub2e8": 9459, "\u2581\ud0a4\uc2a4": 9460, "\u2581\ub3c5\ud2b9\ud55c": 9461, "\u2581\ub0b4\uc5d0\uc11c": 9462, "\u2581\ubc30\ud3ec": 9463, "\u2581\uc0c1\uc810": 9464, "\u2581\ud604\uc9c0": 9465, "\uc774\uae30\ub3c4": 9466, "\uc790\ub4e4\uc740": 9467, "\u2581\ubcf4\uac8c": 9468, "\u2581\ud588": 9469, "\u2581\ube44\uc728": 9470, "\u2581\ud1b5\ud55c": 9471, "\u2581\uac01\uc790": 9472, "\u2581\uc811": 9473, "\uc0ac\ub78c": 9474, "\uc6b0\uc2a4": 9475, "\u2581\uc5ec\ubd80": 9476, "\u2581\uc2dc\ub0b4": 9477, "\u2581\uc77c\ubc18\uc778": 9478, "\u2581\uce74\ud14c\uace0\ub9ac": 9479, "\ub178\ub77c": 9480, "\u2581\uc0ac\uc6a9\uc790\ub294": 9481, "\u2581\uc2e4\ud604": 9482, "\u2581\uc900\uc218": 9483, "\u2581\ubaa8\ub2c8\ud130\ub9c1": 9484, "\u2581\ucda9\uc871": 9485, "\u2581\uc774\uc6a9\ud560": 9486, "\u2581\uac00\uc8fd": 9487, "\u2581\ud074\ub798\uc2a4": 9488, "\u2581\ud3f0": 9489, "\u2581\uc0ac\uc6a9\ud558\uae30": 9490, "\uc790\uc758": 9491, "\uc168\uc2b5\ub2c8\ub2e4": 9492, "\u2581\uc791\uc6a9": 9493, "\u2581\ubaa8\ub974\ub294": 9494, "\u2581\uacc4\ud68d\uc744": 9495, "\u2581\ud65c\ub3d9\uc744": 9496, "\u2581\ud504\ub85c\uc138\uc2a4": 9497, "\u2581\uae30\ub2e4\ub9ac\uace0": 9498, "\u2581\uc2dc\uac04\uc740": 9499, "\u2581\ub4f1\uae09": 9500, "\u2581\uc720\uba85": 9501, "\u2581\uc0ac\ub78c\uacfc": 9502, "\u2581\ubbfc\uc871": 9503, "\u2581\ud574\uc678": 9504, "\u2581\uc800\uc5d0\uac8c": 9505, "\u2581\ub0a0\uc528": 9506, "\u2581\ubcf4\uc218": 9507, "\u2581\ud3b8\uc758": 9508, "\u2581\uae30\ub3c5\uad50": 9509, "\uc2a4\ub294": 9510, "\u2581\uc0dd\uac01\uc774": 9511, "\u2581\ubcf5\uc6d0": 9512, "\u2581\uc555\ucd95": 9513, "\u2581\ub0c9\uc7a5\uace0": 9514, "\u2581\uc911\uac04": 9515, "\ud658": 9516, "\u2581\uc8fc\uc138\uc694": 9517, "\u2581\ud3ed\ub825": 9518, "\u2581\uc2dc\uc2a4\ud15c\uc740": 9519, "\u2581\ubcf4\uc874": 9520, "\u2581\ud6c4\uc7a5": 9521, "\u2581\uc0ac\uc6a9\ud558\uc9c0": 9522, "\u2581\ub178\uc608": 9523, "\u2581\ube44\uc6a9\uc744": 9524, "\uae30\uc5d0": 9525, "\u2581\ub3c4\ubcf4\ub85c": 9526, "\u2581\uc801\uc740": 9527, "\ub838\ub2e4": 9528, "\ub140": 9529, "\u2581\uc774\ub860": 9530, "\u2581\ub098\uc628": 9531, "\u2581\uacc4\uc2e0": 9532, "\u2581\ud544": 9533, "\ud3c9": 9534, "\u2581\ub4e4\uba74": 9535, "\u2581\uc5f4\uae30": 9536, "\u2581\uc5f4\ucc28": 9537, "\u2581\uac24\ub7ec\ub9ac": 9538, "\u2581\uacb0\ud63c\uc2dd": 9539, "\u2581\uade0\ud615": 9540, "\u2581\ud328\uc158": 9541, "\ub9ac\ub2c8": 9542, "\u2581\ub9cc\ub4e4\uc5b4\uc9c4": 9543, "\uace4": 9544, "\u2581\uc0ac\ud56d\uc744": 9545, "\u2581\uba85\uc774": 9546, "\ub2e4\uac00": 9547, "\u2581\uc55e\uc11c": 9548, "\u2581\ube0c\ub77c\uc6b0\uc800": 9549, "\u2581\ubc14\ub78c": 9550, "\uc555": 9551, "\u2581\ub3c5": 9552, "\u2581\uc77d\uc5b4": 9553, "\ub2e4\ub978": 9554, "\u2581\uc815\ud655\ud788": 9555, "\u2581\uc8fc\ucc28\uc7a5": 9556, "\u2581\ub118": 9557, "\uc728": 9558, "\u2581\ubc1b\uae30": 9559, "\u2581\uce5c": 9560, "\u2581\ucd94": 9561, "\u2581\uc544\uc90c\ub9c8": 9562, "\u2581\uae30\uc6d0": 9563, "\u2581\ub3cc\uc544": 9564, "\u2581\uace0\uc815": 9565, "\u2581\uc120\uc9c0\uc790": 9566, "\u2581\uc54c\uc544\uc57c": 9567, "\u2581\uc120\uc5b8": 9568, "\u2581\uc9d3": 9569, "\uc2ac": 9570, "\u2581\ub2ec\uc131": 9571, "\ucda9": 9572, "\u2581\uc120\uac70": 9573, "\u2581\uc18c\ud615": 9574, "\u2581\ubc1c\ud589": 9575, "\u2581\uac00\ub974\uce68": 9576, "\u2581\uc9c0\ub3c4\uc790": 9577, "\u2581\uc790\uadf9": 9578, "\u2581\uacf5\uc5f0": 9579, "\u2581\uc2ec\uac01\ud55c": 9580, "\u2581\ud558\ub2c8": 9581, "\u2581\ubaa8\ud615": 9582, "\u2581\uc2a4\ud29c\ub514\uc624": 9583, "\u2581\ub0ae": 9584, "\u2581\ubc16\uc73c\ub85c": 9585, "\u2581\uc774\uc720\uac00": 9586, "\u2581\uc0c1\uae30": 9587, "\u2581\ub85c\ubd80\ud130": 9588, "\ubc00": 9589, "\u2581\ud37c": 9590, "\ub418\uc5c8\uc73c\uba70": 9591, "\u2581\uac04\uaca9": 9592, "\u2581\ud638\uc2a4\ud2b8": 9593, "\u2581\uacf3\uc774": 9594, "\u2581\ub300\ud574\uc11c\ub294": 9595, "\u2581\uc74c\uc2dd\uc744": 9596, "\u2581\ud5cc\uc2e0": 9597, "\ube4c": 9598, "\u2581\uc8c4\ub97c": 9599, "\u2581\uc591\uc2dd": 9600, "\ud558\ub824": 9601, "\u2581\uc804\ud1b5\uc801\uc778": 9602, "\u2581\ud574\uc11d": 9603, "\u2581\uc0dd\uc874": 9604, "\u2581\uc81c\uacf5\ud560": 9605, "\u2581\uc218\uc5c5": 9606, "\u2581\uac83\ub4e4\uc774": 9607, "\u2581\uc57d\ubb3c": 9608, "\u2581\uc9d1\uc744": 9609, "\u2581\uadfc\ucc98": 9610, "\u2581\uc0ac\ub840": 9611, "\u2581\ucc38\uac00": 9612, "?\u2019": 9613, "\u2581\uac14\ub2e4": 9614, "\ud1a4": 9615, "\u2581\uc758\ud55c": 9616, "\u2581\uc790\ub9e4": 9617, "\u2581\uc874\uc911": 9618, "\ucc2c": 9619, "\u2581\uc0dd\uba85\uc744": 9620, "\u2581\ubca0\ud2b8\ub0a8": 9621, "\u2581\uacc4": 9622, "\u2581\uc560\ud50c": 9623, "\u2581\ud654\uc774\ud2b8": 9624, "\u2581\ub77c\ud2f4": 9625, "\u2581\ube4c": 9626, "\u2581\ubb38\uc2e0": 9627, "\uc2f1": 9628, "\u2581\ubc14\ub77c": 9629, "\uc548\uc5d0": 9630, "\u2581\ub2f5\ubcc0": 9631, "\ub204": 9632, "\u2581\uc790\ub3d9\uc73c\ub85c": 9633, "\u2581\ub2f4\ubc30": 9634, "\ud300": 9635, "\u2581\ud765\ubbf8\ub85c\uc6b4": 9636, "\u2581\uc758\ubbf8\ud569\ub2c8\ub2e4": 9637, "\u2581\uc728\ubc95": 9638, "\uce68": 9639, "\u2581\ubd88\uacfc": 9640, "\u2581\uc815\ub9ac": 9641, "\u2581\ud558\uc2dc\ub294": 9642, "\u2581\ub54c\ub85c\ub294": 9643, "\u2581\ud0c8": 9644, "\u2581\uc785\uc7a5": 9645, "\u2581\uc704\uc6d0\ud68c": 9646, "\u2581\ub9c8\uc774\ud06c\ub85c": 9647, "\u2581\ud544\uc218": 9648, "\u2581\uac00\uce58\ub97c": 9649, "\uc796\uc544": 9650, "\u2581\uc5f0\uc8fc": 9651, "\u2581\uac78\uc5b4": 9652, "\u2581\ub9dd": 9653, "\u2581\uacac\ud574": 9654, "\u2581\ub290\ub084": 9655, "\u2581\ud68c\uc804": 9656, "\u2581\ud558\uc774": 9657, "\u2581\ubbff\uace0": 9658, "\uc5c8\uace0": 9659, "\u2581\ubc94": 9660, "\uc1a1": 9661, "\u2581\ubaa8\ub974": 9662, "\u2581\uae00\uc744": 9663, "\u2581\ud558\uc5ec\uae08": 9664, "\u2581\ud544\ud130": 9665, "\uce5c": 9666, "\u2581\uc778\uad6c": 9667, "\u2581\uc800\uac00": 9668, "\u2581\ub9d0\ud558\uae30\ub97c": 9669, "\u2581\uac70\uc808": 9670, "\u2581\uc5c5\uacc4": 9671, "\u2581\uc758\ud558\uba74": 9672, "\u2581\uc544\uc774\ub4e4\uc774": 9673, "\ube48": 9674, "\u2581\uc1a1": 9675, "\u2581\ub418\uac8c": 9676, "\u2581\uc54a\uae30": 9677, "\u2581\u00b7\u2060\u00b7\u2060\u00b7": 9678, "\u2581\uc5f4\uc2ec\ud788": 9679, "\u2581\uc9c0\uc2dc": 9680, "\ubc1b\uc744": 9681, "\u2581\ubd80\uc815": 9682, "\u2581\uad6c\uae00": 9683, "\u2581\uc2dc\uc2a4\ud15c\uc5d0": 9684, "\u2581\uc5b4\ucc0c": 9685, "\u2581\ub4dc\ub77c\uc774\ubc84": 9686, "\ub808\uc774": 9687, "\u2581\uc5bb\uae30": 9688, "\u2581\ub178\uc778": 9689, "\u2581\ub9db": 9690, "\u2581\uc218\uc785": 9691, "\u2581\uc810\uc744": 9692, "\u2581\uc0c1\ub2f4": 9693, "\u2581\uc77c\uacf1": 9694, "\u2581\ub0a8\uc740": 9695, "\u2581\ud6a8\uacfc\uc801\uc778": 9696, "\ub85d": 9697, "\u2581\uc608\uc218\uaed8\uc11c": 9698, "\u2581\uace0\ubb34": 9699, "\u2581\uc131\uc804\ud658": 9700, "\u2581\uac01\uac01\uc758": 9701, "\u2581\uc54a\uc73c\uba70": 9702, "\u2581\ud754\ud788": 9703, "\ud558\uc2dc\uace0": 9704, "\u2581\uc218\ub9ac": 9705, "\u2581\ubbf8\uc18c\ub140": 9706, "\u2581\ub9c8\ub9ac": 9707, "\ub8f8": 9708, "\u2581\ucd95": 9709, "\ud558\ub358": 9710, "\u2581\uc2f6\ub2e4": 9711, "\u2581\uc288\ud37c": 9712, "\u2581\ub9ac\ub354": 9713, "\ub7f0": 9714, "\u2581\ud0ac\ub85c\ubbf8\ud130": 9715, "\u2581\uc2dc\uc124\uc774": 9716, "\u2581\ucf54\uc5b4": 9717, "\u2581\uc9d0": 9718, "\u2581\ud658\uc601\ud569\ub2c8\ub2e4": 9719, "\u2581\ub9ce\ub2e4": 9720, "\u2581\ub9c8\uc57d": 9721, "\u2581\uadf8\ub807\uc9c0\ub9cc": 9722, "\u2581\ub2e8\uc21c": 9723, "\u2581\uc140": 9724, "\ub144\uac04": 9725, "\u2581\uc4f4": 9726, "\u2581\uc778\uc9c0": 9727, "\u2581\uc544\ub2f4": 9728, "\u2581\uc77c\ubd80\ub294": 9729, "\ub824\uba74": 9730, "\u2581\ud3f4\ub780\ub4dc": 9731, "\u2581\uc2dc\uc791\ud560": 9732, "\u2581\uc624\ub978\ucabd": 9733, "\u2581\uc5bb\ub294": 9734, "\u2581\uad6c\ud604": 9735, "\ub3cc": 9736, "\u2581\uc5c5\uadf8\ub808\uc774\ub4dc": 9737, "\u2581\uae30\ud6c4": 9738, "\u2581\uadf8\ub798\ud53d": 9739, "\u2581\uc608\ub8e8\uc0b4\ub818": 9740, "\u2581\ub300\ub7b5": 9741, "\u2581\ub204\uad70\uac00": 9742, "\ubc15\uc218": 9743, "\u2581\uadf8\uacf3": 9744, "\u2581\ub300\uc751": 9745, "\uc131\uc774": 9746, "\u2581\uadc0\ud558\uac00": 9747, "\u2581\ub9c8\uc2a4\ud130": 9748, "\u2581\ucd5c\uc801\ud654": 9749, "\u2581\ucda9\ub3cc": 9750, "\uc784\uc744": 9751, "\u2581\uc608\ubc29": 9752, "\u2581\uadf8\ub9b0": 9753, "\u2581\ud478": 9754, "\u2581\ud558\ub098\ub2d8\uacfc": 9755, "\u2581\uc232": 9756, "\ud0b9": 9757, "\u2581\ub3c4\uc6b8": 9758, "\u2581\uac8c\ub2e4\uac00": 9759, "\u2581\ub9d0\ud55c": 9760, "\ubc1b\uc740": 9761, "\u2581\uac00\uaca9\uc774": 9762, "\u2581\ud558\uc600\uc74d\ub2c8\ub2e4": 9763, "\u2581\ub974": 9764, "\u2581\uac00\uc2e4": 9765, "\u2581\uaddc\uc81c": 9766, "\u2581\uc900\ube44\uac00": 9767, "\u2581\uacf5\uac04\uc744": 9768, "\u2581\uc6cc\uc2f1\ud134": 9769, "\u2581\ud130\ud0a4": 9770, "\u2581\ub450\ub824\uc6c0": 9771, "\u2581\uc194\ub8e8\uc158\uc744": 9772, "\u2581\uceec\ub7ec": 9773, "\u2581\uc77c\ucc0d": 9774, "\ud558\ub098": 9775, "\u2581\ubd80\ub974": 9776, "\u2581\ud1b5\uce58": 9777, "\u2581\uc778\uae30\uc788\ub294": 9778, "\u2581\ubaa9\uc801\uc73c\ub85c": 9779, "\u2581\ub3c4\uc785": 9780, "\u2581\uadf8\ub79c\ub4dc": 9781, "\u2581\ub5a8\uc5b4\uc9c4": 9782, "\u2581\ub108\ud76c\uc758": 9783, "\ud558\uc8e0": 9784, "\u2581\ubca4": 9785, "\u2581\uc774\ub780": 9786, "\u2581\ucda9\ubd84": 9787, "\u2581\ud55c\ud3b8": 9788, "\u2581\ubc24\uc5d0": 9789, "\u2581\uc808\ubc18": 9790, "\ubc88\uc9f8": 9791, "\u2581\uc8fc\uc81c": 9792, "\u2581\ud3ec\ub974\ub178": 9793, "\u2581\uc138\uc778\ud2b8": 9794, "\ub79c\ub4dc": 9795, "\u2581\uc6a9\uc811": 9796, "\u2581\ubaa9\ud45c\ub97c": 9797, "\u2581\uaddc\ubaa8": 9798, "\uc154": 9799, "\u2581\uace1": 9800, "\ubd09": 9801, "\u2581\ube48\ud2f0\uc9c0": 9802, "\u2581\uae00\uaf34": 9803, "\u2581\uc9c0\uc6d0\ud569\ub2c8\ub2e4": 9804, "\u2581\ubcc0\ud638\uc0ac": 9805, "\u2581\uc2a4\uc704\uce58": 9806, "\u2581\uc545\ud55c": 9807, "\ud600": 9808, "\u2581\uc778\uc0dd": 9809, "\u2581\uc870\ud569": 9810, "\u2581\uc637\uc744": 9811, "\ud328": 9812, "\ud558\uc2dc\uae30": 9813, "\u2581\ud55c\uad6d\uc5b4": 9814, "\ub85c\ub9c8": 9815, "\u2581\uc11c\uba85": 9816, "\u2581\ub3c4\uad6c\ub97c": 9817, "\u2581\uadfc\ubb34": 9818, "\u2581\uadf8\ub7fc\uc5d0\ub3c4": 9819, "\u2581\uce60": 9820, "\u2581\uc7ac\uc0b0": 9821, "\u2581\ub2f9\uc2e0\uacfc": 9822, "\u2581\uc801\ud569\ud55c": 9823, "\u2581\uc870\uc808": 9824, "\u2581\ub3c4\uc2dc\uc758": 9825, "\u2581\ubcf5\uc0ac": 9826, "\u2581\uc9c0\uc6d0\uc744": 9827, "\ub2ec\ub7ec": 9828, "\u2581\uc4f0\ub9ac": 9829, "\u2581\uc7a5\ub85c": 9830, "\u2581\ubc95\uc801": 9831, "\u2581\uc9c1": 9832, "\u2581\uc815\ubd80\ub294": 9833, "\u2581\uc2f8\uc6c0": 9834, "\u2581\uba38\ubb34\uc2e4": 9835, "\u2581\ubaa8\uc138": 9836, "\u2581\uc9c1\uba74": 9837, "\u2581\uc704\uce58\ud574": 9838, "\u2581\ud074\ub77c\uc774\uc5b8\ud2b8": 9839, "\u2581\uc5c5\ub85c\ub4dc": 9840, "\u2581\ub9d0\uc500\uc774": 9841, "\u2581\uc774\uc81c\ub294": 9842, "\u2581\ud488": 9843, "\u2581\ub300\ub7c9": 9844, "\uaca0\uc2b5\ub2c8\ub2e4": 9845, "\uc5ec\ud638\uc640": 9846, "\u2581\ud655\ub300": 9847, "\uc558": 9848, "\u2581\ub204\uad6c\ub3c4": 9849, "\u2581\ub118\uc5b4": 9850, "\ubca8": 9851, "\u2581\uc368": 9852, "\u2581\uc0c1\uc9d5": 9853, "\u2581\uc6d0\uaca9": 9854, "\u2581\ub611\uac19\uc740": 9855, "\u2581\ube44\ud589\uae30": 9856, "\u2581\ubb3c\uac74": 9857, "\u2581\ubca0\uc2a4\ud2b8": 9858, "\u2581\ud575": 9859, "\ub9e8": 9860, "\u2581\uc7a1\uc9c0": 9861, "\u2581\uc138\uc0c1\uc5d0\uc11c": 9862, "\u2581\uac83\uc774\uc694": 9863, "\uc0e4": 9864, "\u2581\ub300\uc911": 9865, "\u2581\ud504\ub808\uc784": 9866, "\u2581\ub370\uc774\ud130\ubca0\uc774\uc2a4": 9867, "\u2581\uadf8\ub300": 9868, "\u2581\ub17c\uc758": 9869, "\u2581\ucda9\uc2e4": 9870, "\u2581\ub530": 9871, "\u2581\uc624\uc5fc": 9872, "\u2581\ubd80\uc11c": 9873, "\u2581\ub313\uae00": 9874, "\u2581\uc774\ub54c": 9875, "\u2581\uc774\uac78": 9876, "\uc9d0": 9877, "\u2581\ub3d9\uc77c": 9878, "\u2581\ubb34\uc2dc": 9879, "\u2581\ubbfc": 9880, "\ub2dd": 9881, "\u2581\uc870\uc9c0": 9882, "\u2581\uac10\uc2dc": 9883, "\ub808\uc2a4": 9884, "\u2581\uc721": 9885, "\u2581\ubc1d\uc740": 9886, "\u2581\ud558\uc168\ub2e4": 9887, "\u2581\ube44\ub09c": 9888, "\uc0bc": 9889, "\u2581\ube0c\ub8e8\ub137": 9890, "\u2581\uad34\ubb3c": 9891, "\u2581\ubbf8\ub2c8": 9892, "\u2581\ud589\ub3d9\uc744": 9893, "\u2581\ud0dd\uc2dc": 9894, "\u2581\ucf00\uc774\uc2a4": 9895, "\u2581\uc8fc\uc9c0": 9896, "\u2581\ubd84\uc774": 9897, "\u2581\uac70\uae30\uc11c": 9898, "\u2581\uc0ac\uc2e4\uc0c1": 9899, "\u2581\uc544\ub2c8\uc5c8\ub2e4": 9900, "\u2581\uc606\uc5d0": 9901, "\u2581\ud5a5\ud574": 9902, "\u2581\uc0bd\uc785": 9903, "\u2581\ucd94\uad6c": 9904,
[...]
