{
  "</s>": 0,
  "<unk>": 1,
  ".": 2,
  ",": 3,
  "'": 4,
  "?": 5,
  "\u2581I": 6,
  "\u2581-": 7,
  "s": 8,
  "\u2581you": 9,
  "\u2581the": 10,
  "\u2581to": 11,
  "\u2581\u05d0\u05ea": 12,
  "\u2581\u05dc\u05d0": 13,
  "\u2581a": 14,
  "\u2581\u05d0\u05e0\u05d9": 15,
  "!": 16,
  "\u2581\u05d6\u05d4": 17,
  "...": 18,
  "t": 19,
  "\u2581of": 20,
  "\u2581it": 21,
  "\u2581that": 22,
  "\u2581and": 23,
  "\u2581\u05de\u05d4": 24,
  "\u2581in": 25,
  "\u2581\u05d0\u05ea\u05d4": 26,
  "\u2581You": 27,
  "\u2581is": 28,
  "\u2581me": 29,
  "m": 30,
  "\u2581\u05e2\u05dc": 31,
  "\u2581\u05d4\u05d5\u05d0": 32,
  "\u2581for": 33,
  "-": 34,
  "\u2581on": 35,
  "re": 36,
  "\u2581\u05e9\u05dc": 37,
  "\u2581this": 38,
  "\u2581\u05dc\u05d9": 39,
  "\u2581was": 40,
  "\u2581we": 41,
  "\u2581have": 42,
  "\u2581know": 43,
  "\u2581your": 44,
  "\u2581be": 45,
  "\u2581my": 46,
  "\u05d4": 47,
  "\u2581not": 48,
  "\u05d9\u05dd": 49,
  "\u2581\"": 50,
  "\u2581It": 51,
  "\u2581with": 52,
  "\u2581do": 53,
  "\u2581What": 54,
  "\u2581are": 55,
  "\u2581can": 56,
  "\u2581\u05dc\u05da": 57,
  "\u2581he": 58,
  "\u2581what": 59,
  "\u2581don": 60,
  "\u2581\u05db\u05dc": 61,
  "\u2581\u05d0\u05d1\u05dc": 62,
  "\u2581just": 63,
  "\u2581\u05db\u05df": 64,
  "\u2581\u05d9\u05e9": 65,
  "\u05d5": 66,
  "\u2581": 67,
  "\u05d9": 68,
  "\u2581We": 69,
  "\u2581And": 70,
  "\u2581\u05e9\u05dc\u05d9": 71,
  "\"": 72,
  "\u2581\u05e2\u05dd": 73,
  "\u2581out": 74,
  "\u2581all": 75,
  "\u2581like": 76,
  "\u2581here": 77,
  "ll": 78,
  "\u2581\u05d4\u05d9\u05d0": 79,
  "\u2581about": 80,
  "\u2581\u05d0\u05dd": 81,
  "\u05ea": 82,
  "\u2581\u05e9\u05dc\u05da": 83,
  "\u2581right": 84,
  "\u2581get": 85,
  "\u2581up": 86,
  "\u2581\u05d4\u05d9\u05d4": 87,
  "\u2581.": 88,
  "\u2581him": 89,
  "\u2581\u05d1\u05e1\u05d3\u05e8": 90,
  "\u2581The": 91,
  "\u2581\u05d5": 92,
  "\u2581\u05d1": 93,
  "\u2581\u05d8\u05d5\u05d1": 94,
  "\u2581at": 95,
  "\u2581He": 96,
  "\u2581\u05d0\u05e0\u05d7\u05e0\u05d5": 97,
  "\u2581\u05e8\u05d5\u05e6\u05d4": 98,
  "\u2581her": 99,
  "\u2581\u05dc": 100,
  "\u2581there": 101,
  "\u2581That": 102,
  "\u2581one": 103,
  "\u2581go": 104,
  "\u2581\u05d0\u05d6": 105,
  "\u2581\u05d4": 106,
  ":": 107,
  "\u05d5\u05ea": 108,
  "\u2581No": 109,
  "\u2581so": 110,
  "\u2581got": 111,
  "\u2581Yeah": 112,
  "\u2581\u05d9\u05d5\u05d3\u05e2": 113,
  "\u2581they": 114,
  "\u2581but": 115,
  "ve": 116,
  "\u2581Oh": 117,
  "\u2581\u05d4\u05dd": 118,
  "\u2581\u05d9\u05db\u05d5\u05dc": 119,
  "\u2581\u05e8\u05e7": 120,
  "\u2581think": 121,
  "\u2581no": 122,
  "\u2581want": 123,
  "d": 124,
  "\u2581\u05d0\u05d5\u05ea\u05d5": 125,
  "\u2581\u05d2": 126,
  "\u2581\u05d9\u05d5\u05ea\u05e8": 127,
  "\u2581his": 128,
  "\u2581\u05d0\u05d5\u05ea\u05da": 129,
  "\u2581if": 130,
  "\u2581from": 131,
  "\u2581she": 132,
  "\u2581\u05d0\u05d5": 133,
  "\u2581gonna": 134,
  "\u2581as": 135,
  "\u2581Well": 136,
  "\u2581So": 137,
  "\u2581But": 138,
  "\u2581will": 139,
  "\u2581(": 140,
  "\u2581\u05e9": 141,
  "\u2581now": 142,
  "\u2581\u05dc\u05d4\u05d9\u05d5\u05ea": 143,
  "\u2581an": 144,
  "\u2581\u05d4\u05d6\u05d4": 145,
  "\u2581\u05db\u05d0\u05df": 146,
  "\u2581\u05e9\u05d0\u05e0\u05d9": 147,
  "\u2581see": 148,
  "\u2581\u05d0\u05d5\u05ea\u05d9": 149,
  "\u2581back": 150,
  "\u2581us": 151,
  "\u2581going": 152,
  "\u2581time": 153,
  "\u2581\u05d0\u05d7\u05d3": 154,
  "\u2581were": 155,
  "\u2581did": 156,
  "\u2581them": 157,
  "\u2581\u05de": 158,
  "\u2581\u05e2\u05db\u05e9\u05d9\u05d5": 159,
  "\u2581\u201d": 160,
  "\u2581\u05dc\u05de\u05d4": 161,
  "\u2581\u05db\u05de\u05d5": 162,
  "\u2581\u05d0\u05dc": 163,
  "\u2581need": 164,
  "\u2581would": 165,
  "\u2581This": 166,
  "\u2581been": 167,
  "\u2581\u05de\u05e9\u05d4\u05d5": 168,
  "\u2581had": 169,
  "\u2581good": 170,
  "\u2581who": 171,
  "\u2581\u05e6\u05e8\u05d9\u05da": 172,
  "\u2581\u05db\u05da": 173,
  ")": 174,
  "\u2581She": 175,
  "\u2581\u05dc\u05d5": 176,
  "\u2581our": 177,
  "\u2581or": 178,
  "\u2581\u05dc\u05e2\u05e9\u05d5\u05ea": 179,
  "\u2581They": 180,
  "\u2581Hey": 181,
  "\u2581Okay": 182,
  "\u2581\u05de\u05d9": 183,
  "\u2581when": 184,
  "\u2581\u05dc\u05e0\u05d5": 185,
  "\u2581some": 186,
  "\u2581?": 187,
  "\u2581\u05d0\u05d9\u05da": 188,
  "\u2581could": 189,
  "\u2581How": 190,
  "\u2581\u05d0\u05d9\u05df": 191,
  "\u2581\u05db\u05d3\u05d9": 192,
  "\u2581\u05d4\u05d9\u05d9": 193,
  "\u2581\u05db\u05d9": 194,
  "\u2581by": 195,
  "\u2581how": 196,
  "\u2581\u05e9\u05d0\u05ea\u05d4": 197,
  "\u2581\u05e0\u05db\u05d5\u05df": 198,
  "\u2581man": 199,
  "\u2581'": 200,
  "ing": 201,
  "\u2581didn": 202,
  "\u2581\u05e9\u05dd": 203,
  "\u2581A": 204,
  "\u2581take": 205,
  "\u2581way": 206,
  "\u2581come": 207,
  "\u2581say": 208,
  "\u2581\u05d7\u05d5\u05e9\u05d1": 209,
  "\u2581\u05d6\u05d0\u05ea": 210,
  "\u2581\u05e9\u05d4\u05d5\u05d0": 211,
  "\u2581\u266a": 212,
  "\u2581\u05db\u05de\u05d4": 213,
  "\u2581tell": 214,
  "\u2581down": 215,
  "\u2581really": 216,
  "\u2581something": 217,
  "\u2581more": 218,
  "\u2581\u05e4\u05e9\u05d5\u05d8": 219,
  "\u2581has": 220,
  "\u2581\u05ea\u05d5\u05d3\u05d4": 221,
  "\u2581\u05dc\u05d4": 222,
  "\u05d0\u05e0\u05d9": 223,
  "\u2581make": 224,
  "\u2581Yes": 225,
  "\u2581\u05d2\u05dd": 226,
  "\u2581\u05d6\u05d5": 227,
  "\u2581\u05d0\u05d5\u05ea\u05d4": 228,
  "\u2581[": 229,
  "\u2581Why": 230,
  "\u2581All": 231,
  "\u05dd": 232,
  "\u05db\u05df": 233,
  "\u2581\u05e9\u05d6\u05d4": 234,
  "\u2581\u05d4\u05d0\u05dd": 235,
  "\u2581\u05d0\u05d5\u05dc\u05d9": 236,
  "\u2581\u05d4\u05d9\u05d9\u05ea\u05d9": 237,
  "\u2581over": 238,
  "\u2581mean": 239,
  "\u2581people": 240,
  "\u2581There": 241,
  "\u2581If": 242,
  "\u2581\u05d9\u05d5\u05d3\u05e2\u05ea": 243,
  "\u2581Come": 244,
  "\u2581\u05d3\u05d1\u05e8": 245,
  "\u05e0\u05d5": 246,
  "\u2581\u05d1\u05d0\u05de\u05ea": 247,
  "\u2581little": 248,
  "\u2581God": 249,
  "\u2581too": 250,
  "\u2581said": 251,
  "\u2581\u05e2\u05d5\u05e9\u05d4": 252,
  "\u2581\u05e9\u05dc\u05d5": 253,
  "\u2581then": 254,
  "\u2581...": 255,
  "ed": 256,
  "\u2581never": 257,
  "\u2581off": 258,
  "\u2581let": 259,
  "\u2581Let": 260,
  "\u2581should": 261,
  "\u2581\u05d5\u05d0\u05e0\u05d9": 262,
  "\u2581doing": 263,
  "\u2581\u05e9\u05dc\u05e0\u05d5": 264,
  "\u2581\u05db\u05d1\u05e8": 265,
  "\u05de\u05d4": 266,
  "\u2581thing": 267,
  "\u2581\u05e2\u05d5\u05d3": 268,
  "\u2581\u05e9\u05dc\u05d0": 269,
  "\u2581look": 270,
  "\u05dc\u05d0": 271,
  "\u2581Don": 272,
  "\u2581okay": 273,
  "\u2581Do": 274,
  "\u2581\u05d4\u05d5\u05dc\u05da": 275,
  "\u2581\u05e0\u05e8\u05d0\u05d4": 276,
  "\u2581\u05de\u05d0\u05d5\u05d3": 277,
  "\u2581only": 278,
  "\u2581\u05e2\u05d3": 279,
  "\u2581\u05dc\u05e4\u05e0\u05d9": 280,
  "\u2581into": 281,
  "\u2581their": 282,
  "\u05e8": 283,
  "\u2581My": 284,
  "\u2581\u05d0\u05dc\u05d5\u05d4\u05d9\u05dd": 285,
  "\u2581love": 286,
  "\u2581\u05d4\u05e8\u05d1\u05d4": 287,
  "\u2581where": 288,
  "\u2581am": 289,
  "\u2581two": 290,
  "\u2581\u05d0\u05d5\u05de\u05e8": 291,
  "\u2581Now": 292,
  "\u2581any": 293,
  "\u2581help": 294,
  "\u2581why": 295,
  "\u2581very": 296,
  "\u2581find": 297,
  "\u2581\u05d9\u05d4\u05d9\u05d4": 298,
  "\u2581much": 299,
  "\u2581\u05e9\u05d4": 300,
  "\u2581\u05d6\u05de\u05df": 301,
  "\u2581\u05e4\u05e2\u05dd": 302,
  "\u2581sorry": 303,
  "\u2581work": 304,
  "\u2581Just": 305,
  "\u2581even": 306,
  "I": 307,
  "\u2581life": 308,
  "\u2581\u05d0\u05ea\u05dd": 309,
  "\u2581because": 310,
  "\u2581\u05e2\u05d3\u05d9\u05d9\u05df": 311,
  "\u2581\u05de\u05de\u05e9": 312,
  "\u2581\u05d9\u05db\u05d5\u05dc\u05d4": 313,
  "\u2581\u05d5\u05d1\u05db\u05df": 314,
  "]": 315,
  "\u05dc": 316,
  "--": 317,
  "\u2581these": 318,
  "\u2581than": 319,
  "\u2581\u05d1\u05d1\u05e7\u05e9\u05d4": 320,
  "\u2581\u05d0\u05d5\u05ea\u05dd": 321,
  "\u2581\u05d5\u05d4": 322,
  "\u2581day": 323,
  "\u2581other": 324,
  "\u2581still": 325,
  "\u2581Look": 326,
  "\u2581talk": 327,
  "\u2581first": 328,
  "\u2581\u05e7\u05e6\u05ea": 329,
  "\u2581give": 330,
  "y": 331,
  "\u2581sure": 332,
  "\u2581\u2019": 333,
  "\u2581anything": 334,
  "\u2581\u05dc\u05e8\u05d0\u05d5\u05ea": 335,
  "\".": 336,
  "\u2581Where": 337,
  "\u2581\u05d1\u05db\u05dc": 338,
  "\u2581\u05de\u05d9\u05e9\u05d4\u05d5": 339,
  "\u2581before": 340,
  "\u2581\u05de\u05e8": 341,
  "\u2581\u05e7\u05d3\u05d9\u05de\u05d4": 342,
  "\u2581Are": 343,
  "\u2581\u05d4\u05d9\u05d5": 344,
  "\u05d6\u05d4": 345,
  "\u2581\u05d0\u05d9\u05e4\u05d4": 346,
  "\u2581thought": 347,
  "\u05df": 348,
  ".\"": 349,
  "\u2581\u05d0\u05e3": 350,
  "\u2581\u05d0\u05d4": 351,
  "\u2581\u05d4\u05d9\u05d9\u05ea\u05d4": 352,
  "\u05ea\u05d9": 353,
  "\u2581Thank": 354,
  "\u2581\u05e9\u05d9\u05e9": 355,
  "\u2581night": 356,
  "\u2581!": 357,
  "\u2581call": 358,
  "\u2581well": 359,
  "\u2581\u05d0\u05e0\u05e9\u05d9\u05dd": 360,
  "\u2581In": 361,
  "\u2581home": 362,
  "\u2581\u05dc\u05dc\u05db\u05ea": 363,
  "\u2581Mr": 364,
  "\u2581again": 365,
  "\u2581guy": 366,
  "\u2581\u05d4\u05db\u05dc": 367,
  "\u2581\u05db": 368,
  "\u2581Not": 369,
  "\u2581\u05e9\u05d4\u05d9\u05d0": 370,
  "\u2581Who": 371,
  "\u2581\u05dc\u05e2\u05d6\u05d0\u05d6\u05dc": 372,
  "\u2581things": 373,
  "\u2581\u05d4\u05e0\u05d4": 374,
  "\u05d5\u05df": 375,
  "\u2581told": 376,
  "\u2581those": 377,
  "\u2581\u05d9": 378,
  "\u2581last": 379,
  "\u2581\u05e9\u05d5\u05d1": 380,
  "\u2581\u05dc\u05d3\u05d1\u05e8": 381,
  "\u2581put": 382,
  "\u2581\u05e4\u05d4": 383,
  "\u2581away": 384,
  "\u2581years": 385,
  "\u05d1": 386,
  "\u2581\u05e6\u05e8\u05d9\u05db\u05d9\u05dd": 387,
  "\u2581\u05d7\u05d9\u05d9\u05d1": 388,
  "\u2581\u05d4\u05d9\u05d5\u05dd": 389,
  "\u2581\u05e6\u05e8\u05d9\u05db\u05d4": 390,
  "\u2581\u05d0": 391,
  "\u2581guys": 392,
  "\u2581\u05d0\u05d1\u05d0": 393,
  "\u2581\u05ea": 394,
  "\u05da": 395,
  "er": 396,
  "\u2581\u05d1\u05d3\u05d9\u05d5\u05e7": 397,
  "\u2581Your": 398,
  "\u2581Can": 399,
  "\u2581\u05d4\u05d9\u05d9\u05ea": 400,
  "\u2581\u05d9\u05db\u05d5\u05dc\u05d9\u05dd": 401,
  "\u2581Get": 402,
  "\u2581\u05d0\u05d7\u05e8": 403,
  "\u2581\u05d0\u05d7\u05ea": 404,
  "\u2581around": 405,
  "\u2581name": 406,
  "\u2581better": 407,
  "\u2581\u05de\u05e6\u05d8\u05e2\u05e8": 408,
  "\u2581long": 409,
  "\u2581\u05d7\u05e9\u05d1\u05ea\u05d9": 410,
  "\u2581Good": 411,
  "\u2581\u05d1\u05d5": 412,
  "\u2581made": 413,
  "\u2581\u05e9\u05dc\u05d4": 414,
  "\u2581ever": 415,
  "\u2581\u05dc\u05d4\u05dd": 416,
  "\u2581great": 417,
  "\u2581after": 418,
  "\u2581doesn": 419,
  "\u2581\u05e9\u05d0\u05ea": 420,
  "\u2581\u05d0\u05d5\u05d4\u05d1": 421,
  "\u2581\u05dc\u05d6\u05d4": 422,
  "\u2581\u05d0\u05e4\u05d9\u05dc\u05d5": 423,
  "\u2581won": 424,
  "\u2581kind": 425,
  "\u2581place": 426,
  "\u2581When": 427,
  "\u2581\u05d1\u05d5\u05d0": 428,
  "\u2581\u05e9\u05d5\u05dd": 429,
  "\u2581\u05e7\u05e8\u05d4": 430,
  "\u2581feel": 431,
  "\u2581\u05de\u05d3\u05d9": 432,
  "\u2581through": 433,
  "\u2581always": 434,
  "\u2581\u05ea\u05de\u05d9\u05d3": 435,
  "\u2581\u05d0\u05de\u05e8": 436,
  "\u2581keep": 437,
  "\u2581new": 438,
  "\u2581does": 439,
  "\u2581\u05d7\u05d5\u05e9\u05d1\u05ea": 440,
  "\u2581believe": 441,
  "\u05e7": 442,
  "\u2581must": 443,
  "\u2581\u05de\u05ea": 444,
  "\u2581\u05d9\u05d5\u05dd": 445,
  "\u2581\u05d4\u05d5": 446,
  "\u2581lot": 447,
  "\u2581\u05d0\u05de\u05d0": 448,
  "\u2581\u05e9\u05d4\u05dd": 449,
  "\u2581\u05d1\u05df": 450,
  "\u2581being": 451,
  "\u2581\u05d4\u05d0\u05dc\u05d4": 452,
  "\u2581Did": 453,
  "\u2581nothing": 454,
  "\u2581\u05d0\u05d7\u05e8\u05d9": 455,
  "\u2581\u05d1\u05d8\u05d5\u05d7": 456,
  "\u2581done": 457,
  "\u2581\u05d5\u05d0\u05d6": 458,
  "\u2581please": 459,
  "\u2581\u05d1\u05d2\u05dc\u05dc": 460,
  "\u2581everything": 461,
  "\u2581\u05d7\u05d1\u05e8": 462,
  "\u2581wanted": 463,
  "a": 464,
  "\u05e1": 465,
  "\u05d2": 466,
  "\u2581\u05d0\u05d3\u05d5\u05e0\u05d9": 467,
  "\u05d9\u05ea": 468,
  "\u2581might": 469,
  "\u2581\u05e6": 470,
  "\u2581\u05d0\u05d3\u05dd": 471,
  "\u2581\u05e7\u05d5\u05e8\u05d4": 472,
  "\u2581house": 473,
  "\u2581happened": 474,
  "\u2581\u05d4\u05d6\u05de\u05df": 475,
  "\u2581own": 476,
  "e": 477,
  "\u2581money": 478,
  "\u2581\u05d4\u05d6\u05d0\u05ea": 479,
  "\u2581world": 480,
  ";": 481,
  "\u2581Uh": 482,
  "\u2581uh": 483,
  "\u2581\u05e9\u05d0\u05e0\u05d7\u05e0\u05d5": 484,
  "\u2581\u05be": 485,
  "\u2581\u05e8\u05d5\u05d0\u05d4": 486,
  "\u2581\u201c": 487,
  "\u2581Maybe": 488,
  "\u2581\u05d0\u05d9": 489,
  "\u2581which": 490,
  "\u2581talking": 491,
  "\u2581found": 492,
  "\u2581stop": 493,
  "\u2581coming": 494,
  "ly": 495,
  "\u2581\u05db\u05d5\u05dc\u05dd": 496,
  "S": 497,
  "\u2581bad": 498,
  "\u2581\u05d0\u05d9\u05ea\u05da": 499,
  "\u2581hear": 500,
  "\u2581old": 501,
  "\u2581left": 502,
  "\u2581Then": 503,
  "\u2581wrong": 504,
  "\u2581\u05d1\u05d1\u05d9\u05ea": 505,
  "\u2581came": 506,
  "in": 507,
  "\u2581big": 508,
  "\u2581\u05d3\u05d1\u05e8\u05d9\u05dd": 509,
  "\u2581kill": 510,
  "\u2581trying": 511,
  "\u2581\u05d1\u05d8\u05d7": 512,
  "\u2581\u05d3\u05d9": 513,
  "\u2581every": 514,
  "\u2581someone": 515,
  "\u2581\u05d3\u05e8\u05da": 516,
  "\u2581girl": 517,
  "\u2581Please": 518,
  "\u2581course": 519,
  "\u2581\u05d3": 520,
  "\u2581another": 521,
  "\u2581father": 522,
  "\u2581\u05e8\u05d2\u05e2": 523,
  "\u2581hell": 524,
  "\u2581\u05d4\u05d3\u05d1\u05e8": 525,
  "\u2581else": 526,
  "\u2581\u05d1\u05d9\u05d5\u05ea\u05e8": 527,
  "\u2581Go": 528,
  "\u2581understand": 529,
  "\u2581yeah": 530,
  "\u2581getting": 531,
  "\u2581leave": 532,
  "\u2019": 533,
  "\u2581family": 534,
  "\u2581dead": 535,
  "\u2581fine": 536,
  "\u2581three": 537,
  "\u2581may": 538,
  "\u05d0\u05ea\u05d4": 539,
  "\u2581\u05d0\u05d5\u05ea\u05e0\u05d5": 540,
  "\u2581car": 541,
  "\u2581For": 542,
  "\u2581\u05d0\u05e0\u05d5": 543,
  "\u2581\u05dc\u05e2\u05d6\u05d5\u05e8": 544,
  "\u2581\u05de\u05d1\u05d9\u05df": 545,
  "\u2581Because": 546,
  "\u2581enough": 547,
  "\u2581\u05d0\u05de\u05e8\u05ea\u05d9": 548,
  "\u2581\u05e9\u05dc\u05d5\u05dd": 549,
  "\u2581\u05d8\u05d5\u05d1\u05d4": 550,
  "\u2581\u05d0\u05d9\u05d6\u05d4": 551,
  "\u2581looking": 552,
  "\u2581\u05ea\u05e8\u05d0\u05d4": 553,
  "\u2581\u05d4\u05db\u05d9": 554,
  "\u2581care": 555,
  "\u2581same": 556,
  "\u2581\u05d0\u05d5\u05e7\u05d9\u05d9": 557,
  "\u2581\u05e0": 558,
  "\u2581sir": 559,
  "\u2581\u05d0\u05dc\u05d4": 560,
  "\u2581\u05d1\u05d5\u05d0\u05d5": 561,
  "\u2581\u05d1\u05d6\u05d4": 562,
  "\u2581To": 563,
  "\u2581ask": 564,
  "\u2581went": 565,
  "\u2581wasn": 566,
  "\u2581\u05dc\u05db\u05dd": 567,
  "\u2581\u05db\u05e9": 568,
  "\u2581Here": 569,
  "\u2581\u05de\u05e1\u05e4\u05d9\u05e7": 570,
  "\u2581\u05dc\u05d3\u05e2\u05ea": 571,
  "\u2581\u05ea\u05d4\u05d9\u05d4": 572,
  "\u2581\u05d0\u05da": 573,
  "\u2581i": 574,
  "\u2581isn": 575,
  "\u2581\u05d1\u05e9\u05d1\u05d9\u05dc": 576,
  "\u2581\u05dc\u05e7\u05d7\u05ea": 577,
  "\u2581real": 578,
  "\u2581Right": 579,
  "\u2581many": 580,
  "\u2581job": 581,
  "\u2581son": 582,
  "\u2581\u05de\u05e7\u05d5\u05dd": 583,
  "\u2581\u05e9\u05e0\u05d9": 584,
  "\u2581\u05d9\u05d5\u05d3\u05e2\u05d9\u05dd": 585,
  "\u2581best": 586,
  "\u2581today": 587,
  "\u05de": 588,
  "\u2581\u05de\u05ea\u05db\u05d5\u05d5\u05df": 589,
  "\u2581friend": 590,
  "\u2581saw": 591,
  "\u2581show": 592,
  "\u2581together": 593,
  "\u2581\u05de\u05d6\u05d4": 594,
  "\u2581\u05d1\u05d4": 595,
  "\u2581\u05d5\u05d6\u05d4": 596,
  "\u2581\u05e9\u05e0\u05d9\u05dd": 597,
  "\u2581wait": 598,
  "\u2581\u2014": 599,
  "\u2581mother": 600,
  "\u2581\u05db\u05d6\u05d4": 601,
  "\u2581fucking": 602,
  "\u2581maybe": 603,
  "\u2581remember": 604,
  "\u2581\u05ea\u05df": 605,
  "\u2581\u05d1\u05d9": 606,
  "\u2581yourself": 607,
  "\u2581next": 608,
  "\u2581\u05dc\u05e7\u05d1\u05dc": 609,
  "\u2581\u05dc\u05d5\u05de\u05e8": 610,
  "\u2581\u05d5\u05dc\u05d0": 611,
  "\u2581mind": 612,
  "\u2581\u05e7\u05e9\u05d4": 613,
  "\u2581stay": 614,
  "\u2581called": 615,
  "\u2581wanna": 616,
  "\u2581\u05d5\u05dc": 617,
  "\u2581\u05d0\u05d9\u05ea\u05d9": 618,
  "\u2581idea": 619,
  "\u2581baby": 620,
  "\u2581\u05db\u05db\u05d4": 621,
  "\u2581\u05d0\u05e4\u05e9\u05e8": 622,
  "\u2581\u05d0\u05d5\u05db\u05dc": 623,
  "\u2581One": 624,
  "\u2581took": 625,
  "\u2581\u05d4\u05d9\u05ea\u05d4": 626,
  "\u2581knew": 627,
  "\u2581\u05d1\u05d0": 628,
  "\u2581Wait": 629,
  "\u2581whole": 630,
  "\u2581\u05d2\u05d3\u05d5\u05dc": 631,
  "\u2581\u05dc\u05de\u05e6\u05d5\u05d0": 632,
  "\u2581gotta": 633,
  "\u2581used": 634,
  "\u2581head": 635,
  "\u2581--": 636,
  "\u2581\u05d4\u05de": 637,
  "\u2581\u202b": 638,
  "\u2581Thanks": 639,
  "\u2581\u05db\u05d0\u05d9\u05dc\u05d5": 640,
  "\u2581\u05d1\u05dc\u05d9": 641,
  "\u2581\u05e9\u05dc\u05d4\u05dd": 642,
  "\u2581room": 643,
  "\u2581\u05d4\u05d6\u05d5": 644,
  "\u2581shit": 645,
  "\u2581nice": 646,
  "\u05d0\u05ea": 647,
  "\"?": 648,
  "\u2581\u05e2\u05dc\u05d9\u05d9": 649,
  "\u2581\u05db\u05dc\u05d5\u05dd": 650,
  "\u2581\u05dc\u05db\u05d0\u05df": 651,
  "\u2581\u05dc\u05d4\u05d2\u05d9\u05d3": 652,
  "\u2581\u05d4\u05d1\u05d9\u05ea\u05d4": 653,
  "\u2581already": 654,
  "\u2581\u05d1\u05d9\u05ea": 655,
  "\u2581Hello": 656,
  "\u2581try": 657,
  "\u2581also": 658,
  "\u2581seen": 659,
  "\u2581actually": 660,
  "\u2581heard": 661,
  "\u2581use": 662,
  "\u05d9\u05d4": 663,
  "\u2581saying": 664,
  "\u25811": 665,
  "\u2581\u05e2\u05dc\u05d9\u05d5": 666,
  "\u2581most": 667,
  "\u2581wouldn": 668,
  "\u2581guess": 669,
  "\u2581\u05d5\u05d0\u05ea": 670,
  "\u2581\u05e2\u05d1\u05d5\u05e8": 671,
  "\u2581\u05dc\u05d1": 672,
  "\u2581ago": 673,
  "\u2581\u05de\u05d3\u05d1\u05e8": 674,
  "o": 675,
  "\u2581boy": 676,
  "\u2581\u05d5\u05d4\u05d5\u05d0": 677,
  "\u2581woman": 678,
  "\u2581\u05de\u05e0\u05e1\u05d4": 679,
  "\u258110": 680,
  "\u2581\u05dc\u05db\u05dc": 681,
  "\u2581\u05dc\u05ea\u05ea": 682,
  "\u2581without": 683,
  "\u2581killed": 684,
  "\u2581hard": 685,
  "\u2581\u05d5\u05d0\u05ea\u05d4": 686,
  "\u2581start": 687,
  "\u2581pretty": 688,
  "\u2581move": 689,
  "\u2581problem": 690,
  "\u2581few": 691,
  "\u2581live": 692,
  "\u05e9": 693,
  "\u2581As": 694,
  "\u2581\u05db\u05d0\u05e9\u05e8": 695,
  "\u2581Sorry": 696,
  "n": 697,
  "\u2581wife": 698,
  "\u2581Of": 699,
  "\u2581school": 700,
  "\u2581\u05d9\u05e4\u05d4": 701,
  "\u2581\u05e8\u05d0\u05d9\u05ea\u05d9": 702,
  "\u2581yet": 703,
  "\u05d7": 704,
  "\u2581days": 705,
  "\u2581men": 706,
  "\u2581\u05d4\u05d0\u05de\u05ea": 707,
  "\u2581end": 708,
  "\u2581\u05dc\u05e2\u05d5\u05dc\u05dd": 709,
  "\u2581\u05e8\u05d5\u05e6\u05d9\u05dd": 710,
  "\u2581both": 711,
  "\u2581\u05d0\u05d5\u05de\u05e8\u05ea": 712,
  "\u2581morning": 713,
  "\u2581says": 714,
  "\u2581while": 715,
  "i": 716,
  "\u2581\u05d9\u05d4\u05d5\u05d4": 717,
  "\u2581#": 718,
  "\u2581part": 719,
  "\u2581\u05d0\u05d7\u05d9": 720,
  "\u2581\u05de\u05e1\u05e4\u05e8": 721,
  "\u2581Or": 722,
  "\u2581meet": 723,
  "\u2581\u05de\u05d5\u05ea\u05e7": 724,
  "\u2581\u05d4\u05d1\u05d7\u05d5\u05e8": 725,
  "\u2581\u05de\u05e6\u05d8\u05e2\u05e8\u05ea": 726,
  "\u2581\u05de\u05de\u05e0\u05d9": 727,
  "\u2581ready": 728,
  "\u2581\u05d4\u05dc\u05d9\u05dc\u05d4": 729,
  "\u2581case": 730,
  "\u2581\u05d9\u05dc\u05d3": 731,
  "\u2581Jehovah": 732,
  "\u2581friends": 733,
  "\u2581\u05d0\u05d5\u05d4\u05d1\u05ea": 734,
  "\u2581such": 735,
  "\u258120": 736,
  "\u2581\u05db\u05de\u05d5\u05d1\u05df": 737,
  "\u2581Jesus": 738,
  "A": 739,
  "\u2581\u05e2\u05d5\u05e9\u05d9\u05dd": 740,
  "al": 741,
  "\u2581\u05d1\u05d3\u05e8\u05da": 742,
  "\u2581\u05d9\u05d3\u05d9": 743,
  "\u2581\u05dc\u05e9\u05dd": 744,
  "\u2581\u05de\u05ea\u05d9": 745,
  "\u2581\u05d4\u05d5\u05dc\u05db\u05d9\u05dd": 746,
  "\u2581\u05e0\u05d4\u05d3\u05e8": 747,
  "\u2581Like": 748,
  "\u2581second": 749,
  "\u2581\u05dc\u05dc\u05d0": 750,
  "\u2581under": 751,
  "\u2581\u05d6\u05d4\u05d5": 752,
  "\u05e0\u05d9": 753,
  "\u2581until": 754,
  "\u2581\u05db\u05e1\u05e3": 755,
  "\u2581See": 756,
  "\u2581wants": 757,
  "\u2581\u05e2\u05d1\u05d5\u05d3\u05d4": 758,
  "\u2581fuck": 759,
  "\u2581person": 760,
  "\u2581gone": 761,
  "\u2581face": 762,
  "\u2581myself": 763,
  "\u2581phone": 764,
  "\u2581\u05d1\u05e0\u05d9": 765,
  "\u2581year": 766,
  "\u2581\u05dc\u05d2\u05d1\u05d9": 767,
  "\u05d0\u05dc": 768,
  "\u2581Have": 769,
  "\u05dc\u05d4": 770,
  "\u2581run": 771,
  "\u2581matter": 772,
  "\u05db\u05da": 773,
  "\u2581\u05de\u05e8\u05d2\u05d9\u05e9": 774,
  "\u25812": 775,
  "\u2581\u05d7\u05dc\u05e7": 776,
  "\u2581working": 777,
  "\u2581\u05de\u05e2\u05d5\u05dc\u05dd": 778,
  "\u2581having": 779,
  "r": 780,
  "\u2581\u05e2\u05e9\u05d4": 781,
  "\u2581\u05de\u05d5\u05db\u05df": 782,
  "\u2581\u05e2\u05dc\u05d9\u05da": 783,
  "\u2581\u05ea\u05d2\u05d9\u05d3": 784,
  "\u2581\u05e8\u05e2": 785,
  "\u2581\u05d1\u05d9\u05df": 786,
  "\u05c3": 787,
  "\u2581anyone": 788,
  "\u2581\u05e0\u05de\u05e6\u05d0": 789,
  "\u2581\u05de\u05db\u05d0\u05df": 790,
  "\u2581brother": 791,
  "\u2581play": 792,
  "\u2581thinking": 793,
  "\u2581haven": 794,
  "\u2581tonight": 795,
  "\u2581\u05d1\u05da": 796,
  "\u2581Dr": 797,
  "\u05d9\u05e9": 798,
  "\u2581\u05e0\u05d7\u05de\u05d3": 799,
  "\u2581stuff": 800,
  "\u2581\u05d0\u05db\u05e4\u05ea": 801,
  "\u2581\u05e2\u05d5\u05d1\u05d3": 802,
  "\u05d4\u05d5\u05d0": 803,
  "\u25813": 804,
  "\u05d8": 805,
  "\u2581hand": 806,
  "\u2581\u05d0\u05d9\u05e9": 807,
  "\u05d0": 808,
  "\u2581bit": 809,
  "\u2581means": 810,
  "\u2581\u05e0\u05d5\u05db\u05dc": 811,
  "\u2581hope": 812,
  "\u2581Take": 813,
  "\u2581deal": 814,
  "\u2581bring": 815,
  "\u2581alone": 816,
  "\u2581\u05dc\u05d0\u05d7\u05e8": 817,
  "\u2581\u05dc\u05e6\u05d0\u05ea": 818,
  "\u2581\u05d0\u05de\u05e8\u05ea": 819,
  "\u2581dad": 820,
  "\u2581\u05d1\u05d5\u05d0\u05d9": 821,
  "\u2581\u05d1\u05d6\u05de\u05df": 822,
  "\u2581each": 823,
  "\u2581lost": 824,
  "\u2581kids": 825,
  "\u2581\u05d5\u05d1": 826,
  "\u2581\u05e8\u05e6\u05d9\u05ea\u05d9": 827,
  "\u2581kid": 828,
  "\u05d3": 829,
  "l": 830,
  "\u2581true": 831,
  "\u2581\u05e1\u05dc\u05d9\u05d7\u05d4": 832,
  "\u2581\u05dc\u05e1\u05e4\u05e8": 833,
  "\u2581\u05d4\u05d7\u05d9\u05d9\u05dd": 834,
  "\u2581Dad": 835,
  "\u2581\u05e9\u05d1": 836,
  "\u2581\u05d4\u05df": 837,
  "\u2581Tell": 838,
  "\u2581die": 839,
  "\u2581couldn": 840,
  "\u2581since": 841,
  "\u2581\u05de\u05d4\u05e8": 842,
  "\u2581happy": 843,
  "\u2581once": 844,
  "\u2581gave": 845,
  "\u2581\u05d0\u05d9\u05ea\u05d5": 846,
  "\u2581heart": 847,
  "\u2581\u05e9\u05e0\u05d4": 848,
  "D": 849,
  "\u05de\u05d9": 850,
  "\u2581business": 851,
  "T": 852,
  "\u2581point": 853,
  "\u2581happen": 854,
  "\u2581door": 855,
  "\u2581Really": 856,
  "\u2581\u05d1\u05de\u05e7\u05d5\u05dd": 857,
  "\u2581\u05e2\u05e9\u05d9\u05ea\u05d9": 858,
  "\u2581\u05d4\u05d1\u05d0": 859,
  "\u2581\u05d3\u05e7\u05d5\u05ea": 860,
  "\u2581\u05e9\u05d9": 861,
  "\u2581\u05d7\u05d9\u05d9\u05dd": 862,
  "\u2581\u05e0\u05e9\u05de\u05e2": 863,
  "\u2581\u05d1\u05e9\u05d1\u05d9\u05dc\u05da": 864,
  "\u2581mom": 865,
  "\u2581\u05e1\u05d5\u05e3": 866,
  "\u2581\u05db\u05d3\u05d0\u05d9": 867,
  "\u2581supposed": 868,
  "\u2581\u05de\u05d7\u05e8": 869,
  "\u2581S": 870,
  "\u2581\u05e9\u05dc\u05db\u05dd": 871,
  "\u2581\u05d0\u05de\u05d5\u05e8": 872,
  "\u2581\u05de\u05db\u05d9\u05e8": 873,
  "\u2581\u05e9\u05ea": 874,
  "\u2581\u05de\u05e9\u05e0\u05d4": 875,
  "\u2581Stop": 876,
  "\u2581\u05d1\u05db\u05dc\u05dc": 877,
  "\u2581\u05dc\u05d7\u05d6\u05d5\u05e8": 878,
  "\u2581minutes": 879,
  "\u2581\u05e2\u05e9\u05d9\u05ea": 880,
  "\u2581probably": 881,
  "\u2581\u05d7\u05db\u05d4": 882,
  "\u05d1\u05e1\u05d3\u05e8": 883,
  "\u2581\u05d1\u05ea": 884,
  "th": 885,
  "\u2581times": 886,
  "\u2581\u05d0\u05e9\u05e8": 887,
  "\u2581\u05d1\u05e2\u05d9\u05d4": 888,
  "\u2581open": 889,
  "\u2581taking": 890,
  "\u05d9\u05d5": 891,
  "\u258115": 892,
  "\u05d1\u05d9": 893,
  "\u2581change": 894,
  "\u2581\u05e0\u05dc\u05da": 895,
  "\u2581later": 896,
  "\u2581yes": 897,
  "\u2581turn": 898,
  "\u2581\u05d4\u05e8\u05d0\u05e9\u05d5\u05df": 899,
  "\u2581\u05d4\u05e2\u05d5\u05dc\u05dd": 900,
  "\u2581thank": 901,
  "man": 902,
  "\u2581\u05d2\u05d1\u05e8": 903,
  "\u2581huh": 904,
  "\u2581)": 905,
  "\u2581\u05d7\u05d9\u05d9\u05d1\u05ea": 906,
  "\u2581\u05dc\u05d0\u05df": 907,
  "\u2581\u05d4\u05d1\u05d9\u05ea": 908,
  "\u2581\u05de\u05d0\u05de\u05d9\u05df": 909,
  "\u2581\u05d1\u05d7\u05d5\u05e8": 910,
  "\u2581Hi": 911,
  "\u2581\u05dc\u05de\u05e2\u05e9\u05d4": 912,
  "\u05d9\u05d9": 913,
  "\u2581far": 914,
  "\u2581listen": 915,
  "\u2581\u05dc\u05d4\u05e8\u05d5\u05d2": 916,
  "\u2581Listen": 917,
  "\u2581\u05d7\u05d9\u05d9\u05d1\u05d9\u05dd": 918,
  "\u2581against": 919,
  "\u2581\u05e9\u05de\u05d7": 920,
  "\u2581death": 921,
  "\u2581word": 922,
  "\u2581making": 923,
  "\u2581\u05d9\u05d3\u05e2\u05ea\u05d9": 924,
  "\u2581different": 925,
  "\u2581\u05e7\u05d5\u05d3\u05dd": 926,
  "\u2581\u05e2\u05dc\u05d9": 927,
  "\u2581everyone": 928,
  "\u2581worry": 929,
  "\u2581makes": 930,
  "\u2581\u05d4\u05d3\u05d1\u05e8\u05d9\u05dd": 931,
  "\u2581\u05d6\u05d5\u05db\u05e8": 932,
  "\u2581\u05d4\u05d0\u05e0\u05e9\u05d9\u05dd": 933,
  "\u2581crazy": 934,
  "\u2581\u05de\u05de\u05da": 935,
  "\u2581set": 936,
  "\u2581late": 937,
  "\u25815": 938,
  "\u05d9\u05df": 939,
  "\u2581blood": 940,
  "\u2581\u05d7\u05e9\u05d5\u05d1": 941,
  "\u2581body": 942,
  "\u2581\u05e0\u05d5": 943,
  "\u2581hurt": 944,
  "\u05d9\u05d5\u05ea": 945,
  "\u2581At": 946,
  "\u2581soon": 947,
  "es": 948,
  "\u2581\u05d2\u05d1\u05e8\u05ea": 949,
  "\u2581\u05d4\u05d2\u05d9\u05e2": 950,
  "\u2581number": 951,
  "\u2581Mom": 952,
  "em": 953,
  "\u2581C": 954,
  "\u2581tomorrow": 955,
  "\u2581\u05e7\u05dc": 956,
  "\u2581\u05d4\u05d5\u05dc\u05db\u05ea": 957,
  "\u2581\u05d4\u05de\u05e7\u05d5\u05dd": 958,
  "\u2581D": 959,
  "\u2581\u05d1\u05d7\u05d9\u05d9\u05dd": 960,
  "\u05d0\u05d5": 961,
  "\u2581\u05ea\u05d5\u05db\u05dc": 962,
  "\u2581\u05de\u05d0\u05d6": 963,
  "\u05e0\u05d4": 964,
  "\u2581asked": 965,
  "\u2581\u05dc\u05d1\u05d3": 966,
  "\u2581minute": 967,
  "\u2581\u05d9\u05dc\u05d3\u05d9\u05dd": 968,
  "\u2581\u05d4\u05d9\u05d9\u05e0\u05d5": 969,
  "\u2581five": 970,
  "\u2581inside": 971,
  "\u2581\u05d4\u05d0": 972,
  "\u2581\u05d4\u05ea": 973,
  "\u2581\u05e2": 974,
  "\u2581\u05d0\u05dc\u05d0": 975,
  "\u2581OK": 976,
  "\u2581game": 977,
  "\u2581\u05de\u05e7\u05d5\u05d5\u05d4": 978,
  "\u2581water": 979,
  "\u2581truth": 980,
  "\u2581exactly": 981,
  "\u05db": 982,
  "\u2581\u05db\u05de\u05e2\u05d8": 983,
  "\u2581\u05de\u05e0\u05d9\u05d7": 984,
  "\u2581Give": 985,
  "\u2581hours": 986,
  "\u2581chance": 987,
  "\u2581\u05e0\u05e2\u05e9\u05d4": 988,
  "\u2581\u05d4\u05d3\u05e8\u05da": 989,
  "\u2581\u05dc\u05d1\u05d5\u05d0": 990,
  "\u2581least": 991,
  "\u2581\u05e7\u05d8\u05df": 992,
  "\u2581\u05d1\u05de\u05e9\u05da": 993,
  "\u2581\u05d4\u05e1\u05e4\u05e8": 994,
  "\u2581\u05d4\u05e9\u05e0\u05d9": 995,
  "\u2581close": 996,
  "\u2581hit": 997,
  "\u2581story": 998,
  "\u2581\u05db\u05e0\u05e8\u05d0\u05d4": 999,
  "\u05e0\u05d9\u05dd": 1000,
  "\u2581\u05dc\u05d7\u05e9\u05d5\u05d1": 1001,
  "\u2581\u05d1\u05d7\u05d6\u05e8\u05d4": 1002,
  "\u2581important": 1003,
  "\u2581children": 1004,
  "\u2581\u05d4\u05d7\u05d5\u05e6\u05d4": 1005,
  "\u2581ain": 1006,
  "\u2581fun": 1007,
  "\u2581looks": 1008,
  "\u2581\u05e9\u05e0": 1009,
  "\u2581\u05ea\u05e2\u05e9\u05d4": 1010,
  "\u2581side": 1011,
  "\u2581hands": 1012,
  "\u2581\u05d4\u05db\u05e1\u05e3": 1013,
  "\u2581\u05d9\u05d7\u05d3": 1014,
  "\u2581week": 1015,
  "\u05d4\u05d9\u05d9": 1016,
  "\u2581Nothing": 1017,
  "\u2581reason": 1018,
  "\u2581read": 1019,
  "\u2581\u05e4\u05d9": 1020,
  "\u2581\u05d4\u05e2\u05d1\u05d5\u05d3\u05d4": 1021,
  "\u2581\u05d1\u05d7\u05d9\u05d9\u05da": 1022,
  "\u2581His": 1023,
  "\u2581\u05d0\u05d7\u05e8\u05ea": 1024,
  "\u2581hold": 1025,
  "\u2581\u05d4\u05e8\u05d0\u05e9\u05d5\u05e0\u05d4": 1026,
  "\u2581*": 1027,
  "\u2581shot": 1028,
  "C": 1029,
  "\u2581With": 1030,
  "\u2581\u05de\u05d0\u05d5\u05d7\u05e8": 1031,
  "\u2581Excuse": 1032,
  "\u2581\u05dc\u05d2\u05de\u05e8\u05d9": 1033,
  "\u2581\u05dc\u05d1\u05d9\u05ea": 1034,
  "\u2581party": 1035,
  "\u2581\u05d4\u05db\u05d5\u05dc": 1036,
  "\u2581\u05d5\u05de": 1037,
  "\u2581check": 1038,
  "\u2581between": 1039,
  "\u2581eyes": 1040,
  "\u2581\u05e1\u05e4\u05e8": 1041,
  "\u2581\u05db\u05dc\u05d5\u05de\u05e8": 1042,
  "\u2581).": 1043,
  "\u2581\u05d0\u05de\u05e8\u05d4": 1044,
  "\u2581B": 1045,
  "\u2581\u05e2\u05dc\u05d9\u05e0\u05d5": 1046,
  "\u2581\u05de\u05d4\u05dd": 1047,
  "\u2581\u05dc\u05d4\u05d2\u05d9\u05e2": 1048,
  "\u2581high": 1049,
  "\u2581started": 1050,
  "\u2581rest": 1051,
  "\u2581\u05de\u05d3\u05d5\u05e2": 1052,
  "\u2581question": 1053,
  "\u2581\u05de\u05d2\u05d9\u05e2": 1054,
  "\u2581\u05e8\u05d1": 1055,
  "\u2581gets": 1056,
  "\u2581\u05dc\u05e2\u05d1\u05d5\u05d3": 1057,
  "\u2581husband": 1058,
  "\u2581\u05d0\u05dc\u05d5": 1059,
  "\u2581\u05d1\u05d0\u05d5\u05e4\u05df": 1060,
  "\u2581New": 1061,
  "\u2581office": 1062,
  "\u2581\u05d3\u05d5\u05dc\u05e8": 1063,
  "\u2581four": 1064,
  "\u2581daughter": 1065,
  "\u2581\u05e2\u05e6\u05de\u05da": 1066,
  "\u2581able": 1067,
  "\u2581\u05d7\u05d3\u05e9": 1068,
  "\u05d0\u05d6": 1069,
  "\u2581\u05e9\u05ea\u05d9": 1070,
  "\u258112": 1071,
  "\u05db\u05d9": 1072,
  "\u2581pay": 1073,
  "\u2581\u05e9\u05de\u05e2\u05ea\u05d9": 1074,
  "\u2581\u05d1\u05d8\u05d5\u05d7\u05d4": 1075,
  "\u2581\u05d4\u05d4": 1076,
  "\u2581needs": 1077,
  "\u05e6": 1078,
  "\u2581\u05dc\u05e9\u05de\u05d5\u05e2": 1079,
  "\u05ea\u05d5\u05d3\u05d4": 1080,
  "\u2581\u05e9\u05d1\u05d5": 1081,
  "on": 1082,
  "\u2581couple": 1083,
  "\u2581though": 1084,
  "\u2581anymore": 1085,
  "\u2581\u05de\u05e7\u05d1\u05dc": 1086,
  "\u05dc\u05d9": 1087,
  "\u2581\u05d1\u05e8\u05d5\u05e8": 1088,
  "\u2581fight": 1089,
  "\u258130": 1090,
  "\u2581watch": 1091,
  "\u2581telling": 1092,
  "\u2581comes": 1093,
  "\u2581]": 1094,
  "\u2581eat": 1095,
  "\u258118": 1096,
  "\u2581beautiful": 1097,
  "\u2581\u05dc\u05e4\u05d7\u05d5\u05ea": 1098,
  "\u2581On": 1099,
  "\u2581trust": 1100,
  "\u2581\u05db\u05e4\u05d9": 1101,
  "\u2581O": 1102,
  "\u25814": 1103,
  "\u2581ass": 1104,
  "\u2581\u05e9\u05d4\u05d9\u05d4": 1105,
  "\u2581young": 1106,
  "\u2581town": 1107,
  "\u2581\u05dc\u05d9\u05dc\u05d4": 1108,
  "\u05d8\u05d5\u05d1": 1109,
  "\u2581mine": 1110,
  "\u2581\u05d0\u05dc\u05d9\u05d9": 1111,
  "\u2581\u05d5\u05de\u05d4": 1112,
  "\u2581\u05db\u05e2\u05ea": 1113,
  "\u2581\u05d1\u05e8\u05d2\u05e2": 1114,
  "\u2581tried": 1115,
  "\u2581\u05e7\u05e9\u05e8": 1116,
  "M": 1117,
  "\u2581\u05ea\u05e8\u05d0\u05d9": 1118,
  "\u2581\u05d5\u05d0\u05dd": 1119,
  "\u2581\u05d0\u05dc\u05d9\u05da": 1120,
  "\u2581\u05e9\u05dc\u05d5\u05e9": 1121,
  "\u2581died": 1122,
  "\u2581\u05d0\u05d4\u05d9\u05d4": 1123,
  "\u2581\u05dc\u05de\u05d8\u05d4": 1124,
  "\u2581Will": 1125,
  "\u2581\u05d0\u05d9\u05e9\u05d4": 1126,
  "\u2581Sure": 1127,
  "\u2581news": 1128,
  "\u2581\u05de\u05d5\u05d6\u05e8": 1129,
  "\u2581\u05d4\u05e2\u05e8\u05d1": 1130,
  "\u2581T": 1131,
  "E": 1132,
  "\u2581\u05d6": 1133,
  "\u2581half": 1134,
  "\u2581easy": 1135,
  "\u2581behind": 1136,
  "\u2581power": 1137,
  "\u2581These": 1138,
  "\u2581\u05dc\u05de\u05e2\u05dc\u05d4": 1139,
  "\u2581\u05e9\u05e2\u05d5\u05ea": 1140,
  "\u2581line": 1141,
  "\u2581goes": 1142,
  "\u2581\u05e9\u05d0": 1143,
  "\u2581\u05e2\u05e8\u05d1": 1144,
  "\u2581met": 1145,
  "\u2581months": 1146,
  "\u2581fire": 1147,
  "\u2581\u05dc\u05d4\u05d1\u05d9\u05d0": 1148,
  "\u2581police": 1149,
  "c": 1150,
  "\u2581\u05d4\u05e2\u05d9\u05e8": 1151,
  "u": 1152,
  "\u2581\u05de\u05e7\u05e8\u05d4": 1153,
  "\u2581\u05de\u05d1\u05d9\u05e0\u05d4": 1154,
  "\u2581break": 1155,
  "\u2581sleep": 1156,
  "\u2581walk": 1157,
  "\u2581\u05d1\u05d4\u05d7\u05dc\u05d8": 1158,
  "\u2581\u05de\u05d6\u05dc": 1159,
  "\u2581\u05de\u05d5\u05e9\u05d2": 1160,
  "\u2581\u2013": 1161,
  "\u2581safe": 1162,
  "\u2581gun": 1163,
  "\u2581\u05e1\u05d5\u05d2": 1164,
  "\u2581\u05d4\u05d9": 1165,
  "\u2581moment": 1166,
  "\u2581plan": 1167,
  "\u2581afraid": 1168,
  "\u2581somebody": 1169,
  "\u2581\u05d5\u05d5\u05d0\u05d5": 1170,
  "\u2581Um": 1171,
  "\u05e3": 1172,
  "\u2581full": 1173,
  "\u2581\u05dc\u05d4\u05d9\u05e9\u05d0\u05e8": 1174,
  "to": 1175,
  "\u2581\u05d1\u05ea\u05d5\u05da": 1176,
  "\u2581hey": 1177,
  "\u2581fact": 1178,
  "\u2581hate": 1179,
  "\u2581\u05d1\u05d7\u05d5\u05e5": 1180,
  "\u2581\u05d1\u05e2\u05d5\u05dc\u05dd": 1181,
  "\u2581brought": 1182,
  "\u2581\u05d1\u05d9\u05d5\u05dd": 1183,
  "\u2581\u05d4\u05d0\u05d3\u05dd": 1184,
  "\u2581\u05d1\u05e9\u05d1\u05d9\u05dc\u05d9": 1185,
  "\u2581\u05d7\u05d9": 1186,
  "\u2581wish": 1187,
  "\u2581shall": 1188,
  "\u2581team": 1189,
  "\u2581free": 1190,
  "\u2581P": 1191,
  "\u2581\u05d0\u05d7\u05e8\u05d9\u05dd": 1192,
  "\u2581\u05d9\u05de\u05d9\u05dd": 1193,
  "or": 1194,
  "am": 1195,
  "\u05d4\u05dd": 1196,
  "\u2581\u05d0\u05ea\u05de\u05d5\u05dc": 1197,
  "\u05e8\u05d9": 1198,
  "\u05e1\u05d9": 1199,
  "it": 1200,
  "\u2581John": 1201,
  "\u2581book": 1202,
  "\u2581\u05db\u05d5\u05dc\u05e0\u05d5": 1203,
  "\u2581E": 1204,
  "\u2581\u05d4\u05d0\u05d7\u05e8\u05d5\u05df": 1205,
  "\u2581drink": 1206,
  "\u2581\u05d1\u05d9\u05d7\u05d3": 1207,
  "\u05e4\u05d9": 1208,
  "\u2581cut": 1209,
  "\u2581\u05d7\u05d1\u05e8\u05d9\u05dd": 1210,
  "\u05d6": 1211,
  "\u2581\u05d5\u05ea": 1212,
  "\u2581\u05d0\u05ea\u05df": 1213,
  "\u2581um": 1214,
  "\u05d0\u05d9": 1215,
  "\u05e2\u05dc": 1216,
  "cause": 1217,
  "\u2581child": 1218,
  "\u2581married": 1219,
  "\u2581whatever": 1220,
  "\u2581\u05de\u05e1": 1221,
  "\u2581parents": 1222,
  "\u05db\u05dd": 1223,
  "\u2581\u05dc\u05db\u05df": 1224,
  "\u2581Our": 1225,
  "\u2581sister": 1226,
  "\u2581\u05d1\u05dc\u05ea\u05d9": 1227,
  "\u2581city": 1228,
  "\u2581\u05d1\u05dc\u05d9\u05dc\u05d4": 1229,
  "\u2581\u05d0\u05dc\u05d9\u05d5": 1230,
  "\u2581waiting": 1231,
  "\u2581\u05d5\u05d4\u05d9\u05d0": 1232,
  "\u2581\u05de\u05de\u05e0\u05d5": 1233,
  "\u2581\u05de\u05df": 1234,
  "\u2581speak": 1235,
  "\u2581\u05dc\u05e9\u05de\u05d5\u05e8": 1236,
  "\u05d5\u05e0\u05d9": 1237,
  "\u2581alive": 1238,
  "\u2581\u05dc\u05e9\u05d0\u05d5\u05dc": 1239,
  "\u2581\u05d4\u05e9\u05dd": 1240,
  "\u2581\u05d4\u05d0\u05d9\u05e9": 1241,
  "\u2581\u05d0\u05d5\u05d9": 1242,
  "\u2581Mrs": 1243,
  "\u2581\u05d1\u05e2\u05d5\u05d3": 1244,
  "\u2581front": 1245,
  "\u2581\u05d8": 1246,
  "\u2581Great": 1247,
  "\u2581food": 1248,
  "\u2581save": 1249,
  "\u2581\u05d4\u05d9\u05dc\u05d3": 1250,
  "\u2581Which": 1251,
  "\u2581\u05d4\u05dc\u05d5": 1252,
  "\u2581Me": 1253,
  "\u2581\u05de\u05db\u05dc": 1254,
  "\u2581\u05d4\u05d9\u05db\u05df": 1255,
  "P": 1256,
  "\u2581\u05dc\u05de\u05e2\u05df": 1257,
  "\u2581clear": 1258,
  "\u2581\u05d7": 1259,
  "\u2581\u05dc\u05d4\u05d1\u05d9\u05df": 1260,
  "\u2581cool": 1261,
  "\u2581sit": 1262,
  "\u2581girls": 1263,
  "\u2581almost": 1264,
  "\u2581answer": 1265,
  "\u2581Ah": 1266,
  "\u2581\u05d0\u05e2\u05e9\u05d4": 1267,
  "\u2581\u05d0\u05dc\u05d9": 1268,
  "\u2581\u05e8\u05d0\u05d9\u05ea": 1269,
  "\u2581\u05d4\u05d0\u05dc\u05d5": 1270,
  "\u2581\u05d1\u05e7\u05e9\u05e8": 1271,
  "\u2581everybody": 1272,
  "\u2581Be": 1273,
  "\u05dc\u05de\u05d4": 1274,
  "\u2581\u05d0\u05d9\u05ea\u05d4": 1275,
  "\u2581either": 1276,
  "en": 1277,
  "the": 1278,
  "\u2581\u05e9\u05de": 1279,
  "\u2581women": 1280,
  "\u2581\u05d8\u05d5\u05d1\u05d9\u05dd": 1281,
  "\u2581un": 1282,
  "\u2581\u05e2\u05dc\u05d9\u05d4": 1283,
  "\u2581\u05e7": 1284,
  "\u2581\u05d9\u05d4\u05d9\u05d5": 1285,
  "\u2581\u05e2\u05e6\u05de\u05d9": 1286,
  "\u2581\u05d1\u05d7\u05d3\u05e8": 1287,
  "\u2581G": 1288,
  "\u05d0\u05dd": 1289,
  "\u2581\u05db\u05e8\u05d2\u05e2": 1290,
  "\u2581\u05e2\u05d5\u05de\u05d3": 1291,
  "\u2581human": 1292,
  "\u2581outside": 1293,
  "\u2581war": 1294,
  "\u2581stand": 1295,
  "\u05de\u05df": 1296,
  "\u2581lives": 1297,
  "\u2581Bible": 1298,
  "\u2581\u05e8\u05d1\u05d4": 1299,
  "\u2581\u05d7\u05d6\u05e8\u05d4": 1300,
  "\u2581\u05dc\u05e4\u05d9": 1301,
  "\u2581\u05d4\u05d9\u05d7\u05d9\u05d3": 1302,
  "\u2581\u05d1\u05d5\u05e7\u05e8": 1303,
  "\u2581Would": 1304,
  "\u2581sent": 1305,
  "\u2581stupid": 1306,
  "\u2581Some": 1307,
  "\u2581\u05ea\u05d7\u05ea": 1308,
  "\u2581\u05d4\u05d1\u05e2\u05d9\u05d4": 1309,
  "\u2581\u05ea\u05e7\u05e9\u05d9\u05d1": 1310,
  "\u2581\u05e8\u05d0\u05e9": 1311,
  "\u2581himself": 1312,
  "\u2581\u05d4\u05d0\u05d7\u05e8\u05d5\u05e0\u05d4": 1313,
  "\u2581\u05d5\u05e2\u05db\u05e9\u05d9\u05d5": 1314,
  "\u2581\u05dc\u05e4\u05e2\u05de\u05d9\u05dd": 1315,
  "\u2581\u05d4\u05d7\u05d1\u05e8": 1316,
  "\u2581pick": 1317,
  "\u2581\u05d9\u05e7\u05e8\u05d4": 1318,
  "\u2581trouble": 1319,
  "\u2581\u05d2\u05d3\u05d5\u05dc\u05d4": 1320,
  "\u2581\u05d0\u05d9\u05d6\u05d5": 1321,
  "\u2581bed": 1322,
  "\u2581aren": 1323,
  "\u2581\u05d4\u05e4\u05e2\u05dd": 1324,
  "\u2581living": 1325,
  "\u2581Man": 1326,
  "\u25816": 1327,
  "\u2581six": 1328,
  "\u2581\u05d7\u05e8\u05d0": 1329,
  "\u2581running": 1330,
  "\u2581\u05de\u05e9\u05d7\u05e7": 1331,
  "\u2581\u05d5\u05d2\u05dd": 1332,
  "\u05d4\u05d9\u05d0": 1333,
  "\u2581miss": 1334,
  "\u2581Jack": 1335,
  "\u2581\u05de\u05d7\u05d5\u05e5": 1336,
  "\u2581order": 1337,
  "\u2581\u05d4\u05e2\u05e0\u05d9\u05d9\u05df": 1338,
  "\u2581\u05d4\u05d9\u05dc\u05d3\u05d9\u05dd": 1339,
  "\u2581\u05dc\u05de\u05d5\u05ea": 1340,
  "\u2581\u05de\u05d9\u05d3": 1341,
  "\u2581\u05e7\u05d8\u05e0\u05d4": 1342,
  "\u2581After": 1343,
  "\u2581\u05d4\u05e1\u05d9\u05d1\u05d4": 1344,
  "and": 1345,
  "\u2581\u05dc\u05d4\u05e9\u05d9\u05d2": 1346,
  "\u2581\u05dc\u05d4\u05e9\u05ea\u05de\u05e9": 1347,
  "\u2581\u05e8\u05e2\u05d9\u05d5\u05df": 1348,
  "\u05e7\u05d9": 1349,
  "ers": 1350,
  "\u2581hot": 1351,
  "\u2581light": 1352,
  "\u2581bitch": 1353,
  "\u2581\u05dc\u05db\u05da": 1354,
  "\u2581Two": 1355,
  "\u2581\u05e9\u05dc\u05d5\u05e9\u05d4": 1356,
  "\u2581\u05e9\u05d9\u05d4\u05d9\u05d4": 1357,
  "\u2581\u05e7\u05d7": 1358,
  "B": 1359,
  "\u2581\u05d5\u05d9\u05e9": 1360,
  "\u2581become": 1361,
  "\u2581\u05db\u05d9\u05e6\u05d3": 1362,
  "\u2581sex": 1363,
  "\u2581\u05d7\u05d9\u05d9": 1364,
  "\u2581Wow": 1365,
  "\u2581feeling": 1366,
  "\u2581\u05e6\u05d5\u05d3\u05e7": 1367,
  "You": 1368,
  "\u2581buy": 1369,
  "\u2581past": 1370,
  "\u2581Fuck": 1371,
  "\u2581Got": 1372,
  "\u2581\u05dc\u05d4\u05d9\u05db\u05e0\u05e1": 1373,
  "\u2581\u05d1\u05e4\u05e2\u05dd": 1374,
  "\u2581\u05e9\u05d0\u05ea\u05dd": 1375,
  "\u2581\u05e0\u05d5\u05e8\u05d0": 1376,
  "\u2581\u05d0\u05ea\u05db\u05dd": 1377,
  "\u2581promise": 1378,
  "\u2581dinner": 1379,
  "\u2581forget": 1380,
  "\u2581\u05e7\u05e8\u05d5\u05d1": 1381,
  "\u2581taken": 1382,
  "\u2581Nice": 1383,
  "\u2581doctor": 1384,
  "\u2581re": 1385,
  "an": 1386,
  "\u2581\u05dc\u05e2\u05d6\u05d5\u05d1": 1387,
  "\u2581control": 1388,
  "\u2581\u05dc\u05e2\u05e6\u05d5\u05e8": 1389,
  "\u2581\u05e0\u05d2\u05d3": 1390,
  "\u2581\u05d9\u05d5\u05e4\u05d9": 1391,
  "\u2581\u05d4\u05d1\u05df": 1392,
  "\u2581quite": 1393,
  "\u2581ahead": 1394,
  "\u2581\u05d5\u05d4\u05dd": 1395,
  "\u2581Hold": 1396,
  "\u2581\u05d0\u05d5\u05de\u05e8\u05d9\u05dd": 1397,
  "\u2581\u05dc\u05d0\u05db\u05d5\u05dc": 1398,
  "\u05d0\u05df": 1399,
  "\u2581\u05d9\u05e9\u05d5\u05e2": 1400,
  "\u2581lose": 1401,
  "\u2581funny": 1402,
  "\u2581\u05d1\u05e0\u05d0\u05d3\u05dd": 1403,
  "\u2581boys": 1404,
  "\u2581\u05d7\u05d6\u05e7": 1405,
  "\u2581known": 1406,
  "\u2581sense": 1407,
  "\u2581\u05d4\u05e8\u05d2\u05e2": 1408,
  "\u2581Sir": 1409,
  "\u2581\u05d0\u05de\u05d9\u05ea\u05d9": 1410,
  "\u05dc\u05d5": 1411,
  "\u05d0\u05d1\u05dc": 1412,
  "\u2581\u05d4\u05d3\u05dc\u05ea": 1413,
  "\u2581\u05dc\u05d5\u05e7\u05d7": 1414,
  "\u05d9\u05e0\u05d5": 1415,
  "\u2581damn": 1416,
  "\u2581country": 1417,
  "\u2581\u05d5\u05e0": 1418,
  "R": 1419,
  "\u2581hour": 1420,
  "\u2581\u05dc\u05d9\u05d3": 1421,
  "\u2581\u05ea\u05e4\u05e1\u05d9\u05e7": 1422,
  "\u2581serious": 1423,
  "\u2581\u05d1\u05d0\u05d5\u05ea\u05d5": 1424,
  "\u2581\u05d4\u05d9\u05d7\u05d9\u05d3\u05d4": 1425,
  "\u2581\u05d4\u05de\u05e9\u05e4\u05d7\u05d4": 1426,
  "\u2581\u05dc\u05e7\u05e8\u05d5\u05d0": 1427,
  "\u05d0\u05e0\u05d7\u05e0\u05d5": 1428,
  "\u2581\u05e4\u05d7\u05d5\u05ea": 1429,
  "\u2581possible": 1430,
  "us": 1431,
  "\u2581words": 1432,
  "\u2581M": 1433,
  "\u2581sick": 1434,
  "\u2581\u05d9\u05db\u05d5\u05dc\u05ea\u05d9": 1435,
  "\u2581\u05d1\u05e9\u05dd": 1436,
  "\u2581\u05dc\u05d7\u05d9\u05d5\u05ea": 1437,
  "\u05d5\u05e8": 1438,
  "\u2581\u05e0\u05d9\u05ea\u05df": 1439,
  "up": 1440,
  "\u2581\u05e9\u05db\u05dc": 1441,
  "\u05db\u05dc": 1442,
  "\u2581\u05d1\u05e4\u05e0\u05d9\u05dd": 1443,
  "\u05d9\u05d9\u05dd": 1444,
  "p": 1445,
  "\u2581\u05e4\u05e0\u05d9\u05dd": 1446,
  "\u2581figure": 1447,
  "\u2581asking": 1448,
  "\u2581cannot": 1449,
  "O": 1450,
  "\u2581\u05de\u05d0\u05e9\u05e8": 1451,
  "\u05d5\u05e8\u05d2": 1452,
  "\u2581\u05e9\u05d0\u05d9\u05df": 1453,
  "\u25818": 1454,
  "\u2581F": 1455,
  "\u2581dog": 1456,
  "\u05d5\u05e1": 1457,
  "\u2581\u05de\u05d5": 1458,
  "\u05d9\u05d9\u05df": 1459,
  "\u2581\u05d5\u05db\u05dc": 1460,
  "\u2581\u05d7\u05d5\u05e9\u05d1\u05d9\u05dd": 1461,
  "\u2581\u05de\u05e2\u05dc": 1462,
  "\u2581\u05d4\u05e8\u05d0\u05e9": 1463,
  "\u2581along": 1464,
  "\u05d0\u05d9\u05df": 1465,
  "\u2581happens": 1466,
  "\u2581Put": 1467,
  "\u2581hair": 1468,
  "\u05d0\u05d9\u05d9": 1469,
  "\u2581\u05d4\u05d7\u05d1\u05e8\u05d4": 1470,
  "\u2581YOU": 1471,
  "g": 1472,
  "\u2581Keep": 1473,
  "\u2581perfect": 1474,
  "\u2581\u05e4\u05e2\u05de\u05d9\u05dd": 1475,
  "\u2581\u05de\u05de\u05d4": 1476,
  "\u25817": 1477,
  "\u05de\u05ea": 1478,
  "\u2581system": 1479,
  "\u2581K": 1480,
  "\u2581\u05dc\u05e2\u05d1\u05d5\u05e8": 1481,
  "\u2581\u05d0\u05d1\u05d9": 1482,
  "\u2581\u05d7\u05de\u05e9": 1483,
  "\u2581Even": 1484,
  "\u2581seems": 1485,
  "\u2581\u05d4\u05d8\u05d5\u05d1": 1486,
  "\u2581\u05e8\u05d1\u05d9\u05dd": 1487,
  "\u2581send": 1488,
  "\u2581\u05db\u05d4": 1489,
  "\u2581Does": 1490,
  "\u2581\u05ea\u05e8\u05d0\u05d5": 1491,
  "\u05d9\u05da": 1492,
  "\u05d5\u05e0\u05d9\u05dd": 1493,
  "\u2581\u05d7\u05d5\u05e5": 1494,
  "\u2581\u05e7\u05d5\u05e8\u05d0\u05d9\u05dd": 1495,
  "b": 1496,
  "\u2581\u05de\u05ea\u05d4": 1497,
  "\u2581meeting": 1498,
  "L": 1499,
  "\u2581\u05de\u05ea\u05db\u05d5\u05d5\u05e0\u05ea": 1500,
  "\u2581An": 1501,
  "\u2581\u05d4\u05d2\u05d3\u05d5\u05dc": 1502,
  "\u2581sound": 1503,
  "\u2581Miss": 1504,
  "\u2581\u05d7\u05e6\u05d9": 1505,
  "\u2581anyway": 1506,
  "\u2581\u05d9\u05d5\u05e6\u05d0": 1507,
  "\u2581s": 1508,
  "\u2581weeks": 1509,
  "\u2581questions": 1510,
  "\u2581\u05de\u05e8\u05d2\u05d9\u05e9\u05d4": 1511,
  "\u2581\u05d2\u05e8\u05d5\u05e2": 1512,
  "\u05e8\u05e7": 1513,
  "\u2581\u05e8\u05d0\u05d4": 1514,
  "\u2581Mm": 1515,
  "\u2581\u05e0\u05e8\u05d0\u05d9\u05ea": 1516,
  "\u2581others": 1517,
  "\u2581million": 1518,
  "ar": 1519,
  "\u05e0\u05d9\u05ea": 1520,
  "\u2581murder": 1521,
  "f": 1522,
  "\u2581\u05dc\u05e0\u05e1\u05d5\u05ea": 1523,
  "\u2581\u05d7\u05d5\u05d3\u05e9\u05d9\u05dd": 1524,
  "\u2581\u05e1\u05ea\u05dd": 1525,
  "\u2581\u05dc\u05d2\u05e8\u05d5\u05dd": 1526,
  "\u2581\u05de\u05d3\u05d4\u05d9\u05dd": 1527,
  "\u2581\u05d0\u05d3\u05d9\u05e8\u05d9\u05dd": 1528,
  "\u2581\u05dc\u05d4\u05ea\u05d7\u05d9\u05dc": 1529,
  "The": 1530,
  "\u2581company": 1531,
  "\u2581\u05ea\u05e0\u05d9": 1532,
  "\u2581leaving": 1533,
  "\u2581L": 1534,
  "\u05de\u05d9\u05dd": 1535,
  "you": 1536,
  "\u2581\u05d0\u05d4\u05d1\u05d4": 1537,
  "\u2581\u05de\u05d7\u05d3\u05e9": 1538,
  "\u2581drive": 1539,
  "\u2581\u05de\u05d3\u05d1\u05e8\u05d9\u05dd": 1540,
  "\u2581seem": 1541,
  "le": 1542,
  "\u2581\u05dc\u05d4\u05de\u05e9\u05d9\u05da": 1543,
  "\u2581\u05e0\u05d2\u05de\u05e8": 1544,
  "\u2581special": 1545,
  "\u05e4\u05d4": 1546,
  "\u2581needed": 1547,
  "\u2581\u05d7\u05d1\u05e8\u05d4": 1548,
  "\u2581\u05dc\u05e9\u05d7\u05e7": 1549,
  "\u2581\u05d9\u05dc\u05d3\u05d4": 1550,
  "\u2581thanks": 1551,
  "ie": 1552,
  "\u2581\u05d5\u05d0\u05e0\u05d7\u05e0\u05d5": 1553,
  "\u2581Everything": 1554,
  "\u2581learn": 1555,
  "\u2581\u05d0\u05e8\u05d5\u05d7\u05ea": 1556,
  "\u2581date": 1557,
  "\u2581\u05d9\u05d5": 1558,
  "\u2581\u05d3\u05dd": 1559,
  "\u2581\u05e1": 1560,
  "\u2581small": 1561,
  "\u2581\u05dc\u05e0\u05e6\u05d7": 1562,
  "\u2581\u05d5\u05d9": 1563,
  "\u2581\u05d1\u05ea\u05d5\u05e8": 1564,
  "\u2581\u05dc\u05e9\u05d9\u05dd": 1565,
  "\u2581\u05de\u05e6\u05d7\u05d9\u05e7": 1566,
  "\u2581By": 1567,
  "?\"": 1568,
  "\u258119": 1569,
  "\u05de\u05e8": 1570,
  "\u05d3\u05d9": 1571,
  "\u2581playing": 1572,
  "k": 1573,
  "ic": 1574,
  "\u2581honey": 1575,
  "\u2581\u05e9\u05d4\u05d9\u05d9\u05ea\u05d9": 1576,
  "\u2581anybody": 1577,
  "\u2581\u05de\u05e6\u05d0\u05ea\u05d9": 1578,
  "\u2581\u05e9\u05d5\u05d5\u05d4": 1579,
  "\u2581worked": 1580,
  "\u2581future": 1581,
  "\u2581black": 1582,
  "\u2581\u05e1\u05d9\u05db\u05d5\u05d9": 1583,
  "able": 1584,
  "\u2581Could": 1585,
  "\u2581sort": 1586,
  "\u2581\u05e8\u05d5\u05d7": 1587,
  "\u2581\u05de\u05e4\u05e0\u05d9": 1588,
  "\u2581Fine": 1589,
  "\u2581\u05e2\u05d1\u05e8": 1590,
  "\u2581\u05d4\u05d1\u05d0\u05d4": 1591,
  "\u2581win": 1592,
  "\u2581shouldn": 1593,
  "\u2581\u05e0\u05e9\u05d9\u05dd": 1594,
  "\u2581touch": 1595,
  "\u2581Her": 1596,
  "\u2581top": 1597,
  "\u05e9\u05dc": 1598,
  "\u2581\u05de\u05dc\u05d0": 1599,
  "\u2581choice": 1600,
  "\u2581\u05d4\u05d1\u05d5\u05e7\u05e8": 1601,
  "\u2581\u05dc\u05e7\u05d7": 1602,
  "\u2581\u05dc\u05e4\u05d2\u05d5\u05e9": 1603,
  "\u2581\u05de\u05e2\u05d8": 1604,
  "\u258116": 1605,
  "x": 1606,
  "\u2581\u05d0\u05d5\u05ea\u05df": 1607,
  "\u2581\u05d1\u05e8": 1608,
  "\u2581\u05de\u05ea\u05d7\u05ea": 1609,
  "\u2581Was": 1610,
  "\u2581fast": 1611,
  "\u2581\u05db\u05d5\u05d7": 1612,
  "is": 1613,
  "\u2581\u05e0\u05d5\u05ea\u05df": 1614,
  "\u2581sign": 1615,
  "\u2581\u05d1\u05d9\u05d9": 1616,
  "Cause": 1617,
  "\u2581less": 1618,
  "\u2581\u05d0\u05d9\u05e0\u05d5": 1619,
  "\u2581From": 1620,
  "\u2581\u05dc\u05d2": 1621,
  "\u2581\u05d0\u05d9\u05de\u05d0": 1622,
  "\u258117": 1623,
  "\u2581Something": 1624,
  "\u05d0\u05d4": 1625,
  "\u2581\u05e1\u05d9\u05d1\u05d4": 1626,
  "\u2581lady": 1627,
  "\u2581\u05d1\u05e6\u05d5\u05e8\u05d4": 1628,
  "\u2581works": 1629,
  "\u2581\u05e7\u05d9\u05d1\u05dc\u05ea\u05d9": 1630,
  "\u2581weird": 1631,
  "\u2581hospital": 1632,
  "\u2581lie": 1633,
  "z": 1634,
  "\u2581\u05e2\u05dc\u05d9\u05d9\u05da": 1635,
  "G": 1636,
  "\u05d8\u05d9": 1637,
  ",\"": 1638,
  "\u2581\u05d1\u05d4\u05dd": 1639,
  "\u2581felt": 1640,
  "\u258114": 1641,
  "\u2581\u05e7\u05e8": 1642,
  "\u2581\u05db\u05dc\u05dc": 1643,
  "\u2581\u05dc\u05d9\u05e9\u05d5\u05df": 1644,
  "\u2581\u05dc\u05d1\u05d3\u05d5\u05e7": 1645,
  "\u2581W": 1646,
  "\u258111": 1647,
  "\u2581\u05dc\u05ea\u05d5\u05da": 1648,
  "\u2581\u05d4\u05d0\u05e8\u05e5": 1649,
  "\u2581\u05de\u05d5\u05db\u05e0\u05d4": 1650,
  "\u2581\u05de\u05e6\u05d1": 1651,
  "\u2581\u05e2\u05e6\u05de\u05d5": 1652,
  "\u2581clean": 1653,
  "\u2581\u05de\u05e4\u05d4": 1654,
  "\u2581calling": 1655,
  "\u2581Bye": 1656,
  "\u2581\u05e9\u05d5\u05e0\u05d4": 1657,
  "\u2581\u05dc\u05de\u05d9": 1658,
  "\u2581shut": 1659,
  "\u2581\u05e9\u05d0\u05dc\u05d4": 1660,
  "\u2581Christ": 1661,
  "\u2581scared": 1662,
  "\u2581\u05e1\u05d9\u05e4\u05d5\u05e8": 1663,
  "\u2581Paul": 1664,
  "\u2581\u05de\u05ea\u05d7\u05d9\u05dc": 1665,
  "What": 1666,
  "\u2581\u05dc\u05d4\u05ea": 1667,
  "\u2581\u05d1\u05e0\u05d5\u05d2\u05e2": 1668,
  "\u2581\u05e9\u05e2\u05d4": 1669,
  "\u2581\u05e0\u05d4\u05d9\u05d4": 1670,
  "\u2581\u05e9\u05de\u05d9\u05e9\u05d4\u05d5": 1671,
  "\u2581\u05de\u05d0\u05d3": 1672,
  "\u05d9\u05e0\u05d4": 1673,
  "\u258150": 1674,
  "\u2581\u05d4\u05d1\u05e0\u05ea\u05d9": 1675,
  "/": 1676,
  "\u2581information": 1677,
  "\u2581given": 1678,
  "\u2581Lord": 1679,
  "\u2581music": 1680,
  "\u2581glad": 1681,
  "\u2581\u05db\u05e9\u05d0\u05e0\u05d9": 1682,
  "\u2581THE": 1683,
  "\u2581air": 1684,
  "\u2581\u05d1\u05e7\u05e8\u05d5\u05d1": 1685,
  "\u2581\u05d1\u05e2\u05d1\u05e8": 1686,
  "\u05d6\u05d5": 1687,
  "\u2581\u05db\u05e9\u05d4": 1688,
  "\u2581Very": 1689,
  "\u2581message": 1690,
  "\u05e2": 1691,
  "\u2581\u05de\u05e9\u05e4\u05d7\u05d4": 1692,
  "\u2581Help": 1693,
  "\u2581luck": 1694,
  "\u2581\u05d1\u05e2\u05dc\u05d9": 1695,
  "\u2581\u05d1\u05d1\u05d5\u05e7\u05e8": 1696,
  "\u2581\u05db\u05d0\u05dc\u05d4": 1697,
  "\u25819": 1698,
  "\u2581happening": 1699,
  "\u2581\u05d6\u05e7\u05d5\u05e7": 1700,
  "\u2581\u05dc\u05d7\u05db\u05d5\u05ea": 1701,
  "\u2581\u05e9\u05d0\u05dd": 1702,
  "\u2581Sam": 1703,
  "\u2581\u05d1\u05e2\u05e8\u05da": 1704,
  "\u2581\u05db\u05d3\u05d5\u05e8": 1705,
  "\u2581kidding": 1706,
  "F": 1707,
  "\u2581\u05d6\u05d5\u05e0\u05d4": 1708,
  "\u2581moving": 1709,
  "\u2581longer": 1710,
  "\u2581\u05dc\u05de\u05e8\u05d5\u05ea": 1711,
  "\u2581\u05d7\u05d3\u05e9\u05d5\u05ea": 1712,
  "\u2581white": 1713,
  "\u2581\u05e2\u05d6\u05e8\u05d4": 1714,
  "\u2581David": 1715,
  "\u2581\u05e9\u05de\u05d5": 1716,
  "\u2581giving": 1717,
  "\u2581\u05d4\u05d7\u05d3\u05e9": 1718,
  "\u2581\u05d7\u05e1\u05e8": 1719,
  "\u2581Peter": 1720,
  "\u2581\u05e2\u05dc\u05d9\u05d4\u05dd": 1721,
  "no": 1722,
  "\u2581Any": 1723,
  "\u2581\u05de\u05d9\u05dd": 1724,
  "\u2581Shut": 1725,
  "\u2581\u05db\u05db\u05dc": 1726,
  "\u2581\u05dc\u05d4\u05e6\u05d9\u05dc": 1727,
  "\u2581\u05d0\u05e4\u05e9\u05e8\u05d9": 1728,
  "\u2581building": 1729,
  "\u2581\u05e9\u05de\u05e2\u05ea": 1730,
  "\u258124": 1731,
  "\u2581Michael": 1732,
  "\u2581loved": 1733,
  "\u2581secret": 1734,
  "\u2581First": 1735,
  "\u2581shoot": 1736,
  "\u2581\u05d7\u05d5\u05d6\u05e8": 1737,
  "\u2581\u05d3\u05e2\u05ea\u05da": 1738,
  "\u2581eye": 1739,
  "\u2581\u05de\u05d7\u05e4\u05e9": 1740,
  "\u2581Whoa": 1741,
  "\u2581turned": 1742,
  "\u2581finally": 1743,
  "\u2581\u05d4\u05d6\u05d3\u05de\u05e0\u05d5\u05ea": 1744,
  "el": 1745,
  "\u258113": 1746,
  "\u2581piece": 1747,
  "\u2581weren": 1748,
  "\u2581\u05de\u05d2\u05e0\u05d9\u05d1": 1749,
  "\u2581People": 1750,
  "\u2581ten": 1751,
  "\u2581de": 1752,
  "\u2581list": 1753,
  "\u2581\u05dc\u05d4\u05e8\u05d2\u05d9\u05e9": 1754,
  "\u2581fault": 1755,
  "\u2581Actually": 1756,
  "\u2581Those": 1757,
  "\u2581\u05d9\u05d3\u05e2": 1758,
  "\u2581\u05d4\u05de\u05db\u05d5\u05e0\u05d9\u05ea": 1759,
  "\u2581\u05e9\u05db\u05df": 1760,
  "\u2581takes": 1761,
  "\u2581\u05d4\u05dc\u05da": 1762,
  "\u2581Ma": 1763,
  "\u2581Captain": 1764,
  "\u2581\u05de\u05d0\u05de\u05d9\u05e0\u05d4": 1765,
  "\u2581looked": 1766,
  "\u2581Stay": 1767,
  "\u2581\u05e9\u05d0\u05d5\u05dc\u05d9": 1768,
  "\u2581\u05dc\u05d4\u05e8\u05d0\u05d5\u05ea": 1769,
  "\u2581\u05e0\u05d5\u05e1\u05e3": 1770,
  "\u2581\u05e9\u05d5\u05de\u05e2": 1771,
  "\u2581law": 1772,
  "\u2581seeing": 1773,
  "\u2581\u05d0\u05e9": 1774,
  "\u2581\u05e9\u05d6\u05d5": 1775,
  "\u2581\u05de\u05d9\u05d3\u05e2": 1776,
  "\u2581\u05e2\u05e0\u05d9\u05d9\u05df": 1777,
  "\u2581\u05d2\u05de\u05d5\u05e8": 1778,
  "\u2581Never": 1779,
  "\u2581\u05d4\u05d2": 1780,
  "\u2581Damn": 1781,
  "\u2581\u05e0\u05db\u05e0\u05e1": 1782,
  "\u05d0\u05e7": 1783,
  "\u2581\u05de\u05d9\u05dc\u05d9\u05d5\u05df": 1784,
  "\u2581\u05dc\u05dc\u05de\u05d5\u05d3": 1785,
  "ra": 1786,
  "\u2581l": 1787,
  "\u2581early": 1788,
  "\u2581\u05d1\u05de\u05e7\u05e8\u05d4": 1789,
  "\u2581\u05d7\u05d3\u05e8": 1790,
  "\u2581protect": 1791,
  "\u2581\u05de\u05d3\u05d1\u05e8\u05ea": 1792,
  "\u2581\u05dc\u05d4\u05e4\u05e1\u05d9\u05e7": 1793,
  "\u2581\u05d1\u05e2\u05dc": 1794,
  "\u05de\u05d5": 1795,
  "\u2581J": 1796,
  "w": 1797,
  "\u2581\u05d4\u05dc\u05d0": 1798,
  "\u2581missing": 1799,
  "\u2581\u05de\u05d0\u05d9\u05ea\u05e0\u05d5": 1800,
  "\u05e8\u05d3": 1801,
  "\u2581\u05e8\u05d0\u05e9\u05d5\u05df": 1802,
  "\u2581land": 1803,
  "\u2581\u05d4\u05e1\u05d9\u05e4\u05d5\u05e8": 1804,
  "\u2581changed": 1805,
  "\u2581\u05d0\u05dc\u05da": 1806,
  "\u2581Shit": 1807,
  "\u2581\u05de\u05ea\u05d5\u05da": 1808,
  "\u2581\u05dc\u05d4\u05ea\u05e8\u05d0\u05d5\u05ea": 1809,
  "\u2581\u05e9\u05d0\u05dc\u05d5\u05ea": 1810,
  "\u2581May": 1811,
  "\u2581\u05e9\u05de\u05d9": 1812,
  "\u2581ma": 1813,
  "\u2581evidence": 1814,
  "\u2581\u05d1\u05de\u05d4": 1815,
  "\u2581\u05e8\u05d5\u05d1": 1816,
  "\u2581\u05d5\u05dc\u05d4": 1817,
  "\u2581\u05de\u05d8\u05d5\u05e8\u05e3": 1818,
  "\u05d1\u05d4": 1819,
  "\u2581sounds": 1820,
  "\u2581worth": 1821,
  "\u2581\u05d7\u05d3\u05e9\u05d4": 1822,
  "\u2581\u05d3\u05d5\u05d3": 1823,
  "\u2581\u05d4\u05de\u05e6\u05d1": 1824,
  "\u2581\u05e0\u05ea\u05df": 1825,
  "\u2581\u05e9\u05d1\u05d5\u05e2": 1826,
  "\u05ea\u05dd": 1827,
  "\u2581\u05ea\u05d2\u05d9\u05d3\u05d9": 1828,
  "\u2581\u05de\u05e9\u05dd": 1829,
  "\u2581\u05e9\u05e9": 1830,
  "\u2581\u05e8\u05e6\u05d9\u05e0\u05d9": 1831,
  "\u2581\u05de\u05e7": 1832,
  "\u2581\u05e1\u05e4\u05e7": 1833,
  "\u2581\u05de\u05db\u05d9\u05e8\u05d4": 1834,
  "\u2581York": 1835,
  "\u2581\u05e7\u05d5\u05e8\u05d0": 1836,
  "\u2581Only": 1837,
  "\u2581\u05de\u05e1\u05d5\u05d2\u05dc": 1838,
  "\u2581\u05e4\u05e0\u05d9\u05de\u05d4": 1839,
  "\u2581picture": 1840,
  "\u2581\u05dc\u05e7\u05e0\u05d5\u05ea": 1841,
  "\u2581\u05de\u05d5\u05dc": 1842,
  "\u2581somewhere": 1843,
  "\u2581\u05ea\u05ea": 1844,
  "\u2581explain": 1845,
  "\u2581\u05dc\u05d4\u05d2\u05df": 1846,
  "\u2581catch": 1847,
  "\u2581\u05d4\u05ea\u05db\u05d5\u05d5\u05e0\u05ea\u05d9": 1848,
  "\u2581\u05d1\u05de\u05d9\u05d5\u05d7\u05d3": 1849,
  "\u2581\u05d1\u05db\u05da": 1850,
  "\u2581security": 1851,
  "\u2581\u05e7\u05d5": 1852,
  "\u2581write": 1853,
  "\u2581Whatever": 1854,
  "\u2581H": 1855,
  "\u2581worse": 1856,
  "N": 1857,
  "\u2581\u05e4\u05e0\u05d9": 1858,
  "\u2581\u05d1\u05e0\u05d5": 1859,
  "\u05d2\u05dd": 1860,
  "\u05dc\u05e1": 1861,
  "\u2581\u05e9\u05d0\u05e0\u05d5": 1862,
  "\u2581entire": 1863,
  "\u2581\u05ea\u05e1\u05ea\u05db\u05dc": 1864,
  "\u2581sweet": 1865,
  "\u2581\u05d5\u05d0": 1866,
  "\u2581follow": 1867,
  "\u2581\u05e0\u05d9\u05e1\u05d9\u05ea\u05d9": 1868,
  "\u2581feet": 1869,
  "\u2581\u05e6\u05d5\u05d5\u05ea": 1870,
  "\u2581mouth": 1871,
  "\u2581meant": 1872,
  "\u2581\u05db\u05d9\u05e3": 1873,
  "\u2581straight": 1874,
  "\u05d9\u05de\u05d9": 1875,
  "\u05e4\u05ea": 1876,
  "\u2581\u05de\u05d0\u05d7\u05d5\u05e8\u05d9": 1877,
  "\u2581earth": 1878,
  "\u2581\u05d1\u05e0\u05d5\u05ea": 1879,
  "\u2581\u05de\u05d5\u05e7\u05d3\u05dd": 1880,
  "\u05e4\u05d5": 1881,
  "\u2581\u05d1\u05e6\u05d3": 1882,
  "\u2581\u05d1\u05e8\u05d0\u05e9": 1883,
  "\u05e0\u05ea": 1884,
  "\u2581\u05dc\u05d4\u05ea\u05e7\u05e9\u05e8": 1885,
  "\u2581using": 1886,
  "\u2581\u05e9\u05dc\u05d5\u05de\u05da": 1887,
  "\u2581\u05dc\u05d0\u05e0\u05e9\u05d9\u05dd": 1888,
  "\u2581\u05d4\u05e8": 1889,
  "\u2581\u05d4\u05dc\u05d1": 1890,
  "\u2581\u05e8\u05e6\u05d4": 1891,
  "\u05d5\u05e0\u05d5\u05ea": 1892,
  "\u2581\u05db\u05de\u05d5\u05da": 1893,
  "\u2581step": 1894,
  "\u2581Charlie": 1895,
  "\u2581\u05d2\u05d5\u05e8\u05dd": 1896,
  "\u2581\u05d4\u05dc\u05dc\u05d5": 1897,
  "\u2581\u05d6\u05d5\u05db\u05e8\u05ea": 1898,
  "\u2581till": 1899,
  "\u2581pain": 1900,
  "\u2581\u05d4\u05de\u05e4\u05e7\u05d3": 1901,
  "\u2581\u05dc\u05d4\u05d5\u05e6\u05d9\u05d0": 1902,
  "\u2581\u05d4\u05e7\u05d8\u05df": 1903,
  "\u2581handle": 1904,
  "\u2581boss": 1905,
  "\u2581\u05d1\u05e2\u05d9\u05e8": 1906,
  "\u2581class": 1907,
  "\u2581\u05de\u05db\u05df": 1908,
  "\u2581ship": 1909,
  "\u2581dream": 1910,
  "\u05e0\u05d5\u05ea": 1911,
  "\u2581\u05d1\u05e2\u05d9\u05d5\u05ea": 1912,
  "\u2581\u05dc\u05d4\u05d0\u05de\u05d9\u05df": 1913,
  "\u2581\u05d7\u05db\u05d9": 1914,
  "\u258140": 1915,
  "\u2581pull": 1916,
  "\u2581Every": 1917,
  "\u2581cold": 1918,
  "\u05d5\u05e9": 1919,
  "\u2581\u05e9\u05e7\u05e8\u05d4": 1920,
  "\u2581\u05d9\u05e6\u05d0": 1921,
  "\u2581\u05d0\u05d7": 1922,
  "\u2581\u05de\u05d1\u05d8\u05d9\u05d7": 1923,
  "\u2581personal": 1924,
  "\u2581\u05d0\u05de\u05e8\u05d5": 1925,
  "\u2581\u05de\u05e2\u05d1\u05e8": 1926,
  "\u2581\u05dc\u05d4\u05ea\u05de\u05d5\u05d3\u05d3": 1927,
  "\u2581amazing": 1928,
  "\u2581ride": 1929,
  "\u2581sometimes": 1930,
  "\u2581god": 1931,
  "\u2581strong": 1932,
  "\u05d9\u05d4\u05dd": 1933,
  "\u2581single": 1934,
  "\u2581test": 1935,
  "\u2581\u05d9\u05e9\u05e8": 1936,
  "\u2581\u05d0\u05e1\u05d5\u05e8": 1937,
  "\u2581lead": 1938,
  "\u2581Am": 1939,
  "\u2581\u05e8\u05e6\u05d7": 1940,
  "\u2581wedding": 1941,
  "\u2581\u05d7\u05ea\u05d9\u05db\u05ea": 1942,
  "\u2581\u05d4\u05d8\u05dc\u05e4\u05d5\u05df": 1943,
  "\u2581return": 1944,
  "\u2581U": 1945,
  "\u2581Someone": 1946,
  "\u05d0\u05e8": 1947,
  "\u2581\u05dc\u05e2\u05d1\u05d5\u05d3\u05d4": 1948,
  "\u2581oh": 1949,
  "\u2581coffee": 1950,
  "\u2581TO": 1951,
  "\u2581fall": 1952,
  "\u2581\u05d3\u05d5": 1953,
  "\u2581\u05ea\u05d5\u05da": 1954,
  "\u2581\u05de\u05e2\u05d5\u05dc\u05d4": 1955,
  "\u2581kept": 1956,
  "\u2581\u05d0\u05e0\u05d2": 1957,
  "\u258125": 1958,
  "\u2581\u05ea\u05d3\u05d0\u05d2": 1959,
  "\u2581history": 1960,
  "\u2581during": 1961,
  "\u2581rather": 1962,
  "\u2581\u05e0\u05e4\u05dc\u05d0": 1963,
  "\u2581\u05d8\u05e2\u05d5\u05ea": 1964,
  "\u2581\u05e1\u05dc\u05d7": 1965,
  "\u2581\u05e9\u05ea\u05d9\u05d9\u05dd": 1966,
  "\u2581broke": 1967,
  "\u2581lucky": 1968,
  "\u2581state": 1969,
  "\u05e4": 1970,
  "\u2581\u05e7\u05d5\u05dc": 1971,
  "\u2581\u05d0\u05d5\u05e8": 1972,
  "\u2581\u05e9\u05de\u05d7\u05d4": 1973,
  "\u2581\u05d9\u05d9": 1974,
  "%": 1975,
  "\u2581worried": 1976,
  "\u2581report": 1977,
  "\u2581bar": 1978,
  "\u2581watching": 1979,
  "\u2581Nobody": 1980,
  "\u2581mistake": 1981,
  "\u2581Make": 1982,
  "\u2581welcome": 1983,
  "ation": 1984,
  "\u05db\u05d9\u05dd": 1985,
  "\u2581\u05d3\u05d9\u05df": 1986,
  "\u2581e": 1987,
  "\u2581talked": 1988,
  "\u2581nobody": 1989,
  "all": 1990,
  "\u2581lying": 1991,
  "\u2581dance": 1992,
  "\u2581hang": 1993,
  "\u2581\u05de\u05e2\u05e8\u05db\u05ea": 1994,
  "\u2581\u05ea\u05d9": 1995,
  "2": 1996,
  "\u2581\u05e9\u05d5\u05e0\u05d0": 1997,
  "\u05ea\u05d5": 1998,
  "\u05e4\u05d9\u05dd": 1999,
  "\u05db\u05d4": 2000,
  "\u2581totally": 2001,
  "K": 2002,
  "\u2581\u05e1\u05d9": 2003,
  "\u2581American": 2004,
  "\u2581\u05d1\u05d7\u05d5\u05e8\u05d4": 2005,
  "\u2581\u05d0\u05d9\u05ea\u05e0\u05d5": 2006,
  "\u2581\u05dc\u05d4\u05db\u05d9\u05e8": 2007,
  "la": 2008,
  "\u2581Frank": 2009,
  "\u2581\u05d5\u05e2\u05dc": 2010,
  "\u05e1\u05d8\u05e8": 2011,
  "\u2581\u05d2\u05d1\u05e8\u05d9\u05dd": 2012,
  "\u2581situation": 2013,
  "\u2581\u05de\u05d9\u05d9\u05e7\u05dc": 2014,
  "\u2581\u05d4\u05d0\u05d9\u05e9\u05d4": 2015,
  "\u2581\u05db\u05e9\u05d4\u05d5\u05d0": 2016,
  "\u2581\u05dc\u05de": 2017,
  "\u2581\u05d1\u05e8\u05e6\u05d9\u05e0\u05d5\u05ea": 2018,
  "\u2581\u05d0\u05d9\u05e0\u05da": 2019,
  "\u2581\u05d0\u05e7\u05d7": 2020,
  "\u05d8\u05d4": 2021,
  "\u2581king": 2022,
  "\u2581\u05d1\u05e9\u05e0\u05ea": 2023,
  "\u05d0\u05e1": 2024,
  "\u2581street": 2025,
  "\u05e0\u05e1": 2026,
  "\u05d4\u05d5": 2027,
  "\u05e9\u05d4": 2028,
  "H": 2029,
  "\u2581\u05d2\u05e8": 2030,
  "\u2581About": 2031,
  "\u2581\u05d4\u05db\u05d1\u05d5\u05d3": 2032,
  "\u2581brain": 2033,
  "\u2581voice": 2034,
  "\u2581\u05db\u05e9\u05d0\u05ea\u05d4": 2035,
  "\u2581Hmm": 2036,
  "\u2581spend": 2037,
  "\u2581red": 2038,
  "\u2581\u05d1\u05d7\u05d9\u05d9": 2039,
  "\u2581dear": 2040,
  "\u2581\u05d1\u05de": 2041,
  "h": 2042,
  "\u2581\u05de\u05d5\u05db\u05e0\u05d9\u05dd": 2043,
  "\u2581bag": 2044,
  "\u2581\u05d9\u05d3": 2045,
  "\u2581\u05dc\u05d9\u05e6\u05d5\u05e8": 2046,
  "\u05e0\u05e8": 2047,
  "\u05d3\u05d4": 2048,
  "\u2581\u05e8\u05d9\u05d9": 2049,
  "\u2581\u05dc\u05e4\u05d4": 2050,
  "\u2581\u05e2\u05e6\u05d5\u05e8": 2051,
  "\u2581short": 2052,
  "\u2581\u05d7\u05d5\u05dc\u05d4": 2053,
  "\u2581Father": 2054,
  "\u2581\u05d0\u05d5\u05d4\u05d1\u05d9\u05dd": 2055,
  "\u2581\u05d1\u05de\u05e6\u05d1": 2056,
  "\u2581\u05d7\u05d2": 2057,
  "\u2581\u05e8\u05d5\u05d0\u05d9\u05dd": 2058,
  "\u2581ex": 2059,
  "\u2581\u05e9\u05d0\u05de\u05e8\u05ea\u05d9": 2060,
  "\u2581key": 2061,
  "\u2581cover": 2062,
  "na": 2063,
  "\u2581\u05e6\u05d5\u05d7\u05e7": 2064,
  "\u2581\u05de\u05e2\u05e0\u05d9\u05d9\u05df": 2065,
  "\u2581R": 2066,
  "\u2581100": 2067,
  "\u2581mad": 2068,
  "\u2581prison": 2069,
  "ion": 2070,
  "\u05d9\u05dc": 2071,
  "\u2581act": 2072,
  "\u2581\u05dc\u05e7\u05e8\u05d5\u05ea": 2073,
  "\u2581ground": 2074,
  "\u2581movie": 2075,
  "\u05e7\u05d5": 2076,
  "\u2581caught": 2077,
  "\u2581\u05e7\u05e9\u05d5\u05e8": 2078,
  "\u2581box": 2079,
  "\u2581Looks": 2080,
  "\u2581Remember": 2081,
  "\u2581Move": 2082,
  "\u2581buddy": 2083,
  "\u2581\u05d9\u05d3\u05e2\u05ea": 2084,
  "\u2581\u05d0\u05e0\u05d0": 2085,
  "\u2581\u05db\u05d1\u05d5\u05d3": 2086,
  "\u2581near": 2087,
  "\u2581\u05e9\u05d0\u05d5\u05db\u05dc": 2088,
  "\u2581drop": 2089,
  "\u2581relationship": 2090,
  "\u2581throw": 2091,
  "\u2581ran": 2092,
  "\u2581beat": 2093,
  "\u2581\u05d9\u05d5\u05e8\u05e7": 2094,
  "\u2581\u05dc\u05de\u05e7\u05d5\u05dd": 2095,
  "\u2581month": 2096,
  "\u2581middle": 2097,
  "\u2581attack": 2098,
  "\u2581expect": 2099,
  "\u2581\u05dc\u05e9\u05d1\u05ea": 2100,
  "\u2581Mike": 2101,
  "\u2581completely": 2102,
  "\u05d9\u05d3\u05d9": 2103,
  "\u2581road": 2104,
  "ness": 2105,
  "\u2581Tom": 2106,
  "\u2581decided": 2107,
  "\u2581\u05de\u05d5\u05e6\u05d0": 2108,
  "\u2581\u05de\u05de\u05e0\u05d4": 2109,
  "\u05d0\u05d9\u05da": 2110,
  "\u2581Everybody": 2111,
  "\u2581\u05d0\u05e8\u05d0\u05d4": 2112,
  "\u2581\u05d0\u05e8\u05d1\u05e2": 2113,
  "\u05e0\u05d8": 2114,
  "\u2581\u05de\u05d5\u05e9\u05dc\u05dd": 2115,
  "\u05de\u05d5\u05ea": 2116,
  "\u2581\u05e0\u05e9\u05d0\u05e8": 2117,
  "\u2581\u05d2\u05d1\u05e8\u05ea\u05d9": 2118,
  "\u2581\u05d4\u05d9\u05d3": 2119,
  "\u2581\u05dc\u05d4\u05e4\u05d5\u05da": 2120,
  "\u2581\u05dc\u05e9\u05ea\u05d5\u05ea": 2121,
  "\u2581\u05e2\u05e9\u05e8": 2122,
  "\u05e0\u05db\u05d5\u05df": 2123,
  "\u2581/": 2124,
  "\u2581\u05e4\u05e8\u05e0\u05e7": 2125,
  "\u2581Three": 2126,
  "\u2581\u05e9\u05de\u05d4": 2127,
  "\u2581birthday": 2128,
  "\u2581offer": 2129,
  "\u2581\u05dc\u05d2\u05dc\u05d5\u05ea": 2130,
  "\u2581space": 2131,
  "\u2581pass": 2132,
  "\u2581\u05d1\u05d0\u05ea\u05d9": 2133,
  "\u2581\u05dc\u05d7\u05dc\u05d5\u05d8\u05d9\u05df": 2134,
  "\u2581\u05e0\u05ea\u05e8\u05d0\u05d4": 2135,
  "\u2581\u05d4\u05de\u05e9\u05d8\u05e8\u05d4": 2136,
  "\u2581Call": 2137,
  "\u2581\u05e4\u05d9\u05d8\u05e8": 2138,
  "\u2581\u05d0\u05d2\u05d9\u05d3": 2139,
  "\u2581Next": 2140,
  "\u05e8\u05e1": 2141,
  "\u2581busy": 2142,
  "\u2581\u05d4\u05e0\u05e9\u05d9\u05d0": 2143,
  "\u2581age": 2144,
  "\u2581N": 2145,
  "\u2581\u05dc\u05d7\u05d3\u05e8": 2146,
  "\u2581\u05e1\u05d5": 2147,
  "\u2581\u05dc\u05e2\u05e6\u05de\u05d9": 2148,
  "\u2581King": 2149,
  "ur": 2150,
  "\u05e6\u05d9": 2151,
  "\u2581upon": 2152,
  "\u2581table": 2153,
  "\u2581\u05dc\u05e9\u05dc\u05dd": 2154,
  "W": 2155,
  "\u2581share": 2156,
  "\u2581\u05d4\u05d7\u05dc\u05e7": 2157,
  "\u2581\u05d9\u05ea": 2158,
  "\u2581Re": 2159,
  "\u2581Daddy": 2160,
  "\u2581\u05dc\u05d3\u05d0\u05d5\u05d2": 2161,
  "\u2581\u05dc\u05db\u05d9": 2162,
  "\u2581\u05d0\u05dc\u05e3": 2163,
  "\u05e0": 2164,
  "\u2581record": 2165,
  "\u2581\u05de\u05d9\u05d9\u05e7": 2166,
  "\u2581\u05d1\u05d0\u05d4": 2167,
  "\u2581anywhere": 2168,
  "\u2581\u05d4\u05d7\u05d5\u05dc\u05d9\u05dd": 2169,
  "\u2581floor": 2170,
  "\u2581\u05d4\u05d1\u05ea": 2171,
  "\u2581Everyone": 2172,
  "\u2581court": 2173,
  "\u2581realize": 2174,
  "\u2581born": 2175,
  "...\"": 2176,
  "\u2581\u05d4\u05d0\u05d9": 2177,
  "\u2581\u05d1\u05e2\u05e6\u05dd": 2178,
  "\u2581area": 2179,
  "ling": 2180,
  "\u2581\u05de\u05d9\u05df": 2181,
  "\u2581\u05dc\u05e9\u05e0\u05d5\u05ea": 2182,
  "\u2581across": 2183,
  "\u2581dark": 2184,
  "\u2581killer": 2185,
  "\u2581wrote": 2186,
  "\u2581group": 2187,
  "\u2581\u05dc\u05d1\u05d7\u05d5\u05e8": 2188,
  "\u2581moved": 2189,
  "\u05d1\u05d0\u05de\u05ea": 2190,
  "\u2581killing": 2191,
  "\u2581\u05dc\u05d8\u05e4\u05dc": 2192,
  "\u2581ya": 2193,
  "\u2581\u05e7\u05e4\u05d8\u05df": 2194,
  "\u2581;": 2195,
  "\u2581\u05d4\u05de\u05d5\u05df": 2196,
  "\u2581\u05d0\u05d9\u05dc\u05d5": 2197,
  "\u2581\u05d4\u05ea\u05d7\u05ea": 2198,
  "\u2581forever": 2199,
  "\u2581George": 2200,
  "1": 2201,
  "\u2581\u05d0\u05e6\u05dc": 2202,
  "\u2581cell": 2203,
  "\u2581\u05de\u05d9\u05dc\u05d4": 2204,
  "\u2581\u05dc\u05e2\u05e6\u05de\u05da": 2205,
  "\u2581problems": 2206,
  "\u2581\u05e9\u05d4\u05d9\u05d9\u05ea": 2207,
  "\u2581\u05d5\u05d2": 2208,
  "hmm": 2209,
  "\u2581\u05e0\u05d0": 2210,
  "\u2581service": 2211,
  "\u2581Joe": 2212,
  "\u2581\u05d0\u05d9\u05e0\u05d9": 2213,
  "\u2581\u05de\u05d7\u05db\u05d4": 2214,
  "\u2581\u05d0\u05d9\u05d3\u05d9\u05d5\u05d8": 2215,
  "\u05d9\u05d9\u05d4": 2216,
  "\u2581\u05ea\u05d5\u05db\u05dc\u05d9": 2217,
  "\u2581cop": 2218,
  "\u05d5\u05d1": 2219,
  "\u2581respect": 2220,
  "\u2581swear": 2221,
  "da": 2222,
  "\u2581Ben": 2223,
  "\u2581\u05d1\u05de\u05d4\u05dc\u05da": 2224,
  "\u2581\u05d4\u05e9\u05e0\u05d4": 2225,
  "\u2581\u05e8\u05d7\u05d5\u05e7": 2226,
  "\u2581\u05e2\u05d1\u05d3": 2227,
  "\u2581wearing": 2228,
  "\u2581Think": 2229,
  "\u2581Huh": 2230,
  "\u2581\u05dc\u05d7\u05e4\u05e9": 2231,
  "\u2581field": 2232,
  "\u2581\u05d0\u05dc\u05d9\u05d4": 2233,
  "ity": 2234,
  "\u2581\u05d9\u05d9\u05ea\u05db\u05df": 2235,
  "\u2581\u05e7\u05e4\u05d4": 2236,
  "\u2581crime": 2237,
  "\u2581\u05d4\u05d4\u05d5\u05d0": 2238,
  "\u2581\u05e9\u05d0\u05d9": 2239,
  "\u2581appreciate": 2240,
  "\u2581normal": 2241,
  "\u2581wear": 2242,
  "\u2581Isn": 2243,
  "\u2581\u05e9\u05e6\u05e8\u05d9\u05da": 2244,
  "son": 2245,
  "\u2581victim": 2246,
  "\u2581fix": 2247,
  "\u2581\u05d4\u05de\u05e9\u05d7\u05e7": 2248,
  "\u2581\u05e4\u05d5\u05dc": 2249,
  "\u2581saved": 2250,
  "\u2581missed": 2251,
  "\u2581page": 2252,
  "\u2581government": 2253,
  "\u2581\u05de\u05e0\u05d9\u05d7\u05d4": 2254,
  "\u2581smart": 2255,
  "\u2581peace": 2256,
  "\u2581\u05d4\u05d1\u05d7\u05d5\u05e8\u05d4": 2257,
  "\u2581\u05d4\u05ea\u05d9\u05e7": 2258,
  "\u2581certain": 2259,
  "\u2581\u05e9\u05e0\u05d9\u05db\u05dd": 2260,
  "\u2581\u05e0\u05e2\u05d9\u05dd": 2261,
  "\u2581\u05dc\u05de\u05d9\u05e9\u05d4\u05d5": 2262,
  "\u2581\u05e2\u05d5\u05d1\u05d3\u05ea": 2263,
  "\u2581Christmas": 2264,
  "\u2581seven": 2265,
  "\u2581Say": 2266,
  "\u2581\u05d4\u05de\u05dc\u05da": 2267,
  "\u2581\u05e8": 2268,
  "\u2581\u05d4\u05de\u05ea": 2269,
  "\u2581\u05e9\u05d1\u05d5\u05e2\u05d5\u05ea": 2270,
  "\u2581\u05e9\u05de\u05ea": 2271,
  "\u2581apartment": 2272,
  "\u2581\u05d1\u05d0\u05de\u05e6\u05e2": 2273,
  "\u2581became": 2274,
  "\u2581\u05db\u05ea\u05d1": 2275,
  "\u05db\u05d5": 2276,
  "\u2581\u05dc\u05d4\u05d5\u05d3\u05d5\u05ea": 2277,
  "\u2581fear": 2278,
  "V": 2279,
  "\u2581y": 2280,
  "\u2581\u05d4\u05de\u05e9\u05e4\u05d8": 2281,
  "\u2581finish": 2282,
  "\u2581spirit": 2283,
  "ro": 2284,
  "\u2581girlfriend": 2285,
  "ri": 2286,
  "\u2581\u05dc\u05e2\u05de\u05d5\u05d3": 2287,
  "\u2581terrible": 2288,
  "\u2581wonder": 2289,
  "\u2581sitting": 2290,
  "\u05de\u05ea\u05d9": 2291,
  "\u2581\u05de\u05e9\u05d5\u05dd": 2292,
  "il": 2293,
  "\u2581Al": 2294,
  "\u2581faith": 2295,
  "ch": 2296,
  "\u2581\u05e0\u05e9\u05e7": 2297,
  "\u2581simple": 2298,
  "\u2581position": 2299,
  "\u2581\u05e2\u05d5\u05d6\u05e8": 2300,
  "\u05dc\u05da": 2301,
  "\u2581paid": 2302,
  "\u2581Welcome": 2303,
  "\u2581\u05de\u05d9\u05d5\u05d7\u05d3": 2304,
  "\u2581\u05d8\u05d5\u05d1\u05d5\u05ea": 2305,
  "\u2581dangerous": 2306,
  "\u2581\u05d7\u05d1\u05dc": 2307,
  "\u2581song": 2308,
  "\u2581\u05d4\u05e4\u05e0\u05d9\u05dd": 2309,
  "\u2581\u05d4\u05de\u05e7\u05e8\u05d0": 2310,
  "\u05d9\u05d9\u05de\u05e1": 2311,
  "\u2581calls": 2312,
  "\u2581\u05dc\u05e4\u05d2\u05d5\u05e2": 2313,
  "\u2581\u05dc\u05ea\u05e4\u05d5\u05e1": 2314,
  "\u2581\u05e0\u05d9\u05d5": 2315,
  "co": 2316,
  "\u2581\u05d4\u05d0\u05dc": 2317,
  "\u2581wonderful": 2318,
  "\u2581force": 2319,
  "\u2581\u05e9\u05d5\u05d8\u05e8": 2320,
  "\u2581\u05d0\u05dc\u05d9\u05e0\u05d5": 2321,
  "\u2581sell": 2322,
  "\u2581\u05dc\u05d6\u05d5\u05d6": 2323,
  "\u2581spent": 2324,
  "\u2581support": 2325,
  "\u2581\u05e2\u05dc\u05d5\u05dc": 2326,
  "\u05d1\u05df": 2327,
  "\u2581card": 2328,
  "\u2581\u05d9\u05db\u05d5\u05dc\u05ea": 2329,
  "\u2581attention": 2330,
  "\u2581involved": 2331,
  "Y": 2332,
  "\u2581\u05dc\u05d4\u05e1\u05d1\u05d9\u05e8": 2333,
  "\u2581cause": 2334,
  "3": 2335,
  "\u05e8\u05dc\u05d9": 2336,
  "\u2581\u05de\u05d2": 2337,
  "\u2581dude": 2338,
  "\u2581\u05e2\u05e9\u05d5": 2339,
  "\u2581\u05d4\u05e0\u05db\u05d5\u05df": 2340,
  "\u2581\u05e0\u05e2\u05dc\u05dd": 2341,
  "\u2581\u05d4\u05e8\u05d2": 2342,
  "at": 2343,
  "\u2581\u05d0\u05dc\u05d9\u05d9\u05da": 2344,
  "\u05d5\u05dc": 2345,
  "\u2581\u05dc\u05d4\u05d7\u05d6\u05d9\u05e8": 2346,
  "\u2581\u05d4\u05de\u05d5\u05d5\u05ea": 2347,
  "\u05d0\u05d7\u05d3": 2348,
  "\u2581stopped": 2349,
  "\u2581\u05d4\u05d3\u05dd": 2350,
  "\u2581boyfriend": 2351,
  "\u2581tired": 2352,
  "\u2581present": 2353,
  "\u2581\u05d4\u05ea\u05d9\u05e0\u05d5\u05e7": 2354,
  "ry": 2355,
  "\u2581More": 2356,
  "\u2581\u05de\u05e2\u05de\u05d3": 2357,
  "\u2581imagine": 2358,
  "\u2581\u05d4\u05d2\u05d9\u05d5\u05e0\u05d9": 2359,
  "\u05d1\u05e8": 2360,
  "\u2581Watch": 2361,
  "\u2581accident": 2362,
  "\u2581\u05e9\u05e0\u05d5\u05db\u05dc": 2363,
  "\u2581\u05e9\u05e8\u05d4": 2364,
  "\u05d1\u05d5": 2365,
  "\u2581ring": 2366,
  "\u2581example": 2367,
  "\u2581\u05e2\u05e9\u05d9\u05e0\u05d5": 2368,
  "\u2581\u05de\u05db\u05dd": 2369,
  "\u2581\u05d8\u05d9\u05e4\u05e9": 2370,
  "\u2581President": 2371,
  "\u2581\u05e6\u05d5\u05e8\u05da": 2372,
  "\u2581James": 2373,
  "\u2581marriage": 2374,
  "\u2581ball": 2375,
  "\u2581\u05de\u05ea\u05d9\u05dd": 2376,
  "\u2581\u05d5\u05d0\u05dc": 2377,
  "\u2581\u05e9\u05e0\u05d9\u05e0\u05d5": 2378,
  "\u2581\u05dc\u05d0\u05e3": 2379,
  "\u2581\u05de\u05ea\u05d5\u05e7": 2380,
  "\u2581agree": 2381,
  "\u05e7\u05d4": 2382,
  "\u2581charge": 2383,
  "\u2581blow": 2384,
  "\u05d1\u05d8\u05d7": 2385,
  "\u2581\u05d0\u05de\u05d5\u05e8\u05d4": 2386,
  "\u2581\u05d9\u05e2\u05e9\u05d4": 2387,
  "\u2581partner": 2388,
  "\u05e7\u05e1": 2389,
  "\u05d2\u05e8": 2390,
  "\u2581proud": 2391,
  "\u2581public": 2392,
  "\u05ea\u05d4": 2393,
  "\u2581\u05de\u05d9\u05d3\u05d9": 2394,
  "\u2581\u05d0\u05d9\u05ea\u05dd": 2395,
  "\u2581TV": 2396,
  "\u2581Y": 2397,
  "\u2581\u05ea\u05d4\u05d9\u05d9": 2398,
  "\u05d5\u05dc\u05d9": 2399,
  "\u2581hasn": 2400,
  "\u2581poor": 2401,
  "\u2581eight": 2402,
  "\u2581Ooh": 2403,
  "\u2581forward": 2404,
  "\u2581yesterday": 2405,
  "\u2581lawyer": 2406,
  "\u2581\u05de\u05ea\u05d5\u05e7\u05d4": 2407,
  "ul": 2408,
  "ton": 2409,
  "\u2581careful": 2410,
  "\u2581\u05d4\u05e9\u05d1\u05d5\u05e2": 2411,
  "\u2581\u05dc\u05d1\u05df": 2412,
  "\u2581risk": 2413,
  "\u2581\u05d4\u05e7\u05d5": 2414,
  "\u2581\u05d1\u05e2\u05e6\u05de\u05d9": 2415,
  "do": 2416,
  "\u2581Agent": 2417,
  "\u2581b": 2418,
  "we": 2419,
  "\u2581\u05d0\u05db\u05df": 2420,
  "\u2581lunch": 2421,
  "\u2581\u05d1\u05d7\u05d5\u05e8\u05d9\u05dd": 2422,
  "\u2581\u05d7\u05e9\u05d1\u05ea": 2423,
  "\u05d5\u05d5\u05d4": 2424,
  "ian": 2425,
  "\u2581\u05de\u05d0\u05d9\u05e4\u05d4": 2426,
  "\u2581soul": 2427,
  "\u2581\u05d1\u05e9\u05d1\u05d5\u05e2": 2428,
  "\u2581\u05d4\u05dc\u05d5\u05d5\u05d0\u05d9": 2429,
  "\u2581\u05e9\u05d0\u05de\u05e8\u05ea": 2430,
  "\u2581\u05dc\u05d4\u05e9\u05d0\u05d9\u05e8": 2431,
  "\u2581\u05e6\u05e2\u05d9\u05e8": 2432,
  "\u2581bought": 2433,
  "ia": 2434,
  "\u2581\u05d4\u05de\u05d3\u05d9\u05e0\u05d4": 2435,
  "\u2581within": 2436,
  "\u2581paper": 2437,
  "\u2581named": 2438,
  "\u2581\u05d4\u05d4\u05d5\u05e8\u05d9\u05dd": 2439,
  "\u2581\u05d0\u05d7\u05d6\u05d5\u05e8": 2440,
  "\u2581Back": 2441,
  "\u2581fair": 2442,
  "\u2581\u05d3\u05d5\u05e7\u05d8\u05d5\u05e8": 2443,
  "\u05e8\u05ea": 2444,
  "\u2581\u05dc\u05e8\u05d2\u05e2": 2445,
  "\u2581\u05d7\u05db\u05dd": 2446,
  "\u2581Anything": 2447,
  "U": 2448,
  "\u2581definitely": 2449,
  "\u2581clothes": 2450,
  "\u2581\u05dc\u05db\u05d5\u05dc\u05dd": 2451,
  "\u05e8\u05d4": 2452,
  "\u2581self": 2453,
  "\u2581\u05d1\u05e1\u05d5\u05e3": 2454,
  "\u05e7\u05d8": 2455,
  "\u2581\u05e8\u05d1\u05d5\u05ea": 2456,
  "\u2581favor": 2457,
  "\u2581cops": 2458,
  "\u2581\u05d4\u05d0\u05e7\u05d3\u05d7": 2459,
  "um": 2460,
  "\u2581\u05e9\u05e0\u05d9\u05d5\u05ea": 2461,
  "\u2581De": 2462,
  "\u2581plane": 2463,
  "one": 2464,
  "\u2581\u05d0\u05e6\u05d8\u05e8\u05da": 2465,
  "\u2581\u05d2\u05d1\u05d5\u05d4": 2466,
  "ist": 2467,
  "\u2581\u05d4\u05e9\u05e0\u05d9\u05dd": 2468,
  "\u2581\u05d5\u05e9": 2469,
  "\u2581\u05ea\u05e7\u05e9\u05d9\u05d1\u05d9": 2470,
  "\u2581\u05dc\u05d1\u05e7\u05e9": 2471,
  "\u2581\u05d4\u05d2\u05d1": 2472,
  "\u2581\u05d8\u05dc\u05e4\u05d5\u05df": 2473,
  "\u2581\u05d4\u05d5\u05d3\u05e2\u05d4": 2474,
  "\u2581\u05ea\u05d5\u05db\u05e0\u05d9\u05ea": 2475,
  "\u2581themselves": 2476,
  "\u2581Over": 2477,
  "\u2581Earth": 2478,
  "\u2581wake": 2479,
  "\u2581ways": 2480,
  "\u2581often": 2481,
  "\u2581deep": 2482,
  "\u2581\u05e2\u05d5\u05d1\u05d3\u05d9\u05dd": 2483,
  "\u2581Henry": 2484,
  "\u2581\u05de\u05e6\u05d0": 2485,
  "\u2581\u05ea\u05e2\u05e9\u05d9": 2486,
  "\u2581Anyway": 2487,
  "\u2581seconds": 2488,
  "\u2581America": 2489,
  "\u2581seat": 2490,
  "\u2581contact": 2491,
  "\u2581quick": 2492,
  "\u2581video": 2493,
  "\u2581learned": 2494,
  "\u05d9\u05d9\u05e7": 2495,
  "\u2581window": 2496,
  "\u05d9\u05e0\u05d2": 2497,
  "\u2581Leave": 2498,
  "\u2581prove": 2499,
  "\u2581\u05e7\u05e8\u05d0": 2500,
  "\u2581instead": 2501,
  "\u2581\u05e0\u05de\u05e6\u05d0\u05d9\u05dd": 2502,
  "\u2581\u05d0\u05d5\u05e4\u05df": 2503,
  "\u2581\u05dc\u05d4\u05e1\u05ea\u05db\u05dc": 2504,
  "\u2581stick": 2505,
  "\u2581fell": 2506,
  "\u2581\u05d4\u05d9\u05d8\u05d1": 2507,
  "\u2581\u05de\u05e6\u05e4\u05d4": 2508,
  "\u2581interested": 2509,
  "\u2581Since": 2510,
  "\u2581third": 2511,
  "\u2581trip": 2512,
  "\u2581\u05d6\u05d5\u05d4\u05d9": 2513,
  "\u2581gift": 2514,
  "\u2581Still": 2515,
  "\u2581\u05e2\u05d5\u05dc\u05d4": 2516,
  "\u2581ice": 2517,
  "\u2581feels": 2518,
  "\u2581\u05e1\u05d1\u05d9\u05d1": 2519,
  "\u2581\u05d0\u05d1\u05d9\u05da": 2520,
  "\u2581\u05e0\u05de\u05e6\u05d0\u05ea": 2521,
  "old": 2522,
  "\u05e9\u05dc\u05d5\u05dd": 2523,
  "\u2581\u05d4\u05e0\u05e8\u05d9": 2524,
  "\u2581store": 2525,
  "\u2581mess": 2526,
  "\u2581\u05e0\u05e6\u05d8\u05e8\u05da": 2527,
  "\u2581\u05dc\u05d0\u05d7\u05e8\u05d5\u05e0\u05d4": 2528,
  "\u05d5\u05d9": 2529,
  "\u2581Big": 2530,
  "\u2581V": 2531,
  "\u2581file": 2532,
  "\u2581Ha": 2533,
  "\u2581\u05d2\u05d1": 2534,
  "\u2581Sometimes": 2535,
  "\u2581\u05dc\u05d4\u05d9": 2536,
  "\u2581\u05ea\u05d9\u05e0\u05d5\u05e7": 2537,
  "\u2581~": 2538,
  "\u2581\u05e9\u05e0\u05d9\u05d9\u05d4": 2539,
  "\u2581truck": 2540,
  "\u2581\u05d4\u05e8\u05e2\u05d9\u05d5\u05df": 2541,
  "\u2581St": 2542,
  "\u2581honor": 2543,
  "\u2581FBI": 2544,
  "No": 2545,
  "5": 2546,
  "\u2581standing": 2547,
  "\u2581\u05e9\u05dc\u05d7": 2548,
  "\u05d3\u05d5": 2549,
  "\u2581\u05e9\u05d1\u05d4": 2550,
  "\u2581starting": 2551,
  "\u2581\u05de\u05d1\u05e7\u05e9": 2552,
  "\u2581blue": 2553,
  "\u2581boat": 2554,
  "\u2581Mary": 2555,
  "\u2581forgot": 2556,
  "\u2581join": 2557,
  "\u2581\u05dc\u05e4\u05ea\u05d5\u05d7": 2558,
  "\u2581hide": 2559,
  "\u2581\u05db\u05dc\u05d1": 2560,
  "\u2581evening": 2561,
  "\u2581\u05d4\u05e7\u05d8\u05e0\u05d4": 2562,
  "\u2581\u05e0\u05d9\u05e7": 2563,
  "\u2581Max": 2564,
  "\u2581\u05d1\u05e2\u05e6\u05de\u05da": 2565,
  "\u2581experience": 2566,
  "ma": 2567,
  "\u2581interesting": 2568,
  "\u2581\u05d4\u05d7\u05d3\u05e9\u05d4": 2569,
  "\u05d1\u05dc": 2570,
  "ies": 2571,
  "\u2581\u05db\u05d5\u05dc\u05db\u05dd": 2572,
  "\u2581Doctor": 2573,
  "\u2581\u05de\u05d9\u05e9\u05d4\u05d9": 2574,
  "\u2581\u05d4\u05d5\u05d3": 2575,
  "\u2581\u05d8\u05d5\u05dd": 2576,
  "\u2581president": 2577,
  "\u2581computer": 2578,
  "\u05e2\u05dd": 2579,
  "\u2581decision": 2580,
  "\u2581\u05d9\u05e9\u05df": 2581,
  "\u2581study": 2582,
  "\u2581\u05e7\u05d9\u05d1\u05dc": 2583,
  "\u2581\u05de\u05e0\u05d4\u05dc": 2584,
  "\u2581Didn": 2585,
  "\u2581Open": 2586,
  "\u2581\u05d4\u05d0\u05de\u05d9\u05ea\u05d9": 2587,
  "\u2581patient": 2588,
  "\u2581hotel": 2589,
  "\u2581smell": 2590,
  "\u2581\u05e8\u05d9\u05e6": 2591,
  "\u2581scene": 2592,
  "\u2581\u05e0\u05d5\u05e1\u05e4\u05ea": 2593,
  "\u2581honest": 2594,
  "\u05d1\u05ea": 2595,
  "\u2581\u05ea\u05d7\u05d6\u05d5\u05e8": 2596,
  "as": 2597,
  "\u2581club": 2598,
  "\u2581\u05d4\u05de\u05d5": 2599,
  "\u2581\u05de\u05db\u05d9\u05d5\u05d5\u05df": 2600,
  "\u2581Turn": 2601,
  "te": 2602,
  "ting": 2603,
  "\u2581\u05d4\u05d7": 2604,
  "\u2581\u05e9\u05de\u05e2": 2605,
  "\u2581\u05e2\u05e9\u05ea\u05d4": 2606,
  "\u2581\u05ea\u05de\u05d5\u05e0\u05d4": 2607,
  "\u05d9\u05d8": 2608,
  "\u2581holding": 2609,
  "\u2581\u05e7\u05d1\u05dc": 2610,
  "J": 2611,
  "\u2581fish": 2612,
  "\u2581\u05dc\u05d1\u05e8\u05d5\u05d7": 2613,
  "\u2581\u05e8\u05d5\u05e4\u05d0": 2614,
  "\u2581gentlemen": 2615,
  "\u2581college": 2616,
  "be": 2617,
  "\u2581broken": 2618,
  "\u2581\u05d1\u05e9\u05e8": 2619,
  "\u2581\u05ea\u05d1\u05d9\u05d0": 2620,
  "\u2581\u05de\u05d9\u05e1": 2621,
  "\u2581crap": 2622,
  "ment": 2623,
  "\u2581\u05e9\u05e2\u05e9\u05d9\u05ea": 2624,
  "\u2581\u05d4\u05d9\u05d3\u05d9\u05d9\u05dd": 2625,
  "\u2581Honey": 2626,
  "\u2581\u05ea\u05e0\u05d5": 2627,
  "\u05d8\u05e8": 2628,
  "\u2581kiss": 2629,
  "\u05e5": 2630,
  "\u2581sea": 2631,
  "\u2581\u05e0\u05d9": 2632,
  "go": 2633,
  "\u2581\u05d9\u05e9\u05e8\u05d0\u05dc": 2634,
  "\u2581\u05d9\u05e9\u05e0\u05d4": 2635,
  "\u2581\u05e9\u05d2": 2636,
  "less": 2637,
  "\u2581wall": 2638,
  "\u2581\u05de\u05d5\u05d5\u05ea": 2639,
  "\u2581\u05d4\u05de\u05d5\u05d7": 2640,
  "\u2581surprise": 2641,
  "\u2581\u05d6\u05d5\u05d2": 2642,
  "\u05dc\u05d9\u05dd": 2643,
  "\u2581\u05e6\u05d0": 2644,
  "\u05d0\u05dc\u05d5\u05d4\u05d9\u05dd": 2645,
  "\u2581\u05de\u05db\u05d5\u05e0\u05d9\u05ea": 2646,
  "\u2581miles": 2647,
  "\u2581walking": 2648,
  "\u2581\u05e0\u05e7\u05e8\u05d0": 2649,
  "\u05db\u05ea": 2650,
  "\u2581\u05e1\u05e7\u05e1": 2651,
  "\u2581excuse": 2652,
  "\u2581Once": 2653,
  "\u2581calm": 2654,
  "\u2581Christian": 2655,
  "\u2581Time": 2656,
  "\u2581rules": 2657,
  "\u2581\u05d4\u05d9\u05dc\u05d3\u05d4": 2658,
  "\u2581\u05dc\u05e6\u05e4\u05d5\u05ea": 2659,
  "\u05d1\u05d5\u05d0": 2660,
  "\u2581\u05de\u05e7\u05e1": 2661,
  "\u2581\u05d0\u05e7\u05d3\u05d7": 2662,
  "\u2581La": 2663,
  "\u2581Last": 2664,
  "\u2581lived": 2665,
  "\u2581\u05d4\u05e7\u05d8\u05e2": 2666,
  "\u2581figured": 2667,
  "It": 2668,
  "\u2581\u05db\u05d6\u05d0\u05ea": 2669,
  "ha": 2670,
  "\u2581\u05de\u05e9": 2671,
  "\u2581\u05d3\u05e7\u05d4": 2672,
  "\u2581\u05e9\u05d4\u05d9\u05d5": 2673,
  "\u2581\u05d4\u05d2\u05d3\u05d5\u05dc\u05d4": 2674,
  "\u2581\u05dc\u05d0\u05d8": 2675,
  "\u2581IT": 2676,
  "\u2581\u05d0\u05d4\u05d1\u05ea\u05d9": 2677,
  "\u05e1\u05d5\u05df": 2678,
  "\u2581helping": 2679,
  "\u2581cash": 2680,
  "\u2581\u05d7\u05dd": 2681,
  "\u2581fighting": 2682,
  "\u2581\u05d0\u05e9\u05ea\u05d9": 2683,
  "\u2581\u05dc\u05d0\u05e8\u05d5\u05d7\u05ea": 2684,
  "\u2581\u05ea\u05e8\u05e6\u05d4": 2685,
  "\u2581private": 2686,
  "\u2581\u05de\u05e1\u05d5\u05db\u05df": 2687,
  "\u2581doubt": 2688,
  "\u05d2\u05d9": 2689,
  "\u2581\u05db\u05dc\u05d9": 2690,
  "ta": 2691,
  "year": 2692,
  "\u2581\u05d9\u05d5\u05db\u05dc": 2693,
  "\u2581train": 2694,
  "\u2581\u05de\u05e0\u05e1\u05d9\u05dd": 2695,
  "\u2581none": 2696,
  "\u2581\u05d8\u05e8\u05d9": 2697,
  "\u2581enjoy": 2698,
  "\u05d5\u05d9\u05d5\u05ea": 2699,
  "\u2581\u05e2\u05d5\u05d1\u05e8": 2700,
  "\u2581Should": 2701,
  "\u05e4\u05e2\u05dd": 2702,
  "\u2581difficult": 2703,
  "\u2581\u05dc\u05e9\u05dc\u05d5\u05d7": 2704,
  "\u2581quiet": 2705,
  "\u05d9\u05d3": 2706,
  "\u05d0\u05d5\u05dc\u05d9": 2707,
  "\u2581\u05de\u05ea\u05d0\u05d9\u05dd": 2708,
  "\u2581\u05d1\u05db\u05dc\u05d0": 2709,
  "\u05de\u05e0\u05d5": 2710,
  "\u2581board": 2711,
  "\u2581\u05dc\u05d4\u05d7\u05d6\u05d9\u05e7": 2712,
  "\u2581\u05d0\u05d9\u05e0\u05e0\u05d9": 2713,
  "\u2581\u05e9\u05d0\u05e8": 2714,
  "\u2581sad": 2715,
  "\u2581\u05de\u05d7\u05e4\u05e9\u05d9\u05dd": 2716,
  "\u2581Somebody": 2717,
  "\u2581jail": 2718,
  "\u2581\u05d1\u05e4\u05e0\u05d9": 2719,
  "\u2581\u05dc\u05e1\u05d9\u05d9\u05dd": 2720,
  "\u2581\u05de\u05e9\u05d5\u05d2\u05e2": 2721,
  "\u05e9\u05d9": 2722,
  "\u2581\u05d1\u05e9\u05e2\u05d4": 2723,
  "\u2581putting": 2724,
  "\u2581\u05de\u05d3\u05d5\u05d1\u05e8": 2725,
  "\u2581\u05d1\u05de\u05e9\u05e8\u05d3": 2726,
  "\u2581\u05dc\u05d0\u05dc": 2727,
  "\u2581\u05e1\u05de\u05d9\u05dd": 2728,
  "\u2581bank": 2729,
  "\u05e4\u05d5\u05ea": 2730,
  "\u2581Jane": 2731,
  "\u05d4\u05d0\u05dd": 2732,
  "\u2581\u05de\u05e6\u05d5\u05d9\u05df": 2733,
  "\u2581\u05dc\u05d7\u05e5": 2734,
  "\u2581Ray": 2735,
  "\u2581\u05dc\u05e9\u05e2\u05d1\u05e8": 2736,
  "\u2581Detective": 2737,
  "\u2581\u05d4\u05d1\u05e8\u05d9\u05ea": 2738,
  "\u2581favorite": 2739,
  "\u2581low": 2740,
  "\u2581ourselves": 2741,
  "\u2581\u05d4\u05d7\u05d1\u05e8\u05d9\u05dd": 2742,
  "\u2581Perhaps": 2743,
  "\u2581\u05e2\u05d5\u05e8\u05da": 2744,
  "\u2581stuck": 2745,
  "\u2581dress": 2746,
  "\u2581\u05e9\u05d9\u05e0\u05d5\u05d9": 2747,
  "ty": 2748,
  "\u2581\u05d4\u05ea\u05d7\u05d9\u05dc": 2749,
  "ne": 2750,
  "\u2581d": 2751,
  "\u2581\u05d9\u05e2\u05d6\u05d5\u05e8": 2752,
  "\u2581Red": 2753,
  "\u2581\u05d4\u05d2\u05d5\u05e3": 2754,
  "\u2581\u05d4\u05d0\u05d7\u05e8\u05d9\u05dd": 2755,
  "\u2581address": 2756,
  "\u2581dying": 2757,
  "\u2581\u05d4\u05e9\u05d0\u05e8": 2758,
  "\u2581teach": 2759,
  "\u2581c": 2760,
  "\u2581unless": 2761,
  "\u2581\u05de\u05e8\u05d9": 2762,
  "\u2581Check": 2763,
  "\u258122": 2764,
  "\u2581drunk": 2765,
  "\u2581\u05d7\u05d3\u05e9\u05d9\u05dd": 2766,
  "\u2581\u05d4\u05e9\u05d0\u05dc\u05d4": 2767,
  "\u2581\u05e9\u05d5\u05e0\u05d9\u05dd": 2768,
  "\u2581\u05d4\u05de\u05d9\u05dd": 2769,
  "\u2581\u05de\u05e0\u05ea": 2770,
  "\u2581\u05d0\u05e0\u05e9\u05d9": 2771,
  "\u2581\u05de\u05dc": 2772,
  "\u2581helped": 2773,
  "\u2581letter": 2774,
  "\u2581\u05d3\u05e0\u05d9": 2775,
  "\u05e8\u05d5": 2776,
  "\u2581\u05d4\u05e4\u05d4": 2777,
  "\u2581\u05d9\u05d3\u05d9\u05d9\u05dd": 2778,
  "\u25811,": 2779,
  "\u2581\u05e6\u05d5\u05d3\u05e7\u05ea": 2780,
  "\u2581Alex": 2781,
  "\u2581owe": 2782,
  "\u258121": 2783,
  "\u2581weapon": 2784,
  "\u2581station": 2785,
  "\u2581\u05d4\u05dc\u05db\u05ea\u05d9": 2786,
  "\u2581\u05d7\u05d6\u05e8": 2787,
  "\u2581brothers": 2788,
  "\u2581\u05e9\u05e2\u05e9\u05d9\u05ea\u05d9": 2789,
  "\u2581\u05d1\u05d0\u05de\u05e6\u05e2\u05d5\u05ea": 2790,
  "\u2581tough": 2791,
  "\u2581choose": 2792,
  "\u2581suppose": 2793,
  "\u2581upset": 2794,
  "\u2581Mark": 2795,
  "\u2581\u05ea\u05dc\u05d5\u05d9": 2796,
  "\u2581\u05e9\u05d0\u05e3": 2797,
  "\u2581\u05d4\u05e9\u05e0\u05d9\u05d9\u05d4": 2798,
  "\u2581\u05e7\u05e6\u05e8": 2799,
  "\u2581\u05d0\u05d2\u05d1": 2800,
  "\u05e4\u05d5\u05e8": 2801,
  "\u2581fly": 2802,
  "\u2581\u05de\u05e6\u05dc\u05d9\u05d7": 2803,
  "\u2581certainly": 2804,
  "\u2581\u05d1\u05e9\u05e0\u05d4": 2805,
  "\u2581ladies": 2806,
  "\u2581\u05d4\u05e6": 2807,
  "\u2581\u05dc\u05ea": 2808,
  "\u2581\u05d7\u05de\u05d5\u05d3": 2809,
  "\u2581\u05d7\u05df": 2810,
  "\u2581\u05d6\u05e7\u05d5\u05e7\u05d9\u05dd": 2811,
  "\u2581among": 2812,
  "\u2581\u05d9\u05d0\u05dc\u05dc\u05d4": 2813,
  "\u2581whether": 2814,
  "\u2581planet": 2815,
  "\u2581feelings": 2816,
  "\u2581\u05e0\u05e9\u05d1\u05e2": 2817,
  "\u2581whoa": 2818,
  "\u2581\u05d0\u05e8\u05d1\u05e2\u05d4": 2819,
  "\u2581finished": 2820,
  "\u2581\u05dc\u05ea\u05e7\u05df": 2821,
  "\u05d9\u05e7": 2822,
  "\u2581visit": 2823,
  "\u2581Dude": 2824,
  "\u2581evil": 2825,
  "\u2581angry": 2826,
  "\u2581Out": 2827,
  "\u2581count": 2828,
  "\u2581loves": 2829,
  "\u2581hundred": 2830,
  "\u2581sun": 2831,
  "\u2581\u05e2\u05d3\u05d9\u05e3": 2832,
  "\u2581build": 2833,
  "\u2581showed": 2834,
  "\u2581Ms": 2835,
  "\u2581Love": 2836,
  "\u2581\u05e2\u05d5\u05dc\u05dd": 2837,
  "\u2581\u05d1\u05dc\u05d1\u05d3": 2838,
  "\u05d0\u05d9\u05e4\u05d4": 2839,
  "\u2581\u05e8\u05e6\u05d9\u05ea": 2840,
  "\u05d8\u05d5": 2841,
  "\u2581\u05d1\u05dc": 2842,
  "\u2581\u05d1\u05d9\u05dc": 2843,
  "We": 2844,
  "\u05d0\u05e0\u05d2": 2845,
  "\u2581\u05d2\u05e8\u05dd": 2846,
  "\u2581difference": 2847,
  "\u2581\u05e9\u05d9\u05d7\u05d4": 2848,
  "\u2581rock": 2849,
  "\u2581type": 2850,
  "\u2581reading": 2851,
  "\u2581machine": 2852,
  "se": 2853,
  "ah": 2854,
  "\u2581Show": 2855,
  "\u2581\u05d4\u05de\u05de": 2856,
  "ate": 2857,
  "\u2581t": 2858,
  "\u05de\u05e1": 2859,
  "\u2581\u05e9\u05d1\u05e2": 2860,
  "\u2581\u05d0\u05dc\u05db\u05e1": 2861,
  "\u2581\u05e9\u05e0\u05d9\u05d9\u05dd": 2862,
  "\u2581\u05d1\u05d0\u05d9\u05dd": 2863,
  "\u2581Before": 2864,
  "\u2581drugs": 2865,
  "\u2581\u05e9\u05e7\u05d8": 2866,
  "\u258123": 2867,
  "\u2581pressure": 2868,
  "\u2581gives": 2869,
  "\u2581\u05d0\u05d4\u05d4": 2870,
  "\u2581following": 2871,
  "\u2581cute": 2872,
  "\u2581\u05d4\u05d7\u05d5\u05e7": 2873,
  "\u2581\u05d4\u05e0": 2874,
  "\u2581\u05de\u05e7\u05d1\u05dc\u05d9\u05dd": 2875,
  "\u05e7\u05dc": 2876,
  "\u05d0\u05e8\u05d3": 2877,
  "\u2581driving": 2878,
  "me": 2879,
  "\u2581Sit": 2880,
  "\u2581\u05de\u05e1\u05ea\u05db\u05dc": 2881,
  "\u2581worst": 2882,
  "\u05d9\u05e8\u05d4": 2883,
  "\u2581\u05d1\u05e2\u05d1\u05d5\u05d3\u05d4": 2884,
  "\u05e7\u05d5\u05dc": 2885,
  "\u2581\u05dc\u05d4\u05d9\u05dc\u05d7\u05dd": 2886,
  "\u2581\u05de\u05d0\u05d7\u05d5\u05e8": 2887,
  "\u2581\u05e9\u05ea\u05d4\u05d9\u05d4": 2888,
  "\u2581Yep": 2889,
  "\u2581\u05de\u05d1\u05d8": 2890,
  "ine": 2891,
  "\u2581\u05e9\u05de\u05d5\u05e0\u05d4": 2892,
  "\u2581arrest": 2893,
  "\u2581\u05d6\u05d9\u05df": 2894,
  "\u2581\u05e4\u05d9\u05dc": 2895,
  "\u05d5\u05e0\u05d4": 2896,
  "\u2581\u05dc\u05e1": 2897,
  "\u05db\u05de\u05d4": 2898,
  "\u2581\u05e6\u05d5": 2899,
  "\u2581\u05dc\u05d1\u05e6\u05e2": 2900,
  "\u05d5\u05e0\u05e1": 2901,
  "\u2581Son": 2902,
  "\u2581Too": 2903,
  "\u2581\u05e4\u05e8\u05e7": 2904,
  "ce": 2905,
  "\u2581\u05d0\u05d9\u05e9\u05d9": 2906,
  "\u2581huge": 2907,
  "\u2581Try": 2908,
  "\u2581con": 2909,
  "4": 2910,
  "\u2581Nick": 2911,
  "\u2581\u05e2\u05e9\u05d5\u05d9": 2912,
  "\u2581final": 2913,
  "\u2581foot": 2914,
  "\u2581Guys": 2915,
  "\u2581account": 2916,
  "\u2581\u05d1\u05e1\u05d1\u05d9\u05d1\u05d4": 2917,
  "\u2581drug": 2918,
  "\u2581liked": 2919,
  "\u2581\u05e9\u05d5\u05d0\u05dc": 2920,
  "\u2581\u05ea\u05de\u05e9\u05d9\u05da": 2921,
  "\u2581\u05e0\u05d3\u05d1\u05e8": 2922,
  "Yeah": 2923,
  "\u2581\u05dc\u05d9\u05e8\u05d5\u05ea": 2924,
  "\u2581accept": 2925,
  "\u2581\u05e2\u05d5\u05d6\u05d1": 2926,
  "\u2581\u05e1\u05d9\u05e4\u05e8": 2927,
  "\u2581willing": 2928,
  "\u2581\u05e2\u05de\u05d5\u05e7": 2929,
  "\u2581Yo": 2930,
  "\u2581p": 2931,
  "\u2581\u05d3\u05d9\u05d1\u05e8\u05ea\u05d9": 2932,
  "\u2581bunch": 2933,
  "\u2581United": 2934,
  "\u2581mission": 2935,
  "\u2581\u05e6\u05e2\u05d3": 2936,
  "\u2581\u05d4\u05d0\u05d1\u05d0": 2937,
  "\u2581\u05d0\u05d9\u05d9": 2938,
  "\u2581\u05d4\u05e8\u05db\u05d1": 2939,
  "\u2581names": 2940,
  "\u2581\u05e4\u05e2\u05d5\u05dc\u05d4": 2941,
  "\u2581\u05de\u05e4\u05d7\u05d3": 2942,
  "\u05d0\u05e8\u05dc\u05d9": 2943,
  "\u2581French": 2944,
  "\u2581\u05e9\u05e8\u05d0\u05d9\u05ea\u05d9": 2945,
  "\u2581\u05d0\u05de\u05d5\u05e8\u05d9\u05dd": 2946,
  "de": 2947,
  "\u2581\u05e1\u05e8\u05d8": 2948,
  "\u2581Bo": 2949,
  "\u2581\u05dc\u05de\u05e9\u05d8\u05e8\u05d4": 2950,
  "\u2581\u05e9\u05d9\u05db\u05d5\u05dc": 2951,
  "\u2581Jimmy": 2952,
  "\u2581tree": 2953,
  "\u2581track": 2954,
  "\u2581\u05dc\u05d4\u05e2\u05d1\u05d9\u05e8": 2955,
  "\u2581keeping": 2956,
  "\u2581\u05ea\u05e6\u05d8\u05e8\u05da": 2957,
  "\u05db\u05d5\u05ea": 2958,
  "\u2581art": 2959,
  "\u05d9\u05e0\u05d9": 2960,
  "\u2581rich": 2961,
  "\u2581\u05de\u05d0\u05d5\u05ea": 2962,
  "\u2581\u05d1\u05ea\u05d9": 2963,
  "\u05dc\u05ea": 2964,
  "\u2581listening": 2965,
  "\u2581\u05d5\u05d0\u05d9\u05df": 2966,
  "\u05e4\u05e8": 2967,
  "ive": 2968,
  "\u2581\u05ea\u05d9\u05e8\u05d2\u05e2": 2969,
  "\u2581\u05db\u05d5\u05d0\u05d1": 2970,
  "ter": 2971,
  "\u2581Mother": 2972,
  "\u2581\u05db\u05ea\u05d5\u05d1": 2973,
  "\u2581grab": 2974,
  "\u2581pleasure": 2975,
  "\u2581marry": 2976,
  "\u2581Israel": 2977,
  "\u2581usually": 2978,
  "\u2581\u05ea\u05d0": 2979,
  "\u2581\u05dc\u05d7\u05d9\u05d9\u05dd": 2980,
  "\u2581\u05e9\u05e2\u05d1\u05e8": 2981,
  "\u2581local": 2982,
  "\u2581o": 2983,
  "\u2581English": 2984,
  "he": 2985,
  "\u2581\u05d4\u05d7\u05dc": 2986,
  "\u2581\u05d1\u05e2\u05e8\u05d1": 2987,
  "\u2581\u05e1\u05d0\u05dd": 2988,
  "\u2581\u05ea\u05d7\u05e9\u05d5\u05d1": 2989,
  "ish": 2990,
  "\u2581\u05de\u05e6\u05d0\u05ea": 2991,
  "\u2581\u05d0\u05d9\u05e0\u05dd": 2992,
  "\u2581energy": 2993,
  "\u2581\u05ea\u05d5": 2994,
  "\u2581\u05d4\u05e1\u05e8\u05d8": 2995,
  "\u2581\u05d4\u05d7\u05d3\u05e8": 2996,
  "\u2581sleeping": 2997,
  "\u2581beginning": 2998,
  "\u2581\u05d1\u05e1\u05d5\u05e4\u05d5": 2999,
  "\u2581\u05ea\u05de\u05d5\u05e0\u05d5\u05ea": 3000,
  "\u2581\u05d0\u05e8\u05d5\u05da": 3001,
  "\u2581\u05e9\u05de\u05d5\u05e8": 3002,
  "\u2018": 3003,
  "\u2581\u05dc\u05d5\u05d5\u05d3\u05d0": 3004,
  "out": 3005,
  "\u2581\u05d3\u05d5\u05de\u05d4": 3006,
  "\u2581\u05d4\u05e1": 3007,
  "\u2581hoping": 3008,
  "\u05e7\u05e8": 3009,
  "\u05b0": 3010,
  "\u2581X": 3011,
  "\u2581\u05d4\u05ea\u05d5\u05db\u05e0\u05d9\u05ea": 3012,
  "\u2581\u05d5\u05e2\u05d5\u05d3": 3013,
  "\u2581\u05e0\u05ea\u05ea\u05d9": 3014,
  "\u2581\u05e2\u05d1\u05d5\u05e8\u05da": 3015,
  "\u2581\u05d4\u05e8\u05d9": 3016,
  "\u2581joke": 3017,
  "\u2581slow": 3018,
  "\u2581hungry": 3019,
  "\u2581\u05e9\u05d7\u05d5\u05e8": 3020,
  "\u2581medical": 3021,
  "\u2581books": 3022,
  "\u2581\u05dc\u05d1\u05e0\u05d5\u05ea": 3023,
  "\u2581client": 3024,
  "\u2581round": 3025,
  "\u2581\u05e7\u05d5\u05d5\u05d9\u05df": 3026,
  "\u2581grow": 3027,
  "\u2581code": 3028,
  "\u2581arm": 3029,
  "\u2581\u05d2\u05d0\u05d4": 3030,
  "\u2581consider": 3031,
  "\u2581\u05e7\u05e8\u05d1": 3032,
  "\u2581\u05dc\u05db\u05ea\u05d5\u05d1": 3033,
  "\u2581_": 3034,
  "\u2581\u05d0\u05d7\u05d5\u05d6": 3035,
  "\u2581fat": 3036,
  "\u2581\u05d1\u05d9\u05e0\u05d9\u05e0\u05d5": 3037,
  "\u2581\u05e0\u05d5\u05d7": 3038,
  "\u2581magic": 3039,
  "\u2581\u05d4\u05d1\u05d0\u05d9\u05dd": 3040,
  "\u2581\u05d4\u05d5\u05d2\u05df": 3041,
  "\u2581\u05d6\u05db\u05d5\u05ea": 3042,
  "est": 3043,
  "\u2581level": 3044,
  "\u2581\u05d4\u05d1\u05d0\u05ea\u05d9": 3045,
  "\u2581\u05d0\u05d5\u05e7\u05d9": 3046,
  "\u2581\u05de\u05e4\u05d7\u05d9\u05d3": 3047,
  "\u2581\u05e0\u05e7\u05d9": 3048,
  "\u2581wine": 3049,
  "\u2581\u05de\u05d8\u05e8": 3050,
  "\u2581promised": 3051,
  "\u2581gas": 3052,
  "\u2581\u05db\u05d0\u05d1": 3053,
  "\u2581built": 3054,
  "\u05dc\u05d9\u05df": 3055,
  "\u2581\u05d4\u05dc\u05d0\u05d4": 3056,
  "\u2581\u05e0\u05d9\u05e1\u05d4": 3057,
  "\u2581\u05d4\u05de\u05d9\u05dc\u05d4": 3058,
  "\u2581reach": 3059,
  "\u2581\u05d4\u05e2\u05d9\u05e0\u05d9\u05d9\u05dd": 3060,
  "ka": 3061,
  "\u2581\u05de\u05e1\u05d9\u05d1\u05d4": 3062,
  "\u2581Bill": 3063,
  "\u2581\u05de\u05dc\u05d0\u05d4": 3064,
  "\u2581\u05de\u05d9\u05e0\u05d9": 3065,
  "\u2581bus": 3066,
  "\u2581\u05e4\u05e8\u05d9": 3067,
  "\u2581\u05de\u05d0\u05d7\u05e8": 3068,
  "\u2581Five": 3069,
  "\u05e7\u05d3\u05d9\u05de\u05d4": 3070,
  "\u2581\u00b6": 3071,
  "\u2581\u05de\u05e1\u05d1\u05d9\u05d1": 3072,
  "\u2581\u05d1\u05d4\u05e6\u05dc\u05d7\u05d4": 3073,
  "\u2581camera": 3074,
  "ass": 3075,
  "\u2581pregnant": 3076,
  "\u2581\u05e1\u05d9\u05de\u05df": 3077,
  "\u2581\u05d1\u05d0\u05d5\u05ea\u05d4": 3078,
  "\u2581conversation": 3079,
  "\u2581\u05db\u05e9\u05d4\u05d9\u05d9\u05ea\u05d9": 3080,
  "\u2581eating": 3081,
  "\u2581idiot": 3082,
  "\u2581further": 3083,
  "\u2581\u05de\u05dc\u05d1\u05d3": 3084,
  "\u2581extra": 3085,
  "\u05d0\u05e3": 3086,
  "\u2581\u05d3\u05e0\u05d9\u05d0\u05dc": 3087,
  "\u2581afternoon": 3088,
  "\u2581\u05de\u05e6\u05d0\u05e0\u05d5": 3089,
  "\u2581fired": 3090,
  "ba": 3091,
  "\u2581\u05d4\u05d0\u05d5\u05e8": 3092,
  "\u2581\u05e9\u05d9\u05dd": 3093,
  "\u2581strange": 3094,
  "\u2581\u05d5\u05d3\u05d0\u05d9": 3095,
  "\u2581\u05ea\u05dc\u05da": 3096,
  "\u2581\u05d4\u05d8\u05d5\u05d1\u05d4": 3097,
  "\u2581General": 3098,
  "\u2581color": 3099,
  "\u05e1\u05ea": 3100,
  "\u05d0\u05d1\u05d0": 3101,
  "by": 3102,
  "\u2581\u05d0\u05d7\u05d5\u05ea\u05d9": 3103,
  "\u2581\u05e9\u05ea\u05d5\u05db\u05dc": 3104,
  "\u2581\u05d3\u05e8": 3105,
  "\u2581blame": 3106,
  "\u2581church": 3107,
  "\u2581\u05db\u05d5\u05dc\u05dc": 3108,
  "ol": 3109,
  "\u2581\u05e2\u05d5\u05de\u05d3\u05d9\u05dd": 3110,
  "\u2581hi": 3111,
  "\u2581destroy": 3112,
  "\u2581allowed": 3113,
  "\u2581witness": 3114,
  "_": 3115,
  "\u2581mention": 3116,
  "\u2581\u05d0\u05d7\u05e8\u05d5\u05ea": 3117,
  "\u2581\u05d1\u05e7\u05d5\u05e9\u05d9": 3118,
  "\u2581\u05d1\u05d2": 3119,
  "\u2581star": 3120,
  "\u2581\u05e9\u05d0\u05d5\u05de\u05e8": 3121,
  "\u2581push": 3122,
  "\u2581\u05e9\u05d5\u05de\u05e8": 3123,
  "\u2581picked": 3124,
  "\u2581\u05d4\u05e2\u05d5\u05d1\u05d3\u05d4": 3125,
  "\u2581\u05d7\u05d9\u05d4": 3126,
  "\u2581access": 3127,
  "\u2581continue": 3128,
  "\u05e9\u05ea": 3129,
  "\u2581\u05de\u05e9\u05ea\u05de\u05e9": 3130,
  "\u2581common": 3131,
  "\u2581\u05d0\u05d1": 3132,
  "\u05e4\u05d5\u05dc": 3133,
  "\u2581\u05e8\u05d9\u05e7": 3134,
  "\u2581steal": 3135,
  "\u05d6\u05d0\u05ea": 3136,
  "ad": 3137,
  "\u2581\u05d4\u05d9\u05d9\u05ea\u05dd": 3138,
  "\u2581quit": 3139,
  "\u2581\u05d4\u05d9\u05dd": 3140,
  "\u2581gay": 3141,
  "\u2581search": 3142,
  "\u2581\u05d7\u05d5\u05e4\u05e9\u05d9": 3143,
  "\u2581\u05db\u05de\u05d5\u05e0\u05d9": 3144,
  "\u2581\u05e8\u05d0\u05e9\u05d9": 3145,
  "\u2581passed": 3146,
  "\u2581officer": 3147,
  "\u2581stole": 3148,
  "of": 3149,
  "\u2581spot": 3150,
  "\u2581\u05d4\u05e8\u05d2\u05e9\u05ea\u05d9": 3151,
  "mo": 3152,
  "\u2581staying": 3153,
  "\u2581\u05e8\u05d3": 3154,
  "\u05d8\u05d5\u05df": 3155,
  "\u2581bathroom": 3156,
  "\u2581\u05d1\u05de\u05db\u05d5\u05e0\u05d9\u05ea": 3157,
  "\u2581Sarah": 3158,
  "\u2581\u05d0\u05d3\u05d5\u05df": 3159,
  "\u2581\u05db\u05e8\u05d8\u05d9\u05e1": 3160,
  "\u2581\u05d5\u05dc\u05db\u05df": 3161,
  "\u2581\u05dc\u05db\u05d5": 3162,
  "\u2581Danny": 3163,
  "\u2581\u05e0\u05ea": 3164,
  "\u2581Exactly": 3165,
  "\u2581notice": 3166,
  "v": 3167,
  "\u05d5\u05d0\u05d9": 3168,
  "\u2581\u05d0\u05d3": 3169,
  "\u2581Mmm": 3170,
  "\u2581\u05d0\u05de\u05ea": 3171,
  "\u05d7\u05ea": 3172,
  "\u2581AND": 3173,
  "\u05d1\u05d9\u05ea": 3174,
  "\u2581herself": 3175,
  "\u2581\u05d4\u05ea\u05e7\u05e9\u05e8": 3176,
  "\u258160": 3177,
  "\u2581\u05de\u05ea\u05d7\u05d9\u05dc\u05d9\u05dd": 3178,
  "\u2581\u05e9\u05e8": 3179,
  "\u2581\u05de\u05e8\u05d0\u05d4": 3180,
  "\u2581\u05d7\u05d9\u05d9\u05da": 3181,
  "\u2581writing": 3182,
  "\u2581\u05de\u05dc\u05d7\u05de\u05d4": 3183,
  "\u2581bigger": 3184,
  "\u2581\u05e9\u05d4\u05ea": 3185,
  "\u2581cat": 3186,
  "\u2581Witnesses": 3187,
  "\u2581\u05db\u05d6\u05d5": 3188,
  "\u2581\u05db\u05dc\u05e4\u05d9": 3189,
  "\u05e9\u05dc\u05d9": 3190,
  "\u2581\u05de\u05e2\u05d3\u05d9\u05e3": 3191,
  "\u2581hole": 3192,
  "\u2581\u05ea\u05d9\u05e7": 3193,
  "\u05d9\u05e1": 3194,
  "\u2581\u05de\u05d5\u05db\u05e8": 3195,
  "\u2581\u05d8\u05d9": 3196,
  "\u2581seriously": 3197,
  "\u2581\u05dc\u05e9\u05d5\u05dd": 3198,
  "\u2581army": 3199,
  "\u05d0\u05d3": 3200,
  "\u2581shop": 3201,
  "\u2581\u05d0\u05d9\u05e0\u05d4": 3202,
  "\u2581\u05e9\u05d8\u05d5\u05d9\u05d5\u05ea": 3203,
  "\u2581\u05e2\u05e1\u05e7": 3204,
  "\u2581gold": 3205,
  "\u2581co": 3206,
  "\u2581fit": 3207,
  "\u2581\u05dc\u05d4\u05d5\u05db\u05d9\u05d7": 3208,
  "\u2581view": 3209,
  "\u2581\u05db\u05dc\u05d1\u05d4": 3210,
  "\u2581judge": 3211,
  "\u2581\u05d1\u05e9\u05e7\u05d8": 3212,
  "\u2581beer": 3213,
  "6": 3214,
  "\u2581\u05de\u05db\u05d9\u05e8\u05d9\u05dd": 3215,
  "\u2581\u05e9\u05d0\u05dc": 3216,
  "\u2581\u05dc\u05e9": 3217,
  "\u2581\u05d4\u05e0\u05e9\u05e7": 3218,
  "\u2581Daniel": 3219,
  "\u2581\u05d1\u05d0\u05d5": 3220,
  "\u2581\u05d4\u05d5\u05e4\u05da": 3221,
  "\u2581large": 3222,
  "\u2581match": 3223,
  "\u2581bomb": 3224,
  "\u2581\u05d4\u05db\u05d5\u05d7": 3225,
  "\u05e4\u05ea\u05d9": 3226,
  "\u2581speaking": 3227,
  "\u2581wondering": 3228,
  "\u2581Has": 3229,
  "\u2581\u05d1\u05d8\u05dc\u05e4\u05d5\u05df": 3230,
  "\u2581States": 3231,
  "\u2581dollars": 3232,
  "\u2581kick": 3233,
  "\u2581thousand": 3234,
  "\u2581\u05e4": 3235,
  "lo": 3236,
  "\u2581deserve": 3237,
  "\u2581\u05d0\u05e1": 3238,
  "\u2581\u05d0\u05ea\u05e7\u05e9\u05e8": 3239,
  "\u05d4\u05e0\u05d4": 3240,
  "\u2581lovely": 3241,
  "\u2581\u05dc\u05d0\u05d1\u05d3": 3242,
  "\u2581\u05d4\u05de\u05e1\u05e4\u05e8": 3243,
  "land": 3244,
  "\u2581\u05d4\u05de\u05d9\u05d3\u05e2": 3245,
  "\u2581\u05d4\u05e7\u05e9\u05e8": 3246,
  "\u2581\u05d4\u05d1\u05d5\u05e1": 3247,
  "\u2581\u05dc\u05d4\u05e0\u05d9\u05d7": 3248,
  "\u2581\u05d4\u05d0\u05e9": 3249,
  "\u05e6\u05d5\u05ea": 3250,
  "\u2581\u05e9\u05d5": 3251,
  "\u2581ha": 3252,
  "\u2581program": 3253,
  "\u2581double": 3254,
  "\u2581\u05dc\u05e0\u05e1\u05d5\u05e2": 3255,
  "\u2581\u05e9\u05dc\u05d9\u05d8\u05d4": 3256,
  "\u2581places": 3257,
  "\u2581\u05d1\u05e8\u05d9\u05e8\u05d4": 3258,
  "time": 3259,
  "\u2581\u05d4\u05e9": 3260,
  "\u2581innocent": 3261,
  "\u2581forgive": 3262,
  "\u2581\u05db\u05d9\u05d5\u05dd": 3263,
  "\u2581\u05d1\u05d5\u05d5\u05d3\u05d0\u05d9": 3264,
  "\u2581City": 3265,
  "\u2581\u05d4\u05de\u05d5\u05dc\u05d3": 3266,
  "\u2581\u05e1\u05d8": 3267,
  "\u2581memory": 3268,
  "\u2581\u05d4\u05d0\u05d4\u05d1\u05d4": 3269,
  "\u2581\u05d4\u05d3\u05d9\u05df": 3270,
  "\u2581\u05d0\u05d7\u05d5\u05e8\u05d4": 3271,
  "\u2581admit": 3272,
  "\u2581Jim": 3273,
  "\u2581Want": 3274,
  "\u05e1\u05d5\u05e3": 3275,
  "\u2581\u05d5\u05de\u05d9": 3276,
  "\u2581agent": 3277,
  "-19": 3278,
  "\u2581\u05d1\u05d0\u05d9\u05d6\u05d4": 3279,
  "\u2581\u05d6\u05e7\u05d5\u05e7\u05d4": 3280,
  "\u2581\u05d4\u05d7\u05e8\u05d0": 3281,
  "\u05d9\u05e3": 3282,
  "\u2581\u05d4\u05d0\u05d7\u05e8\u05d5\u05e0\u05d5\u05ea": 3283,
  "\u2581complete": 3284,
  "\u2581f": 3285,
  "\u2581rid": 3286,
  "\u05e8\u05d9\u05dd": 3287,
  "\u2581Bob": 3288,
  "\u2581opportunity": 3289,
  "\u2581\u05dc\u05d1\u05e7\u05e8": 3290,
  "\u2581super": 3291,
  "\u2581\u05d5\u05d5\u05d9\u05dc": 3292,
  "\u2581radio": 3293,
  "\u2581\u05e9\u05d4\u05d5": 3294,
  "\u2581played": 3295,
  "\u05e2\u05d3": 3296,
  "\u2581\u05ea\u05d3\u05d0\u05d2\u05d9": 3297,
  "\u2581weekend": 3298,
  "\u2581\u05d2\u05d3\u05d5\u05dc\u05d9\u05dd": 3299,
  "\u05d7\u05d4": 3300,
  "\u2581pulled": 3301,
  "\u2581surprised": 3302,
  "\u2581\u05d1\u05de\u05d4\u05d9\u05e8\u05d5\u05ea": 3303,
  "\u2581\u05d1\u05d0\u05d6\u05d5\u05e8": 3304,
  "\u2581\u05d9\u05d3\u05d5\u05e2": 3305,
  "\u2581\u05d9\u05d2\u05d9\u05e2": 3306,
  "\u2581shoes": 3307,
  "\u2581perhaps": 3308,
  "\u2581\u05e9\u05d5\u05e0\u05d0\u05ea": 3309,
  "\u2581skin": 3310,
  "\u2581\u05e0\u05ea\u05d7\u05d9\u05dc": 3311,
  "\u2581Holy": 3312,
  "ley": 3313,
  "\u2581action": 3314,
  "\u2581\u05d4\u05e6\u05d5\u05d5\u05ea": 3315,
  "\u2581\u05d0\u05d5\u05d5\u05d9\u05e8": 3316,
  "\u2581\u05e9\u05d9\u05e2\u05e8": 3317,
  "\u2581\u05e2\u05d5\u05de\u05d3\u05ea": 3318,
  "\u2581\u05e9\u05d2\u05dd": 3319,
  "\u2581impossible": 3320,
  "\u2581interest": 3321,
  "\u2581\u05d4\u05d0\u05e8\u05d9": 3322,
  "\u2581\u05e2\u05d9\u05e0\u05d9\u05d9\u05dd": 3323,
  "\u2581Adam": 3324,
  "\u2581\u05d1\u05d2\u05d9\u05dc": 3325,
  "\u2581Little": 3326,
  "\u2581spoke": 3327,
  "\u2581\u05d4\u05e1\u05d9": 3328,
  "\u2581locked": 3329,
  "\u2581\u05d7\u05d5\u05e7\u05d9": 3330,
  "\u2581\u05e1\u05d2\u05df": 3331,
  "\u2581press": 3332,
  "\u2581\u05d0\u05e9\u05de\u05d7": 3333,
  "\u2581purpose": 3334,
  "\u2581\u05e9\u05db\u05d7\u05ea\u05d9": 3335,
  "\u2581\u05e9\u05d9\u05e8": 3336,
  "\u2581\u05de\u05d1\u05dc\u05d9": 3337,
  "\u2581\u05de\u05e9\u05dc\u05d9": 3338,
  "\u2581\u05e2\u05d5\u05e0\u05d4": 3339,
  "\u2581gotten": 3340,
  "\u2581\u05e6\u05d4\u05e8\u05d9\u05d9\u05dd": 3341,
  "\u05d5\u05d2": 3342,
  "\u2581except": 3343,
  "\u2581\u05d7\u05d5\u05dc\u05d9\u05dd": 3344,
  "so": 3345,
  "\u2581horse": 3346,
  "\u2581jump": 3347,
  "\u2581numbers": 3348,
  "\u05d0\u05de\u05d0": 3349,
  "\u2581mate": 3350,
  "\u2581\u05e7\u05d9\u05d1\u05dc\u05ea": 3351,
  "\u2581\u05de\u05d7\u05d6\u05d9\u05e7": 3352,
  "\u2581\u05e2\u05e1\u05e7\u05d9\u05dd": 3353,
  "\u2581Doesn": 3354,
  "\u2581film": 3355,
  "\u2581\u05e4\u05e2\u05de\u05d9\u05d9\u05dd": 3356,
  "\u05d3\u05e8": 3357,
  "\u2581Today": 3358,
  "\u2581absolutely": 3359,
  "\u2581\u05d4\u05d0\u05d7\u05e8\u05d5\u05e0\u05d9\u05dd": 3360,
  "\u2581\u05d0\u05e9\u05ea\u05d5": 3361,
  "\u2581ok": 3362,
  "\u2581drinking": 3363,
  "\u2581\u05d4\u05ea\u05de\u05d5\u05e0\u05d4": 3364,
  "\u2581\u05e0\u05d4\u05d3\u05e8\u05ea": 3365,
  "\u2581above": 3366,
  "\u05e4\u05dc": 3367,
  "\u05d9\u05d5\u05dd": 3368,
  "\u2581\u05d8\u05d5\u05e2\u05d4": 3369,
  "\u05d5\u05e7": 3370,
  "\u2581turns": 3371,
  "\u2581\u05e2\u05e9\u05e8\u05d4": 3372,
  "\u258128": 3373,
  "\u2581\u05d1\u05d9\u05d3\u05d9": 3374,
  "\u05e2\u05d5\u05d3": 3375,
  "\u05e6\u05d9\u05dd": 3376,
  "\u2581pictures": 3377,
  "\u2581plans": 3378,
  "id": 3379,
  "\u2581began": 3380,
  "age": 3381,
  "\u2581\u05d7\u05d9\u05d9\u05d5": 3382,
  "\u2581taught": 3383,
  "\u2581lied": 3384,
  "\u2581decide": 3385,
  "et": 3386,
  "\u2581\u05de\u05ea\u05d5": 3387,
  "\u05d5\u05d5\u05d9": 3388,
  "\u2581Bring": 3389,
  "\u2581neither": 3390,
  "\u2581\u05e2\u05d1\u05d5\u05e8\u05d9": 3391,
  "\u2581credit": 3392,
  "\u2581\u05e9\u05de\u05da": 3393,
  "\u2581green": 3394,
  "\u2581\u05d4\u05de\u05dc\u05d7\u05de\u05d4": 3395,
  "\u2581Happy": 3396,
  "\u2581\u05e1\u05de\u05dc": 3397,
  "\u05e7\u05d9\u05dd": 3398,
  "\u2581\u05de\u05e6\u05d9\u05e2": 3399,
  "\u2581\u05e2\u05d9\u05df": 3400,
  "\u2581carry": 3401,
  "\u2581\u05d4\u05d2\u05d9\u05e2\u05d5": 3402,
  "\u2581park": 3403,
  "\u2581\u05d9\u05d5\u05e6\u05d0\u05ea": 3404,
  "\u2581hiding": 3405,
  "\u2581suit": 3406,
  "\u2581\u05e9\u05d0\u05e0\u05e9\u05d9\u05dd": 3407,
  "\u2581begin": 3408,
  "\u2581\u05d4\u05d0\u05d5\u05d5\u05d9\u05e8": 3409,
  "\u2581\u05d9\u05e9\u05d5": 3410,
  "\u2581sing": 3411,
  "\u05d9\u05d9\u05ea": 3412,
  "\u2581\u05e9\u05d9\u05e0\u05d4": 3413,
  "\u2581Ryan": 3414,
  "\u2581\u05db\u05d5\u05dc\u05d5": 3415,
  "\u2581\u05db\u05dc\u05e9\u05d4\u05d5": 3416,
  "\u2581camp": 3417,
  "\u2581\u05d0\u05de\u05d9\u05ea\u05d9\u05ea": 3418,
  "\u2581Sounds": 3419,
  "\u2581crew": 3420,
  "\u2581\u05d1\u05e0\u05d9\u05d5": 3421,
  "\u2581lab": 3422,
  "\u2581itself": 3423,
  "\u2581shows": 3424,
  "\u05d3\u05d9\u05dd": 3425,
  "\u2581\u05d1\u05d5\u05d1": 3426,
  "\u2581obviously": 3427,
  "\u2581earlier": 3428,
  "\u2581per": 3429,
  "\u2581\u05d1\u05e2\u05de\u05d5\u05d3": 3430,
  "\u2581\u05e2\u05e8\u05da": 3431,
  "7": 3432,
  "\u2581Another": 3433,
  "\u2581Most": 3434,
  "\u2581serve": 3435,
  "\u2581sake": 3436,
  "\u2581\u05d4\u05e6\u05d4\u05e8\u05d9\u05d9\u05dd": 3437,
  "\u2581\u05e7\u05dc\u05d9": 3438,
  "\u2581\u05d0\u05d3\u05d9": 3439,
  "\u2581\u05d7\u05d5\u05de\u05e8": 3440,
  "\u2581\u05dc\u05e7\u05d7\u05ea\u05d9": 3441,
  "\u2581\u05dc\u05de\u05db\u05d5\u05e8": 3442,
  "\u2581quickly": 3443,
  "\u2581Run": 3444,
  "\u2581cry": 3445,
  "ous": 3446,
  "\u2581\u05d4\u05e1\u05e4\u05d9\u05e0\u05d4": 3447,
  "\u2581Dan": 3448,
  "\u2581\u05e9\u05d0\u05e4\u05e9\u05e8": 3449,
  "\u05d5\u05de\u05d9\u05dd": 3450,
  "\u05de\u05d5\u05df": 3451,
  "\u2581goddamn": 3452,
  "\u2581\u05d2\u05d9\u05e9\u05d4": 3453,
  "\u2581Richard": 3454,
  "\u2581\u05d4\u05d1\u05e8": 3455,
  "\u2581\u05e4\u05d2\u05d9\u05e9\u05d4": 3456,
  "\u2581\u05dc\u05e1\u05de\u05d5\u05da": 3457,
  "\u2581neck": 3458,
  "\u2581\u05dc\u05d2\u05d5\u05e8": 3459,
  "\u2581career": 3460,
  "\u2581\u05dc\u05e2\u05dc\u05d5\u05ea": 3461,
  "\u2581m": 3462,
  "\u2581\u05de\u05dc\u05da": 3463,
  "\u2581\u05e0\u05d0\u05de\u05e8": 3464,
  "\u2581\u05d9\u05db\u05d5\u05dc\u05d5\u05ea": 3465,
  "\u2581\u05db\u05e8\u05d9\u05e1": 3466,
  "\u2581grand": 3467,
  "\u2581leg": 3468,
  "\u2581\u05d5\u05db\u05da": 3469,
  "\u2581\u05dc\u05db\u05dc\u05d0": 3470,
  "\u2581\u05dc\u05d6\u05de\u05df": 3471,
  "\u2581hearing": 3472,
  "\u2581bear": 3473,
  "\u2581losing": 3474,
  "\u2581\u05dc\u05e2\u05e0\u05d5\u05ea": 3475,
  "\u2581held": 3476,
  "\u2581\u05d9\u05e7\u05e8": 3477,
  "\u2581rule": 3478,
  "\u2581\u05e8\u05d5\u05e6\u05d7": 3479,
  "\u2581vote": 3480,
  "\u2581\u05e9\u05e7\u05e8": 3481,
  "\u2581suspect": 3482,
  "\u2581cross": 3483,
  "os": 3484,
  "Oh": 3485,
  "\u2581\u05de\u05d9\u05dc\u05d9\u05dd": 3486,
  "\u2581awesome": 3487,
  "\u2581\u05d0\u05dc\u05d9\u05d4\u05dd": 3488,
  "\u2581powerful": 3489,
  "\u2581\u05d4\u05d7\u05d3\u05e9\u05d5\u05ea": 3490,
  "\u2581\u05d4\u05e9\u05d8\u05df": 3491,
  "\u2581\u05e2\u05d9\u05e8": 3492,
  "\u05d5\u05de\u05d4": 3493,
  "\u05ea\u05df": 3494,
  "\u2581nervous": 3495,
  "\u2581&": 3496,
  "\u2581\u05d0\u05e4\u05e9\u05e8\u05d5\u05ea": 3497,
  "\u2581Uncle": 3498,
  "\u2581\u05dc\u05d4\u05e7\u05e9\u05d9\u05d1": 3499,
  "\u2581\u05db\u05e9\u05d4\u05d9\u05d0": 3500,
  "un": 3501,
  "\u05d8\u05dc": 3502,
  "\u2581twice": 3503,
  "\u2581\u05d7\u05e9\u05d1": 3504,
  "\u2581\u05e8\u05d2\u05dc": 3505,
  "\u2581escape": 3506,
  "\u2581\u05d0\u05dc\u05df": 3507,
  "\u2581Chief": 3508,
  "\u2581apart": 3509,
  "\u2581nine": 3510,
  "\u05d5\u05e8\u05d9": 3511,
  "my": 3512,
  "\u2581process": 3513,
  "\u2581\u05d1\u05d5\u05e1": 3514,
  "\u2581\u05e0\u05d5\u05e9\u05d0": 3515,
  "\u2581\u05dc\u05d4\u05db\u05d9\u05df": 3516,
  "\u2581Hurry": 3517,
  "\u2581\u05d1\u05e8\u05d7\u05d5\u05d1": 3518,
  "\u2581\u05ea\u05d9\u05e9\u05d0\u05e8": 3519,
  "\u2581\u05d4\u05e8\u05d5\u05d7": 3520,
  "\u2581\u05e1\u05d1\u05ea\u05d0": 3521,
  "ING": 3522,
  "\u2581\u05db\u05d9\u05d5\u05d5\u05df": 3523,
  "\u2581major": 3524,
  "\u05d5\u05e8\u05d4": 3525,
  "!\"": 3526,
  "\u2581summer": 3527,
  "\u2581\u05e2\u05e1\u05d5\u05e7": 3528,
  "8": 3529,
  "\u2581\u05e4\u05ea\u05d7": 3530,
  "\u05e0\u05d2": 3531,
  "\u2581\u05d9\u05d5\u05e9\u05d1": 3532,
  "\u2581hurry": 3533,
  "\u2581\u05e0\u05e8\u05d0\u05d9\u05dd": 3534,
  "\u2581Hell": 3535,
  "\u2581\u05de\u05d1\u05d9\u05e0\u05d9\u05dd": 3536,
  "\u05dc\u05e0\u05d3": 3537,
  "\u2581\u05dc\u05de\u05e9\u05e8\u05d3": 3538,
  "\u2581\u05e2\u05d6\u05d1": 3539,
  "\u2581size": 3540,
  "\u05e1\u05d8": 3541,
  "\u2581\u05de\u05d5\u05d7": 3542,
  "\u05d1\u05d1\u05e7\u05e9\u05d4": 3543,
  "\u2581\u05de\u05e9\u05de\u05e2\u05d5\u05ea": 3544,
  "\u2581\u05de\u05e2\u05e8\u05d9\u05da": 3545,
  "\u05e4\u05e8\u05d9": 3546,
  "\u2581\u05de\u05d0\u05d5\u05e9\u05e8": 3547,
  "rs": 3548,
  "\u2581weapons": 3549,
  "\u2581responsible": 3550,
  "\u2581\u05dc\u05e8\u05d3\u05ea": 3551,
  "\u2581House": 3552,
  "\u2581\u05d4\u05d0\u05d1": 3553,
  "00": 3554,
  "\u2581\u05d4\u05d1\u05e0\u05d5\u05ea": 3555,
  "ho": 3556,
  "\u2581\u05d7\u05d5\u05e9\u05e9": 3557,
  "\u2581Seriously": 3558,
  "\u2581\u05d7\u05d1\u05e8\u05d9": 3559,
  "\u2581advice": 3560,
  "\u2581\u05d7\u05d3": 3561,
  "\u2581wind": 3562,
  "\u2581\u05d4\u05e9\u05de\u05e9": 3563,
  "\u2581trial": 3564,
  "\u2581\u05d4\u05e8\u05d5\u05e6\u05d7": 3565,
  "\u2581\u05dc\u05d1\u05dc\u05d5\u05ea": 3566,
  "\u2581Trust": 3567,
  "\u2581guns": 3568,
  "\u2581\u05d4\u05e9\u05d9\u05d7\u05d4": 3569,
  "\u2581\u05d4\u05de\u05e9\u05d9\u05d7": 3570,
  "\u2581keeps": 3571,
  "\u2581Chris": 3572,
  "\u2581\u05e7\u05d8\u05e0\u05d9\u05dd": 3573,
  "\u2581\u05d6\u05e7\u05df": 3574,
  "He": 3575,
  "&": 3576,
  "ster": 3577,
  "\u2581Probably": 3578,
  "\u2581\u05d7\u05de\u05d9\u05e9\u05d4": 3579,
  "\u2581walked": 3580,
  "\u2581\u05d4\u05d2\u05d9\u05e2\u05d4": 3581,
  "\u2581\u05d9\u05e7\u05d9\u05e8\u05ea\u05d9": 3582,
  "\u2581\u05d1\u05e2\u05e0\u05d9\u05d9\u05df": 3583,
  "\u2581\u05d4\u05e9\u05d5\u05dc\u05d7\u05df": 3584,
  "\u2581animals": 3585,
  "\u2581World": 3586,
  "\u2581hello": 3587,
  "\u2581\u05ea\u05e4\u05e1\u05d9\u05e7\u05d9": 3588,
  "off": 3589,
  "\u2581\u05d4\u05e1\u05d5\u05db\u05df": 3590,
  "\u2581\u05dc\u05d5\u05d0\u05d9\u05e1": 3591,
  "\u2581\u05e9\u05d5\u05df": 3592,
  "\u2581\u05e8\u05db\u05d1": 3593,
  "\u2581\u05ea\u05d4": 3594,
  "\u2581whom": 3595,
  "\u2581Black": 3596,
  "bye": 3597,
  "\u2581\u05d1\u05dc\u05e9": 3598,
  "\u2581\u05e7\u05d9\u05d9\u05dd": 3599,
  "\u05de\u05d3": 3600,
  "\u2581Were": 3601,
  "ca": 3602,
  "\u2581\u05e9\u05e0\u05d9\u05d4\u05dd": 3603,
  "\u2581\u05d1\u05e7\u05e8\u05d1": 3604,
  "\u2581written": 3605,
  "\u2581==": 3606,
  "\u2581\u05e9\u05d9\u05d9\u05da": 3607,
  "\u2581\u05dc\u05d4\u05e6\u05d8\u05e8\u05e3": 3608,
  "\u2581closed": 3609,
  "\u2581hadn": 3610,
  "\u2581\u05dc\u05e2\u05d9\u05e8": 3611,
  "\u2581hero": 3612,
  "\u2581200": 3613,
  "\u2581smoke": 3614,
  "\u2581teacher": 3615,
  "\u2581\u05db\u05d5\u05e1": 3616,
  "\u2581price": 3617,
  "\u2581\u05d4\u05e7\u05d5\u05dc": 3618,
  "\u2581White": 3619,
  "\u2581\u05e4\u05d9\u05d8": 3620,
  "ary": 3621,
  "\u2581everywhere": 3622,
  "\u2581\u05d0\u05d7\u05e8\u05d0\u05d9": 3623,
  "\u2581Ok": 3624,
  "\u2581\u05d8\u05e2\u05dd": 3625,
  "\u2581DNA": 3626,
  "\u2581\u05d0\u05de\u05de": 3627,
  "\u2581surgery": 3628,
  "\u2581whose": 3629,
  "\u05e9\u05dd": 3630,
  "\u2581acting": 3631,
  "\u05e7\u05ea": 3632,
  "\u2581research": 3633,
  "\u2581especially": 3634,
  "\u2581allow": 3635,
  "\u2581waste": 3636,
  "\u2581\u05e1\u05d5\u05db\u05df": 3637,
  "\u2581\u05d4\u05de\u05d8\u05e8\u05d4": 3638,
  "\u2581due": 3639,
  "\u2581\u05dc\u05d4\u05db\u05e0\u05d9\u05e1": 3640,
  "\u2581tight": 3641,
  "\u2581\u05de\u05d4\u05d9\u05e8": 3642,
  "\u05d8\u05d5\u05e8": 3643,
  "\u2581fool": 3644,
  "\u2581closer": 3645,
  "\u2581\u05e8\u05d2\u05d9\u05dc": 3646,
  "\u05d9\u05d6": 3647,
  "\u05e2\u05ea": 3648,
  "\u05d0\u05d3\u05dd": 3649,
  "\u2581enemy": 3650,
  "\u2581\u05d4\u05e2": 3651,
  "\u2581cost": 3652,
  "\u2581\u05d2\u05d9\u05dc": 3653,
  "\u2581matters": 3654,
  "\u2581Kingdom": 3655,
  "\u2581tea": 3656,
  "\u2581Jake": 3657,
  "\u2581language": 3658,
  "\u2581\u05d7\u05d1\u05e8\u05ea": 3659,
  "\u2581However": 3660,
  "\u2581dirty": 3661,
  "\u2581\u05e2\u05e1\u05e7\u05d4": 3662,
  "ni": 3663,
  "\u2581\u05d3\u05d4": 3664,
  "ir": 3665,
  "\u2581upstairs": 3666,
  "\u2581\u05d9\u05d5\u05e6\u05d0\u05d9\u05dd": 3667,
  "\u2581\u05d4\u05e8\u05e6\u05d7": 3668,
  "\u2581\u05db\u05d5\u05e2\u05e1": 3669,
  "\u2581\u05e9\u05db\u05d5\u05dc\u05dd": 3670,
  "\u2581race": 3671,
  "\u2581\u05d5\u05d6\u05d5": 3672,
  "\u2581\u05d0\u05d9\u05e0\u05e0\u05d5": 3673,
  "\u2581\u05dc\u05e6\u05d3": 3674,
  "\u2581\u05d4\u05e0\u05e7\u05d5\u05d3\u05d4": 3675,
  "\u05d5\u05d1\u05db\u05df": 3676,
  "\u2581\u05d7\u05db\u05d5": 3677,
  "\u2581apologize": 3678,
  "\u2581\u05d4\u05d4\u05d6\u05d3\u05de\u05e0\u05d5\u05ea": 3679,
  "\u2581\u05de\u05e6\u05d0\u05d5": 3680,
  "but": 3681,
  "\u2581\u05d9\u05d7\u05e1\u05d9\u05dd": 3682,
  "ent": 3683,
  "\u2581\u05d4\u05e9\u05e2\u05d4": 3684,
  "\u05db\u05de\u05d5": 3685,
  "\u2581\u05e7\u05d7\u05d9": 3686,
  "\u2581Con": 3687,
  "\u2581flight": 3688,
  "\u2581\u05e1\u05d9\u05e4\u05e8\u05ea": 3689,
  "\u2581\u05de\u05d1\u05d9\u05ea": 3690,
  "\u2581\u05d4\u05e1\u05d5\u05e3": 3691,
  "\u2581\u05d4\u05e2\u05e1\u05e7": 3692,
  "\u2581kitchen": 3693,
  "\u2581\u05d4\u05e8\u05d5\u05d7\u05d5\u05ea": 3694,
  "\u2581\u05d1\u05d9\u05d3": 3695,
  "\u2581\u05d1\u05e2\u05d6\u05e8\u05ea": 3696,
  "\u05e2\u05d5": 3697,
  "\u2581THAT": 3698,
  "\u2581guilty": 3699,
  "\u2581\u05dc\u05de\u05e9\u05dc": 3700,
  "\u2581treat": 3701,
  "\u2581\u05de\u05d1\u05d9\u05d0": 3702,
  "\u2581\u05de\u05e1\u05db\u05d9\u05dd": 3703,
  "\u2581remind": 3704,
  "\u2581South": 3705,
  "\u2581daddy": 3706,
  "\u2581\u05ea\u05de\u05e6\u05d0": 3707,
  "\u2581burn": 3708,
  "\u2581\u05de\u05ea\u05e0\u05d4": 3709,
  "\u2581\u05d5\u05e2\u05d3": 3710,
  "\u2581\u05e4\u05ea\u05d0\u05d5\u05dd": 3711,
  "\u05e9\u05dc\u05da": 3712,
  "\u2581Harry": 3713,
  "\u2581\u05e8\u05d0\u05e9\u05d5\u05e0\u05d4": 3714,
  "\u2581glass": 3715,
  "\u2581\u05d4\u05e2\u05ea\u05d9\u05d3": 3716,
  "\u2581\u05dc\u05d7\u05d1\u05e8": 3717,
  "\u2581empty": 3718,
  "\u2581\u05e6\u05d3\u05e7": 3719,
  "\u05d0\u05dc\u05d9": 3720,
  "\u2581pre": 3721,
  "\u2581\u05e1\u05dd": 3722,
  "\u2581island": 3723,
  "\u2581\u05e7\u05d9": 3724,
  "\u2581\u05d4\u05d5\u05dc\u05d3\u05ea": 3725,
  "\u2581survive": 3726,
  "\u2581tape": 3727,
  "\u2581asshole": 3728,
  "\u2581knowing": 3729,
  "\u2581\u05d1\u05d9\u05e8\u05d4": 3730,
  "\u05d9\u05e0\u05e1": 3731,
  "\u2581immediately": 3732,
  "\u2581\u05d0\u05de\u05e9": 3733,
  "\u2581\u05e9\u05d9\u05e9\u05d4": 3734,
  "\u2581bringing": 3735,
  "\u2581\u05d4\u05e4\u05da": 3736,
  "\u2581\u05e0\u05d7\u05de\u05d3\u05d4": 3737,
  "\u2581\u05d4\u05de\u05d6\u05dc": 3738,
  "\u2581realized": 3739,
  "\u2581Tommy": 3740,
  "\u2581Un": 3741,
  "\u2581\u05d7\u05d5\u05e7": 3742,
  "\u05d5\u05d3\u05d9": 3743,
  "\u2581\u05de\u05d5\u05d1\u05df": 3744,
  "\u2581nose": 3745,
  "\u2581OF": 3746,
  "ful": 3747,
  "\u2581\u05d1\u05d8\u05d5\u05d7\u05d9\u05dd": 3748,
  "\u05d0\u05d8": 3749,
  "\u2581\u05d1\u05e0\u05d9\u05dd": 3750,
  "\u2581\u05d4\u05d0\u05d5\u05db\u05dc": 3751,
  "\u2581Absolutely": 3752,
  "\u2581sold": 3753,
  "\u2581military": 3754,
  "\u2581\u05d4\u05e4": 3755,
  "\u05d5\u05d6": 3756,
  "tic": 3757,
  "\u2581London": 3758,
  "\u2581investigation": 3759,
  "\u2581\u05d4\u05de\u05e4\u05ea\u05d7": 3760,
  "\u2581\u05dc\u05d4\u05e8\u05d5\u05e1": 3761,
  "\u2581g": 3762,
  "\u2581\u05d9\u05de\u05d9": 3763,
  "\u2581\u05de\u05e9\u05d7\u05e7\u05d9\u05dd": 3764,
  "\u2581simply": 3765,
  "line": 3766,
  "\u2581\u05d4\u05e8\u05d2\u05dc\u05d9\u05d9\u05dd": 3767,
  "\u2581danger": 3768,
  "\u2581health": 3769,
  "\u2581\u05d4\u05d9\u05de\u05d9\u05dd": 3770,
  "-1": 3771,
  "\u2581\u05e1\u05e4\u05e8\u05d9": 3772,
  "\u2581\u05d4\u05e8\u05d2\u05dc": 3773,
  "\u2581lay": 3774,
  "\u2581\u05d0\u05ea\u05da": 3775,
  "\u2581\u05e2\u05ea\u05d4": 3776,
  "\u2581checked": 3777,
  "\u2581finding": 3778,
  "\u05de\u05e9": 3779,
  "\u2581dreams": 3780,
  "\u2581murdered": 3781,
  "\u2581orders": 3782,
  "\u2581\u05e6\u05d1\u05e2": 3783,
  "\u2581seemed": 3784,
  "\u2581animal": 3785,
  "\u05db\u05e9": 3786,
  "\u2581IN": 3787,
  "\u2581arms": 3788,
  "\u258126": 3789,
  "\u2581\u05e7\u05dc\u05d0\u05e8\u05e7": 3790,
  "\u2581knowledge": 3791,
  "\u2581Lieutenant": 3792,
  "\u2581\u05e1\u05d9\u05d9\u05de\u05ea\u05d9": 3793,
  "\u05d5\u05dd": 3794,
  "\u2581\u05d4\u05e6\u05d3": 3795,
  "bo": 3796,
  "ci": 3797,
  "\u2581\u05d1\u05d0\u05ea": 3798,
  "\u258145": 3799,
  "men": 3800,
  "\u2581\u05e9\u05e7\u05d5\u05e8\u05d4": 3801,
  "\u2581Hang": 3802,
  "\u2581\u05e9\u05d1\u05d9": 3803,
  "\u2581\u05e8\u05d0\u05d5": 3804,
  "\u2581Forget": 3805,
  "\u2581pants": 3806,
  "\u2581\u05e0\u05d4\u05d2": 3807,
  "\u2581\u05d0\u05d5\u05dc\u05dd": 3808,
  "\u2581fuckin": 3809,
  "\u2581darling": 3810,
  "\u2581\u05d0\u05d7\u05d5\u05ea": 3811,
  "\u2581ridiculous": 3812,
  "\u2581\u05d4\u05d5\u05e8\u05d2": 3813,
  "\u2581\u05d4\u05ea\u05d7\u05dc\u05ea\u05d9": 3814,
  "ga": 3815,
  "\u2581fresh": 3816,
  "\u2581\u05d4\u05db\u05dc\u05d1": 3817,
  "\u2581\u05e2\u05e6\u05de\u05d4": 3818,
  "\u2581relax": 3819,
  "\u2581\u05e7\u05e8\u05d0\u05ea\u05d9": 3820,
  "\u2581raise": 3821,
  "ner": 3822,
  "\u2581War": 3823,
  "\u2581\u05dc\u05d0\u05d5\u05e8\u05da": 3824,
  "\u2581\u05de\u05db\u05da": 3825,
  "\u2581focus": 3826,
  "\u2581\u05d5\u05d7\u05e6\u05d9": 3827,
  "\u05dc\u05d1": 3828,
  "\u2581bullshit": 3829,
  "\u2581Baby": 3830,
  "\u2581lock": 3831,
  "\u2581several": 3832,
  "\u2581excited": 3833,
  "\u2581\u05d1\u05e2\u05d3": 3834,
  "\u05d6\u05e8": 3835,
  "\u2581\u05dc\u05d0\u05de\u05d0": 3836,
  "\u2581chief": 3837,
  "\u2581shooting": 3838,
  "\u2581taste": 3839,
  "ow": 3840,
  "\u2581\u05dc\u05db\u05de\u05d4": 3841,
  "\u2581\u05e2\u05e8": 3842,
  "\u2581\u05d1\u05de\u05e9\u05d7\u05e7": 3843,
  "\u2581\u05d9\u05d1\u05d5\u05d0": 3844,
  "\u2581\u05e9\u05de\u05d5\u05ea": 3845,
  "\u2581\u05dc\u05d4\u05d5\u05e8\u05d9\u05d3": 3846,
  "\u2581band": 3847,
  "\u05d0\u05d5\u05ea": 3848,
  "\u2581El": 3849,
  "\u2581bastard": 3850,
  "\u2581\u05dc\u05de\u05d5\u05d5\u05ea": 3851,
  "\u258100": 3852,
  "\u2581heaven": 3853,
  "\u2581\u05d1\u05d9\u05dc\u05d9": 3854,
  "RE": 3855,
  "\u2581\u05e4\u05d7\u05d3": 3856,
  "\u2581\u05d1\u05d0\u05d9": 3857,
  "\u2581warm": 3858,
  "\u2581Christians": 3859,
  "\u2581Unless": 3860,
  "\u2581\u05e0\u05d6\u05d5\u05d6": 3861,
  "that": 3862,
  "\u2581\u05dc\u05d0\u05e1\u05d5\u05e3": 3863,
  "\u2581practice": 3864,
  "\u2581\u05d1\u05e9\u05dc": 3865,
  "\u2581fucked": 3866,
  "\u2581roll": 3867,
  "\u2581fellow": 3868,
  "\u2581battle": 3869,
  "\u2581\u05e7\u05d5\u05e8": 3870,
  "\u2581\u05d9\u05d9\u05e7\u05d7": 3871,
  "\u2581records": 3872,
  "\u2581\u05db\u05d5\u05db\u05d1": 3873,
  "\u2581\u05e4\u05d0\u05d5\u05dc\u05d5\u05e1": 3874,
  "0,000": 3875,
  "\u2581Steve": 3876,
  "\u2581\u05db\u05e9\u05d4\u05dd": 3877,
  "\u2581nature": 3878,
  "\u2581Paris": 3879,
  "\u2581\u05de\u05d2\u05d9\u05e2\u05d4": 3880,
  "\u2581Besides": 3881,
  "\u2581target": 3882,
  "\u2581\u05d4\u05d2\u05e2\u05ea\u05d9": 3883,
  "\u05de\u05d5\u05e1": 3884,
  "\u2581\u05d4\u05e6\u05dc\u05d7\u05ea\u05d9": 3885,
  "per": 3886,
  "\u2581\u05d1\u05e7\u05dc\u05d5\u05ea": 3887,
  "\u2581\u05d7\u05d5\u05e8": 3888,
  "\u2581\u05d1\u05e0\u05d5\u05e1\u05e3": 3889,
  "\u2581crying": 3890,
  "\u2581natural": 3891,
  "\u2581\u05de\u05e6\u05d3": 3892,
  "\u2581necessary": 3893,
  "\u2581Guess": 3894,
  "\u2581letting": 3895,
  "\u2581\u05dc\u05d0\u05d4\u05d5\u05d1": 3896,
  "\u2581\u05dc\u05e8\u05d5\u05e5": 3897,
  "\u2581breath": 3898,
  "\u2581unto": 3899,
  "\u2581\u05d4\u05e0\u05e9\u05d9\u05dd": 3900,
  "sh": 3901,
  "\u2581\u05d4\u05e9\u05d9\u05e2\u05e8": 3902,
  "\u258127": 3903,
  "\u2581Ready": 3904,
  "\u2581\u05d1\u05d3\u05d9\u05d7\u05d4": 3905,
  "\u2581\u05e8\u05e2\u05d1": 3906,
  "\u2581\u05e4\u05d5": 3907,
  "\u2581\u05d0\u05d1\u05d9\u05d0": 3908,
  "\u2581\u05d8\u05d5\u05e0\u05d9": 3909,
  "\u2581sight": 3910,
  "\u2581Tony": 3911,
  "\u2581$": 3912,
  "\u2581created": 3913,
  "\u2581stories": 3914,
  "\u2581\u05d1\u05e2\u05d9\u05e7\u05e8": 3915,
  "\u2581Find": 3916,
  "\u2581\u05d0\u05de\u05e8\u05d9\u05e7\u05d4": 3917,
  "\u2581Rachel": 3918,
  "\u2581\u05d4\u05e9\u05d9\u05e8": 3919,
  "\u2581bother": 3920,
  "\u2581planning": 3921,
  "\u2581\u05de\u05e2\u05e9\u05d9": 3922,
  "\u2581\u05d5\u05d0\u05d5\u05dc\u05d9": 3923,
  "\u2581\u05dc\u05d4\u05ea\u05d7\u05ea\u05df": 3924,
  "\u2581bottom": 3925,
  "\u2581corner": 3926,
  "\u2581Their": 3927,
  "\u2581based": 3928,
  "\u2581\u05d0\u05d3\u05d5\u05dd": 3929,
  "ge": 3930,
  "\u2581\u05e0\u05ea\u05ea": 3931,
  "\u2581speed": 3932,
  "\u05d9\u05d9\u05e1\u05d5\u05df": 3933,
  "\u05d2\u05df": 3934,
  "\u2581\u05d0\u05de\u05d9": 3935,
  "\u2581\u05de\u05d0\u05d4": 3936,
  "\u2581keys": 3937,
  "\u2581\u05de\u05de": 3938,
  "\u2581\u05dc\u05d4\u05e6\u05d9\u05e2": 3939,
  "\u05d5\u05d4": 3940,
  "\u2581likely": 3941,
  "\u2581\u05d4\u05d8\u05d5\u05d1\u05d9\u05dd": 3942,
  "\u05e2\u05db\u05e9\u05d9\u05d5": 3943,
  "\u2581Boy": 3944,
  "\u2581\u05d4\u05ea\u05d0": 3945,
  "\u2581\u05d4\u05e2\u05d1\u05e8": 3946,
  "\u2581clearly": 3947,
  "\u05d1\u05d9\u05d9": 3948,
  "\u2581\u05d4\u05e8\u05d5\u05e4\u05d0": 3949,
  "\u05e0\u05d9\u05e7": 3950,
  "\u2581\u05de\u05e2\u05d5\u05e0\u05d9\u05d9\u05df": 3951,
  "\u2581strength": 3952,
  "\u2581\u05e6\u05d3": 3953,
  "\u05e1\u05e4\u05e8": 3954,
  "\u2581\u05d3\u05dc\u05ea": 3955,
  "\u2581\u05d4\u05db\u05d3\u05d5\u05e8": 3956,
  "\u2581\u05dc\u05d0\u05d5\u05e8": 3957,
  "\u2581science": 3958,
  "\u2581\u05d4\u05d2\u05e2\u05ea": 3959,
  "\u2581legs": 3960,
  "\u2581\u05de\u05d0\u05de\u05d9\u05e0\u05d9\u05dd": 3961,
  "\u2581\u05d3\u05e8\u05db\u05d9\u05dd": 3962,
  "\u2581Luke": 3963,
  "\u2581emergency": 3964,
  "\u2581\u05e2\u05e5": 3965,
  "\u2581Congratulations": 3966,
  "\u2581San": 3967,
  "\u2581century": 3968,
  "\u2581hanging": 3969,
  "\u2581Except": 3970,
  "\u2581Four": 3971,
  "\u2581\u05d4\u05d2\u05d1\u05e8": 3972,
  "\u2581base": 3973,
  "\u2581\u05d4\u05d1\u05d9\u05d0": 3974,
  "\u2581\u05de\u05d2\u05d9\u05e2\u05d9\u05dd": 3975,
  "\u2581\u05dc\u05d4\u05d9\u05e8\u05d0\u05d5\u05ea": 3976,
  "\u2581master": 3977,
  "\u2581truly": 3978,
  "\u2581aware": 3979,
  "lin": 3980,
  "\u05d9\u05d5\u05e4\u05d9": 3981,
  "\u2581\u05de\u05d0\u05e8\u05e7": 3982,
  "\u2581\u05ea\u05d0\u05de\u05d9\u05df": 3983,
  "\u2581\u05ea\u05e9\u05d5\u05de\u05ea": 3984,
  "\u2581Alright": 3985,
  "\u2581\u05e0\u05e1": 3986,
  "\u2581games": 3987,
  "\u2581beyond": 3988,
  "\u2581\u05dc\u05d4\u05d7\u05dc\u05d9\u05e3": 3989,
  "ak": 3990,
  "\u2581damage": 3991,
  "\u2581easier": 3992,
  "\u2581\u05e4\u05ea\u05d5\u05d7": 3993,
  "\u2581\u05d4\u05ea\u05e4\u05e7\u05d9\u05d3": 3994,
  "\u2581\u05d4\u05e7\u05d5\u05e8\u05d1\u05df": 3995,
  "\u2581\u05e1\u05d1\u05d9\u05e8": 3996,
  "\u2581dropped": 3997,
  "\u2581\u05d4\u05e8\u05d0\u05e9\u05d9": 3998,
  "\u2581None": 3999,
  "\u00e9": 4000,
  "\u2581\u05dc\u05e9\u05dc\u05d5\u05d8": 4001,
  "(": 4002,
  "\u2581\u05db\u05d5\u05d7\u05d5\u05ea": 4003,
  "\u2581\u05d4\u05e6\u05d9\u05dc\u05d5": 4004,
  "\u2581\u05e2\u05e6\u05d5\u05d1": 4005,
  "\u2581While": 4006,
  "\u2581\u05d5\u05e2\u05dd": 4007,
  "\u2581bodies": 4008,
  "\u2581\u05d0\u05d9\u05d1\u05d3\u05ea\u05d9": 4009,
  "\u2581\u05d5\u05db\u05e9": 4010,
  "ant": 4011,
  "\u2581\u05d0\u05e1\u05e4\u05e8": 4012,
  "\u2581\u05ea\u05d5\u05e8\u05d9\u05d3": 4013,
  "ard": 4014,
  "\u2581\u05d9\u05e8\u05d0\u05d4": 4015,
  "\u05d1\u05d5\u05dc": 4016,
  "\u2581Mo": 4017,
  "\u2581\u05d0\u05e8\u05d9\u05e7": 4018,
  "\u05ea\u05da": 4019,
  "\u2581blind": 4020,
  "\u2581Kevin": 4021,
  "\u2581\u05de\u05e7\u05d5\u05e8": 4022,
  "\u2581\u05ea\u05d5\u05d4\u05d4": 4023,
  "\u2581bro": 4024,
  "\u2581\u05e8\u05e6\u05ea\u05d4": 4025,
  "\u05de\u05d8": 4026,
  "\u2581\u05d0\u05d7\u05e8\u05d9\u05d5": 4027,
  "\u2581greatest": 4028,
  "\u2581\u05ea\u05e2\u05d6\u05d5\u05e8": 4029,
  "\u05d5\u05d5": 4030,
  "\u2581\u05ea\u05ea\u05e7\u05e9\u05e8": 4031,
  "\u2581issue": 4032,
  "\u2581\u05d0\u05e8": 4033,
  "\u2581\u05ea\u05e7\u05d1\u05dc": 4034,
  "\u2581captain": 4035,
  "\u2581fake": 4036,
  "\u2581breakfast": 4037,
  "\u2581\u05ea\u05e0\u05e1\u05d4": 4038,
  "\u2581\u05d7\u05d5\u05d3\u05e9": 4039,
  "\u2581\u05de\u05d1\u05d7\u05d9\u05e0\u05d4": 4040,
  "\u2581\u05e9\u05e0\u05ea": 4041,
  "\u2581\u05dc\u05d7": 4042,
  "\u2581\u05e9\u05e0\u05ea\u05d9\u05d9\u05dd": 4043,
  "\u2581general": 4044,
  "\u05d3\u05ea": 4045,
  "\u2581\u05de\u05e9\u05e4\u05d7\u05ea": 4046,
  "\u2581pro": 4047,
  "\u05de\u05e0\u05ea": 4048,
  "\u05d1\u05dc\u05d9": 4049,
  "\u2581\u05dc\u05d1\u05d9\u05df": 4050,
  "\u2581older": 4051,
  "\u2581percent": 4052,
  "\u2581\u05d1\u05db\u05d3\u05d9": 4053,
  "\u05d1\u05d5\u05ea": 4054,
  "That": 4055,
  "\u2581\u05d4\u05e4\u05ea\u05e2\u05d4": 4056,
  "\u2581Better": 4057,
  "\u2581\u05e2\u05d3\u05d9": 4058,
  "\u05dc\u05d5\u05ea": 4059,
  "\u2581\u05e7\u05d9\u05d9\u05d8": 4060,
  "\u05d0\u05e4\u05e9\u05e8": 4061,
  "\u2581\u05d0\u05d5\u05d5": 4062,
  "\u2581Amy": 4063,
  "\u2581\u05de\u05d4\u05d1\u05d9\u05ea": 4064,
  "ating": 4065,
  "\u2581project": 4066,
  "\u2581\u05de\u05e9\u05e8\u05d3": 4067,
  "\u2581\u05e9\u05de\u05e8": 4068,
  "\u2581\u05dc\u05d0\u05d1\u05d0": 4069,
  "And": 4070,
  "\u2581\u05e0\u05de\u05d0\u05e1": 4071,
  "\u05d1\u05d5\u05e8": 4072,
  "\u2581\u05d9\u05d7\u05d6\u05d5\u05e8": 4073,
  "\u2581bottle": 4074,
  "\u2581\u05e9\u05d4\u05df": 4075,
  "\u2581concerned": 4076,
  "\u2581draw": 4077,
  "li": 4078,
  "\u2581Talk": 4079,
  "\u2581\u05e0\u05d9\u05ea\u05d5\u05d7": 4080,
  "\u2581\u05e1\u05d1\u05d0": 4081,
  "\u2581department": 4082,
  "\u2581center": 4083,
  "\u2581\u05d4\u05d2\u05e2\u05e0\u05d5": 4084,
  "\u2581received": 4085,
  "\u05d3\u05df": 4086,
  "\u05d4\u05d9\u05d4": 4087,
  "\u2581post": 4088,
  "\u2581\u05d4\u05d0\u05d5": 4089,
  "\u2581\u05e9\u05d6\u05d0\u05ea": 4090,
  "\u2581pool": 4091,
  "\u2581\u05dc\u05d5\u05e7": 4092,
  "\u2581\u05ea\u05db\u05e0\u05d9\u05ea": 4093,
  "\u2581\u05de\u05d2\u05d5\u05d7\u05da": 4094,
  "\u2581note": 4095,
  "\u2581recognize": 4096,
  "\u2581guard": 4097,
  "\u2581\u05d0\u05d7\u05d9\u05da": 4098,
  "\u2581\u05d6\u05d5\u05d6": 4099,
  "\u2581\u05e9\u05de\u05ea\u05d9": 4100,
  "\u2581training": 4101,
  "\u2581\u05e8\u05d5\u05d1\u05e8\u05d8": 4102,
  "\u2581\u05d3\u05d9\u05d1\u05e8": 4103,
  "\u2581\u05d7\u05d6\u05e7\u05d4": 4104,
  "\u2581Scott": 4105,
  "\u2581\u05d1\u05d9\u05e7\u05e9": 4106,
  "\u2581\u05de\u05e9\u05e7\u05e8": 4107,
  "\u2581West": 4108,
  "\u2581laugh": 4109,
  "\u2581\u05d4\u05e0\u05d5": 4110,
  "\u2581\u05de\u05d0\u05d5": 4111,
  "\u2581Clark": 4112,
  "\u2581\u05e0\u05d9\u05e1\u05d9\u05d5\u05df": 4113,
  "\u2581dare": 4114,
  "\u2581\u05db\u05e4\u05d5\u05dc": 4115,
  "\u2581\u05de\u05e1\u05e8": 4116,
  "\u2581starts": 4117,
  "\u2581\u05de\u05d3": 4118,
  "\u2581Cool": 4119,
  "\u2581\u05ea\u05e9\u05de\u05e2": 4120,
  "\u2581\u05de\u05d5\u05d3\u05d0\u05d2": 4121,
  "\u2581knife": 4122,
  "\u2581\u05e1\u05d2\u05d5\u05e8": 4123,
  "\u2581\u05e9\u05e0\u05de\u05e6\u05d0": 4124,
  "\u2581\u05e8\u05d5\u05e7": 4125,
  "\u2581Colonel": 4126,
  "\u2581Day": 4127,
  "\u2581\u05de\u05d5\u05d3\u05d4": 4128,
  "\u2581Ten": 4129,
  "\u2581\u05e8\u05e6\u05d9\u05e0\u05d9\u05ea": 4130,
  "\u2581feed": 4131,
  "\u2581victims": 4132,
  "\u2581\u05d4\u05e7": 4133,
  "\u2581Bobby": 4134,
  "\u2581\u05d1\u05ea\u05d9\u05e7": 4135,
  "\u2581Kate": 4136,
  "\u2581\u05d1\u05e8\u05d5\u05da": 4137,
  "\u05e0\u05e6": 4138,
  "\u2581spiritual": 4139,
  "\u2581\u05d4\u05e9\u05ea\u05de\u05e9": 4140,
  "\u2581\u05ea\u05e9\u05db\u05d7": 4141,
  "\u05d7\u05dc": 4142,
  "\u2581\u05e4\u05d2\u05e9\u05ea\u05d9": 4143,
  "\u2581Until": 4144,
  "\u2581sweetheart": 4145,
  "\u2581remain": 4146,
  "\u2581members": 4147,
  "\u2581\u05e1\u05d5\u05e4\u05e8": 4148,
  "ke": 4149,
  "\u2581condition": 4150,
  "\u05d3\u05d5\u05ea": 4151,
  "\u2581Eric": 4152,
  "\u2581\u05d1\u05dc\u05d1": 4153,
  "\u2581Up": 4154,
  "\u2581create": 4155,
  "\u2581\u05d5\u05d0\u05e3": 4156,
  "\u05d9\u05e4\u05d4": 4157,
  "\u2581destroyed": 4158,
  "\u2581Robert": 4159,
  "\u2581\u05de\u05e9\u05e7\u05d4": 4160,
  "\u2581\u05ea\u05e2\u05d6\u05d5\u05d1": 4161,
  "\u05e9\u05d9\u05dd": 4162,
  "\u2581\u05dc\u05d6\u05e8\u05d5\u05e7": 4163,
  "\u2581data": 4164,
  "\u2581\u05e1\u05e8": 4165,
  "\u05e0\u05e7": 4166,
  "\u2581\u05e0\u05d4\u05e8\u05d2": 4167,
  "\u2581\u05e0\u05d5\u05dc\u05d3": 4168,
  "\u2581cancer": 4169,
  "\u2581discuss": 4170,
  "\u2581social": 4171,
  "\u2581\u05db\u05bc\u05b5\u05df": 4172,
  "\u2581\u05dc\u05e4\u05e0\u05d5\u05ea": 4173,
  "\u2581\u05ea\u05d6\u05d3\u05d9\u05d9\u05df": 4174,
  "\u2581photo": 4175,
  "\u2581text": 4176,
  "\u2581bucks": 4177,
  "\u2581chicken": 4178,
  "\u2581fill": 4179,
  "\u2581\u05dc\u05e9\u05d7\u05e8\u05e8": 4180,
  "\u2581desk": 4181,
  "\u05d6\u05d9": 4182,
  "\u2581Eddie": 4183,
  "\u2581noticed": 4184,
  "\u2581\u05d4\u05e6\u05dc\u05d9\u05d7": 4185,
  "\u2581\u05d4\u05de\u05e9\u05d9\u05de\u05d4": 4186,
  "\u2581Walter": 4187,
  "\u2581\u05e0\u05d5\u05e1\u05e2": 4188,
  "\u2581invited": 4189,
  "\u2581%": 4190,
  "if": 4191,
  "for": 4192,
  "\u2581\u05e4\u05e9\u05e2": 4193,
  "\u05e0\u05ea\u05d9": 4194,
  "der": 4195,
  "\u2581\u05e1\u05d8\u05d9\u05d1": 4196,
  "\u2581paying": 4197,
  "\u05de\u05d9\u05df": 4198,
  "\u2581dating": 4199,
  "\u2581\u05e4\u05dc\u05d0": 4200,
  "\u2581\u05d0\u05e9\u05ea\u05da": 4201,
  "\u2581\u05e1\u05d9\u05e4\u05e8\u05ea\u05d9": 4202,
  "\u05d1\u05e8\u05d9": 4203,
  "\u2581\u05d8\u05d5\u05de\u05d9": 4204,
  "\u2581\u05d9\u05d9\u05df": 4205,
  "\u2581\u05d8\u05d9\u05e4\u05d5\u05dc": 4206,
  "\u2581\u05d1\u05e7\u05e8": 4207,
  "\u2581folks": 4208,
  "\u2581\u05e6\u05e2\u05d9\u05e8\u05d4": 4209,
  "\u2581\u05d9\u05e2\u05d1\u05d5\u05d3": 4210,
  "\u05d9\u05e8": 4211,
  "\u2581\u05d0\u05d9\u05e9\u05d5\u05e8": 4212,
  "\u2581\u05d7\u05d5\u05d6\u05e8\u05ea": 4213,
  "\u2581\u05e1\u05e7\u05d5\u05d8": 4214,
  "\u05e6\u05d5\u05d7\u05e7": 4215,
  "\u2581\u05dc\u05d4\u05d6\u05de\u05d9\u05df": 4216,
  "\u2581result": 4217,
  "\u2581\u05e7\u05d5\u05d3": 4218,
  "\u2581\u05dc\u05e9\u05db\u05e0\u05e2": 4219,
  "\u2581\u05d4\u05e8\u05d2\u05ea": 4220,
  "\u2581copy": 4221,
  "\u2581\u05de\u05e4\u05e9\u05e2": 4222,
  "\u05d5\u05e0\u05d2": 4223,
  "\u2581failed": 4224,
  "\u2581sweetie": 4225,
  "\u2581\u05d2\u05e0\u05d1": 4226,
  "\u2581trick": 4227,
  "\u2581weight": 4228,
  "\u2581\u05d5\u05e9\u05d5\u05d1": 4229,
  "\u05d3\u05dc": 4230,
  "\u2581\u05d6\u05d9": 4231,
  "\u2581total": 4232,
  "\u05e6\u05d9\u05d4": 4233,
  "\u05e9\u05ea\u05d9": 4234,
  "\u2581asleep": 4235,
  "\u2581\u05d1\u05d3": 4236,
  "\u2581\u05d5\u05d1\u05db\u05dc": 4237,
  "\u2581onto": 4238,
  "\u2581\u05ea\u05e1\u05e4\u05e8": 4239,
  "\u05d5\u05d5\u05d3": 4240,
  "\u2581\u05d1\u05d5\u05d1\u05d9": 4241,
  "\u2581humans": 4242,
  "\u2581assume": 4243,
  "\u2581Johnny": 4244,
  "op": 4245,
  "\u2581awful": 4246,
  "\u2581Mama": 4247,
  "\u2581dis": 4248,
  "\u2581\u05e9\u05dc\u05dd": 4249,
  "\u05e6\u05ea": 4250,
  "\u2581\u05d1\u05e1": 4251,
  "\u2581arrived": 4252,
  "\u2581\u05d4\u05de\u05de\u05e9\u05dc\u05d4": 4253,
  "\u2581\u05d1\u05e9\u05d5\u05dd": 4254,
  "Yes": 4255,
  "\u2581\u05e9\u05e0\u05d5\u05ea": 4256,
  "\u2581ideas": 4257,
  "ism": 4258,
  "\u2581\u05d4\u05ea\u05e9\u05d5\u05d1\u05d4": 4259,
  "\u2581Matt": 4260,
  "\u2581stage": 4261,
  "\u2581fan": 4262,
  "im": 4263,
  "\u2581\u05dc\u05d0\u05ea\u05e8": 4264,
  "\u2581member": 4265,
  "\u05e8\u05ea\u05d9": 4266,
  "\u25812,": 4267,
  "\u05e1\u05d8\u05d9": 4268,
  "\u2581dick": 4269,
  "\u2581\u05e2\u05d6\u05d5\u05d1": 4270,
  "\u05d9\u05d5\u05e8\u05e7": 4271,
  "\u2581connection": 4272,
  "\u2581\u05e9\u05d4\u05d9\u05d9\u05ea\u05d4": 4273,
  "\u05d0\u05e0\u05d5": 4274,
  "way": 4275,
  "\u2581followed": 4276,
  "\u05e7\u05d5\u05e8": 4277,
  "\u2581\u05de\u05e1\u05d5\u05d2\u05dc\u05ea": 4278,
  "\u2581\u05e2\u05d1\u05e8\u05d5": 4279,
  "\u2581possibly": 4280,
  "\u2581\u05dc\u05e0\u05e7\u05d5\u05ea": 4281,
  "\u2581\u05e0\u05d7": 4282,
  "what": 4283,
  "\u05b6": 4284,
  "\u2581\u05de\u05db\u05d4": 4285,
  "\u05d5\u05d5\u05dc": 4286,
  "\u2581source": 4287,
  "\u2581breaking": 4288,
  "\u2581\u05d9\u05d0": 4289,
  "\u2581\u05e9\u05de\u05e9": 4290,
  "\u2581\u05e9\u05d3": 4291,
  "\u2581\u05e2\u05e0\u05e7": 4292,
  "\u2581\u05e9\u05e2\u05d1\u05e8\u05d4": 4293,
  "\u05e0\u05d9\u05d5\u05ea": 4294,
  "\u05d0\u05d9\u05d6\u05d4": 4295,
  "\u2581Co": 4296,
  "\u2581\u05d3\u05df": 4297,
  "\u2581signal": 4298,
  "\u2581\u05dc\u05d9\u05d5\u05dd": 4299,
  "\u2581Billy": 4300,
  "\u2581leaves": 4301,
  "\u2581answers": 4302,
  "\u258135": 4303,
  "\u2581oil": 4304,
  "\u2581Aren": 4305,
  "\u05e8\u05d2\u05e2": 4306,
  "\u2581heads": 4307,
  "\u2581\u05dc\u05d5\u05d7": 4308,
  "\u2581\u05e8\u05d0\u05d9\u05d5\u05ea": 4309,
  "\u2581\u05e8\u05e6\u05d5": 4310,
  "\u2581Mommy": 4311,
  "\u2581shirt": 4312,
  "\u2581including": 4313,
  "\u2581release": 4314,
  "\u2581\u05d2\u05d1\u05d9\u05e8\u05d5\u05ea\u05d9\u05d9": 4315,
  "\u2581Martin": 4316,
  "\u2581\u05dc\u05d5\u05e7\u05d7\u05d9\u05dd": 4317,
  "\u2581\u05dc\u05d7\u05d9\u05d9": 4318,
  "\u2581\u05dc\u05d5\u05d5\u05ea\u05e8": 4319,
  "\u2581\u05d4\u05e7\u05e8\u05d1": 4320,
  "\u2581value": 4321,
  "\u2581dumb": 4322,
  "\u05e0\u05e1\u05d9": 4323,
  "\u2581\u05d0\u05d1\u05d9\u05d5": 4324,
  "\u2581500": 4325,
  "\u2581driver": 4326,
  "\u2581\u05dc\u05de\u05e0\u05d5\u05e2": 4327,
  "\u2581agreed": 4328,
  "\u2581\u05d4\u05d1\u05e0\u05ea": 4329,
  "\u2581\u05d5\u05e8\u05e7": 4330,
  "\u2581\u05d6\u05d4\u05d1": 4331,
  "\u2581\u05e9\u05d5\u05d8\u05e8\u05d9\u05dd": 4332,
  "\u2581balls": 4333,
  "20": 4334,
  "\u05d8\u05d9\u05dd": 4335,
  "\u2581knock": 4336,
  "\u2581\u05e0\u05d5\u05e1\u05e4\u05d9\u05dd": 4337,
  "ler": 4338,
  "\u2581\u05dc\u05d3\u05de\u05d9\u05d9\u05df": 4339,
  "\u2581pretend": 4340,
  "\u2581\u05d7\u05d5\u05e1\u05e8": 4341,
  "\u05d2\u05d5": 4342,
  "\u2581\u05de\u05d5\u05e8": 4343,
  "\u2581birth": 4344,
  "\u2581\u05dc\u05de\u05e9\u05da": 4345,
  "\u2581\u05e9\u05d1\u05ea": 4346,
  "\u2581uncle": 4347,
  "huh": 4348,
  "\u05d9\u05d2": 4349,
  "\u05d5\u05e8\u05d9\u05dd": 4350,
  "\u2581changes": 4351,
  "\u2581\u05d3\u05d9\u05d1\u05e8\u05e0\u05d5": 4352,
  "ig": 4353,
  "\u05db\u05de\u05d5\u05d1\u05df": 4354,
  "\u2581German": 4355,
  "\u2581breathe": 4356,
  "\u2581\u05d3\u05e4\u05d5\u05e7": 4357,
  "\u2581\u05d9\u05d7\u05e1\u05d9": 4358,
  "\u2581Pretty": 4359,
  "\u2581\u05d8\u05d9\u05e4\u05e9\u05d9": 4360,
  "\u2581\u05e7\u05d9\u05d9\u05dc": 4361,
  "\u2581shower": 4362,
  "\u2581\u05e4\u05e8\u05d8\u05d9": 4363,
  "\u2581\u05ea\u05e7\u05d5\u05d5\u05d4": 4364,
  "\u05e1\u05dc\u05d9\u05d7\u05d4": 4365,
  "\u2581Honor": 4366,
  "\u2581location": 4367,
  "\u2581command": 4368,
  "\u2581\u05e6\u05e8": 4369,
  "\u2581Lee": 4370,
  "\u2581afford": 4371,
  "\u2581main": 4372,
  "\u2581\u05e4\u05e8\u05e1": 4373,
  "\u2581\u05dc\u05d6\u05db\u05d5\u05e8": 4374,
  "\u2581Mac": 4375,
  "\u2581believed": 4376,
  "\u2581\u05dc\u05dc\u05de\u05d3": 4377,
  "\u2581ended": 4378,
  "\u2581\u05ea\u05e1\u05ea\u05db\u05dc\u05d9": 4379,
  "\u2581\u266b": 4380,
  "\u2581teeth": 4381,
  "\u2581\u05d7\u05e9\u05d5\u05d1\u05d4": 4382,
  "\u2581WE": 4383,
  "\u2581\u05de\u05e2\u05d5\u05e8\u05d1": 4384,
  "\u2581\u05ea\u05d1\u05d5\u05d0": 4385,
  "\u2581firm": 4386,
  "\u2581\u05d7\u05d9\u05e8\u05d5\u05dd": 4387,
  "\u2581Easy": 4388,
  "\u2581Fire": 4389,
  "\u2581\u05d1\u05d9\u05e0\u05ea\u05d9\u05d9\u05dd": 4390,
  "\u2581bullet": 4391,
  "\u2581\u05d1\u05e8\u05d9": 4392,
  "\u2581justice": 4393,
  "\u2581\u05d0\u05d9\u05e9\u05d9\u05ea": 4394,
  "\u2581cars": 4395,
  "\u05e6\u05d5": 4396,
  "\u2581comfortable": 4397,
  "\u2581\u05d1\u05d2\u05d3\u05d9\u05dd": 4398,
  "\u2581files": 4399,
  "\u2581nor": 4400,
  "\u2581lies": 4401,
  "\u2581student": 4402,
  "`": 4403,
  "\u2581\u05de\u05e9\u05e4\u05d8": 4404,
  "\u2581Charles": 4405,
  "II": 4406,
  "\u05e0\u05d3\u05e8": 4407,
  "\u2581travel": 4408,
  "\u2581\u05dc\u05de\u05e9\u05d4\u05d5": 4409,
  "\u2581\u05d4\u05d0\u05d3\u05de\u05d4": 4410,
  "\u2581\u05dc\u05e6": 4411,
  "\u2581\u05e4\u05e8\u05d5": 4412,
  "\u05d1\u05d3\u05d9\u05d5\u05e7": 4413,
  "\u2581loss": 4414,
  "\u2581\u05d5\u05d0\u05d9\u05da": 4415,
  "ran": 4416,
  "\u05e4\u05d9\u05dc": 4417,
  "\u2581\u05d4\u05d7\u05dc\u05d8\u05d4": 4418,
  "\u2581\u05e8\u05d2\u05e9\u05d5\u05ea": 4419,
  "\u05b7": 4420,
  "\u05d4\u05d9": 4421,
  "\u2581\u05d2\u05d9\u05d1\u05d5\u05e8": 4422,
  "\u2581\u05dc\u05e8\u05d0\u05e9": 4423,
  "\u2581en": 4424,
  "\u2581horrible": 4425,
  "\u05e0\u05d3": 4426,
  "\u2581\u05de\u05d7\u05d9\u05e8": 4427,
  "\u2581\u05d1\u05e2": 4428,
  "\u2581\u05e9\u05db\u05d3\u05d0\u05d9": 4429,
  "\u05d3\u05d5\u05df": 4430,
  "\u2581\u05dc\u05d9\u05dc\u05d3\u05d9\u05dd": 4431,
  "\u2581bloody": 4432,
  "\u2581\u05de\u05d0\u05d8": 4433,
  "\u2581duty": 4434,
  "\u2581\u05d1\u05e2\u05dc\u05da": 4435,
  "\u2581\u05e9\u05d9\u05e8\u05d5\u05ea": 4436,
  "\u2581\u05de\u05d6\u05db\u05d9\u05e8": 4437,
  "\u2581non": 4438,
  "\u2581\u05d4\u05d1\u05d0\u05ea": 4439,
  "\u2581\u05d1\u05de\u05e8\u05d7\u05e7": 4440,
  "\u2581\u05e2\u05e6\u05de\u05dd": 4441,
  "\u2581original": 4442,
  "\u2581North": 4443,
  "\u2581\u05d0\u05de\u05d4": 4444,
  "\u2581\u05dc\u05e9\u05db\u05d5\u05d7": 4445,
  "\u2581heat": 4446,
  "\u2581\u05d0\u05d9\u05db\u05e4\u05ea": 4447,
  "\u2581market": 4448,
  "ance": 4449,
  "\u2581\u05d0\u05e6\u05dc\u05d9": 4450,
  "\u2581turning": 4451,
  "\u2581\u05d0\u05de\u05e6\u05d0": 4452,
  "\u2581\u05de\u05ea\u05d7\u05d9\u05dc\u05d4": 4453,
  "\u2581\u05ea\u05d9\u05ea\u05df": 4454,
  "\u05e0\u05d5\u05e1": 4455,
  "\u05e8\u05d5\u05e1": 4456,
  "\u2581Brian": 4457,
  "\u2581arrested": 4458,
  "\u2581wild": 4459,
  "\u05db\u05e8": 4460,
  "\u2581prepared": 4461,
  "\u2581\u05d0\u05dc\u05d4\u05d9\u05dd": 4462,
  "\u2581\u05d1\u05e9\u05dc\u05d1": 4463,
  "\u2581\u05de\u05de\u05e9\u05d9\u05da": 4464,
  "-2": 4465,
  "\u2581\u05e9\u05e8\u05e7": 4466,
  "\u05e8\u05d5\u05e6\u05d4": 4467,
  "vi": 4468,
  "\u2581dry": 4469,
  "\u2581\u05db\u05dc\u05e9\u05d4\u05d9": 4470,
  "\u2581\u05e8\u05d1\u05d5\u05ea\u05d9\u05d9": 4471,
  "\u05d5\u05e2": 4472,
  "\u2581according": 4473,
  "\u05d2\u05e2": 4474,
  "\u2581Dean": 4475,
  "\u2581speech": 4476,
  "\u2581\u05d9\u05de\u05d9\u05df": 4477,
  "\u2581cake": 4478,
  "\u2581\u05e8\u05e2\u05d4": 4479,
  "\u2581\u05dc\u05de\u05d3\u05d9": 4480,
  "\u2581Chuck": 4481,
  "\u2581cream": 4482,
  "\u2581\u05d5\u05d5\u05dc\u05d8\u05e8": 4483,
  "\u2581Nope": 4484,
  "\u2581\u05dc\u05e8\u05e7\u05d5\u05d3": 4485,
  "\u2581pack": 4486,
  "\u2581\u05d4\u05d2\u05d5\u05e4\u05d4": 4487,
  "\u258129": 4488,
  "\u2581\u05d1\u05de\u05e9\u05d4\u05d5": 4489,
  "\u2581\u05de\u05e9\u05ea\u05de\u05e9\u05d9\u05dd": 4490,
  "\u2581:": 4491,
  "\u2581\u05de\u05d6\u05d5\u05df": 4492,
  "\u2581\u05e0\u05d9\u05e7\u05d7": 4493,
  "\u2581proof": 4494,
  "\u2581\u05de\u05d5\u05db\u05e8\u05d7": 4495,
  "\u2581\u05e0\u05e7\u05d5\u05d3\u05d5\u05ea": 4496,
  "\u2581\u05e2\u05d5": 4497,
  "\u2581\u05d6\u05e8": 4498,
  "\u2581\u05dc\u05d0\u05d3\u05dd": 4499,
  "\u2581suggest": 4500,
  "\u05d6\u05de\u05df": 4501,
  "\u05de\u05dc": 4502,
  "\u2581\u05dc\u05e0\u05d4\u05d5\u05d2": 4503,
  "\u2581dogs": 4504,
  "\u05d1\u05e2": 4505,
  "\u2581restaurant": 4506,
  "\u2581Street": 4507,
  "200": 4508,
  "\u2581\u05dc\u05d3\u05e2\u05ea\u05d9": 4509,
  "\u2581\u05dc\u05d3": 4510,
  "ee": 4511,
  "\u2581\u05e9\u05d0\u05dc\u05ea\u05d9": 4512,
  "\u2581chair": 4513,
  "ut": 4514,
  "\u2581\u05d0\u05d9\u05d9\u05de\u05d9": 4515,
  "\u2581\u05d4\u05de\u05e0\u05d4\u05dc": 4516,
  "\u2581hat": 4517,
  "\u2581meat": 4518,
  "\u2581\u05dc\u05e8": 4519,
  "\u2581Life": 4520,
  "\u2581\u05d0\u05dc\u05d9\u05e1": 4521,
  "\u2581\u05d1\u05ea\u05d7\u05ea": 4522,
  "\u05d0\u05e4": 4523,
  "\u2581\u05de\u05e1\u05d5\u05d9\u05dd": 4524,
  "\u2581\u05d9\u05d3\u05d9\u05d3\u05d9": 4525,
  "\u2581\u05d9\u05ea\u05e8": 4526,
  "\u2581\u05e4\u05d5\u05e2\u05dc": 4527,
  "\u2581correct": 4528,
  "\u05e8\u05d8": 4529,
  "\u05e6\u05e8": 4530,
  "\u2581\u05d4\u05d0\u05e3": 4531,
  "\u2581available": 4532,
  "\u2581opened": 4533,
  "\u2581\u05dc\u05e2\u05d1\u05e8": 4534,
  "\u2581Morning": 4535,
  "50": 4536,
  "\u2581community": 4537,
  "\u2581biggest": 4538,
  "\u2581\u05d9\u05d3\u05e2\u05d5": 4539,
  "\u2581heavy": 4540,
  "\u05e7\u05e8\u05d1": 4541,
  "\u05e6\u05d7\u05d5\u05e7": 4542,
  "\u2581rain": 4543,
  "\u2581\u05d7\u05dc\u05d5\u05dd": 4544,
  "\u2581avoid": 4545,
  "\u2581Car": 4546,
  "\u2581led": 4547,
  "\u2581\u05d5\u05dc\u05d0\u05d7\u05e8": 4548,
  "\u2581Z": 4549,
  "\u2581\u05dc\u05db\u05d9\u05d5\u05d5\u05df": 4550,
  "\u2581\u05ea\u05d0\u05d5\u05e0\u05d4": 4551,
  "\u258180": 4552,
  "va": 4553,
  "\u05e1\u05d4": 4554,
  "\u2581\u05d0\u05de": 4555,
  "\u2581parts": 4556,
  "\u2581\u05d9\u05d5\u05de\u05d9\u05d9\u05dd": 4557,
  "\u2581\u05de\u05e1\u05ea\u05d1\u05e8": 4558,
  "\u2581\u05e9\u05d5\u05ea\u05d4": 4559,
  "\u2581cares": 4560,
  "\u2581\u05d7\u05e9\u05d1\u05d5\u05df": 4561,
  "\u2581\u05dc\u05dc\u05d1\u05d5\u05e9": 4562,
  "\u2581\u05ea\u05d0\u05de\u05e8": 4563,
  "\u2581\u05d0\u05d7\u05e8\u05d9\u05d9": 4564,
  "\u2581Jason": 4565,
  "\u2581plenty": 4566,
  "\u05d2\u05d4": 4567,
  "\u05e7\u05e1\u05d5\u05df": 4568,
  "\u2581\u05d7\u05de\u05d5\u05d3\u05d4": 4569,
  "\u2581Long": 4570,
  "\u2581\u05e9\u05e7": 4571,
  "\u2581theory": 4572,
  "\u2581Although": 4573,
  "\u2581\u05de\u05ea\u05d2\u05e2\u05d2\u05e2": 4574,
  "\u2581Ladies": 4575,
  "\u2581beach": 4576,
  "\u2581monster": 4577,
  "\u2581\u05e0\u05db\u05e0\u05e1\u05ea": 4578,
  "\u2581\u05d3\u05d0\u05d2": 4579,
  "\u2581\u05ea\u05d7\u05d6\u05d9\u05e7": 4580,
  "\u05e1\u05e7\u05d9": 4581,
  "\u2581universe": 4582,
  "\u2581\u05d4\u05d7\u05d9": 4583,
  "\u2581smile": 4584,
  "\u2581\u05d0\u05e9\u05dd": 4585,
  "\u2581\u05dc\u05d1\u05d9": 4586,
  "\u2581Pete": 4587,
  "\u2581bird": 4588,
  "\u2581\u05d0\u05e0\u05d4": 4589,
  "\u2581flying": 4590,
  "\u2581\u05dc\u05d4\u05d9\u05e4\u05d2\u05e9": 4591,
  "\u05d2\u05dc": 4592,
  "\u2581\u05d1\u05e9\u05d1\u05d9\u05dc\u05d5": 4593,
  "\u2581\u05e1\u05d5\u05d3": 4594,
  "\u2581\u05dc\u05de\u05e8": 4595,
  "\u2581\u05e9\u05db\u05e8": 4596,
  "\u2581\u05dc\u05e2": 4597,
  "\u2581\u05d7\u05d1\u05e8\u05d5\u05ea": 4598,
  "\u2581\u05db\u05e9\u05d0\u05ea": 4599,
  "\u2581somehow": 4600,
  "\u2581cases": 4601,
  "\u2581\u05de\u05e7\u05d1\u05dc\u05ea": 4602,
  "\u2581pal": 4603,
  "\u05d1\u05d5\u05e7\u05e8": 4604,
  "\u2581\u05d4\u05dc\u05db\u05ea": 4605,
  "\u2581queen": 4606,
  "\u2581\u05d1\u05e7\u05d5\u05dc": 4607,
  "\u2581\u05d0\u05d4\u05e8\u05d5\u05d2": 4608,
  "\u2581\u05de\u05e7\u05e9\u05d9\u05d1": 4609,
  "\u2581insane": 4610,
  "\u2581lights": 4611,
  "\u2581barely": 4612,
  "\u2581\u05e9\u05d1\u05d0\u05ea": 4613,
  "\u2581ME": 4614,
  "\u2581\u05ea\u05d9\u05e7\u05d7": 4615,
  "\u2581\u05ea\u05d5\u05db\u05dc\u05d5": 4616,
  "\u2581\u05e6\u05e8\u05d9\u05db\u05d5\u05ea": 4617,
  "\u2581\u05d5\u05de\u05ea": 4618,
  "\u2581showing": 4619,
  "\u2581\u05de\u05e8\u05d0\u05e9": 4620,
  "\u2581exist": 4621,
  "ber": 4622,
  "\u2581responsibility": 4623,
  "\u2581Always": 4624,
  "\u2581river": 4625,
  "\u2581\u05d3\u05d5\u05df": 4626,
  "ff": 4627,
  "\u2581mentioned": 4628,
  "\u2581prefer": 4629,
  "\u2581\u05e7\u05e8\u05d5\u05d1\u05d9\u05dd": 4630,
  "\u2581Jeff": 4631,
  "\u2581suddenly": 4632,
  "\u2581\u05d7\u05d9\u05e4\u05d5\u05e9": 4633,
  "\u2581\u05e9\u05d7\u05e9\u05d1\u05ea\u05d9": 4634,
  "\u2581north": 4635,
  "\u2581Shh": 4636,
  "\u2581physical": 4637,
  "\u05e2\u05d9\u05dd": 4638,
  "\u2581belong": 4639,
  "\u2581Home": 4640,
  "\u2581\u05d5\u05d5\u05dc": 4641,
  "\u2581\u05dc\u05de\u05d3\u05ea\u05d9": 4642,
  "\u2581\u05d9\u05e7\u05d9\u05e8\u05d9": 4643,
  "Name": 4644,
  "\u2581\u05e9\u05ea\u05d5\u05e7": 4645,
  "\u2581Ka": 4646,
  "\u2581criminal": 4647,
  "\u2581\u05dc\u05e2\u05e6\u05de\u05d5": 4648,
  "\u2581Without": 4649,
  "\u2581ends": 4650,
  "\u2581sky": 4651,
  "\u2581\u05d2\u05d1\u05d5\u05d4\u05d4": 4652,
  "\u2581covered": 4653,
  "\u2581\u05de\u05e6": 4654,
  "\u2581\u05e2\u05de\u05d5\u05d3": 4655,
  "\u2581\u05d9\u05e9\u05e0\u05dd": 4656,
  "\u05d8\u05e1": 4657,
  "\u2581\u05dc\u05d4\u05e6\u05d9\u05d2": 4658,
  "\u2581\u05e8\u05d9": 4659,
  "\u2581\u05d1\u05e8\u05d5\u05db\u05d9\u05dd": 4660,
  "\u05d0\u05e9": 4661,
  "\u2581dealing": 4662,
  "\u2581Six": 4663,
  "\u2581\u05d4\u05e7\u05d1\u05d5\u05e6\u05d4": 4664,
  "\u2581\u05e0\u05d7\u05d6\u05d5\u05e8": 4665,
  "\u258131": 4666,
  "\u2581legal": 4667,
  "\u2581threat": 4668,
  "oh": 4669,
  "\u258190": 4670,
  "\u2581van": 4671,
  "\u2581\u05e9\u05db\u05d1\u05e8": 4672,
  "\u2581moon": 4673,
  "\u2581cards": 4674,
  "\u2581\u05e9\u05d9\u05de\u05d5\u05e9": 4675,
  "\u2581interview": 4676,
  "\u2581\u05d5\u05d4\u05e0\u05d4": 4677,
  "\u2581students": 4678,
  "\u2581pray": 4679,
  "\u2581\u05e6\u05d1\u05d0": 4680,
  "\u2581operation": 4681,
  "\u2581\u05d5\u05d0\u05ea\u05dd": 4682,
  "\u2581throat": 4683,
  "\u05d5\u05e0\u05ea": 4684,
  "\u05d3\u05d5\u05e8": 4685,
  "\u2581la": 4686,
  "\u2581Claire": 4687,
  "\u2581\u05d0\u05dc\u05e4\u05d9": 4688,
  "\u05e1\u05d5": 4689,
  "\u2581cousin": 4690,
  "\u2581\u05dc\u05d4\u05e8\u05e9\u05d5\u05ea": 4691,
  "que": 4692,
  "\u2581\u05d4\u05d0\u05de\u05d0": 4693,
  "\u2581\u05d4\u05d2\u05e0\u05d4": 4694,
  "*": 4695,
  "\u2581Roger": 4696,
  "\u2581\u05dc\u05d4\u05e8\u05d9\u05dd": 4697,
  "\u2581Both": 4698,
  "\u2581Kyle": 4699,
  "\u2581famous": 4700,
  "\u05e0\u05e4": 4701,
  "\u05e8\u05de\u05d9": 4702,
  "\u05d1\u05d9\u05dc": 4703,
  "\u2581\u05d4\u05de\u05d9\u05dc\u05d9\u05dd": 4704,
  "\u2581\u05d7\u05d9\u05d5\u05ea": 4705,
  "\u258132": 4706,
  "\u2581\u05d0\u05d5\u05dd": 4707,
  "\u2581shame": 4708,
  "\u2581\u05de\u05d6\u05de\u05df": 4709,
  "\u2581\u05d2\u05d3\u05d5\u05dc\u05d5\u05ea": 4710,
  "\u2581\u05e0\u05de\u05d5\u05da": 4711,
  "\u2581\u05de\u05d0\u05d9": 4712,
  "\u2581France": 4713,
  "\u2581challenge": 4714,
  "\u2581familiar": 4715,
  "\u2581complicated": 4716,
  "\u2581sub": 4717,
  "ized": 4718,
  "\u05e0\u05df": 4719,
  "\u05e2\u05d1\u05d5\u05e8": 4720,
  "\u2581\u05de\u05d1\u05d8\u05d9\u05d7\u05d4": 4721,
  "\u2581holy": 4722,
  "\u2581block": 4723,
  "\u2581sending": 4724,
  "\u2581\u05e8\u05d5\u05d6": 4725,
  "\u2581congregation": 4726,
  "\u2581\u05de\u05e7\u05dc": 4727,
  "\u2581joy": 4728,
  "\u2581According": 4729,
  "\u2581Jerry": 4730,
  "\u2581\u05d4\u05dc\u05db\u05d4": 4731,
  "\u2581positive": 4732,
  "\u2581\u05dc\u05e0\u05d4\u05dc": 4733,
  "\u2581caused": 4734,
  "\u2581add": 4735,
  "\u2581south": 4736,
  "\u2581\u05d4\u05d1\u05d7\u05d5\u05e8\u05d9\u05dd": 4737,
  "\u2581\u05e9\u05d1\u05d0": 4738,
  "\u2581\u05d4\u05d7\u05ea\u05d5\u05e0\u05d4": 4739,
  "\u2581\u05d6\u05d4\u05d9\u05e8\u05d5\u05ea": 4740,
  "\u2581\u05d1\u05ea\u05d0": 4741,
  "\u2581points": 4742,
  "\u2581roof": 4743,
  "\u2581nowhere": 4744,
  "\u2581manager": 4745,
  "\u2581\u05d4\u05de\u05e9\u05e8\u05d3": 4746,
  "\u05e4\u05d8": 4747,
  "-3": 4748,
  "\u2581\u05d1\u05e2\u05e7\u05d1\u05d5\u05ea": 4749,
  "\u2581Friday": 4750,
  "\u2581threw": 4751,
  "\u2581\u05d1\u05d1\u05e8": 4752,
  "\u2581\u05d4\u05ea\u05e2\u05d5\u05e4\u05d4": 4753,
  "\u2581\u05dc\u05d4\u05df": 4754,
  "\u2581Word": 4755,
  "\u25810": 4756,
  "\u2581\u05d4\u05d5\u05de\u05d5": 4757,
  "\u2581mail": 4758,
  "bi": 4759,
  "\u2581\u05d1\u05db\u05e0\u05d5\u05ea": 4760,
  "\u2581event": 4761,
  "\u2581\u05e0\u05e6\u05d0": 4762,
  "\u2581Must": 4763,
  "\u2581signed": 4764,
  "\u2581\u05e8\u05d9\u05d7": 4765,
  "\u2581\u05dc\u05e1\u05d2\u05d5\u05e8": 4766,
  "\u2581\u05de\u05d7\u05e4\u05e9\u05ea": 4767,
  "di": 4768,
  "\u2581\u05e7\u05dc\u05d9\u05d9\u05e8": 4769,
  "\u2581\u05e2\u05e9\u05e8\u05d9\u05dd": 4770,
  "\u2581results": 4771,
  "\u05d7\u05d5\u05ea": 4772,
  "\u2581outta": 4773,
  "\u2581\u05e0\u05e9\u05d5\u05d9": 4774,
  "con": 4775,
  "\u2581lately": 4776,
  "\u2581Things": 4777,
  "\u2581\u05d4\u05e7\u05d5\u05d3\u05e9": 4778,
  "\u2581\u05e2\u05d1\u05e8\u05ea\u05d9": 4779,
  "\u2581storm": 4780,
  "\u2581Enough": 4781,
  "\u2581families": 4782,
  "\u2581\u05de\u05e4\u05ea\u05d7": 4783,
  "\u05d9\u05e0\u05d9\u05dd": 4784,
  "\u2581IS": 4785,
  "\u2581thoughts": 4786,
  "\u2581\u05e4\u05e8\u05d5\u05e4\u05e1\u05d5\u05e8": 4787,
  "\u2581loose": 4788,
  "\u25813,": 4789,
  "\u2581\u05d1\u05de\u05d9": 4790,
  "\u2581recently": 4791,
  "\u2581\u05dc\u05e2\u05d6\u05e8\u05d4": 4792,
  "\u2581\u05e9\u05dc\u05d9\u05e9\u05d9": 4793,
  "\u2581\u05d4\u05e2\u05dc": 4794,
  "ated": 4795,
  "\u2581weak": 4796,
  "\u2581cup": 4797,
  "\u2581opening": 4798,
  "\u2581\u05e1\u05d3\u05e8": 4799,
  "\u05e4\u05e7": 4800,
  "\u2581nearly": 4801,
  "\u05d9\u05de\u05d9\u05dd": 4802,
  "\u05e8\u05d9\u05e7": 4803,
  "\u2581\u05d1\u05d4\u05ea\u05d7\u05dc\u05d4": 4804,
  "\u2581\u05e7\u05d5\u05e0\u05d4": 4805,
  "\u2581\u05d3\u05d5\u05d0\u05d2": 4806,
  "\u2581\u05e2\u05d5\u05e3": 4807,
  "\u2581\u05d0\u05e8\u05d5\u05db\u05d4": 4808,
  "\u2581\u05de\u05db\u05ea\u05d1": 4809,
  "\u2581Ask": 4810,
  "\u2581Chinese": 4811,
  "\u2581reasons": 4812,
  "\u2581\u05d4\u05d3\u05d5\u05d3": 4813,
  "\u2581leader": 4814,
  "\u05d0\u05ea\u05dd": 4815,
  "\u2581\u05d4\u05d2\u05d1\u05e8\u05d9\u05dd": 4816,
  "\u2581\u05e6\u05d5\u05e4\u05d4": 4817,
  "\u2581\u05d1\u05de\u05d9\u05d8\u05d4": 4818,
  "\u2581\u05d4\u05d6": 4819,
  "\u2581\u05d1\u05d9\u05de\u05d9\u05dd": 4820,
  "\u05d4\u05df": 4821,
  "\u2581pieces": 4822,
  "\u2581\u05e7\u05d1\u05d5\u05e6\u05d4": 4823,
  "\u2581Lady": 4824,
  "\u2581\u05d1\u05e1\u05e4\u05e8": 4825,
  "IN": 4826,
  "\u2581Bad": 4827,
  "\u2581\u05d4\u05ea\u05e7\u05e9\u05e8\u05ea\u05d9": 4828,
  "\u2581\u05d1\u05e8\u05d9\u05d0\u05df": 4829,
  "\u2581\u05d4\u05e8\u05d2\u05ea\u05d9": 4830,
  "\u05d5\u05d5\u05d9\u05dc": 4831,
  "\u2581\u05d0\u05d3\u05d1\u05e8": 4832,
  "\u2581\u05dc\u05d0\u05d7\u05d5\u05e8": 4833,
  "\u2581subject": 4834,
  "\u2581\u05d0\u05d4\u05d1\u05ea": 4835,
  "\u2581direction": 4836,
  "\u2581selling": 4837,
  "\u05dc\u05e2\u05d6\u05d0\u05d6\u05dc": 4838,
  "\u2581\u05de\u05d5\u05d3\u05e2": 4839,
  "les": 4840,
  "\u2581\u05d4\u05d1\u05d4": 4841,
  "\u2581=": 4842,
  "\u2581ancient": 4843,
  "\u2581State": 4844,
  "X": 4845,
  "\u2581Hank": 4846,
  "\u2581\u05db\u05d1\u05d3": 4847,
  "\u2581\u05d1\u05e0\u05d5\u05e9\u05d0": 4848,
  "\u2581\u05dc\u05de\u05dc\u05d0": 4849,
  "\u05e0\u05d0": 4850,
  "\u2581path": 4851,
  "\u2581\u05d0\u05d8\u05e4\u05dc": 4852,
  "\u2581\u05dc\u05e9\u05d9\u05e8": 4853,
  "\u03bf": 4854,
  "\u2581chest": 4855,
  "\u2581\u05e8\u05d0\u05d5\u05d9": 4856,
  "\u2581neighborhood": 4857,
  "\u2581freedom": 4858,
  "\u2581\u05de\u05e9\u05e4\u05d7\u05ea\u05d9": 4859,
  "\u2581\u05e0\u05ea\u05e0\u05d5": 4860,
  "\u2581heading": 4861,
  "\u2581\u05d9\u05d5\u05d7\u05e0\u05df": 4862,
  "\u2581\u05de\u05e1\u05d5\u05d2": 4863,
  "\u2581\u05e0\u05e7\u05d5\u05d3\u05d4": 4864,
  "Laughter": 4865,
  "\u2581slept": 4866,
  "10": 4867,
  "\u05d9\u05e8\u05d5\u05ea": 4868,
  "\u2581pop": 4869,
  "\u2581sons": 4870,
  "\u2581\u05d3\u05d5\u05dc\u05e8\u05d9\u05dd": 4871,
  "\u2581\u05d1\u05d9\u05e7\u05e9\u05ea\u05d9": 4872,
  "\u05e2\u05e8": 4873,
  "\u2581however": 4874,
  "\u2581hired": 4875,
  "uh": 4876,
  "ja": 4877,
  "\u2581\u05d4\u05d0\u05d7": 4878,
  "\u2581\u05dc\u05de\u05d9\u05d8\u05d4": 4879,
  "\u2581\u05d4\u05d8": 4880,
  "\u2581issues": 4881,
  "\u2581\u05d2\u05dc": 4882,
  "\u2581\u05de\u05d5\u05dc\u05d9": 4883,
  "\u2581\u05e9\u05dc\u05de\u05d4": 4884,
  "\u05dc\u05d9\u05dc\u05d4": 4885,
  "\u2581\u05e9\u05ea\u05e8\u05e6\u05d4": 4886,
  "\u2581\u05e4\u05d2\u05e2": 4887,
  "\u2581kinda": 4888,
  "\u2581\u05e6\u05e8\u05d5\u05ea": 4889,
  "\u2581Apparently": 4890,
  "\u2581Phil": 4891,
  "\u2581Grace": 4892,
  "\u2581\u05d4\u05e9\u05d8\u05d7": 4893,
  "\u2581sexual": 4894,
  "\u2581\u05d4\u05de\u05d8\u05d5\u05e1": 4895,
  "\u2581\u05dc\u05d9\u05dc\u05d3": 4896,
  "\u2581\u05dc\u05d2\u05e0\u05d5\u05d1": 4897,
  "\u2581Queen": 4898,
  "\u2581bridge": 4899,
  "\u2581\u05d4\u05e6\u05dc\u05d7\u05ea": 4900,
  "\u2581Police": 4901,
  "\u2581cook": 4902,
  "\u2581\u05dc\u05d0\u05d9\u05e9": 4903,
  "\u2581\u05d0\u05e8\u05d4": 4904,
  "\u2581\u05de\u05e2": 4905,
  "\u2581\u05e0\u05e4\u05dc": 4906,
  "\u2581lines": 4907,
  "\u2581stolen": 4908,
  "\u2581milk": 4909,
  "\u2581\u05d8\u05d1\u05e2\u05d9": 4910,
  "\u2581Down": 4911,
  "\u2581\u05d4\u05e8\u05e2": 4912,
  "\u2581\u05d4\u05e8\u05e6\u05e4\u05d4": 4913,
  "-20": 4914,
  "\u05d9\u05e0\u05ea": 4915,
  "\u2581Professor": 4916,
  "\u2581\u05e0\u05e1\u05d4": 4917,
  "ence": 4918,
  "\u2581Andy": 4919,
  "\u2581\u05dc\u05e7\u05d7\u05d5": 4920,
  "\u2581Le": 4921,
  "\u2581safety": 4922,
  "\u2581\u05dc\u05de\u05e8\u05d1\u05d4": 4923,
  "\u2581\u05de\u05d7\u05e9\u05d1": 4924,
  "\u2581Ra": 4925,
  "\u2581\u05d1\u05e1\u05d9\u05e1": 4926,
  "\u2581\u05d4\u05d9\u05e9\u05df": 4927,
  "How": 4928,
  "\u2581suck": 4929,
  "\u05d1\u05d9\u05d8": 4930,
  "\u2581amount": 4931,
  "\u2581\u05d1\u05e6\u05e8\u05d5\u05ea": 4932,
  "\u2581\u05d4\u05dc\u05d1\u05df": 4933,
  "\u05de\u05d5\u05e8": 4934,
  "\u2581thousands": 4935,
  "\u2581\u05d4\u05e2\u05e0\u05d9\u05d9\u05e0\u05d9\u05dd": 4936,
  "\u2581Officer": 4937,
  "ex": 4938,
  "\u2581\u05d1\u05d9\u05d8\u05d7\u05d5\u05df": 4939,
  "\u2581\u05d7\u05d5\u05dd": 4940,
  "dy": 4941,
  "\u2581dig": 4942,
  "\u2581\u05d2\u05d5": 4943,
  "\u2581male": 4944,
  "\u05dc\u05dd": 4945,
  "\u2581\u05d9\u05d5\u05db\u05dc\u05d5": 4946,
  "j": 4947,
  "\u2581site": 4948,
  "\u2581nuts": 4949,
  "\u05d7\u05d5": 4950,
  "\u2581regular": 4951,
  "Hey": 4952,
  "\u2581\u05de\u05d4\u05df": 4953,
  "\u2581Emily": 4954,
  "pe": 4955,
  "\u2581\u05e2\u05d5\u05e8": 4956,
  "\u2581model": 4957,
  "\u2581\u05d1\u05e1\u05db\u05e0\u05d4": 4958,
  "\u2581Same": 4959,
  "\u2581Ted": 4960,
  "\u05d3\u05d9\u05df": 4961,
  "\u2581\u05ea\u05e4\u05e7\u05d9\u05d3": 4962,
  "\u2581lots": 4963,
  "\u2581\u05dc\u05d0\u05d7\u05d3": 4964,
  "\u2581season": 4965,
  "\u2581period": 4966,
  "\u2581\u05de\u05d7": 4967,
  "\u2581\u05e9\u05d5\u05e0\u05d5\u05ea": 4968,
  "\u05e4\u05e9\u05d5\u05d8": 4969,
  "\u2581\u05d4\u05e9\u05d2\u05ea": 4970,
  "\u2581offered": 4971,
  "\u2581\u05ea\u05e4\u05e1\u05ea\u05d9": 4972,
  "\u2581Russian": 4973,
  "\u2581grown": 4974,
  "\u2581East": 4975,
  "\u2581disease": 4976,
  "\u2581\u05e9\u05d0\u05e2\u05e9\u05d4": 4977,
  "\u05d7\u05d9\u05dd": 4978,
  "\u2581\u05d4\u05d7\u05d5\u05de\u05e8": 4979,
  "\u2581Louis": 4980,
  "\u2581whoever": 4981,
  "\u2581\u05e0\u05d7\u05e9": 4982,
  "\u2581British": 4983,
  "qui": 4984,
  "\u2581\u05d7\u05e9": 4985,
  "\u2581\u05de\u05e8\u05d8\u05d9\u05df": 4986,
  "\u2581opinion": 4987,
  "\u2581\u05d1\u05dc\u05d4": 4988,
  "\u05de\u05d9\u05e9\u05d4\u05d5": 4989,
  "\u05e8\u05d5\u05ea": 4990,
  "\u2581Aw": 4991,
  "\u2581\u05d1\u05d7\u05e8": 4992,
  "\u2581\u05de\u05ea\u05e7\u05e9\u05e8": 4993,
  "\u2581\u05ea\u05e1\u05dc\u05d7": 4994,
  "\u2581\u05e2\u05d6\u05e8": 4995,
  "\u2581grew": 4996,
  "\u2581faster": 4997,
  "\u2581trade": 4998,
  "\u2581property": 4999,
  "\u2581returned": 5000,
  "\u2581\u05d7\u05d6\u05e8\u05ea\u05d9": 5001,
  "\u2581\u05d4\u05d7\u05dc\u05d8\u05ea\u05d9": 5002,
  "\u2581300": 5003,
  "\u2581\u05d0\u05e8\u05e6\u05d5\u05ea": 5004,
  "\u2581\u05dc\u05d4\u05d7\u05dc\u05d9\u05d8": 5005,
  "\u2581Aah": 5006,
  "\u2581technology": 5007,
  "\u2581\u05d0\u05e0\u05d3\u05d9": 5008,
  "\u2581dressed": 5009,
  "\u2581screw": 5010,
  "\u2581\u05ea\u05d7": 5011,
  "\u2581\u05e9\u05e0\u05e7\u05e8\u05d0": 5012,
  "\u2581\u05de\u05e7\u05d5\u05de\u05d5\u05ea": 5013,
  "\u2581\u05ea\u05ea\u05d7\u05d9\u05dc": 5014,
  "\u2581split": 5015,
  "\u2581freak": 5016,
  "\u2581unit": 5017,
  "\u2581\u05e0\u05d5\u05ea\u05e0\u05d9\u05dd": 5018,
  "\u2581\u05d4\u05e7\u05e8": 5019,
  "\u2581\u05e2\u05d1\u05d5\u05d3\u05ea": 5020,
  "\u2581\u05d4\u05de\u05d7\u05e9\u05d1": 5021,
  "\u2581\u05e9\u05d7\u05e7\u05df": 5022,
  "\u2581\u05e0\u05d5\u05e1\u05e4\u05d5\u05ea": 5023,
  "\u2581Master": 5024,
  "\u2581brings": 5025,
  "\u2581\u05dc\u05e9\u05e0\u05d9": 5026,
  "\u2581x": 5027,
  "ger": 5028,
  "\u2581Stand": 5029,
  "\u2581\u05d3\u05d1\u05e8\u05d9": 5030,
  "\u2581\u05e8\u05d5\u05e1": 5031,
  "\u2581\u05d8\u05d3": 5032,
  "\u2581\u05d4\u05de\u05e7\u05e8\u05d4": 5033,
  "\u05d9\u05d1": 5034,
  "\u2581Know": 5035,
  "\u2581\u05dc\u05d5\u05d1\u05e9": 5036,
  "\u2581papers": 5037,
  "\u2581\u05e9\u05d1\u05d5\u05e2\u05d9\u05d9\u05dd": 5038,
  "\u2581national": 5039,
  "\u2581\u05d1\u05d3\u05d9\u05e7\u05ea": 5040,
  "\u2581\u05d4\u05e8\u05db\u05d1\u05ea": 5041,
  "\u2581headed": 5042,
  "\u2581Ho": 5043,
  "\u2581\u05dc\u05d5\u05e7\u05d7\u05ea": 5044,
  "\u2581\u05de\u05d8\u05e8\u05d4": 5045,
  "\u2581\u05e6\u05e2\u05d9\u05e8\u05d9\u05dd": 5046,
  "\u05de\u05e9\u05d4\u05d5": 5047,
  "\u2581football": 5048,
  "\u2581stars": 5049,
  "\u2581\u05d6\u05d5\u05d6\u05d5": 5050,
  "\u2581High": 5051,
  "\u2581\u05dc\u05e2\u05e7\u05d5\u05d1": 5052,
  "\u2581\u05e2\u05d3\u05df": 5053,
  "\u2581finger": 5054,
  "\u2581village": 5055,
  "\u2581hall": 5056,
  "\u2581\u05de\u05d7\u05db\u05d9\u05dd": 5057,
  "\u2581\u05d1\u05e2\u05e6\u05de\u05d5": 5058,
  "ED": 5059,
  "\u2581\u05e7\u05d9\u05d1\u05dc\u05e0\u05d5": 5060,
  "\u2581\u05d4\u05d4\u05d9\u05d0": 5061,
  "\u2581Park": 5062,
  "\u2581\u05de\u05d3\u05d4\u05d9\u05de\u05d4": 5063,
  "\u05e0\u05d9\u05d9\u05dd": 5064,
  "\u2581\u05d2\u05d1\u05d9\u05e8\u05ea\u05d9": 5065,
  "\u05d9\u05d9\u05e1": 5066,
  "\u2581secrets": 5067,
  "ze": 5068,
  "\u2581\u05e0\u05d4\u05e0\u05d4": 5069,
  "\u2581detective": 5070,
  "\u2581\u05d1\u05e9\u05e0\u05d9": 5071,
  "\u2581\u05dc\u05db\u05d1\u05d5\u05d3": 5072,
  "-4": 5073,
  "\u05db\u05e0\u05d5": 5074,
  "\u05e1\u05d8\u05d9\u05df": 5075,
  "\u2581\u05dc\u05e1\u05d3\u05e8": 5076,
  "\u2581\u05e9\u05d9\u05e9\u05d9": 5077,
  "\u2581Yet": 5078,
  "\u05d0\u05d5\u05e7\u05d9\u05d9": 5079,
  "nd": 5080,
  "\u2581\u05e8\u05d5\u05d2": 5081,
  "\u2581Ever": 5082,
  "\u2581harm": 5083,
  "\u2581\u05d4\u05e4\u05e9\u05e2": 5084,
  "\u05d7\u05db\u05d4": 5085,
  "\u2581plus": 5086,
  "\u2581\u05e2\u05e7\u05d1": 5087,
  "\u2581lord": 5088,
  "\u2581\u05e8\u05e2\u05d9\u05dd": 5089,
  "\u2581\u05d4\u05e0\u05e8\u05d0\u05d4": 5090,
  "\u2581\u05d0\u05e0": 5091,
  "\u2581\u05d1\u05d7\u05dc\u05e7": 5092,
  "\u05e4\u05df": 5093,
  "\u2581discovered": 5094,
  "\u2581\u05d1\u05de\u05e8\u05db\u05d6": 5095,
  "\u2581\u05d4\u05e9\u05e2\u05e8": 5096,
  "\u2581\u05d5\u05d4\u05ea": 5097,
  "\u2581\u05e1\u05d5\u05e1": 5098,
  "\u05e2\u05e8\u05d1": 5099,
  "\u2581\u05e9\u05d1\u05e8": 5100,
  "\u2581loud": 5101,
  "\u05d4\u05d9\u05d9\u05ea\u05d9": 5102,
  "\u2581Air": 5103,
  "\u2581\u05d4\u05d0\u05d4\u05d5\u05d1": 5104,
  "\u2581\u05dc\u05d2\u05e2\u05ea": 5105,
  "\u05d5\u05d8": 5106,
  "\u2581Kill": 5107,
  "\u2581\u05dc\u05d9\u05dc\u05d9": 5108,
  "\u2581forced": 5109,
  "\u2581guest": 5110,
  "\u2581\u05d5\u05d5": 5111,
  "\u2581Previously": 5112,
  "\u2581\u05dc\u05d4\u05d9\u05e8\u05d2\u05e2": 5113,
  "\u2581Thomas": 5114,
  "\u2581\u05d4\u05d4\u05d5\u05dc\u05d3\u05ea": 5115,
  "\u2581Ba": 5116,
  "\u2581details": 5117,
  "\u2581\u05d2\u05d5\u05e3": 5118,
  "\u2581\u05d1\u05e2\u05d9\u05e0\u05d9": 5119,
  "\u2581growing": 5120,
  "\u05d9\u05dc\u05d9": 5121,
  "\u2581\u05d9\u05d4\u05e8\u05d5\u05d2": 5122,
  "\u2581\u05e1\u05dc": 5123,
  "\u2581\u05ea\u05d3\u05d1\u05e8": 5124,
  "\u2581suicide": 5125,
  "\u2581\u05d4\u05e7\u05d5\u05d3\u05de\u05d9\u05dd": 5126,
  "\u05d9\u05e4": 5127,
  "\u2581Emma": 5128,
  "\u2581\u05d4\u05d0\u05d7\u05d3": 5129,
  "\u2581\u05d4\u05e9\u05dc\u05d9\u05e9\u05d9": 5130,
  "\u2581\u05d1\u05d0\u05e9": 5131,
  "\u2581\u05dc\u05d6\u05db\u05d5\u05ea": 5132,
  "\u2581raised": 5133,
  "\u2581\u05e7\u05e8\u05d5\u05d1\u05d5\u05ea": 5134,
  "\u2581\u05d1\u05e8\u05d7": 5135,
  "\u2581\u05d0\u05d7\u05e8\u05d9\u05d5\u05ea": 5136,
  "za": 5137,
  "\u2581\u05dc\u05e9\u05e7\u05e8": 5138,
  "\u2581Lisa": 5139,
  "\u2581\u05dc\u05e4\u05e2\u05d5\u05dc": 5140,
  "\u2581\u05dc\u05e4\u05ea\u05d5\u05e8": 5141,
  "\u2581loving": 5142,
  "\u2581deliver": 5143,
  "\u2581Matthew": 5144,
  "\u05e9\u05d5\u05dd": 5145,
  "\u2581\u05e7\u05e0\u05d9": 5146,
  "\u2581Anna": 5147,
  "\u2581\u05d0\u05de\u05d5\u05e0\u05d4": 5148,
  "\u2581\u05ea\u05e8\u05e6\u05d9": 5149,
  "\u2581\u05d4\u05e8\u05d2\u05e9\u05d4": 5150,
  "\u2581\u05de\u05de\u05de": 5151,
  "\u2581\u05e1\u05d9\u05e4\u05e8\u05d4": 5152,
  "\u2581Relax": 5153,
  "\u2581\u05de\u05e8\u05d9\u05d7": 5154,
  "\u2581movies": 5155,
  "\u2581\u05de\u05e7\u05e8\u05d9\u05dd": 5156,
  "\u05dc\u05df": 5157,
  "\u2581saving": 5158,
  "\u2581\u05d8\u05e1": 5159,
  "\u2581\u05d4\u05e9\u05d9\u05e0\u05d4": 5160,
  "\u2581Many": 5161,
  "\u2581\u05dc\u05d7\u05dc\u05e7": 5162,
  "\u2581divorce": 5163,
  "\u2581\u05d0\u05d4\u05d1": 5164,
  "\u2581\u05e1\u05e0\u05d8": 5165,
  "\u2581scare": 5166,
  "\u2581\u05e8\u05d9\u05d9\u05e6": 5167,
  "\u2581\u05e9\u05de\u05df": 5168,
  "\u05d2\u05d5\u05e8": 5169,
  "\u2581\u05de\u05d7\u05d1\u05d1": 5170,
  "\u2581screwed": 5171,
  "\u2581\u05d2\u05e8\u05d4": 5172,
  "\u2581patients": 5173,
  "\u2581\u05d3\u05d2": 5174,
  "\u2581tie": 5175,
  "\u2581\u05d9\u05d5\u05e8\u05d3": 5176,
  "\u05d0\u05e0\u05e1": 5177,
  "\u2581\u05d4\u05de\u05e2\u05e8\u05db\u05ea": 5178,
  "\u2581Ed": 5179,
  "\u2581\u05d1\u05e7": 5180,
  "\u2581Fucking": 5181,
  "che": 5182,
  "\u2581\u05de\u05d9\u05d5\u05d7\u05d3\u05ea": 5183,
  "\u2581\u05ea\u05e9\u05d5\u05d1\u05d4": 5184,
  "\u2581funeral": 5185,
  "\u2581hurts": 5186,
  "\u05d7\u05e8": 5187,
  "\u2581distance": 5188,
  "\u2581\u05d0\u05e4\u05e1": 5189,
  "\u2581\u05dc\u05d4\u05d1\u05d8\u05d9\u05d7": 5190,
  "po": 5191,
  "\u05d9\u05de\u05d4": 5192,
  "\u2581tiny": 5193,
  "9": 5194,
  "\u2581\u05ea\u05d2\u05d9\u05e2": 5195,
  "\u2581professional": 5196,
  "\u2581ticket": 5197,
  "\u2581device": 5198,
  "\u2581\u05e0\u05e9\u05d9\u05d0": 5199,
  "\u05e0\u05da": 5200,
  "\u2581attorney": 5201,
  "\u2581\u05e9\u05de\u05e9\u05d4\u05d5": 5202,
  "\u2581meaning": 5203,
  "\u2581Also": 5204,
  "\u2581Clear": 5205,
  "\u2581\u05d0\u05de\u05d9\u05dc\u05d9": 5206,
  "\u2581\u05e0\u05e2": 5207,
  "):": 5208,
  "\u2581\u05d5\u05d9\u05dc": 5209,
  "\u2581\u05dc\u05e9\u05e8\u05ea": 5210,
  "\u2581spread": 5211,
  "\u2581\u05e7\u05de": 5212,
  "ph": 5213,
  "\u05d7\u05d9": 5214,
  "\u2581\u05d3\u05d5\u05e7": 5215,
  "\u2581\u05ea\u05d6\u05d5\u05d6": 5216,
  "lan": 5217,
  "\u2581\u05d4\u05d1\u05d2\u05d3\u05d9\u05dd": 5218,
  "\u2581\u05d5\u05e9\u05dc": 5219,
  "\u2581character": 5220,
  "\u2581warning": 5221,
  "\u2581image": 5222,
  "\u2581perfectly": 5223,
  "\u05d1\u05d9\u05dd": 5224,
  "\u2581Tomorrow": 5225,
  "\u2581\u05d5\u05d4\u05d9\u05d4": 5226,
  "\u2581\u05e2\u05e9\u05d9\u05e8": 5227,
  "\u2581Carter": 5228,
  "\u2581\u05de\u05e9\u05dc\u05dd": 5229,
  "\u2581\u05e0\u05ea\u05e0\u05d4": 5230,
  "\u2581\u05e2\u05dc\u05d9\u05db\u05dd": 5231,
  "\u2581\u05e7\u05e0\u05d9\u05ea\u05d9": 5232,
  "\u2581\u05d5\u05d7": 5233,
  "\u05d7\u05d1\u05e8": 5234,
  "\u258170": 5235,
  "\u2581\u05de\u05e1\u05d9\u05d1\u05ea": 5236,
  "\u2581\u05e4\u05e0\u05d5\u05d9": 5237,
  "\u2581\u05d7\u05d6\u05d9\u05e8": 5238,
  "\u2581\u05de\u05d6\u05d4\u05d4": 5239,
  "\u05e9\u05d5": 5240,
  "\u2581\u05d4\u05d7\u05d5\u05e3": 5241,
  "\u2581\u05e7\u05d1\u05d5\u05e6\u05ea": 5242,
  "\u2581ear": 5243,
  "\u2581\u05dc\u05e2\u05ea\u05d9\u05dd": 5244,
  "\u2581tongue": 5245,
  "\u2581\u05d5\u05dc\u05d9": 5246,
  "\u2581provide": 5247,
  "\u2581William": 5248,
  "\u2581expecting": 5249,
  "\u2581r": 5250,
  "\u2581shape": 5251,
  "\u2581\u05d4\u05e6\u05d1\u05d0": 5252,
  "\u05e9\u05e0\u05d9": 5253,
  "\u2581effect": 5254,
  "\u2581soldiers": 5255,
  "\u2581role": 5256,
  "\u2581\u05d4\u05de\u05e1\u05d9\u05d1\u05d4": 5257,
  "\u2581\u05e9\u05d5\u05dc\u05d7": 5258,
  "ten": 5259,
  "\u2581\u05e9\u05db\u05d7": 5260,
  "\u2581\u05e8\u05e6\u05d5\u05df": 5261,
  "\u2581statement": 5262,
  "\u2581\u05d1\u05d0\u05d9\u05d6\u05d5": 5263,
  "\u2581WHAT": 5264,
  "\u2581strike": 5265,
  "\u2581\u05d2\u05e0\u05e8\u05dc": 5266,
  "ron": 5267,
  "\u2581\u05dc\u05d4\u05d9\u05e4\u05d8\u05e8": 5268,
  "\u2581\u05d0\u05d9\u05d5\u05dd": 5269,
  "ov": 5270,
  "\u2581\u05d4\u05d1\u05e0\u05d9\u05d9\u05df": 5271,
  "\u05d9\u05dc\u05d4": 5272,
  "\u2581map": 5273,
  "\u2581\u05ea\u05e7\u05d5\u05e4\u05d4": 5274,
  "\u05b8": 5275,
  "\u2581n": 5276,
  "\u05e4\u05e0\u05d9\u05dd": 5277,
  "\u2581gate": 5278,
  "ey": 5279,
  "\u2581\u05e9\u05d9\u05d7\u05d5\u05ea": 5280,
  "\u2581towards": 5281,
  "\u2581stayed": 5282,
  "\u2581\u05d3\u05d9\u05d1\u05e8\u05ea": 5283,
  "\u2581\u05de\u05d0\u05d5\u05e9\u05e8\u05ea": 5284,
  "\u2581\u05d7\u05d5\u05e9": 5285,
  "\u2581jealous": 5286,
  "\u2581\u05d9\u05db\u05dc": 5287,
  "\u2581\u05e0\u05d5\u05e8\u05d4": 5288,
  "\u2581\u05ea\u05d5\u05db\u05e0\u05d9\u05d5\u05ea": 5289,
  "\u2581\u05d5\u05dc\u05de\u05d4": 5290,
  "\u2581\u05dc\u05d4\u05e1\u05ea\u05d9\u05e8": 5291,
  "ize": 5292,
  "\u2581charges": 5293,
  "\u2581\u05e7\u05d5\u05dc\u05d5\u05e0\u05dc": 5294,
  "\u05de\u05e2": 5295,
  "\u2581Santa": 5296,
  "\u2581bite": 5297,
  "\u2581filled": 5298,
  "\u2581sat": 5299,
  "\u2581\u05d4\u05d3\u05d9\u05e8\u05d4": 5300,
  "\u2581\u05ea\u05e9\u05e2": 5301,
  "ina": 5302,
  "\u2581ordered": 5303,
  "\u2581doors": 5304,
  "\u2581\u05d0\u05e9\u05de\u05ea\u05d9": 5305,
  "\u2581\u05ea\u05d9\u05db\u05e0\u05e1": 5306,
  "\u2581warrant": 5307,
  "\u2581\u05d0\u05df": 5308,
  "\u2581\u05d4\u05e7\u05d4\u05d9\u05dc\u05d4": 5309,
  "\u2581Ne": 5310,
  "mi": 5311,
  "\u2581Li": 5312,
  "\u2581Anyone": 5313,
  "\u2581\u05d1\u05de\u05e2\u05e8\u05db\u05ea": 5314,
  "\u2581\u05de\u05d5\u05d8\u05d1": 5315,
  "\u05e7\u05df": 5316,
  "\u2581\u05e9\u05ea\u05ea": 5317,
  "\u05ea\u05de\u05d5\u05e0\u05d4": 5318,
  "\u2581\u05d4\u05d3": 5319,
  "\u2581\u05d1\u05e2\u05d9\u05e0\u05d9\u05d9": 5320,
  "\u2581\u05d0\u05d3\u05de\u05d4": 5321,
  "\u2581\u05ea\u05d4\u05e8\u05d5\u05d2": 5322,
  "\u2581buried": 5323,
  "\u2581\u05d4\u05d0\u05e0\u05e7": 5324,
  "\u2581tour": 5325,
  "\u2581\u05e2\u05ea\u05d9\u05d3": 5326,
  "\u2581Saturday": 5327,
  "\u2581female": 5328,
  "\u2581particular": 5329,
  "\u2581\u05e0\u05d9\u05d9\u05e8": 5330,
  "\u2581naked": 5331,
  "\u2581incredible": 5332,
  "\u2581Jo": 5333,
  "\u2581\u05dc\u05e1\u05d1\u05d5\u05dc": 5334,
  "\u2581\u05d1\u05d3\u05d1\u05e8": 5335,
  "\u2581\u05e8\u05e9\u05de\u05d9": 5336,
  "\u2581\u05e4\u05e2\u05d9\u05dc\u05d5\u05ea": 5337,
  "\u2581\u05e9\u05d5\u05de\u05e2\u05ea": 5338,
  "\u2581\u05ea\u05d5\u05e8\u05d2\u05dd": 5339,
  "\u05e4\u05e1": 5340,
  "\u2581served": 5341,
  "\u2581Pull": 5342,
  "\u2581enter": 5343,
  "\u2581\u05de\u05e7\u05e8\u05d9": 5344,
  "\u2581reality": 5345,
  "can": 5346,
  "\u2581Had": 5347,
  "\u2581player": 5348,
  "\u2581defense": 5349,
  "\u2581powers": 5350,
  "\u2581released": 5351,
  "\u2581\u05e9\u05d4\u05db\u05dc": 5352,
  "don": 5353,
  "\u2581sin": 5354,
  "\u05d1\u05d5\u05df": 5355,
  "\u2581attacked": 5356,
  "\u05e8\u05d2": 5357,
  "\u2581bill": 5358,
  "\u2581\u05d1\u05d8\u05d9": 5359,
  "\u2581\u05e2\u05e6\u05de\u05e0\u05d5": 5360,
  "\u2581\u05e6\u05d5\u05d7\u05e7\u05ea": 5361,
  "\u2581\u05ea\u05d5\u05e8": 5362,
  "\u2581\u05e0\u05d2\u05d9\u05d3": 5363,
  "\u05d9\u05dc\u05d3": 5364,
  "\u2581\u05dc\u05d1\u05d8\u05d5\u05d7": 5365,
  "\u2581\u05d9\u05e8\u05d3": 5366,
  "\u2581\u05de\u05e9\u05d8\u05e8\u05d4": 5367,
  "\u2581\u05e7\u05d7\u05d5": 5368,
  "\u2581\u05e9\u05d9\u05db\u05d5\u05e8": 5369,
  "\u2581\u05d4\u05e9\u05d5\u05d8\u05e8\u05d9\u05dd": 5370,
  "\u2581bedroom": 5371,
  "\u2581\u05d4\u05ea\u05de\u05d5\u05e0\u05d5\u05ea": 5372,
  "\u05d3\u05de\u05d9": 5373,
  "\u2581toward": 5374,
  "tro": 5375,
  "\u2581\u05d9\u05e8\u05d4": 5376,
  "ise": 5377,
  "\u2581equal": 5378,
  "\u2581\u05de\u05e2\u05e9\u05d4": 5379,
  "\u2581\u05d4\u05de\u05e4\u05ea\u05d7\u05d5\u05ea": 5380,
  "\u2581\u05de\u05e8\u05d5\u05e6\u05d4": 5381,
  "\u05d3\u05d1\u05e8": 5382,
  "\u2581\u05d1\u05d8\u05dc\u05d5\u05d5\u05d9\u05d6\u05d9\u05d4": 5383,
  "\u2581\u05e7\u05e8\u05d7": 5384,
  "\u2581\u05d4\u05e2\u05dd": 5385,
  "\u2581staff": 5386,
  "\u2581\u05dc\u05e9\u05d0\u05ea": 5387,
  "\u2581\u05de\u05d5\u05ea\u05d5": 5388,
  "\u2581thou": 5389,
  "\u2581\u05d4\u05d9\u05d7\u05e1\u05d9\u05dd": 5390,
  "\u2581mark": 5391,
  "\u2581harder": 5392,
  "\u25812:": 5393,
  "\u2581Goodbye": 5394,
  "\u2581\u05d4\u05de\u05ea\u05d9\u05dd": 5395,
  "\u2581rate": 5396,
  "\u2581alright": 5397,
  "\u2581coat": 5398,
  "\u2581\u05e9\u05e0\u05e8\u05d0\u05d4": 5399,
  "\u05dc\u05d7": 5400,
  "\u2581\u05e7\u05d5\u05dd": 5401,
  "\u05d9\u05e8\u05d5": 5402,
  "\u2581devil": 5403,
  "\u2581\u05d0\u05d7\u05d9\u05dd": 5404,
  "ac": 5405,
  "\u2581flowers": 5406,
  "\u2581\u05e0\u05d5\u05e1\u05e2\u05d9\u05dd": 5407,
  "\u2581\u05e7\u05e8\u05d9": 5408,
  "\u05db\u05e1": 5409,
  "\u2581\u05d1\u05e2\u05ea": 5410,
  "\u2581expected": 5411,
  "\u2581\u05d0\u05e6\u05dc\u05da": 5412,
  "\u2581\u05e0\u05db\u05d5\u05e0\u05d4": 5413,
  "\u2581sword": 5414,
  "ble": 5415,
  "\u2581concern": 5416,
  "\u2581\u05d5\u05d4\u05d9\u05d9\u05ea\u05d9": 5417,
  "\u2581current": 5418,
  "\u2581k": 5419,
  "\u2581former": 5420,
  "\u2581angel": 5421,
  "\u2581wise": 5422,
  "\u2581\u05d4\u05e7\u05d9\u05e8": 5423,
  "\u2581\u05d9\u05ea\u05db\u05df": 5424,
  "\u2581\u05e8\u05d9\u05d0\u05df": 5425,
  "\u2581\u05e9\u05d9\u05d9": 5426,
  "\u2581\u05de\u05d9\u05d9\u05d3": 5427,
  "\u2581\u05d4\u05ea\u05e0\u05d4\u05d2\u05d5\u05ea": 5428,
  "\u2581Drop": 5429,
  "\u2581\u05d4\u05db\u05d0\u05d1": 5430,
  "\u2581clock": 5431,
  "\u2581\u05e9\u05d4\u05d9\u05d9\u05e0\u05d5": 5432,
  "\u2581\u05e9\u05e0\u05e2\u05e9\u05d4": 5433,
  "\u2581\u05dc\u05e9\u05db\u05d1": 5434,
  "\u2581\u05d3\u05d5\u05e8": 5435,
  "\u2581Sunday": 5436,
  "\u2581\u05d0\u05d9\u05db\u05e9\u05d4\u05d5": 5437,
  "\u2581\u05d3\u05d9\u05d5\u05d5\u05d9\u05d3": 5438,
  "\u2581babe": 5439,
  "\u2581\u05d6\u05db\u05e8": 5440,
  "ti": 5441,
  "\u2581\u05dc\u05d6\u05d4\u05d5\u05ea": 5442,
  "ial": 5443,
  "\u2581\u05dc\u05de\u05e9\u05d7\u05e7": 5444,
  "\u05de\u05d5\u05e0\u05d9\u05dd": 5445,
  "\u2581\u05dc\u05de\u05db\u05d5\u05e0\u05d9\u05ea": 5446,
  "\u2581\u05e9\u05d0\u05d1\u05d0": 5447,
  "\u2581terms": 5448,
  "\u2581Men": 5449,
  "\u2581\u05e7\u05dc\u05d4": 5450,
  "\u05d5\u05bc": 5451,
  "\u2581\u05de\u05d2\u05e2\u05d9\u05dc": 5452,
  "\u2581Simon": 5453,
  "\u2581\u05d4\u05d5\u05db\u05d7\u05d4": 5454,
  "\u201c": 5455,
  "\u2581pen": 5456,
  "\u2581rough": 5457,
  "\u2581\u05d0\u05d7\u05d5\u05ea\u05da": 5458,
  "\u2581\u05dc\u05e0\u05e9\u05d5\u05dd": 5459,
  "\u2581\u05e4\u05e8": 5460,
  "\u2581\u05d4\u05d3\u05d5": 5461,
  "\u2581\u05e8\u05e9\u05d9\u05de\u05ea": 5462,
  "\u2581\u05d4\u05ea\u05db\u05e0\u05d9\u05ea": 5463,
  "\u2581\u05e7\u05e8\u05d8\u05e8": 5464,
  "\u2581\u05e7\u05e8\u05d0\u05ea": 5465,
  "\u05e4\u05e0\u05d9": 5466,
  "\u2581letters": 5467,
  "\u2581success": 5468,
  "\u2581Mc": 5469,
  "\u2581chose": 5470,
  "\u2581PHP": 5471,
  "\u2581\u05d4\u05d0\u05de\u05d9\u05ea\u05d9\u05ea": 5472,
  "\u2581thy": 5473,
  "\u2581ghost": 5474,
  "\u2581\u05ea\u05de\u05d5\u05ea": 5475,
  "\u2581\u05e2\u05d1\u05d3\u05ea\u05d9": 5476,
  "\u2581doctors": 5477,
  "\u05d5\u05d3": 5478,
  "\u2581Sergeant": 5479,
  "\u2581material": 5480,
  "\u2581\u05dc\u05d0\u05dc\u05d5\u05d4\u05d9\u05dd": 5481,
  "\u2581\u05d1\u05d4\u05e8\u05d9\u05d5\u05df": 5482,
  "\u2581\u05d4\u05d6\u05d5\u05d2": 5483,
  "\u2581\u05dc\u05e9\u05d1\u05d5\u05e8": 5484,
  "\u2581\u05de\u05d6": 5485,
  "\u2581\u05ea\u05e7\u05e9\u05d9\u05d1\u05d5": 5486,
  "\u05b4\u05d9": 5487,
  "\u2581\u05dc\u05e7": 5488,
  "\u2581lesson": 5489,
  "\u2581w": 5490,
  "\u2581\u05de\u05d5\u05e8\u05d4": 5491,
  "den": 5492,
  "\u2581farm": 5493,
  "\u2581\u05de\u05d6\u05d5\u05d9\u05df": 5494,
  "\u2581\u05d4\u05e4\u05e1\u05e7\u05d4": 5495,
  "\u2581buying": 5496,
  "\u2581\u05db\u05e9\u05d6\u05d4": 5497,
  "\u2581soldier": 5498,
  "mon": 5499,
  "\u2581Picture": 5500,
  "\u2581bone": 5501,
  "\u2581\u05e9\u05e2\u05dc": 5502,
  "\u2581ate": 5503,
  "\u05d5\u05de\u05d5\u05ea": 5504,
  "\u2581pocket": 5505,
  "\u05d0\u05d5\u05e1": 5506,
  "\u05e4\u05e0\u05d5": 5507,
  "\u2581falling": 5508,
  "\u05d8\u05e8\u05d9": 5509,
  "\u05e6\u05dc": 5510,
  "\u2581\u05d4\u05e9\u05d5\u05e4\u05d8": 5511,
  "\u2581Rose": 5512,
  "\u2581\u05d4\u05e6\u05e2\u05d9\u05e8": 5513,
  "\u2581Sean": 5514,
  "\u2581protection": 5515,
  "\u2581enemies": 5516,
  "\u2581\u05d4\u05d0\u05e8": 5517,
  "\u2581\u05d0\u05d9\u05e4\u05e9\u05d4\u05d5": 5518,
  "\u2581\u05db\u05d1\u05d5\u05d3\u05d5": 5519,
  "\u2581\u05e0\u05d5\u05ea\u05e0\u05ea": 5520,
  "ally": 5521,
  "\u2581\u05d1\u05e1\u05e8\u05d8": 5522,
  "\u2581\u05dc\u05e8\u05d0\u05e9\u05d5\u05e0\u05d4": 5523,
  "ier": 5524,
  "\u2581eh": 5525,
  "\u05d9\u05d9\u05da": 5526,
  "\u2581\u05d4\u05e2\u05e1\u05e7\u05d4": 5527,
  "\u2581\u05dc\u05e7\u05e4\u05d5\u05e5": 5528,
  "\u2581\u05d7\u05d6\u05e8\u05ea": 5529,
  "\u2581\u05e0\u05d3": 5530,
  "\u2581eventually": 5531,
  "\u2581\u05e9\u05d5\u05dc\u05d7\u05df": 5532,
  "\u2581giant": 5533,
  "\u2581motherfucker": 5534,
  "\u2581\u05dc\u05d4\u05ea\u05e8\u05d7\u05e7": 5535,
  "\u05ea\u05e0\u05d5": 5536,
  "\u2581\u05e9\u05d9\u05db\u05d5\u05dc\u05ea\u05d9": 5537,
  "\u2581\u05d4\u05e8\u05d0\u05e9\u05d5\u05e0\u05d9\u05dd": 5538,
  "\u2581suffering": 5539,
  "our": 5540,
  "\u2581BE": 5541,
  "\u2581\u05dc\u05d4\u05ea\u05e0\u05e6\u05dc": 5542,
  "\u2581FOR": 5543,
  "\u2581gang": 5544,
  "head": 5545,
  "\u2581\u05d4\u05e9\u05ea\u05e0\u05d4": 5546,
  "\u2581insurance": 5547,
  "\u2581crack": 5548,
  "\u2581\u05d4\u05d0\u05d1\u05d8\u05d7\u05d4": 5549,
  "\u2581Carl": 5550,
  "\u2581\u05dc\u05de\u05e6\u05d1": 5551,
  "\u2581crash": 5552,
  "\u05e9\u05de\u05d9\u05dd": 5553,
  "\u2581article": 5554,
  "\u2581exact": 5555,
  "\u2581teaching": 5556,
  "\u2581\u05d4\u05d4\u05ea": 5557,
  "\u2581burned": 5558,
  "15": 5559,
  "\u2581behavior": 5560,
  "\u2581\u05d1\u05db\u05de\u05d4": 5561,
  "\u2581\u05de\u05e4\u05e8\u05d9\u05e2": 5562,
  "\u05de\u05e7": 5563,
  "\u2581Joey": 5564,
  "\u2581jobs": 5565,
  "\u2581Satan": 5566,
  "\u2581ugly": 5567,
  "\u2581considered": 5568,
  "\u05d0\u05e0\u05e9\u05d9\u05dd": 5569,
  "\u2581\u05d0\u05e1\u05d9\u05e8": 5570,
  "\u2581\u05e2\u05d6\u05d1\u05d4": 5571,
  "\u05d3\u05d5\u05d3": 5572,
  "\u2581\u05dc\u05de\u05e7\u05e8\u05d4": 5573,
  "\u2581\u05de\u05d8\u05e4\u05dc": 5574,
  "\u2581\u05de\u05e9\u05d5": 5575,
  "Z": 5576,
  "\u258133": 5577,
  "\u2581advantage": 5578,
  "\u2581worship": 5579,
  "\u2581\u05d7\u05d9\u05dc": 5580,
  "ya": 5581,
  "\u2581\u05d1\u05e8\u05d9\u05d0": 5582,
  "ko": 5583,
  "\u2581hook": 5584,
  "\u2581dancing": 5585,
  "\u2581\u05e9\u05e0\u05d9\u05d4": 5586,
  "\u2581stone": 5587,
  "\u2581\u05ea\u05d5\u05e2\u05dc\u05ea": 5588,
  "\u05de\u05e6": 5589,
  "\u2581beg": 5590,
  "\u2581\u05dc\u05e9\u05e8\u05d5\u05d3": 5591,
  "\u2581genius": 5592,
  "\u05dc\u05e8": 5593,
  "\u2581Washington": 5594,
  "\u2581\u05d4\u05d1\u05dc\u05e9": 5595,
  "\u2581\u05e9\u05db\u05d5\u05dc\u05e0\u05d5": 5596,
  "\u2581nation": 5597,
  "\u2581\u05d0\u05e0\u05e1\u05d4": 5598,
  "\u2581receive": 5599,
  "\u05d1\u05d0": 5600,
  "\u2581\\": 5601,
  "\u2581Doc": 5602,
  "\u2581Cut": 5603,
  "\u2581suffer": 5604,
  "\u2581\u05e9\u05d5\u05ea\u05e3": 5605,
  "\u2581\u05dc\u05d9\u05e1\u05d4": 5606,
  "\u2581Jackson": 5607,
  "\u2581Kelly": 5608,
  "\u2581ought": 5609,
  "\u2581\u05d7\u05de\u05d5\u05e8": 5610,
  "\u2581Arthur": 5611,
  "\u2581bleeding": 5612,
  "\u2581streets": 5613,
  "\u2581yourselves": 5614,
  "\u2581beauty": 5615,
  "\u2581\u05d0\u05de\u05df": 5616,
  "\u05de\u05e0\u05d4": 5617,
  "let": 5618,
  "\u2581Shall": 5619,
  "\u2581progress": 5620,
  "\u2581babies": 5621,
  "\u2581cheese": 5622,
  "\u05e0\u05d8\u05d9": 5623,
  "\u2581Africa": 5624,
  "\u2581\u05e8\u05d0\u05d9\u05e0\u05d5": 5625,
  "\u2581\u05e0\u05e2\u05e8": 5626,
  "ub": 5627,
  "\u2581Old": 5628,
  "\u2581hardly": 5629,
  "\u2581ability": 5630,
  "\u2581regret": 5631,
  "\u2581political": 5632,
  "\u2581\u05dc\u05d4\u05d6\u05db\u05d9\u05e8": 5633,
  "\u2581\u05e8\u05d0\u05e9\u05d9\u05ea": 5634,
  "\u2581\u05e8\u05d7\u05d5\u05d1": 5635,
  "\u2581settle": 5636,
  "\u2581laughing": 5637,
  "\u2581\u05e7\u05d5\u05e8\u05d0\u05ea": 5638,
  "\u2581treatment": 5639,
  "\u2581\u05e9\u05d9\u05e0\u05d9\u05d9\u05dd": 5640,
  "\u2581\u05d4\u05d4\u05d5\u05d3\u05e2\u05d4": 5641,
  "\u2581\u05de\u05e1\u05d1\u05d9\u05e8": 5642,
  "\u2581Use": 5643,
  "\u05de\u05e6\u05d0": 5644,
  "\u2581brave": 5645,
  "day": 5646,
  "\u2581England": 5647,
  "\u2581ho": 5648,
  "\u2581\u05e7\u05d8\u05e0\u05d5\u05ea": 5649,
  "\u2581Plus": 5650,
  "\u2581\u05de\u05e2\u05dc\u05d4": 5651,
  "\u2581\u05ea\u05e4\u05d5\u05e1": 5652,
  "\u2581ears": 5653,
  "\u2581liar": 5654,
  "\u2581\u05d1\u05d7\u05d5\u05d3\u05e9": 5655,
  "\u2581\u05de\u05d7\u05e7\u05e8": 5656,
  "\u2581\u05e2\u05e6\u05d1\u05e0\u05d9": 5657,
  "\u05e7\u05d9\u05d9": 5658,
  "\u05d0\u05de\u05e8\u05ea\u05d9": 5659,
  "\u2581Jews": 5660,
  "\u05d1\u05e7": 5661,
  "\u05d5\u05d0\u05e0\u05d9": 5662,
  "\u2581doin": 5663,
  "\u2581\u05d7\u05d9\u05d9\u05dc": 5664,
  "\u2581silly": 5665,
  "\u2581\u05de\u05d6\u05d5": 5666,
  "\u2581\u05e9\u05d9\u05d7\u05ea": 5667,
  "\u2581online": 5668,
  "\u2581Again": 5669,
  "\u2581invite": 5670,
  "\u05d9\u05de\u05d5\u05ea": 5671,
  "\u2581obvious": 5672,
  "\u2581\u05d1\u05d7\u05d9\u05e8\u05d4": 5673,
  "\u2581\u05d0\u05e8\u05e6\u05d4": 5674,
  "\u2581\u05ea\u05d9\u05d6\u05d4\u05e8": 5675,
  "\u2581\u05d4\u05d3\u05d9": 5676,
  "\u2581\u05de\u05d5\u05e4\u05d9\u05e2": 5677,
  "\u2581\u05ea\u05e4\u05e1": 5678,
  "\u05d0\u05d2": 5679,
  "\u2581understanding": 5680,
  "\u2581sacrifice": 5681,
  "\u2581goin": 5682,
  "\u2581\u05d4\u05db\u05d1\u05d9\u05e9": 5683,
  "\u2581April": 5684,
  "\u2581schedule": 5685,
  "\u2581\u05dc\u05d9\u05d4\u05d5\u05d4": 5686,
  "\u2581Dave": 5687,
  "\u2581\u05ea\u05d7\u05d6\u05d9\u05e8": 5688,
  "\u2581bread": 5689,
  "\u2581\u05dc\u05d0\u05e8\u05d9": 5690,
  "\u2581Alice": 5691,
  "\u2581\u05e9\u05ea\u05d3\u05e2": 5692,
  "\u2581\u05e1\u05d5\u05de\u05da": 5693,
  "\u2581\u05d4\u05d0\u05d7\u05d5\u05e8\u05d9": 5694,
  "\u2581\u05dc\u05de\u05e1\u05d9\u05d1\u05d4": 5695,
  "\u2581\u05de\u05e9\u05d4": 5696,
  "\u2581ruin": 5697,
  "\u2581\u05d5\u05d4\u05db\u05dc": 5698,
  "\u2581basically": 5699,
  "\u2581fully": 5700,
  "\u2581\u05d4\u05e9\u05d5\u05d8\u05e8": 5701,
  "\u2581\u05dc\u05d9\u05d3\u05d9": 5702,
  "\u2581Larry": 5703,
  "\u2581disappeared": 5704,
  "cha": 5705,
  "\u2581pissed": 5706,
  "\u2581\u05d4\u05e4\u05d9": 5707,
  "\u05d5\u05d0\u05df": 5708,
  "\u2581anti": 5709,
  "\u2581assistant": 5710,
  "\u25813:": 5711,
  "\u2581surface": 5712,
  "\u2581\u05d0\u05d1\u05d5\u05d0": 5713,
  "\u2581\u05db\u05d5\u05ea\u05d1": 5714,
  "\u2581fingers": 5715,
  "\u2581Yahweh": 5716,
  "\u2581\u05d3\u05d9\u05d9\u05d1": 5717,
  "\u2581\u05d4\u05e0\u05d5\u05e9\u05d0": 5718,
  "\u2581\u05e7\u05e9\u05d9\u05dd": 5719,
  "\u2581\u05d4\u05e0\u05d9\u05ea\u05d5\u05d7": 5720,
  "\u2581medicine": 5721,
  "\u2581\u05ea\u05d5\u05e6\u05d9\u05d0": 5722,
  "ang": 5723,
  "\u2581CIA": 5724,
  "\u2581\u05d4\u05d2\u05d1\u05e8\u05ea": 5725,
  "\u2581\u05d1\u05d7\u05d9\u05e0\u05dd": 5726,
  "\u2581\u05de\u05d8\u05e8\u05d9\u05d3": 5727,
  "\u2581stomach": 5728,
  "\u2581\u05dc\u05d4\u05e4\u05e2\u05d9\u05dc": 5729,
  "\u2581Stan": 5730,
  "\u2581\u05e1\u05e2": 5731,
  "\u05de\u05e0\u05d5\u05ea": 5732,
  "\u2581contract": 5733,
  "\u2581specific": 5734,
  "\u2581\u05d4\u05e9\u05d0\u05d9\u05e8": 5735,
  "Do": 5736,
  "\u2581vision": 5737,
  "\u05d9\u05d5\u05ea\u05e8": 5738,
  "\u05d2\u05d1\u05e8\u05ea": 5739,
  "\u05d5\u05e0\u05d9\u05ea": 5740,
  "-5": 5741,
  "\u2581Calm": 5742,
  "\u05d5\u05d0\u05dc": 5743,
  "\u2581\u05d1\u05e2\u05dc\u05d4": 5744,
  "\u2581Close": 5745,
  "\u2581laid": 5746,
  "\u05e0\u05d5\u05df": 5747,
  "\u2581jury": 5748,
  "\u2581mama": 5749,
  "\u2581\u05e7\u05d8": 5750,
  "\u05e2\u05d5\u05ea": 5751,
  "\u2581apparently": 5752,
  "\u2581Lo": 5753,
  "\u2581\u05ea\u05e9": 5754,
  "\u2581\u05de\u05d2\u05df": 5755,
  "\u2581pair": 5756,
  "\u2581\u05e6\u05d9\u05e4\u05d5\u05e8": 5757,
  "\u05e0\u05e9": 5758,
  "\u2581paint": 5759,
  "\u2581\u05d9\u05de\u05d5\u05ea": 5760,
  "\u2581sugar": 5761,
  "\u2581wound": 5762,
  "\u2581\u05d7\u05d5\u05d6\u05e8\u05d9\u05dd": 5763,
  "\u2581\u05d4\u05d6\u05e7\u05df": 5764,
  "\u05de\u05d9\u05ea": 5765,
  "\u2581personally": 5766,
  "\u2581\u05dc\u05de\u05e9\u05d5\u05da": 5767,
  "\u2581walls": 5768,
  "\u05d0\u05d9\u05dd": 5769,
  "\u2581appointment": 5770,
  "\u2581\u05e8\u05d5": 5771,
  "\u2581\u05d1\u05e7\u05d5": 5772,
  "\u2581cab": 5773,
  "\u2581runs": 5774,
  "\u05d5\u05de\u05d9": 5775,
  "\u2581\u05d0\u05de\u05e8\u05d9\u05e7\u05d0\u05d9": 5776,
  "\u05de\u05d1\u05d5": 5777,
  "\u2581Ugh": 5778,
  "\u2581director": 5779,
  "\u2581\u05d1\u05d5\u05d3\u05d3": 5780,
  "\u05d1\u05d5\u05e1": 5781,
  "\u2581\u05e9\u05ea\u05de\u05d9\u05d3": 5782,
  "\u2581\u05de\u05ea\u05db\u05e0\u05df": 5783,
  "\u2581cure": 5784,
  "\u2581\u05e0\u05d5\u05e8\u05de\u05dc\u05d9": 5785,
  "\u2581rat": 5786,
  "\u2581\u05d1\u05e1\u05da": 5787,
  "\u2581\u05e7\u05e8\u05df": 5788,
  "\u2581plant": 5789,
  "pi": 5790,
  "\u2581campaign": 5791,
  "\u2581\u05e7\u05e0\u05d4": 5792,
  "\u2581spell": 5793,
  "\u05d9\u05d5\u05df": 5794,
  "\u2581\u05d1\u05d9\u05e6\u05d9\u05dd": 5795,
  "\u2581\u05db\u05d5\u05e2\u05e1\u05ea": 5796,
  "\u2581\u05de\u05ea\u05e0\u05d4\u05d2": 5797,
  "\u2581\u05e9\u05ea\u05e2\u05e9\u05d4": 5798,
  "\u2581\u05d4\u05e9\u05d5\u05ea\u05e3": 5799,
  "\u2581\u05dc\u05e0\u05d7\u05e9": 5800,
  "\u2581Hall": 5801,
  "\u2581\u05d0\u05e0\u05e8\u05d2\u05d9\u05d4": 5802,
  "This": 5803,
  "\u2581\u05d0\u05de\u05d9\u05ea\u05d9\u05d9\u05dd": 5804,
  "\u2581anger": 5805,
  "\u2581\u05d7\u05d5\u05dc": 5806,
  "\u2581sisters": 5807,
  "\u2581LORD": 5808,
  "\u2581\u05d1\u05d0\u05d7\u05d3": 5809,
  "\u2581folder": 5810,
  "\u2581picking": 5811,
  "\u2581\u05ea\u05e7\u05d5\u05e2": 5812,
  "\u2581\u05ea\u05d4\u05d9\u05d5": 5813,
  "\u2581\u05e2\u05d1\u05e8\u05d4": 5814,
  "\u2581\u05e7\u05e1\u05dd": 5815,
  "\u2581violence": 5816,
  "\u2581\u05d2\u05df": 5817,
  "In": 5818,
  "\u2581similar": 5819,
  "\u05d0\u05d5\u05ea\u05d5": 5820,
  "\u2581\u05d5\u05d0\u05d9": 5821,
  "\u2581\u05dc\u05d7\u05dc\u05d5\u05e7": 5822,
  "\u2581crowd": 5823,
  "\u2581tip": 5824,
  "\u2581\u05de\u05d1\u05e6\u05e2": 5825,
  "\u2581Kim": 5826,
  "\u2581higher": 5827,
  "Why": 5828,
  "\u05de\u05d0": 5829,
  "\u2581\u05dc\u05d4\u05e1\u05ea\u05d5\u05d1\u05d1": 5830,
  "\u2581\u05e0\u05d7\u05e9\u05d1": 5831,
  "\u2581desire": 5832,
  "\u2581Hope": 5833,
  "\u2581indeed": 5834,
  "\u2581Chicago": 5835,
  "\u2581\u05d9\u05e6\u05d0\u05ea\u05d9": 5836,
  "\u2581capable": 5837,
  "\u2581\u05d8\u05e2\u05d9\u05dd": 5838,
  "\u2581romantic": 5839,
  "\u2581flesh": 5840,
  "\u2581reached": 5841,
  "\u2581\u05de\u05d0\u05e8\u05d9": 5842,
  "\u2581HE": 5843,
  "\u2581hidden": 5844,
  "\u2581\u05e0\u05d9\u05e1\u05d9\u05ea": 5845,
  "\u2581\u05d1\u05d4\u05ea\u05d7\u05e9\u05d1": 5846,
  "\u2581\u05e9\u05e8\u05e6\u05d9\u05ea\u05d9": 5847,
  "\u05d0\u05e4\u05d9\u05dc\u05d5": 5848,
  "\u2581breathing": 5849,
  "pa": 5850,
  "\u05e2\u05d9": 5851,
  "\u2581dies": 5852,
  "\u2581watched": 5853,
  "\u2581\u05de\u05d8\u05d5\u05e1": 5854,
  "\u05dc\u05e9": 5855,
  "\u05e7\u05dc\u05d9": 5856,
  "0": 5857,
  "\u2581Europe": 5858,
  "\u2581\u05de\u05e8\u05e7": 5859,
  "\u2581\u05e0\u05d6\u05e7": 5860,
  "\u2581\u05ea\u05d1\u05d9\u05df": 5861,
  "\u2581\u05d4\u05d0\u05d6\u05d5\u05e8": 5862,
  "mer": 5863,
  "\u2581official": 5864,
  "\u2581\u05d1\u05e9\u05d1\u05d9\u05dc\u05e0\u05d5": 5865,
  "\u2581\u05e4\u05d9\u05dc\u05d9\u05e4": 5866,
  "\u2581mountain": 5867,
  "\u2581\u05d4\u05de\u05d5\u05e8\u05d4": 5868,
  "\u2581\u05de\u05d5\u05e4\u05ea\u05e2": 5869,
  "\u2581memories": 5870,
  "car": 5871,
  "ite": 5872,
  "LL": 5873,
  "\u05e9\u05df": 5874,
  "\u2581wash": 5875,
  "\u2581\u05d1\u05d7\u05e0\u05d5\u05ea": 5876,
  "\u2581\u05de\u05dc\u05d7\u05de\u05ea": 5877,
  "\u05e0\u05e8\u05d0\u05d4": 5878,
  "\u2581attitude": 5879,
  "\u2581confused": 5880,
  "\u2581\u05d5\u05d9\u05d5\u05ea\u05e8": 5881,
  "\u2581\u05e0\u05e4\u05e9": 5882,
  "\u2581\u05de\u05d5\u05e9\u05dc\u05de\u05ea": 5883,
  "well": 5884,
  "\u2581\u05d6\u05d1\u05dc": 5885,
  "\u2581\u05d7\u05e1\u05e8\u05ea": 5886,
  "\u2581Mar": 5887,
  "\u2581Such": 5888,
  "\u2581\u05de\u05e8\u05d2\u05e9": 5889,
  "\u2581Tim": 5890,
  "\u2581\u05e7\u05d9\u05d5\u05d5\u05d9\u05ea\u05d9": 5891,
  "\u05d0\u05e0\u05d8": 5892,
  "\u2581bike": 5893,
  "\u2581kingdom": 5894,
  "\u2581woods": 5895,
  "\u2581Nathan": 5896,
  "\u2581\u05ea\u05e8\u05d5\u05e4\u05d5\u05ea": 5897,
  "\u05d0\u05e0\u05d4": 5898,
  "\u2581usual": 5899,
  "\u2581\u05e7\u05e8\u05d0\u05d5": 5900,
  "\u2581goodbye": 5901,
  "\u2581\u05d3\u05d5\u05e4\u05e7": 5902,
  "\u2581\u201e": 5903,
  "house": 5904,
  "\u2581Rome": 5905,
  "\u2581noise": 5906,
  "\u2581\u05d6\u05db\u05d5\u05e8": 5907,
  "\u2581judgment": 5908,
  "\u2581\u05d1\u05d5\u05db\u05d4": 5909,
  "\u2581\u05de\u05d0": 5910,
  "\u2581planned": 5911,
  "\u2581stood": 5912,
  "\u2581eggs": 5913,
  "\u2581\u05e2\u05d9": 5914,
  "\u2581\u05d7\u05e1\u05e8\u05d9": 5915,
  "\u2581\u05ea\u05d7\u05d5\u05e9\u05d4": 5916,
  "\u05dc\u05dc": 5917,
  "\u2581Ex": 5918,
  "\u2581airport": 5919,
  "\u2581\u05de\u05e9\u05d8\u05e8\u05ea": 5920,
  "\u2581\u05e9\u05d7\u05d9": 5921,
  "\u05e0\u05e7\u05d9": 5922,
  "\u2581Roman": 5923,
  "\u2581\u05e9\u05d9\u05d4\u05d9\u05d5": 5924,
  "\u2581Jewish": 5925,
  "\u2581Thought": 5926,
  "\u2581\u05de\u05d1\u05d5\u05d2\u05e8": 5927,
  "\u2581\u05e9\u05d9\u05de\u05d5": 5928,
  "\u2581style": 5929,
  "\u2581\u05d8\u05e8": 5930,
  "\u2581Ro": 5931,
  "\u2581\u05e2\u05de\u05d3": 5932,
  "\u05e1\u05e1": 5933,
  "\u2581pizza": 5934,
  "\u2581square": 5935,
  "\u2581\u05d2\u05d1\u05d9": 5936,
  "like": 5937,
  "\u2581Green": 5938,
  "\u2581photos": 5939,
  "lt": 5940,
  "\u2581\u05d1\u05db\u05d5\u05d7": 5941,
  "\u2581offering": 5942,
  "\u2581toilet": 5943,
  "\u2581\u05d0\u05d1\u05d8\u05d7\u05d4": 5944,
  "\u2581\u05d4\u05d4\u05d7\u05dc\u05d8\u05d4": 5945,
  "\u2581\u05d4\u05de\u05dc\u05db\u05d4": 5946,
  "\u2581Major": 5947,
  "\u2581pot": 5948,
  "\u2581exciting": 5949,
  "\u2581nurse": 5950,
  "\u2581proper": 5951,
  "\u2581Mexico": 5952,
  "\u2581Jerusalem": 5953,
  "\u2581\u05dc\u05de\u05d3": 5954,
  "\u05d5\u05d7": 5955,
  "\u2581\u05d1\u05de\u05dc\u05d5\u05df": 5956,
  "\u2581\u05de\u05ea\u05d7": 5957,
  "\u258148": 5958,
  "\u2581drinks": 5959,
  "\u2581jacket": 5960,
  "\u2581\u05dc\u05d3\u05e8\u05da": 5961,
  "\u2581\u05e6\u05d3\u05e7\u05ea": 5962,
  "\u2581\u05e9\u05e0\u05d9\u05ea\u05df": 5963,
  "\u2581shake": 5964,
  "\u2581false": 5965,
  "\u2581Leo": 5966,
  "\u2581\u05de\u05e1\u05e2": 5967,
  "\u2581\u05d4\u05d9\u05e4\u05d4": 5968,
  "\u2581\u05d4\u05dc\u05db\u05d5": 5969,
  "\u2581circumstances": 5970,
  "\u2581mood": 5971,
  "\u2581pig": 5972,
  "\u2581screen": 5973,
  "\u2581trees": 5974,
  "\u2581\u05e9\u05e0\u05e9\u05d0\u05e8": 5975,
  "\u2581Read": 5976,
  "\u2581journey": 5977,
  "\u2581\u05de\u05d2\u05d9": 5978,
  "\u2581jerk": 5979,
  "\u2581\u05d4\u05de\u05d0\u05d4": 5980,
  "\u2581\u05e8\u05d5\u05de\u05df": 5981,
  "\u2581\u05d3\u05d9\u05e8\u05d4": 5982,
  "\u2581%1": 5983,
  "\u2581Tonight": 5984,
  "\u2581\u05d4\u05e0\u05d9": 5985,
  "\u2581fought": 5986,
  "\u2581introduce": 5987,
  "\u05d0\u05d5\u05e8": 5988,
  "\u2581version": 5989,
  "\u2581moves": 5990,
  "\u2581solve": 5991,
  "\u2581\u05d7\u05dc\u05d1": 5992,
  "\u2581tickets": 5993,
  "\u2581\u05db\u05de\u05d5\u05ea": 5994,
  "\u2581brilliant": 5995,
  "\u2581\u05d4\u05e9\u05d7\u05d5\u05e8": 5996,
  "\u05d4\u05d0": 5997,
  "\u2581\u05d0\u05de\u05da": 5998,
  "\u2581\u05d5\u05db\u05de\u05d4": 5999,
  "\u2581\u05d7\u05e9\u05d1\u05e0\u05d5": 6000,
  "\u2581Gary": 6001,
  "\u2581Van": 6002,
  "\u2581coach": 6003,
  "\u2581\u05d4\u05d2\u05d3\u05d5\u05dc\u05d9\u05dd": 6004,
  "\u2581religious": 6005,
  "\u2581fate": 6006,
  "\u2581\u05ea\u05e2\u05e9\u05d5": 6007,
  "\u2581\u05d7\u05e0\u05d5\u05ea": 6008,
  "\u2581\u05e2\u05ea": 6009,
  "\u2581Moses": 6010,
  "\u2581downstairs": 6011,
  "\u05d1\u05d0\u05e0\u05d2\u05dc\u05d9\u05ea": 6012,
  "\u2581\u05e9\u05d9\u05e2\u05d5\u05e8": 6013,
  "\u2581rent": 6014,
  "\u2581sexy": 6015,
  "\u2581\u05dc\u05d1\u05e0\u05d9": 6016,
  "\u2581\u05dc\u05d1\u05e1\u05d5\u05e3": 6017,
  "\u2581stock": 6018,
  "\u05d9\u05e4\u05d9\u05dd": 6019,
  "\u2581California": 6020,
  "\u2581\u05d0\u05e8\u05ea\u05d5\u05e8": 6021,
  "\u2581\u05d1\u05d0\u05e8\u05d9": 6022,
  "\u2581connected": 6023,
  "\u2581option": 6024,
  "\u2581grade": 6025,
  "\u2581\u05e0\u05e4\u05d8\u05e8": 6026,
  "\u2581reports": 6027,
  "\u2581Se": 6028,
  "\u2581\u05e0\u05e4\u05d2\u05e2": 6029,
  "\u2581millions": 6030,
  "\u2581\u05de\u05e4\u05dc\u05e6\u05ea": 6031,
  "\u2581ruined": 6032,
  "\u05e1\u05d9\u05e7\u05d4": 6033,
  "si": 6034,
  "ug": 6035,
  "\u05d1\u05dc\u05d4": 6036,
  "\u2581\u05dc\u05d1\u05e8\u05e8": 6037,
  "ham": 6038,
  "\u2581\u05de\u05e1\u05d5\u05d2\u05dc\u05d9\u05dd": 6039,
  "\u2581\u05de\u05e8\u05db\u05d6": 6040,
  "\u05d9\u05ea\u05d9": 6041,
  "\u2581\u05d5\u05db\u05df": 6042,
  "\u2581\u05dc\u05e1\u05e4\u05e7": 6043,
  "\u2581forth": 6044,
  "\u2581shift": 6045,
  "\u2581\u05e9\u05d3\u05d4": 6046,
  "\u2581\u05e0\u05d5\u05d2\u05e2": 6047,
  "\u2581ocean": 6048,
  "\u2581\u05de\u05d5\u05e6\u05d0\u05d9\u05dd": 6049,
  "\u2581\u05ea\u05d4\u05dc\u05d9\u05dd": 6050,
  "\u2581\u05d1\u05e8\u05d7\u05d1\u05d9": 6051,
  "\u2581\u05dc\u05d7\u05ea\u05d5\u05da": 6052,
  "\u2581\u05de\u05db\u05d5\u05e0\u05d9\u05d5\u05ea": 6053,
  "\u05d8\u05d0": 6054,
  "\u2581fail": 6055,
  "\u05d7\u05dc\u05e7": 6056,
  "\u2581learning": 6057,
  "\u2581lift": 6058,
  "\u2581ON": 6059,
  "\u2581Alan": 6060,
  "\u2581pure": 6061,
  "\u2581secure": 6062,
  "\u2581\u05e7\u05d9\u05d9": 6063,
  "\u2581kicked": 6064,
  "\u2581\u05de\u05d9\u05d3\u05d4": 6065,
  "\u2581cast": 6066,
  "\u2581potential": 6067,
  "\u2581\u05e9\u05de\u05e2\u05d5\u05dc\u05dd": 6068,
  "\u05db\u05dc\u05d5\u05dd": 6069,
  "\u2581appears": 6070,
  "\u2581Sheriff": 6071,
  "\u2581Perfect": 6072,
  "\u2581\u05d3\u05d5\u05d3\u05d4": 6073,
  "\u2581\u05dc\u05d5\u05e1\u05d9": 6074,
  "back": 6075,
  "\u2581\u05de\u05e7\u05e1\u05d9\u05dd": 6076,
  "\u2581\u05e0\u05d9\u05dc": 6077,
  "\u2581Sweet": 6078,
  "\u2581\u05d4\u05d4\u05d9\u05e1\u05d8\u05d5\u05e8\u05d9\u05d4": 6079,
  "\u2581changing": 6080,
  "\u05e0\u05e0\u05d5": 6081,
  "\u2581signs": 6082,
  "\u2581\u05d4\u05d4\u05d2\u05e0\u05d4": 6083,
  "\u2581society": 6084,
  "\u2581\u05d4\u05de\u05d9": 6085,
  "\u05d0\u05e8\u05dc\u05e1": 6086,
  "\u05d9\u05e1\u05d8": 6087,
  "\u2581Jacob": 6088,
  "\u2581\u05e0\u05e7\u05d5\u05d3\u05ea": 6089,
  "\u2581Believe": 6090,
  "\u05d7\u05d5\u05dc": 6091,
  "\u2581healthy": 6092,
  "\u2581vacation": 6093,
  "\u2581\u05e2\u05d9\u05d9\u05e3": 6094,
  "\u2581\u05dc\u05e7\u05e8\u05d0\u05ea": 6095,
  "\u2581spoken": 6096,
  "\u2581\u05e9\u05de\u05d0\u05dc": 6097,
  "\u05e9\u05de\u05d9": 6098,
  "\u2581term": 6099,
  "\u2581\u05d9\u05e9\u05d9\u05e8\u05d5\u05ea": 6100,
  "\u2581parking": 6101,
  "wood": 6102,
  "\u05e9\u05d5\u05d1": 6103,
  "\u2581\u05d4\u05e9\u05dc\u05d9\u05d7": 6104,
  "\u2581tests": 6105,
  "\u2581\u05dc\u05d1\u05d8\u05dc": 6106,
  "\u05d9\u05d6\u05dd": 6107,
  "\u2581directly": 6108,
  "\u2581Barry": 6109,
  "\u2581\u05db\u05e0\u05d4": 6110,
  "\u2581\u05d5\u05d9\u05d0\u05de\u05e8": 6111,
  "\u2581\u05d4\u05de\u05d7\u05d9\u05e8": 6112,
  "\u2581\u05dc\u05e7\u05d5\u05dd": 6113,
  "\u2581ye": 6114,
  "\u2581\u05d0\u05dc\u05d9\u05e1\u05d5\u05df": 6115,
  "\u2581drove": 6116,
  "\u2581effort": 6117,
  "\u2581\u05dc\u05d7\u05d2\u05d5\u05d2": 6118,
  "\u05dc\u05d9\u05ea": 6119,
  "mp": 6120,
  "\u2581singing": 6121,
  "\u05d5\u05dc\u05d9\u05d4": 6122,
  "\u2581checking": 6123,
  "\u2581plate": 6124,
  "\u2581\u05d4\u05d9\u05d7\u05d9\u05d3\u05d9": 6125,
  "\u2581\u05d4\u05d9\u05e7\u05e8": 6126,
  "\u2581\u05e9\u05dc\u05e2\u05d5\u05dc\u05dd": 6127,
  "hi": 6128,
  "\u2581sooner": 6129,
  "\u2581seek": 6130,
  "\u2581\u05d4\u05e9\u05e2\u05d5\u05df": 6131,
  "\u2581license": 6132,
  "\u2581literally": 6133,
  "\u2581events": 6134,
  "\u2581cameras": 6135,
  "\u2581\u05ea\u05d4\u05d9\u05ea\u05d9": 6136,
  "\u2581\u05d3\u05dc": 6137,
  "\u2581\u05e8\u05e5": 6138,
  "\u05d2\u05d1\u05e8": 6139,
  "\u2581\u05d4\u05e0\u05db\u05d5\u05e0\u05d4": 6140,
  "\u2581\u05d7\u05db\u05de\u05d4": 6141,
  "\u2581snow": 6142,
  "\u2581Lily": 6143,
  "\u2581\u05d4\u05e6\u05e2\u05d4": 6144,
  "\u2581\u05d4\u05e2\u05d3": 6145,
  "\u2581Anybody": 6146,
  "\u2581\u05d4\u05de\u05e1": 6147,
  "\u05d5\u05e0\u05e1\u05d5\u05df": 6148,
  "\u05ea\u05d7\u05ea": 6149,
  "\u2581\u05e0\u05e2\u05dc\u05de\u05d4": 6150,
  "\u05e0\u05d7": 6151,
  "\u2581\u05d0\u05d9\u05ea\u05db\u05dd": 6152,
  "\u2581\u05d4\u05d6\u05d9\u05df": 6153,
  "\u2581negative": 6154,
  "\u2581yo": 6155,
  "\u2581appear": 6156,
  "\u2581\u05d4\u05e7\u05e8\u05e7\u05e2": 6157,
  "\u2581\u05d4\u05e9\u05d9": 6158,
  "\u2581Na": 6159,
  "\u2581cells": 6160,
  "\u2581\u05e9\u05d9\u05d8": 6161,
  "\u2581\u05ea\u05d5\u05e6\u05d0\u05d5\u05ea": 6162,
  "\u2581\u05e2\u05d5\u05d1\u05e8\u05d9\u05dd": 6163,
  "\u2581\u05de\u05e1\u05d5\u05d9\u05de\u05ea": 6164,
  "\u2581Pro": 6165,
  "\u2581meal": 6166,
  "\u2581\u05dc\u05d4\u05e4\u05e8\u05d9\u05e2": 6167,
  "\u2581\u05d1\u05d3\u05dd": 6168,
  "\u05d9\u05d9\u05d3": 6169,
  "\u2581greater": 6170,
  "\u2581\u05dc\u05d4\u05d0\u05e9\u05d9\u05dd": 6171,
  "\u2581\u05e7\u05d0\u05e8\u05dc": 6172,
  "\u2581\u05d3\u05e2\u05ea\u05d9": 6173,
  "\u2581\u05d7\u05e1": 6174,
  "\u2581Jesse": 6175,
  "\u05de\u05de\u05e9": 6176,
  "\u2581Especially": 6177,
  "\u05b5": 6178,
  "\u2581Internet": 6179,
  "\u2581\u05d0\u05e7\u05d1\u05dc": 6180,
  "\u2581\u05d4\u05de\u05e8": 6181,
  "\u2581\u05d1\u05e9\u05d8\u05d7": 6182,
  "\u05d8\u05d5\u05ea": 6183,
  "\u2581\u05e2\u05d5\u05d6\u05d1\u05ea": 6184,
  "\u05d9\u05db\u05dd": 6185,
  "\u2581\u05e2\u05d3\u05d9\u05df": 6186,
  "\u2581\u05e1\u05e8\u05d8\u05df": 6187,
  "\u2581soft": 6188,
  "\u2581\u05d4\u05e2\u05dc\u05d9\u05d5\u05df": 6189,
  "\u2581request": 6190,
  "\u2581\u05d2\u05e9\u05dd": 6191,
  "\u2581\u05e9\u05e9\u05de\u05e2\u05ea\u05d9": 6192,
  "\u2581\u05d4\u05d8\u05d1\u05e2\u05ea": 6193,
  "\u2581\u05e8\u05e2\u05d9\u05d5\u05e0\u05d5\u05ea": 6194,
  "\u2581\u05de\u05e4\u05d7\u05d3\u05ea": 6195,
  "\u2581happiness": 6196,
  "\u2581scary": 6197,
  "\u2581\u05d0\u05d9\u05d1\u05d3": 6198,
  "\u05d1\u05e0\u05d9\u05dd": 6199,
  "\u2581\u05d7\u05ea\u05d5\u05dc": 6200,
  "\u05bc": 6201,
  "\u2581\u05d4\u05d6\u05db\u05d5\u05ea": 6202,
  "\u2581button": 6203,
  "\u2581\u05dc\u05d4\u05db\u05d5\u05ea": 6204,
  "\u05e4\u05d5\u05e8\u05d3": 6205,
  "\u2581\u05dc\u05e0\u05e9\u05e7": 6206,
  "io": 6207,
  "\u05e9\u05d5\u05e8": 6208,
  "\u2581Number": 6209,
  "\u2581\u05db\u05d0\u05dc\u05d5": 6210,
  "\u2581\u05d2\u05e8\u05d2": 6211,
  "\u2581\u05d7\u05d5\u05e4\u05e9": 6212,
  "\u2581dump": 6213,
  "\u2581\u05d4\u05d5\u05d3\u05e2\u05d5\u05ea": 6214,
  "\u2581function": 6215,
  "\u2581Greek": 6216,
  "\u2581\u05ea\u05e4\u05e1\u05d9\u05e7\u05d5": 6217,
  "\u2581\u05e1\u05e4\u05e8\u05d9\u05dd": 6218,
  "\u2581\u05ea\u05d9\u05d2\u05e2": 6219,
  "\u2581authority": 6220,
  "\u2581\u05e0\u05e0\u05e1\u05d4": 6221,
  "ek": 6222,
  "\u2581\u05d4\u05d1\u05e2\u05dc\u05d9\u05dd": 6223,
  "\u2581\u05d9\u05d4\u05d5\u05d3\u05d9": 6224,
  "\u05db\u05d0\u05df": 6225,
  "\u2581lower": 6226,
  "\u2581east": 6227,
  "\u2581\u05e1\u05d9\u05d9\u05de\u05e0\u05d5": 6228,
  "\u05e9\u05de\u05e2": 6229,
  "her": 6230,
  "\u2581weather": 6231,
  "\u2581\u05d5\u05d0\u05de\u05e8": 6232,
  "\u2581\u05de\u05e9\u05d9\u05de\u05d4": 6233,
  "\u2581blew": 6234,
  "\u2581\u05dc\u05d1\u05e8": 6235,
  "\u05e0\u05e9\u05e7": 6236,
  "\u2581awake": 6237,
  "\u2581\u05dc\u05d1\u05db\u05d5\u05ea": 6238,
  "\u2581task": 6239,
  "\u2581\u05d4\u05d0\u05e0\u05d5\u05e9\u05d9": 6240,
  "\u2581\u05dc\u05e8\u05db\u05d1": 6241,
  "\u2581\u05d1\u05e2\u05d9\u05e0\u05d9\u05d9\u05dd": 6242,
  "\u2581\u05de\u05e1\u05d5\u05d1\u05da": 6243,
  "\u2581bright": 6244,
  "\u2581easily": 6245,
  "\u2581\u05db\u05d7\u05d5\u05dc": 6246,
  "\u05e4\u05d9\u05ea": 6247,
  "ab": 6248,
  "\u2581\u05e9\u05dc\u05d4\u05df": 6249,
  "\u05d3\u05d2": 6250,
  "\u2581\u05db\u05d3\u05d5\u05e8\u05d9\u05dd": 6251,
  "\u2581\u05d1\u05d4\u05df": 6252,
  "\u2581\u05e2\u05e6\u05dd": 6253,
  "\u2581\u05d9\u05e6\u05d0\u05d5": 6254,
  "\u2581Follow": 6255,
  "\u2581fantastic": 6256,
  "\u2581hunt": 6257,
  "\u2581\u05d4\u05e6\u05e2\u05e8": 6258,
  "\u05e7\u05e9\u05e8": 6259,
  "\u05dc\u05d5\u05e7": 6260,
  "\u2581illegal": 6261,
  "\u2581\u05dc\u05de\u05e9\u05e4\u05d7\u05d4": 6262,
  "\u2581\u05de\u05e8\u05e9\u05d9\u05dd": 6263,
  "\u2581THIS": 6264,
  "\u2581\u05d1\u05d6\u05db\u05d5\u05ea": 6265,
  "\u2581states": 6266,
  "\u2581\u05e7\u05d1\u05d5\u05e2": 6267,
  "tor": 6268,
  "\u2581spring": 6269,
  "\u2581\u05de\u05e9\u05d0\u05d9\u05e8": 6270,
  "\u2581Majesty": 6271,
  "\u2581series": 6272,
  "\u2581Ko": 6273,
  "\u2581\u05d7\u05d9\u05d9\u05d4\u05dd": 6274,
  "\u05db\u05d7": 6275,
  "\u2581Prev": 6276,
  "\u2581Ross": 6277,
  "\u2581steps": 6278,
  "\u2581\u05d4\u05e4\u05d2\u05d9\u05e9\u05d4": 6279,
  "\u2581Step": 6280,
  "\u2581Whoo": 6281,
  "\u2581\u05e0\u05de\u05e9\u05d9\u05da": 6282,
  "\u25811:": 6283,
  "\u05d9\u05db\u05d5\u05dc": 6284,
  "\u2581China": 6285,
  "\u2581\u05e0\u05d9\u05d9\u05d8": 6286,
  "\u2581\u05e9\u05d8\u05d7": 6287,
  "\u2581\u05d0\u05d5\u05e9\u05e8": 6288,
  "cing": 6289,
  "\u05d8\u05e2": 6290,
  "\u2581actual": 6291,
  "\u2581chocolate": 6292,
  "\u2581\u05d1\u05e4\u05d9": 6293,
  "\u2581\u05de\u05e1\u05ea\u05d5\u05d1\u05d1": 6294,
  "\u2581Start": 6295,
  "\u2581convince": 6296,
  "\u2581sudden": 6297,
  "\u2581US": 6298,
  "side": 6299,
  "\u2581\u05d3\u05d9\u05d9": 6300,
  "\u2581Way": 6301,
  "\u2581pulling": 6302,
  "\u05e8\u05d9\u05e1": 6303,
  "\u2581Annie": 6304,
  "\u2581remains": 6305,
  "\u2581\u05d4\u05db\u05ea\u05d5\u05d1\u05ea": 6306,
  "\u2581pills": 6307,
  "\u05e8\u05d5\u05df": 6308,
  "\u2581sucks": 6309,
  "\u2581\u05d4\u05d7\u05dc\u05d5\u05df": 6310,
  "ring": 6311,
  "\u05e7\u05d3": 6312,
  "\u2581lonely": 6313,
  "\u2581\u05e9\u05d0\u05d4\u05d9\u05d4": 6314,
  "ney": 6315,
  "\u2581\u05d9\u05e9\u05de\u05d5\u05e8": 6316,
  "end": 6317,
  "\u2581presence": 6318,
  "12": 6319,
  "\u2581\u05d3\u05d5\u05d5\u05e7\u05d0": 6320,
  "\u2581\u05d4\u05d4\u05e8": 6321,
  "\u2581\u05de\u05d0\u05d5\u05d4\u05d1": 6322,
  "\u2581DO": 6323,
  "\u05e7\u05e0\u05d9": 6324,
  "\u2581flat": 6325,
  "\u2581\u05e9\u05d0\u05dc\u05d5\u05d4\u05d9\u05dd": 6326,
  "\u2581burning": 6327,
  "ip": 6328,
  "\u2581leads": 6329,
  "\u2581custody": 6330,
  "\u2581\u05d1\u05d3\u05e7\u05ea\u05d9": 6331,
  "\u2581\u05e8\u05d2\u05dc\u05d9\u05d9\u05dd": 6332,
  "\u2581\u05dc\u05d4\u05e2\u05dc\u05d5\u05ea": 6333,
  "\u2581trigger": 6334,
  "\u2581boring": 6335,
  "\u2581pounds": 6336,
  "\u2581\u05d1\u05d0\u05e8\u05e5": 6337,
  "\u05d5\u05e0\u05d5": 6338,
  "\u05e8\u05e2": 6339,
  "\u2581\u05de\u05d5\u05e2\u05d3\u05d5\u05df": 6340,
  "\u2581\u05de\u05e2\u05dc\u05d5\u05ea": 6341,
  "\u05d8\u05d5\u05dd": 6342,
  "\u2581trap": 6343,
  "\u2581\u05d3\u05d5\u05d1": 6344,
  "\u2581separate": 6345,
  "\u2581\u05e9\u05e2\u05e8": 6346,
  "\u05d1\u05d9\u05e2": 6347,
  "\u05e4\u05d9\u05d4": 6348,
  "\u2581\u05d1\u05d0\u05d9\u05e0\u05d8\u05e8\u05e0\u05d8": 6349,
  "\u2581\u05d5\u05d0\u05d1\u05d0": 6350,
  "\u2581carrying": 6351,
  "\u2581\u05dc\u05e0\u05d5\u05d7": 6352,
  "\u2581switch": 6353,
  "\u2581\u05d4\u05db\u05d5\u05d5\u05e0\u05d4": 6354,
  "\u2581Lois": 6355,
  "\u2581Almost": 6356,
  "\u2581lt": 6357,
  "\u2581\u05e7\u05d9\u05d1\u05dc\u05d4": 6358,
  "AL": 6359,
  "\u2581manage": 6360,
  "\u2581Rick": 6361,
[...]
