{"</s>": 0, "<unk>": 1, ",": 2, ".": 3, "\u2581the": 4, "\u2581in": 5, "s": 6, "\u2581of": 7, "\u2581and": 8, "\u2581der": 9, "\u2581und": 10, "\u2581die": 11, "\u2581to": 12, "-": 13, "\u2581": 14, "\u2581a": 15, "en": 16, ":": 17, "e": 18, "\u2581(": 19, "\u2581is": 20, "\u2581von": 21, "\u2581for": 22, "\u2581zu": 23, "'": 24, "\u2581-": 25, "\u2581den": 26, ")": 27, "\u2581f\u00fcr": 28, "\u2581ist": 29, "?": 30, "\u2581mit": 31, "\u2581on": 32, "\u2581with": 33, "\u2581that": 34, "n": 35, "\u2581I": 36, "\u2581The": 37, "\u2581auf": 38, "\u2581an": 39, "\u2581you": 40, "\u2581des": 41, "\u2581Sie": 42, "\u2581das": 43, "\u2581be": 44, "er": 45, "t": 46, "\u2581are": 47, "\u2581eine": 48, "\u2581im": 49, "\u2581nicht": 50, "\u2581as": 51, "\u2581ein": 52, "\u2581by": 53, "\u2581\"": 54, "\u2581Die": 55, "\u2581it": 56, "\u2581was": 57, "\u2581dem": 58, "\u2581from": 59, "\u2581this": 60, "\u2581werden": 61, "!": 62, "\u2581or": 63, "\u2581sich": 64, "\u2581In": 65, "\u2581es": 66, "\u2581not": 67, "\u2581at": 68, "\u2581oder": 69, "\u2581sind": 70, "\u2581have": 71, "\u2581will": 72, "/": 73, "\u2581aus": 74, ";": 75, "\u2581sie": 76, "\u2581als": 77, "\u2581wird": 78, "\u2581\u00fcber": 79, "\u2581your": 80, "\u2581ich": 81, "\u2581which": 82, "\u2581can": 83, "\u2581dass": 84, "ing": 85, "\u2581so": 86, "\u2581auch": 87, "\"": 88, "d": 89, "\u2581um": 90, "\u2581all": 91, "m": 92, "...": 93, "\u2581einer": 94, "\u2581we": 95, "\u2581nach": 96, "\u2581A": 97, "\u2581has": 98, "\u2581wir": 99, "\u2581zur": 100, "a": 101, "\u2581bei": 102, "\u2581Ich": 103, "es": 104, "\u2581Das": 105, "r": 106, "\u25811": 107, "\u2581einen": 108, "\u2581wie": 109, "\u2581hat": 110, "\u2581er": 111, "\u2581\u2013": 112, "\u25812": 113, "\u2581also": 114, "\u2581haben": 115, "\u2581einem": 116, "ed": 117, "\u2581Der": 118, "\u2581am": 119, "\u2581durch": 120, ").": 121, "\u2581zum": 122, "in": 123, "\u00ad": 124, "\u2581our": 125, "\u2581more": 126, "\u2581k\u00f6nnen": 127, "\u2581S": 128, "\u2581one": 129, "\u25813": 130, "\u2581their": 131, "\u2581It": 132, "\u2581war": 133, "\u2581kann": 134, "\u2581du": 135, "\u2581its": 136, "\u2581wurde": 137, "\u2581nur": 138, "\u2581This": 139, "\u2581he": 140, "\u2581You": 141, "\u2581they": 142, "re": 143, "\u2581but": 144, "y": 145, "\u2581vor": 146, "S": 147, "\u2581Es": 148, "\u2581other": 149, "\u2581up": 150, "\u2581European": 151, "\u2581been": 152, "\u2581about": 153, "\u2581B": 154, "\u2581his": 155, "\u2581do": 156, "\u2581bis": 157, "\u2581We": 158, "\u2581&": 159, "\u2581uns": 160, "),": 161, "\u2581time": 162, "\u2581vom": 163, "\u2581out": 164, "\u2581E": 165, "\u2581me": 166, "\u2019": 167, "\u2581sein": 168, "o": 169, "\u2581there": 170, "\u25815": 171, "\u2581diese": 172, "\u2581new": 173, "\u2581dieser": 174, "\u2581were": 175, "\u25814": 176, "\u2581noch": 177, "\u2581wenn": 178, "\u2581man": 179, "\u2581only": 180, "\u2581aber": 181, "\u2581Wir": 182, "\u2581C": 183, "\u2581my": 184, "\u2581mehr": 185, "\u2581who": 186, "\u2581should": 187, "\u2581no": 188, "\u2581\u2014": 189, "\u2581unter": 190, "de": 191, "\u2581Commission": 192, "ly": 193, "\u2581No": 194, "\u2581da\u00df": 195, "\u2581into": 196, "C": 197, "\u2581EU": 198, "B": 199, "\u2581\u201e": 200, "i": 201, "\u2581Artikel": 202, "\u258110": 203, "\u2581Kommission": 204, "\u2581Er": 205, "\u2581what": 206, "\u2581if": 207, "\u2581like": 208, "\u2581would": 209, "\u2581them": 210, "\u2581us": 211, "\u2581alle": 212, "\u2581L": 213, "A": 214, "\u2581had": 215, "\u25816": 216, "2": 217, "\u2581shall": 218, "\u2581than": 219, "ung": 220, "\u2581any": 221, "\u2581eines": 222, "\u2581use": 223, "\u2581first": 224, "\u2581information": 225, "\u2581Und": 226, "\u2581He": 227, "\u2581when": 228, "h": 229, "\u2581these": 230, "\u2581And": 231, "\u2581people": 232, "st": 233, "\u2581de": 234, "\u2581Union": 235, "\u2581such": 236, "g": 237, "\u2581hier": 238, "\u2581\u201c": 239, "\u2581Ein": 240, "D": 241, "\u2581sowie": 242, "al": 243, "\u2581ab": 244, "\u2581her": 245, "\u2581So": 246, "\u2581well": 247, "\u2581may": 248, "\u2581know": 249, "\u2581two": 250, "\u2581here": 251, "\u2581D": 252, "\u2581P": 253, "\u2581between": 254, "z": 255, "\u2581very": 256, "te": 257, "k": 258, "b": 259, "\u258118": 260, "\u2581mich": 261, "\u2581T": 262, "\u2581sehr": 263, "\u2581ihre": 264, "\u2581just": 265, "\u2581over": 266, "\u2581mir": 267, "\u2581work": 268, "\u2581years": 269, "\u2581Member": 270, "\u2581diesem": 271, "\u2581zwischen": 272, "\u2581anderen": 273, "\u2581What": 274, "\u2581keine": 275, "\u2581'": 276, "\u2581now": 277, "\u2581States": 278, "\u2581M": 279, "\u2581/": 280, "\u2581Article": 281, "\u2581some": 282, "\u2581ihr": 283, "den": 284, "\u2581Im": 285, "ll": 286, "\u2581Ihre": 287, "\u2581An": 288, ".\"": 289, "\u2581For": 290, "\u258120": 291, "\u2581m": 292, "\u2581Du": 293, "\u2581If": 294, "\u2581K": 295, "\u2581gibt": 296, "\u2581G": 297, "3": 298, "\u2581wurden": 299, "\u2581where": 300, "\u2581Zeit": 301, "\u2581Wenn": 302, "\u2581him": 303, "\u2581must": 304, "\u2581most": 305, "\u2581ver": 306, "\u2581right": 307, "\u2581...": 308, "1": 309, "\u2581Hotel": 310, "\u2581Was": 311, "\u2581da": 312, "\u2581under": 313, "th": 314, "\u25818": 315, "\u25817": 316, "\u2581Council": 317, "\u2581_": 318, "\u2581made": 319, "\u2581get": 320, "E": 321, "\u2581Europ\u00e4ischen": 322, "an": 323, "\u2581%": 324, "\u2581F": 325, "\u2581dann": 326, "\u2581m\u00fcssen": 327, "c": 328, "\u2581data": 329, "\u258115": 330, "\u2581year": 331, "\u2581Diese": 332, "\u2581take": 333, "\u2581make": 334, "\u2581habe": 335, "l": 336, "\u2581Jahr": 337, "\u258112": 338, "F": 339, "K": 340, "\u2581Be": 341, "\u2581after": 342, "\u2581zwei": 343, "\u258130": 344, "\u2581need": 345, "\u2581those": 346, "ve": 347, "\u2581immer": 348, "\u2581used": 349, "\u2581world": 350, "\u2581Ver": 351, "\u2581way": 352, "\u2581dieses": 353, "\u2581seine": 354, "\u2581products": 355, "\u2581system": 356, "ten": 357, "\u2581Mr": 358, "V": 359, "\u2581Community": 360, "\u2581per": 361, "]": 362, "\u2581V": 363, "\u2581Mit": 364, "\u2581Daten": 365, "\u2581Ihnen": 366, "\u2581many": 367, "or": 368, "be": 369, "\u2581see": 370, "us": 371, "com": 372, "\u2581then": 373, "\u2581through": 374, "\u2581All": 375, "\u2581km": 376, "\u2581But": 377, "\u2581order": 378, "f": 379, "\u2581want": 380, "\u2581Auf": 381, "\u2581Informationen": 382, "\u2581R": 383, "\u2581[": 384, "H": 385, "\u2581good": 386, "\u2581could": 387, "The": 388, "\u25819": 389, "\u2581area": 390, "x": 391, "\u2581H": 392, "4": 393, "\u2581un": 394, "\u2581part": 395, "\u2581how": 396, "\u2581andere": 397, "\u2581Welt": 398, "\u2581available": 399, "\u2581Art": 400, "\u2581Unternehmen": 401, "\u2581go": 402, "\u2581Menschen": 403, "\u2581even": 404, "\u2581\u20ac": 405, "\u2581Regulation": 406, "\u2581don": 407, "to": 408, "\u2581high": 409, "\u2581countries": 410, "em": 411, "\u2581Wie": 412, "\u2581re": 413, "\u2581day": 414, "\u2581Entwicklung": 415, "ge": 416, "\u2581back": 417, "on": 418, "\u2581same": 419, "\u2581wieder": 420, "\u201c": 421, "\u2581market": 422, "\u2581Jahre": 423, "\u2581neue": 424, "\u2581because": 425, "\u2581There": 426, "\u2581N": 427, "\u2581ihrer": 428, "\u2581before": 429, "\u2581number": 430, "\u2581within": 431, "I": 432, "\u2581To": 433, "\u2581As": 434, "\u2581place": 435, "\u2581pro": 436, "\u2581muss": 437, "T": 438, "\u2581damit": 439, "\u2581Mitgliedstaaten": 440, "P": 441, "\",": 442, "\u2581find": 443, "\u2581ihn": 444, "\u2581Verordnung": 445, "G": 446, "M": 447, "\u2581set": 448, "\u2581ohne": 449, "\u2581God": 450, "W": 451, "\u2581Europe": 452, "\u2581bin": 453, "\u2581following": 454, "\u2581New": 455, "\u2581down": 456, "\u2581free": 457, "\u2581being": 458, "\u2581dich": 459, "\u2581:": 460, "N": 461, "\u2581life": 462, "\u2581schon": 463, "\u2581O": 464, "\u2581ge": 465, "\u2581Nr": 466, "\u2581W": 467, "\u2581That": 468, "\u2581said": 469, "\u2581Jahren": 470, "\u2581Ihr": 471, "\u2581unsere": 472, "\u25810": 473, "\u2581online": 474, "\u2581she": 475, "\u2581Stadt": 476, "\u2581development": 477, "\u2581different": 478, "\u2581finden": 479, "\u2581gegen": 480, "\u2581gut": 481, "\u2581diesen": 482, "\u2581seiner": 483, "\u2581F\u00fcr": 484, "\u2581They": 485, "(": 486, "\u2581On": 487, "\u2581product": 488, "ver": 489, "\u2581waren": 490, "\u25811.": 491, "\u2581important": 492, "ers": 493, "\u2581each": 494, "\u2581without": 495, "\u2581long": 496, "\u2581Nach": 497, "\u2581own": 498, "\u258116": 499, "ia": 500, "\u2581sollte": 501, "\u2581support": 502, "\u2581Gemeinschaft": 503, "\u2581Eine": 504, "\u2581possible": 505, "\u2581hatte": 506, "\u2581Re": 507, "\u2581best": 508, "\u2581machen": 509, "\u2581Ab": 510, "\u2581Ja": 511, "\u2581services": 512, "\u2581case": 513, "\u258114": 514, "\u2581service": 515, "\u2581Aber": 516, "le": 517, "\u2581neuen": 518, "\u2581does": 519, "\u258117": 520, "\u2581U": 521, "\u2581p": 522, "\u2581still": 523, "\u2581three": 524, "\u258111": 525, "der": 526, "\u2581jetzt": 527, "the": 528, "\".": 529, "ation": 530, "ch": 531, "\u2581did": 532, "\u2581selbst": 533, "\u2581Teil": 534, "\u2581during": 535, "EC": 536, "et": 537, "\u2581Ge": 538, "\u2581both": 539, "\u2581Land": 540, "\u258125": 541, "um": 542, "\u2581help": 543, "\u2581Germany": 544, "\u2581come": 545, "\u2581denen": 546, "\u2581Vor": 547, "\u2581etwas": 548, "\u2581w\u00e4hrend": 549, "\u2581public": 550, "\u2581Dr": 551, "\u2581Am": 552, "\u2581last": 553, "man": 554, "\u2581100": 555, "\u2581since": 556, "\u2581e": 557, "\u2581ihren": 558, "\u2581EUR": 559, "\u2581social": 560, "\u2581drei": 561, "\u2581think": 562, "ic": 563, "\u2581Aus": 564, "\u2581Bei": 565, "\u2581level": 566, "\u2581ihm": 567, "\u2581Rahmen": 568, "\u2581dir": 569, "\u2581My": 570, "\u2581wo": 571, "\u2581German": 572, "\u2581policy": 573, "\u2581\u00bb": 574, "\u2581At": 575, "\u2581jedoch": 576, "\u2581seit": 577, "\u2581Da": 578, "_": 579, "is": 580, "\u2581Um": 581, "\u2581much": 582, "L": 583, "\u2581car": 584, "\u258150": 585, "\u2581La": 586, "\u2581Tag": 587, "\u2581against": 588, "\u2581unserer": 589, "\u2581St": 590, "el": 591, "\u2581zur\u00fcck": 592, "\u2581Ma\u00dfnahmen": 593, "\u2581end": 594, "\u258113": 595, "\u2581Seite": 596, "\u2581national": 597, "ne": 598, "\u2581bietet": 599, "\u2581Absatz": 600, "\u2581international": 601, "\u2581ersten": 602, "\u2581sollten": 603, "\u2581Leben": 604, "\u2581bereits": 605, "\u2581offers": 606, "\u2581great": 607, "\u258124": 608, "In": 609, "able": 610, "\u2581measures": 611, "\u2581\u00dcber": 612, "\u2581water": 613, "\u2581allen": 614, "\u2581Home": 615, "\u2581sondern": 616, "\u2581meine": 617, "\u2581Parliament": 618, "\u2581sehen": 619, "\u2581point": 620, "\u2581ob": 621, "\u2581Service": 622, "\u2581doch": 623, "\u2581viele": 624, "\u2581conditions": 625, "\u2581denn": 626, "\u2581Oh": 627, "\u2581every": 628, "p": 629, "\u2581city": 630, "EG": 631, "\u2581company": 632, "\u2581soll": 633, "\u2581How": 634, "\u2581production": 635, "\u2581file": 636, "\u2581around": 637, "\u2581geht": 638, "\u2581*": 639, "\u2581already": 640, "at": 641, "\u2581Kinder": 642, "\u2581Alle": 643, "\u2581Deutschland": 644, "\u2581Berlin": 645, "\u2581days": 646, "\u2581name": 647, "\u2581particular": 648, "\u2581including": 649, "\u2581alles": 650, "\u2581De": 651, "\u2581Herr": 652, "\u2581Internet": 653, "\u2581Produkt": 654, "\u2581quality": 655, "\u2581Europa": 656, "\u2581heute": 657, "\u2581State": 658, "\u2581viel": 659, "\u2581Wasser": 660, "\u2581say": 661, "O": 662, "\u2581Do": 663, "\u2581Preis": 664, "up": 665, "\u2581too": 666, "land": 667, "\u2581means": 668, "\u2581==": 669, "\u2581ihnen": 670, "\u2581country": 671, "\u2581With": 672, "\u2581einfach": 673, "R": 674, "\u2581Arbeit": 675, "\u2581English": 676, "\u2581business": 677, "Die": 678, "\u2581room": 679, "ter": 680, "ar": 681, "\u2581again": 682, "\u2581Rat": 683, "Z": 684, "\u2581small": 685, "\u2581view": 686, "\u2581erhalten": 687, "\u2581economic": 688, "\u2581September": 689, "\u258119": 690, "\u2581November": 691, "\u2581ganz": 692, "\u2581Z": 693, "\u2581research": 694, "\u201d": 695, "\u2581Euro": 696, "\u2581United": 697, "\u2581weiter": 698, "\u2581give": 699, "\u2581zusammen": 700, "ner": 701, "w": 702, "\u2581process": 703, "\u2581d": 704, "\u2581period": 705, "ist": 706, "\u2581beim": 707, "*": 708, "\u2581President": 709, "\u2581report": 710, "\u2581X": 711, "na": 712, "\u2581liegt": 713, "\u2581Gott": 714, "\u2581seinen": 715, "\u2581found": 716, "u": 717, "\u2581J": 718, "ie": 719, "sch": 720, "it": 721, "im": 722, "\u2581form": 723, "\u2581w\u00fcrde": 724, "\u25812015": 725, "\u2581children": 726, "\u2581got": 727, "\u2581Committee": 728, "\u2581further": 729, "\u2581Bereich": 730, "\u258121": 731, "\u2581open": 732, "\u2581April": 733, "\u2581System": 734, "\u2581price": 735, "\u2581>": 736, "\u2581Man": 737, "gen": 738, "\u2581Produkte": 739, "\u2581while": 740, "\u2581million": 741, "\u2581+": 742, "\u2581going": 743, "\u2581special": 744, "\u2581Kunden": 745, "sten": 746, "\u2581energy": 747, "\u2581euch": 748, "\u2581provided": 749, "\u2581example": 750, "\u2581Richtlinie": 751, "\u2581tun": 752, "\u2581times": 753, "\u258140": 754, "\u2581Deutsch": 755, "\u2581weil": 756, "\u2581working": 757, "\u2581Your": 758, "\u2581When": 759, "se": 760, "\u2581able": 761, "ab": 762, "\u2581course": 763, "\u2581She": 764, "\u2581Fall": 765, "\u2581\u2022": 766, "\u2581application": 767, "\u2581Frage": 768, "\u2581using": 769, "\u2581mal": 770, "\u2581gem\u00e4\u00df": 771, "\u2581financial": 772, "\u2581Zimmer": 773, "5": 774, "as": 775, "\u2581Frau": 776, "\u2581provide": 777, "ity": 778, "\u2581full": 779, "und": 780, "\u2581based": 781, "\u2581Hotels": 782, "\u2581necessary": 783, "\u2581insbesondere": 784, "\u2581power": 785, "\u2581second": 786, "ig": 787, "\u2581Haus": 788, "\u2581home": 789, "\u2581Zu": 790, "\u2581TV": 791, "co": 792, "\u25812016": 793, "\u2581Recht": 794, "\u2581therefore": 795, "\u2581family": 796, "\u2581always": 797, "\u2581hand": 798, "\u2581project": 799, "\u2581b": 800, "\u2581another": 801, "\u2581lassen": 802, "ern": 803, "\u2581kein": 804, "\u2581large": 805, "\u2581wei\u00df": 806, "\u2581Jesus": 807, "\u2581Kontakt": 808, "\u2581off": 809, "ste": 810, "\u2581Pro": 811, "\u2581dazu": 812, "ton": 813, "\u2581real": 814, "\u2581II": 815, "ische": 816, "lich": 817, "\u2581Directive": 818, "\u2581future": 819, "\u2581sagen": 820, "\u2581look": 821, "\u2581Ende": 822, "\u2581next": 823, "\u2581Ziel": 824, "\u2581Personen": 825, "\u2581mm": 826, "\u2581human": 827, "\u2581China": 828, "ion": 829, "\u2581More": 830, "ment": 831, "\u25812018": 832, "\u2581little": 833, "\u25812.": 834, "ur": 835, "\u2581Anwendung": 836, "\u2581m\u00f6glich": 837, "\u2581offer": 838, "\u2581Rates": 839, "un": 840, "\u2581i": 841, "\u25812019": 842, "\u2581account": 843, "\u2581Als": 844, "\u2581g": 845, "\u2581training": 846, "\u2581together": 847, "\u2581taken": 848, "\u2581really": 849, "\u2581einige": 850, "\u2581change": 851, "ieren": 852, "\u2581air": 853, "\u2581Co": 854, "\u2581kommen": 855, "\u2581experience": 856, "\u2581better": 857, "\u2581access": 858, "\u2581house": 859, "\u2581International": 860, "\u2581control": 861, "\u2581areas": 862, "\u258122": 863, "\u2581group": 864, "\u2581Our": 865, "\u2581unseren": 866, "\u2581certain": 867, "\u2581industry": 868, "\u2581total": 869, "\u2581non": 870, "\u2581website": 871, "19": 872, "\u2581hotel": 873, "\u2581list": 874, "\u2581protection": 875, "ma": 876, "\u2581Information": 877, "\u25812010": 878, "\u2581Bar": 879, "\u2581x": 880, "ol": 881, "\u2581systems": 882, "\u2581old": 883, "\u2581ja": 884, "\u2581Un": 885, "\u2581These": 886, "EU": 887, "\u2581August": 888, "\u2581page": 889, "bar": 890, "\u2581given": 891, "\u2581hast": 892, "\u2581person": 893, "\u2581Ihren": 894, "iert": 895, "\u2581light": 896, "\u2581Grund": 897, "\u2581third": 898, "\u2581z": 899, "\u2581Online": 900, "\u2581nichts": 901, "\u2581question": 902, "J": 903, "\u2581weitere": 904, "\u2581Unter": 905, "\u00ae": 906, "v": 907, "liche": 908, "\u2581main": 909, "\u2581put": 910, "\u25812013": 911, "\u2581hin": 912, "\u2581something": 913, "\u2581results": 914, "\u25812012": 915, "\u2581Contact": 916, "\u2581gehen": 917, "\u2581activities": 918, "\u2581m\u00f6chte": 919, "\u2581Lage": 920, "\u25812014": 921, "\u2581Hier": 922, "\u2581World": 923, "\u2581verschiedenen": 924, "da": 925, "\u2581wirklich": 926, "\u2581basis": 927, "\u2581local": 928, "\u2581away": 929, "\u2581Group": 930, "\u2581until": 931, "EN": 932, "\u2581See": 933, "\u258160": 934, "\u2581Dies": 935, "\u2581San": 936, "\u2581geben": 937, "\u2581nun": 938, "10": 939, "\u258123": 940, "\u2581today": 941, "\u2581mein": 942, "\u25812009": 943, "\u2581Sicherheit": 944, "\u2581USA": 945, "\u2581few": 946, "\u2581site": 947, "\u2581cm": 948, "\u2581things": 949, "ry": 950, "\u2581law": 951, "ze": 952, "\u2581letzten": 953, "\u2581wollen": 954, "\u2581Mehr": 955, "\u2581\u2018": 956, "\u2581However": 957, "\u2581May": 958, "ke": 959, "no": 960, "\u2581Le": 961, "\u2581worden": 962, "\u2581Nicht": 963, "\u00e9": 964, "\u25812011": 965, "\u2581Search": 966, "X": 967, "\u2581interest": 968, "\u2581innerhalb": 969, "\u2581less": 970, "\u2581Al": 971, "\u2581US": 972, "\u2581bitte": 973, "\u2581trade": 974, "\u2581Website": 975, "il": 976, "\u2581design": 977, "\u2581common": 978, "\u2581One": 979, "\u2581general": 980, "\u2581Fragen": 981, "\u2581fact": 982, "\u00a9": 983, "6": 984, "\u2581Well": 985, "\u2581present": 986, "\u2581contact": 987, "\u2581Europ\u00e4ische": 988, "\u2581Mal": 989, "\u2581located": 990, "\u25812007": 991, "\u2581Weg": 992, "\u2581Form": 993, "\u258128": 994, "\u2581Zusammenarbeit": 995, "\u2581darauf": 996, "\u2581value": 997, "\u2581allem": 998, "zu": 999, "\u2581Bericht": 1000, "ro": 1001, "\u2581\u201d": 1002, "\u2581dabei": 1003, "\u2581Spiel": 1004, "\u2581Ihrem": 1005, "\u2581above": 1006, "\u2581management": 1007, "\u2581Energie": 1008, "ka": 1009, "\u2581show": 1010, "and": 1011, "di": 1012, "\u2581love": 1013, "\u2581ensure": 1014, "\u2581k\u00f6nnte": 1015, "\u2581gro\u00dfe": 1016, "mann": 1017, "\u2581welche": 1018, "\u2581rights": 1019, "\u2581Google": 1020, "\u2581Namen": 1021, "os": 1022, "\u2581Go": 1023, "\u2581kommt": 1024, "\u2581never": 1025, "\u2581w\u00e4re": 1026, "\u2581After": 1027, "chen": 1028, "Mail": 1029, "\u2581Markt": 1030, "\u2581Car": 1031, "\u2581verwendet": 1032, "ber": 1033, "\u2581Na": 1034, "\u2581private": 1035, "\u2581seinem": 1036, "ischen": 1037, "\u2581erste": 1038, "\u2581sei": 1039, "\u2581body": 1040, "\u2581Ort": 1041, "\u2581Beispiel": 1042, "\u2581wissen": 1043, "\u25812000": 1044, "\u2581Free": 1045, "\u2581aller": 1046, "20": 1047, "\u2581prices": 1048, "\u2581programme": 1049, "\u2581gro\u00dfen": 1050, "mm": 1051, "\u2581technology": 1052, "am": 1053, "\u2581play": 1054, "\u2581various": 1055, "\u2581current": 1056, "\u2581steht": 1057, "\u2581December": 1058, "\u2581Details": 1059, "\u2581companies": 1060, "ler": 1061, "\u2581Region": 1062, "\u2581Hilfe": 1063, "\u2581Bild": 1064, "\u2581fast": 1065, "\u25812017": 1066, "\u2581Frauen": 1067, "00": 1068, "\u2581entfernt": 1069, "\u2581Design": 1070, "j": 1071, "\u2581least": 1072, "\u258126": 1073, "\u2581accordance": 1074, "\u2581News": 1075, "\u2581Flughafen": 1076, "\u2581whole": 1077, "\u2581why": 1078, "\u25813.": 1079, "\u2581night": 1080, "\u2581Not": 1081, "\u2581Auch": 1082, "\u2581davon": 1083, "\u2581France": 1084, "\u2581might": 1085, "\u25812006": 1086, "\u2581sagte": 1087, "30": 1088, "\u2581Software": 1089, "\u2581field": 1090, "\u2581Hand": 1091, "\u2581costs": 1092, "\u2581cooperation": 1093, "\u2581left": 1094, "\u2581specific": 1095, "\u2581related": 1096, "+": 1097, "\u2581become": 1098, "\u2581etwa": 1099, "\u2581From": 1100, "\u2581Nein": 1101, "ness": 1102, "\u25812008": 1103, "\u2581far": 1104, "\u2581Now": 1105, "\u2581daf\u00fcr": 1106, "\u2581Mann": 1107, "\u00e1": 1108, "\u2581Bank": 1109, "\u2581top": 1110, "\u2581action": 1111, "\u2581start": 1112, "\u2581Dezember": 1113, "0": 1114, "me": 1115, "\u2581range": 1116, "\u2581Dieses": 1117, "\u2581GmbH": 1118, "\u2581beiden": 1119, "\u2581Unterst\u00fctzung": 1120, "\u2581Haupt": 1121, "\u25812005": 1122, "\u2581aid": 1123, "\u2581Please": 1124, "\u2581Dieser": 1125, "\u258127": 1126, "ta": 1127, "lichen": 1128, "isch": 1129, "\u2581Ihrer": 1130, "\u2581University": 1131, "\u2581stehen": 1132, "\u2581months": 1133, "\u2581several": 1134, "\u2581health": 1135, "\u2581AG": 1136, "):": 1137, "\u2581state": 1138, "\u2581General": 1139, "\u25812004": 1140, "\u2581political": 1141, "ster": 1142, "\u2581Windows": 1143, "\u2581c": 1144, "Re": 1145, "\u2581Mittel": 1146, "\u2581transport": 1147, "ra": 1148, "\u2581called": 1149, "son": 1150, "\u2581result": 1151, "\u2581Auto": 1152, "\u2581June": 1153, "\u2581side": 1154, "\u258131": 1155, "\u2581Entscheidung": 1156, "ina": 1157, "\u2581problems": 1158, "\u2581Wien": 1159, "\u2581among": 1160, "\u2581four": 1161, "\u2581food": 1162, "\u2581content": 1163, "\u2581Projekt": 1164, "\u2581rules": 1165, "\u2581Verfahren": 1166, "\u2581Mai": 1167, "\u2581subject": 1168, "\u2581let": 1169, "\u2581Umwelt": 1170, "\u2581Bitte": 1171, "\u2581Von": 1172, "\u2581date": 1173, "\u2581Spiele": 1174, "ian": 1175, "\u2581europ\u00e4ischen": 1176, "\u2581women": 1177, "\u2581security": 1178, "\u2581Qualit\u00e4t": 1179, "\u2581bist": 1180, "per": 1181, "8": 1182, "\u2581Juni": 1183, "\u2581requirements": 1184, "\u2581line": 1185, "ik": 1186, "\u2581bzw": 1187, "\u2581Weise": 1188, "\u2581terms": 1189, "\u2581type": 1190, "\u2581je": 1191, "\u2013": 1192, "\u2581L\u00e4nder": 1193, "\u2581t": 1194, "\u2581bieten": 1195, "\u2581legal": 1196, "\u2581sector": 1197, "\u2581increase": 1198, "ine": 1199, "\u2581decision": 1200, "\u2581addition": 1201, "\u2581dort": 1202, "\u2581El": 1203, "\u2581whether": 1204, "\u2581projects": 1205, "\u2581technical": 1206, "\u2581besteht": 1207, "\u2581Name": 1208, "\u00ab": 1209, "end": 1210, "\u2581cannot": 1211, "\u2581gemacht": 1212, "\u2581members": 1213, "ir": 1214, "\u2581single": 1215, "\u2581individual": 1216, "id": 1217, "\u2581tell": 1218, "ungen": 1219, "\u2581position": 1220, "\u2581stay": 1221, "\u2581Parlament": 1222, "\u2581rooms": 1223, "\u2581Hey": 1224, "50": 1225, "\u2581situation": 1226, "\u2581Nacht": 1227, "\u2581regard": 1228, "\u2581gegen\u00fcber": 1229, "\u2581werde": 1230, "\u2581vier": 1231, "\u2581games": 1232, "\u2581Download": 1233, "\u2581About": 1234, "\u2581sicher": 1235, "ierung": 1236, "\u2581THE": 1237, "\u2581macht": 1238, "\u2581needs": 1239, "\u2581Industrie": 1240, "\u2581Schutz": 1241, "\u2581Programm": 1242, "\u2581etc": 1243, "\u2581National": 1244, "\u2581Suche": 1245, "\u2581please": 1246, "\u2581L\u00e4ndern": 1247, "\u2581authorities": 1248, "\u2581region": 1249, "\u2581By": 1250, "\u2581jeder": 1251, "\u2581Don": 1252, "\u2581Pr\u00e4sident": 1253, "\u2581Natur": 1254, "\u2581March": 1255, "\u258129": 1256, "\u2581close": 1257, "ja": 1258, "\u2581weniger": 1259, "\u2581Wirtschafts": 1260, "\u2581befindet": 1261, "\u2581Or": 1262, "\u2581rund": 1263, "\u2581Kunst": 1264, "\u2581personal": 1265, "\u2581young": 1266, "age": 1267, "\u2581problem": 1268, "\u2581came": 1269, "\u2581Partner": 1270, "\u2581sollen": 1271, "\u2581direkt": 1272, "\u2581call": 1273, "\u2581einmal": 1274, "\u2581konnte": 1275, "\u2581ihrem": 1276, "\u2581rate": 1277, "ling": 1278, "\u2581Durch": 1279, "ige": 1280, "\u2581building": 1281, "ti": 1282, "\u2581Bedeutung": 1283, "\u2581Geschichte": 1284, "\u2581due": 1285, "\u2581short": 1286, "\u2581often": 1287, "\u2581Bau": 1288, "\u2581Datei": 1289, "\u2581Also": 1290, "\u2581Anzahl": 1291, "\u2581Juli": 1292, "\u2581clear": 1293, "\u2581Tage": 1294, "\u2581live": 1295, "\u2581yet": 1296, "\u2581natural": 1297, "\u2581February": 1298, "\u2581gilt": 1299, "\u2581Februar": 1300, "\u2581Can": 1301, "\u2581men": 1302, "\u2581Uhr": 1303, "ak": 1304, "\u2581January": 1305, "\u2581material": 1306, "\u2581eigenen": 1307, "ate": 1308, "\u2581Licht": 1309, "\u2581Geld": 1310, "go": 1311, "\u2581include": 1312, "\u2581l": 1313, "\u2581took": 1314, "\u2581Newsletter": 1315, "ca": 1316, "\u2581ca": 1317, "\u2581folgenden": 1318, "\u2581Why": 1319, "la": 1320, "\u2581living": 1321, "\u2581Person": 1322, "15": 1323, "ein": 1324, "\u2581City": 1325, "\u2581unser": 1326, "\u2581easy": 1327, "\u2581Paris": 1328, "\u2581Verf\u00fcgung": 1329, "\u2581according": 1330, "\u2581Kosten": 1331, "\u2581besonders": 1332, "\u2581di": 1333, "\u2581Neu": 1334, "\u2581known": 1335, "\u2581required": 1336, "\u2581besser": 1337, "\u2581co": 1338, "\u2581besten": 1339, "\u2581game": 1340, "\u2581however": 1341, "\u25812002": 1342, "ben": 1343, "\u2581Park": 1344, "\u2581growth": 1345, "7": 1346, "\u2581ex": 1347, "\u2581minutes": 1348, "\u2581helfen": 1349, "\u2581nie": 1350, "men": 1351, "\u2581via": 1352, "\u2581ent": 1353, "berg": 1354, "\u2581language": 1355, "ism": 1356, "@": 1357, "\u2581Januar": 1358, "line": 1359, "EEC": 1360, "ce": 1361, "\u2581daher": 1362, "\u2581October": 1363, "\u2581Israel": 1364, "\u2581works": 1365, "see": 1366, "\u2581heart": 1367, "\u2581thing": 1368, "Y": 1369, "ex": 1370, "\u2581mean": 1371, "\u2581k": 1372, "\u2581July": 1373, "\u2581Umgebung": 1374, "\u2581Check": 1375, "\u2581believe": 1376, "\u2581Airport": 1377, "\u2581Problem": 1378, "\u2581hours": 1379, "\u2581unserem": 1380, "\u2581Arbeits": 1381, "he": 1382, "igen": 1383, "\u2581having": 1384, "\u2581kind": 1385, "\u2581M\u00f6glichkeit": 1386, "ul": 1387, "\u2581money": 1388, "\u2581Oktober": 1389, "li": 1390, "\u2581vielen": 1391, "\u2581Preise": 1392, "\u2581N\u00e4he": 1393, "\u2581land": 1394, "\u2581art": 1395, "\u25812003": 1396, "art": 1397, "\u2581sowohl": 1398, "\u2581Mar": 1399, "\u2581done": 1400, "\u2581la": 1401, "\u2581Parlaments": 1402, "\u2581M\u00e4rz": 1403, "\u2581Staaten": 1404, "\u2581lot": 1405, "\u2581Cookies": 1406, "\u2581education": 1407, "\u2581address": 1408, "\u2581Treaty": 1409, "ci": 1410, "\u2581Me": 1411, "ko": 1412, "\u2581appropriate": 1413, "\u2581geh\u00f6rt": 1414, "ant": 1415, "\u2581Familie": 1416, "\u2581referred": 1417, "ive": 1418, "\u2581Film": 1419, "\u2581adopted": 1420, "out": 1421, "\u2581once": 1422, "\u2581Let": 1423, "\u2581Beschreibung": 1424, "\u2581Annex": 1425, "\u2581Ist": 1426, "\u2581role": 1427, "\u2581Show": 1428, "\u2581meisten": 1429, "Be": 1430, "\u2581developed": 1431, "\u2581beautiful": 1432, "\u2581Ergebnisse": 1433, "\u2581Bewertungen": 1434, "\u2581upon": 1435, "\u258180": 1436, "\u2581respect": 1437, "\u2581especially": 1438, "\u2581visit": 1439, "\u2581stellen": 1440, "\u2581hatten": 1441, "\u2581environment": 1442, "\u2581later": 1443, "\u2581Probleme": 1444, "\u2581unterschiedlich": 1445, "\u2581sea": 1446, "90": 1447, "\u2581details": 1448, "\u2581Musik": 1449, "\u2581h": 1450, "\u2581amount": 1451, "\u2581book": 1452, "\u2581Standard": 1453, "\u2581others": 1454, "\u2581size": 1455, "ac": 1456, "\u2581House": 1457, "\u2581nehmen": 1458, "\u2581Millionen": 1459, "\u2581force": 1460, "\u2581Forschungs": 1461, "\u2581request": 1462, "\u2581doing": 1463, "\u2581original": 1464, "\u2581safety": 1465, "\u2581Durchf\u00fchrung": 1466, "\u2581cases": 1467, "\u2581gonna": 1468, "\u2581modern": 1469, "\u2581risk": 1470, "\u2581pre": 1471, "\u2581hinaus": 1472, "au": 1473, "\u2581Nutzung": 1474, "\u2581team": 1475, "\u2581directly": 1476, "\u2581200": 1477, "\u2581relevant": 1478, "\u2581Top": 1479, "\u2581Rolle": 1480, "\u2581keep": 1481, "EWG": 1482, "\u2581London": 1483, "\u2581didn": 1484, "\u2581final": 1485, "\u2581concerned": 1486, "\u2581software": 1487, "\u2581Here": 1488, "\u00e4": 1489, "\u2581bleiben": 1490, "\u2581key": 1491, "\u2581Zukunft": 1492, "U": 1493, "\u2581government": 1494, "\u2581age": 1495, "\u2581Bewertung": 1496, "\u2581f": 1497, "\u2581dar\u00fcber": 1498, "\u258190": 1499, "\u2581agreement": 1500, "\u2581Gesellschaft": 1501, "\u2581care": 1502, "\u2581Gesamt": 1503, "\u2581implementation": 1504, "mail": 1505, "\u2581proposal": 1506, "\u2581gerade": 1507, "\u2581looking": 1508, "\u2581study": 1509, "\u2581taking": 1510, "\u2581lange": 1511, "12": 1512, "\u2581meet": 1513, "\u2581Seiten": 1514, "\u2581additional": 1515, "\u2581Then": 1516, "\u2581Programme": 1517, "\u2581equipment": 1518, "\u2581Italy": 1519, "\u2581Herrn": 1520, "net": 1521, "\u2581making": 1522, "\u2581Sport": 1523, "\u2581kaufen": 1524, "of": 1525, "\u2581major": 1526, "\u2581f\u00fchren": 1527, "\u2581mu\u00df": 1528, "\u2581schnell": 1529, "\u2581town": 1530, "\u2581makes": 1531, "\u2581Wo": 1532, "\u2581keinen": 1533, "\u2581below": 1534, "\u2581Thema": 1535, "ty": 1536, "\u2581ago": 1537, "\u2581Gruppe": 1538, "\u2581low": 1539, "\u2581Video": 1540, "\u2581matter": 1541, "die": 1542, "\u2581jeden": 1543, "\u2581French": 1544, "\u2581Yes": 1545, "\u2581bekannt": 1546, "\u2581internationalen": 1547, "\u2581Gottes": 1548, "\u2581effect": 1549, "\u2581Management": 1550, "\u2581persons": 1551, "\u2581questions": 1552, "\u2581$": 1553, "\u2581search": 1554, "\u2581Web": 1555, "\u2581Material": 1556, "\u2581nature": 1557, "\u2581Verwendung": 1558, "\u2581meeting": 1559, "\u2581Minuten": 1560, "aus": 1561, "\u2581hoch": 1562, "\u2581provides": 1563, "\u2581Where": 1564, "\u2581Lord": 1565, "\u2581Con": 1566, "\u2581PC": 1567, "\u2581Anhang": 1568, "\u2581plan": 1569, "\u2581network": 1570, "\u2581Product": 1571, "\u2581feel": 1572, "\u2581particularly": 1573, "\u2581Reise": 1574, "\u2581Social": 1575, "\u2581erreichen": 1576, "\u2581Air": 1577, "\u2581big": 1578, "\u2581read": 1579, "\u2581Kultur": 1580, "\u2581performance": 1581, "\u2581provisions": 1582, "\u2581treatment": 1583, "\u2581space": 1584, "\u2581Sprache": 1585, "\u2581sure": 1586, "\u2581itself": 1587, "ad": 1588, "do": 1589, "\u2581u": 1590, "\u2581folgende": 1591, "\u2581sogar": 1592, "\u2581dessen": 1593, "\u2581Wert": 1594, "\u2581Verbindung": 1595, "\u25812001": 1596, "\u2581zeigt": 1597, "\u2581Start": 1598, "\u2581opinion": 1599, "\u2581South": 1600, "11": 1601, "zeit": 1602, "\u2581solution": 1603, "one": 1604, "\u2581Zusammenhang": 1605, "\u2581five": 1606, "\u2581CD": 1607, "\u2581Museum": 1608, "\u00bb": 1609, "\u2581000": 1610, "io": 1611, "25": 1612, "\u2581complete": 1613, "\u2581event": 1614, "ino": 1615, "\u2581weight": 1616, "\u2581Jetzt": 1617, "\u2581Restaurant": 1618, "\u2581Dann": 1619, "\u2581gleich": 1620, "\u2581near": 1621, "\u2581Zum": 1622, "\u2581established": 1623, "\u2581Mein": 1624, "\u2581apply": 1625, "\u2581stand": 1626, "\u2581history": 1627, "\u2581customers": 1628, "\u2581music": 1629, "\u2581West": 1630, "\u2581school": 1631, "\u2581Regierung": 1632, "\u2581verwenden": 1633, "\u2581gab": 1634, "\u2581Platz": 1635, "\u2581Decision": 1636, "\u25814.": 1637, "\u2581Wer": 1638, "\u2581points": 1639, "\u2581employment": 1640, "heit": 1641, "haus": 1642, "\u2581solche": 1643, "\u2581deine": 1644, "\u2581Liste": 1645, "\u2581included": 1646, "\u2581capital": 1647, "ary": 1648, "\u2581centre": 1649, "\u2581DE": 1650, "\u2581ever": 1651, "\u2581Frankreich": 1652, "\u2581Okay": 1653, "Dienstleistungen": 1654, "\u2581unterst\u00fctzt": 1655, "\u2581concerning": 1656, "80": 1657, "zen": 1658, "\u2581Yeah": 1659, "\u2581Services": 1660, "\u2581Forschung": 1661, "\u2581created": 1662, "her": 1663, "40": 1664, "\u2581stellt": 1665, "\u2581wegen": 1666, "60": 1667, "\u2581head": 1668, "ek": 1669, "\u2581groups": 1670, "pa": 1671, "\u2581Republic": 1672, "\u2581Wi": 1673, "\u2581bring": 1674, "ent": 1675, "\u2581His": 1676, "\u2581gesagt": 1677, "\u2581everything": 1678, "\u2581Research": 1679, "\u2581Warum": 1680, "\u2581Data": 1681, "\u2581Facebook": 1682, "\u2581materials": 1683, "bo": 1684, "sa": 1685, "ana": 1686, "\u258170": 1687, "\u2581genannten": 1688, "\u2581create": 1689, "\u2581share": 1690, "\u2581Unsere": 1691, "\u2581gute": 1692, "\u2581Italien": 1693, "auf": 1694, "min": 1695, "\u2581Peter": 1696, "\u2581parts": 1697, "\u2581test": 1698, "\u2581aufgrund": 1699, "\u2581bedeutet": 1700, "\u2581John": 1701, "tel": 1702, "\u2581held": 1703, "\u2581weit": 1704, "\u2581features": 1705, "\u2581along": 1706, "\u2581Einsatz": 1707, "\u2581wichtig": 1708, "\u2581towards": 1709, "\u2581Bilder": 1710, "\u258135": 1711, "\u2581fully": 1712, "est": 1713, "\u2581series": 1714, "\u2581\u00b0": 1715, "so": 1716, "\u2581regional": 1717, "\u2581resources": 1718, "\u2581vielleicht": 1719, "\u2581erst": 1720, "\u2581half": 1721, "\u2581Bezug": 1722, "\u2581Add": 1723, "\u2581Ent": 1724, "\u2581Mutter": 1725, "\u2581genau": 1726, "\u2581Her": 1727, "\u2581average": 1728, "ni": 1729, "\u2581nationalen": 1730, "ren": 1731, "\u2581changes": 1732, "\u2581Transport": 1733, "\u2581fest": 1734, "ium": 1735, "\u2581links": 1736, "\u2581continue": 1737, "\u2581events": 1738, "con": 1739, "\u2581thus": 1740, "\u2581goods": 1741, "\u2581Kraft": 1742, "\u2581says": 1743, "\u2581Y": 1744, "\u2581f\u00fcnf": 1745, "\u2581Zur": 1746, "\u2581Vater": 1747, "\u2581York": 1748, "\u2581procedure": 1749, "\u2581meiner": 1750, "\u2581Blick": 1751, "\u2581anzeigen": 1752, "\u2581seen": 1753, "\u2581OF": 1754, "Das": 1755, "\u2581Sea": 1756, "\u2581Text": 1757, "ier": 1758, "\u2581knowledge": 1759, "\u2581Bedingungen": 1760, "\u2581Court": 1761, "\u2581received": 1762, "ger": 1763, "\u2581oben": 1764, "op": 1765, "\u2581con": 1766, "\u2581Patienten": 1767, "\u2581Vorschlag": 1768, "\u2581entwickelt": 1769, "\u2581sagt": 1770, "\u2581h\u00e4tte": 1771, "\u2581Karte": 1772, "ies": 1773, "\u2581cost": 1774, "eu": 1775, "\u2581thought": 1776, "\u2581Computer": 1777, "\u2581Leute": 1778, "\u2581travel": 1779, "#": 1780, "\u2581500": 1781, "\u2581Per": 1782, "\u2581sp\u00e4ter": 1783, "\u2581Team": 1784, "for": 1785, "16": 1786, "\u2581Mio": 1787, "\u2581strong": 1788, "\u2581kam": 1789, "\u2581higher": 1790, "\u2581Kingdom": 1791, "\u2581member": 1792, "\u2581Buch": 1793, "\u2581Unterkunft": 1794, "\u2581bringen": 1795, "\u00f3": 1796, "\u2581bed": 1797, "\u2581longer": 1798, "\u2581High": 1799, "\u2581verf\u00fcgbar": 1800, "\u2581ECU": 1801, "mo": 1802, "\u2581enth\u00e4lt": 1803, "Q": 1804, "lu": 1805, "\u2581War": 1806, "\u2581Stunden": 1807, "\u2581Prozent": 1808, "\u2581positive": 1809, "\u2581map": 1810, "\u2581ideal": 1811, "tor": 1812, "\u2581zwar": 1813, "\u2581designed": 1814, "\u2581gefunden": 1815, "\u00ed": 1816, "lo": 1817, "\u2581went": 1818, "tra": 1819, "\u2581issues": 1820, "\u2581Just": 1821, "\u2581\u00f6ffentlichen": 1822, "\u2581responsible": 1823, "AL": 1824, "\u2581job": 1825, "24": 1826, "\u2581framework": 1827, "\u2581sent": 1828, "\u2581Grundlage": 1829, "\u2581either": 1830, "\u2581Of": 1831, "\u2581Den": 1832, "\u2581Ko": 1833, "\u2581jedem": 1834, "\u2581leicht": 1835, "\u2581customer": 1836, "95": 1837, "\u2581issue": 1838, "\u2581Browser": 1839, "\u2581Familien": 1840, "\u2581society": 1841, "\u2581zeigen": 1842, "\u2581rental": 1843, "\u2581front": 1844, "\u2581ganze": 1845, "by": 1846, "\u2581comes": 1847, "\u2581nutzen": 1848, "\u2581Login": 1849, "\u2581cookies": 1850, "\u2581considered": 1851, "\u2581Wettbewerb": 1852, "\u2581global": 1853, "\u2581Behandlung": 1854, "\u2581meinen": 1855, "\u2581places": 1856, "\u2581soon": 1857, "\u2581program": 1858, "\u2581Gebiet": 1859, "\u2581user": 1860, "\u2581institutions": 1861, "\u2581reviews": 1862, "01": 1863, "ga": 1864, "\u2581kleine": 1865, "mit": 1866, "system": 1867, "\u2581Weitere": 1868, "9": 1869, "An": 1870, "\u2581verschiedene": 1871, "\u2581wohl": 1872, "\u2581past": 1873, "\u2581version": 1874, "\u2581o": 1875, "\u2581try": 1876, "\u2581Read": 1877, "ut": 1878, "\u2581arbeiten": 1879, "\u2581Liebe": 1880, "\u2581ebenfalls": 1881, "\u2581early": 1882, "\u2581week": 1883, "<": 1884, "\u2581Ar": 1885, "\u2581Ex": 1886, "rs": 1887, "\u2581k\u00f6nnten": 1888, "\u2581L\u00f6sung": 1889, "ard": 1890, "\u2581maximum": 1891, "\u2581choose": 1892, "\u2581tax": 1893, "\u2581Zugang": 1894, "des": 1895, "\u2581standard": 1896, "\u2581Spain": 1897, "\u2581kleinen": 1898, "\u25811999": 1899, "\u2581true": 1900, "\u2581indem": 1901, "\u2581durchgef\u00fchrt": 1902, "\u2581Plan": 1903, "ach": 1904, "\u2581K\u00f6rper": 1905, "\u2581Come": 1906, "\u2581model": 1907, "\u2581\u00ad": 1908, "\u2581Jahres": 1909, ");": 1910, "form": 1911, "70": 1912, "\u2581=": 1913, "ial": 1914, "\u2581media": 1915, "\u2581Angaben": 1916, "\u2581Nur": 1917, "\u2581reason": 1918, "\u2581m\u00f6chten": 1919, "\u2581ask": 1920, "\u258132": 1921, "\u2581erforderlich": 1922, "\u2581Bio": 1923, "\u2581won": 1924, "\u2581added": 1925, "\u2581applications": 1926, "\u2581Jo": 1927, "\u2581Lebens": 1928, "\u2581industrial": 1929, "\u2581Support": 1930, "ance": 1931, "\u2581receive": 1932, "\u2581themselves": 1933, "\u2581almost": 1934, "\u2581video": 1935, "\u2581nothing": 1936, "\u2581send": 1937, "\u2581Back": 1938, "\u2581death": 1939, "\u2581Unternehmens": 1940, "pro": 1941, "\u2581Mo": 1942, "\u2581n\u00e4chsten": 1943, "\u2581Meine": 1944, "\u2581hard": 1945, "\u2581exchange": 1946, "\u2581neu": 1947, "\u2581files": 1948, "\u2581Christ": 1949, "\u2581American": 1950, "\u2581mehrere": 1951, "\u2581Paul": 1952, "ow": 1953, "\u2581jede": 1954, "\u2581mind": 1955, "\u2581facilities": 1956, "Ver": 1957, "\u2581active": 1958, "\u2581property": 1959, "\u2581Ne": 1960, "13": 1961, "\u2581enough": 1962, "\u2581reach": 1963, "\u2581Since": 1964, "\u2581Q": 1965, "\u2581levels": 1966, "14": 1967, "18": 1968, "\u2581direct": 1969, "Der": 1970, "\u2581Hersteller": 1971, "\u2581mg": 1972, "\u2581existing": 1973, "\u2581construction": 1974, "\u2581machine": 1975, "\u2581enthalten": 1976, "\u2581Falun": 1977, "\u2581Universit\u00e4t": 1978, "\u2581EN": 1979, "ungs": 1980, "bau": 1981, "\u2581Ebene": 1982, "\u2581Produktion": 1983, "\u2581words": 1984, "\u2581Shop": 1985, "\u2581Informations": 1986, "\u2581(1)": 1987, "\u2581Raum": 1988, "\u2581wollte": 1989, "\u2581Organisation": 1990, "\u2581standards": 1991, "\u2581Description": 1992, "\u2581liegen": 1993, "\u2581daran": 1994, "\u2581Price": 1995, "\u2581Get": 1996, "tal": 1997, "\u2581check": 1998, "17": 1999, ",\"": 2000, "\u2014": 2001, "less": 2002, "\u2581effective": 2003, "\u2581F\u00f6rderung": 2004, "\u2581Board": 2005, "\u2581suchen": 2006, "\u2581During": 2007, "ES": 2008, "\u2581klar": 2009, "\u2581Wind": 2010, "\u2581road": 2011, "\u2581anti": 2012, "\u2581halten": 2013, "\u2581takes": 2014, "\u2581bar": 2015, "\u2581leave": 2016, "\u2581Themen": 2017, "\u2581understand": 2018, "\u2581Wirtschaft": 2019, "\u2581III": 2020, "\u258145": 2021, "\u2581jobs": 2022, "\u2581location": 2023, "\u2581effects": 2024, "\u2581Mitglieder": 2025, "\u2581Zahl": 2026, "\u2581H\u00f6he": 2027, "\u2581pay": 2028, "\u2581investment": 2029, "\u2581post": 2030, "\u2581outside": 2031, "\u2581Bad": 2032, "\u2581Inter": 2033, "\u2581w\u00fcrden": 2034, "\u2581parties": 2035, "\u2581Medien": 2036, "\u2581turn": 2037, "\u2581v": 2038, "pe": 2039, "ator": 2040, "\u2581similar": 2041, "\u2581einschlie\u00dflich": 2042, "\u2581review": 2043, "ise": 2044, "\u2581workers": 2045, "\u2581Other": 2046, "\u2581insgesamt": 2047, "\u2581potential": 2048, "mal": 2049, "\u2581party": 2050, "ha": 2051, "\u2581accommodation": 2052, "\u2581beste": 2053, "\u2581View": 2054, "ich": 2055, "28": 2056, "\u2581currently": 2057, "\u2581environmental": 2058, "\u2581carried": 2059, "\u2581Reihe": 2060, "\u2581weg": 2061, "\u2581einzelnen": 2062, "\u2581operation": 2063, "\u2581Are": 2064, "\u2581drive": 2065, "\u2581Allah": 2066, "\u2581office": 2067, "\u2581black": 2068, "\u2581published": 2069, "\u2581perfect": 2070, "\u2581table": 2071, "\u2581300": 2072, "\u2581budget": 2073, "\u2581f\u00fchrt": 2074, "\u2581plant": 2075, "\u2581Holz": 2076, "\u2581Tagen": 2077, "\u2581Business": 2078, "\u2581approach": 2079, "\u2581increased": 2080, "po": 2081, "\u2581sub": 2082, "\u2581leben": 2083, "\u2581users": 2084, "\u2581Austria": 2085, "\u2581supply": 2086, "\u2581Telefon": 2087, "\u2581anything": 2088, "\u2581statt": 2089, "\u2581jedes": 2090, "\u2581\u00c4nderung": 2091, "tin": 2092, "\u2581Kirche": 2093, "\u2581uses": 2094, "\u2581erm\u00f6glicht": 2095, "\u2581w\u00e4hlen": 2096, "\u2581Minister": 2097, "\u2581ganzen": 2098, "\u2581told": 2099, "\u2581Beh\u00f6rden": 2100, "\u2581Post": 2101, "\u2581text": 2102, "\u2581oft": 2103, "\u2581erreicht": 2104, "\u2581Wahl": 2105, "\u2581sozialen": 2106, "\u2581inter": 2107, "schutz": 2108, "\u2581Institute": 2109, "\u2581built": 2110, "\u2581solutions": 2111, "\u2581Verf\u00fcgbarkeit": 2112, "%": 2113, "\u2581IN": 2114, "\u2581IT": 2115, "lin": 2116, "\u2581Play": 2117, "\u2581Version": 2118, "\u2581partners": 2119, "bereich": 2120, "We": 2121, "\u2581run": 2122, "99": 2123, "\u2581return": 2124, "\u2581face": 2125, "31": 2126, "35": 2127, "\u2581Spanien": 2128, "\u2581Umsetzung": 2129, "\u2581nat\u00fcrlich": 2130, "\u2581Wort": 2131, "\u2581Keine": 2132, "\u2581Di": 2133, "\u2581talk": 2134, "\u2581North": 2135, "\u2581oil": 2136, "raum": 2137, "\u2581DER": 2138, "\u2581improve": 2139, "\u2581Gold": 2140, "\u2581Center": 2141, "\u00b0": 2142, "\u2581rather": 2143, "\u2581paragraph": 2144, "\u2581central": 2145, "tic": 2146, "\u2581En": 2147, "\u2581analysis": 2148, "\u2581Pre": 2149, "\u2581browser": 2150, "innen": 2151, "\u2581delivery": 2152, "45": 2153, "\u2581Li": 2154, "\u2581regions": 2155, "ting": 2156, "\u2581white": 2157, "\u2581purpose": 2158, "\u2581Luft": 2159, "\u2581Auswahl": 2160, "Fi": 2161, "\u2581Druck": 2162, "\u2581Fa": 2163, "\u2581Technologie": 2164, "\u2581Po": 2165, "\u2581capacity": 2166, "ba": 2167, "\u25811010": 2168, "\u2581David": 2169, "\u2581forward": 2170, "\u2581Verbesserung": 2171, "\u2581film": 2172, "\u2581son": 2173, "\u2581section": 2174, "\u2581hope": 2175, "\u2581CO": 2176, "\u2581Mitglied": 2177, "vor": 2178, "ang": 2179, "\u2581computer": 2180, "\u2581verf\u00fcgt": 2181, "\u2581Villa": 2182, "\u2581frei": 2183, "\u2581Hi": 2184, "\u2581holiday": 2185, "IT": 2186, "los": 2187, "\u2581deutlich": 2188, "TM": 2189, "\u2581competition": 2190, "\u2581Japan": 2191, "time": 2192, "\u2581Portugal": 2193, "\u2581population": 2194, "\u2581Office": 2195, "\u2581Media": 2196, "\u2581gesehen": 2197, "nd": 2198, "\u2581coming": 2199, "26": 2200, "\u2581involved": 2201, "\u2581Who": 2202, "\u2581einigen": 2203, "\u2581Politik": 2204, "\u2581Republik": 2205, "\u2581Waren": 2206, "mon": 2207, "\u2581mindestens": 2208, "\u2581Anforderungen": 2209, "\u2581impact": 2210, "\u2581activity": 2211, "keit": 2212, "\u2581wirtschaftlich": 2213, "\u2581patients": 2214, "yl": 2215, "\u2581weiteren": 2216, "ho": 2217, "21": 2218, "\u2581Selbst": 2219, "\")": 2220, "\u2581Last": 2221, "==": 2222, "\u2581darf": 2223, "\u2581enjoy": 2224, "\u2581century": 2225, "\u2581wide": 2226, "\u2581Finanz": 2227, "\u2581beginning": 2228, "\u2581Zentrum": 2229, "ley": 2230, "\u2581Personal": 2231, "\u2581sofort": 2232, "\u2581dis": 2233, "\u2581Economic": 2234, "\u2581Special": 2235, "\u2581played": 2236, "\u2581lead": 2237, "\u2581Ho": 2238, "\u2581Ha": 2239, "\u2581apartment": 2240, "\u2581K\u00fcche": 2241, "\u2581Interesse": 2242, "\u00e7": 2243, "\u2581Auswirkungen": 2244, "TV": 2245, "\u2581Good": 2246, "\u2581programmes": 2247, "\u2581connection": 2248, "27": 2249, "mer": 2250, "\u2581became": 2251, "\u2581JavaScript": 2252, "\u2581pool": 2253, "tro": 2254, "07": 2255, "\u2581Meer": 2256, "\u2581Development": 2257, "\u2581First": 2258, "55": 2259, "29": 2260, "\u2581shows": 2261, "\u2581Warenkorb": 2262, "\u2581allow": 2263, "\u2581dein": 2264, "\u2581paar": 2265, "tion": 2266, "\u2581processing": 2267, "\u2581double": 2268, "\u25817.": 2269, "sbedingungen": 2270, "\u2581wer": 2271, "\u2581los": 2272, "\u2581center": 2273, "\u2581Sohn": 2274, "\u2581Ad": 2275, "que": 2276, "we": 2277, "\u2581self": 2278, "\u2581basic": 2279, "\u2581idea": 2280, "\u2581Erde": 2281, "\u2581includes": 2282, "\u2581Berg": 2283, "\u2581EC": 2284, "\u2581Angebot": 2285, "\u2581Augen": 2286, "\u2581Bestimmungen": 2287, "\u2581rest": 2288, "les": 2289, "\u2581Ziele": 2290, "\u2581Wochen": 2291, "vo": 2292, "\u2581Fotos": 2293, "\u2581K\u00f6nigreich": 2294, "va": 2295, "\u2581purposes": 2296, "si": 2297, "\u2581Gr\u00f6\u00dfe": 2298, "\u2581latest": 2299, "\u2581Erfahrung": 2300, "\u2581presented": 2301, "\u00fc": 2302, "\u2581legislation": 2303, "\u2581sound": 2304, "\u2581Dinge": 2305, "\u2581Woche": 2306, "\u2581r": 2307, "\u2581communication": 2308, "\u2581Rechts": 2309, "\u2581Some": 2310, "platz": 2311, "\u2581Stellungnahme": 2312, "\u2581internal": 2313, "\u2581Open": 2314, "\u2581started": 2315, "\u2581Agreement": 2316, "\u2581bestimmte": 2317, "\u2581Christian": 2318, "\u2581Wetter": 2319, "\u2581gleichen": 2320, "\u2581Basis": 2321, "\u2581Mac": 2322, "\u2581gegeben": 2323, "23": 2324, "\u2581suitable": 2325, "che": 2326, "\u2581term": 2327, "\u2581unterst\u00fctzen": 2328, "\u2581reference": 2329, "\u2581reasons": 2330, "\u2581Regionen": 2331, "\u2581heraus": 2332, "\u2581Seit": 2333, "ende": 2334, "ft": 2335, "\u2581step": 2336, "\u2581(2)": 2337, "\u2581six": 2338, "\u2581weltweit": 2339, "\u2581pr\u00fcfen": 2340, "US": 2341, "du": 2342, "\u2581progress": 2343, "\u2581en": 2344, "\u2581staff": 2345, "schaft": 2346, "\u2581innovative": 2347, "DE": 2348, "\u2581kg": 2349, "ous": 2350, "\u2581bevor": 2351, "\u2581needed": 2352, "\u2581hab": 2353, "\u2581UN": 2354, "\u2581Gong": 2355, "\u00e4r": 2356, "sk": 2357, "\u2581Black": 2358, "\u2581America": 2359, "\u2581Sun": 2360, "\u2581sieht": 2361, "\u2581Ka": 2362, "\u2581add": 2363, "\u2581stop": 2364, "\u2581bestimmten": 2365, "\u2581pressure": 2366, "\u2581code": 2367, "igkeit": 2368, "\u2581floor": 2369, "\u2581markets": 2370, "\u2581quite": 2371, "\u2581Vergleich": 2372, "\u2581attention": 2373, "\u2581buy": 2374, "\u2581Mitarbeiter": 2375, "\u2581vergessen": 2376, "\u2581meinem": 2377, "\u2581labour": 2378, "\u2581bathroom": 2379, "\u2581child": 2380, "\u2581Flug": 2381, "\u2581context": 2382, "\u2581practice": 2383, "\u2581Policy": 2384, "stand": 2385, "\u2581blood": 2386, "\u2581Alter": 2387, "\u2581Inhalt": 2388, "Wir": 2389, "oder": 2390, "22": 2391, "\u2581spielen": 2392, "\u2581Links": 2393, "\u2581Dank": 2394, "\u2581Sch": 2395, "\u2581professional": 2396, "feld": 2397, "\u2581speed": 2398, "\u2581hinter": 2399, "mar": 2400, "\u2581father": 2401, "\u25811990": 2402, "\u2581unique": 2403, "\u2581Doch": 2404, "\u2581Sa": 2405, "if": 2406, "\u2581steel": 2407, "\u2581brought": 2408, "\u2581ging": 2409, "\u2581zweiten": 2410, "\u2581Anfang": 2411, "\u2581al": 2412, "\u2581Su": 2413, "\u2581across": 2414, "\u2581Test": 2415, "\u2581policies": 2416, "\u2581yourself": 2417, "96": 2418, "\u2581Com": 2419, "\u2581erfahren": 2420, "\u2581previous": 2421, "ais": 2422, "Ich": 2423, "iz": 2424, "\u2581significant": 2425, "\u2581Tri": 2426, "\u2581Hause": 2427, "\u2581Gruppen": 2428, "it\u00e4t": 2429, "\u2581digital": 2430, "\u2581click": 2431, "je": 2432, "\u2581wenig": 2433, "\u2581develop": 2434, "\u2581Hamburg": 2435, "\u2581Central": 2436, "\u2581Au\u00dferdem": 2437, "09": 2438, "\u2581Centre": 2439, "\u2581Nun": 2440, "\u2581wish": 2441, "\u2581simple": 2442, "\u2581processes": 2443, "\u2581W\u00e4hrend": 2444, "\u2581bereit": 2445, "\u2581geh\u00f6ren": 2446, "\u2581follow": 2447, "\u2581Los": 2448, "\u2581entire": 2449, "\u2581gesamten": 2450, "fi": 2451, "\u2581Gas": 2452, "\u2581gas": 2453, "\u2581image": 2454, "\u2581earth": 2455, "\u2581lang": 2456, "\u2581voll": 2457, "\u2581findet": 2458, "\u2581Titel": 2459, "\u2581Vereinigten": 2460, "\u2581partner": 2461, "\u2581Products": 2462, "iv": 2463, "\u2581Foto": 2464, "\u2581move": 2465, "ker": 2466, "\u2581Lo": 2467, "\u2581Vertrag": 2468, "\u2581handelt": 2469, "\u2581Vorschriften": 2470, "\u2581Zeiten": 2471, "\u2581Position": 2472, "\u2581actually": 2473, "\u2581focus": 2474, "\u2581Situation": 2475, "\u2581Jehovah": 2476, "\u2581Party": 2477, "\u2581asked": 2478, "\u2581friends": 2479, "\u2581neben": 2480, "\u2581saw": 2481, "\u2581values": 2482, "\u2581wanted": 2483, "ized": 2484, "gesellschaft": 2485, "\u2581email": 2486, "ale": 2487, "\u2581gleichzeitig": 2488, "\u2581Fehler": 2489, "\u2581cultural": 2490, "\u2581B\u00fcrger": 2491, "\u2581bekommen": 2492, "stein": 2493, "\u2581Menge": 2494, "\u2581weiterhin": 2495, "32": 2496, "\u2581Ma": 2497, "\u2581cover": 2498, "\u2581Je": 2499, "\u2581function": 2500, "\u258133": 2501, "\u2581importance": 2502, "48": 2503, "\u2581seems": 2504, "\u2581rates": 2505, "\u2581message": 2506, "Ge": 2507, "\u2581sales": 2508, "\u2581Ergebnis": 2509, "000": 2510, "ated": 2511, "\u2581neuer": 2512, "\u2581Kategorie": 2513, "\u2581economy": 2514, "\u2581politischen": 2515, "\u2581Red": 2516, "\u2581scheint": 2517, "\u2581Winter": 2518, "\u2581Bildung": 2519, "\u2581Live": 2520, "\u2581darin": 2521, "\u2581IP": 2522, "\u2581EG": 2523, "ov": 2524, "svorschriften": 2525, "\u2581allowed": 2526, "\u2581Sommer": 2527, "\u2581greater": 2528, "\u2581enter": 2529, "\u2581Kon": 2530, "\u2581opportunity": 2531, "\u2581mobile": 2532, "\u2581Twitter": 2533, "\u2581ver\u00f6ffentlicht": 2534, ".\u201c": 2535, "\u2581cities": 2536, "\u2581Italian": 2537, "\u2581employees": 2538, "\u2581whose": 2539, "ER": 2540, "\u2581covered": 2541, "\u2581Verbraucher": 2542, "\u2581walk": 2543, "\u2581structure": 2544, "\u2581studies": 2545, "\u2581weeks": 2546, "wissenschaftlich": 2547, "\u2581erlaubt": 2548, "\u2581methods": 2549, "\u2581Year": 2550, "\u2581Mitgliedstaat": 2551, "\u2581fine": 2552, "\u2581note": 2553, "\u2581beach": 2554, "49": 2555, "ization": 2556, "\u2581applicable": 2557, "\u2581Meter": 2558, "\u2581Barcelona": 2559, "term": 2560, "\u2581hei\u00dft": 2561, "\u258136": 2562, "\u2581Stand": 2563, "\u2581unit": 2564, "\u25811998": 2565, "\u2581payment": 2566, "\u2581difficult": 2567, "\u2581benefit": 2568, "\u2581okay": 2569, "\u2581Grad": 2570, "\u2581Bereichen": 2571, "ismus": 2572, "\u2581Studien": 2573, "\u2581types": 2574, "\u2581Anti": 2575, "\u2581Richtung": 2576, "\u2581guests": 2577, "\u2581sechs": 2578, "\u2581month": 2579, "05": 2580, "ini": 2581, "\u2581Steuer": 2582, "\u2581d\u00fcrfen": 2583, "\u2581hear": 2584, "\u2581l\u00e4sst": 2585, "za": 2586, "entwicklung": 2587, "\u2581items": 2588, "\u2581G\u00e4ste": 2589, "\u2581Book": 2590, "\u2581wind": 2591, "\u2581Bev\u00f6lkerung": 2592, "\u2581Company": 2593, "\u2581kannst": 2594, "\u2581Code": 2595, "\u2581collection": 2596, "\u2581Anfrage": 2597, "\u2581Rechte": 2598, "\u2581tragen": 2599, "\u2581Schritt": 2600, "\u2581Verwaltung": 2601, "\u2581Aktivit\u00e4ten": 2602, "?\"": 2603, "\u2581Ra": 2604, "\u2581gar": 2605, "\u2581miles": 2606, "\u2581Chinese": 2607, "\u2581agricultural": 2608, "\u2581M\u00f6glichkeiten": 2609, "\u2581equipped": 2610, "\u2581station": 2611, "ative": 2612, "ish": 2613, "\u2581leading": 2614, "\u2581airport": 2615, "\u2581Antwort": 2616, "\u2581WLAN": 2617, "ating": 2618, "\u2581Farbe": 2619, "\u2581transfer": 2620, "\u2581Sinne": 2621, "\u2581OJ": 2622, "\u2581befinden": 2623, "\u2581150": 2624, "\u2581essential": 2625, "\u2581Martin": 2626, "\u2581Boden": 2627, "\u2581Besch\u00e4ftigung": 2628, "\u2581Band": 2629, "\u2581Sicherheits": 2630, "ring": 2631, "\u2581ground": 2632, "\u2581Val": 2633, "\u2581though": 2634, "Ver\u00f6ffentlichung": 2635, "\u2581wobei": 2636, "ron": 2637, "mp": 2638, "\u2581Benutzer": 2639, "\u2581ge\u00e4ndert": 2640, "\u2581wrong": 2641, "\u2581extra": 2642, "\u2581lower": 2643, "\u2581Danke": 2644, "\u2581doesn": 2645, "\u2581dar": 2646, "\u2581brauchen": 2647, "\u2581paper": 2648, "\u2581Strand": 2649, "\u2581shown": 2650, "zi": 2651, "\u2581Landes": 2652, "\u2581produced": 2653, "\u2581Green": 2654, "\u2581kitchen": 2655, "75": 2656, "\u2581authority": 2657, "\u2581insurance": 2658, "\u2581Datenschutz": 2659, "\u2581option": 2660, "\u2581Pr\u00fcfung": 2661, "\u2581Sir": 2662, "\u2581Projekte": 2663, "\u2581Geist": 2664, "St": 2665, "\u2581Wein": 2666, "\u2581principle": 2667, "\u2581Ben": 2668, "ite": 2669, "\u2581Bo": 2670, "\u2581Ausbildung": 2671, "\u2581word": 2672, "ED": 2673, "\u00e8": 2674, "\u2581sprechen": 2675, "\u2581Privacy": 2676, "tu": 2677, "\u2581laid": 2678, "ierte": 2679, "33": 2680, "\u2581Systems": 2681, "\u2581Gesundheit": 2682, "isierung": 2683, "\u2581Schweiz": 2684, "\u2581news": 2685, "\u2581lernen": 2686, "\u2581Link": 2687, "\u25811995": 2688, "\u2581Garten": 2689, "\u2581cross": 2690, "\u2581safe": 2691, "!\"": 2692, "\u2581\u00e4ndern": 2693, "\u2581web": 2694, "\u2581del": 2695, "38": 2696, "\u2581behind": 2697, "\u2581learn": 2698, "\u2581source": 2699, "\u2581operating": 2700, "\u2581immediately": 2701, "\u2581Dateien": 2702, "isten": 2703, "\u2581procedures": 2704, "\u2581Einrichtungen": 2705, "\u2581stage": 2706, "\u2581village": 2707, "\u2581students": 2708, "schen": 2709, "\u2581entsprechend": 2710, "\u2581East": 2711, "\u2581Blut": 2712, "plan": 2713, "fer": 2714, "\u2581\u00e4hnliche": 2715, "\u2581beide": 2716, "\u2581Thank": 2717, "\u2581100%": 2718, "car": 2719, "\u2581Monaten": 2720, "\u2581weather": 2721, "\u2581peace": 2722, "\u2581\u00d6sterreich": 2723, "\u2581strategy": 2724, "\u2581Switzerland": 2725, "weg": 2726, "\u2581decided": 2727, "\u2581St\u00e4dte": 2728, "rat": 2729, "isation": 2730, "\u2581Press": 2731, "\u2581Zeitpunkt": 2732, "\u2581shop": 2733, "\u201c,": 2734, "\u2581bestimmt": 2735, "\u00df": 2736, "\u2581wichtige": 2737, "\u2581recent": 2738, "\u2581Monate": 2739, "\u2581normal": 2740, "ius": 2741, "\u2581contains": 2742, "\u2581allein": 2743, "\u2581Ca": 2744, "\u2581community": 2745, "\u2581Kind": 2746, "\u2581wine": 2747, "\u2581download": 2748, "\u2581Handels": 2749, "46": 2750, "36": 2751, "44": 2752, "bel": 2753, "93": 2754, "\u2581foreign": 2755, "qui": 2756, "\u2581nice": 2757, "\u2581Gesch\u00e4fts": 2758, "\u2581regarding": 2759, "08": 2760, "\u2581completely": 2761, "\u2581CHF": 2762, "\u2581throughout": 2763, "sion": 2764, "\u2581Webseite": 2765, "\u2581benefits": 2766, "\u2581Ro": 2767, "\u2581temperature": 2768, "\u2581limited": 2769, "34": 2770, "\u2581red": 2771, "\u2581bleibt": 2772, "\u2581rise": 2773, "\u2581gemeinsamen": 2774, "del": 2775, "\u2581glaube": 2776, "\u2581entsprechenden": 2777, "\u2581Church": 2778, "\u2581simply": 2779, "\u0301": 2780, "\u2581Unser": 2781, "\u2581Max": 2782, "\u2581sprach": 2783, "\u2581warum": 2784, "\u2581deal": 2785, "\u25811997": 2786, "\u2581resolution": 2787, "\u2581Leistung": 2788, "\u2581Swiss": 2789, "\u2581proposed": 2790, "\u2581article": 2791, "\u2581Michael": 2792, "\u2581storage": 2793, "\u2581Passwort": 2794, "\u2581gave": 2795, "37": 2796, "\u2581M\u00e4nner": 2797, "\u2581wichtigsten": 2798, "ING": 2799, "\u2581lesen": 2800, "\u2581Share": 2801, "\u2581Sozial": 2802, "\u2581board": 2803, "\u2581moment": 2804, "\u2581Neben": 2805, "85": 2806, "\u2581gemeinsam": 2807, "\u2581class": 2808, "\u2581Maria": 2809, "\u2581richtig": 2810, "\u2581mother": 2811, "\u2581extension": 2812, "\u00c3": 2813, "65": 2814, "\u2581hotels": 2815, "\u2581Mrs": 2816, "\u2581himself": 2817, "\u2581Lebensmittel": 2818, "\u2581applied": 2819, "\u2581Kopf": 2820, "\u2581technischen": 2821, "\u2581K\u00f6nig": 2822, "\u2581hohe": 2823, "werk": 2824, "\u2581(\"": 2825, "\u2581Zeichen": 2826, "\u2581Geb\u00e4ude": 2827, "\u2581T\u00e4tigkeit": 2828, "\u2581allows": 2829, "\u2581Gemeinde": 2830, "\u2581Port": 2831, "\u00fcr": 2832, "\u2581anderer": 2833, "\u2581Produktions": 2834, "\u2581components": 2835, "\u2581stock": 2836, "\u2581Abschnitt": 2837, "\u2581Innovation": 2838, "\u2581success": 2839, "\u2581Print": 2840, "43": 2841, "\u2581former": 2842, "\u2581\u00ab": 2843, "\u2581App": 2844, "\u2581Erfolg": 2845, "\u2581England": 2846, "\u2581Lager": 2847, "\u2581demand": 2848, "\u2581Angebote": 2849, "64": 2850, "\u2581Herz": 2851, "\u2581annual": 2852, "\u2581Power": 2853, "\u2581Tour": 2854, "\u2581documents": 2855, "\u258165": 2856, "\u2581card": 2857, "ities": 2858, "all": 2859, "\u2581\u00c4nderungen": 2860, "2,": 2861, "ide": 2862, "\u2581Beitrag": 2863, "ph": 2864, "unternehmen": 2865, "\u2581Forum": 2866, "\u2581Stelle": 2867, "\u2581phone": 2868, "\u2581Abend": 2869, "\u2581reports": 2870, "\u2581Stellen": 2871, "\u2581Englisch": 2872, "\u2581M\u00e4dchen": 2873, "\u2581Vorteile": 2874, "\u2581seines": 2875, "industrie": 2876, "\u2581ready": 2877, "\u2581Look": 2878, "92": 2879, "druck": 2880, "\u2581Ri": 2881, "\u2581forms": 2882, "technik": 2883, "\u2581stark": 2884, "\u2581Ireland": 2885, "\u2581choice": 2886, "\u2581Up": 2887, "ny": 2888, "\u2581Deutsche": 2889, "\u2581Such": 2890, "\u2581highly": 2891, "\u2581UK": 2892, "\u2581Arten": 2893, "\u2581quickly": 2894, "\u2581Prozess": 2895, "\u2581notwendig": 2896, "ID": 2897, "\u2581internationale": 2898, "\u2581Find": 2899, "\u2581document": 2900, "\u2581external": 2901, "\u258175": 2902, "\u25811996": 2903, "\u2581schaffen": 2904, "ON": 2905, "\u2581entry": 2906, "\u2581Damit": 2907, "ari": 2908, "\u2581popular": 2909, "\u2581Room": 2910, "ot": 2911, "lage": 2912, "\u2581morning": 2913, "\u2581loss": 2914, "\u2581Lu": 2915, "\u2581Mi": 2916, "\u2581Kontrolle": 2917, "\u2581Pe": 2918, "\u2581hohen": 2919, "\u2581objectives": 2920, "\u2581woman": 2921, "\u2581summer": 2922, "\u2581citizens": 2923, "94": 2924, "dy": 2925, "\u2581Because": 2926, "\u00f6": 2927, "\u2581answer": 2928, "\u2581Se": 2929, "\u2581direction": 2930, "\u2581alone": 2931, "\u2581Arbeiten": 2932, "\u2581Wohnung": 2933, "\u2581Typ": 2934, "\u2581Blog": 2935, "ap": 2936, "sche": 2937, "\u2581konnten": 2938, "77": 2939, "burg": 2940, "\u2581item": 2941, "\u00f1": 2942, "\u2581Neue": 2943, "\u2581End": 2944, "\u2581Day": 2945, "\u2581europ\u00e4ische": 2946, "sh": 2947, "stellen": 2948, "q": 2949, "\u2581defined": 2950, "\u2581Radio": 2951, "ell": 2952, "\u2581Gut": 2953, "\u2581Security": 2954, "\u2581achieve": 2955, "\u2581gives": 2956, "\u2581Anteil": 2957, "\u2581F\u00e4llen": 2958, "\u2581Mietwagen": 2959, "\u2581gewesen": 2960, "\u2581length": 2961, "\u2581Zeitraum": 2962, "\u2581Insel": 2963, "IN": 2964, "\u2581Africa": 2965, "1/": 2966, "\u2581movement": 2967, "\u2581wood": 2968, "ken": 2969, "\u2581sense": 2970, "\u2581Gewicht": 2971, "markt": 2972, "\u258101": 2973, "\u2581gemeinsame": 2974, "daten": 2975, "\u2581Herstellung": 2976, "our": 2977, "\u2581multi": 2978, "\u2581relating": 2979, "41": 2980, "\u2581Super": 2981, "\u2581eigene": 2982, "\u2581Presse": 2983, "\u2581daily": 2984, "\u2581Macht": 2985, "\u2581Nord": 2986, "\u2581Regel": 2987, "ert": 2988, "bi": 2989, "\u2581kennen": 2990, "\u2581info": 2991, "\u2581Au": 2992, "\u2581successful": 2993, "\u2581cause": 2994, "Er": 2995, "tes": 2996, "\u2581charge": 2997, "\u2581responsibility": 2998, "\u2581ten": 2999, "\u2581Badezimmer": 3000, "\u2581gelten": 3001, "Ein": 3002, "\u2581Ni": 3003, "\u2581beispielsweise": 3004, "\u2581gerne": 3005, "\u2581Bull": 3006, "\u2581menu": 3007, "\u2581waste": 3008, "\u2581unten": 3009, "\u2581views": 3010, "\u2581Einf\u00fchrung": 3011, "\u2581complex": 3012, "9/": 3013, "politik": 3014, "\u2581select": 3015, "\u2581trip": 3016, "This": 3017, "tag": 3018, "98": 3019, "\u2581Chi": 3020, "ence": 3021, "ien": 3022, "ei": 3023, "\u2581Skip": 3024, "\u2581Netherlands": 3025, "ong": 3026, "bank": 3027, "\u2581Funktion": 3028, "\u2581friend": 3029, "\u2581fair": 3030, "\u2581instruments": 3031, "\u2581culture": 3032, "\u20ac": 3033, "\u2581Haut": 3034, "\u2581zehn": 3035, "\u2581bad": 3036, "\u2581Having": 3037, "rad": 3038, "\u2581Kar": 3039, "8/": 3040, "ec": 3041, "\u2581Private": 3042, "\u258111.": 3043, "\u2581animals": 3044, "\u2581shopping": 3045, "86": 3046, "\u2581traditional": 3047, "\u2581elements": 3048, "\u2581paid": 3049, "\u2581K\u00fcnstler": 3050, "\u2581vehicle": 3051, "\u258134": 3052, "\u258148": 3053, "based": 3054, "heim": 3055, "\u2581verbessern": 3056, "100": 3057, "\u2581Meinung": 3058, "\u2581Hoch": 3059, "\u2581Startseite": 3060, "\u2581ABl": 3061, "06": 3062, "\u2581estate": 3063, "\u2581ausgestattet": 3064, "\u2581erkl\u00e4rt": 3065, "\u2581ihres": 3066, "ag": 3067, "\u2581Saint": 3068, "\u2581alten": 3069, "\u2581official": 3070, "ice": 3071, "\u2581Urlaub": 3072, "\u2581festgelegt": 3073, "\u2581developing": 3074, "\u25811992": 3075, "cm": 3076, "\u2581L\u00f6sungen": 3077, "\u2581easily": 3078, "\u2581consumption": 3079, "ug": 3080, "6/": 3081, "\u2581excellent": 3082, "\u2581expected": 3083, "\u2581act": 3084, "port": 3085, "\u2581cut": 3086, "\u2581garden": 3087, "\u2581guten": 3088, "\u2581deshalb": 3089, "\u258155": 3090, "\u2581assistance": 3091, "\u2581commercial": 3092, "\u2581surface": 3093, "\u2581Herausforderung": 3094, "\u2581parking": 3095, "-10": 3096, "\u2581politische": 3097, "\u2581method": 3098, "recht": 3099, "\u2581Server": 3100, "\u2581Tor": 3101, "\u2581verbunden": 3102, "wert": 3103, "mittel": 3104, "\u2581fields": 3105, "\u2581guarantee": 3106, "\u2581separate": 3107, "\u258138": 3108, "\u25811994": 3109, "org": 3110, "\u2581Hinblick": 3111, "47": 3112, "\u2581climate": 3113, "\u2581Herzen": 3114, "\u2581setzen": 3115, "ip": 3116, "\u2581proposals": 3117, "\u2581contract": 3118, "\u2581Report": 3119, "\u2581Wahrheit": 3120, "lan": 3121, "\u2581Eigenschaften": 3122, "La": 3123, "ah": 3124, "\u2581tut": 3125, "\u2581Sam": 3126, "\u2581Events": 3127, "\u2581Punkt": 3128, "\u2581agree": 3129, "way": 3130, "ki": 3131, "\u2581actions": 3132, "\u2581consider": 3133, "\u00fcber": 3134, "\u2581lost": 3135, "\u2581Himmel": 3136, "iger": 3137, "2/": 3138, "\u201c.": 3139, "\u2581Vi": 3140, "\u2581assessment": 3141, "ou": 3142, "\u2581Apartment": 3143, "ette": 3144, "De": 3145, "\u2581Tod": 3146, "\u2581ways": 3147, "\u2581remain": 3148, "89": 3149, "\u2581LED": 3150, "\u2581integrated": 3151, "gi": 3152, "\u2581Analyse": 3153, "fa": 3154, "Sie": 3155, "\u2581Versand": 3156, "\u2581inside": 3157, "\u2581written": 3158, "exe": 3159, "\u2581kurz": 3160, "\u2581Modell": 3161, "\u2581welcome": 3162, "39": 3163, "\u2581credit": 3164, "\u2581selected": 3165, "\u2581sch": 3166, "\u2581Maschinen": 3167, "\u2581Finanzierung": 3168, "ding": 3169, "ven": 3170, "\u2581balance": 3171, "ure": 3172, "66": 3173, "\u2581Kindern": 3174, "\u2581Alles": 3175, "\u2581Landwirtschaft": 3176, "\u2581Brussels": 3177, "\u2581opening": 3178, "\u2581heard": 3179, "\u2581Spielen": 3180, "\u2581Sign": 3181, "len": 3182, "\u2581serious": 3183, "\u2581sustainable": 3184, "tz": 3185, "kon": 3186, "\u2581Denn": 3187, "\u2581Ob": 3188, "It": 3189, "42": 3190, "\u2581efforts": 3191, "\u2581gestellt": 3192, "\u2581base": 3193, "\u2581debate": 3194, "\u25811993": 3195, "\u2581truth": 3196, "\u2581erfolgt": 3197, "\u2581accept": 3198, "\u2581Star": 3199, "val": 3200, "\u2581Par": 3201, "\u2581R\u00fcck": 3202, "\u2581medium": 3203, "\u2581link": 3204, "\u2581saying": 3205, "\u2581Club": 3206, "\u2581sale": 3207, "\u2581Frankfurt": 3208, "2013": 3209, "\u2581states": 3210, "\u2581Professor": 3211, "\u2581Convention": 3212, "\u2581treffen": 3213, "\u2581Datum": 3214, "\u2581glass": 3215, "\u2581device": 3216, "\u2581joint": 3217, "\u2581creation": 3218, "\u2581met": 3219, "\u2581Nummer": 3220, "\u2581verstehen": 3221, "\u2581soziale": 3222, "\u2581Quelle": 3223, "\u2581besuchen": 3224, "\u2581clearly": 3225, "\u2581ad": 3226, "\u2581Zwei": 3227, "\u2581else": 3228, "\u2581Cor": 3229, "\u2581minimum": 3230, "\u2581gro\u00dfer": 3231, "\u2581scientific": 3232, "\u2581aim": 3233, "\u2581Fund": 3234, "\u2581gesamte": 3235, "\u2581Betrieb": 3236, "ning": 3237, "\u2581Moment": 3238, "hof": 3239, "\u2581models": 3240, "\u2581remember": 3241, "ons": 3242, "\u2581Anmelden": 3243, "ischer": 3244, "\u258185": 3245, "\u2581picture": 3246, "\u2581skin": 3247, "\u2581Dar\u00fcber": 3248, "\u2581erm\u00f6glichen": 3249, "\u2581Kapitel": 3250, "\u2581Weiter": 3251, "\u258120.": 3252, "\u2581Verkauf": 3253, "\u2581administrative": 3254, "satz": 3255, "88": 3256, "\u2581White": 3257, "\u2581Mark": 3258, "\u2581fire": 3259, "\u2581Energy": 3260, "gel": 3261, "\u2581medical": 3262, "\u25816.": 3263, "\u2581Only": 3264, "\u2581Breakfast": 3265, "\u00f6l": 3266, "ano": 3267, "\u2581remove": 3268, "ika": 3269, "\u2581Integration": 3270, "uk": 3271, "\u2581Main": 3272, "\u2581Glas": 3273, "\u2581Life": 3274, "\u2581category": 3275, "\u2581decisions": 3276, "side": 3277, "ierten": 3278, "\u2581plus": 3279, "\u2581eingesetzt": 3280, "\u2581criteria": 3281, "\u2581deutschen": 3282, "\u2581Teilen": 3283, "\u2581green": 3284, "\u2581St\u00fcck": 3285, "\u2581Sonder": 3286, "\u2581Most": 3287, "\u2581schreiben": 3288, "\u2581ml": 3289, "\u2581box": 3290, "\u2581offered": 3291, "\u2581largest": 3292, "\u2581save": 3293, "ps": 3294, "\u2581Ru": 3295, "\u2581Van": 3296, "\u2581Festival": 3297, "\u2581Aufgaben": 3298, "\u2581anderem": 3299, "\u2581rein": 3300, "arbeit": 3301, "\u2581Roman": 3302, "\u2581jemand": 3303, "\u2581overall": 3304, "\u2581Jahrhundert": 3305, "\u2581Handel": 3306, "\u2581lives": 3307, "\u2581400": 3308, "ful": 3309, "\u2581Institut": 3310, "fe": 3311, "\u2581billion": 3312, "bild": 3313, "\u2581bit": 3314, "\u2581Mer": 3315, "\u2581press": 3316, "day": 3317, "\u2581Aufenthalt": 3318, "\u2581operations": 3319, "\u2581Zur\u00fcck": 3320, "\u2581providing": 3321, "\u2581Jan": 3322, "\u2581listed": 3323, "\u2581Risiko": 3324, "\u2581evaluation": 3325, "\u2581meaning": 3326, "\u2581interested": 3327, "3/": 3328, "76": 3329, "\u2581Time": 3330, "\u2581dead": 3331, "\u2581Folge": 3332, "\u2581programs": 3333, "chi": 3334, "\u2581Installation": 3335, "04": 3336, "67": 3337, "elle": 3338, "\u2581Prof": 3339, "\u2581erstellt": 3340, "\u2581wife": 3341, "\u2581alt": 3342, "7/": 3343, "ub": 3344, "ita": 3345, "\u2581happy": 3346, "\u258137": 3347, "\u2581jeweiligen": 3348, "\u2581Master": 3349, "\u2581Pan": 3350, "\u2581Komm": 3351, "\u2581nimmt": 3352, "\u2581Thomas": 3353, "\u2581Luxembourg": 3354, "sf\u00e4higkeit": 3355, "ham": 3356, "\u2581Santa": 3357, "\u258117.": 3358, "\u2581betreffenden": 3359, "\u2581getting": 3360, "\u2581highest": 3361, "\u2581somit": 3362, "\u2581hinsichtlich": 3363, "\u2581famous": 3364, "\u2581Mensch": 3365, "\u2581Nachrichten": 3366, "bit": 3367, "\u2581Gesundheits": 3368, "\u2581whom": 3369, "\u2581Wachstum": 3370, "\u2581Untersuchung": 3371, "pre": 3372, "57": 3373, "\u2581allgemeinen": 3374, "\u2581born": 3375, "\u2581Grand": 3376, "zer": 3377, "\u2581folgt": 3378, "\u2581amended": 3379, "ins": 3380, "\u2581selection": 3381, "\u2581Sitz": 3382, "ya": 3383, "97": 3384, "\u2581Number": 3385, "\u2581versuchen": 3386, "\u2581reduce": 3387, "\u00b7": 3388, "ri": 3389, "\u2581se": 3390, "\u2581Betriebs": 3391, "\u2581vehicles": 3392, "\u2581compared": 3393, "\u2581\u00d6l": 3394, "\u2581allerdings": 3395, "\u25815.": 3396, "\u2581interests": 3397, "\u2581color": 3398, "tre": 3399, "\u2581pages": 3400, ".12.": 3401, "\u2581password": 3402, "\u2581comments": 3403, "\u2581Struktur": 3404, "\u2581objective": 3405, "fall": 3406, "\u2581someone": 3407, "kommen": 3408, "ep": 3409, "\u2581Sache": 3410, "\u2581Restaurants": 3411, "set": 3412, "ord": 3413, "\u2581Photo": 3414, "\u2581Essen": 3415, "\u2581Freund": 3416, "\u2581Arbeitnehmer": 3417, "\u2581Werk": 3418, "\u2581options": 3419, "\u2581schwer": 3420, "\u2581hands": 3421, "ised": 3422, "\u2581getan": 3423, "\u2581Seine": 3424, "\u2581detailed": 3425, "\u258119.": 3426, "\u2581Gu": 3427, "\u2581zus\u00e4tzliche": 3428, "\u2581Date": 3429, "\u2581plants": 3430, "uch": 3431, "pf": 3432, "\u2581ebenso": 3433, "\u2581Beginn": 3434, "\u2581Besucher": 3435, "59": 3436, "\u2581Buchstabe": 3437, "\u2581distribution": 3438, "\u2581Tier": 3439, "\u2581teilen": 3440, "\u2581glauben": 3441, "\u2581integration": 3442, "\u2581Stein": 3443, "\u2581civil": 3444, "\u2581granted": 3445, "You": 3446, "\u2581alternative": 3447, "\u2581networks": 3448, "\u2581Therefore": 3449, "\u2581principles": 3450, "\u2581Teile": 3451, "\u2581Erfahrungen": 3452, "\u2581breakfast": 3453, "\u2581style": 3454, "\u2581zweite": 3455, "\u2581genug": 3456, "\u2581season": 3457, "\u2581nor": 3458, "\u2581crisis": 3459, "\u2581images": 3460, "\u2581installed": 3461, "\u2581usw": 3462, "\u2581watch": 3463, "\u2581euro": 3464, "\u2581Customer": 3465, "buch": 3466, "\u2581Fran": 3467, "\u2581IV": 3468, "\u2581entwickeln": 3469, "\u2581Greece": 3470, "IA": 3471, "\u2581Ski": 3472, "56": 3473, "\u2581concept": 3474, "\u2581began": 3475, "don": 3476, "\u2581thanks": 3477, "\u2581Aufgabe": 3478, "\u2581Wissenschaft": 3479, "\u2581late": 3480, "\u2581Bis": 3481, "\u2581church": 3482, "\u2581mag": 3483, "\u2581opportunities": 3484, "\u2581Feld": 3485, "\u2581Verhandlungen": 3486, "rate": 3487, "\u2581Vielleicht": 3488, "\u2581Best": 3489, "\u2581Staats": 3490, "\u2581Log": 3491, "\u2581technologies": 3492, "stellung": 3493, "\u2581Dusche": 3494, "old": 3495, "\u2581equal": 3496, "\u2581Sub": 3497, "AT": 3498, "\u2581tool": 3499, "IP": 3500, "\u2581establishing": 3501, "\u2581promote": 3502, "\u2581monitoring": 3503, "IL": 3504, "\u2581Ta": 3505, "\u2581contribution": 3506, "5/": 3507, "\u2581Station": 3508, "\u2581einzige": 3509, "\u2581freedom": 3510, "\u2581Einzel": 3511, "Sch": 3512, "\u2581letzte": 3513, "ations": 3514, "\u2581setting": 3515, "\u25818.": 3516, "\u2581animal": 3517, "\u2581worked": 3518, "\u2581w": 3519, "\u2581Job": 3520, "rie": 3521, "\u2581Farben": 3522, "\u2581Dienst": 3523, "sp": 3524, "\u2581Men": 3525, "\u2581Sal": 3526, "\u2581lack": 3527, "ran": 3528, "\u2581Mitte": 3529, "\u2581ones": 3530, "lichkeit": 3531, "\u2581h\u00e4ufig": 3532, "\u2581sorry": 3533, "EL": 3534, "log": 3535, "\u2018": 3536, "\u2581gebracht": 3537, "\u258139": 3538, "\u2581solchen": 3539, "\u2581buchen": 3540, "wa": 3541, "\u2581exhibition": 3542, "\u2581Eltern": 3543, "\u2581Te": 3544, "\u2581Use": 3545, "\u2581competent": 3546, "\u2581According": 3547, "\u2581intended": 3548, "\u2581bodies": 3549, "\u2581Russian": 3550, "\u2581Volk": 3551, "\u2581fish": 3552, "\u2581au\u00dfer": 3553, "\u2581photo": 3554, "\u2581Spanish": 3555, "\u2581Madrid": 3556, "\u258142": 3557, "\u2581Funktionen": 3558, "\u2581properties": 3559, "\u2581Hu": 3560, "\u2581funds": 3561, "\u2581Wirkung": 3562, "\u2581steps": 3563, "\u2581Health": 3564, "\u2581n\u00e4mlich": 3565, "\u2581Studie": 3566, "\u2581au\u00dferdem": 3567, "ud": 3568, "\u2581vorhanden": 3569, "\u2581Homepage": 3570, "not": 3571, "\u2581falls": 3572, "\u2581Info": 3573, "\u2581regards": 3574, "hr": 3575, "\u2581erster": 3576, "-1": 3577, "\u2581Fr\u00fchst\u00fcck": 3578, "\u2581Anbieter": 3579, "\u2581requests": 3580, "ani": 3581, "\u2581Impressum": 3582, "year": 3583, "\u2581opened": 3584, "ella": 3585, "\u2581eyes": 3586, "\u2581fun": 3587, "\u2581Email": 3588, "\u2581Vienna": 3589, "\u2581destination": 3590, "2014": 3591, "\u2581Tra": 3592, "\u2581Erzeugnisse": 3593, "\u2581geeignet": 3594, "4/": 3595, "UNG": 3596, "\u2581Shipping": 3597, "\u2581Daher": 3598, "\u2581People": 3599, "\u2581agreements": 3600, "\u2581Total": 3601, "\u2581Tochter": 3602, "\u2581everyone": 3603, "\u2581bringt": 3604, "\u2581lines": 3605, "\u2581interesting": 3606, "\u2581PDF": 3607, "Es": 3608, "\u2581Mon": 3609, "\u2581ha": 3610, "ura": 3611, "\u2581Thanks": 3612, "\u2581Bus": 3613, "kel": 3614, "\u2581Technology": 3615, "\u2581Ordnung": 3616, "\u2581Beziehungen": 3617, "\u2581happened": 3618, "SA": 3619, "\u2581Schl\u00fcssel": 3620, "\u2581Fach": 3621, "\u2581Hans": 3622, "So": 3623, "\u2581Bed": 3624, "\u2581Blumen": 3625, "$": 3626, "\u2581geworden": 3627, "\u2581regular": 3628, "\u2581Rom": 3629, "CO": 3630, "\u2581Tabelle": 3631, "\u2581Global": 3632, "ski": 3633, "\u2581efficiency": 3634, "ck": 3635, "\u2581zust\u00e4ndigen": 3636, "\u2581Availability": 3637, "\u2581booking": 3638, "\u2581led": 3639, "\u2581associated": 3640, "\u2581Dabei": 3641, "2)": 3642, "\u2581Part": 3643, "\u2581restaurant": 3644, "\u2581prevent": 3645, ".\u201d": 3646, "\u2581n": 3647, "\u2581probably": 3648, "\u2581Island": 3649, "\u2581trying": 3650, "\u2581hair": 3651, "87": 3652, "\u2581speak": 3653, "bach": 3654, "\u2581v\u00f6llig": 3655, "\u2581erf\u00fcllt": 3656, "ick": 3657, "\u2581USD": 3658, "\u2581Even": 3659, "RE": 3660, "\u2581Multi": 3661, "\u2581gold": 3662, "\u2581Ober": 3663, "\u2581enable": 3664, "54": 3665, "\u2581sectors": 3666, "\u2581Verantwortung": 3667, "\u2581bank": 3668, "69": 3669, "\u2581Marken": 3670, "ok": 3671, "\u2581empfehlen": 3672, "ros": 3673, "\u2581AND": 3674, "\u2581Music": 3675, "test": 3676, "58": 3677, "\u2581Ansicht": 3678, "2.": 3679, "\u2581combination": 3680, "\u2581spielte": 3681, "material": 3682, "SE": 3683, "\u00f6r": 3684, "\u2581Leistungen": 3685, "vis": 3686, "\u2581Set": 3687, "\u2581jeweils": 3688, "ted": 3689, "\u2581School": 3690, "\u2581hold": 3691, "\u2581Brand": 3692, "\u2581species": 3693, "\u2581reached": 3694, "\u2581expenditure": 3695, "-2": 3696, "\u2581Federal": 3697, "km": 3698, "bus": 3699, "\u2581pass": 3700, "\u2581Kampf": 3701, "\u2581visitors": 3702, "\u2581(1": 3703, "gruppe": 3704, "\u2581planning": 3705, "\u2581aspects": 3706, "\u2581Original": 3707, "\u2581story": 3708, "ix": 3709, "\u2581Ihres": 3710, "\u25811980": 3711, "\u2581Konferenz": 3712, "\u2581Verkehrs": 3713, "\u2581gr\u00f6\u00dften": 3714, "\u2581Digital": 3715, "\u2581Nationen": 3716, "\u2581Great": 3717, "03": 3718, "\u2581nahm": 3719, "\u2581VAT": 3720, "ST": 3721, "\u2581mentioned": 3722, "\u2581island": 3723, "\u2581M\u00fcnchen": 3724, "\u2581Jobs": 3725, "\u2581Android": 3726, "\u2581Kommentare": 3727, "\u2581measure": 3728, "\u2581Har": 3729, "\u2581wait": 3730, "band": 3731, "service": 3732, "\u2581Russia": 3733, "\u2581flight": 3734, "\u2581Haushalts": 3735, "\u2581units": 3736, "\u2581\u00f6ffentliche": 3737, "\u2581Besuch": 3738, "\u2581Wissen": 3739, "\u2581Freunde": 3740, "\u2581genannt": 3741, "\u2581agreed": 3742, "\u2581Gar": 3743, "\u2581Association": 3744, "jo": 3745, "mi": 3746, "FR": 3747, "\u2581tools": 3748, "\u2581completed": 3749, "\u2581vote": 3750, "\u2581Konto": 3751, "\u25811991": 3752, "\u2581sun": 3753, "siehe": 3754, "\u2581recommend": 3755, "sec": 3756, "\u2581behalf": 3757, "Pro": 3758, "\u2581Morgen": 3759, "\u2581relations": 3760, "\u2581gew\u00e4hrleisten": 3761, "spolitik": 3762, "\u2581Schlafzimmer": 3763, "\u2581independent": 3764, "\u2581pictures": 3765, "\u2581King": 3766, "\u2581phase": 3767, "79": 3768, "\u2581Ausdruck": 3769, "\u2581===": 3770, "box": 3771, "kt": 3772, "\u2581increasing": 3773, "\u2581sch\u00f6n": 3774, "\u2581Motor": 3775, "\u2581Organisationen": 3776, "\u2581Umfang": 3777, "\u2581verantwortlich": 3778, "ally": 3779, "sel": 3780, "\u2581fallen": 3781, "\u2581reduction": 3782, "vi": 3783, "\u2581Amsterdam": 3784, "MP": 3785, "\u2581Ton": 3786, "\u2581(3)": 3787, "\u2581blue": 3788, "\u2581aufgenommen": 3789, "71": 3790, "\u2581Ausschuss": 3791, "\u2581Strategie": 3792, "\u2581dadurch": 3793, "\u2581fall": 3794, "\u2581devices": 3795, "pi": 3796, "\u2581Tages": 3797, "\u2581shipping": 3798, "\u2581passiert": 3799, "\u2581participation": 3800, "\u2581infrastructure": 3801, "\u2581build": 3802, "cha": 3803, "\u2581Anlage": 3804, "\u2581advance": 3805, "68": 3806, "\u2581Official": 3807, "\u2581Source": 3808, "\u2581Rechnung": 3809, "\u2581sign": 3810, "\u2581automatically": 3811, "\u2581Bi": 3812, "\u2581Games": 3813, "\u2581description": 3814, "\u2581Tel": 3815, "\u258115.": 3816, "\u2581fishing": 3817, "\u2581Klimaanlage": 3818, "\u2581Ressourcen": 3819, "over": 3820, "\u2581technische": 3821, "Le": 3822, "\u2581income": 3823, "\u2581achieved": 3824, "\u2581st": 3825, "\u2581Director": 3826, "vers": 3827, "\u2581Fu\u00df": 3828, "gu": 3829, "ual": 3830, "\u2581remains": 3831, "\u258144": 3832, "\u2581Bible": 3833, "\u2581Veranstaltungen": 3834, "\u2581spirit": 3835, "\u2581automatisch": 3836, "\u2581status": 3837, "kosten": 3838, "\u2581innovation": 3839, "\u2581British": 3840, "\u2581conference": 3841, "2000": 3842, "\u2581followed": 3843, "informationen": 3844, "\u2581Einige": 3845, "\u2581distance": 3846, "ica": 3847, "\u2581photos": 3848, "\u2581flat": 3849, "\u2581follows": 3850, "\u2581fight": 3851, "\u2581Rest": 3852, "\u2581unseres": 3853, "\u2581Col": 3854, "\u2581percent": 3855, "\u2581wider": 3856, "\u2581Regional": 3857, "\u2581prepared": 3858, "\u2581starting": 3859, "\u2581door": 3860, "\u2581Firma": 3861, "dem": 3862, "\u2581Journal": 3863, "dis": 3864, "\u2581Points": 3865, "\u2581performed": 3866, "\u258110.": 3867, "\u2581Table": 3868, "\u2581Government": 3869, "\u2581evidence": 3870, "tri": 3871, "\u2581extent": 3872, "\u2581Gi": 3873, "\u2581updates": 3874, "\u2581Gr\u00fcnde": 3875, "\u2581erkennen": 3876, "\u2581relationship": 3877, "\u2581Apartments": 3878, "lar": 3879, "\u2581f\u00f6rdern": 3880, "\u2581Falls": 3881, "use": 3882, "\u2581electronic": 3883, "\u2581Abkommen": 3884, "\u2581gro\u00df": 3885, "\u2581Netzwerk": 3886, "\u2581Gemeinschafts": 3887, "\u2581Vertreter": 3888, "\u2581Rock": 3889, "\u2044": 3890, "\u2581volume": 3891, "\u2581Mor": 3892, "stra": 3893, "ru": 3894, "pen": 3895, "\u2581condition": 3896, "\u2581Messe": 3897, "\u2581Wald": 3898, "\u2581possibility": 3899, "\u2581neues": 3900, "\u2581Strom": 3901, "\u2581brand": 3902, "\u2581goes": 3903, "\u2581genommen": 3904, "2009": 3905, "par": 3906, "\u2581Ger\u00e4te": 3907, "\u2581Pa": 3908, "\u2581carry": 3909, "\u2581mountain": 3910, "\u2581Filter": 3911, "\u2581entspricht": 3912, "\u2581Pass": 3913, "\u2581release": 3914, "ff": 3915, "\u2581Wa": 3916, "van": 3917, "\u2581angezeigt": 3918, "\u2581setzt": 3919, "\u2581entfernen": 3920, "\u2581likely": 3921, "\u2581Ausgaben": 3922, "\u2581DVD": 3923, "\u2581Zustand": 3924, "\u2581Kombination": 3925, "\u2581Br\u00fcssel": 3926, "02": 3927, "\u2581reduced": 3928, "\u2581nahe": 3929, "\u2581marketing": 3930, "\u2581variety": 3931, "\u2581provision": 3932, "\u2581verf\u00fcgen": 3933, "61": 3934, "\u2581net": 3935, "\u2581require": 3936, "\u2581derzeit": 3937, "\u2581hot": 3938, "\u2581While": 3939, "\u2581south": 3940, "\u2581tats\u00e4chlich": 3941, "eth": 3942, "To": 3943, "BAR": 3944, "\u2581besondere": 3945, "\u2581B\u00fcro": 3946, "\u2581Zweck": 3947, "\u2581Register": 3948, "\u2581Annahme": 3949, "shop": 3950, "\u2581Language": 3951, "\u2581approved": 3952, "\u2581darum": 3953, "\u2581Over": 3954, "\u2581record": 3955, "\u2581Stahl": 3956, "\u2581round": 3957, "\u2581Pool": 3958, "programm": 3959, "78": 3960, "\u2581worldwide": 3961, "2007": 3962, "\u2581arbeitet": 3963, "2012": 3964, "91": 3965, "\u2581Real": 3966, "\u2581usually": 3967, "\u2581bald": 3968, "\u2581Regelung": 3969, "\u2581185": 3970, "\u2581Europas": 3971, "\u2581Take": 3972, "\u2581recht": 3973, "\u2581girl": 3974, "ola": 3975, "\u2581Instrument": 3976, "cher": 3977, "\u2581120": 3978, "\u2581physical": 3979, "\u2581Phase": 3980, "\u2581Transfer": 3981, "\u2581Mitteilung": 3982, "\u2581fixed": 3983, "ju": 3984, "\u2581Werte": 3985, "\u2581Lake": 3986, "tik": 3987, "\u2581Action": 3988, "\u2581Schule": 3989, "led": 3990, "\u2581(0)": 3991, "\u2581Ger": 3992, "ji": 3993, "\u2581super": 3994, "\u2581(19": 3995, "ue": 3996, "\u2581Science": 3997, "\u2581Robert": 3998, "\u25819.": 3999, "\u2581Each": 4000, "\u2581installation": 4001, "\u2581connected": 4002, "\u2581h\u00f6ren": 4003, "\u2581Entfernung": 4004, "\u2581Golf": 4005, "\u2581hell": 4006, "\u2581sports": 4007, "unter": 4008, "\u2581supported": 4009, "\u2581Initiative": 4010, "l\u00e4": 4011, "\u2581nachdem": 4012, "\u2581Son": 4013, "last": 4014, "\u2581Klima": 4015, "\u2581tickets": 4016, "sverfahren": 4017, "\u2581Haben": 4018, "\u2581Close": 4019, "\u2581clean": 4020, "\u258143": 4021, "\u2581Navigation": 4022, "ett": 4023, "sen": 4024, "tische": 4025, "\u2581gef\u00fchrt": 4026, "enden": 4027, "har": 4028, "\u2581target": 4029, "\u2581Frei": 4030, "\u2581Gesetz": 4031, "51": 4032, "\u2581Deshalb": 4033, "\u2581flights": 4034, "cy": 4035, "off": 4036, "\u25811989": 4037, "\u2581Stra\u00dfe": 4038, "\u2581produce": 4039, "\u2581ID": 4040, "\u2581disabled": 4041, "Adresse": 4042, "\u2581Idee": 4043, "\u2581chance": 4044, "\u2581Gr\u00fcndung": 4045, "\u2581protect": 4046, "kraft": 4047, "spiel": 4048, "\u2581anders": 4049, "\u2581Antrag": 4050, "\u2581denke": 4051, "\u2581Commissioner": 4052, "\u2581police": 4053, "\u2581Verkehr": 4054, "\u2581Abschluss": 4055, "ology": 4056, "\u2581ma": 4057, "\u2581+49": 4058, "Datei": 4059, "stadt": 4060, "MS": 4061, "preis": 4062, "\u2581Mir": 4063, "\u2581thereof": 4064, "\u2581park": 4065, "\u2581Pen": 4066, "\u25811000": 4067, "\u2581maintenance": 4068, "ize": 4069, "\u2581anderes": 4070, "sma\u00dfnahmen": 4071, "\u2581Investitionen": 4072, "\u2581bio": 4073, "hi": 4074, "\u2581extremely": 4075, "name": 4076, "\u2581Articles": 4077, "Sehensw\u00fcrdigkeit": 4078, "\u2581Water": 4079, "\u2581genie\u00dfen": 4080, "\u2581ausschlie\u00dflich": 4081, "MA": 4082, "bu": 4083, "\u2581Public": 4084, "\u2581mainly": 4085, "\u2581Act": 4086, "\u2581majority": 4087, "\u2581bestehen": 4088, "\u2581Many": 4089, "\u2581fahren": 4090, "\u2581gr\u00f6\u00dfte": 4091, "\u0308": 4092, "\u2581Will": 4093, "\u2581wants": 4094, "\u2581)": 4095, "\u2581fundamental": 4096, "\u2581goal": 4097, "He": 4098, "TS": 4099, "\u2581Netz": 4100, "\u2581Gr\u00fcnden": 4101, "\u2581250": 4102, "\u2581submitted": 4103, "\u2581Beach": 4104, "\u2581Beschluss": 4105, "om": 4106, "\u25813-": 4107, "\u2581Sp": 4108, "\u2581Viele": 4109, "\u2581changed": 4110, "-3": 4111, "ula": 4112, "\u2581UND": 4113, "\u2581raus": 4114, "\u2581running": 4115, "\u2581Street": 4116, "\u2581negative": 4117, "\u2581avoid": 4118, "\u2581Holiday": 4119, "ical": 4120, "board": 4121, "\u2581functions": 4122, "\u2581Vo": 4123, "\u2581Thus": 4124, "zo": 4125, "\u2581although": 4126, "\u2581machines": 4127, "IC": 4128, "\u2581Hall": 4129, "\u2581Ausschusses": 4130, "\u2581hour": 4131, "\u2581Erkl\u00e4rung": 4132, "\u2581Materialien": 4133, "park": 4134, "\u2581Praxis": 4135, "\u2581instead": 4136, "\u2581profile": 4137, "\u2581Vertrags": 4138, "\u2581Jerusalem": 4139, "stelle": 4140, "\u2581weder": 4141, "\u2581regulation": 4142, "\u2581dienen": 4143, "\u2581Polizei": 4144, "\u2581Gemeinschaften": 4145, "-4": 4146, "\u2581Page": 4147, "gar": 4148, "\u2581deinen": 4149, "\u2581Fahrzeug": 4150, "\u2581Stil": 4151, "\u2581organisations": 4152, "app": 4153, "For": 4154, "Im": 4155, "\u2581origin": 4156, "AR": 4157, "\u2581learning": 4158, "wie": 4159, "\u2581Did": 4160, "\u2581wichtigen": 4161, "tur": 4162, "\u2581Canada": 4163, "\u2581Frank": 4164, "\u2581numerous": 4165, "\u2581Gen": 4166, "\u2581Formen": 4167, "\u2581Dis": 4168, "sicherheit": 4169, "\u258106": 4170, "\u2581Foundation": 4171, "\u2581evening": 4172, "\u2581umfasst": 4173, "\u2581\u00f6ffnen": 4174, "\u2581response": 4175, "\u2581Munich": 4176, "fen": 4177, "\u2581Dauer": 4178, "\u2581erneut": 4179, "\u2581bisher": 4180, "\u2581seven": 4181, "\u2581display": 4182, "let": 4183, "\u2581consumer": 4184, "forschung": 4185, "\u2581fr\u00fcher": 4186, "TER": 4187, "\u2581specified": 4188, "DA": 4189, "\u2581ideas": 4190, "IS": 4191, "\u2581Griechenland": 4192, "\u2581Luxemburg": 4193, "\u2581meters": 4194, "\u2581Ju": 4195, "\u2581cart": 4196, "ability": 4197, "\u2581Today": 4198, "\u2581beyond": 4199, "\u2581warm": 4200, "ping": 4201, "\u2581reading": 4202, "\u2581Kapital": 4203, "\u2581Baby": 4204, "\u2581Min": 4205, "\u2581Einrichtung": 4206, "\u2581versucht": 4207, "\u2581gest\u00fctzt": 4208, "\u2581advantage": 4209, "\u2581Fischerei": 4210, "\u2581Kooperation": 4211, "\u2581Verarbeitung": 4212, "\u2581articles": 4213, "73": 4214, "\u2581Linie": 4215, "teil": 4216, "OJ": 4217, "nes": 4218, "OS": 4219, "licher": 4220, "\u2581River": 4221, "LE": 4222, "\u2581calls": 4223, "\u2581Metall": 4224, "\u2581Card": 4225, "\u2581king": 4226, "\u2581administration": 4227, "\u2581\u00dcberwachung": 4228, "\u2581Monat": 4229, "\u2581parents": 4230, "\u2581vollst\u00e4ndig": 4231, "gt": 4232, "\u2581Light": 4233, "\u2581van": 4234, "\u2581Si": 4235, "\u2581Two": 4236, "\u2581Family": 4237, "\u2581reden": 4238, "\u2581Andere": 4239, "\u2581experts": 4240, "\u2581disease": 4241, "\u2581regulations": 4242, "\u2581metal": 4243, "\u2581Privat": 4244, "\u2581described": 4245, "\u2581betrifft": 4246, "\u2581Terrasse": 4247, "\u2581wahrscheinlich": 4248, "\u2581practical": 4249, "\u2581erh\u00e4lt": 4250, "\u2581giving": 4251, "\u2581Heute": 4252, "von": 4253, "\u2581Spa": 4254, "\u2581statistics": 4255, "zug": 4256, "81": 4257, "\u2581au\u00dferhalb": 4258, "2005": 4259, "\u2581comfortable": 4260, "\u2581Klein": 4261, "\u2581path": 4262, "\u2581faith": 4263, "\u2581sp": 4264, "f\u00fchrung": 4265, "\u2581traffic": 4266, "\u2581h\u00e4tten": 4267, "\u2581wirtschaftliche": 4268, "\u2581erf\u00fcllen": 4269, "72": 4270, "\u2581thank": 4271, "Ab": 4272, "\u2581Human": 4273, "dia": 4274, "\u258118.": 4275, "\u2581Zwecke": 4276, "\u2581diejenigen": 4277, "\u2581Food": 4278, "\u2581publication": 4279, "din": 4280, "\u2581mehreren": 4281, "\u2581train": 4282, "\u2581Game": 4283, "\u2581military": 4284, "\u2581Mond": 4285, "\u2581Manager": 4286, "(2)": 4287, "\u258107": 4288, "\u2581languages": 4289, "OR": 4290, "\u00d6": 4291, "Aus": 4292, "int": 4293, "\u2581placed": 4294, "str": 4295, "\u258102": 4296, "\u2581recently": 4297, "63": 4298, "\u2581Dialog": 4299, "\u2581Sitzung": 4300, "\u2581app": 4301, "\u2581Ze": 4302, "tisch": 4303, "\u2581numbers": 4304, "\u2581secure": 4305, "\u2581heat": 4306, "gang": 4307, "\u2581shower": 4308, "\u2581fresh": 4309, "\u2581plans": 4310, "\u2581sah": 4311, "\u2581Feuer": 4312, "\u2581erfolgreich": 4313, "\u2581Teilnehmer": 4314, "\u2581Trade": 4315, "\u2581(2": 4316, "\u2581Pflanzen": 4317, "\u2581Angst": 4318, "\u2581eat": 4319, "wi": 4320, "\u2581trees": 4321, "\u2581Sand": 4322, "\u2581--": 4323, "\u2581angenommen": 4324, "\u2581north": 4325, "\u2581situated": 4326, "\u2581Mini": 4327, "\u2581schlie\u00dflich": 4328, "\u2581sieben": 4329, "\u2581senden": 4330, "\u2581Conference": 4331, "\u2581degree": 4332, "tan": 4333, "\u2581beachten": 4334, "\u2581aktuellen": 4335, "\u2581reported": 4336, "\u2581felt": 4337, "\u2581File": 4338, "\u2581Mobile": 4339, "\u2581sources": 4340, "\u2581radio": 4341, "\u2581erforderlichen": 4342, "\u2581requires": 4343, "53": 4344, "\u2581Rad": 4345, "\u2581erwartet": 4346, "punkt": 4347, "systeme": 4348, "\u2581denken": 4349, "\u2581tour": 4350, "Mo": 4351, "\u00e0": 4352, "\u258116.": 4353, "\u2581Tu": 4354, "\u2581verloren": 4355, "\u2581erh\u00e4ltlich": 4356, "\u2581behandelt": 4357, "2008": 4358, "amp": 4359, "\u2581Hat": 4360, "\u2581track": 4361, "ida": 4362, "\u2581Europcar": 4363, "\u2581Krieg": 4364, "\u2581willst": 4365, "\u2581Law": 4366, "\u2581wirst": 4367, "fest": 4368, "\u25811988": 4369, "\u2581Kommunikation": 4370, "\u2581Interessen": 4371, "\u2581myself": 4372, "\u2581eher": 4373, "ob": 4374, "\u2581schlie\u00dfen": 4375, "\u2581hire": 4376, "\u2581hergestellt": 4377, "2-": 4378, "\u2581Partei": 4379, "\u2581ticket": 4380, "\u2581besonderen": 4381, "\u2581break": 4382, "\u2581prior": 4383, "\u2581Men\u00fc": 4384, "\u2581Training": 4385, "\u2581Tatsache": 4386, "\u2581Ausstellung": 4387, "\u2581Click": 4388, "\u2581Beteiligung": 4389, "\u2581Videos": 4390, "red": 4391, "\u2581Bibel": 4392, "\u2581talking": 4393, "\u2581store": 4394, "\u2581Kauf": 4395, "\u2581h\u00e4lt": 4396, "ors": 4397, "cal": 4398, "hen": 4399, "\u2581dachte": 4400, "\u2581Bruder": 4401, "\u2581Stra\u00dfen": 4402, "\u2581Microsoft": 4403, "\u2581Genehmigung": 4404, "\u2581Arm": 4405, "\u2581format": 4406, "\u2581genutzt": 4407, "free": 4408, "\u2581fruit": 4409, "bei": 4410, "\u2581terrace": 4411, "74": 4412, "\u2581Pi": 4413, "\u2581Head": 4414, "\u2581DIE": 4415, "\u2581port": 4416, "ssen": 4417, "gehen": 4418, "\u2581growing": 4419, "ska": 4420, "\u258112.": 4421, "\u2581Sprachen": 4422, "\u2581accepted": 4423, "\u2581statement": 4424, "\u258192": 4425, "\u2581Box": 4426, "\u2581continued": 4427, "ble": 4428, "\u2581Down": 4429, "\u2581ISO": 4430, "\u2581Punkte": 4431, "\u2581Hafen": 4432, "\u2581Dorf": 4433, "\u2581Plus": 4434, "\u258121.": 4435, "\u2581Vorschl\u00e4ge": 4436, "\u2581Wege": 4437, "\u25812020": 4438, "\u2581Nachricht": 4439, "\u2581limit": 4440, "\u2581Nat\u00fcrlich": 4441, "\u0e00": 4442, "\u2581Section": 4443, "\u2581Anwendungen": 4444, "\u2581screen": 4445, "\u2581reform": 4446, "\u2581finally": 4447, "\u2581Mag": 4448, "\u2581court": 4449, "\u2581Artikels": 4450, "\u2581Ukraine": 4451, "\u2581Next": 4452, "\u2581Schaffung": 4453, "\u2581[...]": 4454, "\u258108": 4455, "\u2581Non": 4456, "\u2581Asia": 4457, "ara": 4458, "fo": 4459, "\u2581Tool": 4460, "\u2581wall": 4461, "\u2581Mission": 4462, "\u2581deiner": 4463, "\u2581print": 4464, "\u2581Control": 4465, "\u2581Gesch\u00e4ft": 4466, "vin": 4467, "ologie": 4468, "500": 4469, "\u2581BE": 4470, "\u2581families": 4471, "\u2581scope": 4472, "\u25811:": 4473, "\u2581verlassen": 4474, "\u2581comprehensive": 4475, "\u2581entsprechen": 4476, "UM": 4477, "\u2581replaced": 4478, "\u2581rule": 4479, "\u2581Camping": 4480, "\u2581Bre": 4481, "wirtschaft": 4482, "\u2581OK": 4483, "\u2581Ost": 4484, "\u2581Gefahr": 4485, "Ro": 4486, "\u2581beginnen": 4487, "\u2581detail": 4488, "\u2581risks": 4489, "lau": 4490, "\u2581Have": 4491, "\u2581died": 4492, "\u2581Aufnahme": 4493, "\u2581zun\u00e4chst": 4494, "\u2581sufficient": 4495, "\u2581determined": 4496, "\u2581dialogue": 4497, "Ma": 4498, "\u2581efficient": 4499, "\u2581package": 4500, "\u2581purchase": 4501, "oli": 4502, "back": 4503, "\u2581exactly": 4504, "\u2581knew": 4505, "\u25811985": 4506, "84": 4507, "pol": 4508, "\u2581sorgen": 4509, ".1": 4510, "work": 4511, "\u2581RE": 4512, "\u2581funding": 4513, "\u2581L\u00e4nge": 4514, "light": 4515, "\u2581Fenster": 4516, "\u2581Serie": 4517, "\u2581entweder": 4518, "\u2581Tisch": 4519, "leistung": 4520, "\u258114.": 4521, "\u2581factors": 4522, "\u2581Work": 4523, "ax": 4524, "ville": 4525, "oc": 4526, "\u2581benutzt": 4527, "\u2581fand": 4528, "\u2581Kurz": 4529, "\u2581600": 4530, "\u2581Papier": 4531, "\u258195": 4532, "uri": 4533, "\u2581write": 4534, "\u2581export": 4535, "\u2581Option": 4536, "\u258109": 4537, "\u2581begann": 4538, "gas": 4539, "ible": 4540, "\u2581Gast": 4541, "\u2581Fest": 4542, "ku": 4543, "\u2581Systeme": 4544, "\u2581zahlreiche": 4545, "\u2581laws": 4546, "illa": 4547, "\u2581Nutzen": 4548, "\u2581India": 4549, "\u2581Bundes": 4550, "dienst": 4551, "ship": 4552, "\u2581Zwischen": 4553, "mat": 4554, "\u2581Location": 4555, "\u2581ziehen": 4556, "house": 4557, "\u2581kill": 4558, "\u2581representatives": 4559, "\u2581cool": 4560, "\u2581skills": 4561, "\u2581relation": 4562, "\u258164": 4563, "\u2581initiative": 4564, "\u2581sites": 4565, "EM": 4566, "\u2581Tiere": 4567, "\u2581Hintergrund": 4568, "\u2581Immobilien": 4569, "\u2581aware": 4570, "\u2581unto": 4571, "\u2581Gl\u00fcck": 4572, "\u2581influence": 4573, "\u2581winter": 4574, "pon": 4575, "hilfe": 4576, "ile": 4577, "\u2581Folgen": 4578, "\u2581approximately": 4579, "\u2581certainly": 4580, "\u2581Updates": 4581, "\u2581Belgium": 4582, "\u2581folgen": 4583, "\u2581welches": 4584, "\u2581caused": 4585, "If": 4586, "\u258141": 4587, "seite": 4588, "\u2581Opfer": 4589, "\u2581Za": 4590, "\u2581inform": 4591, "stoff": 4592, "\u2581presence": 4593, "\u2581manufacturer": 4594, "\u2581Ke": 4595, "\u258131.": 4596, "\u2581ber\u00fccksichtigt": 4597, "\u2581sets": 4598, "62": 4599, "\u2581availability": 4600, "2004": 4601, "\u2581error": 4602, "\u2581Hinweis": 4603, "\u258152": 4604, "\u2581sometimes": 4605, "\u2581flexible": 4606, "\u2581Whereas": 4607, "\u2581Anspruch": 4608, "\u2581Profil": 4609, "\u2581geboren": 4610, "ill": 4611, "\u2581Czech": 4612, "\u2581Wohn": 4613, "\u2581betr\u00e4gt": 4614, "PC": 4615, "\u2581amendments": 4616, "2001": 4617, "mmer": 4618, "\u2581Although": 4619, "\u2581boat": 4620, "rd": 4621, "\u2581Project": 4622, "\u2581wenige": 4623, "\u2581Mode": 4624, "\u2581Area": 4625, "\u00e2": 4626, "\u2581Verwaltungs": 4627, "2002": 4628, "SI": 4629, "\u2581Ku": 4630, "\u2581sch\u00f6ne": 4631, "\u2581Tat": 4632, "\u2581Karten": 4633, "\u2581privaten": 4634, "\u2581establish": 4635, "\u2581musst": 4636, "zahl": 4637, "\u2581district": 4638, "\u2581Nutzer": 4639, "\u2581Bewegung": 4640, "0/": 4641, "\u2581Technik": 4642, "\u2581wahr": 4643, "\u2581imports": 4644, "\u2581sofern": 4645, "\u2581fit": 4646, "\u2581trans": 4647, "\u2581Direkt": 4648, "row": 4649, "\u2581Added": 4650, "\u2581Gelegenheit": 4651, "\u2581historical": 4652, "IG": 4653, "\u2581doctor": 4654, "low": 4655, "ort": 4656, "\u2581Miss": 4657, "\u2581registered": 4658, "\u2581klicken": 4659, "-/": 4660, "\u2581quiet": 4661, "bra": 4662, "\u2581alte": 4663, "\u2581Blue": 4664, "hand": 4665, "\u258104": 4666, "\u2581writing": 4667, "\u2581enterprises": 4668, "\u2581organisation": 4669, "mus": 4670, "\u2581damage": 4671, "\u2581S\u00fcd": 4672, "\u2581VI": 4673, "era": 4674, "\u2581advice": 4675, "\u2581County": 4676, "verfahren": 4677, "\u2581introduced": 4678, "\u2581Veranstaltung": 4679, "\u2581Einheit": 4680, "f\u00fcr": 4681, "\u2581Call": 4682, "\u2581navigation": 4683, "\u2581lose": 4684, "han": 4685, "\u2581baby": 4686, "tech": 4687, "\u2581Fo": 4688, "\u2581Konzept": 4689, "\u2581draft": 4690, "\u2581figures": 4691, "\u2581letter": 4692, "ose": 4693, "\u2581developments": 4694, "\u2581anyone": 4695, "\u2581Jehova": 4696, "\u2581comment": 4697, "\u2581Bal": 4698, "\u2581gekommen": 4699, "\u2581playing": 4700, "\u2581Erweiterung": 4701, "\u2581Valencia": 4702, "\u2581Trans": 4703, "ada": 4704, "\u2581Marke": 4705, "\u2581Sweden": 4706, "\u2581Australia": 4707, "\u2581Kern": 4708, "sta": 4709, "\u2581financing": 4710, "\u2581Fleisch": 4711, "\u2581nationale": 4712, "\u2581Gewalt": 4713, "ev": 4714, "\u2581Ruhe": 4715, "\u2581spricht": 4716, "kal": 4717, "\u2581Technologien": 4718, "info": 4719, "\u2581m\u00f6glicherweise": 4720, "\u2581informed": 4721, "\u2581coffee": 4722, "ET": 4723, "\u2581Des": 4724, "\u2581Interessantes": 4725, "\u2581science": 4726, "\u2581thinking": 4727, "are": 4728, "\u2581matters": 4729, "eck": 4730, "star": 4731, "\u2581\u00fcberhaupt": 4732, "\u2581spielt": 4733, "\u2581Gef\u00fchl": 4734, "\u2581Education": 4735, "\u2581cards": 4736, "\u2581Anlagen": 4737, "hu": 4738, "RO": 4739, "top": 4740, "\u2581Safe": 4741, "\u2581acht": 4742, "mel": 4743, "\u2581brother": 4744, "\u2581gezeigt": 4745, "ili": 4746, "\u2581except": 4747, "\u2581kaum": 4748, "\u2581task": 4749, "\u2581Cap": 4750, "\u2581piece": 4751, "\u2581establishment": 4752, "\u2581eye": 4753, "\u2581conditioning": 4754, "\u2581Buy": 4755, "lic": 4756, "\u2581erstellen": 4757, "pass": 4758, "ris": 4759, "SP": 4760, "\u2581\u00dcbersicht": 4761, "bal": 4762, "\u2581braucht": 4763, "BA": 4764, "\u2581Ausschu\u00df": 4765, "nt": 4766, "lon": 4767, "Me": 4768, "\u00c4": 4769, "83": 4770, "\u2581Network": 4771, "AN": 4772, "\u2581Avis": 4773, "\u2581window": 4774, "\u2581eure": 4775, "\u2581George": 4776, "\u2581Us": 4777, "\u2581t\u00e4tig": 4778, "\u2581Beihilfe": 4779, ".10.": 4780, "\u2581recommended": 4781, "\u2581Kriterien": 4782, "\u2581eigentlich": 4783, "\u2581Gro\u00df": 4784, "\u2581Daniel": 4785, "\u2581Features": 4786, "\u2581ship": 4787, "\u2581middle": 4788, "anz": 4789, "No": 4790, "\u2581Communities": 4791, "\u2581internet": 4792, "\u2581Charakter": 4793, "\u2581Stock": 4794, "\u2581buildings": 4795, "\u2581band": 4796, "\u2581Arzt": 4797, "\u2581isn": 4798, "\u2581Mess": 4799, "\u2581Zoll": 4800, "\u2581Help": 4801, "\u2581Suchen": 4802, "ans": 4803, "ware": 4804, "\u2581primary": 4805, "\u2581Schul": 4806, "IM": 4807, "\u2581geschaffen": 4808, "\u2581Entscheidungen": 4809, "\u2581Greek": 4810, "\u2581leaves": 4811, "lose": 4812, "\u25811987": 4813, "\u2581difference": 4814, "\u2581apartments": 4815, "\u2581manner": 4816, "\u2581fort": 4817, "\u2581border": 4818, "\u2581Ok": 4819, "\u2581Western": 4820, "\u2581optimal": 4821, "\u258113.": 4822, "\u2581richtige": 4823, "\u2581T\u00fcr": 4824, "\u2581button": 4825, "\u2581Marketing": 4826, "bahn": 4827, "52": 4828, "SC": 4829, "\u2581Auffassung": 4830, "Nr": 4831, "part": 4832, "\u2581Ba": 4833, "\u2581gegr\u00fcndet": 4834, "\u2581bus": 4835, "\u2581directive": 4836, "\u2581Agency": 4837, "ib": 4838, "\u2581Christus": 4839, "RI": 4840, "\u2581Hast": 4841, "\u2581scheme": 4842, "\u2581Right": 4843, "\u2581cars": 4844, "\u2581Kollegen": 4845, "\u2581Kommentar": 4846, "fahrt": 4847, "\u2581Provinz": 4848, "\u2581guy": 4849, "\u2581Cha": 4850, "my": 4851, "eg": 4852, "tive": 4853, "\u2581offering": 4854, "\u2581visited": 4855, "\u2581Oder": 4856, "\u2581nein": 4857, "\u2581tree": 4858, "sis": 4859, "ult": 4860, "\u2581Tal": 4861, "\u2581\u00dcberpr\u00fcfung": 4862, "\u2581priority": 4863, "ries": 4864, "UN": 4865, "\u2581ausge": 4866, "\u2581ads": 4867, "\u2581Regeln": 4868, "\u2581Falle": 4869, "\u258100": 4870, "\u2581Technical": 4871, "\u2581territory": 4872, "\u2581Russland": 4873, "\u2581decide": 4874, "\u2581figure": 4875, "\u2581Father": 4876, "\u2581abge": 4877, "\u2581erwarten": 4878, "\u2581st\u00e4ndig": 4879, "\u2581Staat": 4880, "\u2581platform": 4881, "\u2581linked": 4882, "\u2581ability": 4883, "\u2581implementing": 4884, "\u2581understanding": 4885, "\u2581participants": 4886, "\u2581Pu": 4887, "\u2581obwohl": 4888, "\u2581Worte": 4889, "welt": 4890, "\u2581happen": 4891, "\u2581closed": 4892, "\u2581Spieler": 4893, "\u2581Milch": 4894, "\u2581refer": 4895, "\u25811986": 4896, "\u2581trust": 4897, "mark": 4898, "\u2581Bereiche": 4899, "\u2581issued": 4900, "\u2581challenges": 4901, "\u2581feature": 4902, "\u2581Zubeh\u00f6r": 4903, "\u2581circumstances": 4904, "\u2581Beihilfen": 4905, "\u2581Win": 4906, "\u2581gr\u00f6\u00dfere": 4907, "\u2581organization": 4908, "hin": 4909, "station": 4910, "\u2581verkaufen": 4911, "\u2581Aufbau": 4912, "\u2581cold": 4913, "\u2581otherwise": 4914, "\u2581lokalen": 4915, "\u2581containing": 4916, "\u2581Order": 4917, "\u2581rich": 4918, "\u2581Sicht": 4919, "\u2581kostenlos": 4920, "\u2581duty": 4921, "ges": 4922, "\u2581concern": 4923, "\u2581Note": 4924, "\u2581Jean": 4925, "\u2581milk": 4926, "\u2581Rang": 4927, "oni": 4928, "\u2581Market": 4929, "\u2581rechts": 4930, "MO": 4931, "\u2581Hol": 4932, "\u2581route": 4933, "\u2581Reich": 4934, "can": 4935, "UR": 4936, "\u2581micro": 4937, "\u2581Terms": 4938, "\u2581Tags": 4939, "\u2581Sha": 4940, "\u258103": 4941, "-5": 4942, "\u2581min": 4943, "\u2581para": 4944, "\u2581domestic": 4945, "\u2581gleiche": 4946, "\u2581leid": 4947, "\u2581St\u00e4dten": 4948, "\u2581Begriff": 4949, "\u2581Objekt": 4950, "\u2581generally": 4951, "\u2581exercise": 4952, "\u2581founded": 4953, "\u2581clients": 4954, "\u2581Map": 4955, "\u258146": 4956, "uck": 4957, "\u2581Ur": 4958, "war": 4959, "\u2581dose": 4960, "\u00dc": 4961, "room": 4962, "av": 4963, "\u2581Sind": 4964, "ay": 4965, "\u2581earlier": 4966, "\u2581Ve": 4967, "\u2581permanent": 4968, "CC": 4969, "\u2581Lesen": 4970, "ight": 4971, "\u2581bilden": 4972, "ete": 4973, "anlage": 4974, "cker": 4975, "\u2581background": 4976, "\u2581wrote": 4977, "\u2581guide": 4978, "\u2581Karriere": 4979, "\u2581consists": 4980, "\u2581substances": 4981, "\u2581emissions": 4982, "\u2581Kaffee": 4983, "\u2581Schweden": 4984, "minute": 4985, "\u2581darunter": 4986, "\u2581WC": 4987, "\u258154": 4988, "\u2581welcher": 4989, "\u2581character": 4990, "\u2581zer": 4991, "\u2581Pra": 4992, "\u2581looks": 4993, "\u2581vertreten": 4994, "\u2581le": 4995, "\u2581import": 4996, "ala": 4997, "\u2581Notwendigkeit": 4998, "ford": 4999, "TE": 5000, "\u2581Jugend": 5001, "\u2581deep": 5002, "\u2581metres": 5003, "\u2581arrangements": 5004, "\u2581Th": 5005, "\u2581Ci": 5006, "\u2581mass": 5007, "\u2581initial": 5008, "\u2581Out": 5009, "bad": 5010, "\u2581voice": 5011, "\u2581engine": 5012, "\u00e4n": 5013, "\u2581Reform": 5014, "\u2581dedicated": 5015, "\u2581Its": 5016, "\u2581Belgien": 5017, "\u2581Dan": 5018, "liste": 5019, "\u2581approval": 5020, "\u2581Poland": 5021, "\u2581Beh\u00f6rde": 5022, "bare": 5023, "\u2581generation": 5024, "\u2581\u00d6ffentlichkeit": 5025, "\u2581Mont": 5026, "\u2581Anpassung": 5027, "\u2581books": 5028, "\u2581turned": 5029, "nis": 5030, "\u2581Zahlen": 5031, "\u2581Denmark": 5032, "\u2581race": 5033, "\u2581Kenntnis": 5034, "\u2581entsprechende": 5035, "\u2581fuel": 5036, "\u2581Zug": 5037, "\u2581ski": 5038, "als": 5039, "\u2581discussion": 5040, "\u2581flow": 5041, "\u2581Size": 5042, "\u2581actual": 5043, "\u2581strength": 5044, "arbeiten": 5045, "\u258128.": 5046, "\u2581serve": 5047, "\u2581contain": 5048, "tern": 5049, "\u2581et": 5050, "\u2581USB": 5051, "\u2581Maybe": 5052, "ender": 5053, "wand": 5054, "\u2581object": 5055, "\u2581comparison": 5056, "\u2581significantly": 5057, "ments": 5058, "=": 5059, "\u2581names": 5060, "anlagen": 5061, "\u2581HD": 5062, "\u2581manufacturing": 5063, "\u2581unmittelbar": 5064, "\u2581thousands": 5065, "sie": 5066, "sur": 5067, "\u2581COM": 5068, "\u2581cell": 5069, "2018": 5070, "\u2581Entschlie\u00dfung": 5071, "zentrum": 5072, "\u2581fear": 5073, "\u2581EESC": 5074, "\u2581%)": 5075, "bin": 5076, "ging": 5077, "\u2581Downloads": 5078, "\u2581abgeschlossen": 5079, "\u2581Guide": 5080, "\u2581negotiations": 5081, "ria": 5082, "\u2581Pat": 5083, "\u2581entered": 5084, "\u2581Kann": 5085, "\u2581Irland": 5086, "ys": 5087, "\u2581drink": 5088, "leg": 5089, "\u2581Chance": 5090, "\u2581tr\u00e4gt": 5091, "\u2581delivered": 5092, "0.000": 5093, "\u2581Thursday": 5094, "code": 5095, "\u2581Hallo": 5096, "\u258130.": 5097, "\u2581flowers": 5098, "\u2581commitment": 5099, "\u258188": 5100, "\u2581\u00fcbertragen": 5101, "\u2581kamen": 5102, "\u2581Travel": 5103, "\u2581vorliegenden": 5104, "\u2581advanced": 5105, "\u2581Mindest": 5106, "\u2581Kategorien": 5107, "\u2581perhaps": 5108, "uff": 5109, "\u2581knows": 5110, "\u2581Firmen": 5111, "\u2581Christmas": 5112, "\u2581Furthermore": 5113, "\u2581landwirtschaft": 5114, "\u2581Like": 5115, "\u2581Old": 5116, "\u2581hinzuf\u00fcgen": 5117, "\u2581Ach": 5118, "\u2581fragen": 5119, "\u2581becomes": 5120, "\u2581notice": 5121, "\u2581title": 5122, "born": 5123, "\u2581zuvor": 5124, "\u2581signed": 5125, "\u2581Financial": 5126, "\u2581Drei": 5127, "\u2581indeed": 5128, "\u2581Methoden": 5129, "\u2581Stuttgart": 5130, "gebiet": 5131, "itz": 5132, "\u2581Herren": 5133, "\u2581Theater": 5134, "\u2581reality": 5135, "\u2581Under": 5136, "ase": 5137, "\u2581structures": 5138, "\u2581combined": 5139, "lor": 5140, "ath": 5141, "\u2581FR": 5142, "\u2581cable": 5143, "\u2581Grenzen": 5144, "\u2581Via": 5145, "pri": 5146, "\u2581Royal": 5147, "\u2581Reviews": 5148, "ther": 5149, "\u2581Bett": 5150, "\u258149": 5151, "\u2581Paper": 5152, "\u2581Produkten": 5153, "\u2581improving": 5154, "2015": 5155, "\u2581contribute": 5156, "\u2581Sinn": 5157, "/10": 5158, "\u2581lediglich": 5159, "\u2581Bay": 5160, "cia": 5161, "\u2581Front": 5162, "\u2581aktuelle": 5163, "\u2581producers": 5164, "Da": 5165, "\u2581kept": 5166, "ball": 5167, "\u2581Che": 5168, "\u2581Ausgabe": 5169, "ai": 5170, "\u2581Rome": 5171, "\u2581Studio": 5172, "\u2581essen": 5173, "\u2581Monte": 5174, "\u2581Safety": 5175, "\u2581Site": 5176, "\u2581moved": 5177, "\u2581erkl\u00e4ren": 5178, "\u2581Review": 5179, "\u2581appear": 5180, "Con": 5181, "ez": 5182, "ists": 5183, "\u2581star": 5184, "var": 5185, "\u2581kleiner": 5186, "\u2581ange": 5187, "\u258147": 5188, "\u2581obtained": 5189, "air": 5190, "\u2581powerful": 5191, "\u2581Nations": 5192, "\u2581consumers": 5193, "\u2581instrument": 5194, "\u2581max": 5195, "\u2581determine": 5196, "\u2581funktioniert": 5197, "\u2581Gedanken": 5198, "\u2581Aspekte": 5199, "\u2581T\u00e4tigkeiten": 5200, "\u2581regelm\u00e4\u00dfig": 5201, "\u2581ben\u00f6tigen": 5202, "\u2581Sunday": 5203, "\u2581correct": 5204, "\u2581Stunde": 5205, "\u2581touch": 5206, "\u2581Farb": 5207, "\u2581Select": 5208, "\u2581farm": 5209, "\u2581sold": 5210, "\u2581Tuesday": 5211, "\u2581pursuant": 5212, "\u2581killed": 5213, "einrichtungen": 5214, "\u2581Sehr": 5215, "\u2581unemployment": 5216, "\u2581Cart": 5217, "System": 5218, "frei": 5219, "\u2581Austausch": 5220, "\u2581Tom": 5221, "\u2581Mary": 5222, "\u2581implemented": 5223, "\u2581sonst": 5224, "\u2581compatible": 5225, "(1)": 5226, "EUR": 5227, "\u2581n\u00e4chste": 5228, "\u2581restaurants": 5229, "\u2581offen": 5230, "\u2581Hinzugef\u00fcgt": 5231, "\u2581Polen": 5232, "\u2581Department": 5233, "mission": 5234, "ME": 5235, "\u2581forces": 5236, "\u2581Parteien": 5237, "\u2581Beitr\u00e4ge": 5238, "management": 5239, "legen": 5240, "\u2581Members": 5241, "\u2581artists": 5242, "\u2581Ser": 5243, "\u2581Lieferung": 5244, "\u2581expressed": 5245, "\u2581cells": 5246, "how": 5247, "istic": 5248, "\u2581Au\u00dfen": 5249, "\u2581Frieden": 5250, "bringen": 5251, "well": 5252, "ona": 5253, "\u2581Deine": 5254, "\u2581favour": 5255, "\u2581vorgesehen": 5256, "\u2581improved": 5257, "\u2581Bestimmung": 5258, "\u2581electric": 5259, "\u2581Wieder": 5260, "\u2581Donnerstag": 5261, "gruppen": 5262, "\u2581players": 5263, "\u2581Freiheit": 5264, "ture": 5265, "\u2581(18": 5266, "\u25812:": 5267, "\u2581categories": 5268, "\u2581Express": 5269, "\u2581Adresse": 5270, "\u2581Burg": 5271, "wo": 5272, "\u2581Turkey": 5273, "\u2581Status": 5274, "\u2581junge": 5275, "\u2581friendly": 5276, "kar": 5277, "\u2581released": 5278, "\u2581quarter": 5279, "\u2581Visit": 5280, "\u2581player": 5281, "\u2581Award": 5282, "\u2581gesetzt": 5283, "\u2581houses": 5284, "\u2581Send": 5285, "\u2581schools": 5286, "\u2581colour": 5287, "200": 5288, "\u2581Tradition": 5289, "dom": 5290, "\u2581fertig": 5291, "\u00e4u": 5292, "\u2581Weil": 5293, "DI": 5294, "\u2581tasks": 5295, "vir": 5296, "isieren": 5297, "\u2581Kilometer": 5298, "-6": 5299, "\u2581Long": 5300, "\u2581machte": 5301, "\u2581supports": 5302, "\u2581career": 5303, "\u2581verpflichtet": 5304, "field": 5305, "\u2581Make": 5306, "\u2581Dienste": 5307, "\u2581Welcome": 5308, "\u2581customs": 5309, "\u2581gift": 5310, "General": 5311, "\u2581Wunsch": 5312, "ero": 5313, "\u2581hervor": 5314, "\u2581Format": 5315, "\u2581habt": 5316, "\u2581Fe": 5317, "tions": 5318, "AG": 5319, "nach": 5320, "\u2581Single": 5321, "ration": 5322, "\u2581dark": 5323, "\u2581Ver\u00e4nderungen": 5324, "\u2581beginnt": 5325, "\u2581musste": 5326, "arten": 5327, "\u2581eight": 5328, "\u2581deinem": 5329, "\u2581scale": 5330, "\u2581institution": 5331, "\u2581characteristics": 5332, "lass": 5333, "\u2581EIB": 5334, "\u2581height": 5335, "\u2581zudem": 5336, "PA": 5337, "\u2581personenbezogen": 5338, "\u2581square": 5339, "od": 5340, "\u258122.": 5341, "king": 5342, "\u2581Solar": 5343, "\u2581Wand": 5344, "\u2581Gericht": 5345, "\u2581telephone": 5346, "\u258156": 5347, "\u2581dritten": 5348, "\u2581Anmeldung": 5349, "\u2581Affairs": 5350, "stra\u00dfe": 5351, "\u2581minute": 5352, "\u2581Fortschritte": 5353, "\u2581bez\u00fcglich": 5354, "rn": 5355, "\u2581dry": 5356, "\u2581Infrastruktur": 5357, "res": 5358, "screen": 5359, "\u2581seid": 5360, "82": 5361, "\u2581gone": 5362, "\u2581ziemlich": 5363, "\u2581Access": 5364, "\u2581effort": 5365, "\u2581introduction": 5366, "\u2581Fassung": 5367, "gy": 5368, "\u2581concerns": 5369, "maschinen": 5370, "\u2581wichtiger": 5371, "\u2581Dienstag": 5372, "\u2581Inc": 5373, "\u2581Jeder": 5374, "\u2581na": 5375, "\u2581wonderful": 5376, "\u2581seem": 5377, "\u2581Ph": 5378, "\u258105": 5379, "sha": 5380, "\u2581f\u00fchrte": 5381, "lauf": 5382, "://": 5383, "\u2581Temperatur": 5384, "\u2581Weather": 5385, "\u258172": 5386, "\u2581Sein": 5387, "reich": 5388, "\u2581sir": 5389, "\u2581Dollar": 5390, "\u2581Abstimmung": 5391, "\u2581H\u00f6r": 5392, "organisation": 5393, "\u2581nuclear": 5394, "sprogramm": 5395, "\u2581draw": 5396, "2010": 5397, "\u2581Eurostat": 5398, "\u2581sugar": 5399, "laden": 5400, "\u2581Kabel": 5401, "\u2581liefern": 5402, "\u2581Store": 5403, "\u2581Reisen": 5404, "ade": 5405, "ata": 5406, "\u2581Unterk\u00fcnfte": 5407, "Was": 5408, "r\u00fc": 5409, "\u2581gets": 5410, "\u2581AN": 5411, "\u2581artist": 5412, "\u2581Balkon": 5413, "\u2581Key": 5414, "\u2581obligations": 5415, "RA": 5416, "\u2581Schwarz": 5417, "\u2581rent": 5418, "\u2581Dein": 5419, "\u2581Ya": 5420, "\u2581street": 5421, "\u2581zahlreichen": 5422, "ille": 5423, "\u2581experiences": 5424, "\u2581guys": 5425, "tage": 5426, "\u2581meetings": 5427, "Auf": 5428, "\u2581Tro": 5429, "\u2581registration": 5430, "\u2581Patent": 5431, "qua": 5432, "\u2581pain": 5433, "\u2581Ticket": 5434, "\u2581association": 5435, "\u2581banks": 5436, "\u2581deliver": 5437, "\u2581corresponding": 5438, "\u2581Spa\u00df": 5439, "\u2581Wall": 5440, "[": 5441, "dal": 5442, "\u2581Experten": 5443, "izing": 5444, "\u2581800": 5445, "\u2581Kunststoff": 5446, "\u2581PRO": 5447, "\u2581Fahrt": 5448, "iff": 5449, "pan": 5450, ".11.": 5451, "\u2581warten": 5452, "\u2581SA": 5453, "\u2581Ball": 5454, "mb": 5455, "\u2581Camp": 5456, "AS": 5457, "\u2581daughter": 5458, "\u2581verlieren": 5459, "\u2581spread": 5460, "\u2581Wild": 5461, "\u2581river": 5462, "\u2581structural": 5463, "\u2581danach": 5464, "werte": 5465, "\u2581sa": 5466, "\u258151": 5467, "\u2581adopt": 5468, "\u2581courses": 5469, "\u2581vergangenen": 5470, "\u2581erh\u00f6ht": 5471, "\u2581bestehenden": 5472, "\u2581Joseph": 5473, "\u2581allgemeine": 5474, "\u2581Jack": 5475, "\u2581seien": 5476, "\u2581Ausnahme": 5477, "\u2581Vergangenheit": 5478, "\u2581D\u00e4nemark": 5479, "\u2581gern": 5480, "\u2581eben": 5481, "\u2581anmelden": 5482, "film": 5483, "Ber\u00fccksichtigung": 5484, "\u2581Labor": 5485, "\u2581Garden": 5486, "ama": 5487, "\u2581extended": 5488, "\u2581currency": 5489, "\u2581aktiv": 5490, "\u2581atmosphere": 5491, "\u2581bezeichnet": 5492, "\u25811984": 5493, "ABl": 5494, "\u2581affected": 5495, "\u2581feeling": 5496, "\u2581\u2019": 5497, "\u0161": 5498, "\u2581miss": 5499, "\u2581Audio": 5500, "kin": 5501, "\u2581Noch": 5502, "\u2581Society": 5503, "\u2581Joint": 5504, "-8": 5505, "\u2581foot": 5506, "\u2581song": 5507, "\u2581Aktion": 5508, "wald": 5509, "\u2581accessible": 5510, "\u2581electricity": 5511, "act": 5512, "\u2581Zugriffe": 5513, "\u2581Innen": 5514, "\u2581wild": 5515, "\u2581Rot": 5516, "grad": 5517, "\u2581Kor": 5518, "\u2581cheap": 5519, "\u2581legen": 5520, "kra": 5521, "\u2581named": 5522, "\u2581pers\u00f6nlichen": 5523, "PT": 5524, "\u2581Vereint": 5525, "\u2581objects": 5526, "\u2581schrieb": 5527, "FT": 5528, "\u2581Karl": 5529, "\u2581Zoom": 5530, "ger\u00e4te": 5531, "\u2581getroffen": 5532, "\u2581chosen": 5533, "\u2581Ger\u00e4t": 5534, "\u2581Big": 5535, "\u2581Edition": 5536, "san": 5537, "\u2581motor": 5538, "\u2581Buchung": 5539, "bol": 5540, "\u2581protected": 5541, "\u2581Mat": 5542, "leben": 5543, "\u2581Afrika": 5544, "\u2581Schwierigkeiten": 5545, "\u2581beitragen": 5546, "Do": 5547, "\u2581soft": 5548, "\u2581eingef\u00fchrt": 5549, "\u2581Mach": 5550, "2017": 5551, "\u2581output": 5552, "\u2581maintain": 5553, "\u2581instance": 5554, "\u2581Planung": 5555, "\u2581Ste": 5556, "\u2581Country": 5557, "\u2581master": 5558, "\u2581tried": 5559, "\u2581useful": 5560, "\u2581Tipps": 5561, "\u2581n\u00e4her": 5562, "\u2581Institutionen": 5563, "ney": 5564, "\u2581Fl\u00fcge": 5565, "\u2581sch\u00f6nen": 5566, "\u2581deutsche": 5567, "\u2581FAQ": 5568, "\u2581educational": 5569, "\u2581Verpflichtungen": 5570, "\u2581Einklang": 5571, "\u2581swimming": 5572, "produktion": 5573, "\u2581Dokument": 5574, "\u2581tot": 5575, "\u2581Further": 5576, "\u2581Friday": 5577, "\u2581Para": 5578, "zy": 5579, "-12": 5580, "\u2581lies": 5581, "\u2581Sports": 5582, "1)": 5583, "Pa": 5584, "\u2581dates": 5585, "karte": 5586, "\u2581MP": 5587, "\u2581sleep": 5588, "\u2581stated": 5589, "\u2581Obwohl": 5590, "\u258196": 5591, "\u25812-": 5592, "\u2581mo": 5593, "bri": 5594, "\u2581Fi": 5595, "\u2581Children": 5596, "sol": 5597, "\u2581Einfluss": 5598, "\u2581leisten": 5599, "\u2581exist": 5600, "\u2581festgestellt": 5601, "COM": 5602, "\u2581vi": 5603, "\u2581trotz": 5604, "\u2581Auftrag": 5605, "\u2581bessere": 5606, "\u2581urban": 5607, "\u2581Bur": 5608, "\u2581Inhalte": 5609, "\u2581committee": 5610, "\u25811970": 5611, "\u2581guter": 5612, "/4": 5613, "................": 5614, "\u2581sch\u00fctzen": 5615, "\u2581director": 5616, "sektor": 5617, "\u2581Fast": 5618, "\u2581Pension": 5619, "\u2581Type": 5620, "\u2581Sonne": 5621, "\u2581Leiter": 5622, "\u2581\u00fcberpr\u00fcfen": 5623, "\u2581initiatives": 5624, "ora": 5625, "\u2581Protection": 5626, "\u2581Inseln": 5627, "PO": 5628, "Co": 5629, "\u2581KMU": 5630, "\u2581proper": 5631, "\u2581teilweise": 5632, "\u2581Werke": 5633, "\u2581bought": 5634, "\u2581AS": 5635, "\u2581Hof": 5636, "\u2581Freitag": 5637, "\u2581worth": 5638, "\u2581Before": 5639, "/2006": 5640, "iere": 5641, "\u2581Kurs": 5642, "\u010d": 5643, "\u2581Micro": 5644, "\u2581Glauben": 5645, "\u2581Preisen": 5646, "\u2581poor": 5647, "\u2581unless": 5648, "\u2581Urteil": 5649, "\u2581Bern": 5650, "\u2581Ag": 5651, "\u25811)": 5652, "\u2581drawn": 5653, "2011": 5654, "\u2581Sonntag": 5655, "\u2581tritt": 5656, "\u2581Legal": 5657, "\\": 5658, "\u2581History": 5659, "\u2581implement": 5660, "\u2581temperatures": 5661, "\u2581gew\u00e4hrt": 5662, "\u2581elegant": 5663, "\u2581EWSA": 5664, "\u2581practices": 5665, "\u2581H\u00e4lfte": 5666, "\u2581Costa": 5667, "\u2581planned": 5668, "rin": 5669, "\u2581(4)": 5670, "gr": 5671, "\u2581Mediterranean": 5672, "\u2581Boot": 5673, "\u2581Johannes": 5674, "\u2581ne": 5675, "\u2581modernen": 5676, "\u2581Orte": 5677, "\u2581Road": 5678, "\u2581rapporteur": 5679, "\u2581huge": 5680, "GA": 5681, "TA": 5682, "\u2581Technische": 5683, "tar": 5684, "\u2581Leistungs": 5685, "list": 5686, "atur": 5687, "versicherung": 5688, "kan": 5689, "wasser": 5690, "PL": 5691, "\u258153": 5692, "-7": 5693, "At": 5694, "\u2581best\u00e4tigt": 5695, "\u2581formal": 5696, "\u2581Fahr": 5697, "Innen": 5698, "\u2581Anzeige": 5699, "hm": 5700, "\u2581Any": 5701, "\u2581fix": 5702, "information": 5703, "\u25814-": 5704, "\u2581camera": 5705, "\u2581shape": 5706, "\u2581advantages": 5707, "\u2581Welche": 5708, "\u2581betroffenen": 5709, "\u2581guidelines": 5710, "\u2581journey": 5711, "\u201e": 5712, "\u2581Niederlande": 5713, "\u2581w\u00e4ren": 5714, "\u2581multiple": 5715, "\u2581served": 5716, "ras": 5717, "\u2581Delivery": 5718, "\u2581speziell": 5719, "\u2581\u00e4u\u00dferst": 5720, "\u2581geschrieben": 5721, "\u2581lag": 5722, "\u2581Hinter": 5723, "\u2581besch\u00e4ftigt": 5724, "\u2581manage": 5725, "\u2581guest": 5726, "\u2581130": 5727, "\u2581Color": 5728, "einheit": 5729, "\u2581vorbei": 5730, "DER": 5731, "gut": 5732, "\u2581visits": 5733, "\u2581tests": 5734, "\u2581parallel": 5735, "DR": 5736, "TEN": 5737, "eln": 5738, "\u2581\u00dcberblick": 5739, "az": 5740, "\u2581betrachtet": 5741, "\u2581slightly": 5742, "\u2581morgen": 5743, "\u2581accounts": 5744, "\u2581beteiligt": 5745, "\u2581Profile": 5746, "\u2581kon": 5747, "\u2581expect": 5748, "\u2581Wissenschaftler": 5749, "\u2581moving": 5750, "\u2581couple": 5751, "\u2581l\u00f6sen": 5752, "\u2581Ber": 5753, "\u2581Louis": 5754, "\u2581Nu": 5755, "~": 5756, "\u2581Cat": 5757, "\u2581Pr\u00fcf": 5758, "serv": 5759, "\u2581factor": 5760, "\u2581teaching": 5761, "cu": 5762, "\u2581Eis": 5763, "\u2581Boote": 5764, "els": 5765, "OL": 5766, "\u2581ausw\u00e4hlen": 5767, "\u2581T\u00fcrkei": 5768, "\u2581Holy": 5769, "\u2581Haar": 5770, "Al": 5771, "ova": 5772, "\u2581firm": 5773, "\u2581Saturday": 5774, "\u2581creating": 5775, "\u2581Lehrer": 5776, "\u258125.": 5777, "\u2581challenge": 5778, "\u2581pieces": 5779, "schutzerkl\u00e4rung": 5780, "\u2581Voll": 5781, "AP": 5782, "\u2581Those": 5783, "\u2581Ol": 5784, "\u2581Chrome": 5785, "tec": 5786, "\u2581payments": 5787, "IE": 5788, "\u2581comfort": 5789, "\u2581t\u00e4glich": 5790, "\u2581SE": 5791, "\u2581Earth": 5792, "\u2581st\u00e4rker": 5793, "struktur": 5794, "\u2581FOR": 5795, "ash": 5796, "cur": 5797, "\u2581Zahlung": 5798, "\u2581representative": 5799, "\u25811983": 5800, "\u203a": 5801, "dar": 5802, "\u2581Werkzeug": 5803, "\u2581W\u00e4hlen": 5804, "eb": 5805, "\u2581mission": 5806, "ox": 5807, "\u2581Mittwoch": 5808, "\u2581religious": 5809, "\u258162": 5810, "\u2581spiritual": 5811, "\u2581Beratung": 5812, "\u2581Moreover": 5813, "\u2581Franz\u00f6sisch": 5814, "\u2581differences": 5815, "\u2581Monday": 5816, "\u2581husband": 5817, "\u2581erh\u00f6hen": 5818, "\u2581Aufmerksamkeit": 5819, "\u2581Ring": 5820, "\u2581server": 5821, "\u2581unbe": 5822, "alen": 5823, "\u2581Festlegung": 5824, "\u2581BO": 5825, "\u2581Bek\u00e4mpfung": 5826, "link": 5827, "point": 5828, "\u2581Sonnen": 5829, "\u2581contracts": 5830, "\u2581proceedings": 5831, "\u2581discuss": 5832, "ma\u00dfnahmen": 5833, "\u2581Fern": 5834, "\u2581Schritte": 5835, "\u2581W\u00e4rme": 5836, "\u2581identified": 5837, "\u2581preparation": 5838, "\u2581ST": 5839, "ef": 5840, "nic": 5841, "CH": 5842, "\u2581indicated": 5843, "\u2581Dad": 5844, "rich": 5845, "\u2581historischen": 5846, "\u2581Durchschnitt": 5847, "\u2581assets": 5848, "\u2581Doppel": 5849, "sbereich": 5850, "wer": 5851, "\u2581Vision": 5852, "bas": 5853, "\u2581Standort": 5854, "\u2581Montag": 5855, "\u2581Every": 5856, "\u2581Kamera": 5857, "\u2581Generation": 5858, "\u2581spend": 5859, "\u2581powers": 5860, "\u2581Richtlinien": 5861, "\u2581Kom": 5862, "\u2581Empfehlungen": 5863, "bildung": 5864, "tischen": 5865, "\u2581Guests": 5866, "\u2581liebe": 5867, "\u2581vermeiden": 5868, "\u2581investigation": 5869, "\u2581besucht": 5870, "\u2581gewinnen": 5871, "\u2581Voraussetzungen": 5872, "\u2581maximal": 5873, "\u2581eigenes": 5874, "\u2581meat": 5875, "\u2581Osten": 5876, "\u2581Javascript": 5877, "\u2581presentation": 5878, "\u00a4": 5879, "\u2581Tre": 5880, "\u2581Drill": 5881, "ising": 5882, "ks": 5883, "\u2581Kanada": 5884, "\u2581Leitung": 5885, "\u2581Uni": 5886, "\u2581Iran": 5887, "\u2581wasn": 5888, "\u2581plastic": 5889, "aff": 5890, "\u2581satellite": 5891, "\u2581raised": 5892, "\u2581kommenden": 5893, "\u2581Heizung": 5894, "\u2581Wednesday": 5895, "\u2581untersucht": 5896, "cho": 5897, "Sp": 5898, "\u2581Definition": 5899, "\u2581vorgesehenen": 5900, "\u2581mid": 5901, "\u2581privacy": 5902, "\u2581displayed": 5903, "post": 5904, "\u2581jederzeit": 5905, "ATION": 5906, "\u2581Fisch": 5907, "\u2581ge\u00f6ffnet": 5908, "\u2581Smart": 5909, "\u2581applies": 5910, "\u2581Finally": 5911, "\u2581Mil": 5912, "\u2581Dazu": 5913, "gio": 5914, "\u2581geschlossen": 5915, "ima": 5916, "tet": 5917, "rt": 5918, "\u2581zuletzt": 5919, "\u2581benutzen": 5920, "\u2581rating": 5921, "OP": 5922, "\u258191": 5923, "\u2581ber\u00fccksichtigen": 5924, "\u2581Tickets": 5925, "\u2581freien": 5926, "\u2581bedrooms": 5927, "\u2581Fort": 5928, "\u2581Sta": 5929, "\u2581update": 5930, "\u2581wei\u00dft": 5931, "\u2581verkauft": 5932, "book": 5933, "iti": 5934, "\u2581Gesicht": 5935, "\u2581driver": 5936, "\u2581fat": 5937, "rot": 5938, "\u2581Menschenrechte": 5939, "\u2581businesses": 5940, "\u258124.": 5941, "\u2581begin": 5942, "\u2581win": 5943, "\u2581Ideen": 5944, "\u2581lie\u00df": 5945, "\u2581recorded": 5946, "arm": 5947, "\u2581stone": 5948, "\u2581Cu": 5949, "Service": 5950, "lt": 5951, "\u2581Spirit": 5952, "6%": 5953, "\u2581Casino": 5954, "\u2581dient": 5955, "ziehen": 5956, "\u2581join": 5957, "ey": 5958, "\u2581gehalten": 5959, "\u2581\u00fcberall": 5960, "\u2581forget": 5961, "ics": 5962, "\u2581Very": 5963, "\u2581transmission": 5964, "\u2581Unterschied": 5965, "\u2010": 5966, "/5": 5967, "\u2581Fair": 5968, "Ha": 5969, "\u2581core": 5970, "\u2581Chapter": 5971, "\u2581older": 5972, "\u2581Adam": 5973, "Art": 5974, "gan": 5975, "\u2581Autovermietung": 5976, "olo": 5977, "ori": 5978, "\u2581Anna": 5979, "\u2581Betrag": 5980, "\u2581Mel": 5981, "\u2581gespeichert": 5982, "\u2581James": 5983, "\u2581Besuche": 5984, "ack": 5985, "II": 5986, "\u2581Muster": 5987, "\u2581Farm": 5988, "\u2581Kra": 5989, "\u2581Res": 5990, "Mit": 5991, "\u2581Verh\u00e4ltnis": 5992, "\u2581Allgemeine": 5993, "\u2581Brief": 5994, "0.00": 5995, "\u25815-": 5996, "\u2581ahead": 5997, "\u2581stability": 5998, "\u2581Inn": 5999, "\u2581Fax": 6000, "\u2581relativ": 6001, "\u2581Ltd": 6002, "\u2581Ga": 6003, "\u2581pick": 6004, "\u2581regionalen": 6005, "\u2581arrival": 6006, "\u2581Song": 6007, "\u2581entscheiden": 6008, "\u2581Programms": 6009, "dll": 6010, "ulation": 6011, "\u2581gebaut": 6012, "\u2581Case": 6013, "\u2581Overview": 6014, "\u2581marked": 6015, "\u2581l\u00e4nger": 6016, "\u2581sicherzustellen": 6017, "\u2581stimmt": 6018, "\u2581manchmal": 6019, "\u2581Deutschen": 6020, "\u2581informieren": 6021, "\u2581larger": 6022, "\u2581Anerkennung": 6023, "\u2581Gro": 6024, "\u2581Del": 6025, "\u2581ancient": 6026, "yn": 6027, "made": 6028, "\u2581jungen": 6029, "wechsel": 6030, "\u2581Bestellung": 6031, "\u258157": 6032, "DS": 6033, "licht": 6034, "\u2581ergeben": 6035, "\u2581angeboten": 6036, "\u2581Vorbereitung": 6037, "\u2581patient": 6038, "\u2581compliance": 6039, "typ": 6040, "\u2581Dem": 6041, "\u2581Stop": 6042, "\u2581Ausstattung": 6043, "su": 6044, "haft": 6045, "\u2581individuals": 6046, "\u2581Entwicklungen": 6047, "\u2581Apple": 6048, "nu": 6049, "\u258129.": 6050, "\u2581voller": 6051, "gg": 6052, "\u2581mode": 6053, "quality": 6054, "2016": 6055, "\u2581ye": 6056, "\u2581Accommodation": 6057, "\u2581Another": 6058, "\u258123.": 6059, "\u2581duration": 6060, "\u2581legt": 6061, "\u2581Ten": 6062, "\u2581healthy": 6063, "\u2581fa": 6064, "pu": 6065, "\u2581Schweizer": 6066, "\u2581CEO": 6067, "lung": 6068, "\u2581List": 6069, "schlag": 6070, "ets": 6071, "vel": 6072, "baren": 6073, "\u2581beds": 6074, "\u2581nachhaltige": 6075, "\u2581Arbeitgeber": 6076, "\u2581TO": 6077, "\u2581Mercedes": 6078, "AC": 6079, "Vor": 6080, "\u2581amounts": 6081, "\u2581reliable": 6082, "3%": 6083, "wesen": 6084, "\u258176": 6085, "\u2581Religion": 6086, "\u2581Elemente": 6087, "\u2581testing": 6088, "AM": 6089, "\u2581Sektor": 6090, "\u2581perfekt": 6091, "\u2581Revolution": 6092, "\u2581cash": 6093, "ification": 6094, "\u2581entstehen": 6095, "mut": 6096, "\u2581accessories": 6097, "\u2581Jahrhunderts": 6098, "\u2581passed": 6099, "\u2581Beziehung": 6100, "\u2581Standards": 6101, "uf": 6102, "ock": 6103, "\u2581Cal": 6104, "\u2581maybe": 6105, "\u2581soul": 6106, "wind": 6107, "\u2581Alexander": 6108, "\u2581hit": 6109, "\u2581memory": 6110, "\u2581VER": 6111, "\u2581acts": 6112, "\u2581tube": 6113, "\u2581session": 6114, "\u2581stets": 6115, "\u2581Bra": 6116, "\u2581bedroom": 6117, "\u2581EUROPEAN": 6118, "\u258158": 6119, "\u2581doubt": 6120, "och": 6121, "\u2581Engel": 6122, "\u2581miteinander": 6123, "\u2581Event": 6124, "ado": 6125, "\u2581Einfuhr": 6126, "\u2581adoption": 6127, "\u2581\u00dcbertragung": 6128, "\u2581Sammlung": 6129, "\u2581teil": 6130, "\u2581Puzzle": 6131, "\u25811981": 6132, "\u2581engineering": 6133, "\u2581Ti": 6134, "\u2581Stiftung": 6135, "\u2581Amt": 6136, "\u2581host": 6137, "\u2581User": 6138, "\u2581dank": 6139, "\u2581Stimme": 6140, "hal": 6141, "\u2581pretty": 6142, "\u2581Conditions": 6143, "\u2581Learn": 6144, "\u2581Samstag": 6145, "\u2581y": 6146, "\u2581respective": 6147, "k\u00f6rper": 6148, "\u2581Vereinbarung": 6149, "\u2581concluded": 6150, "\u2581Krebs": 6151, "dorf": 6152, "\u2581birth": 6153, "\u2581begr\u00fc\u00dft": 6154, "\u2581Erst": 6155, "\u2581Hoffnung": 6156, "\u2581manufacturers": 6157, "non": 6158, "\u2581coast": 6159, "Institut": 6160, "\u2581resulting": 6161, "\u2581vocational": 6162, "more": 6163, "\u2581Reg": 6164, "Shop": 6165, "\u2581Pop": 6166, "\u2581Dir": 6167, "\u2581Methode": 6168, "\u2581(3": 6169, "\u2581Statement": 6170, "\u2581falsch": 6171, "\u2581Jehovas": 6172, "\u2581komplett": 6173, "\u2581Parkplatz": 6174, "\u2581Elektro": 6175, "\u2581typical": 6176, "sia": 6177, "\u2581zuerst": 6178, "legung": 6179, "ions": 6180, "\u2581Liefer": 6181, "\u2581Account": 6182, "stell": 6183, "\u2581vorgelegt": 6184, "\u2581entlang": 6185, "\u2581overview": 6186, "\u2581Once": 6187, "\u2581listen": 6188, "\u2581Net": 6189, "\u2581president": 6190, "\u2581spent": 6191, "called": 6192, "\u2581ben\u00f6tigt": 6193, "\u2581claim": 6194, "\u2581Category": 6195, "\u2581Rooms": 6196, "holz": 6197, "Sa": 6198, "\u2581Update": 6199, "\u2581\u00dcbersetzung": 6200, "\u2581Arzneimittel": 6201, "text": 6202, "\u2581Nor": 6203, "\u2581nat\u00fcrliche": 6204, "\u2581Zulassung": 6205, "\u2581waiting": 6206, "\u2581Suite": 6207, "\u2581award": 6208, "\u2581Bildungs": 6209, "\u2581K\u00fchlschrank": 6210, "\u2581museum": 6211, "systems": 6212, "GB": 6213, "ky": 6214, "\u2581Les": 6215, "\u2581settings": 6216, "\u2581treated": 6217, "\u2581Autor": 6218, "IF": 6219, "\u2581Sch\u00fcler": 6220, "\u2581Bahnhof": 6221, "\u2581anhand": 6222, "\u2581Industrial": 6223, "\u2581Fr": 6224, "\u2581Klasse": 6225, "\u2581taste": 6226, "\u25811982": 6227, "pl": 6228, "\u2581verbessert": 6229, "\u258189": 6230, "ux": 6231, "bro": 6232, "\u2581Garantie": 6233, "with": 6234, "l\u00fc": 6235, "\u2581Ministry": 6236, "\u2581Poly": 6237, "gr\u00f6\u00dfe": 6238, "\u2581h\u00e4ngt": 6239, "gemeinschaftlich": 6240, "\u2581nat\u00fcrlichen": 6241, "\u2581B\u00fccher": 6242, "br": 6243, "verkehr": 6244, "\u2581Charter": 6245, "\u2581Tourismus": 6246, "\u2581organizations": 6247, "\u2581heutigen": 6248, "And": 6249, "\u2581forest": 6250, "ray": 6251, "\u2581Cre": 6252, "\u2581appears": 6253, "\u2581verhindern": 6254, "\u2581finanziellen": 6255, "\u2581African": 6256, "ane": 6257, "\u2581Justice": 6258, "das": 6259, "\u2581Bor": 6260, "\u2581deaktiviert": 6261, "\u2581ratio": 6262, "tung": 6263, "\u2581Nachdem": 6264, "\u2581Las": 6265, "\u2581Katalog": 6266, "\u2581\u00fcbrigen": 6267, "fach": 6268, "press": 6269, "\u2581Lehr": 6270, "\u2581Pri": 6271, "r\u00fcck": 6272, "\u2581Low": 6273, "FS": 6274, "ique": 6275, "\u2581Teilnahme": 6276, "ram": 6277, "\u2581sobald": 6278, "eng": 6279, "\u2581Full": 6280, "lag": 6281, "\u2581mark": 6282, "\u2581bi": 6283, "\u2581Ansatz": 6284, "ute": 6285, "Ex": 6286, "lot": 6287, "\u2581Pr\u00e4sidenten": 6288, "\u2581Amtsblatt": 6289, "\u2581element": 6290, "(3)": 6291, "\u2581Architektur": 6292, "\u2581Ms": 6293, "\u2581Rating": 6294, "\u2581Organ": 6295, "\u2581entitled": 6296, "itis": 6297, "mes": 6298, "\u2581cent": 6299, "\u2581copy": 6300, "\u2581exclusive": 6301, "\u2581Quick": 6302, "Berichterstatter": 6303, "\u2581geltenden": 6304, "\u00a7": 6305, "\u258150%": 6306, "\u2581requested": 6307, "setzen": 6308, "7%": 6309, "\u2581Schloss": 6310, "UL": 6311, "\u2581lieben": 6312, "\u2581survey": 6313, "stehen": 6314, "\u2581Erw\u00e4gung": 6315, "\u2581Zusammen": 6316, "\u2581chemical": 6317, "\u2581Gebieten": 6318, "\u2581orders": 6319, "\u2581author": 6320, "\u2581experienced": 6321, "\u2581limits": 6322, "\u2581absolute": 6323, "\u2581Change": 6324, "\u2581Cur": 6325, "\u2581conclusion": 6326, "\u2581Basic": 6327, "\u2581amending": 6328, "2%": 6329, "\u2581Mehrheit": 6330, "LA": 6331, "\u2581unabh\u00e4ngig": 6332, "\u2581Resort": 6333, "\u2581Diskussion": 6334, "\u2581Mu": 6335, "\u2581Freude": 6336, "\u2581notes": 6337, "\u2581obtain": 6338, "\u2581Entwurf": 6339, "\u2581gewonnen": 6340, "\u2581vorher": 6341, "\u25a0": 6342, "\u2581weak": 6343, "Wenn": 6344, "\u2581Tar": 6345, "\u2581strategic": 6346, "\u2581operators": 6347, "\u2581feet": 6348, "\u2581frame": 6349, "\u2581abzu": 6350, "\u2581inkl": 6351, "\u2581Rund": 6352, "wagen": 6353, "\u2581Lizenz": 6354, "\u2581till": 6355, "\u2581Alt": 6356, "\u2581WiFi": 6357, "\u2581spring": 6358, "\u2581driving": 6359, "\u2581heavy": 6360, "\u2581Pflege": 6361, "\u2581gl\u00fccklich": 6362, "\u2581Cross": 6363, "\u2581franz\u00f6sischen": 6364, "\u2581furniture": 6365, "\u2581gegebenenfalls": 6366, "\u00a3": 6367, "barkeit": 6368, "\u2581Hy": 6369, "pel": 6370, "\u2581consideration": 6371, "\u2581einge": 6372, "\u2581Sound": 6373, "Mar": 6374, "\u2581leads": 6375, "ped": 6376, "sam": 6377, "\u2581Komfort": 6378, "\u2581tomorrow": 6379, "\u2581;": 6380, "put": 6381, "bl": 6382, "\u2581automatic": 6383, "\u2581Aluminium": 6384, "\u2581Antworten": 6385, "\u2581Budapest": 6386, "\u2581seat": 6387, "All": 6388, "\u2581Schreiben": 6389, "bericht": 6390, "\u2581Literatur": 6391, "\u2581Botschaft": 6392, "0,00": 6393, "Team": 6394, "isches": 6395, "\u2581department": 6396, "tsch": 6397, "f\u00fchrer": 6398, "European": 6399, "\u2581Espa": 6400, "ea": 6401, "\u2581beauty": 6402, "\u2581beschlossen": 6403, "\u2581recognition": 6404, "\u2581Finland": 6405, "wood": 6406, "\u2581Niveau": 6407, "ric": 6408, "\u2581solid": 6409, "\u2581existence": 6410, "lock": 6411, "lie": 6412, "\u2581sage": 6413, "zel": 6414, "\u2581partnership": 6415, "\u2581aims": 6416, "\u2581recommendations": 6417, "\u2581spezielle": 6418, "\u2581moderne": 6419, "\u2581boy": 6420, "\u2581Additional": 6421, "\u25811979": 6422, "sort": 6423, "\u2581Lei": 6424, "\u2581easier": 6425, "\u2581stored": 6426, "\u2581Waffen": 6427, "\u2581Komponenten": 6428, "zimmer": 6429, "\u2581Indien": 6430, "\u2581feed": 6431, "Zu": 6432, "ular": 6433, "\u2581improvement": 6434, "\u2581coordination": 6435, "\u2581Ma\u00df": 6436, "\u2581Mom": 6437, "PS": 6438, "\u2581Lassen": 6439, "\u2581valid": 6440, "\u2581returned": 6441, "\u2581ISBN": 6442, "fu": 6443, "\u2581Gemeinsamen": 6444, "\u2581Freizeit": 6445, "voll": 6446, "\u2581h\u00f6her": 6447, "\u2581Frist": 6448, "\u2581claims": 6449, "halten": 6450, "\u2581Sale": 6451, "\u2581Gegen": 6452, "\u2581erhielt": 6453, "\u00f8": 6454, "\u2581Word": 6455, "\u2581mountains": 6456, "\u2581Casa": 6457, "bb": 6458, "\u2581signs": 6459, "\u2581despite": 6460, "\u2581hoffe": 6461, "\u2581Islands": 6462, "\u2581schneller": 6463, "\u2581Gal": 6464, "\u2581boats": 6465, "punkte": 6466, "\u2581Ce": 6467, "zig": 6468, "\u2581haupts\u00e4chlich": 6469, "NA": 6470, "\u2581girls": 6471, "\u2581ourselves": 6472, "\u2581Sat": 6473, "CE": 6474, "\u2581angesehen": 6475, "\u258184": 6476, "\u2581Milliarden": 6477, "\u2581Performance": 6478, "handel": 6479, "3)": 6480, "\u258159": 6481, "\u2581Gebiete": 6482, "\u2581iron": 6483, "\u2581extensive": 6484, "\u2581specifically": 6485, "PI": 6486, "\u2581pr\u00e4sentiert": 6487, "\u2581Koordinierung": 6488, "\u2581Registrieren": 6489, "\u2581gen": 6490, "\u2581participate": 6491, "\u2581Him": 6492, "\u2581Seele": 6493, "\u2581verursacht": 6494, "\u2581Steuern": 6495, "\u258187": 6496, "\u2581Has": 6497, "\u2581helps": 6498, "ante": 6499, "\u2581union": 6500, "gesch\u00e4ft": 6501, "\u2581Fraktion": 6502, "geben": 6503, "\u2581Instrumente": 6504, "ello": 6505, "\u2581university": 6506, "\u2581stellte": 6507, "ith": 6508, "\u2581bear": 6509, "Programm": 6510, "\u2581Bu": 6511, "las": 6512, "\u2581rural": 6513, "\u2581contrast": 6514, "\u2581offices": 6515, "\u2581langen": 6516, "MI": 6517, "\u2581siehe": 6518, "\u2581heating": 6519, "TO": 6520, "\u2581discussed": 6521, "nummer": 6522, "\u00f4": 6523, "\u2581Faktoren": 6524, "tier": 6525, "\u2581SMEs": 6526, "til": 6527, "\u2581Campingplatz": 6528, "\u2581depends": 6529, "\u2581showed": 6530, "ition": 6531, "\u2581upper": 6532, "BE": 6533, "\u2581f\u00e4llt": 6534, "\u2581meines": 6535, "\u2581erscheinen": 6536, "sky": 6537, "igung": 6538, "\u2581fordert": 6539, "\u2581Kredit": 6540, "\u2581Vielzahl": 6541, "\u2581Professional": 6542, "fl\u00e4che": 6543, "\u2581kids": 6544, "\u2581dangerous": 6545, "\u2581Berufs": 6546, "fragen": 6547, "bis": 6548, "\u2581Kein": 6549, "\u258124-": 6550, "\u2581einzu": 6551, "\u2581zumindest": 6552, "\u2581Sex": 6553, "tter": 6554, "cer": 6555, "fin": 6556, "\u2581neither": 6557, "\u00e4ng": 6558, "\u2581produziert": 6559, "\u2581Spring": 6560, "\u2581freuen": 6561, "leitung": 6562, "rk": 6563, "\u2581definition": 6564, "\u25811.3": 6565, "\u2581Display": 6566, "\u2581agriculture": 6567, "\u2581classic": 6568, "\u258199": 6569, "ably": 6570, "\u2581announced": 6571, "\u2581smart": 6572, "\u2581smaller": 6573, "\u2581Gro\u00dfbritannien": 6574, "\u2581finished": 6575, "\u2581Australien": 6576, "\u2581quick": 6577, "bon": 6578, "\u2581hilft": 6579, "\u2581Austrian": 6580, "\u201d.": 6581, "\u2581Geschwindigkeit": 6582, "\u2581Advanced": 6583, "eo": 6584, "\u2581command": 6585, "\u2581Copyright": 6586, "\u2581Image": 6587, "position": 6588, "\u2581broad": 6589, "\u2581organic": 6590, "projekt": 6591, "\u2581Ac": 6592, "\u2581MB": 6593, "\u2581Listen": 6594, "\u2581rock": 6595, "\u2581damals": 6596, "\u2581committed": 6597, "\u2581owner": 6598, "What": 6599, "\u2581married": 6600, "\u2581Fett": 6601, "\u2581resistance": 6602, "vert": 6603, "\u2581Rev": 6604, "300": 6605, "\u2581Laser": 6606, "ction": 6607, "med": 6608, "\u2581Shopping": 6609, "\u2581Common": 6610, "\u2581Einstellung": 6611, "\u2581Place": 6612, "\u2581transparent": 6613, "\u2581Han": 6614, "\u2581menschlichen": 6615, "EX": 6616, "\u2581Sol": 6617, "\u2581equivalent": 6618, "\u2581duties": 6619, "\u2581Richard": 6620, "\u2581conduct": 6621, "\u2581Angel": 6622, "ological": 6623, "FI": 6624, "\u2581Wohnzimmer": 6625, "\u258186": 6626, "\u2581Schluss": 6627, "\u2581Siehe": 6628, "\u2581definiert": 6629, "\u2581niemand": 6630, "version": 6631, "\u2581GDP": 6632, "\u2581Banken": 6633, "\u2581percentage": 6634, "\u2581Haustiere": 6635, "\u2581evil": 6636, "\u2581Allerdings": 6637, "\u2581Arbeitsmarkt": 6638, "win": 6639, "\u2581Treffen": 6640, "\u2581sex": 6641, "\u2581sorgt": 6642, "\u2581Kontroll": 6643, "\u2581voraus": 6644, "\u2581holding": 6645, "hol": 6646, "\u2581Umsatz": 6647, "\u2581female": 6648, "1999": 6649, "\u2581GE": 6650, "\u2581stands": 6651, "ens": 6652, "\u2581submit": 6653, "\u2581outdoor": 6654, "8%": 6655, "\u2581sheet": 6656, "\u2581CA": 6657, "\u2581Investment": 6658, "\u2581consequences": 6659, "\u2581Mund": 6660, "\u2581!": 6661, "\u2581concrete": 6662, "\u2581Partnerschaft": 6663, "m\u00f6glichkeiten": 6664, "ppen": 6665, "isiert": 6666, "\u2581chain": 6667, "\u2581increasingly": 6668, "\u2581entgegen": 6669, "\u2581H\u00f6chst": 6670, "\u2581supporting": 6671, "Com": 6672, "\u2581ensuring": 6673, "\u2581acid": 6674, "On": 6675, "\u2581Salzburg": 6676, "ii": 6677, "\u2581firms": 6678, "\u2581einfache": 6679, "\u2581hoher": 6680, "\u2581Meeting": 6681, "\u2581technological": 6682, "\u2581database": 6683, "\u2581Berichte": 6684, "eller": 6685, "\u2581Risiken": 6686, "\u2581secondary": 6687, "\u2581cleaning": 6688, "vent": 6689, "\u2581contributions": 6690, "\u2581recovery": 6691, "\u2581herunterladen": 6692, "\u2581covers": 6693, "\u2581Mikro": 6694, "\u2581verfolgt": 6695, "akt": 6696, "\u2581represent": 6697, "matic": 6698, "\u2581Op": 6699, "\u2581translation": 6700, "\u2581missing": 6701, "\u2581m\u00f6gen": 6702, "\u2581Sc": 6703, "\u2581Vielfalt": 6704, "\u2581Model": 6705, "\u2581richtigen": 6706, "\u2581F\u00f6rder": 6707, "\u2581Vertrauen": 6708, "\u2581l\u00e4uft": 6709, "\u2581Zivil": 6710, "\u2581Demokratie": 6711, "\u2581Malta": 6712, "\u2581ersetzt": 6713, "\u2581Spielfrei": 6714, "teile": 6715, "\u2581Ware": 6716, "\u2581index": 6717, "\u2581Engineering": 6718, "\u258166": 6719, "\u2581closely": 6720, "\u2581Studenten": 6721, "\u2581Women": 6722, "\u2581Schon": 6723, "gal": 6724, "\u2581kontaktieren": 6725, "\u2581ausreichend": 6726, "nnen": 6727, "ole": 6728, "bil": 6729, "europa": 6730, "avi": 6731, "bt": 6732, "\u2581anschlie\u00dfend": 6733, "\u2581ingredients": 6734, "\u201a": 6735, "\u2581schicken": 6736, "\u2581Schlaf": 6737, "\u2581Werbung": 6738, "tte": 6739, "\u2581Lang": 6740, "\u2581aufzu": 6741, "\u258126.": 6742, "\u2581MwSt": 6743, "\u2581contained": 6744, "gor": 6745, "\u2581Vereinigte": 6746, "\u2581angegeben": 6747, "\u2581Anschluss": 6748, "s\u00e4ure": 6749, "\u2581Amerika": 6750, "\u2581anzu": 6751, "Nach": 6752, "NE": 6753, "\u2581Vol": 6754, "eur": 6755, "\u258161": 6756, "istischen": 6757, "\u2581Rand": 6758, "\u2581Academy": 6759, "\u2581el": 6760, "\u2581Klicken": 6761, "\u2581occur": 6762, "4%": 6763, "\u2581eingerichtet": 6764, "\u2581operational": 6765, "\u2581Wird": 6766, "\u2581Allgemeinen": 6767, "\u2581mittels": 6768, "As": 6769, "zeichen": 6770, "\u2581erfolgen": 6771, "\u2581Latin": 6772, "\u2581Geschenk": 6773, "\u2581entrance": 6774, "\u2581Beim": 6775, "\u2581packaging": 6776, "\u2581grow": 6777, "\u2581Quality": 6778, "\u2581nieder": 6779, "\u2581soweit": 6780, "\u2581conflict": 6781, "\u2581Space": 6782, "\u2581painting": 6783, "\u2581Love": 6784, "\u2581wesentlichen": 6785, "produkte": 6786, "\u2581load": 6787, "\u2581comply": 6788, "\u2581j\u00e4hrlich": 6789, "\u2581par": 6790, "tain": 6791, "\u2581Route": 6792, "\u2581schwarz": 6793, "\u2581Block": 6794, "max": 6795, "pp": 6796, "\u2581Geburt": 6797, "\u201d,": 6798, "\u2581Pin": 6799, "tle": 6800, "\u2581College": 6801, "\u2581Atmosph\u00e4re": 6802, "\u2581Ma\u00dfnahme": 6803, "sport": 6804, "\u2581solcher": 6805, "\u258193": 6806, "\u2581Rede": 6807, "\u2581Verpflichtung": 6808, "lang": 6809, "\u2581flower": 6810, "\u2581Middle": 6811, "\u2581leader": 6812, "\u2581reicht": 6813, "\u2581h\u00f6chste": 6814, "\u2581bestimmter": 6815, "\u2581industries": 6816, "\u2581Tagung": 6817, "\u2581trend": 6818, "\u2581Fu": 6819, "\u2581Booking": 6820, "ml": 6821, "\u2581raw": 6822, "\u2581advertising": 6823, "\u2581Schi": 6824, "\u2581garantiert": 6825, "\u2581stable": 6826, "\u2581certificate": 6827, "TH": 6828, "\u2581Internationale": 6829, "\u2581Level": 6830, "\u2581langsam": 6831, "\u2581medicine": 6832, "\u2581statements": 6833, "\u2581erscheint": 6834, "\u25812)": 6835, "\u2581fr": 6836, "\u2581Quartal": 6837, "\u2581zus\u00e4tzlichen": 6838, "CI": 6839, "gung": 6840, "\u2581ice": 6841, "\u2581provider": 6842, "\u2581Arbeiter": 6843, "\u2581Ganz": 6844, "\u2581stuff": 6845, "\u2581Easy": 6846, "\u2581Vorhaben": 6847, "\u2581Their": 6848, "\u2581Zucker": 6849, "\u2581substance": 6850, "site": 6851, "\u2581nutzt": 6852, "\u2581represents": 6853, "\u2581managed": 6854, "\u2581Boat": 6855, "\u2581shares": 6856, "\u2581Entwicklungs": 6857, "\u2581affect": 6858, "\u2581youth": 6859, "organ": 6860, "\u2581extrem": 6861, "\u2581Industry": 6862, "\u2581Authority": 6863, "TI": 6864, "\u2581collaboration": 6865, "\u2581stress": 6866, "bre": 6867, "\u2581architecture": 6868, "\u258122:16:": 6869, "\u2581Einen": 6870, "\u2581Landschaft": 6871, "OT": 6872, "\u2581Eu": 6873, "\u2581LORD": 6874, "\u2581instructions": 6875, "\u25811.2": 6876, "\u2581latter": 6877, "inger": 6878, "\u2581h\u00f6here": 6879, "\u2581EP": 6880, "lim": 6881, "\u2581jene": 6882, "\u2581Speicher": 6883, "\u2581Premium": 6884, "gasse": 6885, "\u2581wesentlich": 6886, "\u2581Mrd": 6887, "ellen": 6888, "\u2581neun": 6889, "\u2581continues": 6890, "\u258163": 6891, "ient": 6892, "\u2581observed": 6893, "gie": 6894, "\u2581Merkmale": 6895, "\u2581becoming": 6896, "including": 6897, "tru": 6898, "ified": 6899, "\u2581ungef\u00e4hr": 6900, "\u2581Dach": 6901, "\u2581Zusatz": 6902, "\u2581aimed": 6903, "beschreibung": 6904, "\u2581Charles": 6905, "\u2581depending": 6906, "EA": 6907, "\u2581Washington": 6908, "\u2581Dokumente": 6909, "\u2581Foreign": 6910, "\u2581Available": 6911, "\u2581W\u00e4hrung": 6912, "\u2581Eisen": 6913, "\u2581Fl\u00e4che": 6914, "ement": 6915, "\u2581zone": 6916, "\u2581possibilities": 6917, "\u2581departure": 6918, "\u2581Fahrer": 6919, "\u2581Mobilit\u00e4t": 6920, "qualit\u00e4t": 6921, "\u2581Kreuz": 6922, "\u2581outstanding": 6923, "kg": 6924, "\u2581shared": 6925, "\u2581yes": 6926, "\u2581anbieten": 6927, "\u2581cycle": 6928, "\u2581binding": 6929, "\u2581Z\u00fcrich": 6930, "\u2581gro\u00dfes": 6931, "\u2581Ki": 6932, "SCH": 6933, "\u2581Cloud": 6934, "\u2581Kaiser": 6935, "\u2581\u00fcbernehmen": 6936, "\u2581PA": 6937, "\u2581finanzielle": 6938, "\u2581trends": 6939, "\u2581(4": 6940, "`": 6941, "\u2581failure": 6942, "\u2581Album": 6943, "\u2581Mc": 6944, "tis": 6945, "l\u00e4nder": 6946, "\u2581successfully": 6947, "\u2581competitive": 6948, "Qu": 6949, "amt": 6950, "\u2581Environment": 6951, "\u2581Schiff": 6952, "\u2581OS": 6953, "\u2581removed": 6954, "\u2581Extra": 6955, "anten": 6956, "ssystem": 6957, "\u2581debt": 6958, "fl": 6959, "\u2581Schwerpunkt": 6960, "\u2581Kit": 6961, "\u2581promotion": 6962, "\u2581Formular": 6963, "ank": 6964, "\u2581Standpunkt": 6965, "\u2581Facilities": 6966, "Bo": 6967, "nie": 6968, "\u2581Stellung": 6969, "\u2581tief": 6970, "\u2581dance": 6971, "\u2581Mus": 6972, "\u2581Pla": 6973, "\u2581Lass": 6974, "\u2581Ehe": 6975, "\u258127.": 6976, "\u2581perform": 6977, "\u2581einzigen": 6978, "\u2581Schw": 6979, "\u2581Os": 6980, "\u2581zug\u00e4nglich": 6981, "\u2581sights": 6982, "\u2581Export": 6983, "vid": 6984, "geschwindigkeit": 6985, "\u2581gain": 6986, "technologie": 6987, "\u2581represented": 6988, "\u2581agency": 6989, "\u2581identify": 6990, "\u258110%": 6991, "\u2581Saison": 6992, "lia": 6993, "setzung": 6994, "\u2581consultation": 6995, "\u2581locations": 6996, "ati": 6997, "\u2581bildet": 6998, "ziel": 6999, "cent": 7000, "cken": 7001, "\u2581Ch": 7002, "\u2581Protocol": 7003, "\u2581wouldn": 7004, "\u2581Fan": 7005, "\u2581increases": 7006, "\u2581Menu": 7007, "\u2581positions": 7008, "\u2581gew\u00e4hrleistet": 7009, "\u2581Ziff": 7010, "\u2581tri": 7011, "\u2581Tonnen": 7012, "\u2581Leitlinien": 7013, "\u2581silver": 7014, "\u2581Compare": 7015, "\u2581Baum": 7016, "\u2581Il": 7017, "\u2581Dutch": 7018, "\u2581appointed": 7019, "\u2581tourism": 7020, "\u2581controlled": 7021, "\u2581Ah": 7022, "\u2581Vom": 7023, "ico": 7024, "ever": 7025, "Ar": 7026, "\u2581berichtet": 7027, "\u2581component": 7028, "\u2581interface": 7029, "\u2581awarded": 7030, "oma": 7031, "-15": 7032, "\u2581Bel": 7033, "\u2581sonstige": 7034, "gli": 7035, "\u2581Damen": 7036, "haltung": 7037, "\u25812007-11-1": 7038, "\u2581wusste": 7039, "\u2581Zudem": 7040, "r\u00e9": 7041, "\u2581gepr\u00fcft": 7042, "\u2581Bedarf": 7043, "\u2581critical": 7044, "\u2581Executive": 7045, "\u2581prepare": 7046, "\u2581Laden": 7047, "funktion": 7048, "\u2581wenigen": 7049, "\u2581Cup": 7050, "\u2581Dia": 7051, "netz": 7052, "\u2581EEA": 7053, "\u2581noted": 7054, "\u2581governments": 7055, "\u2581Regierungen": 7056, "\u2581Flash": 7057, "verst\u00e4ndlich": 7058, "\u2581hinzu": 7059, "\u2581Japanese": 7060, "\u2581DES": 7061, "gewicht": 7062, "\u2581Wesen": 7063, "\u2581colours": 7064, "\u2581historic": 7065, "\u2581alter": 7066, "\u2581Lernen": 7067, "\u2581F\u00e4higkeit": 7068, "\u2581Simon": 7069, "\u2581Enterprise": 7070, "\u2581Communication": 7071, "\u2581schemes": 7072, "\u2581zentrale": 7073, "9%": 7074, "\u2581album": 7075, "\u2581fi": 7076, "\u2581gef\u00f6rdert": 7077, "\u2581wollten": 7078, "hor": 7079, "\u2581dagegen": 7080, "but": 7081, "\u2581sin": 7082, "\u2581Both": 7083, "\u2581nearly": 7084, "\u2581leider": 7085, "\u2581residence": 7086, "\u2581Modern": 7087, "eine": 7088, "\u2581camp": 7089, "\u2581Designer": 7090, "ger\u00e4t": 7091, "\u2581pure": 7092, "\u2581erlassen": 7093, "\u2581Stoffe": 7094, "\u2581Krankheit": 7095, "\u2581Rights": 7096, "\u2581lived": 7097, "ost": 7098, "\u2581Engagement": 7099, "\u2581snow": 7100, "\u2581Versicherungs": 7101, "\u2581Sch\u00f6n": 7102, "\u2581Zeugen": 7103, "\u2581Choose": 7104, "\u2581Heiligen": 7105, "lation": 7106, "\u2581Watch": 7107, "\u2581entschieden": 7108, "\u2581Einhaltung": 7109, "\u2581f\u00fchlen": 7110, "\u2581Priester": 7111, "get": 7112, "ij": 7113, "\u2581Town": 7114, "\u2581Seminar": 7115, "\u2581zeit": 7116, "\u2581sterben": 7117, "ts": 7118, "\u2581Drogen": 7119, "ral": 7120, "\u2581tradition": 7121, "\u2581stars": 7122, "\u2581conducted": 7123, "\u00fcn": 7124, "\u2581Bahn": 7125, "\u2581Initiativen": 7126, "Artikel": 7127, "fahren": 7128, "\u2581mobility": 7129, "\u2581Pf": 7130, "\u2581Zentral": 7131, "\u2581gesch\u00fctzt": 7132, "\u2581Comments": 7133, "xi": 7134, "ew": 7135, "tour": 7136, "\u2581Line": 7137, "\u2581entstanden": 7138, "\u2581H\u00e4nde": 7139, "reg": 7140, "\u2581Ma\u00dfe": 7141, "\u2581Mengen": 7142, "\u2581discover": 7143, "2003": 7144, "staaten": 7145, "\u2581accompanied": 7146, "\u2581Juden": 7147, "CA": 7148, "\u2581weiterer": 7149, "ct": 7150, "\u2581Laufe": 7151, "\u2581television": 7152, "\u2581sehe": 7153, "\u2581Finnland": 7154, "\u2581Tele": 7155, "\u2581attack": 7156, "\u2581Investitions": 7157, "\u2581DLL": 7158, "\u2581Cam": 7159, "\u2581Fluss": 7160, "\u2581er\u00f6ffnet": 7161, "\u2581daraus": 7162, "\u2581zus\u00e4tzlich": 7163, "\u2581Unterschiede": 7164, "verwaltung": 7165, "\u2581vision": 7166, "\u2581Hello": 7167, "\u2581undertakings": 7168, "\u2581mouth": 7169, "lip": 7170, "\u2581grant": 7171, "met": 7172, "\u2581Matt": 7173, "\u2581lebt": 7174, "por": 7175, "\u2581previously": 7176, "\u2581Effizienz": 7177, "\u2581MA": 7178, "\u2581Carl": 7179, "schein": 7180, "\u2581Sag": 7181, "\u2581Nachfrage": 7182, "\u2581Pol": 7183, "\u2581erz\u00e4hlt": 7184, "\u2581Second": 7185, "\u2581encourage": 7186, "\u2581truly": 7187, "\u2581seek": 7188, "itt": 7189, "enberg": 7190, "\u2581erzeugt": 7191, "gre": 7192, "\u201c)": 7193, "\u2581changing": 7194, "\u2581straight": 7195, "roll": 7196, "\u2581Northern": 7197, "gl": 7198, "schrift": 7199, "\u2581akzeptiert": 7200, "\u2581Optionen": 7201, "\u2581Write": 7202, "IO": 7203, "\u2581launched": 7204, "\u2581Cer": 7205, "\u2581Sil": 7206, "\u2581Mas": 7207, "maschine": 7208, "\u2581Far": 7209, "\u2581Ban": 7210, "steuer": 7211, "\u2581mine": 7212, "\u2581Volks": 7213, "\u2581Catholic": 7214, "\u2581Care": 7215, "\u2581register": 7216, "\u2581Mexico": 7217, "\u2581Vorteil": 7218, "\u2581Solutions": 7219, "\u2581sell": 7220, "\u2581Ausland": 7221, "\u2581primarily": 7222, "\u2581l\u00f6schen": 7223, "\u2581erkl\u00e4rte": 7224, "\u2581campsite": 7225, "\u2581Verst\u00e4ndnis": 7226, "\u2581mini": 7227, "\u2581sitting": 7228, "\u2581ver\u00e4ndert": 7229, "\u25813:": 7230, "1%": 7231, "\u2581measurement": 7232, "\u2581schwierig": 7233, "\u2581Meeres": 7234, "\u2581erw\u00e4hnt": 7235, "\u2581Detail": 7236, "\u2581Christen": 7237, "\u2581Arbeitsplatz": 7238, "\u2581Eastern": 7239, "\u2581Fire": 7240, "\u2581amendment": 7241, "\u2581profit": 7242, "\u2581fell": 7243, "\u2581Darstellung": 7244, "\u2581leaving": 7245, "\u2581violence": 7246, "\u2581club": 7247, "\u2581dog": 7248, "\u2581unbedingt": 7249, "istische": 7250, "tum": 7251, "\u2581gelegt": 7252, "ward": 7253, "\u2581signal": 7254, "\u2581Fortschritt": 7255, "\u2581regulatory": 7256, "\u2581\u00fcberzeugt": 7257, "\u2581confirmed": 7258, "\u2581beschrieben": 7259, "\u2581betreffend": 7260, "\u2581slow": 7261, "\u2581difficulties": 7262, "\u2581dream": 7263, "ple": 7264, "durch": 7265, "\u258178": 7266, "\u2581Fri": 7267, "\u2581sample": 7268, "\u2581sit": 7269, "\u2581Gebrauch": 7270, "\u2581Sim": 7271, "\u2581Jede": 7272, "\u2581Ereignisse": 7273, "OC": 7274, "kurs": 7275, "weise": 7276, "\u2581Schrift": 7277, "IR": 7278, "\u2581eng": 7279, "\u2581Wellness": 7280, "\u2581Aktien": 7281, "\u2581meist": 7282, "\u2581haven": 7283, "\u2581keiner": 7284, "\u2581patterns": 7285, "ng": 7286, "\u2581walking": 7287, "\u2581Salz": 7288, "\u2581Verhalten": 7289, "\u2581Content": 7290, "\u2581strengthen": 7291, "\u2581appearance": 7292, "\u2581landscape": 7293, "wing": 7294, "lig": 7295, "\u2581nine": 7296, "alter": 7297, "\u2581besitzt": 7298, "\u2581Tausende": 7299, "\u2581investments": 7300, "\u2581ER": 7301, "\u2581practitioners": 7302, "\u2581h\u00f6chsten": 7303, "\u2581powered": 7304, "\u2581herum": 7305, "\u2581relatively": 7306, "\u2581nearby": 7307, "\u2581einzelne": 7308, "\u2581Erwachsene": 7309, "\u2581Agentur": 7310, "\u2581bright": 7311, "kor": 7312, "\u2581Tim": 7313, "\u2581Linux": 7314, "\u2581Based": 7315, "\u2581erz\u00e4hlen": 7316, "sm\u00f6glichkeiten": 7317, "\u2581Secretary": 7318, "\u2581brain": 7319, "Vertrag": 7320, "Man": 7321, "\u25811975": 7322, "\u2581Meister": 7323, "run": 7324, "hy": 7325, "\u2581Galerie": 7326, "\u2581Str": 7327, "PE": 7328, "FF": 7329, "\u2581presents": 7330, "\u2581Alternative": 7331, "elt": 7332, "Alle": 7333, "\u2581Tools": 7334, "\u2581obligation": 7335, "\u2581erinnern": 7336, "\u2581pension": 7337, "\u2581Ker": 7338, "\u2581examination": 7339, "\u2581tourist": 7340, "\u2581Aussicht": 7341, "\u2581Croatia": 7342, "\u25811.4": 7343, "\u2581Classic": 7344, "nehmen": 7345, "\u2581thousand": 7346, "\u2581zahlen": 7347, "\u2581fourth": 7348, "\u2581Korea": 7349, "\u2581Stabilit\u00e4t": 7350, "\u258167": 7351, "eten": 7352, "\u2581160": 7353, "Am": 7354, "\u2581concentration": 7355, "\u2581Dar": 7356, "Di": 7357, "\u2581Eingang": 7358, "\u2581Gerichtshof": 7359, "\u2581deposit": 7360, "\u2581Stra": 7361, "\u2581endlich": 7362, "\u2581reduziert": 7363, "\u2581carefully": 7364, "\u25811960": 7365, "ira": 7366, "\u258168": 7367, "\u2581wenden": 7368, "\u2581controls": 7369, "\u2581festgelegten": 7370, "\u2581Albert": 7371, "\u2581110": 7372, "\u2581diet": 7373, "\u2581Corporate": 7374, "\u2581Exchange": 7375, "\u2581Bem\u00fchungen": 7376, "\u2581Sch\u00f6nheit": 7377, "\u2581whatever": 7378, "\u2581Verbindungen": 7379, "\u2581explain": 7380, "\u2581Studium": 7381, "\u2581Wal": 7382, "stat": 7383, "\u2581Modelle": 7384, "reise": 7385, "\u2581Rose": 7386, "strom": 7387, "\u2022": 7388, "mont": 7389, "rit": 7390, "\u2581Item": 7391, "\u2581nationaler": 7392, "\u2581Dich": 7393, "\u2581bath": 7394, "\u2581Schulen": 7395, "\u2581Datenbank": 7396, "\u2581Bed\u00fcrfnisse": 7397, "tem": 7398, "r\u00e4ume": 7399, "\u2581bewegen": 7400, "t\u00e4tigkeit": 7401, "\u2581handle": 7402, "erei": 7403, "\u2581attractive": 7404, "\u258110-": 7405, "\u2581Aufgrund": 7406, "\u2581Gem\u00fcse": 7407, "mor": 7408, "AU": 7409, "gue": 7410, "\u2581examples": 7411, "\u2581Ausf\u00fchrung": 7412, "\u2581Basel": 7413, "\u2581enables": 7414, "\u2581finance": 7415, "\u2581considerable": 7416, "zone": 7417, "2006": 7418, "\u2581studied": 7419, "\u2581Binnenmarkt": 7420, "nahme": 7421, "\u2581bike": 7422, "\u2581Normen": 7423, "\u2581Kommissar": 7424, "\u2581Em": 7425, "\u2581darstellen": 7426, "\u2581exposure": 7427, "\u2581Norden": 7428, "\u2581180": 7429, "\u2581secret": 7430, "\u2581Kreis": 7431, "\u2581Request": 7432, "NS": 7433, "\u2581Ursprung": 7434, "\u2581closer": 7435, "\u2581Weltbank": 7436, "\u2581Quellen": 7437, "\u2581cancer": 7438, "from": 7439, "\u2581Einwohner": 7440, "lle": 7441, "lum": 7442, "\u2581Schnee": 7443, "\u2581Infos": 7444, "\u2581Krise": 7445, "\u2581Bezeichnung": 7446, "\u2581reservation": 7447, "\u2581Jewish": 7448, "\u2581label": 7449, "\u2581BIP": 7450, "\u2581ruhig": 7451, "\u00d7": 7452, "kultur": 7453, "\u2581perfekte": 7454, "\u2581biggest": 7455, "ser": 7456, "\u258179": 7457, "\u2581agenda": 7458, "\u2581Zugriff": 7459, "\u2581niemals": 7460, "\u2581Abkommens": 7461, "\u2581\u00d6": 7462, "\u2581dinner": 7463, "\u2581Maschine": 7464, "\u2581fee": 7465, "\u2581\u00fcbermittelt": 7466, "\u2581deals": 7467, "\u2581Sur": 7468, "\u258120%": 7469, "\u2581Zi": 7470, "\u2581Tee": 7471, "\u2581collected": 7472, "\u2581municipality": 7473, "\u2581Worten": 7474, "\u2581Applikation": 7475, "\u2581offene": 7476, "\u2581delete": 7477, "\u2581Apps": 7478, "\u2581entdecken": 7479, "\u2581wear": 7480, "angebot": 7481, "\u2581fe": 7482, "\u2581invited": 7483, "oxid": 7484, "law": 7485, "\u2581Protokoll": 7486, "\u2581Follow": 7487, "\u2581contents": 7488, "\u2581Shi": 7489, "\u2581empty": 7490, "\u2581temporary": 7491, "\u2581Gegenstand": 7492, "\u2581gesellschaft": 7493, "\u2581iPhone": 7494, "\u2581Ferien": 7495, "\u2581Kommunikations": 7496, "\u2581fashion": 7497, "dic": 7498, "\u2581Silber": 7499, "\u2581berechnet": 7500, "\u2581ta": 7501, "\u2581Andreas": 7502, "\u2581Ohne": 7503, "\u258173": 7504, "\u2581bewusst": 7505, "\u2581informiert": 7506, "\u2581Stefan": 7507, "\u2581student": 7508, "\u2581Aktionen": 7509, "\u2581Properties": 7510, ".3.": 7511, "\u2581campaign": 7512, "gemeinschaft": 7513, "\u2581[2]": 7514, "\u2581vorgenommen": 7515, "\u2581sides": 7516, "\u2581Ferienhaus": 7517, "\u2581democracy": 7518, "\u2581Ausfuhr": 7519, "\u2581heading": 7520, "\u2581Kat": 7521, "ore": 7522, "\u2581Ali": 7523, "5%": 7524, "\u2581lake": 7525, "\u2581desire": 7526, "\u2581Porto": 7527, "\u2581continuing": 7528, "\u2581Bestandteil": 7529, "\u2581m\u00f6glichst": 7530, "\u2581gelegen": 7531, "\u2581reporting": 7532, "\u2581interessiert": 7533, "geht": 7534, "\u2581Forscher": 7535, "\u2581Collection": 7536, "\u2581Medical": 7537, "u\u00df": 7538, "\u25818,": 7539, "kov": 7540, "GE": 7541, "sum": 7542, "\u2581expert": 7543, "\u2581digitalen": 7544, "\u2581Element": 7545, "\u2581angewendet": 7546, "\u2581europ\u00e4ischer": 7547, "lassen": 7548, "\u2581standing": 7549, "\u2581Leipzig": 7550, "suche": 7551, "\u2581justice": 7552, "\u2581bottom": 7553, "\u2581erzielt": 7554, "\u2581Gewinn": 7555, "\u2581erteilt": 7556, "\u2581treten": 7557, "\u2581Aussprache": 7558, "\u2581Schwester": 7559, "\u2581parameters": 7560, "\u2581ferner": 7561, "\u2581starke": 7562, "\u2581goals": 7563, "\u2581Betten": 7564, "400": 7565, "\u2581speichern": 7566, "\u2581demands": 7567, "\u2581Three": 7568, "Vi": 7569, "\u2581kostenlose": 7570, "\u2581whereas": 7571, "\u2581Poker": 7572, "\u2581Reaktion": 7573, "\u2581gew\u00e4hlt": 7574, "PR": 7575, "\u2581looked": 7576, "schnitt": 7577, "Gruppe": 7578, "cin": 7579, "\u2581brings": 7580, "\u258171": 7581, "\u2581constant": 7582, "h\u00f6he": 7583, "\u2581700": 7584, "\u2581liefert": 7585, "\u2581bisschen": 7586, "/2": 7587, "gesetz": 7588, "\u2581gefallen": 7589, "\u2581Verteilung": 7590, "\u2581EWR": 7591, "\u2581explained": 7592, "\u2581Guest": 7593, "\u2581printing": 7594, "\u2581Medizin": 7595, "\u2581couldn": 7596, "\u2581gr\u00f6\u00dferen": 7597, "\u2581filter": 7598, "\u2581tea": 7599, "tieren": 7600, "\u2581Egypt": 7601, "\u2581frequently": 7602, "\u2581Tell": 7603, "\u2581illegal": 7604, "af": 7605, "\u2581Satz": 7606, "ausstattung": 7607, "\u2581Resolution": 7608, "-11": 7609, "ois": 7610, "\u2581manufacture": 7611, "Li": 7612, "App": 7613, "\u2581Gallery": 7614, "4)": 7615, "MC": 7616, "\u2581Insgesamt": 7617, ".6.": 7618, "trag": 7619, "\u2581shops": 7620, "\u2581sky": 7621, "\u2581Berechnung": 7622, "\u2581Cro": 7623, "\u2581Versandkosten": 7624, "\u2581Bereitstellung": 7625, "\u2581Verbreitung": 7626, "\u2581GB": 7627, "TP": 7628, "\u2581block": 7629, "preise": 7630, "\u2581hall": 7631, "\u2581calculated": 7632, "\u2581agencies": 7633, "\u2581Genau": 7634, "\u2581arm": 7635, "\u2581taxes": 7636, "\u2581hospital": 7637, "\u2581filled": 7638, "operation": 7639, "\u2581Verfolgung": 7640, "\u2581Friedrich": 7641, "versorgung": 7642, "\u2581Referenz": 7643, "place": 7644, "\u2581impossible": 7645, "\u2581GPS": 7646, "\u2581formed": 7647, "\u2581Regen": 7648, "making": 7649, "\u2581Prozesse": 7650, "\u2581clock": 7651, "srecht": 7652, "mehr": 7653, "\u2581guarantees": 7654, "related": 7655, "\u2581Fahrrad": 7656, "\u2581Hungary": 7657, "\u2581trading": 7658, "\u2581ausdr\u00fccklich": 7659, "\u2581onto": 7660, "\u2581facility": 7661, "\u2581verbindlich": 7662, "\u2581Gestaltung": 7663, "\u2581Anstieg": 7664, "\u2581Sprach": 7665, "\u2581Gri": 7666, "\u2581gestalten": 7667, "\u2581Employment": 7668, "\u2581Asien": 7669, "\u2581mention": 7670, "\u2581Italiano": 7671, "\u2581Rio": 7672, "\u2581statistical": 7673, "\u2581corporate": 7674, "\u2581Beweis": 7675, "Se": 7676, "Po": 7677, "linie": 7678, "\u2581ausgef\u00fchrt": 7679, "\u2581drug": 7680, "\u2581Small": 7681, "via": 7682, "Mi": 7683, "\u2581beinhaltet": 7684, "key": 7685, "\u2581gr\u00f6\u00dfer": 7686, "\u2581beziehen": 7687, "\u2581erheblich": 7688, "\u2581declaration": 7689, "\u2581Currently": 7690, "\u2581ho": 7691, "\u2581surrounded": 7692, "\u2581gerecht": 7693, "\u2581appeal": 7694, "\u2581situations": 7695, "ua": 7696, "nde": 7697, "\u2581erleben": 7698, "\u2581periods": 7699, "hotel": 7700, "glas": 7701, "schau": 7702, "\u2581greatest": 7703, "\u2581Versuch": 7704, "\u2581injection": 7705, "aries": 7706, "rum": 7707, "\u2581erfordert": 7708, "\u2581Symbol": 7709, "gon": 7710, "SH": 7711, "\u2581Hell": 7712, "AB": 7713, "\u2581Mountain": 7714, "\u2581Verlust": 7715, "\u2581blind": 7716, "\u2581Voraus": 7717, "\u2581topic": 7718, "\u2581unge": 7719, "Ad": 7720, "\u2581addressed": 7721, "\u2581versions": 7722, "\u2581waters": 7723, "\u2581Kroatien": 7724, "\u2581relative": 7725, "long": 7726, "\u2581carbon": 7727, "References": 7728, "\u2581supposed": 7729, "\u2581regularly": 7730, "\u2581Lauf": 7731, "ami": 7732, "betrieb": 7733, "\u2581guess": 7734, "\u2581Division": 7735, "\u2581module": 7736, "\u2581Werbe": 7737, "\u2581counter": 7738, "\u2581grounds": 7739, "\u2581remaining": 7740, "wort": 7741, "\u2581Password": 7742, "\u2581HERR": 7743, "ENT": 7744, "icht": 7745, "\u2581handling": 7746, "EP": 7747, "\u2581Hard": 7748, "\u2581basiert": 7749, "\u2581Traum": 7750, "\u2581Untersuchungen": 7751, "\u2581Lohn": 7752, "dung": 7753, "\u258177": 7754, "\u2581expertise": 7755, "\u2581Kirchen": 7756, "meter": 7757, "\u2581Schuld": 7758, "\u2581Massen": 7759, "\u2581visible": 7760, "\u2581Oberfl\u00e4che": 7761, "\u2581Wait": 7762, "onne": 7763, "\u2581su": 7764, "\u2581S\u00fcden": 7765, "\u2581Castle": 7766, "\u2581effectively": 7767, "\u2581Geh": 7768, "\u2581nennen": 7769, "oid": 7770, "\u2581auto": 7771, "\u2581Yacht": 7772, "\u2581beschr\u00e4nkt": 7773, "\u2581diseases": 7774, "\u2581Sachen": 7775, "\u2581Gem\u00e4\u00df": 7776, "\u2581postal": 7777, "rid": 7778, "Un": 7779, "bedarf": 7780, "\u2581F\u00e4lle": 7781, "\u2581Young": 7782, "HA": 7783, "\u2581http": 7784, "\u2581balcony": 7785, "600": 7786, "\u2581PS": 7787, "\u258110/10": 7788, "\u2581Sales": 7789, "Preis": 7790, "\u2581edition": 7791, "falls": 7792, "\u2581Schlacht": 7793, "\u2581gehe": 7794, "organisationen": 7795, "\u2581operator": 7796, "\u2581vital": 7797, "uni": 7798, "\u2581ME": 7799, "\u2581Wieso": 7800, "\u2581newsletter": 7801, "\u2581panel": 7802, "\u2581producer": 7803, "\u2581democratic": 7804, "kat": 7805, "\u2581SP": 7806, "\u2581Grill": 7807, "\u00e4ch": 7808, "\u2581expression": 7809, "rock": 7810, "\u25814.0": 7811, "\u2581Marina": 7812, "oth": 7813, "\u2581Wettbewerbs": 7814, "\u2581Phone": 7815, "\u2581Direktor": 7816, "Net": 7817, "}": 7818, "\u2581express": 7819, "\u2581Stadtzentrum": 7820, "\u2581eindeutig": 7821, "essen": 7822, "\u2581requirement": 7823, "\u2581Zweifel": 7824, "\u2581spezifischen": 7825, "\u2581bag": 7826, "\u2581happens": 7827, "\u2581M\u00f6chte": 7828, "\u2581promoting": 7829, "\u2581immediate": 7830, "\u2581unver": 7831, "\u2581Sky": 7832, "gestellt": 7833, "BS": 7834, "\u2581remained": 7835, "\u258198": 7836, "\u2581applicant": 7837, "\u2581laufen": 7838, "\u25811.5": 7839, "etz": 7840, "card": 7841, "\u25811978": 7842, "\u2581Junge": 7843, "\u2581scene": 7844, "rel": 7845, "\u2581Paket": 7846, "\u2581Index": 7847, "nung": 7848, "\u2581calling": 7849, "\u2581topics": 7850, "\u2581Bon": 7851, "\u2581hundred": 7852, "\u2581Translate": 7853, "\u2581consent": 7854, "mos": 7855, "\u2581Ver\u00e4nderung": 7856, "\u2581Following": 7857, "Car": 7858, "\u2581Anne": 7859, "\u2581globalen": 7860, "\u2581kinds": 7861, "\u2581dritte": 7862, "\u2581Night": 7863, "CD": 7864, "\u2581inklusive": 7865, "gin": 7866, "\u2581researchers": 7867, "\u2581darstellt": 7868, "\u2581vessels": 7869, "lay": 7870, "CP": 7871, "EE": 7872, "\u2581Fer": 7873, "dro": 7874, "\u25812.0": 7875, "\u2581140": 7876, "\u2581solve": 7877, "\u2581YouTube": 7878, "\u2581priorities": 7879, "Ja": 7880, "\u2581sort": 7881, "\u2581Lisbon": 7882, "\u2581Eigen": 7883, "\u2581Mol": 7884, "\u2581Erf\u00fcllung": 7885, "\u2581extreme": 7886, "\u2581Sar": 7887, "\u2581Fahrzeuge": 7888, "\u2581\u00c4": 7889, "\u2581client": 7890, "\u2581flexibility": 7891, "\"?": 7892, "\u2581facilitate": 7893, "\u2581Arab": 7894, "\u2581dringend": 7895, "\u2581west": 7896, "\u2581Thailand": 7897, "\u2581forced": 7898, "\u2581Johann": 7899, "\u2581Fonds": 7900, "\u2581Konzert": 7901, "\u2581angewandt": 7902, "\u2581specifications": 7903, "\u2581rail": 7904, "rung": 7905, "\u2581laying": 7906, ",\u201d": 7907, "wei": 7908, "\u2581pleased": 7909, "\u2581Point": 7910, "\u2581log": 7911, "\u2581centres": 7912, "\u00dcber": 7913, "\u00a1": 7914, "nica": 7915, "\u2581dimensions": 7916, "\u2581Spe": 7917, "\u258174": 7918, "\u2581Grenze": 7919, "\u2581Stay": 7920, "\u2581match": 7921, "\u2581confidence": 7922, "\u2581Rent": 7923, "\u2581geschehen": 7924, "\u2581covering": 7925, "\u2581Besides": 7926, "\u2581poverty": 7927, "\u2581abh\u00e4ngig": 7928, "\u2581Transparenz": 7929, "\u2581farmers": 7930, "\u2581fill": 7931, "\u2581Obst": 7932, "minister": 7933, "\u2581Dress": 7934, "\u2581ring": 7935, "\u2581gentlemen": 7936, "\u2581monetary": 7937, "nik": 7938, "\u2581weiteres": 7939, "\u2581east": 7940, "\u2581planen": 7941, "right": 7942, "\u2581n\u00f6tig": 7943, "RM": 7944, "kur": 7945, ".2.": 7946, "sch\u00e4": 7947, "\u2581supplies": 7948, "\u2581Bosch": 7949, "ali": 7950, "\u2581Mut": 7951, "\u2581desk": 7952, "\u2581m\u00f6glichen": 7953, "\u2581abroad": 7954, "\u2581Gang": 7955, "\u2581Milit\u00e4r": 7956, "\u2581pers\u00f6nliche": 7957, "\u2581Run": 7958, "\u2581Bro": 7959, "\u2581monitor": 7960, "\u2581angesichts": 7961, "2.1": 7962, "\u2581perfectly": 7963, "\u2581zufrieden": 7964, "\u2581adults": 7965, "gehalt": 7966, "\u2581thou": 7967, "\u2581SO": 7968, "\u2581pleasure": 7969, "uv": 7970, "\u2581surrounding": 7971, "\u2581l\u00e4\u00dft": 7972, "schule": 7973, "RP": 7974, "\u2581suffering": 7975, "\u2581z\u00e4hlt": 7976, "\u2581Ferienwohnung": 7977, "\u25811973": 7978, "\u2581Fischer": 7979, "\u2581aircraft": 7980, "\u2581conclusions": 7981, "\u2581op": 7982, "\u2581therapy": 7983, "\u2581Autos": 7984, "head": 7985, "\u2581patent": 7986, "\u25811977": 7987, "\u2581audience": 7988, "\u2581gross": 7989, "\u2581loans": 7990, "f\u00fchren": 7991, "\u2581Sorry": 7992, "\u2581Bol": 7993, "gericht": 7994, "\u2581Dublin": 7995, "kom": 7996, "cor": 7997, "unk": 7998, "\u2581Kundenservice": 7999, "\u2581noise": 8000, "\u2581leaders": 8001, "cro": 8002, "\u2581kurzen": 8003, "\u2581Ed": 8004, "pra": 8005, "\u2581Metal": 8006, "\u2581Debatte": 8007, "\u2581Tut": 8008, "\u2581Moses": 8009, "gle": 8010, "sar": 8011, "\u2581receiving": 8012, "\u2581walls": 8013, "\u2581Bord": 8014, "zeug": 8015, "\u2581diverse": 8016, "\u2581ISPO": 8017, "\u2581kurze": 8018, "\u2581Ungarn": 8019, "\u2581Moon": 8020, "\u2581Konzentration": 8021, "\u2581Signal": 8022, "ident": 8023, "\u2581CH": 8024, "\u2581neuesten": 8025, "\u2581Audi": 8026, "\u2581organized": 8027, "\u2581Nachhaltigkeit": 8028, "\u2581lay": 8029, "\u2581fucking": 8030, ")*": 8031, "\u2581ergibt": 8032, "\u2581Bist": 8033, "\u2581Jews": 8034, "dienste": 8035, "\u2581vollst\u00e4ndige": 8036, "\u2581F\u00fchrung": 8037, "\u2581notwendigen": 8038, "dra": 8039, "\u2581F\u00e4higkeiten": 8040, "\u2581finding": 8041, "\u2581Wunder": 8042, "\u2581sicheren": 8043, "\u2581compare": 8044, "\u2581Registrierung": 8045, "\u2581Ideal": 8046, "\u2581texts": 8047, "\u2581nations": 8048, "\u2581Fre": 8049, "\u2581Hauptstadt": 8050, "\u2581afraid": 8051, "\u2581arms": 8052, "\u2581vary": 8053, "\u2581Franz": 8054, "wan": 8055, "\u2581Oil": 8056, "\u2581Dort": 8057, "\u2581ju": 8058, "\u2581\u00e4hnlich": 8059, "\u2581Would": 8060, "\u2581operate": 8061, "\u2581frequency": 8062, "\u2581MS": 8063, "LO": 8064, "-9": 8065, "\u2581(+": 8066, "\u258169": 8067, "\u2581edge": 8068, "\u2581raise": 8069, "\u2581z\u00e4hlen": 8070, "\u2581kombiniert": 8071, "\u2581Mass": 8072, "\u2581laut": 8073, "\u2581drawing": 8074, "{": 8075, "\u2581Ankunft": 8076, "\u2581Credit": 8077, "\u2581sonstigen": 8078, "DC": 8079, "h\u00e4": 8080, "\u2581Erh\u00f6hung": 8081, "\u2581expansion": 8082, "\u2581Plattform": 8083, "\u2581employed": 8084, "lit": 8085, "like": 8086, "\u2581allgemein": 8087, "f\u00e4lle": 8088, "SO": 8089, "\u2581Gre": 8090, "\u2581Sorge": 8091, "\u2581Termin": 8092, "\u2581Schlie\u00dflich": 8093, "\u2581starts": 8094, "\u2581Hinsicht": 8095, "ink": 8096, "ativ": 8097, "\u2581dynamic": 8098, "\u2581bezieht": 8099, "\u2581Achtung": 8100, "cke": 8101, "\u2581Operation": 8102, "\u2581collect": 8103, "\u2581verf\u00fcgbaren": 8104, "\u2581lie": 8105, "\u2581finde": 8106, "stor": 8107, "waren": 8108, "\u2581drop": 8109, "\u2581125": 8110, "\u2581dealing": 8111, "\u2581worry": 8112, "\u2581AB": 8113, "erweise": 8114, "elli": 8115, "\u2581Sehen": 8116, "\u2581brachte": 8117, "\u2581theme": 8118, "\u2581Verfahrens": 8119, "\u2581Player": 8120, "\u2581begonnen": 8121, "\u2581Satan": 8122, "\u2581Captain": 8123, "\u2581rain": 8124, "\u2581dining": 8125, "\u25811976": 8126, "\u2581Culture": 8127, "\u2581transparency": 8128, "\u2581joined": 8129, "\u2581Spezial": 8130, "\u2581IS": 8131, "\u2581Cho": 8132, "\u2581Luxus": 8133, "\u2581Eco": 8134, "aria": 8135, "\u2020": 8136, "\u2581Gross": 8137, "\u2581SC": 8138, "\u2581Spanisch": 8139, "\u2581sweet": 8140, "\u2581shit": 8141, "\u2581legislative": 8142, "\u2581w\u00fcnschen": 8143, "\u2581mostly": 8144, "\u2581Direct": 8145, "\u2581bitten": 8146, "cul": 8147, "\u2581speaking": 8148, "\u2581reducing": 8149, "\u2581aufgef\u00fchrt": 8150, "\u2581absolutely": 8151, "\u2581Kapazit\u00e4t": 8152, "\u2581Einfuhren": 8153, "\u2581properly": 8154, "\u2581sc": 8155, "\u2581Char": 8156, "sprozess": 8157, "\u2581Auge": 8158, "ban": 8159, "\u2581menschliche": 8160, "\u2581Wechsel": 8161, "\u2581shot": 8162, "\u2581sp\u00e4t": 8163, "\u2581Natural": 8164, "wahl": 8165, "\u2581Modul": 8166, "\u2581offensichtlich": 8167, "\u2581Golden": 8168, "\u2581sport": 8169, "\u2581RO": 8170, "pack": 8171, "stock": 8172, "\u2581(5": 8173, "programme": 8174, "\u2581processed": 8175, "\u2581respectively": 8176, "\u2581BlueOptics": 8177, "\u258182": 8178, "\u2581Sekunden": 8179, "\u2581trouble": 8180, "\u2581gesprochen": 8181, "\u2581Internationalen": 8182, "\u2581ansehen": 8183, "\u2581Kn": 8184, "\u2581empfohlen": 8185, "\u2581starb": 8186, "\u2581danke": 8187, "\u2581inner": 8188, "\u2581Building": 8189, "\u2581starken": 8190, "\u2581guidance": 8191, "\u2581Breite": 8192, "\u2581komme": 8193, "scha": 8194, "\u2581regionale": 8195, "\u2581cast": 8196, "\u2581techniques": 8197, "\u2581Which": 8198, "\u2581hearing": 8199, "\u2581strategies": 8200, "\u2581inclusive": 8201, "\u2581(5)": 8202, "\u2581selben": 8203, "\u2581Uh": 8204, "\u2581staatliche": 8205, "\u2581fees": 8206, "\u2581Friedens": 8207, "\u2581Objekte": 8208, "\u2581Pack": 8209, "\u2581Keep": 8210, "\u2581finanziert": 8211, "\u2581rot": 8212, "\u2581continuous": 8213, "\u2581Westen": 8214, "\u2581railway": 8215, "down": 8216, "\u2581genehmigt": 8217, "\u2581gerichtet": 8218, "\u2581helped": 8219, "\u2581drucken": 8220, "\u2581contemporary": 8221, "\u2581Freunden": 8222, "\u2581finish": 8223, "\u2581Abteilung": 8224, "\u2581treat": 8225, "\u2581Queen": 8226, "Benz": 8227, "06:00": 8228, "\u2581handeln": 8229, "\u2581Photos": 8230, "\u2581Alex": 8231, "\u2581updated": 8232, "\u2581Toilet": 8233, "\u2581Artikeln": 8234, "\u2581Konzern": 8235, "\u2581causes": 8236, "\u2581explains": 8237, "\u2581sister": 8238, "wissenschaften": 8239, "\u2581Rank": 8240, "\u2581Nichts": 8241, "\u2581competitiveness": 8242, "lis": 8243, "\u2581Verk\u00e4ufer": 8244, "scher": 8245, "\u2581Springe": 8246, "\u2581Zustimmung": 8247, "\u2581Pr\u00e4sidentin": 8248, "\u2581Pharma": 8249, "\u2581verschiedener": 8250, "\u2581Jedes": 8251, "Hotel": 8252, "\u2581occasion": 8253, "\u25811.1": 8254, "ious": 8255, "\u2581Schatz": 8256, "\u2581CON": 8257, "\u2581Bell": 8258, "\u2581motion": 8259, "TC": 8260, "SR": 8261, "Und": 8262, "trans": 8263, "\u2581Style": 8264, "\u2581Herkunft": 8265, "\u2581wann": 8266, "\u2581Remember": 8267, "\u2581lieber": 8268, "\u2581input": 8269, "\u2581schnelle": 8270, "\u2581absolut": 8271, "\u2581Texte": 8272, "\u2581clinical": 8273, "\u2581pleasant": 8274, "\u2581genauso": 8275, "\u2581interior": 8276, "\u2581Wann": 8277, "\u2581Schiffe": 8278, "og": 8279, "\u2581Mad": 8280, "\u2581beobachtet": 8281, "rac": 8282, "\u2581Lissabon": 8283, "\u2581discussions": 8284, "\u2581scientists": 8285, "**": 8286, "\u00e4t": 8287, "\u2581Beste": 8288, "\u2581Ziffer": 8289, "\u2581colors": 8290, "\u2581adequate": 8291, "\u2581welchen": 8292, "\u2581southern": 8293, "ML": 8294, "\u2581identity": 8295, "\u2581functional": 8296, "\u2581Sicher": 8297, "\u2581betont": 8298, "\u2581creative": 8299, "lat": 8300, "\u2581stimmen": 8301, "\u2581Steuerung": 8302, "\u2581charges": 8303, "/3": 8304, "\u2581stations": 8305, "\u2581quantity": 8306, "\u2581wanna": 8307, "einander": 8308, "aw": 8309, "\u2581Sh": 8310, "\u2581ladies": 8311, "\u2581s\u00e4mtliche": 8312, "\u2581emergency": 8313, "\u2581involving": 8314, "fish": 8315, "\u2581rapid": 8316, "\u2581holidays": 8317, "\u2581Dosis": 8318, "class": 8319, "\u2581namely": 8320, "\u258197": 8321, "\u2581Rate": 8322, "meister": 8323, "\u2581Double": 8324, "\u2581regime": 8325, "\u2581deutsch": 8326, "\u2581Sterne": 8327, "\u2581Herbst": 8328, "\u2581Hostel": 8329, "\u2581Ak": 8330, "\u2581[1]": 8331, "\u2581schwach": 8332, "arch": 8333, "\u2581Stimmen": 8334, "\u2581gallery": 8335, "\u2581erstmals": 8336, "ehr": 8337, "\u2581collective": 8338, "\u2581schlecht": 8339, "\u2581Kostenlose": 8340, "\u2581leather": 8341, "\u258181": 8342, "\u2581Stockholm": 8343, "\u2581intervention": 8344, "\u2581Hal": 8345, "HO": 8346, "\u2581gelangen": 8347, "\u00e4re": 8348, "\u2581installiert": 8349, "\u2581pa": 8350, "\u2581Ruf": 8351, "sitz": 8352, "mil": 8353, "\u2581Yu": 8354, "\u2581bridge": 8355, "\u2581organised": 8356, "\u2581Located": 8357, "\u2581substantial": 8358, "fra": 8359, "cial": 8360, "bert": 8361, "level": 8362, "\u2581transition": 8363, "\u2581Hill": 8364, "dor": 8365, "\u2581considers": 8366, "\u2581Statistik": 8367, "\u2581Kur": 8368, "\u2581Assembly": 8369, "\u2581Portal": 8370, "ming": 8371, "\u2581Fr\u00fch": 8372, "\u2581vacation": 8373, "kle": 8374, "\u2581Gute": 8375, "\u2581HERRN": 8376, "\u2581homepage": 8377, "\u2581spa": 8378, "\u2581Leder": 8379, "\u2581Hab": 8380, "\u2581Archiv": 8381, "design": 8382, "rio": 8383, "\u2581angepasst": 8384, "\u2581housing": 8385, "\u2581foundation": 8386, "\u2581login": 8387, "-20": 8388, "\u2581einfachen": 8389, "\u2581freie": 8390, "\u25817,": 8391, "cc": 8392, "\u2581Empf\u00e4nger": 8393, "\u2581Empfehlung": 8394, "\u2581Current": 8395, "\u2581perspective": 8396, "s\u00e4tze": 8397, "\u2581CE": 8398, "pper": 8399, "\u2581Vielen": 8400, "zahlen": 8401, "\u2581individuell": 8402, "\u2581Trend": 8403, "\u2581soil": 8404, "\u2581praktisch": 8405, "\u2581Hen": 8406, "lam": 8407, "uc": 8408, "\u2581umgesetzt": 8409, "blick": 8410, "\u2581Bill": 8411, "\u2581acting": 8412, "\u2581Berge": 8413, "\u2581H\u00e4": 8414, "\u2581aufgef\u00fchrten": 8415, "lei": 8416, "VA": 8417, "\u2581Richter": 8418, "MT": 8419, "\u2581measured": 8420, "\u2581Geben": 8421, "\u2581Georg": 8422, "\u2581tested": 8423, "\u2581M\u00e4rkte": 8424, "\u2581Reservierung": 8425, "\u2581gewisse": 8426, "\u2581pattern": 8427, "\u2581220": 8428, "ties": 8429, "\u2581undertaking": 8430, "\u2581pen": 8431, "\u2581amerikanischen": 8432, "\u2581traditionellen": 8433, "\u2581associations": 8434, "\u2581Due": 8435, "\u2581organisiert": 8436, "\u2581Gegend": 8437, "\u2581Steel": 8438, "\u2581fehlt": 8439, "Arbeitslosigkeit": 8440, "\u2581electrical": 8441, "\u2581Lieferzeit": 8442, "\u2581Mail": 8443, "\u25812.1": 8444, "\u2581saved": 8445, "museum": 8446, "iel": 8447, "\u2581offenen": 8448, "\u2581battery": 8449, "\u2581verlangt": 8450, "\u2581showing": 8451, "\u2581Comp": 8452, "inter": 8453, "\u2581Lady": 8454, "\u2581Marine": 8455, "\u2581dennoch": 8456, "\u2581awareness": 8457, "\u00e4h": 8458, "\u2581audio": 8459, "\u2581vergleichen": 8460, "\u2581Beurteilung": 8461, "\u2581division": 8462, "\u2581sucht": 8463, "produkt": 8464, "\u2581Sy": 8465, "\u2581roof": 8466, "\u2581joy": 8467, "\u2581crime": 8468, "IK": 8469, "\u2581capable": 8470, "oo": 8471, "\u2581carrying": 8472, "\u2581estimated": 8473, "\u2581Agriturismo": 8474, "\u2581Countries": 8475, "\u2581assembly": 8476, "leistungen": 8477, "\u2581Romania": 8478, "\u2581Valley": 8479, "\u2581Extension": 8480, "\u2581transactions": 8481, "\u2581uh": 8482, "\u2581Christians": 8483, "\u2581Museums": 8484, "garten": 8485, "\u2581ball": 8486, "\u2581K\u00f6ln": 8487, "\u258194": 8488, "\u2581St\u00e4rkung": 8489, "sprache": 8490, "\u2581Tarif": 8491, "\u2581Ausbau": 8492, "\u2581solar": 8493, "\u2581Mallorca": 8494, "\u2581ermittelt": 8495, "sehen": 8496, "\u2581Square": 8497, "\u2581suppliers": 8498, "aire": 8499, "\u2581Versammlung": 8500, "-2019": 8501, "\u2581pilot": 8502, "F\u00fcr": 8503, "\u2581Cooperation": 8504, "\u2581voran": 8505, "\u2581Vice": 8506, "\u2581Einstellungen": 8507, "\u2581\u00c4gypten": 8508, "\u2581Angeles": 8509, "\u2581mechanical": 8510, "\u2581Schau": 8511, "\u2581Va": 8512, "\u2581removal": 8513, "\u2581h\u00f6heren": 8514, "freie": 8515, "\u2581Shower": 8516, "\u2581H\u00e4ndler": 8517, "\u2581Feder": 8518, "gro": 8519, "\u2581Intel": 8520, "\u2581exceed": 8521, "\u2581Agenda": 8522, "fassung": 8523, "\u2581Drive": 8524, "\u2581mechanism": 8525, "ahn": 8526, "\u2581entirely": 8527, "\u2581Hong": 8528, "\u2581interpretation": 8529, "\u2581ehemaligen": 8530, "\u2581male": 8531, "\u2581Bas": 8532, "\u2581fund": 8533, "\u2581Branchen": 8534, "\u2581Angelegenheiten": 8535, "\u2581Weiterbildung": 8536, "\u2581assist": 8537, "\u2581Letzte": 8538, "ee": 8539, "\u2581enterprise": 8540, "\u2581proof": 8541, "\u2581yellow": 8542, "\u2581respond": 8543, "\u2581trifft": 8544, "\u2581GBP": 8545, "\u2581prison": 8546, "\u2581dimension": 8547, "cus": 8548, "lands": 8549, "\u2581meant": 8550, "\u00f6n": 8551, "Soft": 8552, "\u2581exclusively": 8553, "\u2581Heating": 8554, "gh": 8555, "ns": 8556, "\u2581zunehmend": 8557, "AF": 8558, "\u2581Machine": 8559, "\u2581verwendeten": 8560, "st\u00fcck": 8561, "\u2581bekannten": 8562, "losen": 8563, "\u2581generated": 8564, "\u2581spot": 8565, "\u2581Fang": 8566, "\u2581diameter": 8567, "gesellschaften": 8568, "mini": 8569, "\u2581Gegensatz": 8570, "\u2581Bestimmungsort": 8571, "\u2581K\u00f6nnen": 8572, "\u2581divided": 8573, "gef\u00fchrt": 8574, "\u2581mache": 8575, "\u2581subjects": 8576, "\u2581install": 8577, "\u2581severe": 8578, "\u2581Ter": 8579, "\u2581lokale": 8580, "\u2581Kriegs": 8581, "\u2581visual": 8582, "nutzung": 8583, "\u2581wert": 8584, "modell": 8585, "\u2581Besitz": 8586, "\u2581cutting": 8587, "\u2581au\u00dfergew\u00f6hnlich": 8588, "ome": 8589, "ech": 8590, "\u2581Presidency": 8591, "\u2581Halle": 8592, "friendly": 8593, "ARD": 8594, "\u2581Sk": 8595, "\u2581geringer": 8596, "mas": 8597, "\u2581erfasst": 8598, "\u2581exports": 8599, "\u2581desired": 8600, "pt": 8601, "tr\u00e4ger": 8602, "\u2581budgetary": 8603, "\u2581Silver": 8604, "\u2581auszu": 8605, "\u25811,5": 8606, "\u2581italienischen": 8607, "\u2581Kap": 8608, "\u2581kingdom": 8609, "zeiten": 8610, "pin": 8611, "omb": 8612, "\u2581loved": 8613, "\u2581Dienstleistungs": 8614, "\u2581seconds": 8615, "\u2581Dreh": 8616, "\u2581Mitgliedstaats": 8617, "\u2581Save": 8618, "\u2581Question": 8619, "\u2581luxury": 8620, "\u2581sichere": 8621, "\u2581Flugzeug": 8622, "\u2581Tanz": 8623, "\u2581variable": 8624, "\u2581festen": 8625, "\u2581Remove": 8626, "\u2581calendar": 8627, "\u2581Panel": 8628, "\u2581agents": 8629, "sti": 8630, "\u2581quantities": 8631, "\u2581Lin": 8632, "\u2581portfolio": 8633, "\u2581theory": 8634, "\u2581gezogen": 8635, "\u2581m\u00f6gliche": 8636, "\u2581blieb": 8637, "\u2581Ferner": 8638, "\u2581religion": 8639, "\u2581kulturellen": 8640, "\u2581formula": 8641, "5)": 8642, "\u2581erinnert": 8643, "ationen": 8644, "\u2581egal": 8645, "\u2581Wolf": 8646, "life": 8647, "\u2581tu": 8648, "\u2581Ausr\u00fcstung": 8649, "\u2581R\u00fccken": 8650, "alit\u00e4t": 8651, "\u2581wichtigste": 8652, "\u2581behaviour": 8653, "\u2581Body": 8654, "\u2581thy": 8655, "\u2581crucial": 8656, "\u2581Anzeigen": 8657, "\u2581gr": 8658, "\u2581Islam": 8659, "\u2581Local": 8660, "\u2581EZB": 8661, "\u2581Minute": 8662, "stoffe": 8663, "ants": 8664, "\u2581compensation": 8665, "\u2581st\u00e4rken": 8666, "\u2581speech": 8667, "\u2581Luke": 8668, "\u2581Teufel": 8669, "\u2581Flachbild": 8670, "l\u00f6sung": 8671, "r\u00f6": 8672, "igt": 8673, "\u2581verst\u00e4rkt": 8674, "\u2581ko": 8675, "bot": 8676, "\u2581TR": 8677, "\u2581dress": 8678, "ene": 8679, "\u2581D\u00fcsseldorf": 8680, "\u2581Hot": 8681, "IX": 8682, "\u2581weist": 8683, "\u2581resort": 8684, "\u2581Funk": 8685, "lager": 8686, "yer": 8687, "NG": 8688, "800": 8689, "ometer": 8690, "\u2581zugelassen": 8691, "\u2581Budget": 8692, "\u2581thereby": 8693, "\u2581smooth": 8694, "\u2581ships": 8695, "\u2581Active": 8696, "\u2581fr\u00fcheren": 8697, "\u2581Reserve": 8698, "anda": 8699, "rest": 8700, "\u2581Dimension": 8701, "rant": 8702, "ific": 8703, "\u2581enhance": 8704, "\u2581struggle": 8705, "\u2581Try": 8706, "EST": 8707, "\u2581Kontext": 8708, "\u2581einfacher": 8709, "\u2581M\u00e4nnern": 8710, "\u2581mu": 8711, "\u2581rare": 8712, "\u2581sagten": 8713, "izer": 8714, "\u2581California": 8715, "\u2581Gran": 8716, "\u2581Hinweise": 8717, "\u2581rasch": 8718, "\u2581Afghanistan": 8719, "\u2581criminal": 8720, "\u2581helping": 8721, "\u2581Mari": 8722, "\u2581Bike": 8723, "NI": 8724, "\u2581internationaler": 8725, "\u2581destinations": 8726, "\u2581Ei": 8727, "\u2581library": 8728, "/6": 8729, "\u2581Bath": 8730, "\u2581Create": 8731, "vision": 8732, "\u2581transferred": 8733, "nom": 8734, "\u2581Rh": 8735, "\u2581entries": 8736, "lem": 8737, "\u2581Arbeitspl\u00e4tze": 8738, "\u2581Ros": 8739, "nar": 8740, "\u2581remote": 8741, "sson": 8742, "\u2581Alpen": 8743, "\u2581Sant": 8744, "\u2581Beispiele": 8745, "una": 8746, "\u2581heaven": 8747, "iter": 8748, "\u2581measuring": 8749, "format": 8750, "\u2581Bonn": 8751, "\u2581owners": 8752, "\u2581disposal": 8753, "\u2581qualified": 8754, "\u2581runs": 8755, "\u258100:01": 8756, "\u2581Brazil": 8757, "\u2581declared": 8758, "\u2581Clear": 8759, "\u2581Sixt": 8760, "menge": 8761, "\u2581brauche": 8762, "Um": 8763, "lob": 8764, "hard": 8765, "\u2581Emp": 8766, "nicht": 8767, "\u2581Kunde": 8768, "\u2581spezifische": 8769, "Or": 8770, "\u2581Production": 8771, "\u2581AGB": 8772, "\u2581forth": 8773, "\u2581Gr\u00fcn": 8774, "\u2581communications": 8775, "\u2581ran": 8776, "\u2581Spiegel": 8777, "\u2581Wochenende": 8778, "\u2581betreffen": 8779, "\u2581valuable": 8780, "\u2581Koch": 8781, "NO": 8782, "\u2581Outdoor": 8783, "\u2581Anstrengungen": 8784, "erin": 8785, "\u2581catch": 8786, "\u2581allowing": 8787, "\u2581Hart": 8788, "\u2581Zone": 8789, "\u2581mutual": 8790, "\u2581po": 8791, "auch": 8792, "\u2581Parameter": 8793, "gate": 8794, "\u2581umfassen": 8795, "\u2581household": 8796, "\u2581Bin": 8797, "now": 8798, "\u2581Kosmetik": 8799, "\u2581exception": 8800, "\u2581www": 8801, "BER": 8802, "\u2581Pay": 8803, "\u2581Angriff": 8804, "\u2581Know": 8805, "\u2581Flexibilit\u00e4t": 8806, "\u2581formation": 8807, "kunst": 8808, "\u2581Umweltschutz": 8809, "\u2581toward": 8810, "analyse": 8811, "Wie": 8812, "\u2581zugunsten": 8813, "\u2581applying": 8814, "ALL": 8815, "\u2581renewable": 8816, "\u2581indicators": 8817, "\u2581Waschmaschine": 8818, "LY": 8819, "\u2581Wandel": 8820, "dler": 8821, "\u2581providers": 8822, "\u2581dust": 8823, "\u2581Stern": 8824, "\u2581Jesu": 8825, "isse": 8826, "\u2581replace": 8827, "\u2581vorgeschlagen": 8828, "\u2581beendet": 8829, "\u2581approx": 8830, "\u2581Programmen": 8831, "cel": 8832, "\u2581Vier": 8833, "\u2581stammt": 8834, "\u2581Roll": 8835, "\u2581branches": 8836, "Diese": 8837, "\u2581corner": 8838, "nor": 8839, "\u2581stories": 8840, "\u2581Iron": 8841, "\u2581Dor": 8842, "\u2581spaces": 8843, "\u2581Without": 8844, "\u2581machst": 8845, "\u2581Norway": 8846, "ios": 8847, "\u2581extend": 8848, "\u2581judgment": 8849, "ander": 8850, "\u2581zugleich": 8851, "\u2581Chile": 8852, "Ru": 8853, "\u258183": 8854, "\u2581[1],": 8855, "\u2581hinzugef\u00fcgt": 8856, "klasse": 8857, "FA": 8858, "wal": 8859, "ESS": 8860, "halt": 8861, "\u2581UV": 8862, "\u2581Bag": 8863, "\u2581Gef\u00e4ngnis": 8864, "\u25814.2": 8865, "\u2581discovered": 8866, "\u2581gutes": 8867, "\u2581expensive": 8868, "\u2581Palace": 8869, "\u2581promise": 8870, "\u2581Application": 8871, "\u2581zust\u00e4ndig": 8872, "\u2581trial": 8873, "\u2581GR": 8874, "\u2581Bauernhof": 8875, "rand": 8876, "\u2581desto": 8877, "\u2581bearbeiten": 8878, "\u2581accession": 8879, "ces": 8880, "\u2581Viertel": 8881, "\u2581learned": 8882, "\u2581Agrar": 8883, "\u2581trips": 8884, "\u2581geeignete": 8885, "\u2581zugrunde": 8886, "\u2581ride": 8887, "\u2581manual": 8888, "\u2581functionality": 8889, "\u2581(')": 8890, "\u2581Unterhaltung": 8891, "\u2581fr\u00fch": 8892, "\u2581Therapie": 8893, "\u2581gekauft": 8894, "\u2581Connect": 8895, "\u2581constantly": 8896, "\u2581videos": 8897, "ava": 8898, "\u2581Absicht": 8899, "swert": 8900, "\u2581faster": 8901, "\u2581ausgew\u00e4hlten": 8902, "\u2581Feuchtigkeit": 8903, "\u2581Francisco": 8904, "\u2581alive": 8905, "Lo": 8906, "\u2581speziellen": 8907, "\u2581imp": 8908, "transfer": 8909, "dien": 8910, "\u2581Grunds\u00e4tze": 8911, "\u2581gedacht": 8912, "\u2581Off": 8913, "\u2581Sofa": 8914, "\u2581Soviet": 8915, "\u2581failed": 8916, "\u2581anerkannt": 8917, "\u2581Framework": 8918, "\u2581bewegt": 8919, "\u2581kontrolliert": 8920, "Ko": 8921, "ppel": 8922, "\u2581intensive": 8923, "\u2581Give": 8924, "mic": 8925, "fort": 8926, "\u2581werdet": 8927, "\u2581Identit\u00e4t": 8928, "\u2581bereitgestellt": 8929, "\u2581Neues": 8930, "\u2581aktualisiert": 8931, "\u2581zw\u00f6lf": 8932, "\u2581castle": 8933, "\u2581V\u00f6lker": 8934, "\u2581Tur": 8935, "\u2581Step": 8936, "\u2581certified": 8937, "national": 8938, "\u2581Verantwortlich": 8939, "\u2581Wei\u00df": 8940, "\u2581350": 8941, "zgl": 8942, "\u2581revolution": 8943, "media": 8944, "\u2581proportion": 8945, "\u2581bestimmen": 8946, "www": 8947, "\u2581birthday": 8948, "\u2581manager": 8949, "onic": 8950, "\u2581Automobil": 8951, "Name": 8952, "\u2581Betreiber": 8953, "\u2581Inhaltsstoffe": 8954, "\u2581Title": 8955, "\u2581Agriculture": 8956, "\u2581Zahn": 8957, "\u2581Desktop": 8958, "\u2581revenue": 8959, "\u2581Statistiken": 8960, "zin": 8961, "\u2581Cy": 8962, "7.": 8963, "\u2581betrachten": 8964, "\u2581totally": 8965, "\u2581\u00dcbereinstimmung": 8966, "\u2581Haltung": 8967, "\u2581Analysis": 8968, "\u2581profitieren": 8969, "\u2581connections": 8970, "\u2581facts": 8971, "\u2581twice": 8972, "cing": 8973, "team": 8974, "flug": 8975, "\u2581Willen": 8976, "\u2581rear": 8977, "\u2581Vertragspartei": 8978, "\u2581best\u00e4tigen": 8979, "\u2581identification": 8980, "\u2581Politiker": 8981, "\u2581indicate": 8982, "\u2581Willkommen": 8983, "\u2581sounds": 8984, "\u2581newly": 8985, "\u2581pers\u00f6nlich": 8986, ".1.": 8987, "\u2581riding": 8988, "\u2581verfolgen": 8989, "water": 8990, "tritt": 8991, "\u2581starten": 8992, "\u2581spacious": 8993, "\u2581Yet": 8994, "\u2581refers": 8995, "\u2581Eisenbahn": 8996, "behandlung": 8997, "ila": 8998, "\u2581Wood": 8999, "\u2581Abraham": 9000, "\u2581bewertet": 9001, "ym": 9002, "\u2581Berliner": 9003, "mobil": 9004, "\u2581vollkommen": 9005, "Ho": 9006, "\u2581Weight": 9007, "fr": 9008, "\u2581begleitet": 9009, "\u2581umgeben": 9010, "\u2581conversion": 9011, "\u2581usual": 9012, "\u2581creates": 9013, "\u2581Lan": 9014, "\u2581Dresden": 9015, "zieren": 9016, "\u2581Bildschirm": 9017, "LI": 9018, "\u2581institutional": 9019, "\u2581launch": 9020, "\u2581Tempel": 9021, "\u2581musical": 9022, "artikel": 9023, "\u2581j": 9024, "\u2581reflect": 9025, "\u2581Stamm": 9026, "\u2581rose": 9027, "\u2581Kol": 9028, "\u2581symbol": 9029, "\u2581erleichtern": 9030, "view": 9031, "\u2581ernst": 9032, "mun": 9033, "\u2581dauert": 9034, "\u2581seeking": 9035, "\u2581Interview": 9036, "-01": 9037, "ail": 9038, "sil": 9039, "\u2581Pr\u00e4": 9040, "\u2581Sieg": 9041, "ologische": 9042, "\u2581bringing": 9043, "ssel": 9044, "zellen": 9045, "\u2581consistent": 9046, "\u2581ES": 9047, "\u2581chinesischen": 9048, "\u2581PE": 9049, "\u2581Drittl\u00e4ndern": 9050, "\u2581Verlag": 9051, "\u2581geliefert": 9052, "\u03bc": 9053, "\u2581repair": 9054, "\u2581ideale": 9055, "\u2581borders": 9056, "\u2581Realit\u00e4t": 9057, "\u2581Wei": 9058, "\u2581Magazine": 9059, "\u2581SCH": 9060, "\u2581switch": 9061, "\u2581Mitgliedern": 9062, "ls": 9063, "\u2581Abs": 9064, "\u2581Flat": 9065, "fel": 9066, "\u2581medicinal": 9067, "\u2581AT": 9068, "\u2581DA": 9069, "\u2581spoke": 9070, "\u2581classification": 9071, "\u2581composition": 9072, "\u2581drugs": 9073, "\u2581Rie": 9074, "\u2581Lern": 9075, "\u2581accordingly": 9076, "\u2581ter": 9077, "\u2581northern": 9078, "\u2581transfers": 9079, "\u2581Migration": 9080, "\u2581uniform": 9081, "\u2581t\u00f6ten": 9082, "\u2581Chemie": 9083, "quar": 9084, "\u2581(17": 9085, "\u2581Four": 9086, "\u2581interessante": 9087, "\u2581plays": 9088, "\u2581Strukturen": 9089, "\u2581channels": 9090, "verarbeitung": 9091, "\u2581Wirksamkeit": 9092, "\u00fccht": 9093, "\u2581opinions": 9094, "\u2581Mur": 9095, "\u2581sight": 9096, "gebiete": 9097, "mie": 9098, "\u2581Polish": 9099, "karten": 9100, "\u2581Kre": 9101, "\u2581prevention": 9102, "\u2581posts": 9103, "\u2581documentation": 9104, "\u2581klein": 9105, "\u2581Fla": 9106, "\u2581Prinzip": 9107, "\u2581kleines": 9108, "\u2581Rum\u00e4nien": 9109, "\u2581horse": 9110, "\u2581amazing": 9111, "\u2581K\u00fcste": 9112, "\u2581erweitert": 9113, "\u2581Thi": 9114, "liches": 9115, "\u2581Eigentum": 9116, "rm": 9117, "\u2581sons": 9118, "\u2581surroundings": 9119, "\u2581Gebet": 9120, "\u2581robust": 9121, "\u2581Brot": 9122, "\u2581f\u00fchrenden": 9123, "\u2581Mikrowelle": 9124, "stone": 9125, "\u2581threat": 9126, "tron": 9127, "ACH": 9128, "\u2581Ly": 9129, "gra": 9130, "\u2581Address": 9131, "\u2581hinein": 9132, "\u2581euros": 9133, "\u2581Ask": 9134, "lov": 9135, ":30": 9136, "\u2581hurt": 9137, "\u2581Hor": 9138, "\u2581Besch\u00e4ftigungs": 9139, "\u2581Publikum": 9140, "its": 9141, "\u2581besitzen": 9142, "graph": 9143, "\u2581Sauna": 9144, "\u2581Import": 9145, "\u2581Euch": 9146, "\u2581Regelungen": 9147, "\u2581Reinigung": 9148, "\u2581Does": 9149, "tas": 9150, "bedingungen": 9151, "\u2581printed": 9152, "\u2581supplied": 9153, "l\u00e4nge": 9154, "\u2581schafft": 9155, "\u25812.2": 9156, "\u2581targets": 9157, "halle": 9158, "\u2581Archive": 9159, "-18": 9160, "\u2581Allgemein": 9161, "\u2581Class": 9162, "\u2581default": 9163, "\u2581arrived": 9164, "\u2581Befehl": 9165, "\u2581Erstellung": 9166, "ordnung": 9167, "\u2581BCO": 9168, "\u2581Wagen": 9169, "\u2581AL": 9170, "\u2581dargestellt": 9171, "geld": 9172, "\u2581Qualit\u00e4ts": 9173, "\u2581Publications": 9174, "\u2581Property": 9175, "verbrauch": 9176, "\u2581asking": 9177, "\u2581machinery": 9178, "\u2581reasonable": 9179, "\u2581communities": 9180, "\u2581individually": 9181, "treffen": 9182, "\u2581tender": 9183, "\u2581(15": 9184, "bio": 9185, "\u2581Wohnungen": 9186, "\u2581Mid": 9187, "staat": 9188, "See": 9189, "\u2581concepts": 9190, "\u2581incl": 9191, "\u2581powder": 9192, "\u2581Alkohol": 9193, "\u2581staatlichen": 9194, "cle": 9195, "\u2581NO": 9196, "\u2581movements": 9197, "SD": 9198, "Tag": 9199, "\u2581Publikationen": 9200, "Bei": 9201, "\u2581adjustment": 9202, "\u2581broken": 9203, "\u2581Erste": 9204, "ses": 9205, "\u2581seeing": 9206, "\u2581column": 9207, "CR": 9208, "\u2581fare": 9209, "\u2581Henry": 9210, "\u2581notification": 9211, "teilen": 9212, "h\u00f6r": 9213, "\u2581Rein": 9214, "\u2581Montage": 9215, "\u2581rechten": 9216, "\u2581Michel": 9217, "\u2581reception": 9218, "\u2581\u00fcberpr\u00fcft": 9219, "\u2581errichtet": 9220, "\u2581rolled": 9221, "\u2581homes": 9222, "\u2581Roh": 9223, "\u2581Qui": 9224, "\u2581magazine": 9225, "\u2581\u00dcbergang": 9226, "\u2581impressive": 9227, "\u2581wiederum": 9228, "\u2581Annual": 9229, "\u2581AC": 9230, "\u2581Prices": 9231, "bewertung": 9232, "\u2581Turn": 9233, "\u2581get\u00f6tet": 9234, "\u2581Ram": 9235, "hang": 9236, "\u2581Christi": 9237, "\u2581Unit": 9238, "\u2581Krankenhaus": 9239, "\u2581Manufacturer": 9240, "\u2581Erg\u00e4nzung": 9241, "\u2581prove": 9242, "\u2581recognized": 9243, "\u2581apart": 9244, "ory": 9245, "\u25810.0": 9246, "cast": 9247, "\u2581attempt": 9248, "path": 9249, "\u2581aspect": 9250, "\u2581Er\u00f6ffnung": 9251, "\u2581Yo": 9252, "wide": 9253, "\u2581chair": 9254, "\u2581Doppelzimmer": 9255, "\u2581....": 9256, "aya": 9257, "\u2581Abfall": 9258, "\u2581belief": 9259, "\u2581gotta": 9260, "\u2581auftreten": 9261, "\u2581Debates": 9262, "\u25814:": 9263, "\u2581B\u00e4ume": 9264, "\u2581Heimat": 9265, "\u2581explore": 9266, "\u2581selber": 9267, "\u2581channel": 9268, "\u2581Trends": 9269, "\u2581erg\u00e4nzt": 9270, "\u2581valley": 9271, "\u2581movie": 9272, "\u2581Indian": 9273, "\u2581tonnes": 9274, "\u2581answers": 9275, "kauf": 9276, "\u2581contacts": 9277, "\u2581marriage": 9278, "\u2581umfassende": 9279, "\u2581AM": 9280, "\u2581Times": 9281, "phi": 9282, "\u2581Kalender": 9283, "\u2581retail": 9284, "pha": 9285, "\u2581pop": 9286, "\u2581Spitzen": 9287, "\u2581Niederschlag": 9288, "transport": 9289, "\u2581authorisation": 9290, "\u2581unknown": 9291, "\u2581restructuring": 9292, "\u2581universities": 9293, "\u2581authorised": 9294, "\u2581Abbildung": 9295, "\u2581Bla": 9296, "\u2581Feedback": 9297, "\u2581configuration": 9298, "\u2581EX": 9299, "GO": 9300, "\u00c4nderungsantr\u00e4ge": 9301, "\u2581Kommen": 9302, "\u2581Labour": 9303, "llen": 9304, "\u2581Museen": 9305, "\u2581sensitive": 9306, "\u2581exciting": 9307, "\u2581Gall": 9308, "\u2581Payment": 9309, "hausen": 9310, "\u2581passt": 9311, ".4.": 9312, "\u2581selten": 9313, "\u2581Living": 9314, "\u2581Badewanne": 9315, "\u2581Italienisch": 9316, "ace": 9317, "\u2581Gesetze": 9318, "\u2581abonnieren": 9319, "\u2581Darlehen": 9320, "tom": 9321, "\u2581Electric": 9322, "sicht": 9323, "\u2581teacher": 9324, "schl\u00fcssel": 9325, "\u2581einiger": 9326, "\u2581Sell": 9327, "\u2581entwickelte": 9328, "mag": 9329, "Our": 9330, "\u2581Lieblings": 9331, "\u2581wirkt": 9332, "\u2581hi": 9333, "\u2581Train": 9334, "sicher": 9335, "CS": 9336, "\u2581blo\u00df": 9337, "\u2581djshop": 9338, "\u2581wave": 9339, "\u2581nation": 9340, "\u2581neutral": 9341, "was": 9342, "\u2581(16": 9343, "fil": 9344, "\u2581Mount": 9345, "NET": 9346, "\u2581artistic": 9347, "\u2581Still": 9348, "\u2581Meta": 9349, "\u2581washing": 9350, "bla": 9351, "\u2581sch\u00f6nsten": 9352, "\u2581weekend": 9353, "TRA": 9354, "\u2581hochwertige": 9355, "\u2581gingen": 9356, "schnittliche": 9357, "\u2581textile": 9358, "\u2581Activities": 9359, "\u2581Armut": 9360, "OM": 9361, "\u2581subparagraph": 9362, "\u2581Verein": 9363, "Projekt": 9364, "osa": 9365, "vol": 9366, "\u2581Puerto": 9367, "\u2581Finden": 9368, "\u2581Grundsatz": 9369, "sign": 9370, ".03.": 9371, "\u2581Leg": 9372, "\u2581Haartrockner": 9373, "\u2581historische": 9374, "\u2581AD": 9375, "\u2581battle": 9376, "lies": 9377, "\u2581Geschmack": 9378, "\u2581sections": 9379, "lieb": 9380, "\u2581records": 9381, "\u2581durchzuf\u00fchren": 9382, "\u2581Bearbeitung": 9383, "\u2581fleet": 9384, "\u2581besseren": 9385, "\u2581positiv": 9386, "\u2581brothers": 9387, "\u2581teachers": 9388, "\u2581Zeitung": 9389, "\u2581Kohle": 9390, "\u2581inhabitants": 9391, "\u2581leichter": 9392, "musik": 9393, "\u2581Return": 9394, "\u2581Ausgangs": 9395, "\u2581beaches": 9396, "My": 9397, "bul": 9398, "\u2581factory": 9399, "une": 9400, "\u2581verteilt": 9401, "\u2581Bettw\u00e4sche": 9402, "\u2581wishes": 9403, "\u2581Armee": 9404, "\u2581blog": 9405, "\u2581zeigte": 9406, "\u2581exact": 9407, "\u2581introduce": 9408, "Schlussfolgerung": 9409, "\u2581ausgerichtet": 9410, "cra": 9411, "\u2581Menschheit": 9412, "\u2581Roche": 9413, "\u2581glad": 9414, "\u2581zufolge": 9415, "rahmen": 9416, "Article": 9417, "\u2581Chief": 9418, "\u2581tips": 9419, "\u2581DC": 9420, "\u2581Sach": 9421, "read": 9422, "\u2581MO": 9423, "\u2581erlauben": 9424, "ings": 9425, "\u2581Phil": 9426, "\u2581getrennt": 9427, "other": 9428, "\u2581Oberfl\u00e4chen": 9429, "\u00f6s": 9430, "\u2581sorgf\u00e4ltig": 9431, "\u2581Scha": 9432, "\u2581Sektoren": 9433, "\u2581fuck": 9434, "rik": 9435, "iki": 9436, "\u2581ergreifen": 9437, "\u2581branch": 9438, "genommen": 9439, "Tool": 9440, "\u2581victims": 9441, "\u2581Lehre": 9442, "\u2581Verringerung": 9443, "\u2581Umfeld": 9444, "\u2581keeping": 9445, "\u2581Umst\u00e4nden": 9446, "\u2581Gipfel": 9447, "\u2581sizes": 9448, "kreis": 9449, "\u2581precise": 9450, "Bar": 9451, "oren": 9452, "aut": 9453, "\u2581Cra": 9454, "\u2581destroyed": 9455, "mir": 9456, "muster": 9457, "fan": 9458, "\u2581Tru": 9459, "\u2581BMW": 9460, "\u2581::": 9461, "\u2581Tower": 9462, "\u2581reply": 9463, "\u2581echte": 9464, "\u2581Working": 9465, "\u2581province": 9466, "\u2581accident": 9467, "\u2581thin": 9468, "\u2581colleagues": 9469, "\u2581Grab": 9470, "\u2581charged": 9471, "\u2581Pick": 9472, "\u2581zentralen": 9473, "front": 9474, "\u2581characters": 9475, "geber": 9476, "pl\u00e4tze": 9477, "\u2581HP": 9478, "\u2581websites": 9479, "\u2581mechanisms": 9480, "WS": 9481, "\u2581Indeed": 9482, "\u2581Ernst": 9483, "merk": 9484, "\u2581floors": 9485, "\u2581participating": 9486, "\u2581sand": 9487, "\u2581manche": 9488, "m\u00e4\u00dfig": 9489, "ICE": 9490, "\u2581William": 9491, "\u2581Dokumentation": 9492, "kopf": 9493, "iva": 9494, "\u2581Dom": 9495, "\u2581====": 9496, "\u2581visiting": 9497, "\u2581Stu": 9498, "ktion": 9499, "\u25811974": 9500, "\u2581Br\u00fcder": 9501, "\u25811972": 9502, "Ta": 9503, "\u2581gelesen": 9504, "\u2581exists": 9505, "\u2581continuously": 9506, "\u2581digitale": 9507, "oire": 9508, "\u2581Gor": 9509, "\u2581ok": 9510, "\u2581mar": 9511, "\u2581certification": 9512, "\u2581absence": 9513, "\u2581suggest": 9514, "\u2581Heim": 9515, "\u2581medizinische": 9516, "\u2581Kong": 9517, "NL": 9518, "\u2581assess": 9519, "\u2581\u00f6ffnet": 9520, "\u2581Summer": 9521, "\u2581halb": 9522, "\u2581Zo": 9523, "\u2581doors": 9524, "\u2581grunds\u00e4tzlich": 9525, "\u2581(10": 9526, "\u2581F\u00dcR": 9527, "\u2581diversity": 9528, "known": 9529, "\u2581fellow": 9530, "\u2581Mitteln": 9531, "\u2581bewerten": 9532, "ma\u00df": 9533, "\u2581Universal": 9534, "\u2581Kontakte": 9535, "\u2581songs": 9536, "partner": 9537, "9.": 9538, "\u2581Laut": 9539, "style": 9540, "\u2581schl\u00e4gt": 9541, "\u2581ver\u00e4ndern": 9542, "\u2581Projekten": 9543, "cl": 9544, "\u2581recognised": 9545, "\u2581knapp": 9546, "sbericht": 9547, "\u2581Linien": 9548, "ned": 9549, "\u2581Sorgen": 9550, "\u2581Haushalt": 9551, "\u2581Should": 9552, "\u2581Variante": 9553, "\u2581Pflicht": 9554, "\u2581Hardware": 9555, "FC": 9556, "\u2581bequem": 9557, "\u2581Bit": 9558, "\u2581Chef": 9559, "\u2581Angabe": 9560, "Kon": 9561, "\u2581\u00dcbernahme": 9562, "\u2581fanden": 9563, "\u2581einzelstaatlich": 9564, "\u2581Unterlagen": 9565, "\u2581Among": 9566, "\u2581entdeckt": 9567, "\u2581DM": 9568, "\u2581turning": 9569, "\u2581Ablauf": 9570, "asse": 9571, "papier": 9572, "\u2581wechseln": 9573, "\u2581drau\u00dfen": 9574, "\u2581Zahlungs": 9575, "\u2581loan": 9576, "\u2581aufmerksam": 9577, "\u2581Short": 9578, "\u2581concert": 9579, "\u2581Bibliothek": 9580, "\u2581\u00fcbernommen": 9581, "ici": 9582, "\u2581vegetables": 9583, "profil": 9584, "\u2581expenses": 9585, "\u2581analysiert": 9586, "\u2581festival": 9587, "\u2581films": 9588, "6)": 9589, "\u2581personnel": 9590, "\u2581Unternehmer": 9591, "\u2581Mich": 9592, "\u2581productivity": 9593, "\u2581Ocean": 9594, "town": 9595, "\u2581western": 9596, "\u2581welchem": 9597, "\u2581Kal": 9598, "west": 9599, "RS": 9600, "\u2581Nature": 9601, "Download": 9602, "\u2581Stoff": 9603, "\u2581360": 9604, "\u2581Vorstand": 9605, "\u2581fly": 9606, "\u2581Rosa": 9607, "\u2581Vas": 9608, "kehr": 9609, "\u2581semi": 9610, "\u2581yeah": 9611, "\u2581Baden": 9612, "\u2581inspection": 9613, "l\u00f6": 9614, "shi": 9615, "\u2581bound": 9616, "\u2581strongly": 9617, "\u2581ECB": 9618, "\u2581Grenz": 9619, "\u2581pl\u00f6tzlich": 9620, "\u2581einzigartige": 9621, "\u2581Imprint": 9622, "\u2581anymore": 9623, "\u2581Lab": 9624, "\u2581elections": 9625, "\u2581nahmen": 9626, "\u2581Fu\u00dfball": 9627, "\u2581Abenteuer": 9628, "\u2581Empfang": 9629, "\u2581Spi": 9630, "\u2581Prag": 9631, "\u2581reichen": 9632, "dies": 9633, "\u2581Gra": 9634, "\u2581cuisine": 9635, "\u2581subsequent": 9636, "\u2581Straf": 9637, "\u2581verbundenen": 9638, "\u2581Denken": 9639, "region": 9640, "\u2581diskutieren": 9641, "\u2581Enjoy": 9642, "\u2581arrive": 9643, "\u2581Nothing": 9644, "EF": 9645, "\u2581angegebenen": 9646, "\u2581Tun": 9647, "leiter": 9648, "\u2581facing": 9649, "\u25813)": 9650, "BO": 9651, "r\u00e4": 9652, "\u2581weapons": 9653, "\u2581Chicago": 9654, "\u2581none": 9655, "\u2581gender": 9656, "\u2581Through": 9657, "\u2581Gerechtigkeit": 9658, "\u2581Arbeitskr\u00e4fte": 9659, "\u2581Filme": 9660, "\u2581St\u00e4rke": 9661, "\u2581fl": 9662, "\u2581worship": 9663, "\u2581universal": 9664, "namen": 9665, "\u2581Kongress": 9666, "\u2581delay": 9667, "\u2581Paar": 9668, "\u2581burden": 9669, "\u2581Wei\u00dft": 9670, "\u2581attached": 9671, "\u2581vorgestellt": 9672, "\u2581Touristen": 9673, "hai": 9674, "isierte": 9675, "play": 9676, "\u2581Boats": 9677, "horn": 9678, "\u2581Ministers": 9679, "\u2581Taxi": 9680, "\u2581count": 9681, "\u2581tours": 9682, "\u2581Gr\u00f6\u00dfen": 9683, "ohn": 9684, "\u2581zust\u00e4ndige": 9685, "ison": 9686, "therapie": 9687, "\u2581optional": 9688, "\u2581Geburtstag": 9689, "\u2581sh": 9690, "rc": 9691, "\u2581d\u00fcrfte": 9692, "\u2581THIS": 9693, "\u2581Gesch\u00e4fte": 9694, "\u2581liability": 9695, "weisung": 9696, "\u2581berechtigt": 9697, "Du": 9698, "\u2581th": 9699, "\u2581contrary": 9700, "mpf": 9701, "m\u00fc": 9702, "\u2581modified": 9703, "\u2581Palm": 9704, "WA": 9705, "\u2581glaubt": 9706, "\u2581wedding": 9707, "\u2581[3]": 9708, "\u2581guaranteed": 9709, "\u2581LA": 9710, "\u2581teilnehmen": 9711, "\u2581Bier": 9712, "\u2581PR": 9713, "\u2581maintained": 9714, "\u2581Gleichzeitig": 9715, "\u2581favorite": 9716, "\u2581supplier": 9717, "Zimmer": 9718, "Ra": 9719, "\u2581Brasilien": 9720, "ches": 9721, "which": 9722, "nimmt": 9723, "\u2581EEC": 9724, "AD": 9725, "\u2581Warte": 9726, "\u2581klare": 9727, "geb\u00e4ude": 9728, "\u2581Congress": 9729, "tten": 9730, "ido": 9731, "\u2581Striptease": 9732, "\u2581geplant": 9733, "MB": 9734, "\u2581Staff": 9735, "\u2581classes": 9736, "\u2581pollution": 9737, "\u2581cap": 9738, "\u2581Jugendlichen": 9739, "\u2581coal": 9740, "\u2581army": 9741, "\u2581ordered": 9742, "\u2581KB": 9743, "\u2581Sei": 9744, "\u2581Prime": 9745, "\u2581symptoms": 9746, "\u2581Offers": 9747, "rechnung": 9748, "\u2581angemessene": 9749, "wen": 9750, "\u2581Ausbildungs": 9751, "\u2581Wolfgang": 9752, "\u2581stattfinden": 9753, "\u2581Mittelmeer": 9754, "\u2581Walter": 9755, "\u2581Program": 9756, "\u2581Gehen": 9757, "\u2581appeared": 9758, "\u2581verstanden": 9759, "\u2581acquired": 9760, "\u2581Trotz": 9761, "\u2581prayer": 9762, "\u2581jemanden": 9763, "\u2581breite": 9764, "\u2581Jugendliche": 9765, "file": 9766, "UP": 9767, "\u2581Zurich": 9768, "\u2581Schnell": 9769, "\u2581wesentliche": 9770, "\u2581bestehende": 9771, "ato": 9772, "\u2581Med": 9773, "\u2581Zus\u00e4tzlich": 9774, "\u2581Madam": 9775, "ohne": 9776,
[...]
