<unk>
<s>
</s>
.
,
▁
의
에
는
을
)
이
를
▁수
은
가
?
▁이
에서
▁있습니다
:
(
▁(
과
로
▁그
와
도
년
▁및
▁1
▁"
▁-
▁있는
으로
고
▁“
한
▁모든
s
▁2
▁전
▁한
▁더
지
▁3
월
하고
하는
-
!
일
▁있다
▁할
▁:
▁,
입니다
인
▁다른
할
다
▁4
"
▁우리는
▁것을
▁대한
/
▁5
▁위해
▁그리고
기
▁내
▁많은
▁나는
▁‘
▁것입니다
합니다
’
▁년
▁때
▁또는
”
▁가장
▁10
▁호텔
나
▁것이다
이다
만
해
▁것이
▁중
▁6
라
'
자
▁제
시
▁것은
▁그는
▁그러나
▁내가
하지
▁두
.”
서
▁위한
▁것
하여
▁또한
게
▁하는
된
▁함께
했다
▁어떤
에게
▁7
▁일
면
2
▁우리
...
▁같은
▁8
어
▁/
▁될
▁[
하기
스
하게
▁합니다
▁어떻게
▁당신은
▁그들은
▁A
▁대해
야
사
들이
▁우리가
▁우리의
▁그것은
▁다
▁the
▁주
▁큰
요
▁'
▁좋은
리
▁12
적
▁새로운
▁하지만
▁당신의
들은
▁경우
▁9
한다
▁당신이
라고
수
]
▁한다
▁그의
1
;
들을
주
3
▁후
▁동안
아
▁미국
▁다시
▁of
C
▁하
들
했습니다
▁11
▁잘
S
▁된
분
▁대
▁인
▁하나님의
성
▁안
▁B
▁통해
적인
."
m
대
▁보기
▁고
▁20
▁이러한
▁나
▁때문에
▁자신의
▁가
▁시간
▁S
▁모두
▁매우
▁15
에는
니
▁않습니다
B
까지
▁따라
▁C
▁데
▁아
▁또
▁가지
▁18
A
▁_
개
▁왜
화
부
▁해
진
장
D
▁없습니다
▁하고
▁시
▁사람들이
▁그들의
이나
▁세
▁서비스
ing
▁개월
▁말
▁아니라
하였다
하며
▁다음
트
세
▁사용
▁지금
신
mm
▁자
▁제공합니다
4
▁몇
해야
▁가지고
구
▁오
명
▁분
▁그들이
▁저는
▁의해
▁사람이
치
비
▁제품
드
▁있으며
오
▁그것을
보다
지도
원
소
전
▁약
▁그래서
▁이런
하
V
상
▁에
마
▁이것은
▁and
제
▁30
▁현재
▁&
되는
▁...
▁네
용
G
W
▁볼
▁이상
일에
er
조
▁비
▁그런
▁세계
▁등
실
▁없는
▁이렇게
▁지
히
선
▁알고
▁a
▁알
▁to
▁없다
▁많이
▁이제
며
▁개인
▁사람들은
y
되어
▁P
▁그가
됩니다
▁있을
▁가진
▁있었다
▁I
미
▁저
com
▁들어
년에
▁각
5
▁높은
▁정보
▁사
t
▁난
▁여러
▁–
▁D
d
▁T
라는
개의
▁16
▁일을
▁중요한
▁날
▁무료
▁나의
T
정
▁성
▁M
▁첫
보
▁게임
▁줄
▁본
e
될
에서는
▁G
되었다
▁E
▁전에
a
M
▁다양한
▁xHamster
동
ed
▁그렇게
▁14
▁in
▁R
산
▁수도
▁중국
▁H
▁항상
▁관리
차
F
▁24
우
▁않는
▁같이
▁바로
▁제가
▁것으로
▁13
이라고
▁계속
▁게
▁있고
▁기술
거
▁웹
▁물
▁위하여
이며
▁서
▁개
▁17
L
▁너무
하면
타
여
▁작은
▁>
▁F
▁The
▁일이
▁K
▁시작
▁사람
네
▁추가
▁하나
▁제공
▁나를
▁자기
x
▁마
P
▁정말
▁번째
처럼
▁바
당
▁새
▁기계
▁거
▁아니
습니다
▁유
▁월
회
▁데이터
되고
호
그
▁하지
▁정
▁방법
바
적으로
K
▁됩니다
·
형
▁최고의
▁아주
▁이미
하십시오
데
▁얼마나
▁부
▁지역
▁선택
▁수있는
H
▁여행
▁호텔은
식
▁만
▁시스템
즈
▁차
▁않을
▁일본
▁확인함
▁있도록
질
▁사람은
던
중
하거나
▁지원
▁일부
6
▁미
o
▁25
▁파일
▁생각
르
▁산
▁개의
▁구
▁않은
n
▁원
▁사용할
크
▁신
되지
▁도
▁연구
▁번
부터
프
▁보호
들의
▁의
▁그녀는
▁거의
▁이는
▁100
▁말했다
하다
▁어느
▁보
▁L
▁못
▁국제
▁관한
X
단
시간
~
▁했다
▁무
8
디
토
▁전체
▁X
▁단
▁N
▁기
▁필요한
모
▁2018
유
▁보고
▁열
▁되는
▁온
관
▁라
노
▁영화
레
7
란
▁업체
▁소
▁오늘
▁피
거나
g
▁생산
▁이름
코
▁그들을
▁W
파
▁어
▁총
▁정보를
▁특히
▁사실
▁강
▁19
무
▁있다는
▁최대
되었습니다
▁모
카
▁공급
▁있습니까
▁*
죠
▁않는다
▁개발
▁된다
▁당
▁50
i
▁다운로드
▁않았다
▁당신을
▁있다고
▁)
▁곧
▁V
▁%
▁무엇을
▁사진
이었다
▁#
▁로
▁TV
▁선
10
▁그것이
▁21
▁전화
▁여기
계
있는
▁후에
▁걸
▁2019
티
▁회사
위
▁여
▁살
로부터
경
al
엔
▁건
이라는
▁J
▁그를
▁온라인
▁교육
군
in
▁말을
▁예를
R
▁~
▁판매
▁2017
▁예약
건
N
▁비즈니스
▁영향을
더
E
▁크기
▁우리에게
안
▁되었다
▁아니다
▁따라서
러
▁사용자
▁센터
▁지난
▁명
>
?”
b
▁이후
p
▁스
▁주요
▁비디오
들과
▁좀
▁사랑
_
▁양
▁이야기
▁여호와
▁가능한
▁달
내
▁조
방
▁있어
▁리
▁모델
물
▁22
▁쉽게
▁관련
포
공
▁아닙니다
천
였다
▁불
▁마지막
▁영
▁그러한
▁영국
▁우리를
루
▁반
려
▁발
▁예
▁확인
▁않고
문
▁그런데
▁시간을
키
▁공
▁도움이
체
[
O
▁대부분의
c
▁고객
터
▁이상의
▁즉
▁배
▁+
▁되어
▁상
▁제조
▁Hotel
▁사람을
▁재
국
▁이용
▁갈
▁무슨
하도록
▁이스라엘
▁하나님
▁카
w
피
함
▁서비스를
▁만약
▁for
▁하나님은
▁하나님이
▁위
▁2016
된다
▁설치
역
지만
▁검색
r
h
법
▁귀하의
재
▁23
이고
9
▁정도
▁국가
k
연
▁작업
▁실제로
▁해야
초
▁물론
▁도시
▁전기
▁자동차
▁지도
▁그녀의
나는
▁번호
▁사용하여
▁운영
▁기타
▁장
▁디자인
저
간
es
▁호
▁연결
▁프로그램
f
▁이것이
▁우
▁설정
▁여전히
▁한국
도록
▁만들
▁0
▁가격
▁그러므로
교
▁40
▁있지만
▁단지
▁문
들에게
▁완전히
▁$
▁너희
▁없이
▁누가
▁직접
*
▁변경
▁참
▁웹사이트
▁방법을
두
▁동
▁2015
영
이라
▁원하는
▁하나의
▁예수
점
학
린
하라
면서
양
▁인터넷
번
해서
▁대학
▁처리
▁집
▁가족
▁안에
▁노
▁is
▁제공하는
▁매일
▁그들
▁아직
기를
하지만
or
▁서로
감
▁더욱
▁유럽
l
&
▁결과
▁초
▁위치
▁자신을
▁들
▁필요
▁포함
▁인도
▁HD
▁코
금
▁먼저
명의
발
▁사람들을
▁적
▁문제
J
▁사람의
▁O
▁「
▁산업
▁사용하는
▁방
▁북한
".
▁최고
▁<
▁Q
▁보안
+
▁해당
▁타
▁네가
▁안전
▁홈
I
▁컴퓨터
로서
▁설명
으로부터
음
강
▁있지
종
The
▁대한민국
▁28
지는
▁전자
▁유지
▁여자
길
▁있게
론
는데
▁것에
▁시험
▁그냥
매
▁필요가
약
▁따르면
▁숙박
▁기능
성급
판
▁표시
▁그들에게
▁역
절
▁남
▁공식
▁호스텔
」
▁여성
▁시간이
▁등이
배
▁역시
▁소개
▁사이트
임
든
▁2014
었다
▁소프트웨어
살
▁있다면
하면서
▁경험
브
▁기록
▁와
on
▁혹은
▁것도
▁일반적으로
석
▁인간
▁계획
▁제어
에도
▁아름다운
▁속
▁이름을
▁하나님께서
12
▁이미지
반
▁과
▁있었습니다
▁스포츠
▁훨씬
운
▁것이라고
▁만드는
▁당신
▁27
온
▁26
km
후
▁분석
▁결코
▁요구
▁전문
Y
?"
v
▁가운데
▁파
▁등록
행
▁파일을
▁간
▁km
▁처음
▁대하여
▁발견
▁문제를
▁사회
▁유형
▁준비
▁품질
▁등을
▁기업
▁이전
▁프랑스
현
▁아버지
▁가능
en
▁60
▁러시아
권
th
▁저장
▁카드
▁것처럼
▁건강
▁you
▁진
민
▁다음과
▁관
▁입니다
▁Porn
▁사람들에게
▁되었습니다
▁하나님을
▁이번
니다
▁되
▁무엇입니까
심
ly
▁환경
▁디지털
▁2012
▁있는지
▁질문
11
▁훌륭한
▁너희가
▁너
▁특정
▁2013
▁업데이트
▁김
▁것과
▁2010
있다
▁결혼
▁에서
▁결국
림
▁행
▁이를
▁테스트
▁거리에
테
▁장치
le
▁바랍니다
▁얻을
▁구성
하였습니다
▁너는
▁이탈리아
▁매
▁인쇄
▁에너지
▁찾을
▁때문이다
▁객실
▁경
▁장비
했고
▁만들어
▁사람들
▁아침
버
▁문제가
▁있어요
예
▁힘
▁주문
▁자신이
▁의하여
▁네트워크
▁공항
▁위해서
생
▁공장
▁기간
집
▁친구
으며
▁Windows
▁실
▁아시아
▁그룹
▁2011
▁말씀
▁데이터를
▁좋아하는
▁적용
▁호스팅
▁표준
▁음악
▁금
▁활동
▁기본
▁그에게
▁Re
케
했던
▁결정
▁이동
병
▁위에
불
▁포
▁아들
▁U
▁꽃
주의
▁수행
▁복구
▁겁니다
▁s
▁주는
▁있기
▁평균
류
▁최근
▁학교
▁저희
▁인해
래
색
▁빠른
▁응용
▁LED
▁은
▁문서
19
▁설계
▁자주
▁29
▁돈을
▁밤
re
난
▁x
▁투자
▁길
츠
랑
▁당신에게
▁거리
력
▁주의
▁토
자가
▁특별한
청
층
▁없었다
▁정의
▁부터
▁독일
▁스스로
▁치료
▁구매
▁코드
▁명의
▁생활
▁머리
▁버스
▁존재
▁아무
▁공유
▁아니면
▁하기
▁•
까
▁실행
▁단계
▁이유
▁하면
U
본
▁풀
25
▁PC
▁종
▁과학
▁키
▁뉴스
백
et
통
등
▁US
▁경제
▁내에
▁적이
u
18
15
▁통합
▁이유는
▁조금
▁때문입니다
▁기능을
날
▁위치하고
▁내게
▁영어
▁자연
▁제거
▁아래
20
▁올
▁입
▁색깔
▁최신
▁번역
말
▁뒤
▁오래
▁삼
▁외
▁애
▁병
▁중에
30
대로
되
▁m
▁백
▁말씀을
▁사람들의
링
▁입력
▁유일한
▁방문
Z
▁보내
an
▁찾아
하신
▁학생
▁좋아
▁아닌
▁포장
▁·
들에
▁하루
▁요청
▁하여
▁알게
▁성장
▁샤워
▁마음을
▁앞에
져
▁구조
us
것
▁위치한
뿐만
▁거래
▁확장
▁긴
▁받을
▁때까지
▁것이며
▁돌
16
▁심
하실
창
▁감사
▁31
▁아이
▁클럽
▁Co
달
▁행동
▁치
▁평가
▁둘
▁공격
ar
co
너
▁암
▁보다
남
▁실제
▁때에
메
$
▁니
▁정책
24
▁그러면
▁책
증
—
▁사이에
▁드
▁같습니다
▁on
▁진행
▁달러
▁했습니다
▁조직
▁꼭
이란
▁2008
하세요
급
▁가정
▁스타일
▁오직
▁뉴욕
▁공기
▁de
▁태그
▁(18+)
▁손
▁길이
입
으
▁이것을
▁창
▁작동
▁조사
13
▁진짜
▁돈
▁2009
▁증가
▁동시에
▁않았습니다
▁프로젝트
▁자동
▁오늘날
속
▁용
▁무엇이
▁광고
▁남자
▁의미
▁아마
▁낮은
▁연
▁그분의
▁크게
▁여기에
▁갖고
▁사업
▁길을
▁있
at
▁빨리
▁같다
▁일반
▁제품을
:00
to
▁글
▁되고
▁자유
▁만일
▁보는
▁언제나
▁받은
▁말할
▁음식
목
▁발전
▁플라스틱
el
어요
▁팀
각
▁약속
▁그렇지
▁일은
▁빛
▁보면
▁전혀
▁질
▁언제
쿠
▁나에게
편
▁박
해야합니다
▁있어서
박
▁거야
▁종류의
▁캐나다
▁곳에서
▁심지어
▁온도
▁여러분의
▁관계
직
▁할인
id
17
▁그럼
▁하나님께
▁도움을
▁점
▁팔
▁눈
▁사실을
▁사는
▁요
하려면
▁운동
▁방식으로
Hub
▁언어
▁만든
▁아파트
억
▁왕
▁Z
▁말하는
%
▁받고
네요
▁것인가
▁기도
21
▁전송
▁천
▁Y
▁삶을
▁버전
▁차량
▁Read
▁자료
▁종종
작
is
▁제안
▁대신
it
▁관련된
▁않다
▁창조
▁대해서
▁변
▁삭제
▁있는가
▁참여
▁지불
▁가는
▁알려
▁방법은
▁변화
▁아는
▁More
▁하였다
14
▁제작
z
우리는
▁접근
스트
▁이메일
ia
▁미국의
50
▁시설
▁말한다
▁성공
▁까지
▁아무도
▁너의
ur
▁f
40
▁살고
려고
▁태양
줄
▁디
▁곳
십시오
▁하느님의
령
▁여기서
▁너희는
-1
▁페이지
▁은행
▁떨어져
▁동일한
품
▁중앙
▁않으면
▁군
▁기억
▁미디어
설
▁200
▁해결
▁받아
▁나무
▁벌
▁05
▁너를
태
워
▁보통
▁세계에서
▁기회를
▁In
▁외부
▁말라
▁없어
▁케이블
▁그대로
▁의료
▁그게
내가
했으며
▁상자
▁발생
▁구원
걸
▁측정
22
였습니다
▁경험을
▁서버
▁당시
▁말이
▁공개
▁집에
▁동물
으면
▁여러분이
▁싶은
▁시리즈
이었습니다
▁유명한
▁강력한
▁적어도
▁편집
▁b
▁교회
▁발표
▁법
▁추천
복
▁노래
▁가까운
개월
▁정부
을위한
출
▁마음
지를
▁야
▁사랑하는
▁편
▁젊은
▁알아
합니까
▁생각합니다
▁땅
▁현대
▁IP
▁표현
년부터
▁경우에
▁속에
함을
▁있나요
▁쉬운
▁없을
없이
별
▁나은
ic
▁앤
▁제한
▁기술을
▁어린
0
▁역할을
▁놀라운
▁자는
▁수정
업
▁도메인
ent
▁하며
니까
ri
했을
▁금속
▁완료
▁범위
▁일에
▁2020
▁알루미늄
광
마다
▁2007
성을
▁섬
▁별
▁결과를
갈
▁검사
인가
▁앞으로
▁모두가
▁|
▁막
울
▁사람에게
▁진정한
커
▁않
▁시즌
▁레
▁되지
▁말합니다
▁공간
▁이들은
▁어머니
▁인간의
만이
▁혼자
▁안에서
었습니다
가지
▁통제
▁be
▁선물
항
▁협력
▁가서
▁정치
▁이해
ation
▁상태
▁엄마
▁하나는
▁나쁜
▁동영상
▁브랜드
▁참조
량
인지
▁아내
▁목
거야
망
▁01
▁그림
▁반드시
▁섹스
un
하려고
▁De
▁곳에
▁그렇다면
▁리뷰
▁한번
▁연락
▁여러분은
▁상품
▁없
▁필요합니다
합
▁있는데
▁마치
▁뭐
▁늘
▁박물관
처
승
▁화
!”
▁위험
명이
um
▁건설
님
▁500
▁즉시
▁물자
▁알지
▁통신
▁무엇인가
▁프로그램을
32
▁with
▁현
▁필요로
▁나와
▁종이
▁축구
▁허
▁잘못
▁생각해
▁도착
자는
▁p
▁인정
▁여호와께서
▁대통령
▁소유
▁시도
▁카메라
퍼
▁건축
외
▁핵심
▁귀
▁어떠한
▁의사
▁임
▁자세한
▁정말로
▁지방
▁장소
▁채널
▁속에서
▁비용
세요
▁멋진
▁보여
▁사망
▁by
▁등의
▁이야기를
▁35
▁소리
▁시장
▁목록
▁도구
=
나요
▁있어야
▁32
▁깊은
▁주소
▁옵션
▁광
▁06
▁내용
▁사이트를
▁강철
▁가득
글
▁기관
▁서울
열
▁지역에
▁날짜
▁보장
!!
▁책을
▁끝
▁문화
▁완벽한
▁c
추
▁승리
▁존
투
▁감
▁전쟁
▁베
28
락
▁생성
▁불구하고
▁속도
▁종교
Q
▁방송
탄
▁아무것도
▁모바일
리라
▁플레이
함으로써
으로서
▁우주
▁글로벌
▁역사
▁너희에게
▁부품
▁그녀가
애
▁계시
▁게임을
▁가스
▁80
▁순간
▁법률
▁감독
슨
▁가능합니다
▁가슴
▁받는
▁생각을
▁02
▁마케팅
▁신청
▁힘을
▁룸
▁있던
na
▁대답
▁응답
▁수집
▁이벤트
▁대표
▁감사합니다
▁방법으로
족
립
▁=
때
ta
▁분명히
▁어디
▁예술
▁인기
▁수많은
▁쇼
.—
긴
기도
▁Pro
▁No
▁스크린
▁아마도
▁내부
▁전문가
▁07
▁작성
근
▁사무실
▁식사
▁대화
man
▁회사는
▁듣고
▁엔진
▁파괴
▁성서
▁찾기
27
99
▁그분은
표
▁그건
▁프리
▁로마
▁출시
▁자체
▁만들기
▁침대
▁that
▁맞는
ine
▁벽
▁형
▁2000
▁악
▁원래
▁설립
®
▁비교
냐
▁있음을
▁전시
▁아직도
▁상품을
▁화학
▁훈련
▁인증
▁그때
▁미터
▁아마츄어
▁커피
막
▁감소
▁프로
보고
ch
▁실패
23
▁Street
▁없음
29
▁찾고
▁청
시킬
Porn
하시는
▁좋습니다
▁인식
▁이건
▁전달
▁어린이
▁기름
▁La
65
▁개선
▁쇼핑
볼
▁e
▁노력
▁요리
son
적이고
▁죽은
▁판
▁경쟁
▁일반적인
ie
세기
▁기준
씨
▁작업을
▁링크
:30
▁앞에서
▁파리
릴
▁관광
▁관계를
▁반대
▁90
60
▁초기
▁있을까
▁집단
▁관심을
▁사이
머
졌다
▁증거
북
45
33
▁뒤에
▁부분
▁나중에
▁마십시오
▁회원
▁교
▁음
시키는
▁이내에
▁절대
▁믿는
▁지역의
인데
▁런던
im
▁연방
베
▁뿐
▁행사
▁기반
li
▁스페인
▁강한
▁순
il
▁사이의
▁누구
다면
▁기대
▁왜냐하면
▁분야
▁파트너
▁살아
▁점점
▁북
곡
들도
▁마음에
순
▁드라이브
▁모터
▁여러분
100
ol
▁중단
▁식
▁삶의
▁여름
▁조각
다고
ion
▁300
▁단위
cm
ra
▁행복
하는데
렌
▁문제는
▁개인정보
▁체계
▁딸
▁이어
▁금융
▁것이라
되며
▁나라
▁싶어
▁파티
▁쿠키
▁매년
▁처음으로
▁업무
한다면
▁준
정보
▁경우에는
▁하나님께서는
▁어려운
ers
▁쓰
▁것보다
▁이에
왕
▁압력
▁충분히
▁or
▁St
▁범죄
▁몸
▁04
▁세상을
▁지구
▁집중
▁특별
est
▁지속
▁저항
▁연합
▁회복
▁운전
▁절
▁봉사
▁앱
de
▁세상에
▁두고
션
▁관하여
▁소녀
▁사항
▁잠
▁조정
▁철
500
▁제일
▁모른다
▁그와
▁표
▁기사
▁받았다
▁이들
▁문의
▁무게
te
암
▁시스템을
▁식품
하였고
▁성인
▁팬
▁최소
ro
▁계산
▁국
▁재생
▁있었던
▁얼마
▁루
▁자가
▁d
▁카지노
▁떠나
▁선택할
우리
▁피부
▁만족
▁최종
▁책임
▁출력
▁생각하는
▁라인
▁몇몇
담
▁블랙
지요
▁가이드
▁가입
를위한
▁re
▁시간에
31
▁연락처
▁과연
결
▁색상
▁명령
▁45
준
격
▁앞
축
▁공원
▁위대한
▁면
▁최초의
▁계약
▁가까이
▁사랑을
▁»
▁구입
새
▁함
탈
▁통
▁70
▁확실히
언
▁멀리
이지만
▁지금은
▁액세스
▁가치
▁유리
▁학습
ry
▁경고
▁지정
▁언급
▁도전
▁대체
▁남성
▁영상
▁오는
변
▁오후
▁2006
▁Google
▁영원히
!"
Tube
에서도
▁무역
26
▁USB
▁솔루션
▁하이틴
▁메
▁도로
▁페
st
▁스타
자를
▁즐길
▁마찬가지로
▁우선
▁사용자가
▁얘기
▁세계의
▁사건
▁빠르게
▁전략
향
▁결합
▁손실
01
됐다
▁못할
▁공동
▁플랫폼
▁되면
▁각각
▁비치
▁생
▁첫째
▁전부
▁버
년대
▁점을
▁제목
▁형성
▁03
라면
▁라고
▁참가
▁리조트
▁아프리카
▁고려
▁위로
▁정신
▁강화
▁그래
▁평화
▁현실
▁(1
ate
▁주로
▁형제
▁이름은
▁선수
▁전력
▁티
한다는
▁짧은
▁수백
▁높이
▁100%
▁홍콩
▁간단한
▁시티
▁PDF
▁특징
▁주변
▁전용
▁추
▁못한
▁색
▁종류
▁국내
▁변환
▁너희를
▁옷
▁적절한
▁안내
▁봄
▁회의
2)
▁건물
▁제공됩니다
▁시작했다
▁찾는
▁지금까지
▁뿐만
▁교통
▁세포
다는
▁코스
책
▁대로
으니
더라
▁사회적
▁허용
:10
▁수가
센터
평
▁나이
▁배우
페
▁하나입니다
하자
료
▁딱
이자
되면
▁저녁
35
▁손을
▁권
▁밀
손
보기
▁저를
▁Mac
▁집에서
시켜
▁아기
▁규정
▁투
년에는
▁객실에
▁보이는
▁스파
지고
▁주식
리아
▁36
▁걱정
▁흑인
▁깊이
ang
▁작품
▁정원
▁관해
▁빈
▁대부분
▁메시지
▁(1)
없는
▁직업
곳
▁멕시코
▁능력을
▁두려워
▁i
▁ISO
os
ul
▁나도
▁하드
▁패널
▁능력
▁도보
자의
알
▁취소
▁대상
▁줍니다
▁저도
▁안전한
▁그것
성급의
▁앨범
▁조명
▁Park
▁플레이어
▁그리
▁이와
▁같
▁전환
ter
하기를
▁Al
▁참고
▁it
▁단체
▁are
▁없고
▁패
▁주장
▁오래된
▁땅에
철
▁그것의
▁중에서
▁울
▁신호
▁레스토랑
46
▁고대
해요
▁사고
▁배달
▁레이저
▁공항에서
48
▁모양
▁《
▁프로그램은
▁이전에
되었으며
ge
쪽
▁씨
쉬
▁메모리
▁와서
▁An
또는
▁중요
됨
▁마사지
▁반복
하려는
lo
▁채
▁시계
▁저렴한
me
되었고
▁독립
독
▁마을
▁재료
▁배터리
am
만큼
▁부족
▁보지
▁알려진
했지만
▁추적
▁담
▁때는
:11
▁왔다
▁혁신
▁도쿄
▁올바른
채
▁고객의
에있는
▁스마트
▁g
ton
▁your
34
▁저희는
▁윈도우
구나
▁세트
▁말했습니다
입니까
▁2005
▁문제에
이에요
▁얼굴
▁t
▁(19
▁시대
▁맥
플
▁신뢰
▁전원
▁그것에
▁제도
▁관심이
▁못하는
as
▁09
64
▁보세요
▁사진을
▁태
▁포함한
-10
한테
▁뜨거운
▁이게
▁생각한다
ir
se
▁펌프
름
▁증명
:12
▁고급
▁내용을
▁소재
술
▁꿈
▁회
▁친
시는
▁테이블
년까지
▁33
▁통과
스타
36
▁화면
▁병원
▁터
▁묘사
▁말은
이야
・
▁거예요
한다고
▁(2
▁보험
▁있으면
▁단순히
▁수상
j
▁활동을
@
▁다섯
▁게시
▁야외
▁이르되
▁테
la
▁편안한
▁나머지
44
▁구축
▁직원
▁가공
하였으며
▁호주
▁방지
▁장식
▁말고
되기
▁나가
▁me
▁특성
▁예수께서
▁경기
ut
“
▁w
80
▁다만
▁물을
▁형식
위원회
▁그리스
▁비행
▁대학교
▁단일
▁갖추고
▁승인
▁단어
▁크리스마스
▁의심
▁개별
▁교환
▁블로그
▁맹세
▁위해서는
38
▁만들고
▁커뮤니티
▁포함하여
기는
▁반응
▁시설을
▁이다
▁비슷한
▁칼
올
▁이유로
▁달리
▁걸쳐
kg
▁의한
39
▁보증
▁My
▁올드
▁사용되는
▁제출
▁종료
군요
▁과정
▁판단
▁약간
임을
▁넘는
▁전압
▁상대
기에
▁크
▁배송
▁눈을
▁예상
ment
▁상호
▁희망
▁달려
친
▁정확한
▁완전한
▁커
▁금고
ce
▁송
▁거짓
▁조회
▁비밀
▁우린
▁넌
▁콘텐츠
42
ian
봉
▁New
▁생명을
▁덜
▁받지
▁남아
▁관리자
49
▁검토
▁수는
▁필
▁Wi
▁최
▁분말
▁무선
▁사용합니다
▁가질
▁공공
‘
▁심장
▁한다는
▁그저
▁배경
▁복
▁실험
▁홀
ty
▁차로
▁세상
▁체
▁보라
:14
▁말하고
▁분류
▁제품은
▁We
▁내일
one
▁것이고
▁영역
▁손상
▁마음이
▁1000
▁실내
▁싶습니다
▁나서
-5
54
▁우수한
▁거기에
시고
▁먹을
▁내용은
▁황
》
▁거대한
▁08
▁섬유
▁클릭
습
희
▁있음
▁동의
▁전투
▁실로
▁수출
▁파크
미터
▁올해
▁통해서
▁배치
▁보이
▁소셜
든지
▁둘째
▁You
먼
▁국민
▁호텔에서
스터
▁Do
▁식물
▁자세히
▁일어나
▁접
▁노동
▁민족
▁하라
▁만나
되어야
자들은
▁선생님
▁부인
▁정상
▁널
▁성능
▁부엌
▁경찰
▁해서
▁이유가
▁포함되어
▁눈에
▁것들을
▁싱가포르
55
년간
▁스테인리스
▁지배
mo
▁제대로
▁혹시
▁150
들로
▁RF
▁참으로
▁아빠
▁밖에
▁하나가
같은
▁녹색
▁불러
▁나오는
▁조건
age
▁한다고
▁하나를
▁촬영
▁가치가
▁신경
▁내려
▁포트
▁예언
▁not
-2
▁엔
충
▁생각이
:15
▁히
▁마지막으로
▁중요합니다
습니까
▁Dr
▁mm
56
▁개발자
▁완성
▁왔습니다
om
▁술
▁할머니
▁백색
▁문을
66
▁냉각
녀
▁망
ad
거리
▁진화
no
▁●
▁『
▁주님의
▁from
▁않아
▁오히려
▁동료
송
▁To
라도
▁태국
95
43
▁타고
▁2004
▁누
▁공정
팅
▁탱크
▁그럴
▁환영
쳐
▁금지
▁뉴
▁오랫동안
▁투어
▁주고
▁요소
▁Home
▁아마추어
▁투표
슬
▁없다는
▁v
▁바다
▁at
▁부활
▁지지
▁인치
▁목표
ity
▁가고
▁영원한
▁무료로
▁미래
▁만큼
▁근육
▁방법이
naldin
▁저희가
악
▁Me
ac
▁폭력
▁부여
▁통하여
니라
액
200
모든
▁엘
까요
▁사람들과
▁2003
:13
▁블록
▁바이
턴
▁사용하고
▁계정
▁사람과
:19
▁장난감
able
37
▁기반으로
▁넓은
▁시간은
▁제시
▁빌라
▁활용
느냐
▁집을
▁폭
▁실시
관리
▁말한
▁준다
59
▁남편
▁있었고
▁방법에
▁미국에서
▁향
▁첫번째
▁카테고리
▁변화를
▁읽기
▁때마다
▁분리
▁심각한
리는
▁위협
em
▁이름이
ca
▁위성
▁소비
▁관찰
월에
▁오랜
▁캐
▁왕국
하니
▁모습을
▁분명
▁an
▁그러
람
ill
▁가능성이
▁그녀를
스는
▁임신
▁AC
▁널리
▁못했다
▁can
▁예측
▁무기
▁도와
▁여행을
▁자전거
:20
▁그걸
▁낮
▁스위스
▁38
▁그리스도인
』
▁하나님과
▁뜻
▁미리
▁모듈
▁하우스
▁접촉
번째
▁37
에게서
▁오디오
▁골프
▁고객이
ist
▁명이
서는
▁00
▁거기
▁트럭
▁값
-4
▁개최
▁취
▁메뉴
▁정보는
63
▁그날
른
▁선거
Fi
▁체험
▁세부
▁죽음
▁맨
▁있을까요
▁안드로이드
▁물질
▁싶지
▁출발
▁없다고
:17
록
▁축제
▁근처에
ma
▁충분한
▁고통
ig
▁48
▁냉장고
▁응
▁청소
▁마침내
▁상표
영어
▁새로
삼
▁헤
▁열심히
▁박사
▁전통
환
▁층
53
▁바이러스
▁협회
구요
96
▁그래도
▁용서
▁표면
▁년에
▁재미
▁Microsoft
▁로봇
▁제공하고
▁계획을
집니다
▁고용
패
▁34
누
▁주십시오
▁해외
▁기회
▁어디에
주는
▁전세계
▁손에
▁소스
하던
▁말해
엘
▁생명
▁질문을
▁증인
–
있을
▁스웨덴
▁것이었다
3)
▁겨울
▁로그인
▁먹
▁원칙
▁거부
▁완전
▁죄를
▁향상
블
09
▁합금
▁이웃
▁누구나
찬
41
▁디스플레이
움
만을
and
골
▁주차장
▁뛰어난
▁만한
▁Be
go
▁모형
min
▁TXXX
▁문자
▁디스크
압
▁봐
▁시민
▁방어
는지
▁맞
▁과정을
▁영업
▁직
▁오픈
딩
▁대회
▁일단
▁행성
▁브라질
▁패키지
▁먹고
69
58
▁인구
▁잘못된
다가
받은
▁수천
▁알려져
▁as
▁커플
교육
▁고양이
▁사도
▁형태
:1
ci
▁내에서
▁믿을
▁갑자기
▁Road
▁DC
▁수입
▁보인다
▁기초
▁공부
▁수영장
▁들어가
덕
▁잠시
▁마세요
▁주신
▁©
▁잔
▁진리
▁갖춘
▁작가
▁큰가슴
▁회사의
▁사전
▁데이터베이스
▁만들어진
▁정치적
▁뭔가
▁레즈비언
▁주택
▁가게
▁항
▁못하고
▁저의
▁임명
▁초대
:18
02
▁퍼
▁상승
▁축복
▁소형
▁네덜란드
▁의지
▁욕실
▁곳이
귀
▁음식을
▁지역에서
72
ll
▁청소년
▁샤
70
▁OS
▁캘리포니아
▁법을
▁건강한
▁성경
▁석
ard
86
ant
자들이
레이
85
▁사용됩니다
성이
▁비록
톤
▁도입
시키고
▁심판
▁국립
▁대량
▁도달
▁세상의
슈
net
-8
같이
ti
▁숫자
▁글을
▁잊지
▁폴
▁와인
▁항공
▁Le
▁유혹
▁해도
취
▁간격
▁City
▁필터
▁왕이
▁열린
▁지식
▁참석
▁죄
▁가로되
▁때가
62
▁없었습니다
TM
-12
▁400
▁활성화
▁핵
밀
▁소비자
▁분야에서
▁베트남
▁마련
하리라
▁○
이기도
▁받았습니다
이기
▁do
▁신앙
▁스위트
67
팀
▁만듭니다
▁기존
▁경영
▁라이브
ak
75
▁더블
-20
튼
▁의학
61
▁섹시한중년여성
▁아일랜드
▁책임을
▁가져
▁의식
▁싶다
범
ong
▁금발
▁포인트
▁효과
▁생물
▁목적으로
▁진실
▁저자
▁이제는
▁°
▁(2)
▁구현
▁교수
▁발행
▁엄청난
▁라디오
98
지지
▁보관
셨다
▁오류
▁접속
▁구글
▁제품의
▁것들
ne
▁것들이
▁배울
▁기뻐
▁모릅니다
▁교사
▁정도로
▁지적
▁행동을
하시고
돌
▁규칙
▁삶
▁PVC
▁바닥
▁공연
▁않도록
ha
▁돌아
▁때때로
▁성취
▁어제
▁레벨
킹
▁알아야
▁질문에
하나
기관
▁주세요
▁통계
▁n
▁상황
버스
▁have
▁복잡한
▁고정
▁마리
▁수준
▁넘
▁블루
▁El
▁기독교
겠습니다
▁독
▁중간
▁인터페이스
▁갤러리
▁꽤
쓰
▁독특한
▁밖으로
▁KAYAK
▁의미합니다
▁통화
▁보고서
▁부동산
▁화장실
렸다
90
▁올림픽
▁근무
▁수준의
▁방향
▁감염
▁선택한
▁인간이
▁애플
으나
았다
빈
▁재산
▁저에게
▁무엇인지
▁사용하지
▁대기
▁돌아가
▁진리를
▁JizzBunker
▁보이지
도다
싱
▁기기
▁클래스
▁노출
▁먹는
▁날씨
▁같아요
▁일본의
▁해요
회사
▁도보로
ap
▁답변
▁이용할
받을
▁42
52
▁모습
600
▁예수께서는
:16
▁선언
례
리스
▁민
▁가치를
▁Con
▁상담
▁허락
▁믿지
▁회중
▁가상
ay
▁정확히
▁my
▁권리
▁전망
▁한국어
▁아이들이
▁베이
-3
▁적은
▁이름으로
▁그리하여
▁메시지를
▁하는가
▁www
▁더불어
▁넘어
침
기가
▁하늘
▁클라우드
▁많
)’
▁통한
▁답
▁기다리고
▁···
▁관심
▁비용을
▁백성
▁존중
▁확대
04
학교
▁수있다
▁자리
400
▁시작할
▁USD
▁120
▁해변
▁압축
▁호스트
▁Inn
▁연구를
▁축
▁구역
▁불법
▁숙소
▁시설이
▁배포
▁정부는
▁영적
▁보수
▁Mar
틀
▁날에
▁시스템은
▁않게
ve
▁지식을
▁부정
▁홈페이지
▁신문
▁IT
▁메일
▁서명
▁특수
▁전통적인
▁자원
▁사용하기
▁읽고
셔
▁2002
▁율법
풍
▁당신과
▁뜻을
▁땅을
▁믿음을
번호
▁약물
▁변호사
▁기차
93
▁갔다
▁인하여
?’
▁뇌
▁세상에서
▁근
▁실현
▁믿고
▁연료
▁무엇
▁사용하면
▁왔
▁→
03
▁행위
▁못한다
▁중심
▁슈퍼
▁오전
In
▁미래를
▁옷을
▁Ro
300
:22
▁관련하여
▁OEM
▁많다
▁합
존
씩
51
▁지상
▁회전
율
▁혜택을
▁선정
▁And
▁@
나무
▁것이라는
▁원본
▁All
▁어쩌면
▁지원을
▁h
ber
▁각자
92
▁Li
▁상기
황
▁누군가
▁들면
▁어찌
▁위치를
▁애플리케이션
▁믿음
▁한편
▁모르
▁비트
▁제조업체
호텔
권을
▁졸업
▁이것
▁기후
▁규제
▁준비가
▁했
▁연주
ml
84
▁나이든여자
▁보상
▁밝혔다
ive
05
▁대중
▁대해서는
▁텍스트
▁터키
▁타입
#
숙
▁상점
▁일정
웃음
▁해석
▁House
▁화이트
▁환영합니다
▁케
▁빌
▁사항을
께
47
▁네게
▁시행
▁극
▁변수
▁편지
▁폰
칠
▁탈
▁옵션을
▁느낄
셨습니다
▁사용자의
▁검
94
▁하다
▁결정을
▁않았
▁(4
▁모드
했는데
▁항목
▁워싱턴
▁숨
▁제공할
▁센서
▁분이
▁공동체
:4
ip
▁범
▁수술
▁계속해서
▁근데
▁Mo
▁생각하고
▁말씀이
력을
▁필수
▁현지
▁일부는
▁주차
▁하게
하려
▁앉아
▁세계를
▁39
▁쿠
▁아들이
ho
▁수업
▁노예
:9
▁칠
▁말하기를
총
맨
했다고
▁개념
▁토론
▁후기
▁this
▁몸을
상의
-6
곤
▁준수
▁덕분에
▁리더
▁World
▁효과적인
▁사용자는
▁정리
pe
▁용접
▁각각의
▁등급
▁부대
▁이때
되거나
▁숲
▁앞서
08
▁생각할
▁용량
▁댓글
▁곡
▁십
▁모르는
▁흥미로운
▁로열티
▁Vi
00
▁유명
▁리그
사가
▁계
our
▁보게
미국
▁과거
▁달성
런
land
진다
이요
리니
▁친구가
▁피곤
▁소년
07
▁돼
려면
mp
▁그린
▁스튜디오
▁마이크로
▁일상
▁차단
▁요금
가요
▁주기
▁밤에
▁충족
▁대부분은
장을
▁대략
▁천사
▁우유
▁생각하지
▁대형
▁Beach
.”—
▁찬
▁뭘
▁사례
짐
▁택시
▁조절
▁도매
▁부르
렉
0°
▁상황을
▁폴란드
▁행복한
그리고
▁따
ick
▁요한
▁전파
▁체코
▁CO
▁그리스도의
▁집으로
▁쓴
었고
▁ID
ko
▁패션
▁우리와
▁잡
▁작용
▁희생
에게는
▁신체
▁밝은
71
▁Got
▁군사
▁목표를
인이
▁법적
뿐
▁Man
▁소프트웨어를
▁자신들
▁아무런
▁떨어진
겨
견
▁예정
께서
▁헤어드라이기
셨
▁여기에서
룸
▁듯
필
▁당사
:6
▁옆에
▁데이터시트
힌
▁권리를
▁다리
▁꾸
제품
▁55
▁연속
스러운
▁도시의
▁결과는
▁환자
】
▁욕조
대학교
▁조합
▁폐
▁탄소
▁가난한
▁받게
김
▁학생들은
57
▁꿈을
▁희
▁International
▁Center
▁뿐이다
▁의무
▁상상
▁일하는
▁2001
▁의회
▁고무
▁계신
▁각종
hi
▁채택
▁특허
▁쓸
▁차원
ba
▁없어요
▁체크
▁시트
▁철도
▁테마
감을
▁음료
▁이해할
io
▁획득
▁가구
do
▁되기
우스
▁예방
▁진단
이라면
per
▁방수
▁시기
▁스위치
up
68
▁전국
▁받기
▁공간을
▁설
▁목적
▁성분
EN
ary
▁멸망
하다고
▁도서관
▁우승
세계
▁아이디어
▁얻는
▁승
노라
▁고통을
▁일치
:23
▁브
▁LCD
▁그분이
▁경계
▁하이
샤
었던
▁푸
91
▁지시
▁필요하다
▁짓
▁적합한
▁에어
▁문신
81
칭
▁밴드
▁고품질
▁옛
일부터
▁싸움
▁상당히
▁con
▁갖게
▁k
q
:21
▁에어컨
▁빛을
▁Car
더니
▁사이에서
▁자기의
▁컬러
▁따른
▁Apple
:8
▁소리를
▁조언
▁흡연
나니
▁그럼에도
▁수학
▁등장
▁둔
▁향해
▁싱글
▁바라
▁있죠
▁나온
5%
▁갖춰진
▁품
▁않으며
▁누구도
염
▁공화국
핑
▁상황에서
▁열기
인가요
▁아이들은
듯
하기로
▁위기
act
▁연기
▁확신
▁포르노
▁농업
▁노력을
▁사탄
▁느낌
:7
▁혁명
▁도울
der
▁미래에
▁똑같은
▁거절
▁얻기
빌
▁수용
잖아
SA
▁비행기
허
▁복음
▁이론
▁벤
▁이중
▁목적을
▁손님께서는
▁백업
▁영광
▁팁
▁250
▁l
▁이거
▁신뢰할
Re
ft
▁거룩한
▁지켜
▁Ar
▁최근에
▁마스터
물을
으로써
▁자신
▁스테로이드
▁인기있는
▁64
▁귀여운
▁티켓
혀
▁DVD
82
하기도
▁아래에
▁오른쪽
극
▁맛
▁땅에서
▁객실을
▁처
▁때로는
▁쪽
▁He
:24
▁Inc
▁아니었다
▁스타킹
▁하여금
▁CD
▁걸어
▁]
▁짐
▁남은
▁기회가
▁노트북
▁써
▁것인지
▁균형
▁직경
▁위험을
하므로
be
착
▁Museum
함이
▁좋다
▁Bravo
▁아침에
▁대응
지역
▁충전
▁하였습니다
▁환경을
달러
닝
명을
시기
)"
～
):
▁합니까
▁75
▁절약
▁날이
랜드
▁결제
▁기원
▁골
▁그리스도
83
▁항구
▁식사를
▁게다가
▁외국인
기업
▁결혼식
▁없으며
▁유다
”(
▁라틴
▁놀이
▁보드
▁외국
▁보았다
느니라
여호와의
▁캐릭터
▁홍
▁읽어
▁예약하세요
쇼
▁기념
06
▁모니터링
▁통치
▁질병
예요
:28
ue
▁포기
▁추구
▁복원
봐
▁레드
▁아이들
ide
▁거짓말
▁생활을
▁아니고
the
▁입장
▁숭배
▁그래픽
▁군대
▁차트
▁했던
▁키스
▁Bar
▁단순한
ph
▁위원회
음을
안에
▁프
▁600
전에
했어요
da
▁1990
참
▁오염
▁주제
▁중심에
▁부서
="
▁유형의
▁털이
풀
기술
▁드라이버
▁주문을
▁시작합니다
▁그렇지만
▁연장
▁봉
▁대전
▁이집트
87
▁논의
▁쓰는
▁않지만
▁목표는
▁Ch
▁※
▁인간은
ee
▁세계적으로
▁가죽
▁업계
:25
▁셀
MA
▁정부가
▁톤
▁보존
▁결
97
ka
아이
▁방식을
ina
▁출
▁죽을
▁코팅
▁가방
▁지속적인
▁가동
▁펜
▁하신
▁사랑의
▁식당
▁구멍
▁약간의
ah
▁자들이
▁사업을
79
▁고객에게
▁개인적인
대학
▁사용을
▁부분을
사회
▁과정에서
▁예루살렘
ab
▁가격이
▁소설
▁식별
??
겠다
잔
▁일어날
있습니다
▁박스
센
벌
ell
▁성공적으로
▁만화
▁업로드
▁안전하게
▁칩
▁클라이언트
▁잡아
▁넣어
▁페이스북
문화
다른
▁그들과
▁현장
▁도움
▁경험이
▁힘이
▁한다면
▁상태로
▁순종
▁싫어
▁책은
▁거기서
▁자신에게
▁인한
▁마라
서비스
▁말이죠
▁열어
▁지속적으로
사업
▁교체
▁천국
▁무리
é
:5
하시기
ot
ER
he
▁마리아
▁비난
▁시내
▁자를
▁세금
▁육
▁시각
▁미니
사를
▁뿌리
▁소식을
먹
▁성적
▁EU
▁연구소
▁대비
쯤
end
징
▁시대에
▁고민
▁프로젝트를
이죠
▁액체
▁레이
▁조선
▁비해
▁이들이
74
니아
ga
▁국가의
▁디자이너
▁일곱
산업
sh
▁연습
▁암호화
▁자네
▁급
▁트럼프
▁자동으로
▁지혜
▁차지
▁공포
▁시작했습니다
ex
▁풍부한
▁헌신
▁—
▁관련이
▁노동자
▁잡지
▁다음에
▁완벽
▁주었다
GB
▁충돌
▁XXX
PS
지에
▁반면
하고자
▁노인
▁직물
▁지옥
▁담당
▁Bo
▁여호와께
▁비율
▁시스템에
▁업그레이드
▁손님
▁이곳
▁제국
밖에
▁먼
▁것이요
▁난방
▁과일
▁탄생
▁편의
▁차를
▁절반
▁용품
▁케이스
▁나아가
▁순서
랄
시키기
▁그분을
▁열차
▁르
▁쿠폰
▁역사를
▁현금
-15
▁서비스에
▁사실은
TV
규
▁얼굴을
▁연구에
▁영양
▁자기가
▁보십시오
자와
▁영국의
▁프레임
▁정보가
대의
▁검색하여
ni
▁귀하가
:26
▁말이다
800
▁리눅스
▁위험한
▁아름다움
▁위에서
정부
▁취득
di
▁그랜드
요한
IN
▁오신
▁쉬
▁체제
였던
▁퇴
▁없다면
▁보유
▁혼합
▁간의
ish
▁곳으로
▁08:00
▁중국의
▁영웅
▁주께서
▁음성
▁스트립
▁거죠
▁팀은
나라
있어
▁현대적인
▁자극
▁사이트에
▁텔레비전
졌
▁자산
▁미국인
▁큰엉덩이
벨
▁무시
▁양식
ana
▁격
▁팩
▁태어난
1)
▁탄
옥
▁이사
▁--
▁타워
▁감시
▁목욕
▁갖는
MS
▁방해
art
ai
▁은혜
▁있읍니다
▁유용한
▁폭발
▁트
▁담배
▁기자
▁아이가
▁수십
▁받
▁믿
▁정확하게
▁점은
▁체인
US
▁렌즈
▁너무나
▁소유자
ner
▁게이
▁존재하지
▁일이다
▁보도
▁사랑이
▁말로
▁65
당신은
▁죽
▁읽을
▁카드를
▁세계에
시스템
▁€
73
▁University
하셨습니다
익
자에게
▁이란
▁(3
▁웹캠
76
▁생존
▁브라우저
▁만에
▁소매
▁이걸
▁의하면
▁벗어나
▁착용
▁카페
▁미래의
▁세인트
▁것일까
▁오늘은
▁빠져
▁보니
▁운송
▁베스트
▁지원합니다
▁제기
▁제품에
▁너희의
있
▁삽
▁도구를
▁상태를
우리가
bi
▁반대로
▁와이파이
lin
▁철학
▁이유를
▁유로
▁붙
▁로고
▁가야
▁세대
졌습니다
시켰다
▁소식
▁오르
▁마르
ver
▁슈
▁이용하여
▁Via
ance
▁중국에서
받는
레스
▁예비
화된
▁호수
▁애니메이션
▁소속
왔다
▁현재의
▁샘플
▁엔지니어
▁간다
것을
▁수신
▁유대인
어야
▁1)
▁시절
▁바람
▁r
org
-11
▁So
▁[...]
▁않아요
▁즐거운
▁신발
▁all
▁Go
▁(5
▁존재하는
▁솔루션을
^^
▁가운데서
▁베를린
▁삶에
마태
▁악한
▁일어난
▁의존
▁성급
▁위치에
린다
▁800
▁Di
▁삽입
▁수단
회의
하셨다
▁One
▁드립니다
les
▁백성이
▁모두에게
▁일찍
▁출판
사는
▁극장
▁왼쪽
▁언론
▁찬양
▁복사
힐
▁포함됩니다
▁이용하실
▁괴물
▁주지
▁지나
au
▁프로세스
▁감정
▁혼
▁하드웨어
▁놀
돈
▁동작
▁확보
▁광범위한
▁발달
▁오일
▁조지
▁제임스
▁철사
상을
▁증
▁판결
▁당연히
▁슬
▁인사
▁일어나는
▁신용
기로
▁축하
▁분노
▁원격
▁단백질
▁흔히
경제
육
▁코어
▁명령을
칸
:29
큐
▁호르몬
▁우크라이나
▁음악을
▁컬렉션
:27
▁필드
주세요
▁상황이
▁몰
▁1998
▁최선을
하여야
클
▁위의
▁컵
심을
▁형태의
▁폴리
짓
▁보여줍니다
▁임시
▁강도
ub
▁살인
▁물고기
▁마크
▁댄스
능
ure
왔
▁we
▁머
▁반영
▁교육을
bo
▁상황에
▁떠
▁will
▁다이아몬드
TA
▁【
▁사용될
▁쌍
▁II
▁고속
▁Ra
인들은
▁저작권
▁특별히
했기
▁약관
▁기본적인
▁San
IS
lu
이지
▁서비스는
▁말하지
▁포함합니다
▁방식
하시
▁숙
ᄂ
▁나타내
▁수리
▁교황
▁어디서
▁실수
▁인종
▁46
▁녹
▁부모님
(19
port
저는
기간
릭
틴
▁사이즈
▁구리
▁튜브
▁모두를
▁시스템의
▁보유하고
▁손으로
▁여호와를
▁예산
▁저희에게
▁최대한
뇨
▁싶
ach
▁페이지를
▁아동
었
▁높
"(
▁주님
▁항공기
시키
▁헌법
이면
▁지도자
▁체포
▁팩스
▁보너스
▁운
▁받아서
ms
▁특
▁원하지
▁부탁
://
▁하나로
▁평
▁지키
▁이상이
▁스트레스
▁그녀
▁행정
ies
▁탑
련
▁그곳에
▁자유롭게
▁전화를
십
ru
ts
▁아버지는
▁셔틀
함에
▁형태로
즉
▁1.5
▁홍보
▁실망
ear
▁하니
▁지원하는
PC
▁들고
▁속성
릿
▁저렴
▁선지자
▁자라
▁사기
▁자랑
▁경제적
지라
▁평생
-19
콘
▁굴
거든
▁완벽하게
▁못하게
▁이하
ron
▁나라의
▁바탕으로
▁1999
▁대한민국의
88
▁검은
잖아요
▁자유를
인은
보세요
▁프로그램에
▁최적화
▁하느님
▁뉴질랜드
、
×
왜
▁쓰기
퍼센트
혈
▁상징
▁효과를
▁합의
▁명소
▁드릴
폐
▁바퀴
▁백만
▁제공되는
▁게임은
▁Hot
▁에너지를
▁휴대용
▁석유
89
BS
▁사용해
▁든
▁`
▁이익을
▁오르가즘
mon
▁트랙
▁구성되어
▁잭
▁혈액
보다는
완
▁들을
▁정부의
▁엘리베이터
▁빈티지
ud
all
중에
▁님
▁가면
▁버튼
▁불과
ster
▁바꿀
▁팬티
▁보낼
▁부분은
▁수백만
팔
▁44
▁의미를
이라도
명은
▁촉진
▁의미한다
▁위치해
▁아이를
렸
▁힘든
▁절단
▁곳을
이든
적이
▁취급
▁가끔
▁없지만
▁입은
▁부모
▁레이아웃
▁유압
▁41
▁머신
▁발명
OS
▁말에
▁기여
▁치유
▁콜
▁분위기
▁되었
▁보조
▁객실은
일본
▁Android
▁예수님은
▁있었
▁롤
사이트
▁램프
▁필리핀
CC
▁것입니까
▁간호사
▁정책을
▁수음
▁별로
▁월요일
▁성공적인
▁이익
▁주어진
▁그러니
▁않기
▁품목
하시면
▁자들
▁권위
TS
▁여호와께서는
▁사실상
▁적용됩니다
▁골드
▁올라
▁기본적으로
▁끊임없이
▁입고
▁그만
▁오브
하죠
▁사용한
▁가르침
▁가기
운동
스의
▁청구
▁탭
▁만든다
▁방향으로
po
▁바르셀로나
장이
▁시드니
▁며칠
▁대화를
▁회로
▁코드를
va
▁장관
▁원인
▁적응
▁SD
▁못했습니다
▁하는지
▁기구
▁South
St
▁가르쳐
:31
▁만날
▁빌딩
▁확인할
▁43
일까지
▁Your
▁로드
▁듣는
았
▁체크인
단계
▁고도
사항
만한
▁데리고
▁악마
▁성격
▁부르는
▁환경에서
▁란제리
▁향한
op
려는
▁메인
▁■
▁구분
▁않는다면
▁성과
뜨
ley
헤
▁투쟁
교회
▁하루에
▁밥
▁학생들이
▁흡수
▁엄
▁요즘
▁파워
▁거주
▁저가
▁덮
▁아니지만
▁비자
▁미치는
▁긴장
▁강조
▁스파이
▁환
▁성공을
▁오사카
▁시작하는
▁근처
ight
ence
▁때에는
▁소련
▁건전지
▁인수
ow
▁어둠
했는지
▁사랑은
▁너와
▁영화를
▁반환
▁최상의
▁직장
▁나일론
▁데스크
▁장치를
▁옥외
▁풍
PA
만의
▁싶어요
▁당사는
둥
텐
▁센
/1
▁도와드립니다
▁대상으로
▁부문
▁자동화
▁의해서
▁채팅
▁버튼을
것이
▁다이
▁핀
▁경력
▁언어를
▁인터뷰
▁느끼는
훈
▁값을
▁내리
▁솔
line
▁여부
▁그대
▁패턴
▁엉덩이
▁고객을
▁호텔을
▁프로필
▁pro
▁흐름
▁얻은
시아
▁선포
▁하는데
▁누군가가
돼
▁Red
▁평화를
▁평면
▁아들을
▁물이
▁보입니다
▁간주
▁도박
AT
▁걸릴
▁의견
ug
▁불리
▁예배
▁보일
▁혜택
조차
▁사까시
▁흰색
▁장미
IP
▁Am
▁종합
▁아랍
▁의문
▁드는
▁경우가
▁CAS
▁맥주
▁되게
▁공급자
▁APK
푸
▁특가
▁휴식
▁끝에
생활
▁공학
▁It
▁권장
MP
▁영광을
▁생일
잡
▁보았
▁유지하는
▁기계를
함으로
▁보낸
▁이혼
▁이르
▁Sa
▁트리
▁보자
ps
▁빨간
동안
▁영향
▁충성
IC
▁자지
▁법칙
▁인용
▁굉장히
▁동생
▁여성의
▁의도
이니라
▁싶다면
흐
들어
이니
▁모두는
겠죠
▁페티쉬
느
▁백성을
▁식으로
▁킹
있었습니다
고요
▁중요하다
겐
▁국경
▁거유
▁좋지
▁있으므로
▁우수
▁불안
▁따뜻한
▁부분이
▁세워
▁아이들을
드리
▁말입니다
셀
▁암호
▁입증
▁드리
▁범주
▁머리를
▁월드
▁다윗
수가
더군요
gu
드는
▁우리나라
▁분수
▁아이폰
▁임대
▁기술은
▁일입니다
▁나타내는
▁개혁
700
얼
죄
버리
▁중지
▁필요할
▁이미지를
▁스캔
▁역할
▁돈이
▁의견을
▁남부
▁플랜
업체
oo
▁뜻이
▁추출
▁권력
▁행하는
▁능력이
▁회장
▁실리콘
▁베드로
▁타임
▁않음
년이
줍니다
뉴스
▁특정한
▁샌프란시스코
▁왕의
시에
▁캠페인
▁결과가
리고
▁하실
▁본다
▁못합니다
▁질환
low
▁영감을
▁포함된
▁불리는
▁차례
▁섭취
▁나타나
▁바보
헌
RE
▁나오
▁헤어
▁아파트는
홀
▁애널
▁발생할
▁직면
▁쓰고
▁롤러
▁별도
▁API
▁곳은
▁one
red
소리
▁눈이
▁후보
▁리스트
▁광장
▁핀란드
▁은퇴
▁부속
con
ice
▁1980
▁제공하기
▁프로그램의
▁스키
▁대규모
▁유전자
▁그러자
▁기능이
▁작
▁예약하실
사랑
치는
▁모래
▁혁신적인
▁커다란
▁고객님께서
▁있으니
▁개인적으로
▁MP
chi
▁두번째
▁경로
▁그러니까
▁이르시되
lic
▁data
폰
▁(3)
▁절차
▁기준으로
▁어디에서
▁택
▁2)
일까
▁지침
▁위반
▁마법
렛
▁벌써
▁사양
▁싸
낸
▁시청
▁당사의
▁허가
▁CNC
밍
기구
▁아버지가
▁자리를
▁부산
▁됨
▁이민
▁낙
궁
▁0.5
▁Tube
▁호출
벽
좌
tin
분의
▁신부
Dan
▁정기적으로
▁자리에
▁직업적인
▁여섯
이하
▁선택합니다
▁노선
▁데뷔
▁윤
▁For
▁페리
▁Ta
▁URL
ass
▁닫
▁본인에게
▁충격
▁아트
▁너에게
▁유효한
▁드디어
▁다음은
▁좌석
▁업
▁시작한
▁가족이
▁가져다
▁가르치
Me
▁규모
▁장면
▁마련되어
자로
▁대출
▁측
▁휴대
▁의자
▁재정
▁사과
▁배우고
▁여러분에게
시오
▁변화가
▁Air
하겠습니다
mb
▁오스트레일리아
▁읽는
탑
▁App
▁나라에서
5)
▁봅니다
SP
시다
▁라이트
▁이후로
▁자매
▁장기
▁일요일
성과
way
▁안경
▁번에
라이
▁국가에서
▁커버
위를
▁빠르고
▁아줌마
▁멤버
▁스틸
▁등에
▁여러분을
▁사이트에서
▁당장
▁진공
▁달라
연구
하러
▁시카고
▁바와
▁아이디어를
▁Is
▁해안
▁여자가
▁소중한
▁이상한
▁욕실이
▁말하였다
▁십대
▁언제든지
▁분쟁
▁스타일의
▁가족을
칼
Hz
▁출연
▁Th
▁마약
점을
▁so
▁건너
▁알았
하였읍니다
▁제발
▁휴대폰
므로
▁노래를
▁매장
▁얼음
▁법원
▁목적은
▁일반인
▁경주
로마
▁힐
▁52
▁세션
▁다운
▁공사
웨이
▁제외
▁선고
▁데이트
겠지만
트리
▁인생
▁올라가
▁47
▁보내는
nm
▁베이징
▁Se
▁쓰리
▁지금도
인들이
▁아메리카
▁iPhone
▁코멘트
▁같아
▁효과가
▁필름
▁시간과
▁뼈
ID
시장
▁붉은
▁플래시
▁로스앤젤레스
▁진보
AN
▁조치
▁농장
▁방법입니다
했
▁앱을
▁모여
▁휴가
▁크고
▁탐색
▁사상
해도
▁운명
경기
▁전시회
▁Ma
▁발생하는
▁금연
▁외에도
사람
▁교훈
▁하자
▁폴더
▁기업의
▁라는
▁상업
▁보다는
▁49
▁안다
▁추진
▁여관
너는
▁시대의
▁갔
▁이끌어
▁침실
▁Pre
▁지점
▁없기
▁열쇠
님의
▁청년
▁세계적인
▁외에
▁Lo
▁완
▁프로그래밍
人
▁모스크바
▁유산
ler
ran
▁재미있는
sa
▁선택을
(1
▁능
▁친절
▁진정
▁상당한
iz
▁Ha
que
▁새롭게
▁체결
▁해제
▁합성
검
▁러
▁가격을
▁무덤
▁1997
za
답니다
위한
▁받았
den
▁보였다
▁인물
▁사실이
tal
▁집행
▁창출
▁삼성
▁태어나
▁긍정적
▁뒤로
▁반지
▁빵
▁삶이
▁효과적으로
소서
▁110
▁미국은
▁타이
▁깨
▁비타민
▁어쨌든
▁자녀
▁논
협회
▁따르는
게임
▁가족과
▁참조하십시오
vo
▁Web
▁천연
oc
AL
▁트위터
▁불평
▁사랑에
▁파이프
▁만들었습니다
▁의미가
▁죽음을
▁환불
▁목록을
었어요
▁1970
▁계약을
▁인생을
▁돕는
▁납품
▁벗
▁일하고
▁그분
자들
▁Po
▁차이가
▁뜨
▁운행
십니다
▁가벼운
▁세상이
▁숙소는
▁호텔입니다
하다는
▁팀이
▁no
▁프로모션
▁비판
-01
▁CEO
:32
▁초점을
제가
▁홍수
▁토요일
▁영혼
▁자본
▁연구는
▁건조
▁드레스
▁학
▁무언가를
▁모델을
si
▁신선한
▁책상
qui
▁st
▁감정을
▁격려
▁부상
▁기능은
▁교회의
놓
▁수없는
mer
▁과거에
▁필요는
▁자의
▁서울특별시
▁지붕
▁1996
▁비디오를
▁어디로
▁논문
▁SP
▁신고
▁인도네시아
▁가능하다
▁그렇습니다
▁실시간
▁그곳에서
▁관계가
▁때문이
RA
ism
TO
ST
▁자들을
▁미소녀
▁관점에서
AS
▁옥
▁결심
▁he
▁없애
▁51
▁세면
수를
▁채용
ica
ness
ES
less
▁의원
▁Can
▁해방
에만
▁(10
▁la
▁벨
▁구름
▁방금
갑
▁재판
▁기적
▁분출
나가
▁까
▁성숙한
▁피해
▁아담
tic
▁인권
그룹
▁필요하지
ino
▁게시물
▁Na
▁개인의
▁고난
로우
시킨다
▁추정
▁어두운
:33
▁눈물
▁재단
▁일본어
혜
▁존재한다
▁자살
▁책임이
▁이루
▁회사가
▁백인
▁j
▁2.0
▁급료
▁웨스트
bit
였
▁이메일을
▁좋아합니다
▁주도
uck
▁포함하는
▁크림파이
▁언약
▁부담
▁생각했다
▁좋을
▁캐스팅
▁증언
겠어요
▁농
▁오스트리아
▁언어로
▁동일
▁Facebook
베이
▁있습
▁목표로
▁친구를
CA
▁요구에
럴
▁Villa
▁얻어
▁후원
▁요인
▁대륙
▁가격은
▁이들의
▁유효
에서부터
▁진실로
▁사정
▁휘
▁녹음
ny
▁두바이
▁되리라
▁10:00
▁자손
▁비전
▁주시
▁금요일
▁선한
간의
지금
▁하늘에
▁아니야
률
▁VPN
▁물어
▁고향
▁장애
▁바울은
vi
MM
▁전망을
▁구두
▁그만큼
▁점이
과학
효
▁들었다
▁플
▁공통
▁그렇다고
▁Server
폭
▁회색
▁란
▁유료
▁확실한
▁받는다
▁열정
▁조작
▁자들은
▁처음에는
야마
▁공중
-7
영화
pa
▁수익
ec
▁옆
▁휴
▁최소한
▁좋아하지
ect
▁경향이
▁나사
▁돌려
▁남자가
▁기분이
▁보존된
▁밝혀
▁섹션
▁권한
▁게임의
시킵니다
▁삶은
되었을
▁미친
▁가리
했어
학생
킨
▁논쟁
▁변형
▁인류
욕
▁년간
ave
그는
▁산출
▁선반
▁포맷
겁니다
tion
ire
ite
▁중인
:35
▁린
▁기꺼이
)'
죽
▁가격으로
▁오지
휴
▁제휴
3%
▁낼
▁메이
▁얻고
▁되었고
▁나라를
▁산타
▁보석
▁천천히
▁억
▁주위에
ash
ag
▁할아버지
ya
▁1995
▁아웃
온라인
▁있었는데
▁Ad
ss
이었고
▁터치
▁뛰어
▁때문
▁How
▁후장
▁약속을
지기
if
▁자식
▁발매
▁잡고
ou
▁여자는
▁많습니다
거든요
▁제공한다
▁독자
▁결론
ise
▁Mi
▁않는다는
▁Da
다니
▁명예
시며
▁확인하십시오
▁프레스
▁보트
빙
▁버전을
▁강아지
▁우편
od
▁구원을
▁검정
▁금액
7%
▁소통
▁more
이트
ung
:45
▁온라인으로
▁탈출
택
▁침묵
▁RedTube
▁감지
▁지급
▁알기
▁점수
▁컴퓨터에
성은
▁산소
▁밸브
▁세기
IA
▁0.1
▁Du
out
▁십자가
▁되어야
▁생명의
▁없게
▁멀티
▁잎
▁버리
▁노력하고
로써
▁회사를
▁도망
2%
▁모텔
갔다
▁좋
▁적당한
▁절대로
▁요가
▁옮겨
이었던
▁Gu
▁자금
▁빼
▁점심
▁나올
▁이후에
78
▁(6
RI
▁원한다
SI
사의
▁용기
함과
▁근원
개발
▁투자자
▁비유
▁스스로를
▁계절
▁서로를
▁블
pcs
▁변경할
섬
젠
▁으
▁물건
▁주인
▁기부
▁신비
▁듣지
▁출신
▁고등학교
▁치료를
스크
SE
▁Ba
▁방콕
듯이
롱
▁해결책
ting
실의
▁기록을
www
▁노르웨이
▁가능하게
백만
▁기술이
▁마이클
▁짐승
▁인생의
▁하늘의
▁느
▁하면서
▁함수
▁머물
▁그녀에게
▁일부를
大
▁가톨릭
▁수하물
▁선택하는
▁옛날
▁이행
▁코치
▁IC
▁동안에
▁회개
▁마무리
수록
응
▁단계를
000
▁콘
▁배우는
▁온다
었는데
▁델
▁폐쇄
▁출생
▁고객은
▁실천
▁건강을
▁가을
▁계정을
▁해군
▁좋아한다
▁컨트롤
▁플러그인
▁이용해
▁GPS
▁연간
▁고유
▁선택하십시오
▁고전
▁과정은
▁출처
▁사람도
▁180
▁하십시오
▁스토리지
딘
▁발코니
▁세부사항
▁로컬
▁기다리
▁특징으로
▁비롯한
한국
▁컨트롤러
▁믿습니다
▁Sh
꽃
▁밑에
▁co
▁보여주는
▁환경에
빛
덴
)”
▁진동
득
▁편리한
lan
▁인증서
▁주파수
:01
▁Ho
▁세탁
시니
▁이래
▁야구
▁구별
▁하시는
-18
▁보건
▁입을
▁이곳에
성의
서를
▁[1]
▁남겨
▁이르기까지
▁희망을
▁자격이
▁영혼을
▁조언을
라인
▁주실
장치
:59
몬
▁프린터
▁쉽지
▁이해하고
ara
▁자연산
▁압
▁믿음이
▁comp
하셨
▁제공하며
we
▁은혜를
▁×
▁학교에서
▁안정
▁고객님
▁저기
스가
▁기쁨
▁마음으로
ous
▁이해하는
▁북부
립니다
▁유사
읍니다
▁Su
▁주위
▁갱신
▁킬로미터
▁기분
▁가든
리가
▁돌아오
멸
▁내내
▁세우
▁가르치는
UN
▁순위
▁꺼
▁세상은
▁Art
누가
ale
▁가실
▁얻게
둘
▁호흡
당신이
맞
▁시장에서
탁
▁만들었다
▁인형
form
▁진정으로
▁낚시
▁글꼴
▁up
▁y
척
▁본래
▁스페인어
ling
그러나
▁단단한
큰
시설
해서는
▁Pi
▁이라크
▁자유로운
▁옳은
▁un
장은
▁영원
▁장착
▁유사한
▁운동을
EL
▁마일
▁끌
▁정규
AC
▁성능을
인종간
을까
900
▁대단히
tor
▁다니엘
▁돌리
이어야
▁긍정적인
az
▁했어요
iv
은행
▁최초로
▁단어를
국가
개국
값
지게
▁학교에
▁사랑과
활동
▁구독
▁가능성을
▁목소리
▁소파
▁공간이
▁불가능
▁점화
▁예외
▁모자
▁전쟁을
솔
제를
:40
방법
▁1993
▁사용자에게
▁서비스와
▁의미하는
▁춤
DS
▁드라마
▁안으로
▁속도를
▁소리가
▁핫
해질
하였
국제
▁캠퍼스
▁맺
▁거울
▁툴
▁용어
8%
▁믿는다
▁비용이
▁결과에
▁05:00
스키
▁면에서
▁대안
▁50%
▁개시
▁슬롯
▁실린더
▁Pa
MB
▁길로
:34
▁정상적인
▁복용
▁테러
▁Office
▁탐험
▁화재
▁파악
▁YouTube
▁장소를
▁Life
▁요리를
ef
▁견해
▁충분
▁West
으리라
▁집안
▁알리
:36
▁At
▁신의
77
▁장비를
▁권한을
▁미술
▁개방
찰
▁활동에
▁칸
력이
▁내의
EC
▁피해자
▁알아보기
하라고
▁이러
▁북쪽
롤
▁거짓말을
제도
▁문서에서
어서
▁CS
Ch
ET
정도
▁보았습니다
▁시장에
▁집합
▁{
좋은
▁맞이
▁받아야
▁소금
측
▁(18
▁어깨
▁손가락
▁패배
SS
▁En
▁호환
▁1994
▁부드러운
hu
▁스마트폰
▁선물을
▁협상
▁원리
▁이루어진
▁돼지
▁염려
▁시설은
▁구성된
▁자격
텍
▁텍사스
ᄀ
pi
▁기도를
▁배열
이스
▁수용량
▁Data
ack
▁공구
▁링크를
▁양의
▁클립
▁시스템이
▁살해
탕
▁흥분
ep
▁평안
ten
▁중의
▁뷰
▁게스트
▁들어갈
▁커뮤니케이션
▁기술적
▁수영
▁명세
하고있다
▁정당
▁아래로
▁정도의
▁똑같이
앤
▁방문자
ger
윤
▁발사
▁대사
-16
▁아르
▁틀
▁프리미엄
▁도와주
▁물리적
▁220
▁온천
oz
▁목사
▁회사에
▁간에
▁몸이
▁존경
-13
▁하리라
더라도
로운
렸습니다
▁됐다
▁머무실
▁소요
▁주말
▁룸을
▁di
▁지어
낼
▁지하철
▁부정적인
▁주어
▁Avenue
-30
▁유행
▁여인
▁자녀가
▁측면
▁고성능
▁끈
하였으나
▁겸
▁마음은
▁올려
▁본문
▁National
항공
▁처음부터
▁브루넷
`
▁내장
겠지
었으며
▁체중
▁친구들
gen
▁엔지니어링
▁따로
ake
대를
였고
카드
하신다
▁나타냅니다
▁일들을
▁말씀은
▁최악의
드립니다
▁사이버
▁표시됩니다
▁가능성
▁유엔
쳤다
▁실험실
▁민주주의
4%
▁Outlook
▁iOS
시킨
▁것이니
▁유한
▁두려움
Porno
토리
▁있었지만
▁것들은
▁2.5
ens
▁침
han
▁그렇다
▁말하면
▁궁
▁Resort
▁대표적인
▁선을
▁10%
▁주방
dy
님이
app
▁지하
▁하나요
▁창문
▁하거나
부족하지
BC
▁PP
▁피를
▁감동
▁쥐
▁표본
▁패스
ris
▁신속하게
▁화가
▁냉
▁오늘의
ham
가능
▁>>
▁거라고
▁면역
▁혼란
▁자녀를
nd
▁선박
▁해결할
넬
▁내지
따
TC
▁뛰
▁조회수
데요
▁것임을
▁동맹
▁헤드
▁게시물을
▁느껴
▁보여주
▁모임
하나요
문제
▁58
▁매주
▁보충
▁속한
▁매체
▁홀리데이
ort
▁설정을
▁헝가리
▁테이프
▁WEB
▁HP
▁상처
▁사운드
▁됐
비아
0%
tro
째
LA
방송
▁먼지
▁죽어
▁처럼
▁원한다면
▁야생
프리
ja
▁사이트의
▁밀라노
▁언
흥
my
나이다
▁발송
:58
▁공항에
▁대개
▁서부
▁고기
▁효율성
▁위험이
▁판지
▁인공
▁54
▁거품
▁대통령은
ast
▁주민
▁발생한
▁워
▁다르게
▁주시기
▁과학자
▁그림을
▁자신과
▁유익
▁예언자
우드
:39
▁고백
이것은
▁기쁘게
벤
에요
(2
▁쉽고
▁예정입니다
하지는
▁Power
▁모험
년대에
▁도시에서
▁안녕하세요
▁Ti
▁끔찍한
▁복수
델
ory
▁보호정책
▁정보에
-9
▁럭셔리
ever
▁강의
▁순수한
▁pre
▁가짜
▁중재
▁생각은
주기
넷
PE
▁미인
▁지역을
▁물건을
▁이상을
들에서
할까
▁마우스
▁72
▁하겠습니다
▁증명서
▁AI
▁번째로
▁주거
▁주변에
나의
▁태블릿
▁콘서트
▁가시
bu
▁인프라
ore
▁헌
▁크기의
▁우리도
▁케이
몰
▁목숨을
▁운전자
▁중국어
To
▁무엇이든
겠다고
▁1992
▁하느님께서
▁참가자
▁애완
▁배우자
▁몸에
찌
▁선호
않
▁사용한다
▁분자
▁여왕
▁풍경
▁성전환
by
▁God
오늘
▁쓰레기
▁Studio
▁냉난방
▁초음파
▁깨끗한
:38
▁도그
▁향후
▁놓고
▁Un
스티
▁상세
▁출구
▁문장
▁1991
스와
▁time
so
▁포함한다
리스트
▁1,000
됐
▁진출
IT
▁56
▁연결되어
AR
도움말
▁광학
▁수수료
▁하려고
▁채워
▁MS
데이
▁답을
▁느낌이
▁묻는
▁웰빙
▁주셔서
▁흥미
▁신규
▁DNA
▁파이
았습니다
TH
......
▁부티크
▁느끼
▁바란다
▁모아
▁권고
▁안정성
▁척
▁조립
▁수송
▁상위
▁일종의
▁여성이
ama
▁시리아
ning
리에
▁엔터테인먼트
▁Qu
▁산책
0000
wa
▁성장을
지원
▁타이어
▁공식적으로
주고
▁소프트웨어는
">
▁53
간에
▁충
▁무대
▁North
▁팀을
▁먹지
▁정착
▁다들
ath
▁말씀에
▁낭비
▁Sun
▁술을
▁플러스
▁행위를
▁감각
▁끌어
▁지닌
▁우려
▁두뇌
▁미만
▁상태에
▁반응을
리를
로서의
사진
▁내용이
부분
▁아티스트
냈다
▁흑단
혼
▁차이를
▁조치를
▁견
▁항공사
▁아니하고
▁가져올
마리
▁개정
▁담당자
ok
▁인류의
잠
▁인내
mi
ᆞ
▁대만
버그
▁제게
들로부터
▁느낌을
▁피터
▁달에
▁미국과
▁셋째
▁질문이
▁John
▁효율적인
▁어렵다
▁주간
되었지만
▁궁전
ye
:44
▁끝난
▁쉽습니다
}
▁Dis
▁99
tra
▁Business
▁Per
▁이들을
▁지하철역
균
▁있었을
▁평범한
▁유도
캐
▁된다는
250
▁아니요
▁흐
▁섬기
row
▁거쳐
▁가족의
0.0
▁속으로
▁아니라는
▁차별
▁어머니는
day
▁아래의
▁네트워크를
▁알맞은
:50
▁보호를
▁사물
▁지구의
:05
▁먹이
▁젖
▁덴마크
▁포스트
▁있거나
eg
▁지위
▁who
▁지연
▁자세
▁주목
지가
6%
농
▁정복
▁있나
▁셋
▁승객
▁도시를
펜
콜
150
▁경우는
ld
are
▁SC
▁논리
이드
리그
▁뒷
▁매력적인
▁^^
▁기술의
그래
답
▁통통
받지
▁달러를
EA
▁War
▁오늘날의
▁프라하
▁후에는
▁주소를
▁요구를
관계
것은
▁받습니다
▁분산
▁위치하여
▁마감
객
▁360
▁하도록
하기위한
▁사람들도
▁프로그램이
▁육체
▁웃
▁구경
▁소송
▁솔직히
▁연설
▁스토리
화를
▁아니에요
▁PE
▁책이
▁강력
▁호텔의
▁증거를
▁비싼
▁토큰
▁곰
kr
res
▁임금
▁좋아요
▁숨겨진
▁부부
▁대통령이
▁흰
▁정지
▁엄격한
▁구할
촌
롬
▁먹어
▁신성한
▁대신에
▁입학
▁자체가
▁신이
▁자들에게
▁다수의
--
▁세력
▁센트럴
▁온갖
▁발표했다
▁하려
▁행복을
▁성별
▁자에게
▁해주
▁폐지
▁맞아
▁SS
▁할당
▁이끌
▁누구든지
▁JR
아니
▁떨
럼
▁단순
▁start
▁창조주
▁개체
젤
꾼
▁중대한
▁Ltd
▁am
활
▁시작하기
▁말미암아
▁부분에
▁연결된
▁예정이다
▁준비를
▁사랑하고
▁개요
식을
▁수동
논
▁박사는
▁광저우
▁계좌
▁포럼
분이
▁성전
핀
LO
▁남쪽
▁링
▁뭐가
▁항문
일까요
▁유럽의
▁목적지
▁욕망
고자
▁1960
▁태도
gi
▁무거운
▁미국에
▁규칙을
▁그대는
▁무엇인가요
▁읽
▁프로세서
:42
▁식량
로드
▁편지를
▁하셨
▁조약
행위
▁Open
▁Fe
▁사냥
▁우울증
:37
▁Pe
▁성경은
계획
▁서서
CH
▁지출
▁양심
▁go
▁처음에
▁규모의
▁데이
▁얻
AM
▁전체를
했으나
▁구성원
세가
▁맡
▁나타납니다
▁곳입니다
LC
▁다릅니다
▁파일이
▁적합
당한
자리
▁위험에
폴
▁개가
다운
:57
▁이상적인
▁재능
▁예수님
니스
▁요약
AP
▁dis
▁설비
▁마찬가지
:02
▁없으면
랜
▁Ca
▁크림
▁선택하고
자들에게
이신
개가
▁거두
▁하나도
▁데이터는
▁절벽
▁but
서울
▁미칠
다운로드
▁것이었습니다
▁황제
▁교류
▁블록체인
▁배출
▁복합
▁미니바
▁지내
▁살펴보
쳤
:07
▁멸
해주세요
▁크리스
리지
박수
▁Booking
▁동전
SC
▁경기장
▁라이센스
▁가수
ki
▁건강에
▁챔피언
세의
▁바지
▁맛있는
ier
1%
▁재고
▁예수님을
▁메리
▁al
십니까
▁초과
▁역사적인
▁피할
▁떼
세를
ob
▁제약
겠
▁백성에게
▁접수
▁맞춰
▁덕
▁자료를
▁마스크
▁코일
DI
▁차이
▁헬
▁에이
-14
▁부가
▁파운드
▁On
:04
프로
▁Group
▁주님께서
▁FC
▁되며
DA
▁원치
You
air
업자
▁Ka
닉
▁낙원
▁다음날
▁그림자
▁분들이
▁Ex
▁하시
▁즐겨
랴
▁떠날
▁씻
▁환율
▁방위
sta
전쟁
▁다양
▁그중
▁혀
으므로
▁전쟁이
특
▁끝까지
2.5
▁역사상
▁예수를
해보세요
▁부른다
▁강제
▁이리
▁하늘에서
▁본질
▁사우스
▁나라가
▁가지는
▁소프트
▁즐기
▁않았고
▁교회는
▁성서는
Pro
▁나누
▁셀카
-17
▁그랬
▁전적으로
▁She
<
▁원합니다
▁데이비드
▁아무리
▁믿어
▁되도록
▁할까
▁분할
성에
▁기획
보험
짜리
▁갈색
▁즐기는
▁동기
▁안전하고
▁모니터
▁출전
▁컴퓨터를
▁권리가
▁탁월한
▁질문은
▁힘들
▁Lu
PDF
▁중심으로
▁리얼
▁균형을
▁향하여
▁남자는
▁마이
▁자동적인
▁나누어
▁쿠키를
▁군인
▁족
▁그러면서
▁일부가
▁인근
▁검증
ful
ke
▁하시고
▁May
ator
▁컨퍼런스
▁습관
▁맞게
인간
▁것이기
▁점령
ical
▁핑크
▁잠금
▁다시는
▁요소를
▁Har
▁다르다
▁EN
9)
2000
▁온전히
▁게스트하우스
Zilla
자료
▁테스트를
▁후회
환경
▁이르는
▁도대체
▁취한
▁압박
▁황금
야만
중국
▁썼다
▁친구와
▁익스프레스
▁가난
▁85
▁나타났다
▁스트리트
cc
▁소음
만으로
▁장소에서
▁웃음
▁마이크
ez
▁습도
▁복잡
▁화요일
▁상실
▁났
▁분은
▁피트
접
▁포르투갈
하니라
▁선생
세기에
▁about
▁프랑스어
했다는
▁마주
▁유지할
▁연결관
▁최선의
▁얼
▁뭔가를
old
▁조용한
▁원인이
▁리셉션
▁자세히보기
▁불만
▁않았지만
널
가있는
▁잠을
▁Port
▁탐
mg
준다
▁새끼
▁장소에
▁복귀
▁설명을
▁하죠
▁인민
▁풀어
▁죽었
엄
▁테라스
문의
▁사용에
▁주었습니다
▁데이터가
▁적절
틸
▁하녀
▁학위
해지고
▁절감
▁잃어버린
▁man
▁What
▁지갑
▁UV
▁결과로
▁시험을
겠습니까
▁국제공항
:48
▁이슬람
▁out
▁콘텐츠를
▁설탕
까지는
▁지정된
▁상품명
▁SA
▁남녀
▁록
▁기존의
▁음반
하나님의
DC
학과
▁Min
▁다루는
▁말하기
▁PCB
▁평방
▁아닐
▁천장
▁인터
▁물었다
▁계급
▁Korea
!!!
▁버리고
▁모세
▁중에는
▁공주
▁분야에
▁앉
▁형상
▁Love
▁로스
De
▁무언가
개를
ON
▁비상
▁데려
▁사회의
▁되돌아
되도록
ple
▁IS
▁CE
▁일어나고
선을
▁구동
▁악화
▁광고를
▁돕기
▁아시
케이
▁what
▁연결을
amp
에겐
▁실수를
▁수행하는
▁순환
▁오고
하기에
▁운영하는
▁없었
▁애굽
▁리더십
▁Xo
▁고문
LS
니까요
네가
sp
비트
FC
받
▁줄을
▁당사자
▁예금
▁벨트
▁거에요
▁Day
▁아르헨티나
▁사랑한다
▁이곳에서
출장안마
▁지키는
▁미술관
▁살펴
▁로그
▁PM
▁진심으로
▁계획이
▁웹사이트를
ock
▁과제
▁전화번호
▁30%
▁밑
▁저희를
▁SK
▁과학적
▁충만
▁텅스텐
▁학대
▁IN
OR
▁아시아의
대회
▁말도
▁사막
▁그것들을
▁근거
eng
▁자랑합니다
▁염
▁의류
▁자비
▁속도로
▁점에서
▁라이
ual
▁걸음
▁그룹의
▁95
▁국가에
▁캠프
최
▁개를
box
라스
▁부츠
py
▁빅
▁리소스
side
▁독일의
▁설치된
▁Tags
▁Ver
▁기다려
▁있었어요
▁했지만
▁몽
원을
링크
▁빛이
▁액세서리
▁이야기는
▁주시는
스턴
▁사람으로
▁어찌하여
▁요구하는
PO
▁관점
▁평등
엽
▁익
▁긴급
ano
▁영향력
뉴
▁350
▁솔로몬
▁아이는
▁ch
▁시편
▁궁금
▁«
CE
▁액
▁노아
▁착
▁개입
▁묵
▁유통
▁어른
▁조상
▁경기도
▁생애
▁즐기실
금을
컨
▁잠깐
▁다중
▁켜
BA
▁해양
▁싸우
하우스
▁상단
▁욕실을
▁강하게
9%
▁최초
Th
▁끝내
ev
▁크롬
▁즐겁게
▁모르지만
▁이용한
▁나왔
▁될까요
▁전략을
「
킬로미터
▁배운
▁다수
▁놀라
당신의
▁Gi
▁하셨다
▁품질의
▁때부터
▁맞춤
그들은
▁사람에
▁인지
스카
▁윌
▁저주
텔
▁액션
ck
▁양쪽
men
시면
sion
▁어려움을
▁3000
▁시간의
che
▁경우에도
▁열매
▁Str
ust
▁UN
▁나라들
▁전설
:09
▁스캐너
▁카운티
▁죽었다
에서만
▁자문
▁폭탄
ix
시티
CK
:56
:55
했죠
▁태평양
▁강요
:49
놀
되었
▁종교적
▁MB
▁육군
▁취할
▁웨이
셋
▁특성을
▁기술과
야합니다
여행
▁수치
▁흘러
▁있으
|
▁겸손
▁프로젝트에
:43
▁바뀌
▁며
br
▁확인해
▁보내고
NO
▁(4)
▁설명합니다
기능
▁예수님의
ea
▁로버트
▁슬픔
하는지
▁아닌가
(3
▁East
▁상을
ration
▁팀의
▁매력
ita
▁장갑
묘
되면서
▁기업이
▁제품이
▁했고
▁0.3
ray
▁비용은
▁Work
▁핸드
▁케이크
▁개인적
▁행한
NA
▁중독
▁가격에
▁뚱녀
▁조성
▁Play
▁원료
▁진실을
▁구매자
▁시작한다
▁그대의
▁목소리를
▁언젠가
▁클래식
▁새벽
▁이내
트로
▁뽑
처리
▁들은
▁수준을
▁1950
앙
▁라이브러리
▁붕괴
▁부드럽게
▁좀더
▁평점
▁PS
▁당신도
ship
▁CA
▁이용자
내는
▁조건을
:41
▁영어로
▁대적
▁제정
▁영토
▁펠
▁1989
▁거래를
▁증오
▁극복
과정
▁심한
▁was
▁문제의
▁도덕적
▁전략적
▁미워
▁경기를
▁두께
▁윌리엄
▁아이들에게
RS
▁사진은
▁비밀번호
법을
▁허브
▁app
원이
rs
▁안된다
▁이용하는
▁곱
▁깨어
4)
▁굽
ding
계시
섭
디아
여자
Lust
▁서비스가
▁안테나
▁여정
▁단계에서
닌
▁관계에
▁수명
EX
Tuber
홍
▁날을
▁복종
▁빚
▁바꾸
▁기어
▁회계
1000
▁교회에
▁알림
▁이전의
▁상태에서
▁프레
장에
▁주된
이스라엘
▁악을
▁재무
▁시기에
▁움직임
▁정밀도
▁억제
▁것이죠
▁대학의
▁꼬
▁페이스
king
▁구속
▁모르고
▁않습니까
▁주님을
▁LG
ren
▁Ni
▁빨
▁공업
▁법정
▁만남
▁화물
▁대지
▁LA
▁분열
▁아테네
LE
▁상관
▁언덕
별로
그러
▁일주일
속에
로스
▁범위를
▁아니며
▁숙박시설
yl
ther
신다
정책
▁토지
▁감사드립니다
▁걷는
▁침해
▁통일
▁호스
럽
▁멀
▁수녀
▁동쪽
▁파란
▁700
▁발생합니다
기의
▁59
▁5000
눈
▁가족은
▁Or
▁시도해
wi
ted
▁보호하기
▁귀하는
ze
▁안녕
▁나라에
▁길은
▁한정
롭게
▁멈추
IL
용으로
▁남편이
▁조심
▁세륨
하십니다
▁유지하기
▁시스템에서
▁샘
▁mo
▁스카이
▁내면
MO
▁측면에서
하였는데
ated
▁예술가
▁중동
5,000
렐
PP
:06
▁바라는
▁좋음
No
160
/10
▁방출
5°
▁20%
▁앤드
▁use
▁하셨습니다
▁막을
▁추측
▁수직
▁목록에
▁Next
▁해당하는
▁끝날
/8
▁옷장
▁합류
▁플랫폼을
▁역사적
▁부모가
▁이삭
▁그분께서
보호
거라
▁교훈을
▁이른
:54
car
하였을
▁아비
▁생긴
위에
▁사용된
▁엘리
-25
▁성서의
▁Sea
코스
▁해킹
▁(7
▁주입
▁제사장
▁피해를
▁비트코인
▁Fi
▁핸드잡
하든
of
▁쌀
▁물리
HD
▁설교
거에요
▁친절한
▁성서를
▁성과를
▁가라사대
▁에피소드
field
▁남아프리카
▁ST
▁모습이
▁등등
▁인원
▁등과
▁08:0
▁사이트는
▁아내는
일본어
▁Apartment
밤
▁140
▁겪고
cal
▁유지하고
▁거지
▁영화는
▁Jo
▁찬성
▁칭찬
▁공항까지
▁녀석
ds
▁만난
▁임상
▁Of
▁중요하지
ib
받고
▁사람들에
▁환자의
▁입구
▁미소
가족
▁광택
▁IBM
어떤
▁지능
▁객실이
▁따르
수는
갑니다
▁피렌체
:08
▁이루어져
▁코인
▁둥근
▁끝이
▁클릭하십시오
ari
코드
▁컨테이너
멜
▁순간에
▁개발을
▁항공편
▁백신
▁문명
▁늙은
▁처벌
▁1.2
▁대학에서
▁현상
리오
▁물어보
▁인자
▁했는데
▁안됩니다
▁하느님을
▁주식회사
▁플라
오르
▁캠
▁임무
gar
▁좌
▁게임에서
▁확인하기
▁워터
▁Ga
되게
량을
▁900
트라
:46
▁시뮬레이션
간다
▁학생들에게
현재
고린도
220
타이
AD
자들의
und
▁벨기에
▁대해서도
사도
▁분명한
물이
하에
▁아이콘
2018
▁마시
▁서비스의
MI
-00
▁말씀하셨다
:47
▁공격을
▁게임에
▁장치에
▁열고
▁화려한
ctor
▁안전을
▁소수
읍
▁전문적인
▁들려
▁예수는
▁Hostel
▁있기를
▁푸른
▁정렬
▁주인공
▁궤도
▁이젠
ng
▁Gr
▁프로토콜
CO
▁축복을
▁이사회
능력
Sh
▁엿
롭
▁크기를
▁성경을
▁서쪽
▁Suites
▁받으
▁키를
▁회의실
kw
▁명확한
▁Reg
지라도
▁한때
▁방문하는
▁훈련을
상태
▁제외하고
▁흑
컬
▁멜
▁덮개
▁Sch
▁돌아올
밥
▁마시는
▁과거의
▁삼키기
▁57
▁어서
▁프랑스의
▁나이가
▁쓰지
▁・
▁국제적인
ys
▁일생
─
▁권능
▁짜
▁NO
▁일도
use
▁명시
▁생각에
▁던져
An
▁닥터
▁패밀리
ada
▁◆
▁받으실
ene
아버지
▁영국에서
▁훌륭
▁기사를
▁경기에서
rt
▁합리적인
ING
▁글자
▁잉글랜드
TP
▁유전
▁유연한
선택
▁살아있는
▁무서운
당신
▁66
▁PA
▁감상
▁귀를
▁기다리는
이므로
▁인생에서
▁GB
ven
리어
플레이
▁디자인을
▁이르기를
예를
▁톰
▁그곳
▁여성은
베르
KW
▁두려워하지
▁좋게
하길
▁교회를
▁같았다
▁변화는
▁다니
▁일할
▁냄새
▁않아도
▁창고
Cl
ek
쾌
spec
▁일본에서
▁available
ition
▁휴식을
▁stars
▁목요일
▁것만
▁계획에
비를
sc
▁일들이
ost
▁장점
▁소득
▁연구원
▁어머니가
ero
ound
NET
▁문화적
▁아냐
▁구입할
▁입술
▁love
▁하더라도
▁태도를
▁나왔다
▁되었을
▁윤리
.+
110
▁소유하고
▁다소
▁Time
▁작품을
▁최적의
▁뱀
▁Ne
사이
:03
kin
군의
▁시작된
▁탐구
▁집이
▁아이들의
▁정격
bb
▁있으나
LM
▁라이선스
▁다양성
▁있느냐
▁등으로
▁서류
FA
▁말씀하셨습니다
▁라벨
▁동기화
▁나갈
▁뿐입니다
▁곁에
▁민간
▁길에
▁상하이
▁친구들과
▁시작하고
▁겁
▁자아
멘
▁여부를
▁진술
▁공용
▁외관
ole
▁었
웠
▁니가
파일
▁스트리밍
▁Ri
▁페이지에
▁늑대
▁스트랩
▁이주
▁밝히
▁요청을
▁지진
▁프로젝트의
▁레이스
▁기계는
▁북미
▁문학
▁화장품
▁있었기
납니다
▁검색엔진
▁School
▁어려움
세상
2019
▁바위
▁그렇기
▁포커
그것은
▁전에는
▁책임자
▁아내가
▁할까요
▁가자
오는
▁문제들
▁코트
▁믿음으로
▁비가
닥
▁불가
▁like
▁여자를
ei
▁한가지
▁콩
▁오락
/2
▁≤
▁다르
▁이번에는
▁것일
uk
▁낸
▁계층
▁홀로
▁듣기
윈
▁트윈
트는
▁계십니다
단체
▁가라
▁무척
sk
스럽게
MC
▁어떠
For
▁중국은
▁보내기
▁베르
▁아버지와
▁보호하는
▁Free
▁질투
▁여러가지
▁문화를
▁이처럼
소개
▁뭐라고
▁0.2
엄마
▁개념을
▁자동차로
RP
▁젤
▁항목을
▁브라운
확
▁수립
▁장소입니다
▁1.0
▁열려
▁이해하지
▁기쁨을
▁디젤
▁체육
▁마귀
▁보물
음악
RO
▁산다
우리의
▁즐거움
▁동부
▁젖은
Hamster
▁[2]
▁그거
▁이동할
해지는
▁♪
mit
▁see
▁내어
▁발음
▁웹사이트에
▁교토
▁불편
▁시인
전자
▁적합합니다
▁아니오
▁않는다고
▁요법
▁헨리
▁조항
▁바꿔
▁양식을
▁그려
▁신뢰성
ood
▁일으키
gy
▁dur
ff
▁무한
▁맹
파이
▁원수
▁오기
-03
▁물에
▁System
▁깨끗
rd
▁know
▁아내를
▁간단히
▁방에
▁이루어
▁오류가
납
sen
▁Mon
▁86-
▁구체적인
▁재활용
▁역량
tan
▁제조자
▁찍
-22
▁점에
▁유틸리티
▁AS
▁보아
안전
보는
▁영적인
▁경배
▁참여할
▁기록된
보니
▁장소는
이어
▁재배
Clips
▁정권
▁주머니
▁눈으로
▁행복하게
주의자
▁불을
▁않았을
▁인천
▁활
▁부작용
▁유닛
▁구절
▁막대
아시아
▁주에
까지도
▁검색하세요
▁사역
▁이길
▁밖의
▁플로
▁조건에
▁Global
촉
▁우아한
▁ASTM
▁코끼리
▁탑승
▁끼
▁Ac
치를
▁최소화
?'
▁sp
및
▁총리
▁주석
▁만나는
▁주사
ey
거래
▁#1
▁봤
ade
▁예수님이
tu
▁대학원
춘
▁성형
▁모세가
120
▁증상
식이
▁소망
▁일련의
▁(12
era
▁당국
CM
▁발견했습니다
▁볼륨
▁대법원
▁숙박을
▁팝
▁교회가
▁그리스도를
▁자연적인
잘
▁상태가
▁그것도
▁면접
이상
▁피로
Flix
▁1500
▁몰라
▁종일
ct
적이며
시키지
▁유럽에서
ik
님은
-08
▁Ko
▁when
▁활약
▁Hu
▁주의를
▁터미널
▁예전
PI
▁제품과
▁지역은
▁생기
끼
▁결혼을
▁키트
▁Star
▁죽일
▁판사
▁내려가
▁알고리즘
였으며
att
▁그릇
섹스
▁듀
▁오리
▁예제
nt
▁이들에게
▁성당
▁픽셀
▁느끼게
▁느끼고
▁자신에
▁분배
▁전도
▁중국에
▁서양
▁페인트
▁들어가는
▁Sal
LL
▁알아보
▁날개
▁대답을
▁이야기가
이여
▁사형
▁다가
▁하느님이
fo
▁씨앗
▁들어오
상품
▁07:00
▁묻
▁탓
▁들이
▁엄마가
▁발급
▁연구가
▁초점
▁구하는
▁난민
▁질량
▁Club
▁피아노
OP
▁아이템
▁갖춰져
▁농담
▁장벽
셔야
▁Che
▁부패
거죠
▁하느님께
▁플라자
ert
▁Super
fa
ans
fi
장으로
ving
▁쌍둥이
▁절망
ring
▁날짜를
des
▁땅이
분야
ings
▁성령
▁주셨습니다
▁has
▁초콜릿
▁1.6
▁압니다
▁Si
▁원자
▁봅시다
▁그렇
▁효율적으로
▁Comp
▁걸리
)·
▁사건을
▁책의
▁월드컵
물질
ture
DE
▁프로젝트는
▁베팅
▁용도
▁1985
▁나이트
▁자기들
▁수행할
▁취업
▁독일어
등록
▁스쿠터
▁캡슐
▁달라고
인데요
▁62
▁던지
▁승마
장의
천만
Co
▁살기
▁디렉토리
▁인테리어
▁York
fer
▁신호를
도시
루스
▁위탁
▁Cloud
▁한국의
월부터
▁이해하기
▁복제
▁있을지
▁계획은
▁것이니라
len
qu
Ro
▁3)
▁Centre
一
▁Airport
▁압축기
하되
▁버전의
함은
▁Sp
갔
하시며
▁담배를
▁품질을
cy
▁하나이다
HO
하나님
드릴
▁변화에
▁괴
▁태어났다
van
▁작전
▁여권
▁입자
▁놓
▁부다페스트
▁테니스
/4
-02
▁복지
치고
▁협정
▁Bay
꼬
▁죄인
ative
많은
ser
▁이사야
▁모두의
▁Black
▁부하
▁주장했다
▁협업
▁인접
▁승리를
▁가져오
▁거치
▁손이
▁THE
▁1988
▁친한
▁바른
▁그동안
▁조직의
▁86
▁죽는
머리
▁(15
ura
▁고속도로
▁3.0
▁빼앗
대가
▁지식이
▁대우
▁유래
▁걸까
▁객실에서
〉
:52
cho
▁잇
▁1987
▁대여
주년
▁기준을
▁해당되는
ome
▁선택입니다
」(
▁똑똑한
▁유용
▁대상이
페이지
▁Express
▁돌아갈
삭
▁말아야
▁즐겨찾기로
▁목격
▁보냈
▁130
▁사원
이제
▁유대
▁여행자
▁밖에서
▁싶었다
eo
pp
▁지점에
▁오렌지
▁모델은
▁과정에
넌
▁나이에
▁무엇보다
▁하이힐
▁추가로
▁배를
▁호텔에는
▁Blue
▁환상적인
▁연대
▁타일
▁번호를
▁전공
▁역사가
보드
▁알았다
▁3.5
AI
bar
▁해결책을
-04
▁ES
▁찰스
▁항해
▁클
▁움직이는
-07
2016
▁마술
세대
▁RE
▁잃을
的
▁처녀
▁메시
▁할지
▁Real
▁모유
▁사자
▁들었
룩
▁되기를
출장
ala
▁스퀘어
▁아내와
▁주님은
▁왕자
▁늦
▁설득
▁포함하고
▁썼
보십시오
▁오해
▁올해의
스를
sch
▁너도
;;
▁Up
▁과학자들은
해졌다
▁빅토리아
▁일으킬
▁클로즈업
▁면적
▁닿
▁치즈
▁빗
세이
▁공지
▁몰카
▁이기
▁수평
적이다
▁정비
▁영계
▁(8
▁워드
▁붙이
▁하세요
놈
ming
▁지향
▁욕
▁기술에
▁것의
PM
컵
▁친구들이
▁도시에
했었다
▁앉아서
▁사건이
▁Green
▁지혜를
겼
▁들여
▁게임이
▁값이
▁이날
▁최대의
▁지명
▁이슈
▁저와
▁Best
▁물품
▁매달
보다도
▁파티션
▁도금
▁제외한
cent
▁셔츠
▁정확도
▁발전기
▁노트
▁보냈다
자들을
▁생활에
▁AM
▁문제점
▁비교적
겠어
꾸
▁않다는
OT
▁필요를
▁클릭합니다
VA
▁관계는
▁광산
log
▁얻지
▁건가요
▁cm
lip
▁몫
▁말씀하신
▁파키스탄
▁As
▁인간을
▁혈
▁놈
▁초래
▁상관없이
▁발휘
▁낯선
▁더러운
▁소규모
▁힐튼
▁아니라고
▁전반적인
▁일일
▁정면
▁사항에
▁리모델링이
▁맞서
▁윈
▁대단한
HZ
▁도움말
▁사회주의
▁얘
▁조화
▁많아
사와
▁혹
▁겨우
다음
메이
▁상처를
▁관리를
▁내릴
▁Remo
▁부를
▁미사일
▁일과
톨
▁테스토스테론
子
▁화폐
▁찾
▁족속
▁운반
▁없었던
IR
하십니까
▁아이의
여러분
▁전부터
포트
굴
▁도덕
―
ern
▁매니저
▁그것들은
▁확산
▁샌
▁수요일
Ex
▁무장
▁시작되었다
원은
▁인터넷을
▁의사가
▁자본주의
▁Hi
▁거실
픽
웰
ins
▁당신들
ics
▁고전적인
00,000
으신
필드
냅니다
▁티타늄
▁본인
▁£
해진
▁Win
바이
▁했을
▁SCP
빠
둔
레이션
▁누군가를
▁레코드
▁English
lm
▁약한
▁도움이됩니다
▁줄일
▁SE
▁바라보
▁걸어서
ich
▁시에
▁외교
▁Chi
▁Island
light
RC
▁유의
▁닭
▁나타나는
str
name
▁하려면
-21
▁기다릴
▁수여
▁마법사
ute
▁첨단
▁결과적으로
ating
▁듣
:53
aw
FT
:51
▁부모는
▁박람회
▁Drive
▁직무
▁밀어
▁정신을
▁Grand
▁전했다
장에서
ool
▁삶에서
▁단계는
▁보상을
냥
호선
전을
▁완화
ker
book
▁학위를
▁발견했다
▁대부분이
▁그대가
▁en
▁메시지가
▁전면
OC
하느냐
▁된다고
▁아니한
학적
▁휴일
▁시선
▁타운
▁Inter
La
ries
▁살리
▁우주의
만원
▁HOME
▁플로리다
▁돌보
었을
▁노드
▁상대방
ult
▁제공하지
▁스키니
▁통증
▁Hell
▁바르
▁일자리를
▁직원이
▁리튬
▁덧붙였다
브라
▁거리를
▁반란
OL
▁사무
ella
▁가열
▁무엇보다도
▁View
▁스크립트
▁닦
▁오버
▁개설
겔
냐고
▁말하자면
수도
▁관여
▁계단
▁랜
▁주전자
▁본사
닐
하사
▁위생
▁흙
▁무엇일까
let
▁방식이
할까요
▁디바이스
af
▁자리한
▁메이커
▁304
▁State
▁신세
▁함유
ors
▁순수
cer
▁톱
▁요건
▁이루는
팩
▁Live
▁상의
▁일본인
▁절차를
▁강연
SM
▁이외의
▁앙
▁정확
▁o
▁Sc
▁아버지를
자신
▁전기를
▁se
정말
또
▁시나리오
▁name
▁Fa
▁By
▁탑재
▁사용된다
▁꿀
▁관리하는
▁전까지
▁열매를
드라
-0
지로
▁가지를
▁MA
yo
▁마드리드
▁형식으로
▁Ja
▁예쁜
에선
▁라이프
▁컨텐츠
▁관측
▁바깥
▁작업이
▁한계
시대
▁98
▁유발
▁클로
▁부과
▁미국이
’(
▁이해를
문을
▁인류를
▁365
▁얘기를
▁마이애미
▁커넥터
▁워크
▁래
▁오줌
▁아들은
▁인구의
▁사용자를
▁감사를
▁조금씩
-09
여성
▁작동합니다
달라고
▁단독
▁개장
▁시작하였다
념
▁첨부
▁올리
fe
▁인상
國
▁아우
▁맵
▁잉크
▁찾지
▁63
▁1984
NS
▁XP
▁Act
▁빙
▁교리
CD
▁97
▁88
▁Square
틱
▁줄어들
▁원피스
ium
▁행동에
▁출산
▁허리
EE
▁160
▁폭풍
기와
▁생명이
bin
었죠
▁스코틀랜드
▁싫
MHz
▁저희의
▁퀸
▁나온다
pro
ney
▁목적이
NC
▁발리
렴
▁(5)
▁유아
▁어려울
▁요새
▁브레
KB
조건
mar
▁해결하기
▁필요에
DR
▁심리학
심이
▁여기를
▁Top
▁거다
▁살아남
▁방향을
▁신사
▁장애인
▁손잡이
▁법안
▁어머니의
▁시점에서
안내
▁했어
tr
해야만
힘
▁명칭
첩
▁new
ose
체를
▁말이야
▁□
▁드리는
▁머리카락
▁다음의
▁속박
▁경쟁력
山
▁어리석은
옵니다
▁포드
date
BO
거늘
cle
▁ex
▁그러고
슬리
계약
▁생겼
▁업무를
▁농구
▁kg
▁Sha
▁기숙사
。
▁연예인
▁마시고
▁450
경영
▁여름에
▁치료법
▁여지가
▁눌러
보이
▁조용히
▁발전을
▁연극
house
팬
랩
▁바이오
▁사진기
부를
▁즐기고
부는
▁라운지
▁than
▁충분하지
▁깜짝
▁연구에서
▁다리미
▁아래에서
몸
▁국회
well
▁잃어
▁제주
▁지면
▁지표
타임
Ma
▁부자
▁주변의
▁사라
하이
▁소화
view
몽
▁(14
TT
▁매출
▁일정한
스런
▁설계되었습니다
▁리뷰를
▁파일은
군은
oh
▁Trans
▁College
▁카탈로그
天
▁90%
▁스테이션
ySex
▁발을
▁증거가
▁King
ME
▁연령
▁섬기는
▁보이고
스코
▁불신
▁춤을
▁재밌
카이
잉
ind
▁충전기
ew
▁69
병원
▁아론
▁자석
우주
▁4*
ank
▁여기에는
하였으니
인치
▁알려주
▁하위
▁방을
▁사회에
▁있는지를
▁잊어
ves
맹
▁사태
▁http
▁괜찮아
▁감옥
▁만나보세요
▁불꽃
▁촌
▁세련된
▁만들었
▁Cap
▁조종
▁이하의
▁최근의
▁들었습니다
▁1986
▁±
▁날아
▁물리학
▁어댑터
▁오페라
▁빨간머리
▁아카데미
▁체류
에게도
▁도중
▁효
ED
▁게재
▁얻었다
▁법인
▁조식
냈
ons
▁다이빙
ric
▁쳐
ju
▁찾아내
▁EC
▁High
▁96
▁교정
ini
▁빛나는
▁유기
▁익명
▁책에
▁활성
▁나눠
▁얼굴마사지
▁Design
▁작동하지
▁낮추
rate
▁싼
▁주여
bra
▁제안을
sky
SD
1.5
▁전자레인지
줘
게요
▁Gra
▁본부
▁if
▁그룹은
▁기호
gg
▁선출
잠언
▁하소서
에너지
▁문제로
▁돌아왔다
▁수락
▁Datasheet
▁오토바이
▁그래야
일이
ox
▁기둥
웠다
협
▁참여하는
▁동료들
▁클라
▁열리는
Al
▁브루
▁68
▁나한테
▁Bu
▁저장할
▁스토어
▁소문
▁받아들여
▁무릎
▁원형
▁일자리
▁사울
▁마틴
킬
▁HTML
쇠
▁넷
▁소니
▁베풀
▁80%
구조
▁AP
(4
▁장군
▁몰랐
▁알레르기
략
▁최저
▁사항은
▁맛을
▁있었으며
부가
▁분들
su
▁Cor
▁〈
▁마이크로소프트
▁웨스턴
▁Spa
▁휠
▁받아들이
▁거리에는
▁Service
▁골든
▁구조를
▁귀하
께서는
▁반면에
국의
▁고등
맛
▁현재는
▁생각했습니다
이사야
▁베이스
데스
▁느낀다
▁비키니
▁분들은
ial
▁빨강
이있는
ature
▁때도
▁되나요
▁말하길
▁변환기
中
▁이번에
▁인증을
어진
▁카트
▁동의합니다
bl
▁된다면
▁기간에
▁궁금해
▁딸이
▁자연의
GA
▁성읍
▁살았
par
▁Hill
▁마켓
카지노
▁▲
▁너가
▁빛의
▁오른
▁표적
▁같지
▁Water
▁인력
▁정밀
▁양말
렘
▁파타야
▁남편은
랍니다
TE
▁최저가
▁보려면
/3
▁의로운
▁정직
▁관광객
단다
▁1945
▁되었으며
▁자동차를
▁하늘을
▁뒤를
▁중이다
▁전류
룡
▁재미있
퇴
▁포로
▁투명
▁즐거움을
▁아마존
▁와이어
▁맞춤형
▁이르러
▁출장
▁임무를
있게
▁읽으
▁남자와
▁딜도
베리
▁왕은
▁컴퓨팅
▁식민지
▁자취방
▁EX
이거나
▁VR
▁주관
Con
역에서
▁떠난
▁돕고
땅
~~
LI
봅니다
봐야
▁작년
▁적게
▁빠
▁Mc
▁대처
▁뉴욕의
두고
▁옮기
▁관심사
▁환상
▁누릴
▁모르겠다
▁전문가들은
▁언급한
고객
즘
can
▁프랑
하늘
▁인접해
▁갑니다
▁템플릿
▁터널
▁장애물
▁소멸
▁아연
▁CPU
Mo
▁발언
▁정자
▁안티
▁확
▁높다
▁컨설팅
▁일으키는
시마
자기
채널
▁노스
▁보여주고
하리니
▁시애틀
▁make
▁신성
▁직접적인
We
304
▁몬
▁두가지
▁주를
KG
put
ona
것입니다
▁파일에
▁붙잡
▁프로세스를
▁비극
▁아이들과
▁Don
▁수익을
보자
▁전쟁의
▁난교
▁(20
▁보장합니다
TI
▁정치인
▁기초를
▁화성
명이다
▁부스
▁연관
너희
▁스티커
▁공산주의
▁적극적으로
▁Cha
jo
▁석탄
▁보고서를
▁악기
▁붙여
▁125
▁섹시한
▁결정하는
▁확률
▁확인합니다
▁얻었
▁감기
▁주인이
▁벌을
▁Out
▁브레이크
▁나타날
▁도서
▁요셉
yn
▁복음을
하셔야
▁▶
001
▁견해를
▁원하시는
▁CC
350
CT
▁나머지는
▁그대에게
맥
▁FIFA
▁플로리스트
▁피트니스
las
▁클릭하여
▁호소
▁증인이
▁콜롬비아
▁밀도
사용
▁당신에
▁점차
씨는
지며
군이
▁막대기
▁밭
▁RFID
!’
▁징계
욱
▁거역
▁들어서
▁수록
왔습니다
▁ma
▁사회에서
-06
▁은하
▁단기
클레
▁회사소개
▁벨브
▁확인하고
▁SM
▁음식은
▁직업을
▁진입
▁애들
\
▁석사
살이
▁햇빛
▁옹호
▁외에는
▁그것으로
▁처방
▁보여줄
▁호텔에
▁달린
▁떡
▁패드
FS
▁독일편
▁배웠
▁높아
ane
▁접근할
av
들이다
▁여자친구
럭
▁문자열
▁나옵니다
▁여기는
-24
▁1920
▁시작됩니다
▁명을
▁전체에
▁1200
▁박테리아
▁투자를
▁문구
▁섞
▁타인
cu
분을
제공
▁Bitcoin
▁엄청
int
▁스프링
▁파란색
eb
보면
자유
▁역사는
2015
▁사본
러스
▁피자
ks
▁만들지
▁브리
▁승인을
▁사실에
▁여성들이
▁학생들을
드로
▁Tri
▁어플리케이션
▁달러의
▁스미스
무료
▁89
▁사용해야
▁Ben
▁늦게
▁드러내
▁실크
▁추억
었지만
fin
▁행운
▁디럭스
▁세라믹
▁흘리
▁노란색
▁물체
했다면
2020
전화
▁갱
FP
▁협약
▁에스
▁확실
꺼
▁(11
▁고치
▁짓을
어떻게
▁권세
▁까만
▁이것에
▁하려는
▁가져야
▁기업은
▁이스탄불
▁정보의
▁프로파일
▁사용되고
▁돌아가기
-40
▁공유할
IF
▁농도
ology
°
펠
▁빈도
▁아님
▁그로
▁잠재적
었읍니다
▁설명하는
▁(17
▁귀신
▁세월
▁기술적인
일간
lor
ile
▁DE
▁중심에서
IM
▁거룩
▁아버지께서
▁Del
▁증진
tech
량이
▁마실
▁아들들
▁간단
느뇨
▁일어나지
ov
하라는
▁지휘
▁잃은
▁귀중한
▁당뇨병
▁컨벤션
▁동네
▁키보드
▁몸은
▁장난
▁미안
▁합계
▁역에서
▁IR
▁1983
▁저런
▁하늘과
못
▁갈라
▁나가는
티브
▁제공해
▁정체성
▁자신만
스토
▁납
퀴
▁기지
▁아키텍처
▁무서워
▁걷
▁여겨
▁베니스
mark
▁지니고
님께서
▁3*
▁부식
▁활용할
▁세계가
▁관해서
▁바꾸는
tain
▁모집
▁음식점
▁은총
zo
▁비서
▁헤이
뷰
▁존재를
▁추세
▁스페셜
▁재난
보라
▁참된
▁손상된
▁아나
▁드라이브를
▁고객께서
롭고
▁교실
▁사로잡
文
▁흥
▁라텍스
▁깨닫게
▁더이상
도로
가능한
▁언니
▁쿠바
바울
▁신념
▁곤
▁직후
▁다음으로
된다는
▁감지기
▁스테인레스
테르
▁하락
겠는가
PT
사로
▁사이클
▁그분께
▁전체가
▁분해
▁중요성을
set
▁브라
▁iPad
▁봐야
▁달력
▁빈곤
▁계기
▁일시
▁가지가
val
▁칭
졌고
▁그리하면
▁순간을
중인
▁복을
▁산업용
낭
▁Old
▁임의
▁000
▁즐거워
세포
놓고
▁명확
▁컨
▁진지하게
▁일기
▁불행
▁하나에
▁폼
▁자녀들
▁Big
▁성경에
▁박해
▁롯
자로서
nes
ail
oot
▁운이
о
▁Game
▁영사관
▁(2016
▁공장에서
▁고립
▁거친
▁굳게
oy
▁부착
마일
▁인기가
ean
▁MT
▁Ph
▁젊은이
▁알라
•
▁무슬림
9001
事
▁퍼즐
▁With
▁선적
▁불렀다
▁가속
▁있으리라
▁건물은
▁공정한
사에
났다
▁Market
▁기간은
▁가졌
▁위대
rop
▁중요성
▁설명했다
만약
▁Health
원의
셜
ace
화가
자연
조직
▁될까
▁지구에
▁누구인지
ste
▁궁극적으로
▁지구를
▁추구하는
UR
▁설명서
time
wood
▁야간
▁알파
▁분의
▁인정받
▁저장된
▁놓치지
▁흔적
▁룸은
ola
▁자격을
▁사전에
▁유출
▁부족한
조차도
신문
▁신화
▁업데이트를
▁버그
▁1.1
▁웨딩
▁소켓
▁않으
▁들킨
▁작업에
▁증가하고
▁남을
▁행사를
▁Tom
일은
180
▁낫
▁출판물
하면서도
▁저장소
ML
▁연결할
용품
▁아기를
▁**
▁표준을
▁방식은
좀
olo
▁추출물
▁쏘
▁타이틀
har
▁인생은
▁몸의
▁어렵습니다
▁선전
▁혼자서
▁로즈
▁기독교인
▁행동이
▁둘이
▁방법과
▁학교를
▁Technology
감이
▁가르침을
정치
▁수량
▁보여준다
▁정신적
▁시위
▁묶여
▁안보
웨어
ather
▁영역을
예술
▁디자인은
▁기금
▁자신들이
▁정화
▁않았던
▁1972
▁학자
▁죽지
▁경보
mal
ain
ward
▁MI
▁1930
월에는
▁날마다
▁Ab
사람이
RT
▁아프
-23
유럽
▁Central
▁만났
▁사용하실
▁1.8
파크
EU
▁펴
▁스타일을
▁전사
▁도구는
▁침대에
▁구간
창세
▁Cat
▁계정에
▁중반
▁여러분들
▁모음
상황
▁단어는
▁통지
▁Word
eck
▁상황은
日
▁지극히
lf
대에
▁머물러
▁파견
트를
▁동반
▁부속품
▁릴리스
▁프랑스편
연구소
▁over
▁고압
▁사단
주소
었어
끈
▁승무원
▁집은
▁빠지
▁도우
▁노동자들
▁당일
▁ICO
▁하나님에
▁러시아의
▁좋겠다
신청
▁일로
▁만약에
▁없이는
회원
▁가득한
♥
▁스피커
되었다고
▁합병
▁생각하기
▁심각
기만
▁걸까요
주지
▁야채
▁죄송합니다
▁행동은
▁성실
자인
▁상인
▁이점
▁손님들
▁나아
▁않다면
▁상해
▁싸우는
▁사법
ski
▁영혼이
▁신체적
공사
▁자들의
▁맛보
gan
▁저서
▁흠
▁중점을
점이
▁여과기
101
셔서
▁갑
rea
▁그대를
▁빨간색
▁시장을
▁음악은
▁이적
▁던
▁실력
▁70%
▁128
ns
▁돼요
▁인터내셔널
▁보면서
▁동굴
▁매개
히브리
▁맡기
▁오빠
확인
▁부호
▁회사에서
ami
▁수밖에
▁개발에
네스
▁죄악
▁체계를
▁손님들을
▁못하였다
over
▁재산을
▁낫다
▁반사
▁가정에서
▁다이어트
ction
거지
칙
▁집회
▁EUR
▁응급
▁Sim
▁자연스럽게
▁장치는
▁여친
▁정식
▁분석을
▁머무르
▁흔들
▁★
▁tr
괴
▁렌터카
道
넥
▁하느님께서는
▁태어났
새로운
▁메모
▁4.0
적이지
▁관용
▁폐기물
이즈
혁명
▁Any
▁수면
uth
▁현명한
▁강간
▁아저씨
▁환자가
▁레지던스
ji
▁위안
▁전지
ized
▁걱정하지
▁생길
▁안정적인
년도
BM
▁실버
▁Pan
▁끓
기록
▁해상도
▁고려해
0.5
▁들지
▁다음을
▁점이다
▁work
▁가용성
▁도촬
▁아시아인
▁가운
▁찾아보세요
합시다
▁they
▁누리
제로
▁시설과
▁주님이
가지고
▁경우도
방식
▁공개적으로
▁답변을
▁존슨
▁동물을
개인
▁유튜브
▁찬송
WA
▁del
▁직류
▁후에도
▁라운드
▁필요성
졌으며
▁76
타운
▁후반
카와
▁101
박스
▁과정이
▁기울이
디스
▁장로
▁David
톡
eau
▁경력을
▁주셨
▁입장을
▁Java
This
▁사명
EP
▁솔로
▁성경의
▁생산성
관광
ping
og
하심
▁지나가
▁영역에서
▁상대로
▁수건
ー
▁하더라
▁부탁드립니다
▁배신
▁세계는
▁불이
▁Auto
▁기재
▁새해
▁근처의
▁공평
인들에게
혹
▁털
▁신장
▁현재까지
▁평가를
▁자르
▁이끄는
쥐
")
하였던
바라
▁창녀
▁교복
위원
▁여러분께
▁누구를
▁동양
);
공장
▁큐
▁인재
▁엄마는
berg
▁광주
▁Ag
할지
▁연출
▁AT
▁옵션이
▁몹시
▁신용카드
▁충실한
▁동영상을
▁지난해
▁여자의
▁보냈습니다
학자
비치
▁무엇일까요
▁사항이
▁입양
▁승진
▁검사를
▁나면
▁도시는
▁이상으로
학년
▁취미
▁맞지
혔
▁데모
▁묘
▁남자를
▁유부녀
▁칵테일
▁당연
▁광섬유
▁아가씨
▁TNT
▁지키기
였어요
▁Garden
▁보실
프트
▁고객과
~!
▁설명해
▁실행할
▁서비스로
하였더라
▁오프
▁대사관
▁있어야합니다
▁날은
핵
인들의
-60
lon
▁Royal
▁생산을
▁네트워킹
hotel
▁많지
▁Bi
▁한쪽
받았다
▁연결하는
늘
▁비슷
sing
자동차
▁경향
ization
cial
▁만물
▁다를
가장
▁군대를
▁중력
ao
베드로
▁진실한
체의
▁줄이는
▁무렵
▁상트페테르부르크
▁피드백
▁사업자
▁화상
▁이내의
▁요소가
▁확정
▁바탕
▁찾았
▁해결하는
▁접착제
ess
났
▁랩
▁파트너십
▁양을
일을
ani
▁갖지
▁제작자
▁볼트
뇌
▁FA
▁결정할
▁하던
▁Alpha
▁좋았
▁크리
▁바로가기
▁공헌
품을
▁높습니다
▁갈등
▁작년에
▁정류장
▁손실을
▁이틀
vis
부의
▁평소
▁임신부
IO
▁게이트
▁리드
▁인터넷에서
▁수확
▁에이전트
▁침투
▁다니는
▁그룹에
▁시골
▁세척
▁Men
▁무한한
▁역사의
▁작업은
만명
▁포도
▁고마워
▁놀랍
▁축적
조선
PR
▁사제
▁불가능한
▁토크
▁패킹
2017
깨진
▁검출
▁사람이다
»
▁항복
어도
▁설문
되지만
▁나무를
ken
▁개량
건가요
ford
▁심사
▁성서에
▁압력을
▁설명할
▁want
▁옵션은
▁있지요
▁부위
▁아크릴
▁가축
▁위원
++
비는
나게
▁효율
어스
▁샷
▁공감
▁Pat
▁아들의
▁공유하는
관을
▁양성
▁노란
▁법이
겼다
▁패치
▁살게
▁보스턴
▁SQL
Cafe
▁day
▁Pri
▁대답은
▁61
▁꺼내
▁지식과
▁자원을
▁남자의
▁동물의
-100
▁재질
스테
▁주장한다
▁잃고
법에
▁바쁜
▁사무소
▁제거하는
▁액세스를
우는
을까요
▁법에
화물
▁아니하며
덤
▁편안하게
동물
ign
▁환자는
내용
▁버전은
▁¥
▁상속
▁가장자리
조사
▁틀림없이
▁백성은
▁독점
▁수줍
▁포함할
것이다
▁ISBN
▁벡터
▁마디
▁토마스
▁영어를
▁응원
▁개발하고
▁Post
▁제자
▁고장
▁잔디
▁실제로는
▁$1
▁05:0
▁성질
▁류
erry
▁년대
▁set
▁선발
▁적용되는
▁광도
▁주님께
▁빌어
▁해줄
▁물류
▁투숙객
▁우상
▁거라
▁other
▁서버에
▁관습
▁객체
봤
▁1982
▁말해서
bus
vent
▁수준에서
▁루프
*1
▁듯이
don
а
▁자물쇠
▁이유입니다
▁ME
▁크루즈
▁팽창식
▁생명체
친구
관련
▁양육
▁흉
▁여행하는
▁명확하게
▁쉽다
초등학교
▁유두
▁비밀을
▁American
▁정제
▁상자를
▁기차역
▁러시아어
끔
▁ad
▁170
▁건축물
▁그룹을
▁희생자
둬
본다
▁소위
▁여덟
▁규격
ele
▁앞으로도
하였지만
▁Network
해야합니까
▁잠자는
사실
아프리카
▁1969
主
통신
▁취임
▁시련
▁제조사
▁상대적으로
▁단추
▁부분적으로
▁sa
▁경도
▁get
▁찾아야
▁방문할
▁알아요
▁Cr
▁치수
공원
▁인간에게
▁선교
▁놓여
▁학사
▁이야기하고
▁점검
▁놓은
기계
▁Smart
If
▁본성
인들
▁아니하리라
▁Lake
▁신뢰를
▁책에서
▁::
▁느껴지
▁형사
ware
져야
▁RO
▁증기
표를
너희가
▁인체
까지의
▁다이오드
져서
▁드럼
▁life
ky
▁내고
▁추방
^
▁액세스할
▁짝
▁그리스도께서
▁변동
▁영구
▁똑같
▁갖
▁RS
▁240
▁이온
II
되었던
▁속하는
▁촉구
▁피조물
cre
▁해줍니다
▁생물학
hr
▁China
▁의사는
▁짐을
제는
▁생활의
▁Amazon
▁영역에
▁머리에
드리겠습니다
▁기상
▁파도
시스
Do
New
▁방음
▁졸
대표
▁성품
▁불어
▁꾸준히
▁대리인
▁흔
▁67
▁무조건
▁현장에서
▁지수
공간
▁장로들
투자
▁AD
▁2.4
▁암호화폐
▁표시합니다
-50
▁연락을
▁성립
▁고리
▁기능에
▁사망했다
▁PST
▁기계적
▁중심은
전기
▁크다
▁생선
▁데스크톱
▁휴스턴
▁분실
▁강사
었는지
▁않다고
▁CH
▁용기를
▁약을
ize
▁비즈니스를
▁Ru
▁권력을
TR
▁무게를
▁설치할
▁조사를
되다
▁국가들
▁속이
▁알코올
▁ᄒᄒ
▁상당
▁규정에
▁여성들
▁달아
▁정액
▁주장하는
▁여성들은
▁띠
▁Mor
▁멜버른
▁전형적인
▁내구성
fu
▁전체적인
▁기계장치
▁소원
▁좌우
▁피어
▁악성
▁코너
▁첫째로
▁귀하에게
mail
▁맘
▁인격
ros
▁서로에게
▁의약품
▁지나치게
▁탐지
버린
▁다루
▁고용주
▁공인
생산
▁영화의
마이
者
tt
▁미션
하노라
▁file
렁
▁설계된
▁여자들
▁늘어
行
▁호치민
▁독서
▁드레스룸
▁로얄
ava
▁수영복
층에
▁말씀으로
ville
lt
주님
▁이름과
▁캐시
ax
너희는
▁공을
▁그들에
▁결함
▁롱
▁갓
▁시점
▁불의
는데요
과거
▁조지아
비용
▁실험을
▁달콤한
▁Tu
▁나치
▁(16
▁각도
▁줘
▁카르
▁잊
▁종의
μ
▁얇은
▁방사선
▁콘테스트
ations
▁늦은
▁신분
해지
ENT
▁크로스
▁간단하게
▁돌아와
▁준비하고
▁동시
대상
▁자금을
▁땅으로
▁his
▁각기
▁사진이
펀
▁페이
템
不
▁무제한
그가
▁떨어지
▁숨기
▁공룡
▁번영
▁Fin
▁하얀
▁10,000
mic
었습니까
▁수석
▁인텔
▁SO
hen
▁내각
bon
▁선택된
▁1979
Pa
그럼
▁예수님께서
its
스포츠
▁희망이
▁센터에서
넨
시즌
▁선수들
▁까닭
▁갚
평가
▁똑똑
▁종말
▁남편과
▁내리는
▁토론토
▁단계에
끝
▁확인하는
▁영국편
▁람
▁죽고
▁사람입니다
▁땀
▁불교
▁73
▁주조
그리스도
▁히틀러
地
▁뚱보
▁콘돔
▁성령의
▁공작
▁픽업
ora
지구
▁대답하여
▁TO
It
▁사용법
겠다는
CS
▁번도
▁Cu
▁서로의
▁그래요
닉스
▁사랑해
▁가졌다
▁Key
▁발견할
▁세미나
▁삶과
Name
▁머물고
▁베드
▁안마
▁루트
옹
륜
▁380
▁United
′′
▁걸려
▁Not
▁사무엘
▁않을까
rus
▁새엄마
bre
▁효과적
▁즉각적
▁77
▁의무를
cha
ram
125
▁TS
옵
▁밤을
켄
디모데
/5
직을
(10
▁나라는
▁눈은
감독
oss
▁꽃다발
▁Place
▁Micro
봐요
▁싸울
▁해리
▁보며
▁이외에
명으로
▁사실이다
▁Mer
플라
▁무엇이며
프로그램
▁해를
lar
▁나가서
▁고려해야
권의
▁도심
▁플러그
▁질서
rit
ᅮ
▁Adobe
▁암스테르담
▁샌드위치
▁욥
cher
되었는지
▁표정
▁구제
전에서
▁경로를
▁기원전
xi
▁형성하는
었으나
▁거듭
▁Vol
▁94
▁걸리는
▁안심
▁상업적
dB
▁마음과
리카
시험
▁죽음에
▁Op
대는
▁어려워
▁포트폴리오
▁곤충
▁News
▁토끼
▁단점
▁지킬
cus
▁의미에서
겠느냐
▁차가운
작업
시켰
▁드리고
als
▁꽃집
▁이야기하는
▁봉사를
▁놀라게
▁스승
▁축소
▁잘라
▁기반의
▁저널
▁Bed
▁부유
비가
▁창립
▁컴퓨터에서
▁고르
▁나노
TER
▁전해
▁랜드
▁Her
▁접시
AA
▁84
days
EM
▁로비
▁배워야
▁같은데
▁배가
▁해보
웨
▁않거나
▁담아
▁가로
▁방식에
▁뭔지
▁부모의
▁경험은
▁서울시
공학
▁잃게
▁사도들
▁근접
▁성숙
UM
▁지도된
▁목적에
▁Tour
하였느니라
lex
▁켄
인증
▁일어났다
작은
컴
시나요
머스
tch
▁두려움을
▁자선
유대
▁좁은
神
▁엄청나게
▁페이지에서
커스
▁분포
▁견적
▁sh
▁하였
건의
▁되찾
cl
▁뿐이
▁베타
▁Good
하여라
▁너희와
▁초청
▁운영하고
▁Station
▁체육관
▁계명
▁구출
▁설정할
▁주시고
마치
▁얼굴에
▁살아가
▁도둑
▁추가적인
들입니다
소를
역사
▁Fo
FI
▁루이스
선거
▁정부에
▁근로자
▁종족
▁않았기
▁UPS
▁컴
하다가
▁쪽으로
▁죽이고
▁화석
깨
ush
딸
▁지금의
▁유치
▁자와
▁부분에서
▁Mobile
▁이동하는
▁PR
▁옥수수
▁Company
▁배워
▁있읍니까
▁슬퍼
으려고
버트
▁있었는지
▁작고
</
▁친구는
▁잭슨
▁\
▁학교는
CI
Shemale
CP
▁그레이
▁플레이어는
▁예시
▁Institute
▁호기심
▁캡처
▁가져온
▁사촌
▁넘어서
▁너희들
▁엠
페이
▁담고
▁trans
Le
▁빌리
▁레위
▁아스
정을
▁산업의
▁대구
겠지요
▁공의
zi
▁자손이
▁상상할
▁존스
▁데에
▁(6)
How
▁말레이시아
켓
▁베어링
▁괜찮
▁또다시
▁걸립니다
▁빠진
▁버렸
▁뮤직
▁칠레
▁차있는
▁커피를
▁평화와
▁VIP
▁전쟁은
▁심천
▁모세에게
▁Par
▁동행
NE
▁화합물
▁아이스크림
▁리스본
▁1976
▁협조
▁Xbox
▁쇼핑몰
▁것들에
▁끝나
▁유형을
▁관계없이
▁(9
질을
▁UL
HA
▁사회를
▁민감
▁us
싸
▁표기
▁동물원
▁절대적으로
혁
▁보급
▁car
▁팀에
▁물은
▁그보다
셨어요
벳
▁두꺼운
▁거기에서
▁0.8
▁넣고
▁부릅니다
스팅
▁궤
▁하나인
▁없지
BI
▁때문이죠
▁일어났
▁NC
▁감옥에
▁구체적으로
▁개별적으로
▁바디
▁추가할
▁이르렀
▁충실
▁든다
▁웹사이트에서
▁곁
▁단면도
▁아기가
▁Research
▁초월
▁삼촌
하곤
▁론
▁인터넷에
가스
▁않았어요
▁떨어
▁갖는다
nel
▁들어가서
▁저항하는
▁민주당
▁숫자를
▁드리겠습니다
▁학생이
었으니
cker
▁당사가
▁둘러
▁군중
학급
ali
▁오늘도
▁유효합니다
▁(2015
이랑
▁년부터
▁디즈니
▁숨을
뢰
▁그토록
▁합격
▁시스템과
▁살려
▁것이지만
▁퍼센트
▁주장을
▁버려
오고
라이트
▁접착
모스
▁(2017
▁징
지면
▁방문객
단을
▁느끼지
▁작동하는
▁IoT
▁학생들의
▁있니
▁보냅니다
▁버릴
▁깔
▁74
count
▁말하
란다
ui
▁크기가
▁쏟아
▁진주
▁공부를
르고
link
pm
▁갖추
▁신은
구를
▁스트레스를
▁라스베이거스
▁맨체스터
성경
▁티켓을
▁요청에
▁득점
▁위협을
▁쉐
▁보내어
▁더보기
릅니다
▁것이나
▁Hol
dom
만은
▁가사
▁소장
▁정보와
▁와트
치료
▁지원할
▁first
눅
▁비엔나
▁무리가
▁암시
dia
▁시설입니다
▁근본적인
▁부채
▁채널을
▁음식이
▁견고한
▁수준에
▁이스트
▁융
되기도
▁대부분을
▁굿
킷
▁욕구
▁Previous
▁아프가니스탄
ability
▁놓아
▁Music
self
▁0.4
▁Tra
▁관할
리안
▁열대
▁only
위치
▁how
▁Way
털
사단
그들이
▁마운트
▁지키고
▁뷔페
▁스티븐
▁불륜
예약
지마
▁자리에서
▁리프트
▁이곳은
▁정체
지니
속에서
▁직원을
▁don
▁많고
▁말라고
▁system
▁관광지
-26
▁만료
▁1940
▁돈은
▁them
▁붐
▁요원
▁조차
▁누르
lk
▁엑스
▁벌이
▁리처드
▁Airwheel
▁크리스탈
HC
▁지혜로운
▁나눌
▁활동은
▁제한된
▁중앙에
▁못하리라
프라
쟁이
▁보스
▁믿음은
▁업적
자들과
▁***
▁입금
▁공군
е
▁차이는
tle
▁일주일에
해진다
▁돌보는
▁안식일
▁육신
▁학년
sy
▁발효
rc
▁학술
붙
▁달하는
▁고쳐
▁값은
▁Science
▁카운터
▁다행히
▁핸드폰
▁아파트먼트
▁매춘부
BR
▁씨는
▁활동이
▁아픈
▁0.6
▁습관을
▁싶을
He
▁제공하여
▁중입니다
▁새롭고
▁인조
▁합동
.[1]
▁inter
▁해가
프랑스
▁Law
▁젊은이들
▁해고
됩니까
▁정기
해야하는
▁성도
▁MD
ova
어로
▁보좌
▁중량
▁다윗이
▁06:00
▁지원하고
LD
▁병원에
2014
ities
▁III
du
▁user
가격
▁우정
렀
▁학회
pl
▁민감한
탐
▁죽이
▁사랑합니다
▁거대
▁pa
▁렌털
▁Ve
지방
▁good
▁여성을
▁여객
▁5%
▁자꾸
▁괜찮은
▁폭포
ule
▁2.2
▁냉동
르는
필요
▁연인
▁종양
▁매매
▁78
▁느꼈다
오리
▁레스토랑에서
▁잃었다
▁부유한
빅
▁말인가
▁결정은
▁시체
▁벌어
▁주제에
▁청바지
▁교도소
▁나타낼
▁확립
물의
▁Char
▁직장에서
▁버린
nu
▁확신을
▁대통령의
▁무기를
ase
▁백성들이
▁학부
▁셰
▁기업을
▁지도했습니다
UE
▁높여
gent
.”(
빌딩
▁입으로
▁매뉴얼
▁놀랍게도
▁할리우드
▁받아들일
▁넘게
▁81
체가
stra
면서도
▁적어
▁산화
▁흐르는
▁웨
▁튼튼한
yer
Com
▁Cal
공항
▁시장의
▁정책은
▁안되는
▁진노
▁스탠다드
real
▁92
▁Project
▁피어싱
▁콘솔
▁네트워크에
▁있듯이
▁오피스
▁꿈이
MT
주의자들
▁경찰은
▁루이
▁펼쳐
▁자고
▁절단기
▁기간이
▁오키나와
▁타락
헬
▁Te
ata
▁방송국
무역
▁떠났다
▁파트
부에
base
▁띄
▁전구
▁사랑으로
▁숙박시설은
갔습니다
▁세운
▁전개
▁유익을
▁경외
▁이메일로
▁형태를
하심을
▁이것들은
▁원인은
▁감히
▁줄이기
▁없어서
▁FM
▁가르
▁기온
메뉴
▁도전을
生
▁자유분방
▁껍질
▁성장하는
▁이름의
▁Paul
á
▁마땅히
▁편안
사건
▁Ke
▁생각한
▁그리워
▁표지
기기
▁상세한
▁크라
▁그대들
▁드러
앞
▁사이드
▁갤럭시
▁항문핥기
▁혐오
上
▁Casino
ᄒᆞ
▁착륙
거니와
▁있겠습니까
▁스티브
▁82
▁조롱
▁캡
기사
USD
▁풍부
▁1975
▁이용가능
▁층이
셨습니까
▁당한
▁차고
피아
시길
▁재건
▁이동하면
▁Video
▁텔레비젼
▁남북
▁경우를
▁옳
클럽
What
▁폴리에스테
▁server
▁사이트맵
▁화학물질
식으로
인과
▁무지
▁출현
▁후손
래요
▁믿기
▁살아가는
oid
▁Mark
▁잡는
▁데려가
▁권한이
▁초등학교
▁레이크
▁떠나지
되었으나
▁미군
▁국적
▁하였고
▁자녀들이
▁mg
▁글로
▁per
late
▁필요하다고
▁DHL
▁웃긴
▁거리입니다
▁종사
pc
▁Rock
▁형제들
▁유일하게
pos
▁느꼈
테크
vin
▁(0)
HS
▁차량을
▁PLC
▁자사
▁2,000
▁하느님은
▁감수
▁사용이
▁1/2
▁붙어
▁줄여
세는
▁공유하고
▁깃발
▁Han
▁인생이
단의
▁▪
▁썼습니다
▁주스
버릴
월까지
▁비싸
▁단축
관은
▁채로
▁일치하는
▁그리스도인들은
▁예전에
테이션
▁국가를
▁수있게
▁움직이
넘
▁부상을
▁바꾸어
tz
모두
▁터치스크린
▁슬라이드
▁카트리지
▁Store
▁Sam
▁}
▁공기를
▁됩니까
▁알아내
▁결론을
▁Long
▁하시니라
▁명백한
▁영문
▁시야
IG
▁초반
없
▁연맹
▁발견된
렬
지니라
해야한다
TF
▁감정적
옷
▁대회에서
▁사건에
▁넘치는
더러
낮
하겠
star
▁저녁에
▁주요한
▁싶었
이었으며
▁팬들
▁체크아웃
▁PRO
-28
▁독립적인
▁Em
▁1974
NI
ets
▁경험할
▁심리
▁스트림
sol
▁죽여
줬
▁뜻이다
▁동등한
▁HTTP
▁그래프
▁이루어지
릉
▁왕을
▁반역
밭
쇄
▁CP
▁설립된
▁Town
▁영감
▁Casa
으려
▁불필요한
▁Wa
▁예레미야
uc
▁내기
▁농부
▁하늘이
▁주셨다
▁열망
▁책임감
그리
▁죄가
pr
▁실체
▁그녀와
▁필수적인
▁이민자
▁자위
▁고생
웅
숍
▁비명
▁말하며
▁여유
받습니다
GS
▁RGB
▁Nu
▁건강과
▁교차
▁보고서에
▁꼬리
티스
르트
▁데는
▁이뤄
On
어를
▁페스티벌
ere
▁불렀
▁생활에서
▁말씀하시기를
own
▁Light
▁키워드
▁소유권
▁기도하는
▁our
▁참여하고
쳤습니다
▁1981
되므로
▁동력
140
▁th
▁의미는
,000,000
′
▁쌓아
▁메리어트
▁인덱스
▁아카이브
▁Des
▁자녀의
lone
▁있겠는가
때문에
DP
▁의장
▁악의
▁지침을
▁설정합니다
▁투입
10)
▁법령
▁리버
▁실용적인
▁계셨
▁차이점
shi
받아
▁아니라면
▁국가는
▁열정을
▁“‘
host
물은
▁외계인
방향
▁몇가지
▁구해
▁페어
대한
▁Who
▁Mal
▁실종
金
▁세탁기
/15
▁밸리
▁노력이
▁음료를
▁Sky
▁기간을
▁건물을
▁River
▁영적으로
GO
▁심각하게
▁창업
생명
▁기준에
▁또다른
▁감자
▁목록에서
▁혁신을
▁사탄은
ART
▁메커니즘
레이트
▁오른손
건강
▁나타났습니다
▁스트
▁관람
▁향기
▁(2013
▁재앙
▁무인
▁조용
Be
▁회원국
▁걸린
▁조사에
▁DIN
▁Ter
reg
▁아니었
TB
▁sex
껏
▁굳이
▁팔아
▁규정을
▁어린이는
▁시대를
ars
▁하나만
▁인디
▁바구니
▁격리
▁전능하신
▁억압
{
▁오로지
▁잠재
▁알렉스
▁윤간
였을
▁누구에게
▁썩
연합
나이까
▁행진
▁존재합니다
▁있었어
세에
한국어
▁관리할
▁식사가
▁원숭이
▁12:00
▁예보
▁보안을
▁위임
▁need
▁room
▁절연
▁얻었습니다
▁지은
rin
▁SMD
코리아
▁any
▁섹시
▁천사가
법인
▁운전사
▁여행은
▁말자
▁데이터에
gsm
▁코르
▁시작하여
▁1914
▁Church
法
▁낙태
▁만나고
▁건지
▁요구사항
▁대학생
▁생물학적
▁드래곤
▁킬
▁이것들
???
▁간주됩니다
▁This
SH
▁요청할
▁환자를
top
아래
▁떠나는
▁성장하고
▁두려워하는
▁ro
dic
▁뒤에서
BT
롯
ask
▁(13
▁지원되지
▁화장
▁핸들
졸
▁자연스러운
▁신앙을
▁꽉
▁않았으며
▁배우기
▁보러
▁지대
▁하니라
▁향수
▁양자
▁Great
(5
▁매트
▁유익한
라니
tel
▁떨어지는
bs
▁움
▁Bur
ato
▁BS
▁천사들
▁손해
▁음식과
▁Gen
▁움직일
▁해에
▁말씀드리
town
NG
▁환난
▁주름
▁영상을
으라
▁건물에서
▁앳
마르
▁America
▁사악한
▁AR
▁하루를
하네
▁묻는다
▁제국의
▁야기
iver
▁모델이
▁거래소
▁카메라를
세트
▁안전성
▁상자에
▁≥
들보다
tre
▁Management
▁명성
▁점프
▁문화의
▁비교할
▁잠재력을
▁발견한
▁피가
▁납치
for
▁free
모델
▁팜
▁잊을
▁예약을
▁종류를
▁것인데
▁네트워크의
▁경우에만
▁Media
▁바람이
rm
▁가족에게
sha
▁모델링
▁선형
▁exp
▁Dec
LP
▁주권
▁때에도
되었는데
▁말했
▁추천합니다
▁아리
▁수술을
▁개조
▁진짜로
▁여호수아
▁분명하게
ux
▁선택이
▁동물들
▁유명합니다
▁목재
▁마녀
▁전차
▁Gar
▁경험에
세금
▁경량
▁찌
흘
▁개국
그대
▁작품은
▁나타난
▁출입
Br
▁오시는
▁say
▁형식을
랍
▁흔한
▁장치에서
▁기반을
▁구매할
▁겪는
▁제네바
▁국가가
▁프런트
주를
▁급격
▁염색
▁심히
증을
▁포스터
▁명은
▁사실입니다
▁컴퓨터가
▁역사에
▁심판을
▁Hall
▁포토
▁문제입니다
계의
▁줄이고
ii
▁world
▁도움으로
▁일부분
▁하트
▁선택은
ien
▁놀랄
▁관념
륙
▁백성들
▁민주
▁이해가
▁서식
▁사업에
▁윗
▁lo
▁틴
▁근거한
▁지파
▁표시된
▁운용
27)
켜
▁트랜스
▁베풀어
▁1.3
ena
sis
▁좀비
▁가져가
싶
최고
ble
▁해체
▁연계
▁테이블에
win
▁Show
▁사용하십시오
▁may
▁숨어
되기를
▁살지
쿼
▁MO
無
▁보시
▁1977
▁part
▁기업가
▁타협
▁가르치고
마쓰
▁보완
▁입법
▁에릭
▁계란
▁연결이
ental
▁BBC
▁316
▁손에서
press
▁장치의
군을
▁관행
▁시작된다
nc
▁이벤트를
이로다
ae
▁야마
시죠
▁님이
▁내린
▁존재할
▁Copyright
▁이루고
▁계시는
▁Fire
▁메이크업
▁일년
화학
▁[3]
tes
▁4.5
▁편입
▁안돼
(6
티아
▁불안정
▁이점을
▁1971
러시아
▁젠
▁향상된
▁Bio
▁인류가
리와
0.00
▁회수
지어다
▁목록으로
▁설치하는
▁DS
ula
▁시리즈는
▁사장
▁깊은목구멍
▁루마니아
三
▁니켈
▁넣을
▁구획
▁거주하는
▁두지
▁올해는
▁Mu
▁그것들이
▁베개
▁잠들
▁당황
장소
▁Ju
끼리
▁제목은
▁만나게
130
▁99%
마음
량은
▁프로그램에서
vel
lock
▁기법
▁본인의
▁스톤
(18
박당
▁느낍니다
▁다운타운
▁있었다고
▁생각하면
▁멀지
▁만났다
▁느린
▁여분
▁합리적
▁보겠습니다
★
▁(2018
▁금액을
▁1800
ello
▁사용은
▁크기는
▁선수가
▁1978
체계
▁Tna
▁필요로하는
▁성공한
장님
▁죽게
▁능력은
▁교제
▁지우
▁Pu
▁견딜
12)
▁더블룸
▁해주는
년동안
▁어떨까요
▁경악
▁EP
▁1968
▁DO
▁post
▁오류를
▁엘리야
▁지나면
iff
랐
▁전체적으로
▁길에서
▁우연
정신
▁남아있
정상
▁몰랐다
▁외과
自
▁오프라인
▁초기에
▁돌아왔
▁정확성
▁왔으며
▁있겠
▁지성
넣
행사
▁갈망
▁서브
GC
try
▁가정을
율을
▁악인
▁재개
븐
tis
검사
▁아니하는
수의
으면서
▁인류는
▁천지
▁했는지
학회
▁sub
▁Holiday
▁이산화탄소
▁오바마
▁싶으십니까
▁BMW
▁가만히
lay
전도
450
▁video
▁판매용
▁공급업체
▁받았고
박물관
▁인터페이스를
내에
▁면제
▁(2011
coin
▁here
▁그늘
▁꽃을
▁스쿨
▁미팅
데이터
▁주립
▁했죠
▁물질적
▁국민의
▁아예
▁쉴
mA
▁바트
hy
▁바치
▁배관
▁식기세척기
▁말했듯이
▁단편
▁직원들은
보지
▁모르겠습니다
이게
)]
▁바울
홈
▁경험과
▁1973
월드
▁염소
▁정도는
action
▁말하였습니다
▁호환성
▁못해
ado
비스
▁낮아
body
▁당시에
▁Com
▁실시간으로
▁죽음이
5000
▁플레이스
내고
평화
▁CF
и
▁bo
▁작성자
▁여러분과
serv
▁타이즈
마지막
▁전문화
▁좋고
▁성도들
▁프라이
▁사유
▁재물
▁자랑하는
▁때보다
8,000
▁판매를
▁두렵
▁피고
▁생각해요
pot
▁않았다면
▁캄보디아
▁하이브리드
했었
▁창작
▁재킷
▁담겨
▁살았다
일에는
RM
▁OK
▁원천
▁물러
▁곡물
해보자
▁BA
▁음경
하나님이
AG
▁정도가
▁모양을
자에
lot
▁줄기
▁훈장
▁방문한
▁통로
▁그리스도교
동기
▁중간에
▁낭
▁바닥에
▁TM
▁사내
▁유일
▁약점
법은
▁Japan
▁크레딧
▁침략
▁취향
▁바늘
▁him
▁롯데
▁편집기
▁번째는
▁Ge
▁등록된
▁기억할
하겠다고
▁시민권
▁Book
시켰습니다
▁월에
GHz
▁후쿠오카
점에
▁Ass
▁실행하는
▁다름
0.1
▁칼라
▁바다의
▁사라져
▁범죄자
ress
▁헐
▁합시다
쵸
▁쫓아
▁예로
하겠다
▁개는
▁계곡
▁type
▁주말에
▁생태계
▁보시고
▁의뢰
▁좌표
▁방황
▁1.4
▁개념은
▁크로
▁타는
▁Point
▁손님을
▁듯한
tri
▁(2014
▁도어
▁페이지의
들에게는
▁포도주
▁치고
토록
▁녹화
▁주교
벅
▁뮌헨
▁병을
pu
▁슬픈
▁보고서는
aya
▁숙녀
금속
▁총을
▁생각과
피스
▁견디
▁수행하고
▁먹기
▁유니
SO
LT
1.1
▁From
인터넷
▁직원들
▁Max
±
▁파트너가
▁주께
먼트
ony
▁인상을
▁오면
▁바다를
je
eu
▁장르
▁분위기를
▁돔
▁독립적
▁원할
ö
▁해수욕장
▁달걀
▁안되
▁불가리아
▁두어
▁했습니까
Host
▁아름답게
▁into
▁4000
▁That
pic
▁수요
▁소식이
스톤
영국
▁드러나
▁위치에서
14)
▁죽였
▁별들
▁뉴욕에서
▁평판
▁모양의
▁다리를
▁유령
인에게
차원
▁점수를
▁영향력을
▁93
▁Control
ments
COM
▁공개동영상
▁Tower
▁자신감
▁주소서
nic
▁소식은
vil
▁멀어
▁퍼져
▁힘으로
▁빌려
16)
▁현대의
▁각국
▁제품입니다
PL
▁초에
▁가진다
▁멸종
▁애니
▁풍선
▁이라고
물로
her
여호와
▁주가
▁런던의
▁바비
▁팰리스
▁컨셉
▁평화로운
▁원고
▁필요조건
▁직전
▁꿈은
▁****
▁Night
▁BC
여야
▁이스라엘을
그림
▁엘리트
▁될지
▁아름다움을
▁전제
▁중심지
key
▁가지게
▁읽어보
▁차가
오프
▁논란
nn
360
cur
▁다하고
▁끝을
▁적재
▁보이기
▁읽은
sel
여기
▁미치지
▁프랑크푸르트
▁아라비아
▁블루투스
▁포르노를
위로
이었지만
▁알았어
▁밴
▁모범
▁독일에서
▁적립
▁틈
짜
▁가지고있다
itch
▁플레이어가
▁Ste
▁이탈리아어
▁마음속에
vers
장비
▁지루
거리는
▁대학에
▁하시니
▁진리가
VC
▁거리에서
▁셈
▁졸업생
구역
ᅳ
▁제단
▁테이
▁흑인큰자지
met
▁공식적인
▁받았으며
▁상상력
요금
법이
▁세이
▁침입
burg
ient
▁(2012
▁이동하실
▁멈추지
▁소지
해왔다
차를
▁입히는
▁적절하게
▁일반적
ᄒᄒ
sure
▁왔을
▁닫기
ls
▁화를
▁과목
▁오실
▁되자
▁그것들
효과
최대
▁반도체
▁지체
▁왈
▁트렌드
▁제자들
▁노벨
board
▁학업
▁회화
▁대표하는
▁미치
▁Pra
▁배제
▁인출
▁0.9
악한
▁모션
하기가
▁소개합니다
▁(7)
▁1900
▁잘못을
eth
▁뜻은
▁수업을
▁기대할
▁아니었습니다
▁자국
▁Linux
▁피드
ison
판매
▁여동생
츄럴
FE
▁짓는
▁자체는
▁블로그를
▁사탕
▁이식
▁사람들로
▁GM
▁아까
아마
냈습니다
▁Security
▁수년간
▁노력하는
load
▁성명
▁신학
▁Av
선이
▁고기를
▁정책에
▁접근법
▁막아
예수
▁아카
▁라틴어
▁섬의
▁강조했다
딕
시켜야
▁신청서
장관
▁Pay
분석
▁which
▁멈춰
▁바이너리
rr
hai
▁승격
▁에드
▁파라
▁물질을
▁공장을
산책
▁민박
▁방에서
▁show
▁1965
사이드
짝
▁걔
▁만성
▁작곡
▁시간입니다
gin
▁고품질의
번의
▁Hat
랭
▁로마의
Mar
▁학문
▁사용해서
▁호의
▁한글
쪽으로
232
▁London
만회
이었어요
▁여러분들은
▁이동합니다
lia
깁니다
팽
▁어렸을
▁나아갈
▁가려
▁철강
▁않으시
▁같았
시간이
▁des
콤
▁결정에
▁친구에게
도르
▁여호와가
일반
▁행실
▁당선
▁돌아온
했을까
▁주행
▁피부를
▁독성
▁Im
▁발표한
▁하였으나
뚝
off
▁치아
▁정의를
fr
칩니다
▁편견
▁전쟁에서
▁조건이
▁사망자
주의를
주일
▁공간에
▁사탄이
▁할수
▁준비되어
들아
으십시오
▁Ci
▁돌아보
하진
▁사슬
uz
▁CI
형을
▁소중
▁많았
▁번성
EST
▁같고
아가
UL
▁FI
▁밤이
ification
▁서둘러
남자
▁달이
▁왜냐면
국이
▁노화
▁불가능하다
▁보일러
▁NAS
▁인기를
▁일어
▁선호하는
▁손상을
▁어린이들
▁Photo
▁요소는
▁용이
▁하차
▁보호자
▁일어나서
무엇
▁판매자
▁휴가를
▁매번
▁맘에
170
▁뭐야
▁임원
▁그러다
▁답은
▁그처럼
ook
실험
▁순수성
투스
긋
▁꼭대기
▁자랑스럽게
▁Saint
▁충격을
▁Shi
HR
▁사랑스러운
▁있는데요
▁시몬
▁선행
하였노라
▁동성애
▁레이어
▁AB
뒤
▁피하기
▁바다에
▁도구가
▁저축
▁국민들
ode
와서
저희
▁다녀
▁후속
▁개통
eri
▁근본
▁샴푸
▁휴게실
▁Bedroom
▁전자부품
포스
▁몰아
▁잃었
105
▁증권
cam
줘야
프는
▁진전
▁나오지
1.2
▁끄
▁지문
▁119
▁나타난다
▁해답
나이
▁따를
▁드림
▁물과
▁Hong
▁발광
▁개발한
▁토양
범죄
▁부어
▁기도는
▁정부와
▁학생들
▁구하기
ify
▁대학은
▁양성애
▁MC
▁왜곡
▁기억하고
▁이룰
▁장려
▁돕
▁시사
▁Plaza
▁백과사전
▁스팽킹
▁에디션
▁지르
235
▁중립
▁파멸
▁End
▁행할
▁po
▁장례식
▁삼각형
ball
▁↑
▁take
▁아름답고
▁40%
▁WA
▁불과하다
엠
십시요
oth
▁열리
▁장치가
▁교만
▁사랑할
나와
▁아메리칸
▁선두
州
치기
▁기업들이
▁도와줄
▁알려지지
▁화소
▁CAD
FF
App
▁하와이
▁하나씩
▁트래픽
rist
▁유방
▁요소들
▁DA
▁그리스어
▁북위
▁우승을
▁천재
치가
▁업계에서
▁방안
된다면
▁누워
▁표현하는
▁Now
▁87
▁싸우고
교수
▁없었고
▁LC
▁떠났
▁people
하니까
▁성도착
▁가져옵니다
▁백보지
11)
▁팝업
▁모양이
▁우리들의
▁찾습니다
▁깊게
▁내렸다
750
종이
▁RT
gal
▁왕국을
▁후보자
▁장소가
▁둘은
▁1964
▁순서를
▁처리할
uff
▁사건은
멀
▁회의를
▁수준이
▁아사
▁view
main
▁회사와
▁플레이트
▁지도자들
')
search
상이
▁오라
▁71
▁증상이
책임
▁application
▁스펙트럼
▁퀄리티
▁불행히도
▁수족관
▁database
▁악몽
▁친환경
▁그때에
아나
피트
▁로켓
▁FDA
▁지역사회
▁다큐멘터리
anna
▁2.1
▁경제학
▁신자들
▁나와서
▁막기
▁음모
▁실제적인
▁한국에서
녹
▁지고
CR
▁빌드
▁유학
안을
▁철수
▁재발
GI
프레
리나
해주는
▁복용량
▁관객
▁친척
▁지중해
▁하노이
▁Bel
들이여
avi
▁대다수
▁끊어
▁83
▁종교를
발전
모토
▁Dia
▁메가
▁현실을
▁늘리
▁기소
▁원시
▁끝났다
▁Us
▁높이는
▁기능과
▁캔
▁조류
▁자치
aff
▁분을
▁거주자
▁에너지가
▁정성
▁유연성
▁쓴다
▁뻔
주가
▁pl
▁정당화
▁Foundation
2.1
하더라도
▁살짝
▁적을
▁누군가에게
▁누구인가
▁평화의
▁부시
▁Tor
▁속도가
▁Santa
▁번이나
▁미스
판을
▁알았습니다
right
cul
▁고양이는
▁그다지
▁잡을
메일
▁자회사
▁just
▁말해주
▁않았다는
▁Ave
▁이르게
▁표면에
▁물결
▁도착할
▁there
cs
▁건축가
브리
▁보괄실
▁Bridge
▁상거래
▁프로그램입니다
▁적용되지
▁속죄
▁식단
산염
▁숫자는
▁Part
▁철학자
상은
▁안나
▁문서는
▁부르짖
▁종교의
tur
▁융합
▁암호를
▁무료입니다
▁인구는
▁4)
책을
▁질병의
▁원조
▁›
▁Firefox
▁브뤼셀
▁전립선
▁깨닫지
AB
▁링컨
▁PU
▁먹은
oli
1.0
28)
▁경찰이
▁곡선
DM
▁뿔
play
▁증상을
650
룬
▁신을
▁단어가
또한
▁정당한
종의
였어
개는
▁사모
▁과부
▁선택권
▁남성과
잇
▁연구의
▁저자는
llactionhost
▁가속화
중앙
▁60%
▁선지자들
▁다카
▁About
▁그램
▁용납
▁전문가가
▁기술로
▁살아야
▁인디언
mes
▁본질적으로
▁받아들이는
▁지켜보
▁br
▁생기는
▁대접
▁직원들이
▁표현할
▁패턴을
▁세계로
▁주일
하나니
▁나는이
마저
▁value
▁말과
▁효력
▁명상
▁급속
▁바울이
▁Ah
▁Log
▁Eco
▁vs
▁중국인
릭스
▁Corporation
▁못했
▁에어포트
하노니
▁포스팅
▁벽돌
▁변하지
다리
그래서
▁능력에
회를
unt
▁현상이
▁정부를
마가
▁서적
▁발표했습니다
▁피치
▁조직을
▁인생에
▁천국에
▁햄
ria
▁양도
▁효율성을
▁요점
▁인사를
▁잠언
En
320
▁비교해
▁이브
▁죽이는
노동
▁좁
▁요금을
▁read
▁수있을
▁관계자
하고있는
∼
▁사우나
▁Je
▁two
▁Online
▁기운
▁Val
▁DJ
▁트레일러
▁계산기
음이
▁쾌적한
▁언젠가는
▁캠페인을
식품
▁다윗은
이지요
▁기업에
▁안쪽
ico
▁명성을
▁편안함을
▁선생님이
UT
ique
▁실적
하도다
▁컬
▁Bank
▁레일
▁리모델링
원으로
▁판매하는
▁죽음은
였는데
봅시다
▁특권
▁음악이
▁WordPress
▁부끄러워
▁듀얼
▁기록한
▁간섭
▁종교는
길이
▁무려
▁것일까요
DF
▁Bra
▁담긴
▁있어도
DB
▁급여
▁이어지는
▁1080
▁편성
▁시력
▁딸을
▁락
▁hand
▁아직까지
▁위상
▁입력하고
▁였
▁이전에는
▁시작되었습니다
▁이성
brand
▁타임스
콜걸
플러
▁건조한
2.0
▁투명한
▁룸에서
-05
pon
▁GP
í
▁콘크리트
JPY
▁핵무기
부인
rain
AF
▁장악
▁반대하는
▁SMS
▁건축을
▁주며
▁File
▁장수
▁적도
▁버렸다
▁그리스도교국
▁타사
▁안락
▁FAQ
▁지도에서
▁이끌고
▁다가오는
▁매력적
▁병원에서
▁아니하
어머니
▁끌고
▁조기
VPN
▁보호할
▁샀
▁변화하는
정의
받았
▁엘리자베스
▁쿼리
▁매트리스
▁서버를
▁청정
▁이래로
▁있었죠
▁ᆞ
▁Korean
▁헤더
파티
▁험
▁사망한
▁시장은
ati
▁에코
각주
님께
▁놓을
DO
▁White
TU
back
pan
▁가루
▁경비
▁최후의
▁적극
▁수색
▁총회
▁최첨단
▁Cisco
義
▁부딪
▁첫날
▁그분에게
rad
▁세금을
상에
▁의미하지
▁일환으로
▁질병을
▁징후
▁찾아오
▁Fu
▁용서를
▁드릴링
해라
▁얻습니다
▁모욕
▁Mat
▁과정의
▁계신다
스토리
기념
▁이론을
▁750
▁아이슬란드
▁개봉
▁파장
▁않아야
▁솔루션은
첫
▁기사는
하였도다
▁8.1
▁비탄
any
▁협력을
▁리터
▁재정적
▁성공할
왔던
소녀
씬
▁헬멧
▁의견이
▁Internet
▁안에는
▁서면
▁Las
▁삽니다
▁지능형
▁조달
▁멜번
▁단계로
vid
▁관세
관이
어는
▁신제품
One
▁남기
▁충동
▁나열
후에
▁힘은
▁Back
var
▁창세기
▁추가합니다
2012
산화
▁First
▁철회
뮤
▁key
▁부르고
Lo
▁CM
뱅
▁윤리적
▁지구상
▁어째서
20)
▁제자들에게
▁놓는
▁아니냐
▁James
▁동경
▁보호하고
▁ᄏᄏ
▁동화
▁엔드
하였기
▁요구되는
▁대체로
▁아들과
▁최소한의
▁나타낸다
하더라
▁튜
포인트
4.4
그의
▁간단하고
▁이탈리아의
▁필요성을
▁설치되어
▁내용에
▁1.7
▁기념일
▁위키백과
の
▁속임수
▁PornoX
▁레슬링
▁마리오
▁아픔
▁데스크탑
었음
이름
유료
▁원하고
▁UC
▁일러
▁애정
▁즉각
스럽다
났습니다
ett
▁DNS
550
▁침례를
▁Room
▁생각하게
'(
▁포괄적
낙
▁왕에게
봄
셈
셨나요
▁But
▁아닐까
▁이해하
▁개성
▁전념
▁(8)
▁바라보는
▁다림질
▁믹서
▁차라리
▁따릅니다
▁호랑이
▁타이베이
▁구성하는
▁HDMI
▁탐사
▁죽기
하시나요
▁천막
그런
▁페루
▁앨
컨대
▁포크
oma
셨고
▁적색
▁중요하게
rom
▁변화의
▁중세
흔
▁계수
킴
서도
▁편리
▁취사
▁영광이
▁잃는
▁효과는
▁(25
▁벽에
▁먹는다
▁Product
▁https
▁인스턴스
협력
면에서
▁말며
▁누군가는
나를
▁준비하는
240
▁곧바로
▁걷고
▁경고를
▁있었습니까
▁알아보십시오
▁IV
▁망치
111
▁우연히
▁도시로
▁은혜로
▁지부
자원
▁1962
▁해커
▁국제적으로
▁개척
▁비율은
ement
vol
▁길고
vision
▁Mr
▁미래는
els
▁말씀하셨
▁부근
▁관대
cat
ection
▁기억하십시오
놓았
▁지원하지
▁Yu
학원
▁재생할
▁통보
▁Lord
▁79
▁기억하는
▁지상에
▁께
3.5
Po
▁혈관
▁특징을
ious
▁동향
▁겨울에
▁미만의
▁노력합니다
▁온수
▁불신자들
33)
-80
▁선수권
▁않아서
▁재즈
부장
▁함을
▁과도한
▁Cam
▁간직
▁Are
▁심리적
▁소모
▁쇼를
▁Site
-27
▁지금부터
▁적대
▁벤치
▁수준으로
31)
▁1:1
▁전쟁에
▁편하게
시의
▁끝나면
▁입국
▁사회가
▁데려다
▁속해
츄
▁천하
상으로
▁주민들
anda
Wolf
▁영화가
▁Year
▁무섭
▁함이라
▁비롯하여
tical
▁교회에서
▁확실하게
▁고객들은
5-
▁우리들
누스
space
15)
▁법은
▁암살
▁Sex
▁대조
▁영혼의
하냐
▁영화제
▁하였으며
▁재료를
▁요시
gh
잎
168
ally
그라
ways
▁시민들
▁한번도
▁바꾸고
▁잃지
▁파라다이스
0.2
▁상호작용
▁Program
▁도와줍니다
▁산업에
▁가까워
▁Multi
▁히트
▁차지하고
ICE
race
▁심하게
-35
▁GO
▁아버지께
▁근심
만큼이나
▁재현
▁시각적
▁이제까지
▁적용할
▁내는
▁동의하지
▁CV
▁HE
금융
하네요
▁보유한
med
▁삿포로
▁―
숫
▁조직에
▁목소리가
▁제물
▁iTunes
▁딸딸이
▁아이에게
▁캠핑
▁레이싱
축구
▁근본적으로
▁찍은
▁자전거를
▁Pin
▁뜻대로
▁스틱
▁집어
▁라인을
▁찾은
▁편이
그램
▁기밀
이런
▁처리를
▁da
▁Suite
▁없는데
▁손자
▁02-
▁고안
▁정수
pen
▁배반
해왔습니다
ional
▁수행합니다
▁수축
▁감정이
▁신체의
▁자녀들을
▁크로아티아
됐습니다
▁침착
렉스
▁치르
▁황폐
▁되는데
▁희귀
▁UI
▁남는
▁약제
▁함정
아웃
2,000
▁비닐
▁5.0
▁천문학
▁지역으로
▁석방
▁고려할
▁음주
▁그들도
센트
▁독특
▁질을
▁환영하고
▁건의
▁OP
▁者
▁Uni
권이
▁Ed
▁NY
▁아파트에
르기
▁얼굴이
▁기록은
▁캐비닛
▁퓨
▁지났
▁음향
▁파라오
▁←
▁창설
▁비슷하게
▁숙소에서
▁설명한다
▁1963
rap
▁일부입니다
▁고개
▁붙들
▁일원
duc
▁Camp
▁쳐다보
▁SI
▁경치
▁감사의
▁하나님으로부터
혔다
▁Bri
즐
일보
▁싶어하는
▁필요해
하나님은
dr
▁반응은
▁선택하여
닷
▁Family
▁아날로그
▁파노라마
▁버지니아
年
ᄅ
▁워크샵
▁Manager
▁브로커
rie
My
▁베이비
영상
하게도
▁진동기
그것
▁알려졌다
▁처리하는
읍니까
..."
▁말하되
물론
TL
▁평화가
▁back
▁인정하고
▁이방인
단은
02)
▁신청을
▁타이트
▁주어야
▁쉽
▁흐르
재단
▁배려
ith
친다
바르
▁Master
29)
흑
▁주었
하시오
밋
▁맡겨
▁작풍
▁본선
▁쉬워
▁관해서는
하소서
nor
▁Tech
▁어머니를
패스
▁세계적
▁판매가
▁위치는
▁필요없
264
기까지
arm
▁처형
▁간구
▁들어오는
▁높고
▁문이
▁푸드
▁바에서
▁수상자
▁DB
였죠
점은
▁하겠다
버렸다
▁보였
오니
▁AV
쿠라
춰
▁Tel
▁건물의
▁입단
▁NuVid
san
El
▁세번째
▁레오
▁소아
▁그렇죠
▁수사
▁섬에
/6
비자
어가
▁Dan
▁금형
▁들어갔다
▁베푸
▁세일
▁』
님들
▁광경
▁사람들에게는
▁자산을
▁가문
▁크레
-29
▁있나니
시가
▁그릴
▁z
▁카라
▁애플리케이션을
▁없음을
듀
▁임무는
書
▁극대화
▁충고
▁직원은
미나
VR
▁수령
선수
▁면허
▁활용하여
▁대신하여
▁change
ions
cia
▁91
17)
▁->
▁분기
▁두여자
uel
▁행하여
▁한남자
▁Cla
오피
▁매월
니카
▁개발하는
▁!!
123
행정
dd
[3]
섰다
▁남용
▁Bus
▁나타나지
▁신원
▁커컬드
▁AL
수로
▁허용되지
▁CR
▁통치자
GF
▁Plus
해드립니다
▁Audi
▁생산하는
▁저지
▁연애
▁근방
inch
▁신속한
▁버리지
▁일자
로부터의
▁응답을
▁부러
되었다는
KA
▁더블린
▁홀더
xy
▁규
▁여호와여
▁[4]
스트로
▁걸친
▁재해
▁그만두
▁min
▁장소로
▁프로젝트가
▁워치
(7
려서
▁시스템으로
라고도
앗
3000
▁"[
☆
텀
▁돌이켜
▁조만간
ᄒ
media
▁비로소
▁현황
▁사용하도록
▁포털
표준
▁복장
하느니라
세기의
▁착한
하긴
포드
▁자기에게
▁그라
▁인도의
lis
▁드문
ONE
▁진행되는
ral
▁기르
▁TEL
▁거리가
▁서구
▁똥
▁프랑스에서
▁앱이
▁하시며
▁History
▁하드코어
▁앱은
▁간절히
으로서의
▁화살표
▁있노라
lli
▁생태
▁숫자가
IE
▁읽지
단지
▁붓
▁이럴
▁저것
▁감시자
rick
lam
▁위조
▁레저
▁나팔
ago
▁원주민
▁자신은
▁하고자
▁별명
▁잠재적인
켈
카타
라며
"".
▁공산당
▁Search
▁관제사
▁탈퇴
리언
▁MOQ
▁Beeg
▁인상적인
▁바이트
▁유럽연합
▁스스로에게
▁커튼
년전
▁생각하십니까
▁넘겨
▁명확히
▁일체
▁당할
get
▁기술자
mont
▁성령을
바시
▁연약한
▁갔습니다
▁욕실은
읽기
상에서
-200
선생님
▁내려다
▁취급하는
▁방문을
▁상사
▁부합
▁길게
코프
▁FL
하셔서
▁EM
▁친구들을
▁대장
word
▁5,000
▁처해
욥
웹사이트
▁어디서나
할수
▁무력
▁나트륨
▁메서드
▁허물
▁습득
그러므로
▁맥스
▁분홍색
으세요
▁한계를
▁저지른
▁관련되어
▁외환
water
시까지
▁서서히
▁히브리
pho
All
▁제공자
▁고지
2013
▁스킨
▁105
▁심리학자
▁아브라함
수단
물에
▁run
▁세우고
▁노력할
▁게시판
▁제자들이
▁파는
▁표현을
주의적
▁구멍을
다시
(?)
▁가져오기
▁HS
▁엔진을
▁도시가
첸
▁둘러싼
출장샵
▁티셔츠
▁Twitter
▁Palace
▁경쟁자
▁Will
▁몬스터
▁암흑
▁스레드
▁내버려
rk
▁향상시킬
▁만들어야
▁같네요
cd
심으로
된다고
▁양극
mat
▁나무가
▁전진
▁플랫폼은
pt
▁국왕
ida
rum
▁모를
놓은
uch
▁이어질
▁넣으
▁넘어가
이있다
▁죄의
▁뚫
▁미세
시민
CL
내기
▁못하면
▁맑
▁당연한
▁화면을
▁할지라도
▁25%
▁적외선
▁대성당
▁지원하기
▁칼로리
▁겨
▁their
▁IEC
공식
1-3
▁home
▁협력하여
드의
▁way
▁Ser
▁직접적으로
▁SU
▁편리하게
▁Mont
▁피하는
▁자녀에게
랙
▁code
▁아라
있고
▁흐름을
▁곱하기
▁잡은
▁1966
▁자들과
ette
분들
▁높게
▁산업에서
ike
▁픽
하였음
/12
▁시즌에
▁수소
▁한달
▁말씀하시
▁주최
▁내세
▁콘테이너
량의
▁감싸
▁신선
▁대리석
tar
▁바에
▁외치
▁Form
▁했다고
▁발전소
▁넓
본부
▁SGS
▁복이
▁본능
▁기억이
▁속도는
▁루터
워즈
그녀는
▁착수
임이
▁부름
▁전체의
▁끝나지
▁날짜가
▁Ki
▁기억을
▁벌금
▁방문해
▁인간과
▁come
▁선도
▁사이에는
▁한국인
▁글쎄
▁직선
▁information
▁뉴스레터
▁물의
▁받아들이지
▁분명하다
▁딜러
▁제안합니다
▁봉투
▁캐나다에서
하였는가
▁Hy
▁몬테
리온
▁가량
▁Net
▁표현은
▁PD
▁응시
▁걸리지
▁Mag
▁친구의
▁참가자들
▁전술
▁유지합니다
▁1%
▁회원들
▁인정하는
▁채소
▁명명
▁되죠
▁발레
했지요
lit
▁(24
년간의
park
▁정액먹기
▁휠체어
짱
▁hd
▁말씀과
▁(2019
▁이모
▁광선
▁침공
▁폴더를
ima
▁부분입니다
▁her
▁안개
▁하단
gr
▁힘과
▁마루
▁기계로
▁아이디어가
▁모순
▁친구들은
▁당사국
8.5
할때
긴다
▁걸렸
▁미래가
▁인구가
▁찍어
▁그루
▁일본에
▁도달할
스러워
▁Residence
▁사업자등록번호
▁엔터프라이즈
▁아니하였
▁장학금
▁싫어하는
▁당시의
▁공간에서
▁입는
▁관리하고
▁list
▁대표자
▁하매
▁덴
▁카사
▁주위를
▁독립적으로
▁유죄
▁지나지
▁Sign
하지도
▁신기
live
▁1961
▁선사
▁없죠
▁여학생
▁조종사
▁방침
face
▁Lin
▁Dream
▁그런데도
▁발견하고
▁역사와
▁선택하세요
▁이번엔
데일리
▁운동은
▁나비
▁접합기
▁끝나고
▁씻어
▁훈
▁칼리
써
▁구호
▁Enterprise
公
▁받으면
max
▁계십니까
▁Johnson
▁버리는
▁좋아할
▁사라질
gate
oi
▁능력과
▁이름에
bel
즈는
een
▁포기하지
▁의무가
▁목표가
▁배웠다
▁분별
▁Bal
▁정한
▁여행객
모리
▁예루살렘에
▁기다려야
uan
▁불에
▁나누고
▁우울
din
▁저지르
gram
ery
PD
으니까
(8
있지
▁GT
▁처리합니다
▁고소
Car
▁공연을
감사
▁일러가로되
▁Exchange
理
끄
▁원소
▁거슬러
빵
▁Gold
▁샘플을
▁입지
에베소
▁귀족
▁아빠가
인도
▁명령에
▁어렵지
베이스
lie
▁Bon
생각
Sa
gene
하시겠습니까
script
▁Bit
▁바벨론
3/
▁동물은
ified
▁Poly
▁끝났
▁회담
▁제곱
▁움직임을
하매
HP
109
106
tics
쉽
wer
iro
▁Association
▁스톡홀름
▁멈출
▁낡은
▁관련한
이었을
▁꼽
바다
→
▁북극
▁RC
▁산맥
율이
겠네요
▁Kar
▁인식하고
(12
▁프로그램과
▁동참
▁service
사람들
▁대답했다
▁3,000
▁방문하여
34)
▁이로써
문자
▁기록했다
▁춘
봤는데
▁듣게
▁오크
▁일본은
▁코드는
2011
▁1948
▁시작해
▁시각화
▁모세는
pin
주었습니다
▁조국
주신
▁fa
▁ass
▁보였습니다
▁업데이트는
▁교육의
▁고아
▁말았다
▁돋
롭지
▁제품군
▁믿으
▁빚을
▁object
▁철저히
▁큽니다
▁Hostelworld
▁설문조사
▁OLED
▁아홉
ᄋ
옵션
▁차세대
▁혼인
▁수십억
nal
▁기울
ese
▁성서에서
▁사건들
▁1967
▁기계의
자마자
▁깨끗하게
하심이
▁모르겠
▁기쁨이
이시다
▁처리된
▁참여한
▁올랐다
▁사용했다
▁내부에
▁하라고
▁지혜가
▁대책
▁일어난다
▁화산
블리
▁분들께
▁qu
▁팽창
▁다음글
▁글이
앵
▁커피메이커
▁완전하게
▁아키
▁오븐
▁HIV
▁포착
▁내려오
디오
▁출간
zz
GP
▁가능성은
▁메디
0-
▁들리
26)
▁학교의
▁따르지
▁결정했다
▁당신들은
▁높이고
▁움직이지
레이터
led
▁PO
▁전문가들
ree
▁1/4
▁주제는
(1)
erson
▁106
▁되시
▁마술사
ᄃ
▁삼위일체
▁샐러드
城
▁심지어는
▁국방
▁class
▁식탁
▁멘토
▁더욱이
▁지각
▁신앙의
▁팔을
쟁
▁방지하기
▁연례
▁있었다면
▁뷰티
▁버전이
▁올릴
▁장거리
mag
▁기억해
▁아크
▁2.3
▁1944
▁통역
4.5
read
바람
골을
ame
2008
▁확인하세요
▁example
▁간호
▁야곱
▁맺고
eek
였지만
aka
▁화면에
▁자신감을
▁유저
nis
▁있었다는
같
▁키가
▁시간대
7.5
cover
▁인식을
▁(30
▁마다
SL
▁존재가
▁일광욕
▁Azure
뚜
▁함께하는
▁스팸
▁용지
▁위스키
rian
IX
▁인류에게
▁레이블
▁동정
▁320
▁피우
므
▁함으로써
▁부자가
▁동적
타워
▁모습으로
▁금방
▁충분하다
▁포함되지
▁이것도
▁맞추
▁가나
▁주체
▁그러기
슨은
▁숙소입니다
▁어렵
▁선택해야
▁지워
▁VipTube
▁취리히
뜻
▁교수는
▁넣는
▁실질적인
▁AWS
▁집착
등을
▁포인트를
그녀
▁mod
▁펜션
아서
▁오토
▁times
▁병에
▁카이
창조
▁점입니다
▁상업용
▁1949
SU
▁유기농
▁1958
▁꿈꾸
▁마태
▁일이었다
더라고요
▁대리
▁무언가가
▁들어간
잖
▁파생
▁증가하는
▁학생은
지에서
▁따르고
▁기대를
▁웅
▁권장합니다
ン
▁바뀔
ras
철도
▁놈들
▁원심
▁신중하게
이었는데
▁정신과
상자
▁어른들
▁맞추어
▁페르
자동
▁플레
▁OF
▁미국을
로도
-31
▁식사는
▁원인을
▁6000
▁마비
▁사람인
푸르
제의
작품
▁자동적으로
▁연금
888
work
▁그룹이
▁이스라엘이
▁108
▁op
▁알렉산더
▁휴대전화
▁앨리스
시간을
▁스윙
▁짧은머리
ius
ym
▁드롭
▁XML
▁특색
▁Report
▁토니
▁되어서
▁출신의
바로
▁Food
Te
▁특징은
▁Intel
전체
▁SF
mor
▁타기
스케
▁아십니까
디자인
ND
▁동반자
▁호스텔은
TY
▁릴
▁수있었습니다
가지의
▁가까이에
▁CT
권은
▁장사
에게로
▁법의
▁선택의
▁전하는
18)
국은
▁동물이
▁당신들이
▁시리즈의
▁채우
▁결정했습니다
VER
▁용도로
▁행복해
팡
新
之
▁세계대전
이었
▁사라졌다
▁Guide
▁조정가능한
▁보내신
▁Apartments
World
▁관례
▁사업가
▁하버드
▁체재
▁Lab
▁CL
▁어때
▁떠나기
▁보이게
▁미쳤
▁히브리어
연히
▁목표에
결과
▁바람직
등급
▁드려
▁등에서
▁담은
▁합법적
부문
▁기인
▁비밀번호를
▁쓸모
▁병력
chan
▁버스를
---
했으니
주문
▁위치로
▁오게
이번
▁나카
▁여러분들이
▁부모를
lum
▁몸과
▁Skype
▁정직한
oon
▁다행히도
▁승자
▁조상들
▁다룰
꿈
▁개편
▁여는
절을
▁치명적인
위해
▁일본식
▁트레이
▁공무원
▁쇼핑을
▁항공권
▁있어서는
arr
▁나누는
▁도구입니다
▁면도
마는
란드
워크
KI
265
Go
▁동일하게
ku
▁섰
▁담대
▁띄는
▁Ku
▁조직이
▁갈아
FM
~20
▁정답
▁돌아가는
▁Excel
▁답했다
Man
▁제외하고는
▁들어갔
아트
▁최선
▁Chrome
▁UEFA
▁공화당
▁지팡이
▁판타지
▁슈퍼마켓
▁섭리
▁드라이브에
▁지혜와
▁긴밀
▁한마디
王
▁대항
▁행위는
VO
▁동원
▁너머
▁230
▁요구합니다
GM
▁걸어가
▁소리로
▁자기들이
▁파랑
말씀
▁국제적
▁여신
▁폐기
조정
▁장래
ROM
▁비데
속도
▁위원장
배우
▁증인은
hz
▁운명을
▁부재
노스
▁보디
▁유연
▁자율
사용자
▁사용되지
▁염두에
▁must
▁쓰러
pal
받기
▁편집자
▁폭격
전략
▁앉으
▁(2010
▁수신기
카르
316
▁만나기
▁않나요
▁응답자
더라구요
DD
▁PHP
▁1947
city
▁증거는
낸다
▁질소
▁설립자
▁상상해
목을
▁올린
▁물로
▁처한
▁않았다고
▁딜
해온
▁인간들
▁SAP
zy
▁su
▁KBS
TX
▁Services
▁Breakfast
▁뒷받침
exe
우치
전문
▁위를
▁고통스러운
▁다스리
▁모험을
▁운항
▁없느니라
▁달성하기
▁고위
phone
듬
텐데
폴리
좋
Di
특히
▁잉
▁지분
▁보내지
▁차량의
식은
▁등은
▁이용됩니다
▁때를
▁자체로
▁Sol
▁아름
▁사방
▁카드는
So
▁유권자
485
site
▁아기의
▁견고
▁iPod
▁갇혀
▁스낵
▁몽골
▁뇌의
▁혐의
▁성령이
▁이득
▁분노를
▁요청한
▁이루어지는
▁비활성화
orn
▁냄새가
▁남편을
▁필요도
▁1941
▁기한
▁버터
웃
글리
▁밖
▁어미
▁여자와
▁예측할
▁Gal
▁강점
▁충전물
▁펀드
even
하느님
▁명령어
▁높일
▁막는
▁전신
▁탄력
▁증가했습니다
▁종목
▁출원
▁비율을
▁메타
회장
▁묻지
램
▁Source
▁바꾸기
▁같아서
▁전선
▁Direct
동이
▁솔직
▁우물
▁상용
▁욕실에
▁Western
▁종들
▁코미디
▁ne
▁Sand
▁귀환
해집니다
▁들어올
▁학살
이건
냉
▁받아들이고
하느뇨
▁산을
▁옵
7,000
310
▁Fort
함께
▁벌레
▁성격을
▁황색
▁나폴리
따라
그레
sun
▁년까지
▁Sub
▁전후
▁환자에게
▁항문의
▁GS
▁복구하는
▁(2009
▁고집
▁조각을
▁ᅳ
▁◇
무라
▁찾으
▁섹스를
▁올바르게
▁하룻밤
▁following
▁결핍
▁나고야
▁Mini
▁합쳐
▁견본
▁소피아
24)
▁BO
▁이루어질
▁시즌을
쌍
*2
듣
▁좋아하고
▁시작하면
▁하느님과
▁영을
▁수치를
당했다
을때
▁신들
▁TA
▁문의하십시오
▁앉아있
▁품종
잡담
▁그림은
▁외장
▁좋으
▁진보된
스럽
▁치과
▁실수로
▁숙박할
▁청중
▁USA
▁치료에
tail
▁의상
▁여성과
▁웬
[1]
▁그리스도인들
▁지형
▁이쪽
▁왔고
▁이어서
왔고
복지
▁찾아볼
itz
▁접근성
국민
병을
▁Map
▁vi
▁필라델피아
▁로맨스
▁[+]
어라
▁깊
▁115
▁도움이되는
▁싸워
▁운영자
얀
▁풍성
▁슬프
미가
▁바라보고
▁의식을
셰
▁찾아가
▁감각을
GE
ua
▁스팀
▁주소로
▁쿨
▁셀프
▁간단합니다
▁드라이브에서
▁Lee
▁합당한
단이
▁고유한
▁얻으
▁누드
ference
bol
▁1955
▁아시는
▁dr
▁빔
▁얻는다
▁하리니
▁두개
▁살인자
▁Instant
▁다채로운
▁밴쿠버
♡
▁should
▁et
셨으니
▁어린이의
▁KO
하거든
▁판결을
▁사람이라면
시니라
CU
▁개개인
▁덮어
▁코리아
하시지
▁Bre
▁우회
해줄
▁믿음과
▁봤다
▁아뇨
▁창조적
VI
▁₩
▁묵상
▁하버
▁gr
▁양이
▁언어는
FL
▁UP
▁싸웠
▁u
▁아담과
▁문화와
▁add
▁패키지를
▁싱
▁SSD
▁언급된
버렸
업계
▁나이지리아
長
▁디저트
▁방정식
▁가리키는
▁치마속
▁3.2
▁국립공원
▁곳의
▁모르겠지만
▁베이브
▁온전한
▁에로
▁//
▁굳
▁프라
▁종류가
EO
▁추운
uro
▁궁금한
▁비용으로
▁싸움을
주차
▁play
▁SSL
만일
▁덧붙
▁가설
▁폭스
▁Fair
▁초등
▁투여
▁댄
▁가능하며
▁Rose
▁배로
▁음성을
▁조리
재료
▁1/3
전시
▁한명
▁PV
▁왕조
이네요
▁숨겨
▁DM
▁진료
▁해변에서
Bo
맷
軍
▁리버풀
▁also
▁135
▁열렸고
▁look
▁없으므로
▁구조물
▁배수
▁터빈
▁편에
▁PL
▁Party
▁1600
▁제트
▁해설
▁우리들은
성장
▁역임
▁누나
▁있네요
▁파리에서
▁table
▁상영
▁과거를
▁Los
▁Wal
토스
▁모인
▁베어
▁블로그에
ender
▁시온
▁Access
▁한동안
▁협의
▁이룬
▁Digital
▁Test
▁기기를
▁간이
▁파이오니아
andro
知
▁칼슘
▁프랭크
▁문화에
▁시가
▁포켓
▁계신가요
온다
▁아이스
▁Sen
raw
▁메뉴를
▁색깔을
▁Ji
톱
▁치킨
▁지식의
마사지
▁생겼다
갓
▁일부로
ote
▁허가를
▁기적을
▁기억해야
▁시작해야
102
▁자체를
▁곳이다
PU
었노라
▁목자
하듯이
레인
▁범위는
했나
▁퍼지
▁저장하는
▁입원
▁연구자들은
▁Limited
▁Ocean
195
road
▁1939
▁사용되었다
▁기쁜
▁전염병
▁live
▁고수
▁되었습니까
▁안의
▁위험성
▁자바
▁가나안
▁금발의
[7]
▁파업
▁방면
▁딸아
▁만들어졌다
▁NI
▁자녀들에게
▁주류
▁Alot
▁감추
sil
Get
▁Public
▁남긴
▁과학의
▁방법이다
▁Ice
바닥
투어
zer
▁지불해야
▁뿌리를
▁뜻에
▁보장하기
▁미국에서는
▁경관
▁(2007
▁달러에
▁보여주기
▁정해진
실제
mart
▁fl
▁인도하여
▁문법
gra
콕
▁15%
▁파일럿
▁중국이
▁시공
▁States
▁저술
▁실패한
ency
▁제품으로
▁pi
~4
▁이른바
억원
▁상어
tus
▁어머니와
▁Times
▁3:1
205
azz
▁따른다
stone
▁보장하는
▁땅은
▁사귀
▁죄인들
▁소외
▁취하고
▁감사하는
▁소녀는
▁작품이
야말로
▁않은가
ᅲᅲ
차례
▁빵을
~5
시로
▁군함
미니
isk
▁구석
구매
▁스폰서
▁프록시
▁멍
▁이루어집니다
▁목욕탕
▁놓으
▁생각나
▁LE
rent
▁척추
▁중요하다고
ular
ses
▁어렵게
들처럼
▁당사에서
▁행위에
▁du
▁동산
▁빼고
▁Anti
▁다루고
▁받으며
▁발전에
▁group
연맹
▁취약점
▁컷
해졌
▁발생한다
pub
▁요구할
▁보았을
캐스트
▁HR
▁확률이
380
▁결단
쿠키
▁레터
▁마친
aki
▁ᄀ
▁여러분도
갤
▁헬리콥터
▁트윗
▁어쩔
▁자비를
▁달의
▁전투기
교통
▁여행에
▁Col
▁웹사이트의
fil
▁욕심
▁제조업
▁뉴욕시
▁짐작
시어
▁구성됩니다
▁너희들은
▁부분으로
▁전역에서
▁상태는
▁염증
▁역학
kh
▁맛이
▁카드가
▁비어
▁불량
▁캄
▁used
컴퓨터
▁놀고
덜
▁부팅
▁맡고
▁정상적으로
이냐
▁아프리카의
▁따위
▁예수님께서는
▁create
▁깨달았다
▁별을
▁병이
▁채우는
135
ible
38)
▁사랑하지
▁해독
▁허용하는
▁그들로
▁진행되고
었는가
▁test
셉
▁보아야
▁팀과
▁벽을
▁숭
▁이빨
5*
▁산업을
▁먹이를
▁가볍게
東
▁마카오
하셨습니까
▁내년에
struct
▁묻고
▁대행
▁리듬
▁눈앞에
▁사마리아
▁피에
▁추락
▁차이점은
▁진실은
▁두는
시안
▁아이디어는
▁나쁘지
리로다
103
lb
▁고마워요
▁병합
▁sha
▁흔들리
▁뜻하는
절에
▁Pen
푼
▁없도록
National
▁죽는다
▁Every
▁개발할
▁테크
▁로열
▁중부
▁독신
▁유용합니다
▁Pal
▁경제적인
▁확신할
▁침례
▁주리라
▁멋지
▁노래는
블러
▁외모
제국
루트
스틱
▁Mus
▁사면
▁마을에
ska
▁노력은
▁못했던
▁귀에
▁지옥에
첼
dam
▁마셔
층의
▁부부는
▁전통을
▁스코
▁땐
▁주먹넣기
▁구강
▁흡입
▁걷기
▁바가
▁Know
했는가
▁화해
▁후지
▁근대
▁누락
▁보편적
▁현실적인
▁막대한
▁클릭하세요
▁입어
▁복잡성
▁적극적인
▁페이지로
▁무죄
▁뚱뚱한
언어
▁아니할
pre
첨
파수대
▁뉴스를
▁Just
▁끔찍
▁탁
나오
▁Arm
▁순종하는
▁Plan
▁미생물
▁싶다고
▁골라
획
▁ho
▁드렸
▁사업은
▁맑은
▁범인
▁먹었
어져
▁입에
▁Space
▁걸으면
타나
▁Vin
▁Software
▁바르샤바
有
▁알고있는
▁챔피언십
TN
▁George
▁회의에서
▁크로네
▁때문이라
▁미국으로
▁런던에서
▁평온
▁뜻입니다
▁Exp
▁없었어요
▁코딩
▁방패
▁정죄
▁102
▁씨발
▁빛은
▁역할은
▁지식은
▁공장은
▁건물에
▁선택하면
▁결말
사람들이
▁아파트에서
▁판단을
▁생성합니다
▁외상
▁해상
설명
▁명시된
▁재미를
▁지도를
▁해준다
▁희생을
스러웠
▁사무실에서
▁주제로
▁어떻
▁끝나는
▁빠르
▁시계를
▁좇
▁아브라함의
▁여자들이
▁Mel
7.1
▁합당
▁Bluetooth
▁컨설턴트
▁밧줄
▁Standard
▁얼룩
▁타이밍
▁혈압
▁넣은
▁기대하고
▁허용합니다
▁싶습니까
▁따뜻하게
출력
▁무효
▁동의를
13)
▁봐요
point
딜
깃
▁경기에
이탈리아
SR
러닝
스럽고
▁신자
▁Over
▁읽었
사전
▁프로그램으로
경찰
둥이
3.1
▁의복
지식
▁성경에서
▁연관된
풋
▁망원경
▁스타트업
▁최우선
▁바닷가
定
▁컨트리
▁작용하는
▁부수
▁텐
▁report
▁필자
벌레
▁엑
▁싶었습니다
▁using
▁확신합니다
▁NA
▁트럼프는
부르크
▁번씩
▁자유의
안에서
OO
▁지리
▁Pass
▁123
product
▁사례를
▁때문이었다
옴
▁Blo
gs
조의
▁사회는
▁청동
LU
▁온도를
▁선택에
▁들어온
▁센터에
230
▁들어가지
▁위장
▁글은
▁그리스도께서는
▁케이블을
사람들은
▁머물기
▁하느냐
▁방영
▁04:5
륨
▁행동하는
▁고린도
▁이용약관
닛
▁중소
▁기록되어
dis
▁장기간
▁깨끗하고
IST
▁method
▁움직여
▁Machine
▁독수리
▁process
▁고강도
▁구약
▁다르지
▁스테이크
아라
▁없으니
▁순례
절차
▁Fr
마크
▁행정부
ense
▁생겨
개혁
▁도표
▁some
뿐이다
▁통행
▁TH
▁되는지
기준
▁선임
▁잠재력
▁0.7
▁텐데
▁Kong
앱
[4]
▁죄수
▁불쌍
MAX
107
▁수익성
▁Main
▁리본
▁산호
▁내밀
960
▁들어와
▁키우
▁옵니다
▁뽑아
▁(26
Mi
▁눈치
▁기차역에서
▁나만의
▁영이
▁550
뭇
▁몬트리올
▁횟수
▁공용영역
file
▁재능을
▁메트로
▁좋겠습니다
▁스탠드
ould
▁밀리
▁파산
시리라
▁돌아가서
▁비행기를
우기
▁병사
스트리
▁본사를
터스
bil
John
▁유대인들
gel
156
▁품고
elle
ink
▁2.8
▁뿐이라
▁베리
ude
하든지
레나
ept
OM
▁순간이
▁원칙에
▁찰
▁남아있는
아스
▁것이오
▁컴파일
하나님께서
н
▁죄책감
▁바뀐
▁지사
▁미용
▁별도로
▁로타리
▁둘러싸여
조에
▁올리브
▁나무의
미노
▁멋
▁더하여
▁TOP
▁기록이
▁Let
▁사람에게는
▁좌절
▁심어
▁밀려
▁아니하면
▁BTC
▁산에서
46)
▁전역
▁디모데
▁반응이
보장
검색
▁대변
▁수동으로
▁즐기기
▁친화적
▁문제와
▁써야
▁과장
▁의미로
▁회사입니다
▁Walk
▁Why
WD
▁보전
MU
▁측면을
Un
▁전문성
광고
▁자란
되는지
▁스타디움
會
▁백악관
▁어차피
▁비웃
▁그러지
▁벗어날
▁연락하기
print
-86
▁스피
▁내셔널
▁문헌
▁크라운
▁짜증
▁불린다
▁집의
▁does
단위
신세
▁맹세하
▁give
▁세균
▁많았다
▁에덴
▁정교한
▁장막
주십시오
▁직원의
난다
▁직장을
쥬
▁시내까지
▁없거나
▁여겨지
줘요
▁HA
▁실재
▁중복
▁ODM
▁피크
▁관계에서
▁일종
▁모색
사관
▁95%
▁사후
UI
FR
▁목록은
오카
▁비스
▁Cy
놨
安
性
빌립보
▁아무래도
▁알바니아
▁사소한
▁개발된
▁믿었
▁공지사항
▁장면을
▁신중
▁결과물
주간
tter
▁사라진
▁바코드
ington
▁걱정할
inger
▁열심
ald
Ra
▁효소
▁최상
폴리스
▁당시에는
▁연설을
▁수도원
▁오만
▁맡았다
▁알람
kW
르노
SF
특별
▁변명
VAC
▁Luc
▁잔인
▁동정심
▁다크
▁분들에게
▁설치를
▁브랜
XX
▁조금만
▁역대
▁조직은
위원회의
del
▁지리적
▁벽지
▁당하고
▁어셈블리
▁일본유부녀
▁그물
▁일관성
▁카펫
▁Nov
▁Son
▁적용될
▁도와주세요
율은
▁대립
▁살았던
▁출석
포함
▁모르겠어요
▁시절에
ESS
▁색상을
▁하나이며
하리로다
▁포함해
▁William
▁멘
▁현명
▁바를
style
▁활력
▁NT
▁Fun
섹
3.4
▁104
▁연회
▁삼아
050
햄
▁시작을
lat
▁메일을
cr
▁1918
▁창조하신
▁절약할
36)
FO
▁아세테이트
▁국회의원
▁provide
▁진흙
▁Spring
pornia
독일
▁덩어리
▁계승
▁트리플
2010
1-4
▁스노우
▁본인이
▁대다수의
▁쓰여
종합
wo
▁해로운
▁강렬한
휘
▁우릴
▁여자들은
▁것임
영업
▁클릭하면
▁반전
달라
▁Get
▁주물
▁치는
크로
▁여군
▁플랫폼에서
시리즈
▁Girl
업을
▁교육은
awa
하다면
▁전화기
▁모습은
▁대의
▁의사를
▁WI
▁명심
▁모두들
개국에서
▁즐겁
BE
공업
ᄉ
р
ת
▁기쁩니다
▁증후군
▁브라이언
▁스케줄
▁메시지는
▁select
니어
▁나타났
480
YS
▁650
▁알리는
bed
▁욕망을
▁지상에서
▁사인
▁극히
▁설립되었습니다
HE
▁마법의
▁5.5
▁작업장
▁박판
민족
사무
▁다스
▁^
결혼
▁정글
▁깨우
▁페이지가
▁않는가
▁계열사
▁생리
▁달리기
제작
▁어느날
미는
▁(2006
▁고래
▁부친
ws
▁PH
형제
▁분야를
▁VI
키아
▁일에서
▁많을
▁장신
▁Visual
▁라우터
▁꼴
일부
▁유태인
▁CJ
▁작은자지
▁부사장
▁연동
여름
▁삭제할
2.2
▁일시적으로
▁다운로드할
▁산에
▁동안만
▁활기
▁있을지도
▁요금은
사고
▁태양광
▁목사님
▁조금도
▁날씨가
▁사생활
너무
상담
▁1943
▁맞습니다
330
▁믿음에
▁센트
▁계열
▁배우게
▁특이한
▁임명되었다
▁선생님은
▁대가
▁포괄적인
▁틀린
280
공화국
▁텔
Time
Pre
▁딥
하셨고
운영
▁환자들
▁태우
NT
▁사이트가
▁Hand
▁입력하십시오
▁민족들
▁지휘자
▁학기
▁단단
▁도난
▁결성
▁항의
▁신약
▁골짜기
▁일으켜
心
▁중심의
▁파인
▁소프트웨어가
▁Les
▁돌을
▁영예
3.5+
▁증인들
▁애드
▁해마다
▁젊
▁가져와
▁창을
▁나오고
SK
mAh
▁흡
▁레슨
wall
체제
력은
렸던
▁숙련
셨던
▁효력을
4,000
Ar
▁아내의
▁[[
▁턱
▁시대가
▁자유가
▁정통
isa
▁자막
▁Games
▁세대의
몬트
슐
▁Akamai
▁편평한
月
▁무작위
▁클린턴
▁중소기업
▁북아메리카
▁가정용
▁앞두고
거예요
▁썬
▁발굴
uri
▁밀봉
▁협박
▁구비되어
렇
▁개업
▁사진과
▁빠졌
345
▁차에
▁요셉이
결정
▁상관없
▁대단
▁레몬
▁공동으로
▁이제부터
▁주저
▁해소
너의
▁발표된
▁발견되었다
121
▁튀
▁심판의
▁연구와
▁마개
▁부분의
▁이용될
▁가치는
헨
▁루시
▁지지하는
mas
6.1
▁돈으로
porn
oke
▁TP
▁경사
▁돌아서
▁support
▁익숙
▁AG
rey
0.3
협정
▁따라야
▁고양이가
▁빌리지
▁control
▁내맘대로
с
▁에드워드
iti
▁남자친구
url
▁남성의
드리고
▁말야
▁부지
▁모방
▁라이더
▁열립니다
놀이
▁강좌
▁전극
▁주제를
▁성벽
▁문서에
▁도착한
▁말아라
▁마침
▁그레
▁잡힌
▁포함될
▁몰라요
▁두루
▁장점은
▁Den
▁1917
▁SEO
▁벌어진
▁이봐
▁조건은
리이다
▁월간
정원
▁째
▁지원이
숨
▁팔라
묵
▁성향
▁이후에는
사키
길을
Vi
했으면
일자
▁이며
▁Dropbox
▁사우디아라비아
▁샹하이
룻
▁객관적
▁목숨
Hit
▁겁니까
▁규칙은
▁모기
▁형벌
▁습
▁곤란
▁좋았습니다
▁SH
험
▁헛되
tube
▁스페인편
▁어울리는
▁구하고
기타
sto
chen
▁친밀한
▁당했다
db
210
▁어려움이
신다면
▁모던
하겠느냐
겁
▁배급
▁설정됩니다
▁육체적
고등학교
▁아이콘을
ANG
▁지지를
▁동기를
▁이라는
▁않겠다
▁SW
▁이상은
▁마른
▁센터를
테스
▁맡은
Cr
▁별이
▁Tur
▁테이블을
7.0
使
▁가리켜
▁만군
▁여긴
▁GDP
▁WiFi
▁없었을
근무
▁사흘
▁Step
order
▁주면
night
▁지혜로
▁그분들
▁육상
▁방언
▁괜찮아요
▁낸다
▁셈이다
▁Sur
▁공립
▁1946
▁바다에서
▁(10)
▁귀가
▁Paris
raft
하겠다는
▁아니죠
▁부르심
예루살렘
NY
▁맞추고
▁ON
UA
▁145
▁아브라함이
▁코드가
▁상원
▁전까지는
▁연구하고
▁아랍어
스에
mini
▁방은
▁진리에
bor
▁무엇인가를
▁호스팅에
▁떨어졌
▁송금
▁사출
ori
!」
▁공부하는
▁주주
▁Instagram
▁튜토리얼
水
▁자습서
▁모로코
▁남자들
▁보낸다
▁모드에서
▁said
▁쿠키는
▁어워드
▁누르면
▁관점을
mus
▁나타내고
현대
▁음악과
ira
위원회는
▁습기
▁교육에
▁재사용
▁Robert
▁Rights
▁버전으로
208
▁삼고
▁줌
▁pri
▁전날
▁시작될
113
▁Christ
▁Union
▁유학생
▁메시아
▁므
▁혼합물
▁동성애자
▁선배
체인
▁없으
UB
EK
▁사립
졌을
어리
▁논리적
▁비율이
심은
▁부류
만으로도
▁웰
bro
▁마시지
50,000
슬라
햇
ו
▁Development
▁의사소통
랏
▁유니폼
▁사업이
▁1956
▁뜨겁
▁페르시아
▁애완동물
▁암컷
▁놀라움
128
▁Story
▁배정
▁나라와
▁창의력
▁잡았
▁떨어질
▁노력에
▁센터는
▁있느니라
~10
▁사용했습니다
54)
▁미칩니다
▁젠장
▁신설
▁만들어졌습니다
▁왕립
분간
▁BR
▁고객들에게
▁제공된
▁레지
▁증명서를
▁이용해서
▁Pol
하나이다
통제
▁꿈의
▁107
▁가능할
▁갖기
축제
▁결의
▁문서의
▁page
하시리라
▁떼어
▁어린이들이
궤
▁112
쁘
▁지도자들은
▁더욱더
겠고
▁미드
▁여과
▁안정되어
▁자로
▁한반도
▁축복이
처음
▁브라우저에서
▁낭만적
▁알다시피
일상적인
라이드
▁아파
트롤
▁무엇이라고
▁ha
것도
▁주니어
▁주부
▁제공한
TRA
▁집중할
▁계명을
었기
IVE
...”
▁않았어
ates
▁가요
▁군주
▁받으시
▁실무
aj
▁왕국이
▁함대
card
▁소변
▁어릴
▁오셨
▁신라
▁육성
▁익숙한
▁Ep
▁드물
▁기억하지
▁총기
▁보시면
무기
글로벌
▁태양계
cept
▁해야할
▁만들어지는
▁3.1
▁결혼한
▁지원되는
▁그러다가
▁렌
zen
▁Sil
▁트릭
▁성소
웁니다
뤼
▁뉴저지
▁District
▁있으신가요
▁열두
▁무의식
mond
104
06:15
▁머무
gas
▁루블
▁흥미를
▁대회에
▁리스크
밸
▁EB
ough
ded
▁수퍼
▁Peter
▁법규
▁산악
셨으며
▁켈
오스
▁운영되는
퍼드
▁청원
하겠습니까
▁中
▁선별
ister
eta
비행
▁마치고
픈
아일랜드
LF
했음
▁TR
▁하였으니
▁Sho
디언
Book
▁힘들어
▁중국과
▁백성들은
▁재앙을
▁빛과
▁작성된
보안
▁right
▁뮤지컬
▁여드름
▁도요타
▁것만으로
▁Travel
▁Valley
▁무릇
▁RAM
지난
▁몰래
▁Michael
▁옥상
···
들만
▁초당
▁1919
▁술집
▁메이저
었다고
▁무엇으로
▁(9)
▁기대합니다
▁광범위
▁SR
▁시작되는
▁가치있는
▁쇠
▁설명하고
▁전반에
▁주기를
▁알고있다
▁뜻으로
▁샌드
880
▁Roman
▁우드
뿐입니다
뿐이
▁연소
▁정책이
▁재직
Soft
캐나다
▁번식
157
▁아들아
▁회상
되는데
업무
▁비누
▁720
▁메뉴에서
시키려
▁런
▁천체
▁겹
▁있는지에
▁number
▁인코딩
▁토너먼트
▁every
▁탐욕
NK
▁도리
▁있은
▁명백히
▁피스톤
▁도착했다
▁시험에
▁펄
uit
Li
▁Watch
▁괴롭
▁개관
▁고열
큼
▁참조하세요
▁역동적
▁지낼
▁다닐
▁회원이
▁그들에게는
▁단위로
▁Mad
▁건가
▁잊어버리
▁성장할
▁화면에서
▁리브
rack
▁4.2
boy
una
▁투표를
▁외로움
wan
▁안락한
RY
벼
▁텔레
떡
대통령
▁1957
clo
1.4
rid
▁태양이
씨가
/20
▁MBA
▁보편적인
rel
퀘
▁굴착기
▁손쉽게
▁펼치
▁훼손
▁둡니다
▁클리닉
▁이력서
▁네모
▁Like
▁남의
440
주로
▁굴복
해졌습니다
크는
▁노래가
종교
었나
▁아무튼
▁(2008
▁말하노라
▁스카이팀
▁실습
▁오후에
▁NE
▁일대
▁기도할
했나요
▁치기
▁도구로
▁죽습니다
▁화제
▁행하고
▁죽으
▁영화관
▁해산
▁믿었다
▁두려움이
▁살포
▁경기가
▁Rd
▁작아
▁시신
▁뒷면
▁상금
▁다음에는
▁번제
FX
▁모델로
▁미소를
▁질병에
▁들어가기
▁주님께서는
▁서방
▁균
▁텍스트를
성공
▁GA
▁본체
▁지구에서
겼습니다
다니엘
▁춥
206
▁최근에는
보고서
▁모세와
▁건물이
▁Tre
노니
▁장력
WS
문학
OD
民
命
▁듭니다
▁앓고
前
▁Ly
▁나갔
▁캔버스
▁가르칠
▁농촌
▁밝혔습니다
▁의인
▁Village
▁AMD
▁한국에
▁부모에게
▁자식들
▁소녀들
mos
▁연수
▁왔어요
▁연결합니다
▁India
▁이룩
▁일의
▁음악가
▁선거에서
And
▁재미있게
▁퍼스
ika
cap
▁갖추어
▁실시예
▁Bell
kov
39)
이시며
타카
▁용의자
▁사람보다
hp
▁근거를
▁etc
▁가끔은
성인
런트
▁경찰관
LY
▁토대로
▁저하
▁창의적인
lation
▁now
.*
▁살이
3.8
펫
▁성을
▁영혼들
뱃
▁기저귀
▁샌디에이고
▁아울러
נ
▁블로거
▁과실
soft
▁일어서
▁표를
▁모양으로
봤다
▁지적했다
cell
▁죽임을
▁채권
▁닉
▁스톡
▁검열
▁머리가
hal
▁하계
우라
▁율
▁접근을
▁군인들
▁windows
▁달라질
▁기분을
▁진심
▁브리지
mod
▁이겨
▁완공
▁포함된다
▁1953
▁스테
AUD
▁길이는
버전
▁쳐서
▁Palm
▁짧
▁마구
▁2.6
Mpa
▁공휴일
ters
▁영생
▁부모와
해주고
하루
ats
▁기업들
하셨으니
▁나름
▁하신다
▁용기가
Star
▁드라이
UP
NB
모세
▁끝에서
▁울고
▁살펴볼
으로도
▁맨해튼
▁샴페인
▁저렇게
▁컨베이어
▁트랜잭션
正
▁신주쿠
▁간소화
▁엎드려
▁디자인에
▁heart
▁검찰
▁Ze
▁행렬
▁Guest
라운드
▁NASA
나갈
렀다
이니이다
너스
었지
▁손길
RF
▁Dong
값을
▁적당
▁자유와
▁제거하고
파리
999
▁돌아와서
▁내일은
▁불완전
▁부모님이
▁마땅
▁무엇에
▁WP
460
▁중고
▁진실이
▁리치
▁수용소
▁Sta
▁위협이
▁설치하고
▁TED
▁야곱의
▁현상을
▁다해
▁취약
▁함량
툰
어린이
▁뛰어나
▁푸켓
▁행동으로
▁고맙습니다
▁팔찌
▁Va
▁느낀
anti
▁효율적
▁Boy
▁부흥
▁중에서도
▁없나요
▁꾀
더스
▁번개
▁+86
▁Ram
▁속성을
▁1100
▁피부에
꺼야
▁내년
ession
▁되었다고
▁성공의
▁밤에는
레이드
▁내용의
▁고고학
▁결승전
▁울리
▁고통받
ssa
4.8
▁발생하지
▁끌려
▁만나서
베스
▁나보다
Fox
▁진화론
▁Try
호를
▁편안하고
▁2-3
이익
아빠
▁찾아서
▁냉각기
웹
영역
66)
이라고도
▁원정
▁지어진
▁(32
▁마을에서
▁드론
▁장교
▁적용하는
쩍
▁있잖아
▁필요하다는
체스터
▁Xvideos
▁아닙니까
▁슬리퍼
ease
▁사우디
tation
▁RSS
▁커널
▁하시겠습니까
▁시멘트
▁그후
▁부드럽고
▁일본엄마
▁구사
▁고발
▁죽인
말라
▁예선
▁access
▁제재
순간
▁관절
▁니스
▁깨닫고
.[2]
▁전략은
▁군대가
▁궁극적인
▁비례
아리
운다
▁만다
850
▁출판사
유로
▁어딘가에
▁때만
▁Page
▁지방의
070
▁전화로
▁만드
ope
▁둘다
190
소득
다르
▁법률에
▁딸들
▁끊임없는
善
▁포지션
▁iCloud
▁국가대표팀
▁터보
▁편의시설
▁מ
▁잠재적으로
▁한참
▁열쇠를
▁res
▁지내는
▁보도록
니즘
▁국내외
▁배웠습니다
PH
▁나로
▁표준화
상업적인
▁장인
9.99
fit
▁다기능
yu
▁접종
▁않겠
▁읽다
▁입히
▁입력합니다
▁바라고
▁두었다
▁웃는
▁천사들이
▁때입니다
graph
▁소수의
ston
▁올바
▁극단적
▁무리를
eep
하자면
cast
▁의지를
미디어
06)
▁info
▁클릭하고
됨에
블랙
▁LAN
▁세웠다
리코
▁현실이
▁떠나고
낯
찔
▁through
▁유란시아
▁클러스터
▁메신저
業
▁조밀도
▁통제를
▁수반
▁Social
▁착색
▁구조는
▁롬
▁식물의
▁불멸
▁디자인과
▁로마에서
▁웹사이트는
▁바뀌었다
▁히터
▁완비
▁미움
▁been
▁의학적
▁해치
▁말하라
rb
▁Land
▁bar
▁로맨틱
▁먹으면
▁기록하고
118
몬드
▁참여를
▁답이
▁참고로
CAD
rant
리우스
▁방해기
▁오션
▁애국
270
(“
▁BE
▁일하기
▁구체
▁봄에
學
▁프로그래머
뒀
לו
▁Matt
▁할로윈
▁나무로
믿음
▁상품이
▁혁명적
▁이용하고
ronic
yr
▁자녀들은
▁옳다
▁것이지요
센스
▁마음속
인당
▁나무는
▁If
되어야합니다
▁라스
▁시기를
▁어딘가
▁브랜드명
자고
8.4
▁1951
▁경건한
▁일제
▁139
▁오늘날에도
▁사업의
erman
었지요
▁과학은
▁설정되어
▁페이지는
▁실행하고
노아
▁소프트웨어에
▁인도하는
▁Cho
▁우월
▁스페이스
▁침대에서
▁존재하고
430
Gu
분기
GBP
▁강하고
▁삭
bot
▁박수
char
밧
▁마운틴
▁VMware
▁트레이닝
(9
▁개장한
▁스위트룸
▁씨가
변화
겠소
▁알아보세요
▁머릿속
▁라마
▁07:30
▁로지
▁계약에
▁멍청
▁딴
rac
roll
중고
▁수원
▁시내에서
▁알콜
▁전문가의
▁원자력
▁Emp
요리
▁왕국에
▁서류상
▁그러던
illa
▁개칭
▁서로가
▁파기
▁살면서
▁기울여
▁귀한
▁안전하지
▁지칭
엑스
▁이루어진다
▁rights
▁기판
▁야고보
▁때면
▁주력
ü
▁주소는
▁부디
▁논문을
그들
▁평소에
▁主
▁램
▁mi
▁천년
아주
행복
롭다
사람의
▁약탈
나서
▁증대
『
▁Maria
질환
▁sc
hua
▁시작했고
十
李
▁Dell
▁Baby
▁found
▁있었읍니다
▁향상시키는
▁기사에서
▁높아지
▁기독교인들
▁다가가
▁가깝게
▁깨어나
▁Connect
▁선수들이
하마
▁차단기
▁그랬다
▁Asia
▁내리고
▁이었다
▁종결
▁익숙해
▁2*
▁바쳐
▁약혼
▁생성하는
지대
하였으므로
pol
▁윌리엄스
▁보아라
head
▁강남
▁못한다면
▁보증금
▁특권을
▁통제할
▁물었습니다
▁투명성
▁둘러보
▁엄마의
▁중심부에
▁Cons
▁256
HT
▁고통이
▁예상치
▁기업들은
▁위기에
▁마찬가지다
1,000
▁너무나도
1.3
▁외국어
▁부끄럽
▁비영리
▁Ol
cla
▁맞춘
▁비롯
▁간략
▁파일로
Box
tions
▁취해
▁전투에서
▁......
▁넓게
▁저장합니다
▁소요됩니다
▁잘하는
▁Jul
▁창조물
▁온라인에서
▁못했을
▁자신들을
▁영구적으로
설정
▁사이를
시겠습니까
▁나왔습니다
▁사역을
▁기록에
▁반도
▁성관계
▁먹어야
▁통상
▁물질의
▁DI
▁점포
▁사령관
품질
esh
▁칼을
되었음을
▁경과
▁못하였
▁밥을
▁리가
▁제자들은
▁KR
▁GSM
▁낳았
▁175
▁알림을
more
▁위키
▁지배하는
119
▁소집
곰
디지털
뉴욕
편에
▁카드에
목적
NP
▁인내심
Net
▁대기업
▁거기에는
▁인공지능
▁팔레스타인
▁변압기
▁Yodot
▁대서양
▁전달하는
힙니다
mil
ivity
추가
▁세울
▁사고를
▁돌아오는
▁초보자
▁네이버
▁FBI
레아
▁싶었던
복을
▁비결
▁참을성
oll
▁혜
9.1
▁무엇이든지
cro
▁실질적으로
▁조카
시트
▁자신도
▁짠
▁의논
▁1-2
ality
▁세탁물
▁전세계에
pur
▁Player
▁1935
▁정치가
▁본받
▁계실
▁찬미
▁대피
▁저한테
▁민족의
▁나타
▁여성에게
공연
른다
▁People
▁잠자리
대학원
▁농민
자본
▁쉘
▁장비는
▁이번주
뭐
▁데카
▁트레
▁창조자
▁유리제
177
▁도래
▁예수께
▁룰
더라면
美
▁Xiaomi
▁뱀파이어
▁홋카이도
所
▁누군지
▁들었을
▁멀티미디어
▁어려웠
▁아니하시
▁협동
▁징벌
▁추종자들
▁When
▁모리
▁Motor
3.2
▁전반적으로
▁step
▁후방
▁강관
▁주시옵소서
▁릴레이
▁돌봐
115
▁스핀
▁지는
▁초기화
ela
》(
2.3
hin
갈라디아
▁연마
▁조화를
포르
▁아니기
▁Oh
▁편의를
▁나이로
▁여가
▁call
▁과도
▁나갔다
mis
▁말하여
▁정치적인
▁적용된
▁북한의
▁대선
분이면
▁전철
의료
▁행복하다
▁꽃이
▁깨닫는
126
▁잠깐만
▁물개
▁형제는
▁왔던
▁책들
▁주신다
▁지냈다
▁못하며
렵
▁불확실성
연구원
▁건강하고
▁요구하지
▁문화가
room
1-5
meter
워드
▁거리는
왈
▁만들어낸
▁ᄋ
수정
▁역사에서
곽
▁가격과
️
世
▁현미경
▁County
▁어떻습니까
▁Series
▁짓고
▁종교적인
▁대가를
84)
▁인가
▁Wood
▁LLC
▁도자기
▁제거할
▁윌슨
▁것이므로
▁Za
▁흥미롭
unk
▁있겠지만
▁케어
▁살펴보면
▁받았을
178
▁소망을
▁나르
▁수행하기
3.9
gle
admin
▁plan
come
▁청년들
▁지니
▁늙
▁Tele
▁되길
▁있으면서
▁생명과
bet
▁Application
▁생산할
▁가깝
▁스페인의
▁저명
▁선의
▁high
▁비만
▁비스타
▁Human
셔도
▁단순화
▁기회는
▁Nor
▁IM
아침
▁취하는
▁고체
▁커서
빨
▁발라
▁식물을
▁성원
▁QC
▁Beijing
▁BookingSuite
▁Education
▁Journal
▁프레젠테이션
北
海
▁Gallery
▁타겟
▁여배우
▁죄에
▁포르
▁내부의
▁환경이
▁방식의
▁영접
gon
▁주민들은
▁BI
슬러
▁girl
▁거칠
▁첨가
store
플렉스
▁절차에
제조
▁Bill
▁le
▁찾았다
▁바람에
▁log
라노
▁연구하는
▁버전에서
▁일간
누구
ground
▁하네요
1-6
양식
▁손목
last
▁아니지
▁무용
▁투자자들
▁王
▁독감
color
콩
▁아닌지
▁가지지
빗
▁세관
▁허용하지
129
▁하나다
편집
▁Capital
▁스탈린
▁프로듀서
▁솟아
▁Edition
이었죠
▁유해
▁춤추
▁수컷
▁3/4
리이까
179
▁어업
▁것이라면
-300
heng
▁내역
care
▁Link
▁UK
▁콜레스테롤
▁조정할
▁인터뷰에서
▁혼동
▁복무
마라
▁비평
▁환경의
때까지
rpm
▁용감한
▁게임이다
▁뉘
stan
었을까
▁외면
구리
레드
▁기념품
방지
▁비추어
▁06:0
▁고온
▁발생했다
▁불쾌
▁사고로
map
▁나타냈
▁부리
▁에너지의
해주십시오
▁사고가
▁유선
tree
눌
랫
구치
가톨릭
딱
파운드
▁사안
▁결혼은
▁갔을
뚱
▁하원
▁만끽
▁소비에트
305
텍스
mann
▁커리어
▁생성할
▁우리에
▁France
▁신발을
▁브로
▁103
▁프린트
sea
WE
part
▁10000
▁있겠죠
▁날에는
▁태아
▁뮤
▁통찰력
▁원제
님을
▁Full
LR
호로
▁hotels
▁1959
▁납부
260
▁맡아
▁Language
VE
해져
▁종교가
inal
▁일정을
▁한데
................
버려
Qu
▁찰리
▁each
▁소년이
▁보려고
▁행운을
아르
▁소녀가
▁이보다
▁적용된다
▁결정적인
▁선수는
▁결정이
▁사명을
▁지역에서는
▁생성된
▁차지하는
맵
eve
▁그분과
▁let
젯
쑤
▁언제든
▁도시와
▁않으려
2002
▁까다로운
▁쉐라톤
▁씁니다
▁철저한
▁목걸이
ISO
▁훔치
▁시리즈를
▁맛있
▁파트너와
사령부
▁long
▁Vista
▁추녀
▁시점에
▁복사본
중심
▁행복은
▁연필
▁안고
bert
▁좌파
▁VS
▁예수와
▁혁명을
▁플래그
Select
▁배움
▁굉장한
alt
▁디자인의
▁체제를
▁맺는
▁Fish
메이드
▁목소리로
현실
공급
-70
▁Type
▁Bru
▁왼쪽에
▁210
▁검색을
▁Card
말을
▁온실
▁필립
▁건강하게
▁끝없는
▁아래서
▁뜰
▁높으
▁뭐라
777
▁미러
▁Line
▁기업과
▁이벤트가
▁스크
▁세트를
▁그러는
티노
▁마리나
▁127
집단
▁감성
▁잊고
팟
룽
▁대역폭
▁유월절
▁지남에
▁성경이
AND
▁패킷
▁미안해
▁빨라
▁개미
오프화이트
▁증명할
▁알려줍니다
▁축하합니다
▁용감
ᅲ
▁광범위하게
eria
45)
▁아시나요
호프
재산
/50
▁---
3.0
▁가정의
▁Phil
DN
▁벼
해주신
▁됐습니다
▁1942
▁계획하고
▁그리드
196
▁다양성을
▁Mall
▁집과
▁경매
천사
▁자연과
▁말해야
▁감사하고
▁결승
▁help
▁지속될
▁급속한
▁이웃을
▁에러
▁Code
▁시도를
▁공간은
▁영혼은
▁구상
▁차는
▁현세
Ad
▁중순
▁사라지
▁기억나
냄
▁동방
/16
젼
▁베네치아
▁스판덱스
▁키예프
高
▁Jesus
▁Women
▁비지니스
▁유지보수
▁플랫
▁진행됩니다
gn
▁헛
▁결국은
▁발병
▁AU
▁헤르
▁수시로
▁연합군
▁원하십니까
▁Para
blo
▁릴리
▁09:00
▁짧게
HL
▁전염
▁나빠
천명
889
▁당국은
▁행동의
▁도모
info
▁협
▁유량
▁언어가
▁기대하는
▁복사기
▁우주선
▁했으며
▁일원이
job
▁보거나
▁색을
웠습니다
▁튼튼
▁기계가
▁계정이
▁좋았다
▁1954
▁벨라
학습
킨스
▁돌파
▁전통적으로
▁Last
vs
▁나지
▁닐
▁직책
▁땅과
▁nbsp
▁마찬가지입니다
나스
▁브루클린
▁윤곽
▁크기에
▁낭독
▁주장은
▁홈스테이
▁개수
▁감염된
▁공부하고
▁부양
cor
▁넘치
▁음식에
▁잤
▁언어의
▁워커
봇
▁위쪽
▁잔치
ref
그건
▁Trade
tec
▁사용되었습니다
▁동남
▁hard
round
▁었습니다
▁개막
▁크레인
▁Box
▁연도
▁모드를
rn
▁기도하고
▁학생들과
▁무관
hang
▁처분
▁유입
▁아이디
▁9001
▁실은
▁물질이
▁찢
▁운동이
▁리프
▁Mega
▁표시되는
룰
▁전력을
▁뱅크
▁스테이
hall
▁것인지를
7.2
▁요금이
▁임기
▁추종자
▁쫓아내
【
▁교량
▁부끄러움
家
▁관광명소
숭
BP
▁매력을
▁글쓰기
소재
▁채굴
▁찾아보
▁밝혀졌다
As
[11]
▁Well
▁AA
▁국가와
[9]
▁하수
▁견인
▁소중히
부모
▁사용하려면
▁필터링
lea
▁Jan
based
▁절반은
7.4
블라
ager
oro
▁멈추고
▁주재
▁주변을
▁간식
인원
▁Os
했지
▁랑
▁집회에
4.6
fic
▁1952
▁등산
▁아닌가요
▁당하는
▁이야기할
▁남자들은
▁state
▁1933
▁EV
▁위선
미래
AH
센터에서
직한
▁기능의
하듯
▁인정하지
44)
▁최후
nie
층으로
거라고
▁초래할
리얼
▁사용하거나
▁테라
▁니시
하였다고
핸
술을
▁int
▁Pl
▁open
▁불행한
했습니까
▁버섯
▁1.9
▁추가하는
▁포위
▁킨
퉁
▁Society
▁불균형
댁
Lib
▁깃털
▁균열
▁Yo
▁엄격히
58)
▁하옵소서
▁케냐
▁압연
Or
▁로이드
오후
▁하는지를
▁환경과
▁자녀들아
▁SDK
▁후퇴
▁플랫폼에
▁베푸시
▁지난주
부대
▁Chan
리티
▁연말
▁건립
각형
▁친절하고
rich
▁세대를
▁165
ugh
아직
▁11:00
mate
▁인연
▁Tro
▁Mary
340
▁Little
▁발견하는
▁감당
▁잔을
이것이
3.3
▁Ali
▁외의
▁열차가
shop
▁정신이
xx
▁IQ
▁놓인
▁영국과
▁불가능합니다
▁볼거리
▁동일합니다
aba
▁탕
▁지구는
▁Mos
▁시켜
▁만족을
▁밝기
▁애틀랜타
部
▁안타깝게도
▁항생제
▁테일러
▁이음새
▁Modern
rio
222
▁기하학
▁뉴욕에
▁보이지만
마케팅
▁아세요
▁Sant
▁소량
▁강남구
▁삭감
▁둔다
2.9
une
▁개념이
dor
▁세웠
▁Andre
▁다룬
▁이상하게
▁곳곳에
▁통화를
▁부피
134
▁심령
▁Martin
▁승차
▁도착했을
▁Kim
▁발생했습니다
▁천만
▁친구들에게
▁전문가를
▁장차
▁벗어
▁두번
080
▁확고
▁원망
ATE
▁고려하여
76)
▁희망은
▁산업은
([
▁단식
▁2500
▁연고
▁진행하고
▁통찰력을
▁믿게
▁곡식
▁Our
189
▁지구가
▁재판관
▁재앙이
▁지퍼
/0
▁명단
til
▁잘못이
▁경건
▁포기하고
630
▁결국에는
▁나폴레옹
▁세르비아
社
데살로니가
平
▁블레이드
리움
▁Heart
드려
바이러스
▁블랙홀
ban
▁배낭
이십니다
▁비슷하다
▁보시기에
197
cut
▁모듈을
▁own
▁마찰
▁델타
▁메달
▁사람이나
▁리틀
▁새틴
▁Sound
▁보호합니다
▁0.00
설계
▁프로필을
▁통합된
▁잡히
enna
▁파트너를
▁진단을
▁실업
▁엘리사
▁풀려
▁인터뷰를
▁제거합니다
▁푼
tha
번째로
▁off
▁장점을
▁부모들은
▁지켜야
▁Cro
종류
▁인적
▁믹스
▁지켜보고
여서
▁생각했던
▁밑에서
▁배상
▁비중
ache
▁List
▁치료하는
▁엑스포
▁Energy
▁아랍에미리트
▁스프레이
▁프라이빗
▁불행하게도
▁대중교통
▁벌어지고
▁입사
샘
▁Mountain
6,000
▁Two
▁Systems
▁못하도록
▁논평
▁곡을
▁강력하고
▁같을
▁접합
▁감탄
▁벤처
▁미스터리
차량
▁연안
▁공화국의
▁성공에
▁주변에서
gl
▁기도가
▁불평등
화면
▁자궁
-45
▁하나하나
▁ATM
▁표현이
▁위와
SAR
▁남성이
▁맞아요
▁올랐
▁럭셔리한
▁full
이시라
114
▁CN
▁잔인한
▁조이
▁Arts
▁피고인
▁민간인
uni
티나
으실
▁down
▁기관에
▁사료
4.7
▁침대가
188
▁(11)
▁페니
▁나랑
교사
론은
sia
2009
클리
ches
▁평일
▁교장
67)
▁중대
▁Euro
▁곳에는
진흥
▁객
▁상장
▁실용
▁온도는
▁판권
▁바쁘
▁야훼
▁생활은
▁말하지만
몇
▁270
▁의견에
▁원활한
▁부도덕
▁great
▁저질렀
골로새
▁앨런
▁다이닝
yan
Click
▁Review
핏
쓸
▁우승자
▁크기와
▁Off
로이드
▁불빛
▁쪼개
했음을
▁점유율
위기
▁신청자
잡이
When
64)
GH
▁관료
▁의심할
▁광야
▁현존
▁시작으로
48)
▁주소가
▁다윈
버리고
▁Views
▁해주세요
주었다
▁물자를
덩
lle
▁특이
▁놈이
▁예상됩니다
▁기쁨으로
리터
anta
▁지름
980
▁왕과
▁브랜드의
니깐
165
▁감동을
▁바치는
▁걸렸다
▁구문
187
▁아래쪽
▁190
▁이십
▁당해
▁발간
환자
▁헨
▁건데
▁행사에
벡
т
▁Convention
▁before
▁도널드
▁돌연변이
代
▁웅장한
▁규범
▁궁극적
▁생략
브로
itive
겹
▁마라톤
▁ja
▁SL
행동
▁전역에
▁브랜드를
▁하이퍼
ulation
▁game
클로
▁벗어난
▁남쪽으로
▁핵심은
▁그때는
시작
▁즐겼다
▁시설에
▁야망
소스
▁학교가
▁있었으면
▁예고
86)
▁본다면
▁그곳은
▁왕복
▁자연을
▁해산물
▁도시들
스포
▁우산
▁구입하는
하고자하는
하오
였다고
▁기대하지
▁출마
▁간청
되자
370
▁놀랐다
셨을
▁꼬마
▁완수
▁동등
▁돌아오지
▁진리는
▁제작된
▁주먹
▁Run
▁물러나
관리하는
밖
Option
▁넘기
▁묘지
▁사람들보다
계에서
▁배운다
sex
▁모발
▁주목할
하기까지
니언
▁아미노산
二
퐁
下
▁쾌락
▁건전한
건설
▁우선순위
되나요
▁테러리스트
아메리카
▁냈
벗
▁가담
띠
Windows
▁화염
▁메탈
▁지정합니다
▁전반
▁세우는
eli
▁다녔
시카
▁아가
▁텐트
▁공허
▁7.5
▁찢어
▁퇴실
▁도와주는
▁극단
▁로저
▁영국인
DU
203
▁일으켰
▁하십니다
▁항체
▁작성한
운영하고
전력
▁너무도
186
▁않을까요
adi
▁찾으려
▁뜻한다
▁데이터베이스를
512
▁취하여
aga
▁기관이
▁공통점
▁그립
▁“[
▁어쩌
ä
▁Explorer
▁Framework
▁안내해드리
▁Queen
ille
활동을
▁HI
▁5.1
▁공짜
떨
148
떼
태평양
http
앉
▁검은색
View
▁이외에도
▁태워
▁니트
ij
▁주인은
▁도둑질
▁서버가
되었기
▁Make
▁풍력
▁싹
▁책망
▁지나간
die
▁요트
▁질의
▁법적으로
▁Shemale
▁좋아했다
▁투수
▁채무
arch
▁확고한
▁배에
▁용어는
▁공급망
-32
▁지오
▁주십니다
▁덤
term
9.5
▁사회적인
▁기업으로
▁공경
▁Ven
~6
▁과제를
▁알아볼
ants
ito
▁다행
(11
▁QR
▁생체
thy
▁프리미어
▁오클랜드
굶
센티미터
▁이듬해
▁무너지
▁RoHS
▁스콧
▁성직자
720
▁화려
▁Motel
shan
▁횡단
▁태풍
내어
▁돕습니다
▁미국인들은
▁FAX
dra
▁체력
이었기
▁건축과
▁우주에
▁박물관에
직원
미네
▁청각
▁end
▁문자를
▁겸손한
▁애쓰
목록
▁힘에
▁중계
▁저온
▁부적절한
▁설명이
▁없었기
▁서핑
▁영향은
규정
▁소유주
▁어린아이
dio
▁곡은
mu
▁분당
MD
거리가
ying
▁결박
예약은
▁인물이
▁불쌍한
▁사람들입니다
▁부르지
▁플랜트
▁백성들을
▁스위
▁판정
▁Metro
전선
▁조건에서
▁도중에
됐고
우며
▁강을
▁원했다
▁계약의
▁우주에서
5.8
▁자수
▁절반이
▁Kh
스틴
▁gets
드레
▁역사적으로
▁아들에게
아들
PCS
▁주장합니다
▁게이지
▁Theatre
▁식료품
▁올랜도
萬
''
▁DVB
▁살피
닷컴
▁길이가
수준
▁상품의
▁활용하는
▁의사의
▁손톱
▁하시기
flu
▁간격으로
▁경찰에
▁where
CNY
▁살균
▁왔는지
대신
▁상관이
▁합병증
▁서약
▁설정하는
식물
▁백합
test
▁나눈
▁검색할
▁보람
스테이
▁Four
▁횡
hat
active
▁자손들
측정
▁불완전한
▁자에게는
▁결합하여
▁단추를
▁제어할
▁유머
▁작물
▁평범
master
지혜
1-8
▁수정할
드려요
부르
▁850
▁힘들었
▁어울리
pat
▁체중을
▁손가락을
oto
▁권리와
▁Dor
▁감당할
nz
-34
▁생활이
anger
▁50,000
Air
▁모자를
▁실패했다
윅
成
▁도저히
▁서비스도
▁이르노니
▁Wall
▁뛰어넘
▁나눔
▁요셉의
▁Total
▁지켰
▁차원에서
▁작별
rest
▁키워
▁these
▁징조
▁살롱
▁Name
그런데
▁아시안
이어서
▁Ten
▁놓았다
형태
▁과학자들이
137
기본
▁국방부
▁개선하기
▁코스트
▁형제가
▁속히
Jo
▁난다
먹는
▁끼치
▁강력하게
▁지불을
쓰기
▁마르코
inn
▁화학적
▁기도에
via
▁사용자에
▁구단
▁비교하여
▁리오
▁Mill
js
▁연중
108
itt
emi
660
▁혐의로
▁문서화
▁발견하게
▁지원자
▁생각해야
▁브리즈번
▁겪은
▁똑바로
▁아침식사
▁행위가
▁찾으십시오
bal
▁big
BL
▁작성하는
▁앤드류
▁있답니다
튜
출판
▁명령이
▁법적인
케이블
함이라
▁봉사자
Free
▁Gran
▁제국주의
▁이벤트에
▁행사는
하시길
▁보르
▁곳과
▁실외
ION
타스
내지
▁같다고
되던
▁Condo
▁공급하는
▁높이기
▁1,500
▁살던
▁Color
▁지낸
▁독점적
▁군대는
▁비추
▁났다
▁클리
▁사서
▁조합을
▁보충제
560
▁후면
하였습니까
▁과자
▁생명은
option
▁사본을
▁수혈
▁설립되었다
▁산성
long
이야기
년생
ema
bul
언제
▁100,000
코트
믿
▁왕위
▁Hard
▁컴포넌트
쑥
▁Download
▁쿼드
▁JA
▁넷째
▁CCTV
▁헤드폰
▁성공은
▁스토브
▁트러스
▁Temple
▁무겁
▁에스테르
▁꾸며
non
▁단단히
▁느꼈습니다
▁미리보기
gre
▁오늘밤
스타일
▁삼각
▁폭로
▁계통
▁총선
▁금식
▁예증
74)
7.6
▁용해
훈련
▁특허를
▁GE
code
▁향하는
▁꾸란
▁내부에서
163
▁소년은
▁실패를
uf
깊은
열왕
▁부정적
▁입장에서
▁기다렸
▁고객들이
추천
}}
소식
▁were
eon
Kg
배송
키스
▁교회와
▁살아있
▁이기는
range
▁Model
▁모으
cel
▁더하기
▁cat
▁선물로
▁활동과
인들과
월호
▁확실하지
▁레인지
9,000
▁백화점
▁세기에
있었다
번역
▁대답하지
EI
▁명백
女
▁Engine
▁가브리엘
▁발렌타인
▁캘린더
딤
▁길쌈
▁기후변화
▁Cross
▁Money
▁안식
▁따르십시오
▁설명해드립니다
▁」
▁배출량
istic
▁mar
▁저희와
▁물고기를
▁추산
▁6.5
6.5
▁중요하고
▁역으로
▁노력한다
▁Wind
▁완료되면
▁보시는
이벤트
NV
▁밀링
▁그리스도와
라이프
▁열렸다
▁ED
▁가구가
▁시청자
▁사용자와
▁맞은
▁Jun
▁Er
▁하이드
▁세상과
6.4
▁tri
▁오퍼
▁운동에
▁sw
▁아내에게
010
▁넣었
트랙
▁포도원
▁non
▁뭔가가
▁형제를
▁활동적인
▁생각하며
▁전례
▁남자들이
▁힘들다
▁결정합니다
▁육지
▁위함이
저우
ido
▁두려운
▁넷이서
▁가라앉
(14
ester
금지
ark
▁가르쳤
▁청춘
돔
▁가족들이
▁260
▁군사적
▁책으로
▁모토
▁있소
▁Care
▁도약
▁중구
▁생각도
▁살아갈
춤
onic
▁전달할
▁하늘로
▁전송할
▁Press
▁유스
▁원문
▁바로잡
▁구축하는
▁타자
▁도리어
▁차려
▁매입
▁Alex
680
▁환기
▁몰려
▁파티를
▁데서
▁꿈꾸는
▁과학자들
률을
뿌
▁도면
▁가정에
▁SIM
▁감안
▁단락
▁약속하신
볼까요
혹은
▁남았
▁CSS
▁용서해
▁생산량
▁시도하는
▁가족들
▁신인
▁마을을
▁만들어질
▁압도
Si
▁형성된
볼까
▁윤활
▁지정할
코인
대요
▁대제사장
▁뚜껑
▁시뮬레이터
▁오케스트라
▁펌웨어
플로
▁가혹한
▁더블침대
▁컴퓨터는
▁never
▁조셉
▁Dar
▁환승
▁있으세요
▁한잔
▁말하면서
▁말아
적이거나
▁동작을
주시면
▁유체
▁창조하셨
▁미식
웬
▁방문하고
도서관
혁신
허가
▁got
▁꽤나
비디오
▁아버지에게
▁대표팀
▁랭
▁총격
▁자격증
▁대답할
주셔서
스텔
▁프로토콜을
▁분들을
▁윙
116
▁지불하는
▁대중의
▁맞다
▁안전합니다
▁명령은
▁생산성을
▁활동하고
▁fr
▁Mid
▁있었을까
▁요구한다
르드
설치
icon
6.6
▁평균적으로
▁시험해
▁규칙이
365
60°
▁그리스도인들이
南
▁Festival
▁after
▁공백
▁아브라함과
▁눈길
▁출혈
▁개선을
▁Il
▁나가고
▁잃어버렸
▁거주지
▁fuck
당하고
204
inc
▁위엄
▁시키는
▁8000
만남
▁광동
▁로프
(2)
138
▁NEW
▁0.01
▁330
▁Tea
당하는
▁이익이
▁Van
▁좋아해요
▁쓰이는
랬
았고
▁대하는
▁자제
음식
war
▁미디어를
▁올라오
▁임재
▁관통
▁식품을
시부터
▁쥬
▁이집트의
▁Sy
▁노력해
▁Ob
▁기쁨과
▁TFT
▁맥주를
▁생존자
▁수상했다
▁아직은
▁걸고
▁FX
▁OST
IV
▁치우
▁행하지
▁기술적으로
▁FS
▁동성
▁섬에서
▁친절하게
▁투자가
▁청결
166
iya
▁움직이고
▁책임은
▁Alt
▁Have
▁See
▁망가
미술관
▁그리스도인들에게
▁유리한
북한
긍
▁TC
▁Republic
▁오리지널
킥
살아
-90
▁정품
▁무선인터넷
▁누릅니다
▁대표이사
1.6
▁매크로
▁반짝
▁만들어서
▁유대인들이
▁식욕
bell
달러를
▁따름
▁누구와
ila
▁누리고
▁기능으로
▁상고
▁근거로
▁콘도
▁Jack
▁Apart
▁것이냐
core
▁테니까
▁결정한다
액을
▁혁명의
▁네트워크는
imi
▁관리자가
▁주지사
▁1937
▁지휘관
▁와인을
▁+1
▁총알
경험
path
▁설명하기
▁사지
으매
▁기체
▁사라지고
▁열거
▁준비해
▁잠수함
▁이것으로
▁은혜가
zh
▁만족도
▁과학적인
졌어요
▁않고도
▁Wil
▁싶다는
▁질문과
▁나선
▁주어졌
▁사람이었다
▁하되
분들이
▁Oracle
全
▁저작물
▁조심스럽게
▁스케일
어느
▁Geo
▁스토
▁돌아다니
▁즈음
했잖아
▁해변에
▁커트
▁엄격하게
▁너희들이
▁괴로움
▁저장하고
▁관리자는
▁끌어들
▁위원회는
▁허위
▁았
▁스택
qua
▁이미지가
함이니라
▁제작한
▁Phone
▁하노라
▁부응
lee
404
▁원하시면
덱
▁길거리
▁늘어나
▁속한다
▁알았어요
▁적합하지
▁해적
UK
▁콤
▁독일은
▁기근
ili
▁당신께
▁Ant
▁작가가
법원
▁순위를
▁had
▁분명합니다
▁부문에서
stein
▁$3
▁대학교에서
▁떨어졌다
94)
탱
▁기관은
▁약화
rat
금액
KO
▁인간적인
▁Boulevard
▁마이그레이션
▁MPEG
▁토마토
▁재구성
▁바꿨
▁복도
▁가끔씩
▁가깝습니다
▁NH
▁써서
깊
etting
1-2
▁Bro
▁해결책이
▁Christian
▁있도다
kan
▁예언자들
▁사용함
▁스태
▁기증
▁이루기
256
source
sum
▁도시입니다
content
▁자원이
제목
▁RJ
▁한편으로는
▁세례
▁열었다
▁피팅
IDE
▁사려
▁Opera
▁짚
장애
▁표명
'".
▁종속
ault
▁제사장들
▁싶으면
▁YOU
▁멸시
운전
▁치러
주민
▁요구하고
▁준비된
▁파고
▁말리
▁객실내
5.5
▁약국
메르
▁안심하고
▁Vo
▁플레이어를
dar
▁제한이
연결
▁FR
▁느끼기
▁필요하다면
해줍니다
▁에베소
52)
게이트
▁Academy
▁reserved
▁묶어
▁스트레칭
▁오두막
▁발자국
▁트로피
Return
▁효능
gia
▁인도에서
▁의혹
▁제한을
▁재설정
▁계약서
▁미야
▁조금이라도
▁고객지원
/7
▁엄마와
줘서
▁실시한
mission
▁못하다
▁스피드
▁세계와
▁개발했습니다
3,000
떠
225
Ba
▁ab
▁벌어졌
▁king
▁자리잡고
place
▁술에
턱
wing
arn
▁Mod
▁구슬
▁산물
▁용사
ape
공개
-800
▁BD
▁러시아인
▁작용을
▁경영진
▁고칠
nan
ply
▁어디를
▁감량
▁무단
▁개교
▁인증서를
었으면
▁속도와
GN
공정
▁하중
▁아니하니
인생
▁자질
▁저들
▁접어
▁광원
▁PCI
▁파르
▁시장이
▁알면
Data
▁¶
▁시작하십시오
▁수염
▁밝힌
▁에스토니아
▁오하이오
物
즙
▁매거진
▁쇠퇴
▁애호가
520
▁피난처
▁않으므로
141
▁확증
▁외로운
bla
▁이념
▁맺어
▁최상위
▁its
▁기도합니다
▁찾았습니다
▁용인
▁무관심
zhou
▁가져오는
cas
아내
▁1910
▁-1
pack
하시기를
▁바람을
국제공항
쿄
▁섹션에서
▁Eye
▁총독
▁상수
▁광속
(15
▁에이즈
▁Days
▁기차역은
▁삽화
사무소
▁하나님이여
▁문화는
▁호세
ITE
col
▁가치관
▁올렸다
▁고베
▁병사들
▁연결됩니다
방울
▁안겨
▁그다음
▁확신이
INA
▁유물
▁여자에게
▁표준에
▁web
▁있네
▁불타
▁뿐이었다
▁선택해
▁cr
▁근처에서
Mac
CHF
▁단호
학부
▁엉
▁토대
▁기억에
하느님의
없고
▁*****
▁3.6
9000
▁벚꽃
▁치앙마이
▁피라미드
▁훔쳐
和
▁영수증
▁single
▁Court
▁동안의
팀은
▁micro
▁레닌
▁구비
▁창에서
▁뒤집
▁위치가
▁빙하
▁묻습니다
▁인상적
▁방치
▁드린
내에서
들에게도
▁당신께서
▁포함하지
▁자녀는
▁그레이트
▁어땠
▁더구나
▁경쟁을
▁알고리즘을
▁펄스
▁편리합니다
57)
▁인식하는
~19
▁않죠
cra
▁재산권
클라
▁선진
▁개최된
stro
▁권리는
1.8
▁4.3
4.2
▁강제로
▁정전
47)
지오
▁됐어
▁말이에요
▁사람이라고
▁06:5
▁건물입니다
5.4
▁권세를
▁6.0
▁늦었
▁선수로
▁바다가
▁장애를
▁살펴보고
있어요
▁긍휼
IME
04)
▁거요
▁유감
▁놓았
▁방법론
本
▁Lodge
▁프로젝터
샹
짤
▁가리킨다
化
後
▁브러시
▁깨달을
▁신진대사
官
▁엉망
▁렌탈
▁입에서
▁체계는
▁나라로
bag
▁잠잠
▁넓이
▁index
▁투옥
▁Head
▁출근
▁가로등
▁없나니
▁학원
▁유럽과
▁주옵소서
▁맞을
▁MR
▁보신
▁사용되어
▁어른이
▁현대적
▁경제를
▁형광
▁금지되어
▁Hua
▁사망하였다
였기
▁Ang
▁가지고있는
툴
하였나이다
▁놀아
▁시간이다
cing
페이스
▁설명한
▁비밀이
▁광대
▁다양하게
▁됐어요
▁맥박
▁보호해
lib
▁식물은
▁시체를
▁깊고
▁계속할
▁규칙에
▁[5]
▁궁금합니다
▁(2005
▁봤어요
▁겪었
▁생각보다
matic
139
▁년이
▁교육과
겠네
▁조건으로
▁어떨까
rol
▁죽였다
블로
▁보너스를
ᆡ
聖
▁Hospital
▁블레셋
▁스테레오
▁하얏트
▁Building
할만한
▁레벨을
▁랙
▁가족들은
▁속옷
▁person
▁same
[10]
▁변신
▁표시할
▁의사에게
▁않으셨다
배나
▁DH
door
▁저택
▁($
▁예물
왕이
▁그런즉
부산
▁메시야
준비
▁십자가에
▁윈도
▁사무실에
▁준비가되어
▁증인들은
▁아들들이
▁지구상에서
여호와께서
mun
▁내려와
▁의사들은
▁Tim
▁달리는
▁걱정이
▁1931
▁치료제
▁풍성한
iao
friend
och
▁최적
었나요
▁내보내
▁고침
▁포르투갈어
▁쯤
▁Fla
▁좋다고
변경
▁표본을
▁작곡가
▁Team
▁구독자
▁1938
▁가보
▁Sar
▁이용되는
▁글쓴이
▁드라이클리닝
▁얼굴앉기
∙
▁발걸음
▁익지않는
▁보았고
▁마르크스
▁즉위
+1
▁혼돈
▁루멘
MR
▁소리는
▁죄와
▁끝낼
▁앎
▁붙은
▁큐브
5.2
▁라이온
▁그분께서는
▁드실
▁평강
▁공고
301
▁지시를
▁most
되었거나
▁평행
▁차지했다
▁민속
▁좇아
▁사라졌
▁올리는
▁않기로
▁뇌는
▁숙제
▁카드에서
159
▁대도시
[5]
▁OD
▁best
▁전망대
▁균일
▁시정
▁머물렀다
ject
라이즈
▁연습을
▁찾는다
▁레이디
▁무어
▁전문가들이
미스
▁데이터와
▁자유주의
▁역할에
▁Coin
이야말로
▁행로
▁크루
던데
stand
With
비교
하게됩니다
▁비료
▁음악에
▁1923
▁불타는
▁source
▁배양
▁118
▁수집되는
eno
▁프로젝트에서
▁슬픔을
▁거미
ret
▁여인이
▁sur
2.4
그들의
▁men
▁Boutique
▁Restaurant
▁부산광역시
▁프론트
明
時
▁예기치
▁세비야
▁스크롤
▁2/3
▁욕실에서
▁오프닝
▁국도
찍
▁기울이고
▁then
▁입찰
▁바랐
▁계시록
▁의사와
▁색깔은
▁경험하는
▁수수료를
▁세례를
대사
▁바둑
타르
증인
▁마리아는
▁스웨덴어
eh
▁드라이어
▁Add
▁노리
▁죽이지
▁적들
▁슬로베니아
▁여행사
▁색인
▁예배를
ó
▁상식
08)
▁기여할
▁반복적으로
년도에
하셨던
▁Mur
▁국가들이
bat
아무
SCO
헤드
▁5*
▁개인성
▁201
▁봤습니다
▁사울이
▁법과
lio
ALL
;;;
▁한층
▁걸린다
▁대나무
▁공유합니다
보통
▁벽면
tv
▁가입자
▁만드셨
▁두통
▁인사말
▁냈다
▁부른
▁이론에
나잇
교류
▁led
vert
▁링크가
▁진행할
▁월급
▁만족하지
▁111
▁가두
할게요
6.3
164
▁누리는
▁우두머리
田
▁드레싱
▁떠올리
▁Update
▁Conference
▁포스
▁General
▁평화롭게
경쟁
▁Under
▁알려드립니다
skaya
▁요소에
▁팔로우
으니까요
▁영향에
▁특집
▁YouPorn
▁마모
▁Area
▁훌
슴
▁Played
▁어때요
노바
▁킹스
5.6
▁셀러
은즉
▁진행하는
uv
▁중학교
▁우는
▁회전하는
vy
뼈
INE
▁스테이트
▁머무는
▁하느님에
▁매니
▁발포
▁투어를
▁she
▁성장에
▁집중하고
▁보셨
▁일치하지
▁여겼
▁파이어
▁먹었다
275
tta
▁비롯해
▁이방
스피
▁자손에게
▁디아
▁Tru
▁결정하기
▁Cook
▁Pop
▁손은
155
셨는데
▁BL
1200
▁마스
▁마약을
보셨나요
팀이
률이
▁창의적
▁바라지
▁under
對
▁뭄바이
▁기름부음받은
▁렌더링
캣
政
▁은밀한
▁울타리
▁Vegas
▁think
▁알제리
▁자재
▁귀사의
▁히어로
▁스냅
▁경제적으로
▁능숙
▁충족시키기
▁라이언
▁왕국은
▁Flash
▁예컨대
▁딸은
▁양측
▁형상을
▁확인하
▁옳지
▁(35
▁버렸습니다
완전
▁경기는
▁정찰
▁킴
▁변화시킬
▁머리카락을
verse
이었다고
▁VM
▁너비
▁정서적
▁디렉터리
▁EVA
▁한번에
ais
allow
줬다
▁배선
UC
▁수학적
nit
▁극단적인
▁좋겠
재판소
▁되겠
LAN
았던
▁독재
▁3.3
chu
▁필사
▁비롯된
1999
▁요청하는
▁표시하는
▁켈리
▁선택적
리뷰
▁바카라
▁누구보다
▁혼자가
▁Au
ᄏᄏ
▁러시아에서
lux
▁서기
▁되면서
침대
▁물리치
것같
▁작동하는지
▁있으라
▁가슴으로
▁들으면
▁항목에
~8
▁실린
▁그리스도는
Don
▁지키지
페르
듭
▁성구
믹
▁선명
▁IE
cient
쿤
▁유나이티드
▁케네디
찐
▁아케이드
▁노하우
▁냄비
▁아시다시피
▁추수
▁ABS
▁보조금
▁고객들
쿠스
▁이슬람교
▁크리스천
▁분량
▁느리게
▁연산
▁갑판
▁왼쪽으로
후기
▁Ban
▁편안함
▁세기의
▁간접
Mon
되어서는
▁있었음
▁채식
▁동의하는
▁운전을
770
▁진행중
▁장을
최근
▁최고급
▁국토
▁시도하고
▁날개를
▁사용자들이
▁길어
률은
▁순회
▁독일인
▁잊혀
곱
▁시작되
▁맡았
▁바울의
그렇
▁Bor
▁버전에
▁정결
ONG
▁바뀌어
▁기초가
▁져야
▁이루어졌다
▁성경적
렸고
▁MBC
ario
▁그렇기에
▁피복
▁어리
▁세가지
ICO
▁정밀한
늄
뮬
tsu
▁자쿠지
▁col
▁줬
sit
▁체험을
▁Forex
▁당첨
▁긁
▁24/7
▁왕좌
▁리스팅
▁좋겠어요
▁격자
크라
▁인질
▁Sin
위험
퍼스
▁강화하고
자위
▁Carl
93)
▁기기에서
▁대중적
▁다리미대
▁의도적으로
스페인
▁중심이
▁콜라
▁오른쪽에
▁열전
▁Magic
▁요소입니다
▁발견되지
▁기회에
▁진지한
.5+
되고있다
▁웃고
▁냄새를
▁지불할
▁듯하다
▁하나님께로
▁시원
▁망명
▁Spi
255
렌즈
▁지나가는
/24
보리
▁듣는다
▁개인화
▁Rob
▁내게로
▁명부
미르
169
ffer
참고
▁Tax
▁사용량
▁There
down
▁푸에르토
▁이니셔티브
쯔
▁기중기
어디
▁신속히
▁출범
▁Castle
▁이윤
▁만족스러운
▁않으리라
Shaft
▁그것과
▁유대인들은
▁배럴
▁신세계
390
▁생긴다
▁밤새
▁트라이
▁사무국
▁COM
▁외출
▁재판소
▁때문이라고
Count
▁세월이
▁4.1
▁빠지게
▁Aqua
▁위험은
▁지도자들이
샵
▁만난다
팝
▁북쪽으로
호스텔
▁요즘은
드릴게요
▁결합된
▁수영을
▁OR
제곱
▁방전
▁귀국
▁말씀해
▁알아서
▁금액은
290
▁Moon
▁언제부터
▁상태입니다
▁sm
▁모금
▁퇴치
68)
▁방문하십시오
▁덧
▁유명하다
▁신경을
▁끝으로
▁받침
175
▁하기를
▁믿어야
▁불길
▁야심
▁컬렉션을
82)
가슴
門
▁아인슈타인
▁장바구니
▁카자흐스탄
▁프랭클린
▁프로덕션
▁스카우트
html
▁즐긴다
▁히로시마
▁자랑스러워
▁아이팟
보관
내려
▁심정
▁지정한
▁잡혀
▁Fly
▁쳐다
▁기념물
▁보여주었습니다
▁오스틴
▁태어났습니다
local
▁몰랐습니다
▁메쉬
▁봐도
▁보답
▁활주
hold
▁선교사
▁원한
▁무엇인지를
▁시동
▁사르
▁창의성
▁절연제
▁현저
▁독립을
▁거룩하게
8.2
▁덮여
▁뷰를
▁선도적인
▁백성들에게
받는다
▁적시
▁그릇된
갱
건축
▁퇴직
쇼핑
▁(+
149
▁수집하는
▁생각으로
▁남미
acy
▁자매들
▁논란이
▁나오게
▁1928
▁이론적
▁통증을
티드
▁구름이
▁장애가
▁생식
dan
작가
▁Mari
▁호주에서
▁순결
▁Angel
ios
▁레인
51)
읽
▁KB
▁유적
▁되라
▁송신
dc
▁include
▁다림기구
▁되풀이
▁고화질
▁즐깁니다
▁규례
▁아웃룩
▁약실
▁그나마
143
▁절대적인
▁수치는
▁Mira
▁4+
▁헛된
262
▁sign
▁브라우저를
▁행복하고
▁배너
▁만드신
▁저장됩니다
▁속담
▁SN
▁116
▁4,000
▁논쟁을
▁플라이
▁훌륭하게
rim
▁포터
▁왕실
▁top
▁뵙
▁말이지
▁혼합된
▁필자는
▁키우는
▁음란
oni
▁이비스
▁아이들에
▁다량
▁들려주
▁용어를
▁당기
▁총장
WEB
▁Note
▁앱에서
▁sin
▁뚜렷
마스
▁동물들이
▁어떻게든
▁실행합니다
▁이송
▁필사자
DT
▁도전에
▁증명하는
▁되었는데
▁언급했다
▁장시간
께요
▁뭔
▁배터리를
▁세션을
ias
tern
▁old
213
1-7
▁나타나고
/9
▁앱에
권자
▁서비스입니다
▁살아남을
▁아기는
▁인슐린
▁코펜하겐
語
▁갈릴리
▁레이디보이
▁본토
▁트램
92)
375
▁턴
예수님
▁다가올
▁위젯
▁있느뇨
▁우주를
ids
▁있었으나
조치
▁깔판
BU
▁설립되었으며
▁접촉을
▁만들어졌
410
▁채우기
▁공격은
관계를
▁유치원
▁세련
▁로빈
릇
49)
▁회피
▁많아요
▁연결하고
NU
▁개선하고
▁없던
▁동맹국
▁입었다
▁희미
▁향상을
▁번만
▁LP
▁현상은
▁모으고
▁세속
펄
▁이르렀다
lab
▁아닌데
▁계기가
▁정의된
▁다리가
▁마태복음
▁근육을
▁백성과
▁트윈룸
▁하나님만
▁고주파
6.2
▁근거가
▁커지
▁되었는지
▁경영자
▁부모들
▁깨끗이
▁말씀하시는
▁XL
질문
수술
▁경험한
▁분리된
73)
▁감도
▁공예
▁죄송
▁155
대출
▁족장
▁영향이
▁전쟁과
▁감정은
▁표면을
▁그리스도인이
iki
▁고양이를
껍
▁바티칸
▁옷입고하기
▁요코하마
▁플라즈마
▁일관된
▁발생하면
456
▁DIY
▁Young
▁구원자
▁개선하는
▁받으리라
▁Only
▁Medi
▁Zoo
서버
▁보컬
▁학부모
▁없었지만
▁매핑
▁FAT
▁오른쪽으로
▁홈런
bridge
▁지으신
문서
▁주자
▁신뢰하는
▁신속하고
▁Steam
▁어린이를
▁아치
▁합법적인
▁게임입니다
▁대수
▁매각
136
▁상당수
▁올리고
▁민중
▁판매하고
▁반항
진리
▁이해관계
▁종류에
야고보
▁누적
ODM
▁연관성
매일
tim
OH
▁Hope
▁$2
▁레스토랑은
▁이용하면
ride
▁즐
▁3-5
쉬운
▁마나
▁그놈
▁일했다
▁증가할
▁지내고
▁그리는
그러면
▁따뜻
여명의
▁텅
▁남성은
았어요
▁일찍이
▁기초로
5.7
▁농부들
해줘
▁리스
음이라
88)
355
▁놔
▁신청할
▁프린스
▁수집된
Ω
▁Voyeur
▁Washington
▁드래그
▁햄버거
經
相
▁서두르
▁초상화
▁동남아시아
▁Fre
▁예술을
▁방울
▁하늘나라
▁고통과
[12]
▁넘어지
▁사냥꾼
▁거하는
▁형식은
▁없노라
도쿄
▁갖습니다
▁아파트호텔
▁배척
▁리라
타니
▁범위에서
▁Nord
▁않겠습니다
▁만들어집니다
▁다운로드하고
담당
▁관중
98)
2005
▁엇
▁마당
~3
▁그때까지
▁수학자
▁타임즈
▁깨달았
▁삼키
▁소환
nov
▁예술가들
▁과학과
▁대결
▁뵈
▁스카
▁우유를
▁이름입니다
▁친화적인
▁되었어요
▁에르
▁경청
iano
즌
▁받아들였
▁자비로
▁DN
쌀
▁나아가는
▁추론
▁베푸는
티켓
cin
pop
▁질병이
.6)
020
진실
▁재림
▁체스
ved
▁구축하고
▁DP
▁함수를
소유
▁3.7
하셨나요
▁발발
▁Support
Here
ARD
▁연결되는
편성
▁114
▁남편에게
run
▁여길
▁무대에
▁정치적으로
serve
▁누구든
▁138
▁나아지
쿨
씌
뭉
▁Blvd
▁발렌시아
原
爲
▁기다립니다
▁챙겨
▁Field
▁Luxury
西
▁function
▁첼시
▁Artec
▁알칼리
▁인스타그램
▁무늬
▁양상
connect
▁신관
▁매혹적인
케이션
▁Marina
▁German
▁넘쳐
마리아
▁얻으려면
▁간음
▁모스크
▁던졌
했었습니다
▁없습니까
▁있으시면
▁급행
▁들어가게
▁144
사오니
▁라인은
▁하기로
▁격렬한
▁배기
5-7
▁젊음
▁20,000
▁참전
▁바다로
레트
▁지미
▁수집하고
▁로딩
목표
▁말씀대로
▁잃어버리
▁시간표
▁자세를
▁136
inder
▁노르
▁열지
▁절정
ped
▁True
112
▁하사
▁연락하십시오
▁AVI
설비
동영상
▁기질
RNA
▁익스
▁마시기
▁규모가
▁불필요
왕국
▁살아나
▁요셉은
007
▁혼란을
년만에
▁협상을
new
▁해본
-88
Bar
▁자연적으로
ders
페어
▁달성할
천국
bc
▁몇몇은
▁붕
▁수명을
▁간편
▁생각하는가
▁통증이
▁뇌를
동성
▁기업에서
▁스트라
81)
▁75%
낌
▁August
▁마그네슘
▁뻗어
▁아르메니아
▁펭귄
놋
▁촛불
▁시작하였습니다
▁device
▁차별화
▁바나나
▁변기
▁이해해야
▁운영체제
▁깨달았습니다
▁받으세요
▁명으로
▁들리는
▁공원에서
스트라
▁가변
▁Kit
530
▁엔진은
▁공상
▁세포가
▁Ya
▁지냈
▁FO
95)
시키며
▁이승
▁드리며
97)
tive
▁군단
▁성전을
▁캐리
▁열정적
이러한
▁빼앗아
▁전당
▁때문일
580
▁MK
▁정하는
▁소방
▁팀원
▁왕으로
▁더미
stock
▁볼수
multi
▁계속되는
▁대중에게
▁빌라는
each
▁Quality
167
BY
카리
보스
▁주시면
▁지도자가
주시는
▁구매하는
▁소유한
▁Where
▁스리랑카
▁글로리홀
▁바빌론
▁어두워
▁풋볼
名
▁요르단
▁견뎌
▁여기저기
▁괴롭힘
▁keep
pet
조각
▁반점
▁구성요소
▁러셀
▁어디까지
▁중독자
▁마음껏
▁잠수
▁공모
▁상륙
기획
▁요리사
▁피닉스
NZD
▁911
▁보잉
▁117
▁여부에
▁서버에서
▁보리
173
▁대외
tex
연대
▁자라는
osa
▁거부하는
▁아파치
/100
▁전세계적으로
▁작정
▁고객센터
▁계속되고
▁#2
▁고작
▁제사
▁주었고
컷
▁대해서만
연방
하였더니
ove
▁망할
빌라
▁해결책은
명령
▁Zo
민주당
▁자손의
▁하다가
145
들었다
▁재판을
▁팔고
NR
▁쪽이
▁관광객들
▁하느니라
▁눈과
▁누이
▁방문하기
▁해외에서
체험
▁의도를
돼야
▁이책
toria
▁선조들
▁미쳤다
▁와우
rma
삭제
tte
▁Frank
▁잊었
▁제시하는
▁주겠다
leg
▁역설
▁메세지
scape
list
▁동물과
태그
▁알래스카
▁어두움
▁어젯밤
▁되돌려
▁미성년자
▁프라이버시
權
▁컬럼비아
▁Downtown
9.0
▁OM
▁정녕
▁경험하고
기반
0.000
▁KA
▁앉을
▁함이
▁하워드
▁Down
▁거둔
▁갈수록
▁트레이너
개월간
▁자루
RUB
▁채울
620
▁했지
▁기갑
▁증상은
▁◎
▁미스터
드린
▁Int
▁마련해
크림
▁화목
Pe
lated
▁Train
▁뿐이야
▁동맥
78)
▁녹차
▁인접하여
▁평가하는
▁삼림
▁기도해
▁정교
▁오스
▁우리에겐
▁강하다
하리
▁하여라
▁봤어
화되어
엘리
▁안내를
▁만족할
▁2:1
▁설정된
▁책자
▁과학기술
▁냈습니다
▁생존을
▁(40
멸종
▁감독자
▁만났을
graphic
sec
▁부족하다
던지
▁개발자가
EUR
iso
▁보내주
▁형제들이
▁수단으로
▁키즈
▁정확하고
박사
now
▁싶어한다
153
▁것뿐
▁light
760
▁because
▁엠에디터
▁Earth
▁비둘기
▁Smith
▁펀치
▁하였더라
Safe
▁얼른
▁읽으십시오
▁디자인으로
▁환전소
▁있으니까
▁Sm
Build
train
▁백업을
시대의
다시피
▁죽음으로
▁타르
▁몸으로
▁예루살렘에서
lite
▁포용
▁대화가
▁의미합니까
▁증가합니다
▁분쇄
▁주둔
▁섬기고
▁세종
▁스테이지
276
▁지폐
phy
▁놓치고
▁의자에
▁여론
사람은
▁날려
▁소원을
▁Flat
002
▁부담을
▁1936
▁성공했다
▁해피
▁기다리지
151
칩
▁의미있는
tina
▁보정
레즈
▁기각
▁요나
HQ
▁달성하는
▁진리로
▁댐
레이크
▁가능성에
eller
▁폭력적인
ᄏᄏᄏᄏᄏ
▁해당하며
올라
▁해야만
▁Cas
▁봉사하는
▁지점에서
DAY
▁Come
▁유전적
▁결혼식을
▁충고를
▁무릎을
igi
▁126
2-5
147
▁있더라
▁전부를
▁안정된
▁들어간다
▁109
데르
808
▁평가할
▁클린
콥
싯
▁앵커
▁줍니까
五
▁Shopping
▁에로틱
▁Medical
▁program
▁시달리
사님
▁상세정보
▁왓슨
사이즈
▁즐기십시오
Material
▁찾아낼
share
▁해결하고
185
▁꼬리표
▁오셔서
▁수용할
▁만났습니다
▁죄는
▁파손
라이브
▁알레
으리니
▁잔여
▁기본값
▁변경될
▁부적
▁관심과
oop
▁영성
▁보관실
하시려면
2:2
▁일몰
▁안타
번이나
▁도착하는
▁피해야
▁막고
▁아담의
▁토너
▁노력해야
▁(0
좋아
▁스탠
브레
840
Create
주시기
Version
▁Blu
▁온유
▁1924
▁상공
받아야
▁나이를
▁모노
▁올라갔
하신다면
▁경험해
▁기업인
리타
1-1
▁나누기
벧
Boobs
α
▁니코틴
▁불순종
렙
▁아브람
▁자존심
▁와일드
▁데이빗
▁아니니
▁활기찬
▁장점이
▁쟁
▁즐겨보세요
▁구내
▁Brand
▁멤버십
▁끌어내
pool
▁리케이션
▁동일하다
코어
▁무시하고
▁잇는
▁청취
▁팔리
▁그렇고
▁싱크대
League
▁갱구
▁네임
▁운임
▁환자들은
▁바랄
mph
▁쪽에
▁이전글
▁것으로서
봤습니다
▁본인은
▁SMT
-36
4000
▁Lane
▁Song
THE
▁부활절
▁많아서
▁동상
Fe
▁2030
▁탔
삶
▁내보내기
▁얘기해
2-2
▁노라
건데
법률
밴드
▁남성들
▁선장
▁기준은
▁권유
▁위협하는
▁find
▁입체
omo
었더라
▁첨
▁9:00
멘트
▁치료할
▁480
▁수련
▁타격
hic
▁이탈리아에서
8.6
▁효력이
투데이
▁등장하는
▁등급을
킵
▁컨버터
▁편방미터
惡
궐
리투아니아
▁인디애나
▁자외선
▁히이터
▁분광
▁network
▁하기도
▁Movie
▁반환합니다
▁Thi
느라
▁better
▁곳곳에서
▁Board
▁법원은
▁굳건
▁트라
▁고정된
▁생산적인
cade
▁구글은
▁결혼했다
▁▷
▁들어본
▁시작했을
▁Golden
▁최적화된
▁실존
▁몸에서
71)
▁놀이터
▁일이라고
했거나
▁자랐
자리에
▁갑작스
▁누설
▁트루
▁1912
▁싶은데
▁나뉘어
▁남겨두
▁얼굴은
버튼을
▁ᅲᅲ
민주주의
▁직면하고
년째
▁열조
▁생각한다면
▁공제
Can
▁성교
61)
▁지원한다
▁살고있는
▁범용
트레인
lash
▁미사
▁거처
표시
MPa
▁신념을
▁acc
030
▁MOV
▁역할이
스타킹
▁Class
▁측정하는
▁송신기
▁Thomas
▁소프트웨어와
▁감옥에서
▁싶어서
ander
▁(50
▁어떠한가
마스터
▁고통은
5.00
Ha
▁향하고
▁통해서만
▁남지
我
▁겪어
▁밝게
▁스케이트
в
▁넣습니다
▁뇌가
▁봇
▁옴
▁돌아가고
RN
일호
▁어휘
들에겐
▁있든
▁주인의
▁획기적인
bis
워치
SN
▁전지판
▁증발
▁[6]
▁기술력
▁두려움은
0-2
860
▁젊은이들이
▁이혼을
▁뒤쪽
fall
hon
tag
▁나만
▁지도한
▁비참한
▁평가하고
▁Awards
▁카페인
dex
ACE
Ne
▁부르기
ante
▁Chang
▁고도로
▁허용되는
▁나타낸
▁어리석
-85
▁준공
▁이용합니다
ife
▁빛으로
▁(12)
해준다
붓
▁농사
▁놓친
뛰
예레미야
터미널
쉐
청구
hem
▁깔끔
83)
▁표준시
여개
▁유동
▁마사
▁기억하라
▁보장할
알라
117
권력
▁일어나기
▁최악
▁괜찮다
▁상에서
Up
▁세미
▁Farm
▁떠오르는
저리
해봅시다
▁어플
▁사각
찮
HY
홉
▁털어
HKD
▁point
▁시험기
▁어메니티
▁에든버러
府
뿜
▁Partner
▁팔레트
▁타이완
▁진지
▁하이킹
2007
Inter
▁Week
▁객실로
▁제비
▁아이돌
▁가져왔
▁ABC
▁실례
▁압출
▁HK
▁model
▁감속
Form
▁칼리지
▁Share
uge
780
▁강화하는
85)
▁뚜렷한
▁닦아
▁신생
▁광대한
▁편한
▁모피
▁유인
cio
▁죄악을
▁1300
GR
▁선보이
▁완성된
0.4
Comment
해주셔서
block
새끼
▁개종
▁수요가
▁로봇이
▁자들아
▁지배를
▁무사
dal
▁앉은
▁Nik
▁서술
▁대속
▁가마
Link
극장
▁신들을
▁솔루션입니다
시편
▁비아
▁Award
▁도장
▁영양소
▁집계
▁Pinterest
▁라스베가스
▁프랜차이즈
л
▁기쁘시게
▁친애하는
▁카카오
▁랭킹
▁깊숙
▁March
▁태어날
▁파라미터
fort
ivud
▁예상된다
▁증가했다
▁덫
▁리포트
▁일들은
깨어라
▁득
▁빠질
▁행복할
▁아레나
▁우측
▁그리스도가
▁Pur
▁외침
▁반갑
kn
신명
870
▁사업부
▁대리점
▁않기를
▁싫다
소송
fast
▁공개된
▁모드로
mel
죽음
▁Jin
▁놓치
▁남아있다
▁요청하고
▁보여준
▁예약할
▁회당
▁볼보
▁나쁘다
▁크레이
▁담보
▁러브
▁부처님
White
table
▁다루어
▁형태가
▁지불하고
▁부부가
▁저주를
▁생산하고
▁Wild
▁샀다
▁종들이
▁혁명은
방침
lain
▁열리고
▁김정은
▁카나
▁영생을
▁오세요
▁있으시
▁바알
스탄
▁습관이
▁전능
▁거부할
▁알려주는
言
è
▁Private
▁유머감각
▁return
▁마닐라
▁방화벽
▁키프로스
▁이음쇠
實
▁Future
▁양질의
공단
▁닌자
▁달라집니다
▁영광스러운
▁구매한
-48
▁대회를
높은
▁대용량
▁서랍
79)
▁같았습니다
▁탁월
▁지경
-33
-55
RU
▁전세계에서
▁인식하지
▁엽니다
▁Ak
▁GR
자산
플랜
▁누구에게나
91)
▁다윗에게
▁영주
▁행하라
▁창립자
▁알약
▁잡기
87)
▁후원자
▁열릴
▁입힌
▁직분
▁공간과
fish
▁발견된다
▁상급
▁조심해야
▁절차는
sey
▁도심에서
▁하마
8.3
▁디렉터
▁제공해야
▁서경
iu
▁Leg
▁눈물이
▁일류
▁전직
▁Side
영문
▁도달하는
▁화살
▁CAT
▁공부할
OOK
▁강의를
▁예입니다
▁야드
녕
▁처치
펙
▁반대편
▁구하라
▁동계
▁TCP
어린
▁이내입니다
틱스
▁청소기
▁트렌
▁은혜와
aster
쉼
▁벌거벗
▁불공평
〔
깰
볶
쁠
▁Battle
끄러
▁Fran
▁옳았
▁초록색
▁변화와
▁일러스트
▁들으라
▁HGH
▁약속된
▁Flex
FTA
▁카우
▁결정한
▁이야기해
▁버퍼
▁온난화
▁디자인된
▁Sexu
누가복음
▁돌릴
▁독창적인
▁밝혀지
▁아이와
▁연구실
▁사임
▁Ray
▁아프게
▁세워진
insta
▁Far
▁틀렸
yp
▁Tan
▁변할
▁Radio
▁전역의
▁그때부터
▁교수가
▁Rec
▁장성
▁초대합니다
▁두려움에
▁포켓몬
▁Europe
iga
▁Call
깔
▁애인
640
▁추억을
▁경화
▁태도는
▁동쪽으로
force
▁갖다
▁해라
▁한두
▁피우지
7°
277
▁충분합니다
그렇게
진짜
▁Richard
▁IDD
태양
▁중요하다는
뷔
▁Age
▁기다렸다
▁자리가
kgs
▁지적인
-240
к
▁매끄러운
▁코코넛
갯
귤
▁Number
▁꾸준한
▁풀무비
第
solution
스러움
▁Collection
통화
pdf
ᅲᅲᅲ
▁힌트
▁Active
▁극도로
▁불공정
works
▁임대료
▁착각
rov
▁비공개
4.9
▁호위
스쿨
2-3
▁서포트
▁사각형
itor
▁Need
계급
▁Visit
▁너한테
▁감정에
▁나타나기
▁통하는
▁전자기
▁마음대로
▁채택합니다
▁보인
▁쏠
288
▁능력으로
90)
▁생일을
▁마취
▁기쁘
950
▁PSD
▁필립스
zu
▁취하지
▁이해하게
ISA
▁해결해
▁열었습니다
▁사례가
▁있냐
▁선수들은
하더니
규칙
베트남
▁ext
▁양면
apt
▁사치
예수께서
▁ᅵ
그냥
▁못했고
▁누르고
xxx
▁들러
▁14:00
▁아오
▁Charles
▁구체적
▁이집트에서
▁Pack
▁자부심을
▁발견되는
펌
▁가솔린
▁앤젤레스
▁옥스포드
〕
▁Council
▁column
▁미네랄
▁캐주얼
司
▁다국어
▁신진
▁왕국회관
▁Ever
▁게이트웨이
▁격차
▁가뭄
▁유방암
▁남아메리카
▁Angeles
▁event
옵소서
▁징역
5.1
▁말씀하십니다
oxy
▁사람처럼
▁올라갈
▁몰입
복음
▁Lion
중국어
조합
STAR
][
섰
▁기도와
IGHT
▁사기꾼
trac
▁달라지
▁데려오
보았다
▁Corp
▁책장
omi
▁방으로
겨운
▁푸시
나카
▁비틀
0.8
▁매직
▁게시되고
▁SBS
▁조처
▁저장하기
▁1932
▁승부
▁방주
▁조이기
▁식당에서
▁진영
▁중심지에
▁사제들
▁단서
▁누리게
요소
International
하드
HTML
▁사라지지
▁올라가서
▁달콤
▁피난
▁베니
▁바리
포럼
▁멍청한
▁택한
77)
▁이르지
작용
5.3
▁서클
▁그룹으로
▁싱크
▁QNAP
▁스캐닝
ç
덥
▁깨달음
▁퀴즈
▁true
▁기입
▁묻혀
▁design
▁오락거리
▁블룸
poli
▁GNU
▁주황색
▁대면
▁30,000
ury
▁롤링
▁출시된
▁Start
▁알수
▁통제하는
tw
▁작업자
▁안드레
▁폴란드어
▁교사들
▁독일군
ICA
doc
ILL
▁루비
▁데이타
▁창조한
▁맞았
▁years
▁평양
▁Ball
버립니다
미드
▁고기와
그린
158
▁주님과
▁미쳐
▁Mil
▁섬길
▁택시를
▁의견은
▁북경
크리
▁되었읍니다
▁다루기
▁176
▁시간당
▁앤디
▁민법
캠
▁ᅲ
▁넓고
▁Virtual
▁두어야
HI
▁주목을
닫
▁리더가
▁성우
▁05:5
▁아람
▁지나갔
▁Base
▁환대
청소년
access
▁Take
▁미워하는
힌다
▁이동하고
▁아브라함은
rance
▁육아
▁날까지
▁가능하고
~7
730
▁기업입니다
7.8
▁항소
▁Core
▁미화
둑
▁매수
▁고조
▁ALL
▁6,000
▁마츠
▁핏
민주
▁편이다
▁between
▁날카로운
▁맥도날드
▁방글라데시
▁애비뉴
▁PTFE
▁곰팡이
▁에스트로겐
敎
▁극심한
▁최우수
▁파우더
▁활발한
合
▁생생한
▁방열기
▁스케치
▁구강섹스
▁캡틴
▁쏴
▁누르십시오
▁닮았
▁Lady
▁죽음과
6000
▁Mail
보건
VDC
▁잡았다
east
▁사람들로부터
▁목제
▁하지요
▁별자리
봉사
▁Gre
▁둘러싸인
모어
▁바라보며
주택
▁솔직하게
용량
▁박탈
▁many
▁몰타
▁점도
▁산화물
▁판단하는
▁킬로그램
601
▁측량
선언
해결
▁카레
asi
▁죽으면
▁하나님에게
▁수집합니다
▁운하
▁울산
▁상징하는
보아
▁않으신다
▁1929
안보
▁JO
uo
▁pass
결제
아파트
▁혼다
▁채우고
▁어렵고
▁Singapore
▁계획이다
▁다짐
▁일이야
▁예쁘
▁원했던
▁흘러가
▁무지개
▁결함이
▁기록하였다
▁금요일에
▁수치가
▁Ir
▁지구와
▁Trenbolone
▁Ulitsa
▁순식간에
▁여성생식기
찜
탬
팍
▁굶주림
意
都
方
▁부르주아
▁이더넷
폭넓은
▁워크숍
▁오메가
▁흘렀
▁동요
▁말씀하시되
▁방대한
▁without
▁않겠습니까
▁향상시키고
▁탁구
▁누구입니까
셨도다
▁그랬던
▁증인들이
▁고독
▁진한
hotels
▁일부러
▁들어가고
극적인
▁실행되는
▁아서
회관
iller
▁Mind
으론
▁왕들
text
▁법학
▁구금
num
▁심문
▁맥락에서
▁Var
▁가치와
인종
놔
맘
▁매도
American
▁읍
▁종들은
평균
▁반품
▁ᄏᄏᄏ
섬유
▁개발하기
Pad
릅
▁밀러
▁WhatsApp
▁second
▁고능률
▁배트맨
記
▁뿌려
▁노숙자
▁Front
▁룰렛
▁스텝
▁Common
▁domain
▁요구했다
PER
▁다이얼
▁UFO
▁즐기세요
시켜서
▁규정된
▁벌어지는
▁맛볼
▁연약
▁스킬
▁싶네요
▁이야기입니다
▁찾아온
▁비공식
▁복잡하고
▁간편하게
5-0
▁CNN
▁낮게
▁정적
볼게요
▁JIS
▁이점이
▁높음
순환
▁광업
▁입수
144
AME
▁저쪽
▁바라볼
▁창조하는
ania
했을까요
▁Sports
▁안쪽에
머신
▁간절
▁최종적으로
▁공유하기
4.1
▁음부
uzz
▁외계
셨나이다
노동자
2.7
엇
▁삼았
제거
iva
싹
♪
▁User
▁지불금
▁구운
▁Dog
▁주려고
▁진행자
보증
▁POS
▁이점은
마켓
깜
▁길르앗
▁않연결광고
▁열렬한
小
▁몸무게
▁나란히
false
▁아쿠아
▁Commission
CZK
있어서
Shrine
▁포르투
▁Vision
▁착취
부품
▁Mas
▁비참
Print
▁버려진
▁잠겨
▁기초한
▁KRW
▁단어들
▁알려주세요
▁다양하고
89)
▁언어와
atter
▁폭행
▁괴롭히
▁한가운데
▁청산
▁모수
▁약품
▁싶어합니다
(17
uce
▁420
▁어린이들은
▁항목은
LINE
▁솔로몬이
▁display
▁삼십
▁부당한
▁2,500
▁소망이
▁Ken
이시여
▁기억한다
▁지지자들
▁장편
▁영입
▁과거와
▁합작
×1
▁처벌을
▁보여드리
▁일요일에
209
▁가전
▁시켰습니다
내리
▁변경하는
▁만들어내는
▁Double
굽
▁Trust
매우
▁구입한
튀
▁세대가
article
▁창조적인
▁war
Gets
shot
stance
data
dot
▁(37
▁아들들은
▁갚아
sys
▁모임을
follow
▁Policy
▁미얀마
▁밝고
▁세그먼트
▁수수께끼
▁스튜어트
▁액티비티
▁코스타리카
▁문재인
▁멜로디
▁콘스탄
출장마사지
▁닮은
▁교과서
▁반경
aria
▁내리지
▁다가왔
▁해왔다
▁케빈
▁Die
주여
▁열방
▁제거하기
우린
미안
▁칼럼
▁웹페이지
보내
▁받았다고
Ah
▁사적
▁점심을
그때
▁부임
ugg
▁측면에
▁숨기기
▁게이머
▁CON
▁들어왔다
▁Ent
▁활용하는지
▁단정
▁야후
▁만들려고
▁사용하게
▁전파하는
▁자살을
임금
자키
▁Kat
201
▁Fan
▁쿡
215
▁두드리
▁자국어
cos
▁MX
▁시작했으며
▁얀
▁미라
▁선택했습니다
하느라
캡
네덜란드
잭
▁SNS
▁Talk
▁어디서든
제어
▁되지만
▁치료사
테니
▁예수님께
▁싶으
내게
▁드러내는
▁아바
▁NBA
ス
▁Brazil
▁뮤지션
▁화강암
寺
▁철저하게
▁RAID
▁파나마
▁Edward
▁스핀들
▁Quick
▁스크류
▁모르겠네요
▁Season
▁싶었어요
▁Low
▁Job
▁하셨느니라
▁변하는
cross
▁에밀리
통합
▁읽었습니다
▁Stone
▁열렸습니다
▁우려를
▁힘쓰
free
▁8.0
▁골목
▁head
▁처지
▁생각하지만
▁place
됨으로써
9.9
▁Pic
▁상환
▁AND
sign
▁어린이와
▁Clo
▁정도입니다
▁사용하였다
▁간편한
▁검색어
▁방식과
하시다
▁15,000
하셨으며
동아
▁걸었다
▁결실
▁프로세스가
kes
▁사업체
▁제주도
▁제공되지
테스트
▁수있습니다
▁Stay
▁FOR
▁트래픽을
음에도
▁양산
9.2
▁보물을
▁1927
▁야곱이
▁EMC
▁매치
▁대다수는
삽
▁요크
▁가집니다
▁이론은
수업
▁17:00
▁그야말로
▁아베
▁백작
▁활동하는
Sc
니크
▁장래에
카톡
▁필수적
▁왔어
logger
▁보복
펑
▁넉넉
▁일본무삭제
▁클리토리스
▁Country
▁Bern
▁궁핍
▁브로드웨이
▁LTD
▁인종차별
▁강원도
▁Website
▁would
▁Film
▁되었던
▁매일매일
▁고맙
▁선택적인
2-4
▁장착되어
▁부여하는
세탁
▁발표하였다
▁구입하고
Please
▁Body
▁Other
▁점차적으로
바른
▁숙고
▁노인들
▁현관
커피
▁메카
▁did
▁교수님
▁미친다
놈들
303
▁구성할
▁광야에서
▁Miss
▁계심
▁틀렸다
▁교재
Cam
▁일원으로
하시거나
▁벗기
▁못했지만
▁비슷합니다
▁되었기
8000
▁이용하세요
▁공격적인
▁지속되는
▁건조기
▁Easy
ought
▁요단
▁푹
Dr
▁참여했다
▁생겨났
▁추위
싼
▁이뤄지
맡
▁아끼
장기적인
▁가드
핫
▁청구서
▁동지
▁이용가능한
▁문의하기
▁137
▁동사
▁Lan
▁점유
LED
▁기억합니다
연수
Mark
샬
▁파악하고
▁바뀌었
▁상기시켜
마당
▁7000
gio
▁평가판
챙
▁활용해
い
院
▁XNUMX
▁겪게
▁고혈압
▁부끄러운
▁알츠하이머
넛
엡
▁부카케
▁우분투
▁결혼여부
▁싶으신가
▁겨냥
▁꾸짖
▁맹렬
▁거북이
▁퍼레이드
▁element
▁Canada
▁임직원
하겠지만
▁미셸
TRY
▁없읍니다
▁계좌를
▁280
▁체리
▁개구리
▁서원
▁뉴턴
▁Tool
▁답글
▁독자들
▁개인정보보호
▁먹게
▁진학
▁휴무
▁명백하게
▁Cup
▁교외
mount
▁Scan
▁Glo
inner
▁그러하다
전문가
해야한다고
▁상표입니다
▁중심부
▁사람에게서
▁things
▁오랜만
RIS
하려고합니다
▁말까지
▁무례
▁없네요
▁주기적으로
인민
chang
▁열람
▁필요했다
▁Med
▁도피
izer
174
▁내전
▁있단
성급호텔
▁극복할
▁유독
▁교역
총회
4-6
▁종자
▁그곳을
▁순간부터
KR
▁기념관
▁여기까지
▁Nan
▁레이더
▁능가
쁜
▁나귀
▁산들
▁않나
▁정치인들
▁카터
▁Eu
꿀
캔
▁다운로드하여
▁취지
▁EMS
ists
▁생각하였다
하셔도
조약
eva
▁어디에서나
▁명세서
▁경유
▁방학
▁슬로바키아
▁퀘벡
▁Berlin
▁휴지통
用
▁조그만
▁Has
crypt
▁데이비스
▁다국적
▁자발적
▁AIDS
▁could
▁넣기
▁양국
▁캐롤
▁연못
▁134
▁사이클링
▁측정할
▁표징
▁불렀습니다
▁경멸
▁2.7
▁하나였다
lov
▁발매되었다
▁제공업체
▁조수
▁합판
무슨
illion
▁작품들
▁PET
▁고추
▁HDD
▁손님은
▁version
▁성스러운
▁히로
▁필요합니까
▁유지됩니다
유리
▁않으셨
채용
▁운영되고
▁too
▁Chris
▁힘들게
▁짧고
▁마이너
▁지불하지
▁장소들
cil
시계
▁우상을
Wi
했어야
ages
▁샵
▁플래
었느니라
▁계정으로
268
▁급수
범위
▁칭찬을
열차
높이
▁구주
▁강렬
▁Pool
▁만들어내
레벨
▁검사자
▁치명적
네트워크
긍정적
RON
SQL
▁에스겔
▁끌어올
▁사용자들은
▁숭배하는
▁소개하는
▁너회
냅
번길
할수있
▁보강
엣
力
▁베네수엘라
動
마케도니아
▁Community
▁칸쿤
▁feel
▁참여하지
▁모서리
▁납득
▁전문적으로
▁우정을
▁지속가능한
▁싫어한다
vor
▁라오스
▁토르
▁이민자들
타미
safe
bank
▁잃었습니다
정보통신
5.0
▁타이머
▁NFC
4.0
6.9
▁측은
▁Bob
▁클렌
▁그리기
nik
▁왕비
▁즐기며
▁익히
해지기
올해
▁RAR
▁보시기
▁미루
계속
지옥
▁유대교
▁인식할
▁Bad
▁영업시간
ᄏᄏᄏᄏ
▁임금을
▁불쾌한
▁행위로
▁Ash
▁깃
▁후드
▁방식입니다
예정
gress
▁바다와
aught
▁들게
Henry
▁결론은
▁관련해서
▁제공함으로써
▁버블
▁타인에게
▁반박
▁엎
▁아프리카에서
▁1905
▁stud
▁Ham
드러
cord
▁직관적
▁버린다
▁혜성
▁항성
괄
▁사물을
▁파운드를
▁모른다고
폭탄
▁죄로
다윗
ological
▁행하신
▁Eva
▁무너뜨
▁젖꼭지
▁different
인천광역시
▁baby
but
▁배심원
▁일리노이
스러울
▁순교자
▁거민
▁일곱째
▁돌아갑니다
까봐
사례
worth
Steve
▁배웁니다
▁밀어남
▁누구에게도
▁살아가고
lies
▁몰락
▁왕궁
add
▁충족시킬
▁상쾌
▁출품
▁좋아해
Champ
▁제공했습니다
▁지나서
▁Led
▁남극
▁FTP
-2000
▁반죽
▁대처하는
▁보라색
▁맺은
▁받거나
▁방문객들
ann
▁Xi
▁{{
▁극적으로
폭력
▁양보
▁출입구
uda
▁성문
▁찾게
▁가능하지
▁이루지
▁디스코
객실
▁His
▁알바
▁있고요
610
▁사람들을위한
그라운드
▁Roll
▁유언
리츠
▁덴마크어
▁속하지
▁모르겠어
▁미국인들이
▁열광
보아야
▁여유가
▁Pacific
▁되었는가
/60
▁1934
▁절제
▁기다린다
▁퍼스트
▁묘사하는
트리스
▁측정기
226
▁power
▁의존하는
▁신랑
▁환상을
▁상징적
ener
[6]
노트
▁물어봐
Work
▁성명서
▁삐
▁마커
블루
▁명칭은
NF
uke
▁꽂
▁Stan
얄
나이트
▁원단
▁책이다
▁웃기
▁MIT
‧
▁PayPal
▁경상남도
▁메트로폴리탄
▁이그제큐티브
▁콜럼버스
▁퍼포먼스
〜
四
石
췄
▁Protection
▁훗날
▁낱말
▁송풍기
▁종업원
▁퀘스트
▁시네마
▁알파벳
front
▁[8]
▁답답
▁벗겨
▁민주주의를
▁다섯째
▁지불합니다
▁알아낼
교환
▁훈계
▁이후에도
▁간판
▁줬다
oC
hydro
▁신생아
▁생겼습니다
해야한다는
▁사다리
안마
▁Qua
▁구직
남편
▁나라들이
fact
▁손질
▁입주
▁Tai
▁Blog
▁본교
▁괜찮을
▁정직하게
ential
▁들릴
▁만나지
▁031
성서
▁contain
▁대폭
▁효율을
정확
▁temp
▁설교를
▁주시기를
ᄒᄒᄒ
스퍼
▁직면한
▁돌아갔다
▁영리
atic
manage
▁밝혀진
▁낙관
▁유효성
차별
▁신뢰성을
▁Dead
으시고
kt
▁베일리
▁생각하니
▁없었다면
화로운
▁깊어
▁극복하는
666
▁1922
.]”
▁절실
▁Syn
▁정작
▁Meta
▁이해한다
▁기여를
▁있나이다
▁가르쳤다
▁설득력
219
▁찍는
▁복권
▁변화시키는
흰
유익한
▁플랫폼입니다
▁85%
▁엽니
프스
▁광물
집행
▁지었다
lph
출애굽
▁레바논
ル
쿵
▁가볍고
▁고귀한
▁목적과
마누엘
▁닭고기
▁밝혀졌습니다
▁불과합니다
▁교련
▁과잉
edit
▁기억력
▁거주하고
405
CAR
▁낫습니다
블록
공기
▁불편한
470
▁생기면
하시어
▁식용
...............
▁멋지게
▁있긴
▁눈부
▁자원봉사
해지지
리노
하겠는가
▁시술
▁실상
▁긴급한
▁포탄
▁다가오고
▁물려
▁카이로
▁대항하여
▁나오면
▁귀하와
▁수상한
▁시원한
307
당시
▁얘기하는
~15
▁머니
▁서기관
▁취약한
Michel
▁차지한다
paper
▁일들에
▁made
았지만
▁Official
▁들어요
▁사신
▁임신한
rou
비밀
▁입었
▁쓰게
▁Change
위키
받았습니다
▁가능하다면
▁Rue
hl
▁명단에
tten
▁알리고
하오니
었으므로
1080
▁2021
들이었다
▁쭉
▁아님을
▁표현하고
▁저울
소설
▁디스
퓨
8.8
▁안료
완료
▁이야기합니다
ZE
걱
市
▁Library
▁Orphek
▁밀레니엄
▁베냐민
▁시퀀스
▁흩어져
縣
▁갤런
▁세면도구
▁임산부
Script
▁샤프트
▁Ultra
▁string
jpg
▁연혁
▁맞고
▁연상
▁poly
▁카지노사이트
▁갖도록
▁효율적이고
하나님을
▁ZIP
▁별다른
▁대응하는
sche
▁무렵에
▁콰
▁GPU
▁서쪽으로
▁언론인
wen
▁MAC
▁거두어
중학교
1.7
▁콩고
▁1400
인권
▁색으로
Joseph
~9
▁있잖아요
spir
▁협의회
▁메르
▁시작했어요
▁전설적인
▁겉으로
▁군데
▁날아가
답게
▁아름답다
▁안될
▁자녀와
▁저들이
▁direct
▁이기고
▁형편
▁떠나야
▁잼
▁있더라도
▁진행된
▁방지하는
▁생겨나
그리스
▁약자
▁운전하는
▁구원할
▁기능성
▁산하
III
motion
▁시민들이
▁옆으로
▁올리기
▁도착하기
▁연산자
▁못하겠
하셨어요
▁떠난다
항상
▁대충
▁(36
▁노력으로
▁국기
이렇게
▁한마디로
hou
해야하는지
협약
▁차례로
百
▁모세를
▁산티아고
同
▁슬로건
▁사춘기
▁Platform
▁three
apa
▁Think
됐다고
3-5
▁남겨주세요
tron
▁불규칙
▁„
스페인어
▁멤버들
▁헝가리편
▁이득을
▁스노
▁xxx
▁탈락
▁선진국
mble
-1000
▁싸운
▁이루어지지
▁리비아
▁여우
▁인물들
▁식별자
▁주연
gno
▁변호
▁성령으로
▁태양열
▁Nano
zip
▁규정하고
▁배부
▁김정
297
▁커터
▁+82
life
▁도미
▁교구
▁네팔
▁벤더
▁teen
▁주최자
▁스릴
▁원장
국내
TOR
▁설마
▁참석한
▁폴로
Min
▁분해합니다
▁원자로
Port
덩이
▁덧붙여
pes
INT
▁쓸모없
▁CIA
2.6
▁후반에
시키거나
▁Monte
▁많음
▁카운트
-47
▁알리라
▁Want
▁도출
밀리
▁존엄성
▁Φ
▁(13)
▁잡스
TEC
▁유성
▁처음엔
공유
▁목격자
▁경찰서
▁조장
▁물음
묻
▁Dev
where
▁선택권을
▁중심부에서
버드
▁인간성
▁결점
▁따르기
▁으니
▁끼치는
솟
▁Culture
▁Czech
▁IUCN
▁Seoul
▁대시보드
▁룩셈부르크
▁르네상스
▁애리조나
▁치어리더
川
▁이를테면
▁에디터
▁Summer
▁아폴로
▁Brown
▁글래스
▁시상식
▁챔버
▁가증한
▁ADHD
▁목회자
▁Ty
▁선구자
▁연쇄
▁제이슨
▁여지
▁휘트니스
▁향상시키기
줍
▁such
▁존귀
▁문득
▁Nature
▁둥지
▁친근
▁다행이
▁묻어
▁가온
▁몰두
▁수용체
7.3
▁연구개발
▁은폐
갈색
▁둘러싸고
▁Crypto
▁지질
▁개체를
▁나가야
▁신전
▁컴팩트
▁안정적
▁갈등을
▁모시고
▁Use
▁내려놓
▁부르며
▁Zen
rag
사업자
위원장
베르크
▁에이미
출처
▁ago
▁나간
▁강령
자격
▁돌아오게
▁3:16
▁되니
▁숨어있
▁시범
▁봤을
2006
▁재활
▁회사들은
▁사격
▁했는가
▁제시합니다
▁나타나게
7-8
▁상징적인
▁dia
NN
▁옳고
▁After
▁배치되어
▁역경
▁ᄏ
▁PLA
▁고맙다
▁언급하지
▁3-4
수입
▁IPL
Trans
절대적으로
탭
모르
▁10:10
~~~
오늘날
▁again
솜
security
▁Fetish
▁Privacy
궈
세금별도
▁모퉁이
❤
▁발가락
▁ROHS
▁밑바닥
▁컴포트
▁기뻤
▁Golf
▁카타르
▁나간다
▁끄는
French
1500
SGD
미술
Na
▁괜찮습니다
▁마늘
▁이끌었다
▁아뢰
▁공존
▁아니한다
▁현대화
▁행복합니다
▁도착했습니다
▁가족들을
▁고령
▁18:00
생물
▁급히
▁제공될
▁빌라도
jan
▁감사할
▁경상북도
▁cor
▁몰라도
AU
▁들리지
▁1904
▁HPE
▁인정합니다
▁기부금
▁가져왔다
▁서식지
>>
시키면
해주시기
할수록
band
▁갖춰
▁천사들은
University
Google
구멍
▁선호도
▁정신병
write
▁충족하기
▁모르게
▁겨드랑이
▁엠파이어
▁패브릭
▁휩쓸
▁Method
▁원활하게
▁핍박
▁하루종일
▁끈팬티
해주실
사도행전
▁스크린샷
▁이상적입니다
▁check
▁병아리
▁내식성
▁계측
▁향상시킵니다
▁좋습니까
▁좋을까요
▁평평
▁헬스
▁찾으실
▁일어났습니다
▁궁극
▁Highway
▁192
▁브로드
MAN
▁베이커
▁못된
▁분들도
▁단련
yon
▁창조된
▁취재
▁노력했다
▁엘레
▁사업장
▁음행
▁안내서
▁패러
▁헌터
재판
▁충격적인
▁서류를
▁일으킨
▁가십시오
-75
▁California
▁발목
OUT
▁즐거
▁준비할
▁쥐고
▁기여하는
▁싶지만
-38
▁극한
▁죽이려
없다
▁발현
▁작게
886
▁Nat
▁Kon
▁강화된
▁원통
▁값으로
▁변화하고
▁내렸
한글
▁이용하기
▁그에게서
▁설치하기
iana
hole
▁진행될
꼽
까진
▁것들과
▁왔는데
▁뇌졸중
▁펩티드
쭈
▁Secret
▁힙합
▁섹터
太
▁촉매
▁black
▁방사성
▁알았지
▁튀김
▁베로나
▁여지없이
▁헤드셋
▁덕분
▁민첩
▁노릇
▁울트라
▁구덩이
JR
lice
▁사슴
▁않았습니까
▁Fall
▁Snow
▁기프트
▁고전압
cen
▁WHO
푸스
▁와이드
▁맞출
▁대처할
▁전복
▁학자들은
▁않으실
▁표지판
▁진리와
▁가졌던
▁증가시킬
▁트레이드
some
▁Slot
▁추적하는
position
▁건져
▁살았습니다
▁세상으로
▁들기
▁위험하다
▁성장률
▁text
tai
▁트레일
Mov
▁같으니
해외
▁거부하고
8.7
▁장님
ISS
▁확신한다
▁총계
▁계기로
▁나가기
▁일으켰다
▁내리기
▁로더
켰
▁단절
▁가르친다
pair
elli
iden
▁Hen
댄
920
밸리
▁hot
▁한계가
▁연관되어
▁주문할
▁개최되는
▁보류
▁이동하여
Web
▁병든
▁누른
▁후손들
전통
▁검토하고
003
▁미치고
▁어린이들에게
▁사적인
코르
프로젝트
저작권
오사카
▁캐슬
▁Cottage
▁부에노스아이레스
▁콜로라도
▁테크놀로지
韓
▁우체국
▁융통성
光
▁유능한
Second
▁농산물
▁앗아
▁금기
▁예외가
▁Child
Custom
▁하이테크
▁came
▁신권
▁07:01
▁프리젠
▁무사히
시켰고
KM
▁문제다
eigh
▁ECU
▁말아요
▁실험실에서
game
0.7
▁있으니까요
aco
▁펼쳐진
▁씰
TECH
820
▁단풍
▁관장
ANT
▁낮다
▁다시금
▁있겠다
▁Mono
▁소독
▁명하여
▁별표
▁타격을
YE
More
▁98%
▁맞추는
▁돌아온다
카페
본적이
rup
▁생각합니까
▁Set
▁누군가와
▁강물
207
Not
이었어
▁사망률
other
▁그려진
▁발작
kit
▁늘려
애플
▁이해합니다
▁PAR
▁발견하지
▁척도
▁컨텐츠를
《
갤러리
멕시코
카메라
▁가르치기
Tech
▁IELTS
▁어드벤처
▁프린팅
ᄇ
▁마라케시
▁승강장
元
▁붙박이
▁도미니카
▁해내
▁please
▁Daniel
▁온화한
▁Clean
▁쿼터
▁와이프
▁하이라이트
▁습격
▁무의미
▁워킹
___
CON
웨스트
▁능률
▁테니
▁전자공학
▁있겠느냐
▁KP
받게
▁포도주를
▁알아보고
요청
▁온전하
▁FU
▁안전하다고
▁당신만
ried
▁손해를
▁문화재
▁방수포
▁처소
으러
▁태어
▁들었어요
▁쟤
▁버드
rip
▁사육
plus
▁Edge
▁욕구를
9.7
▁경남
▁고원
▁분화
▁지켜주
Game
berry
lton
▁추산으로
▁정신적으로
▁들여다
▁느려
▁신분증
▁중요시
▁제공되며
Learn
▁청소년들은
▁추가됩니다
utter
ledge
▁통치자들
/22
원칙
rec
SER
▁주장하고
790
▁승인된
illy
▁content
하시니
8°
hill
레스트
▁무능
▁독창적
▁자비와
-500
차전
▁마련된
▁기울여야
▁상무
eur
▁개인용
▁고양
qual
ENG
워스
Ti
▁있겠지
곧
협의회
▁따서
사무엘
▁드러난
돗
썰
▁Magazine
▁Medicine
▁개인정보처리방침
▁깜빡
▁라트비아
▁미네소타
▁유네스코
▁트랜지스터
▁옮길
信
宗
▁Foursquare
▁Dubai
British
▁NTFS
슈타인
▁Three
▁영원토록
▁있으십니까
▁의미하는지
▁구세주
▁총괄
▁정식으로
▁남겼다
▁나쁘게
0.9
▁좋지만
asa
iel
▁미국인들
▁버클리
▁nano
▁다목적
▁빠지지
40,000
공공
3°
2004
dh
때마다
▁승천
▁tv
▁들여다보
고양이
aine
▁추정된다
▁댄서
040
aver
▁용서받
dev
여호
▁크로나
▁나중
▁환영받
-81
▁시작해서
▁한편으로
▁솔라
pers
▁아벨
▁설사
▁예술적
▁콧
[2]
▁정정
▁사연
lav
oji
▁수요를
▁출발점
▁주민들이
▁세계화
▁Gro
▁생각하세요
학자들은
▁덱
1-9
4.3
▁비방
▁나아가서
▁튀어
▁FCC
▁국가적
▁오스카
헌법
▁경전
▁사설
습니
▁무시하는
OK
▁돕는다
▁Dark
▁압제
둠
겟
lad
[8]
캘
▁신속
▁Information
▁솔레노이드
▁팔꿈치
▁Floor
在
▁Stadium
▁넬슨
▁불어넣
▁코로나
▁하심이라
▁토리노
시대에
녹색
▁힘써
▁직원에게
KRW
▁나선형
▁돌아왔습니다
경우
▁털어놓
▁PPT
▁Oct
▁Hunt
▁환자들이
▁가깝다
▁물리학자
▁Mai
▁OFF
▁오스만
▁배틀
▁답장
▁(16)
Thank
▁선도적
▁들었던
▁판독
▁팬들은
▁선사합니다
▁Gate
~12
▁생각하라
교육청
▁정교회
SEK
바이오
▁Text
email
▁가령
▁프로브
▁tell
렸어요
▁질서를
▁특별하게
▁숙련된
하였느냐
▁살펴보자
▁실어
andy
▁European
▁만드는데
▁파악할
▁양수
▁조용하고
그것이
▁바친
▁불안감
보단
Art
▁Fra
ORE
▁year
ador
768
▁무시할
▁인턴
▁압출기
▁느리
ᄏ
▁LV
▁가까워지
▁생명으로
sible
trip
▁긍정
▁사자가
혐
꼴
짖
▁배당
分
샴
▁pvc
▁재빨리
▁크라쿠프
▁히스기야
▼
間
ñ
▁스커트
▁레지스트리
▁형벌을
▁리서치
▁부처
▁일어납니다
▁노동계급
▁림프
▁아내교환
%1$
▁받아들입니다
▁대답하되
bird
▁알프스
▁억울
▁따랐
▁카오
▁Dun
uer
▁Jeff
▁Wet
▁기념비
일요일
▁Bang
701
▁옆에서
▁신탁
▁클라크
▁지나고
▁되겠습니다
drive
쿠사
▁존경심
▁Unit
▁Tree
시키려고
▁급성
▁변경된
▁형제들은
▁최소한도
▁마시며
bang
▁watch
Babe
▁상주
▁다스리는
onia
flex
▁놀랐
▁기뻐하는
▁경작
/18
▁풀리
▁증폭기
▁있었지
2.8
anne
▁행함
▁1911
▁질러
▁태도가
▁바람직한
▁건네
▁길이다
믹스
▁Coast
조항
ural
▁다투
▁가졌습니다
umi
▁인정할
▁영민
▁일이었습니다
브르
loy
▁둘레
▁03:0
▁Shop
▁병거
▁귀사
하리이다
▁뭐든
▁초안
앰
▁Engineering
▁더럽히
▁돌고래
▁함부로
▁만져
VP
땐
쓴
▁좌측
cycle
▁함부르크
▁update
▁않았는데
-39
▁끝납니다
▁아버님
마루
duction
▁않더라도
Out
▁장례
▁생성하고
▁MY
▁언제쯤
▁해보고
news
▁Ferr
▁것같이
▁Mun
shire
심사
▁공익
▁적습니다
audi
▁모으는
▁조심해
prop
dt
▁도망가
Let
▁Force
▁똑
location
▁달랐다
▁쪼
▁케이트
▁하는데요
▁law
▁보이며
▁물러서
▁암석
▁Rooms
▁나섰다
소문
▁Lite
▁Ren
니이까
▁친밀
▁스펙
리즘
▁오십
▁일이죠
▁애정을
▁온난
Red
▁모건
▁길러
aku
▁Adam
▁Tag
▁없을까
▁배리
▁울음
▁도와줘
▁보병
▁동물들은
모양
분류
▁용액
▁1926
▁광부
▁팔았
▁찾아라
베드
아이들
▁개월전
▁어떤가요
體
▁본격적인
▁이렇듯
컴퍼니
▁일컬어
▁thought
▁정연한
▁Hilton
▁특유의
▁돌이키
▁할로겐
▁project
▁Process
▁오픈소스
▁PADI
▁미나미
▁그랬더니
▁무고한
▁만들거나
▁숨겨져
▁선택하기
▁새번역
▁박사님
▁순찰
▁인디안
▁혼잡
▁채취
▁LTE
▁새겨
▁Event
570
▁부정한
할지어다
▁아프간
네이션
▁지옥으로
Sharing
▁있구나
▁item
▁1-3
▁사랑하라
▁용이하게
▁트리거
▁판매량
▁발명품
▁남에게
▁night
▁일꾼
kHz
▁섞어
SON
ZAR
플러스
WP
▁단순하게
▁환전
▁요한복음
▁Bai
ppm
ego
490
행성
▁시집
▁냉전
▁고착
▁사랑받는
▁하나님께로부터
TION
▁이루어졌
▁경연
▁확률은
▁갔고
opt
▁연합뉴스
▁악용
로우신
▁♫
신앙
ete
▁방문했다
▁특징입니다
▁내외
▁경제학자
▁가족들에게
▁출시되었다
늑
▁슬라이더
▁Premium
▁Reserved
▁에콰도르
▁온타리오
▁인스턴트
▁한꺼번에
己
▁깡통
▁배고픈
▁시베리아
▁앤더슨
▁회원가입
▁해병대
white
▁Tableau
▁신형
cloud
▁노동조합
▁이국적인
▁나가사키
▁의사결정
▁코덱
빔
할머니
앨범
자세히보기
▁웨이퍼
▁가이드라인
▁Nav
▁금지된
▁다툼
▁표시되지
▁누구냐
▁누구라도
▁트로이
▁틀어
▁트랙터
▁오늘날까지
▁변하기
7.7
버린다
▁현명하게
▁압도적
▁필수적입니다
최소
▁간결
▁되세요
▁천주
▁무대에서
▁일으키고
▁15:00
▁형님
▁만찬
uple
브랜드
▁멈추게
▁늘어나고
▁짧아
▁사라지는
wind
공격
Mode
▁보장한다
씀
▁[23
▁마티
▁정기적
▁변환하는
▁커지고
▁원했습니다
▁내게서
▁받아들이기
▁Tam
▁와중에
polis
▁여성들에게
000000
▁입문
▁읽었다
▁반성
▁반응하는
▁여보
▁선수이다
▁문제들이
vir
헝
▁pay
▁바닷물
▁성폭행
外
氣
臣
▁거꾸로
▁십자군
▁유레일
▁image
▁놓칠
▁돌아간다
▁박쥐
▁어떠합니까
European
David
▁후계자
저녁
▁선언했다
원심판결
▁<<
▁특급
▁제안했다
▁슬림
▁제공된다
▁아름답
플릿
▁규율
▁para
반응
▁직통
▁태어나지
▁떠오르
▁집필
였지
289
▁걸렸습니다
▁왔지만
▁표창
하셨읍니다
▁만나러
▁모압
▁Info
▁에세이
▁Fast
▁달릴
▁예정된
공예
▁찼
▁여긴다
jp
9.4
▁소유물
▁왕관
남성
5-6
▁비판적
▁델리
▁풍미
▁셸
aging
▁동의한다
▁기사에서는
3:2
▁Non
▁사십
▁950
737
▁활용하고
▁근거하여
▁열려있는
yi
chain
▁하프
fan
loc
▁기대한다
▁프로토
▁Analytics
▁GmbH
▁유니버설
▁카톨릭
▁힌두교
詩
댈
듐
썸
옌
▁본격적으로
▁비주얼
島
當
▁힘입어
陽
▁레시피
Mbps
▁Natural
▁무엇이냐
▁filter
client
▁음식물
▁쉬메일
▁트레이딩
▁Liber
▁땅콩
▁줄무늬
▁집주인
▁말씀드렸
▁봉헌
▁구현할
▁당분간
샌
▁않으셨습니다
▁베드룸
€
꼭
▁눈빛
▁사카
▁아랫
▁넓히
▁다이버
▁성전에서
▁선조
▁서커스
▁명절
▁의료진
뱅크
▁기회입니다
▁AAA
/11/
▁깨닫
▁쓰여진
▁기아
▁소총
▁찍고
psi
▁폐수
YU
▁대양
4°
▁부분이다
▁하늘로부터
▁동서
▁법무
lead
▁중개인
575
순위
▁Near
747
▁Australia
▁선교인
6.8
란트
371
ancy
▁오늘날에는
ensor
▁가상화
6°
▁카바
▁Action
▁해리스
▁합법적으로
▁추천한다
▁진행되었습니다
밀접한
▁우리집
▁추가되었습니다
▁달랐
▁받음
Har
▁온통
▁끝내고
▁같지만
otto
▁늦어
▁이루어지고
▁버진
▁Pie
▁막히
▁차지할
pad
▁빨아
▁부모들이
▁LORD
▁TOEFL
▁챕터
▁포틀랜드
꽁
▁더더욱
▁허리케인
▁바인딩
▁PowerPoint
▁Special
▁엑셀
▁쟁반
▁대표전화
▁알지만
▁인증된
런스
[13]
해지면
메트
▁올립니다
▁보스톤
특허
▁놓습니다
▁►
▁증강
▁GIF
▁분리기
▁몰고
▁생산자
먹고
rink
▁고해상도
▁교통편
▁매료
▁쟁점
▁되신
▁구축할
▁Image
▁풍부하게
▁나님
lv
▁명언
▁(18+)13
▁Forest
gie
▁영주권
▁노동력
왔어요
CIS
▁오늘부터
▁만들어주
dale
일지라도
▁옳다고
▁Rule
▁무상
▁버티
려니와
이라서
셨읍니다
▁만들었고
3.6
▁1907
▁Cab
▁못함
▁1906
▁왜냐
주어야
▁포함해서
9.3
모드
▁뜬
▁필요하며
클리프
▁미들
306
스레
▁말한다면
▁모여서
▁호박
▁겉
닙니다
▁싸워야
▁나오기
▁요정
댔
▁Description
▁Samsung
▁language
▁브러쉬
能
▁방사능
▁어딨
▁에폭시
▁리차드
▁blue
▁런타임
▁result
▁닝보
▁Address
▁엑스트라
▁Hyper
▁소행성
▁Chat
후보
▁메틸
▁슈퍼맨
▁문의사항
▁소지자
오스트레일리아
누군가
▁간행물
▁육류
▁계시니라
▁근사
▁잔류
▁Solutions
▁변화시키
▁면책
하시니라
EMI
바퀴
▁Arch
▁사교
▁탄식
독립
▁있겠습니다
▁소년들
▁22:16
현황
▁끼어
▁닫히
▁청소년들이
▁Kin
▁창업자
TEL
▁다니고
동맹
176
▁국가들은
▁Tar
일동안
▁끄기
▁말았
▁것만큼
▁떠나게
lines
▁건국
▁베일
이라며
▁강타
▁Sav
▁깨지
▁UX
▁일치하게
▁작성일
▁아브라함에게
노래
build
▁긍정적으로
▁찌르
▁Rub
Love
▁받아들여야
▁작가들
ashi
▁복음서
335
hub
100%
▁Creative
▁닌텐도
▁멜기세덱
▁브릿지
▁잘츠부르크
制
Universal
▁Secure
▁Professional
▁패트릭
▁10.1
▁오라클
▁Living
▁Silver
▁엮
▁일상생활
크래프트
[14]
▁Ul
olly
ception
▁넘지
Plus
▁GUI
▁사이먼
▁photo
▁보여주었다
▁테리
Donald
▁수행됩니다
▁놀러
▁찍을
▁역임했다
▁제품소개
▁shall
▁분석기
▁믿으며
▁바꾸지
▁사용하세요
▁국무
▁상세히
▁등불
▁낳았다
▁김영
▁쉬지
▁당겨
▁158
▁조리법
▁제자가
▁사마
korea
▁청주
▁취약성
▁제공하도록
There
▁사랑하기
▁시작됐다
▁철거
▁Face
▁필요해요
트릭
6.0
타락한
▁처분할
▁장착된
했더니
보겠습니다
▁Spec
▁우울한
▁다가오
690
420
▁유동성
▁남기고
▁어둡
했듯이
했는데요
elo
▁Gardens
▁리사
▁Fund
▁1925
▁괴롭히는
▁알겠어
▁학자들
▁포항
▁들어있는
▁않으니
토바
▁불확실
▁Oak
278
윽
▁햇볕
通
겜
엥
▁미묘한
▁엎드러
▁Victoria
▁크로스드레스
▁무결성
▁배고프
他
▁전액
문화유산
▁원산지
▁리드타임
하심으로
▁체계적인
strong
▁탐지기
붕
▁소고기
▁고급스러운
▁원하신다
▁뛰어들
▁민사
279
8-9
졌던
▁끝났습니다
606
삐
에스겔
▁택배
자세히
▁단결
그렇다면
▁친족
▁불립니다
호흡
▁트레이더
아담
▁로마서
▁초록
▁아이언
▁형제들아
크리스
▁소나무
▁못한다고
▁다양하다
▁물리적인
755
하십시요
▁눕
2001
▁0.05
▁Bath
14001
Archive
▁졸업식
푸드
▁말씀하신다
▁천국에서
중략
▁없잖아
뿌리
ATION
▁방해하는
▁딱히
▁Louis
▁앞선
▁Beat
OUR
▁정류장에서
사이클
lands
역학
gt
fix
브룩
ista
었더니
▁Yan
▁UNI
▁Daily
▁Mozilla
▁Shanghai
▁Technologies
▁멈췄
▁전라남도
▁직사각형
у
▁댈러스
▁오디션
▁챔피언스리그
仁
▁볼리비아
▁않의광고
▁Speed
▁고밀도
사이언스
▁숨기고
▁한눈에
▁들어가면
▁Self
▁Index
▁참석할
▁잉태
▁역행
lac
▁입력하여
▁뺨
▁권총
▁차선
▁소용이
▁메세지를
▁미혹
▁피에르
▁퀸즈
수출
엉
굿
▁누출
▁받도록
DER
▁톰슨
선생
▁error
▁만들려면
법칙
▁지루한
▁치열한
▁불렸다
▁알려줄
abel
▁기억하세요
▁강의실
▁전도성
▁거점
▁진행되었다
▁자연스럽
▁새우
▁읽어야
▁유기체
▁고려하고
▁전통적
서류
프레임
▁증폭
287
더블
web
올리
conf
▁Record
▁Deep
▁Mak
▁Bla
▁파편
▁되고자
▁재량
2°
싶어
▁녹아
▁주인에게
▁선동
약관
▁상부
졌지만
▁파티오
뻐
dust
▁뭐냐
▁알렉산드
▁과소평가
▁동아일보
륵
▁애프터
古
永
▁미련한
▁흥미롭게도
▁물어볼
▁포인터
▁전형적으로
▁another
▁가까웠
config
▁매혹
▁잔혹
▁외곽
▁손바닥
▁헤엄
▁아무에게도
-05-
gua
0-7
▁없으리라
▁원작
**
▁웨이브
▁열처리
▁확인해보세요
▁수십만
▁별거
Place
하였읍니까
▁제사를
▁채광
DVD
▁신흥
▁아드님
Open
▁HTC
다닌다
▁자라나
home
▁언더
우리에게
▁다녀왔
책임자
plan
▁발견하였다
▁취해야
1996
▁도망치
▁떨어져서
▁삼상
▁놀란
▁말린
890
▁기동
▁Xin
▁가려고
rik
▁Joe
▁구성된다
jin
▁치매
▁기울일
670
▁GMP
under
하시면서
▁분리되어
▁폐허
▁대가로
▁영영
▁사용자들
▁낚
▁지정되었다
▁증여
▁엄격
▁투기
▁포함되는
-120
▁등록되어
▁대역
▁종식
▁번창
▁자리잡
▁대패
▁연어
▁어머니에게
▁바꾼
▁유화
▁적응할
닮
훼
▁Expo
リ
▁message
▁맙소사
▁아제르바이잔
▁클램프
▁해밀턴
☞
global
▁매디슨
▁Client
士
▁경이로운
▁Learning
▁훔친
▁Sleep
▁워낙
▁관절염
▁관련하여광고
▁침몰
▁못하지만
▁변조
▁Albert
▁틀리
▁굴욕
▁귀엽
▁슈팅
▁간혹
▁폴리머
▁경쟁력있는
▁렌트
▁날부터
San
▁경영학
▁번역판
투표
▁주어지는
돋
비즈니스
기독교
스마트
그래픽
▁강화하기
▁들어갑니다
▁자각
▁거둘
nation
현장
워터
▁일시적인
▁최강
▁물질적인
▁말해줄
▁로렌
▁선정되었습니다
▁가세요
▁비극적인
▁지원됩니다
▁전국적으로
1:1
▁Rio
illo
060
abi
▁만들어져
▁씹
독일어
dle
▁Kill
▁Perv
def
▁칭호
▁옮겼
▁부당
Base
▁젊고
07:59
inter
▁없으시
▁줄리아
▁키우고
▁fun
유형
▁베네
igo
▁놀라지
▁한정된
▁세팅
▁형제들에게
▁다양합니다
▁쉬고
duct
▁선불
osis
▁무색
▁Solar
▁돌아갔
▁시작하세요
▁영구적인
방문
▁담당하는
769
하시되
▁1,200
▁따랐다
센서
▁알았는데
▁왓
탠
겠나이다
▁Electric
▁넷플릭스
▁사무총장
▁챌린지
▁컨시어지
믈
욘
퀼
́
쟈
▁깨달은
▁벽난로
▁Theater
▁섬세한
▁learn
▁저절로
▁those
▁보행자
ANKO
▁Touch
▁직렬
▁떨어진다
▁번쩍
문화재
▁투숙
▁떠났습니다
▁의롭다
▁멋있
▁환급
▁많았습니다
▁Scott
▁case
하거든요
▁지나갈
▁탈린
▁IMF
▁글렌
그릇
dies
▁김씨
▁유권자들
▁에이스
▁계량
aven
트론
▁되었죠
▁보내야
▁1921
▁보내십시오
OOD
▁낮음
음으로써
▁패스트
▁방문하면
-2018
▁자발적으로
관리자
▁Milan
Read
▁저번
10%
▁선정된
▁자주색
▁책정
▁심플
▁유해한
▁연재
kon
▁Prince
▁----
▁연루
IFF
RAM
▁조세
▁떨어지지
▁지난달
렸으며
▁format
▁구워
▁불과한
▁나뉘
크로스
▁철학적
▁types
발표
▁(2004
PRO
▁여자아이
▁침례받
▁걷어
▁신상
▁제시된
▁가족이나
▁불구
mine
Break
▁사용되며
757
▁그렇듯이
▁Sony
▁발표되었다
▁없어졌
▁girls
▁참석자
0.6
깁
▁성령님
イ
▁Environment
Ø
à
▁KatesTube
▁little
▁레코딩
▁매개변수
▁에티오피아
▁오브젝트
▁퍼시픽
▁페더럴
▁고스룩
▁왁스
▁활짝
▁블럭
▁resource
▁지혜롭게
▁나사렛
벌리
▁노키아
▁병렬
▁자유롭고
▁염화
▁SEC
빌리
JI
▁시리얼
▁원하노라
▁IPv
▁가져갈
▁검증된
▁맞았다
308
▁자켓
▁담요
▁점성
▁동의했다
haus
(...)
▁이후부터
▁해당한다
▁되었으니
▁모친
▁되십시오
▁소포
▁WW
▁중핵
▁바르게
농업
▁Kir
▁연결될
▁감금
▁정맥
▁말하는데
▁글씨
팩트
▁뭐든지
갑시다
▁Close
▁1908
▁ICT
green
▁지쳐
-2019
588
▁않을거야
▁책들을
드라마
들끼리
▁되겠다
8.1
▁현실적으로
▁Rome
▁탄성
▁연주자
▁허락하지
▁Est
▁선정되었다
글루
▁안다고
할지니라
▁담당하고
▁왼손
♦
▁Economic
▁default
▁이튿날
▁조선민주주의인민공화국
▁크리스토퍼
띤
君
以
▁승용차
▁JavaScript
▁APP
▁라이프스타일
▁Again
screen
▁Jones
▁겹쳐
▁베푼
▁very
▁학점
▁Jane
High
▁being
born
▁안토니오
▁레논
▁동유럽
Object
▁DVR
타니아
▁Font
▁레알
▁잊으
▁분께
▁의심하지
Power
Singapore
촬영
▁맺었다
▁실천하는
▁Was
▁교직자들
USB
▁경계선
1997
▁앉았다
▁골절
▁원칙적으로
▁독자적인
▁먹거리
▁연민
▁덜어
▁숨길
드레스
▁단열
▁필요가있다
ón
▁불화
▁여행객들
▁머물렀
▁교수진
alia
▁되려고
▁에스테
Conf
▁종사자
▁끝내기
▁이동성
럿
▁부적절
산물
▁사탄에게
▁좋아한다면
▁신학자
▁기내
▁제공하려고
했노라
688
▁국민들은
▁초과하는
BRL
▁말미암
▁바뀌지
▁재충전
헥
Entertainment
§
▁Netflix
▁cannot
▁밸런스
▁스웨터
▁이코노미
▁찜질방
▁프렌치
▁헬싱키
▁더글러스
▁라우팅
▁베들레헴
▁프로세싱
▁부통령
▁순전히
▁풋잡
▁밀가루
▁Children
▁랜드마크
▁발췌
▁셔터
바운드
▁Things
▁Crown
▁맨끝
었읍니까
▁부지런히
▁늦추
▁노즐
▁토머스
▁숨김
▁VOD
▁혈통
▁사파리
▁참여하기
▁직면하게
SEC
▁국수
플린
▁빠졌다
클린
▁게놈
쭉
ᅵ
똥
Global
주식회사
▁stop
▁의미하며
-2017
▁금리
▁대단하
mad
Life
▁헬렌
▁비교하면
▁Cast
▁따뜻하고
▁신기술
▁표하기
▁공명
▁민주적
835
▁2~3
▁미용사
SIC
▁벗어났
▁찾고있는
▁로맨틱한
프랑스어
▁기뻐할
▁다름없
▁Dam
3-7
▁말했던
▁일으킨다
▁살아있다
마세요
▁확인하실
▁Advanced
▁Than
▁보관소
vic
영화제
▁물리적으로
▁편의점
6:3
찾
툼
▁헬기
▁구입하기
▁뭔가요
▁국제법
▁변경되었습니다
說
▁Yobt
▁자카르타
▁팜플렛
대백과사전
ᄆ
▁install
作
▁상고이유
▁닛산
▁으뜸
▁Small
▁카르멘
▁브로셔
▁이동식
▁일련
▁Milf
▁어디에나
▁흙으로
▁보관함
▁있었는가
트럭
▁흡연자
▁기간동안
▁점착
▁시연
▁——
▁‚
▁맛집
wire
▁털실
▁(22)
레즈비언
▁가입하기
world
▁섬광
춥
▁닫습니다
▁Bow
리조트
shine
돌아
▁집권
▁임박
▁탈모
다섯
▁이기적인
Drive
▁비콘
▁선보였
▁본관
RR
▁유용하게
▁미녀
yuan
ELE
▁생각된다
cular
ambo
▁Say
트레이
▁울려
▁준수하는
▁성원들
quest
▁단계별
gov
▁민주화
▁0.25
type
▁안정적으로
▁선도하는
6-2
▁피하십시오
건물
▁심화
▁명하신
▁탄산
증권
uma
▁조형
▁회원님
▁앉았
407
▁박동
▁계시며
포토
하겠죠
burn
▁뇌물
▁끊어지
▁기도하라
▁부합하는
▁맞추기
[“
▁나아와
▁게시된
▁작다
힙
AMA
멈
ᅡ
φ
▁Cathedral
▁Shenzhen
▁셰익스피어
▁얼라이언스
▁옥스퍼드
▁프란시스
武
옐
Beyond
江
▁솜씨
▁제니퍼
▁변속기
▁Spirit
▁Miami
▁거룩하신
▁마차
▁죽어가는
▁설립했다
▁놓았습니다
▁물어보세요
▁일회용
▁조경
▁중앙은행
▁구매하기
▁일괄
BET
▁원하십니다
▁셰프
rush
▁풍속
▁Visa
casting
tric
▁합법화
▁닫힌
▁설치하십시오
▁마린
화장실
▁혼란스럽
you
▁반복되는
▁충실하게
당국
▁소경
▁동결
▁노조
혼자
없음
▁넓어
EAR
▁어머님
▁고객사
▁엄지
정권
Good
▁시작되기
▁고안된
▁Calle
1800
▁에버
▁합법
▁않았음
▁뚫고
▁던진
전압
▁경외하는
▁마시면
▁금메달을
3.7
▁알릴
▁반석
1/2
ography
▁자원봉사자
▁포괄
▁파동
▁구입하신
파르
▁Mah
▁희망합니다
logy
슬링
▁은사
▁초대장
맥스
▁멀리서
메드
▁도달하기
▁만나보
▁save
▁알잖아
hip
-150
▁Industry
▁business
▁개발도상국
▁두브로브니크
▁바이올린
▁휩싸
身
잣
▁빌어먹을
▁솔리드
利
▁member
▁캠브리지
▁import
▁움직였
▁클레어
hours
▁프레임워크
▁click
▁만드십시오
▁생깁니다
▁칸느
AGE
▁히가시
▁생각해보십시오
▁MVP
▁환상적
▁디지털화
3-8
▁있었으니
▁1915
▁잃는다
▁사쿠라
▁might
OST
▁KDE
rah
▁급증
▁결정됩니다
▁다듬
개역
▁직위
▁방귀
▁예견
겸
▁죽었습니다
8.0
▁rule
▁웜
475
▁끝나기
▁말하더라
Key
▁매달려
▁반복해서
AVE
dro
▁청력
▁mind
▁기쁘다
▁Case
셨음
▁없네
▁악당
▁자극하는
▁따르라
▁목장
605
▁익사
▁values
creat
005
▁유발할
▁육체적으로
▁배구
▁비싸다
▁실제적으로
▁반발
▁영감받
▁발견되었습니다
▁루크
십대
▁Mass
▁강선
▁imp
▁Jean
▁유용하다
▁스프링스
▁딸기
立
▁Antonio
▁Virgin
▁볼셰비키
▁않단광고
▁앗수르
mobile
▁Recovery
▁섭씨
▁저녁식사
▁파이썬
▁원동력
▁흘려
▁크리켓
▁href
▁언급했듯이
▁놀이쇠
▁경쟁가격
▁올렸
▁이태리
▁노력하겠습니다
▁고등학생
fly
▁동등하게
▁실용적
▁Len
▁멕시코편
뜰
▁진압
▁무얼
핑크
▁광고주
▁심볼
▁사찰
▁낙타
▁Cell
gli
¥
▁전면적인
▁강조하고
▁away
▁맞죠
스토어
▁존속
▁말했고
오직
oka
▁생명력
▁파커
▁Apt
▁낮습니다
mile
▁소수점
▁연회장
▁들어와서
▁받았는데
▁의존하고
▁거룩함
젊은
▁옮겼다
▁일본군
▁Shin
▁따지
▁관련성
9.6
위안
츠키
▁이어져
▁세계관
▁PIN
▁Lock
▁대응할
flat
존재
▁찍었
▁공표
UAH
▁의사들이
로봇
▁어쩌다
▁돌아가셨
▁Rich
깅
▁next
▁밝아
▁생년월일
▁탄수화물
▁테라코타
이었더라
▁형제자매
▁구급차
▁초창기
▁Bull
▁교대
▁에스코트
▁vCenter
▁취급방침
▁망설이
▁always
▁Value
▁나름대로
▁얻으십시오
ammer
[17]
dium
789
▁덤프
▁의심스러운
▁지탱
겠노라
▁살해당
▁이야기하기
▁(23)
feed
▁화평
▁어느정도
▁유효하지
▁포용력
▁폭풍우
융
LOG
ICS
bur
▁교차로
▁얻으려고
896
▁겸용
현상
더냐
대한민국
▁도왔다
▁있으신
연합뉴스
▁Gene
pri
▁테니스장
▁Bag
▁연구원들은
▁생각엔
규모
항목
오버
▁간단하다
▁지하실
▁모이는
▁천문
였는지
입장
vr
▁효과적입니다
▁강조하는
iness
하시게
▁흐르고
▁Wave
바흐
▁래리
해보면
▁읽는다
▁죽이기
▁대변인은
IKE
treat
6-7
stat
투쟁
바이트
▁넘겨주
하자마자
▁풍요
▁Flu
해주지
뜯
⠀
▁Experience
▁Sydney
▁character
▁베스트셀러
▁볼티모어
▁스타벅스
▁암모니아
▁이모티콘
▁필라멘트
삿
샨
▁Railway
▁하우징
▁철망사
▁스폰지
▁추기경
double
▁미가엘
▁뮤직비디오
▁프린스턴
▁폭동
▁고구려
▁보스니아
▁절삭
겠느뇨
RED
▁줄곧
▁시합
▁탈취
▁받으십시오
▁책임을지지
▁회견
▁가위
▁쉬울
▁검정색
▁사라진다
▁샘플링
horn
▁법무부
▁간염
▁살아서
▁색조
tek
▁선출되었다
▁Never
랭크
▁쿠퍼
▁국제사회
ube
Blue
▁개발되었습니다
▁Buy
▁낙심
0-6
▁없으나
lix
▁간증
▁가르쳐주
뤄
▁입대
▁해봤
▁수신자
▁발판
▁자랄
▁너랑
▁Hai
fair
rab
▁자행
길래
보았습니다
▁캘리포니아주
▁최적화하기
▁남기지
▁정중
▁단말기
▁굉장
▁조율
.’”
▁죽었어
gun
▁Indian
▁미시간
체크
▁Band
▁size
▁대답하였다
겠나
▁메릴랜드
▁보살핌
▁어마어마
▁트로츠키
▁펜실베이니아
福
▁standard
defined
▁package
▁햇살
카미
▁천안
▁알렉산드리아
▁wife
▁그레고리
▁헤롯
▁창시자
▁떨어지고
▁가로막
▁사람들처럼
▁가능하면
▁의료기기
▁필요하십니까
킹제임스
▁UTC
▁데이브
▁없도다
▁기초하여
▁없었으며
판결
▁늘릴
▁개방형
▁니콜라
▁MDF
HAN
scan
▁진행된다
▁클리어
▁생각했어요
905
▁올리버
▁열풍
▁히브리서
숲
아브라함
▁CAN
▁Guy
388
▁시급
▁선악
oda
NOK
▁외식
겨울
▁나타내기
▁마땅한
1.9
▁보리라
되었음
▁받으셨
쳤고
LAS
3-4
▁쉬어
TAL
▁실감
▁돌려주
하임
▁있었나
▁정전기
oral
▁Marine
iles
링턴
▁먹여
고싶은
칫
▁리플
▁나아오
멧
▁Communication
▁다룹니다
▁쌓여
▁current
▁account
▁캐서린
▁command
▁스탠포드
▁초고속
▁충당
▁Photoshop
▁IEEE
▁눈썹
▁넓혀
▁고속인터넷
▁항아리
▁why
▁한결같
▁고통스럽
508
▁순응
▁채용정보
▁낙담
▁DMX
▁벌어질
▁Cool
▁맨션
▁Wank
▁Mike
하시느니라
스페이스
▁하카타
▁실패했습니다
Add
▁공격력
7000
▁다니며
▁캐리어
▁장기적으로
광장
▁확장성
▁타이거
세력
▁키울
▁어둡고
▁제트기
First
uh
▁이른다
프로필
▁해법
▁몸매
▁대금
1600
▁환원
▁신임
ITY
▁잡아먹
▁크리스티나
▁극복하고
▁신중한
오너라
▁발산
▁버크
EAN
겠군요
▁사랑해요
5-8
▁이룬다
▁만족스럽
▁염원
▁Had
▁해치지
▁가로장
▁나열된
▁자백
▁회신
일째
▁격렬
였으나
▁June
▁급식
었을까요
▁친숙
▁품위
▁없었어
아무도
▁적합성
▁사나이
▁블루스
▁학습자
▁되었을까
▁기울이지
▁안정화
베르트
씁
м
▁반려동물
▁갇힌
▁미크론
▁캔자스
白
▁명목상
3-3
▁포르쉐
Tokyo
loss
stream
▁고상한
▁않으십니다
▁자부심
▁story
5.9
▁루시퍼
Gem
▁균등
▁놀랐습니다
▁suite
▁소돔
▁포옹
fun
▁발휘할
▁에스더
▁실행됩니다
▁감정적으로
▁보험료
rated
테이블
▁뒤집어
▁영구적
▁흉내
▁Rating
▁양파
▁효과적이고
rail
▁기차역까지
▁McC
▁갔던
하기위해
▁1913
▁Fax
▁Look
▁열정적인
▁악행
ahn
Pay
▁LPG
▁되실
▁말대로
▁국영
▁죽이려고
▁모독
▁원판
▁청결한
▁없으니까
▁발열
졌는지
런던
▁(2003
▁가족들과
cess
▁되려
▁음료수
▁많지만
됐으며
▁놓지
개씩
RAL
▁비준
참조
rchived
▁주시며
359
되어야한다
▁Track
있으며
셔널
DY
▁Made
마르크
▁식물성
phen
▁도착하면
ifier
▁Exhibition
▁Python
▁macOS
▁굶주린
▁뉴올리언스
▁뒤셀도르프
▁므낫세
▁쌓았
랠
쿰
▁필연적으로
▁깜박
▁포토샵
▁핑계
▁악어
▁분사구
▁정거장
토론
piece
▁지게차
▁2015-05-0
▁마분지
▁버젼
▁같음
러므로
▁파이프라인
▁리얄
▁닫혀
▁설명되어
▁놀라울
▁레인저
▁클레이
▁보여줬
NZ
▁테스터
▁Stop
웍스
Guard
▁터키편
▁사장님
▁별장
▁믿었습니다
▁통근
▁부두
▁계집
▁느껴질
▁승률
재생
ARK
▁정욕
▁03:00
Imp
▁안돼요
enda
ECT
▁들으시고
▁파열
788
logic
공휴일
※
바카라
▁폭파
팬티
▁들어오지
▁권면
▁단언
▁도덕적인
모텔
▁말했어요
나쁜
줬어요
▁살펴본
▁예상되는
▁남았다
▁월터
▁낙관적
▁기종
rod
CAM
통영
▁상태였다
▁시료
▁Gall
IEC
▁건배
▁쉬웠
fold
▁결정된다
555
▁존경하는
5-2
▁웨인
008
솥
▁Study
▁움직인다
▁칫솔
▁텔아비브
▁희랍어
九
▁Francisco
▁computer
し
面
▁Melbourne
▁일컫는
▁힐러리
▁collection
▁조그마
▁테두리
▁하물며
▁네이티브
▁대담한
▁웅대한
▁카우보이
▁뒤덮
▁FARO
▁Peace
▁LGBT
▁Legend
▁MacBook
▁리베
▁Local
혹시
ᄏᄏᄏ
▁곤경에
▁연사
▁기계설비
▁몰랐어요
ANA
▁young
윤리
▁동아시아
title
▁감명을
▁위력
▁면밀
kel
80,000
▁황소
▁덴버
창세기
gged
50°
~30
▁Zone
▁배팅
bury
tti
메디컬
▁호흡기
톰
밑
▁향토
▁빌더
뱀
▁멸망시키
hof
▁투르
post
ody
Why
온천
▁요금제
▁김종
~+
▁찾으려고
▁고요한
9.8
▁Yes
▁Dance
Master
▁꺼져
▁치마
▁1890
▁목욕용
텐데요
776
▁받아들였다
저항
▁흐른
▁직원들에게
▁싸우기
▁종전
▁보도했다
▁고객님께
낀
故
數
▁Lenovo
▁머지않아
▁볼베어링
▁탈레반
誓
ú
✔
六
史
▁립스틱
▁패러다임
禮
▁트래블
▁도무지
▁호이스트
변환
▁강수량
▁Voice
▁챙기
▁money
▁Disney
▁Zhong
▁much
▁불려
▁초과하지
▁카세트
▁적군
▁흉터
▁Forum
▁네바다
▁웃으며
▁Gmail
▁아니하리니
building
▁지금껏
출장소
882
▁케이프
▁Cris
▁서빙
▁되려면
▁변태
▁적당합니다
▁관심있는
앞으로
Wiki
▁달라졌
▁대변인
컬러
알코올
필수
Hotel
▁선명한
날짜
▁살릴
심판
▁백제
일반적으로
오픈
▁가능케
▁대왕
▁묻기
▁부스터
373
인책
rine
틀란
pra
agon
▁캔디
▁않겠다고
▁숭배자들
▁허용됩니다
990
▁봉기
▁청소년들
▁헌장
tong
▁사람이었습니다
▁단속
▁논리적으로
▁Mile
▁예후
esse
span
▁소생
터키
▁보도한다
▁unit
▁타올
357
ben
괜
發
ト
January
▁매사추세츠
▁아름다워
▁옐로우
▁지킵니다
▁충청남도
팰
祭
▁April
▁기다림
▁디테일
▁뭉치
▁매트릭스
▁market
▁싱글침대
▁Leader
▁Basic
▁against
가운데
▁제삼자
▁성폭력
▁엔트리
▁로빈슨
Perfect
▁부정확
▁Hop
▁친척들
▁전도인
연료
▁홈즈
▁일어났던
▁거두었다
▁고맙게
▁해결되지
▁우위를
▁작지만
with
▁되리니
최종
라곤
▁필수적이다
▁돌볼
▁CRM
▁형통
흡
백색
▁입력하세요
▁바꾼다
▁네번째
▁돌진
004
셸
090
▁먹습니다
홍콩
▁받게됩니다
슈퍼
▁Oil
▁내륙
▁공격자
▁체조
▁십대들
▁맥락
▁수익률
▁변화시키고
▁있든지
347
▁돌보아
▁알아보자
cious
▁것이어야
arrow
▁(2001
펙트
▁변모
wise
▁현실적
천군
abol
▁1895
작전
탄소
like
▁들으시
수익
▁벗어나게
▁Steel
비키
▁입안
▁물어봤
▁공개되지
▁내려다보
▁사회학
되었으므로
▁thing
team
깝
▁추리
▁불러오
▁SUS
▁Simon
▁Alliance
▁박근혜
▁브래드
▁비정상적인
▁앙골라
▁헤어드라이어
靈
땡
쏜
프로테스탄트
德
馬
▁상응하는
▁두드러진
是
出
▁walk
▁트롤리
▁촉수
▁롤렉스
▁학문적
▁버거
▁메시징
▁받으려면
▁닥치
▁달란트
▁50/60
▁느껴진다
▁Right
하건대
▁판명
sheet
▁생수
▁사라졌습니다
▁비틀즈
otel
▁트립
▁팀원들
▁반납
909
▁미용실
▁이어진다
▁떠들
▁상업적으로
특정
회담
onne
▁이어졌다
wick
▁있었나요
▁겪었다
▁MSN
▁내버려두
▁시청자들
▁미치게
▁going
▁Wei
suit
Log
▁성령께서
775
▁유전학
▁잔액
▁STO
2003
▁야영
▁더듬
▁실려
▁왕께
▁해칠
▁라인업
▁헌금
▁Trip
많
Recover
▁사람으로서
▁만드시
chat
488
▁틀림없다
▁헤비
yne
이미지
하니까요
▁1909
▁교인들
▁포즈
▁삭제됩니다
fla
▁Mount
ibility
분들께
野
▁October
▁Pattaya
▁machine
▁something
▁위스콘신
▁초콜렛
개인정보취급방침
젝
퍽
▁DDoS
▁구부리는
▁완충기
里
▁BBQ
▁자바스크립트
▁테네시
▁상반기
▁닮아
▁찾아보기
▁송아지
▁씌우
▁저널리스트
▁Norton
▁쓰인다
DKK
▁받아들인다
증명서
▁고효율
▁나타나면
▁농축
▁안뜰
▁이어폰
▁외쳤다
▁퇴근
▁색칠
oshi
▁쿠션
▁충족시키는
▁Today
▁말하노니
브루
▁명시적으로
▁원하신다면
▁매칭
Zog
60,000
▁같으니라
▁드러낸
▁절박
rock
▁같으며
▁보육
전환
▁결여
▁콜드
▁농민들
Comp
▁집중력
▁거시기
note
667
▁제어판
파트너
Super
회복
장애인
▁틀림없
▁로렌스
Easy
▁하나라도
▁CBS
파괴
▁읽게
▁침구
868
▁생겨난
숙박
▁편리하고
boot
▁않았을까
▁ZMo
▁낭비하지
▁스물
아니라
각각
▁POP
▁입증된
▁EOS
▁추후
▁흔들어
▁작사
▁시위대
▁프레드
ival
▁지적한다
▁곳곳
MER
▁귀찮
PVC
▁전송됩니다
4-7
577
▁채찍
예배
死
≫
▁Memorial
▁Results
▁까마귀
▁리오데자네이루
▁뮤지엄
댕
툭
▁깨달아
▁스쿠버
漢
▁리무진
▁앵글
▁Deutsch
▁OBD
▁Picture
▁level
▁Single
▁Cyber
▁교통사고
ogue
▁즐겼습니다
▁매듭
787
▁생각해보면
▁blog
▁서울대학교
▁July
▁애착
mix
▁아쉽
▁맞은편
그래피
▁Rap
▁되겠죠
▁주시겠습니까
▁Mission
▁그녀들
아랍
cott
▁막내
안마방
▁행하시는
아닌
▁회전식
▁나쁘
▁승화
▁장담
▁끼친
올림픽
ür
쏘
■
캠퍼스
영원한
▁난민들
▁쓸어
철학
주님께서
▁흥미롭고
▁스캔들
▁심장병
희망
▁않으려고
▁내장된
탈출
▁Iron
▁명철
▁없어질
▁영속
▁이루게
▁eat
걸까
▁재생산
▁얼어
vey
Play
mov
▁못하였습니다
▁Texas
▁release
▁꼼꼼
▁도끼자국
▁부쿠레슈티
▁자메이카
▁전라북도
た
됬
뛸
▁Historic
▁가늠자
▁떠올랐
▁아이패드
▁오아시스
居
▁휴양지
族
▁웨일스
876
▁Christmas
스럽지
▁쇠고기
▁종로구
▁애초에
▁다치게
▁UAE
▁엑스레이
▁예고편
▁광대역
▁주어집니다
sqm
▁제이크
▁NFL
▁기대치
되었는가
▁슬립
국립
▁나아질
▁allactionhost
▁찾으시
연금
▁기절
▁Zip
▁소닉
▁조심하라
▁요압
▁망각
▁Bot
▁05:30
▁바쿠
▁던지기
▁신하들
▁청색
▁Chain
셀라
▁좋아지
▁석판
▁Marco
▁강판
▁그레이스
하거늘
줌
▁바리새인들
▁준수해야
했네요
▁마블
▁Block
▁과립
▁사서함
흠
Black
▁당신들에게
center
▁Esp
▁기울기
▁만족감
▁말이니라
▁희생자들
▁뭔데
Max
ribe
▁1~2
▁훌륭합니다
trix
gro
▁주권자
vit
10,000
했었죠
▁웃어
해주었다
▁이론적으로
하잖아
DOS
▁밝히지
▁다녔다
신뢰
봤어요
▁묻자
God
▁pH
생물학
있던
저널
▁아리아
보호법
핍
▁JAPAN
▁격판덮개
▁낳는다
▁이더네트
▁햄프턴
쉰
아마겟돈
▁노무현
▁셜록
▁그랜트
▁어도비
▁끼칠
▁들으셨
▁사라집니다
▁생화학
▁게이밍
▁염료
▁Death
▁양방향
콜라
▁아쉬운
▁정해져
▁계세요
▁그치지
▁추격
▁넣었다
테러
▁미끄러지
▁엠마
▁받았던
▁요나단
▁교부
▁유지하면서
opp
dong
▁아니예요
밴
607
찾기
▁잊혀진
▁반열
얘
▁질문들에
멋
누구든지
▁자세하게
개인정보
사령관
OLE
▁Stat
▁카페트
▁익숙하지
시키도록
▁거래량
벨리
▁대칭
▁갚으
▁일방적
▁동의하신
▁독재자
▁Mix
ulf
▁돌아가야
렸는데
▁판독기
노예
▁발매된
▁알아두
▁Ship
하셨기
IND
▁우수성
맙
삼성
▁1916
해보겠습니다
인쇄
ā
▁OECD
▁Safari
▁레크리에이션
▁중화인민공화국
如
學校
멕
京
議
Federal
▁에브라임
▁흐리브
郡
▁Urban
▁중합체
▁무너져
▁방갈로
▁보도자료
▁플레이오프
▁거란
▁찬사를
▁내화성
▁윤활유
▁소모품
로움을
▁취항
▁토착
▁게시글
▁고딕
했읍니다
▁먹으며
▁모리스
▁잡초
▁국무부
▁외형
▁셀레
gmail
▁결의안
ulator
▁건너편
▁공습
▁카피
▁해낼
▁Foot
▁데려왔
▁Six
콧
솔루션
팁
바벨론
South
취소
801
토요일
7-9
▁관할권
당신을위한
477
▁시도하십시오
▁즐겨찾기
▁죽인다
itation
▁grow
▁나섰
플라워
▁Cash
브리지
▁몰리
▁찾으면
▁섞여
▁감추어
▁계셨다
소프트
▁자립
USE
▁Turn
▁1901
開
했더라
껄
▁McAfee
▁Practice
▁VintageTube
▁노보텔
▁순중량
▁아나운서
▁에미리트
▁캐롤라이나
▁퍼블릭
▁흩어지
論
콘티넨탈
▁Athens
▁닥칠
▁대마초
▁자유로워
▁오슬로
▁interface
▁small
▁Poker
▁코스프레
▁SATA
▁캐논
▁두려웠
▁채식주의자
▁GDPR
health
▁펼쳐지는
▁저스틴
▁WWE
▁생각하시나요
▁0086
▁FOB
▁찾아왔다
▁받았지만
▁종들에게
▁Curr
▁미안해요
lake
▁외쳐
▁면허증
▁스텐
▁ERP
▁코튼
▁직관적인
▁코스타
▁학비
▁수감자
▁워너
▁사악
▁영리한
라디오
▁파울
▁잡혔
▁가시성
booking
2.00
Day
▁증서
▁지나면서
▁풀어주
▁마시게
샷
옆
마태복음
▁이해하도록
해달라
▁Africa
▁하필
▁특화
▁지질학
▁서열
▁빠르다
Coin
▁보내거나
▁육체적인
타우
검정
1998
▁죽어야
▁크리스티
중독
stitu
▁직감
▁Extra
707
574
▁Sport
▁Student
▁memory
▁뉴델리
▁미끄럼
▁바다표범
內
反
師
眞
샛
▁떨어뜨리
▁유쾌한
▁Content
▁닥쳐
찌어다
▁선보입니다
▁2007-11-1
▁가르칩니다
▁경향신문
▁눈동자
▁다스릴
▁여겨진다
▁넣지
▁CBD
▁얻으리라
▁turn
901
▁후지산
▁어디든
셨는지
▁평창
▁순서대로
▁주소록
bian
▁게이츠
▁던질
▁바꾸었다
▁함락
▁신혼
▁Marketing
▁달려있다
▁운행됩니다
▁있음에도
하리요
▁못했어요
EMA
지방법원
▁develop
▁Classic
▁자택
▁아침마다
SHI
lang
▁내려온
powered
▁복잡하게
윙
▁작성되었습니다
▁Tian
변호사
▁차축
▁구성원들
▁BEST
TED
▁액수
▁쏘아
viv
craft
좋아요
▁합류했다
▁천주교
시키십시오
걸까요
▁끼쳤
▁주장하였다
거리며
▁영업소
일곱
▁부모님께
주께서
줬으면
▁주어라
▁야곱에게
▁meet
rv
970
연속
클러
令
펩
▁vSphere
▁나이아가라
▁디트로이트
▁이스마엘
▁크리스토프
▁프리드리히
形
▁problem
▁테레사
▁슬프게도
▁어긋나
▁케이프타운
▁address
▁이렇다
▁Viva
했을때
▁양떼
▁푸틴
▁자랑스러운
▁놓기
▁높았
▁브루스
Dynamic
▁밀접하게
▁입장료
▁회귀
▁통풍
▁온라인카지노
▁조끼
club
▁소비량
▁Labor
▁Bible
▁Seven
▁단말
▁탄약
▁사퇴
▁궁금하다
Query
▁Pala
▁Ross
▁일꾼들
꾼들
▁에테르
▁가능한가요
▁Planet
▁성욕
▁MRI
▁가해자
줌으로써
▁exist
▁Falls
▁사실이라면
▁놓쳤
▁인라인
▁생기게
04:00
소프트웨어
맞춤
▁아끼지
▁흑백
▁중독성
▁없더라
File
▁들으며
필름
trans
Operation
Edit
075
▁충절
운송
nice
odi
▁custom
▁영국군
▁예민
▁Metal
KVA
▁침입자
▁분쇄기
▁1903
▁미끄러
lick
▁라이너
etc
▁세우신
평등
▁질감
hir
웁
딧
ô
ア
▁Factory
▁Friends
▁멀티플레이어
▁컨텍스트
▁콘덴서
▁크나큰
▁크레디트
▁트리트먼트
洞
좆
▁이더리움
▁포유류
機
氏
▁접이식
▁메타데이터
▁Creek
▁앨버트
▁상원의원
▁마인드
▁없앨
▁거짓말쟁이
▁꾸며져
스부르크
▁상쇄
lysis
1990
▁바짝
▁많아지
quality
▁불편함
▁HDPE
▁성모님
▁미끼
▁있거든요
▁Cert
▁눈먼
▁언제라도
▁광명
▁받아보고
▁니콜라스
▁주저하지
▁ASP
708
▁석영
▁분자량
▁신학교
▁지나친
줬습니다
협상
▁조선시대
▁Nick
▁말았습니다
▁강조한다
▁Pot
etta
▁놓쳤다
▁마셨다
▁적합하다
▁용매
▁미안하다
▁Coll
▁물건들
▁경비원
폼
▲
▁Table
▁뭐죠
요한복음
융합
▁Ext
과학기술
FAQ
위대한
▁쌍방
▁입방
스크린
시옵소서
national
enne
▁통치권
▁충성심
블린
▁주심
▁0.02
hong
▁늘어난
▁적혀
▁Tools
▁영양분
뜩
▁슈트
늠
д
▁Chapter
▁Ethereum
▁Galaxy
▁Israel
▁software
▁게으른
▁꿰뚫
▁되돌릴
▁손해배상
▁임베디드
情
路
뽀
▁웨일즈
SOCKS
▁UHF
▁퍼뜨리
Olymp
▁소책자
▁올란도
▁웨스틴
▁갑옷
▁MySQL
▁소셜미디어
▁포레스트
▁충족시켜
▁돌아옵니다
▁북유럽
스테인
erial
▁스톱
▁살펴보십시오
▁노이즈
▁초우주
▁진찰
▁놀랍습니다
378
▁듣습니다
▁않느냐
▁세븐
▁변경사항
▁건강상의
▁당뇨
▁글쎄요
▁페달
▁쓰시
▁파스타
▁친숙한
▁없어진
▁반송
IU
▁완전성
▁입각
▁깔끔한
568
rise
더뇨
▁발족
protect
▁서른
▁=>
▁바라며
▁SHA
▁헌신적인
흉
▁EPS
플라스틱
픽셀
▁Wine
▁자취
406
▁여겨졌
877
▁골수
▁울프
대륙
▁습지
▁익숙해지
▁생존자들
님들께
해져야
▁Kra
▁신축
표현
Original
▁명함
스트림
▁입장권
▁뷰어
▁연단
377
ᄌ
â
其
맴
▁Effect
▁Marriott
▁관련검색온라인정확하게
▁비상사태
▁인센티브
▁법제처
▁이따금
▁Pharma
▁템플
▁보시다시피
▁세심한
▁WIFI
▁FREE
▁아름다웠
▁변함없
▁뜯어
▁Camera
▁죽어가고
▁Help
▁주방용품
▁딜런
하시도다
▁봉쇄
direct
▁교직원
▁추첨
▁반짝이는
▁매튜
▁Middle
▁개신교
guard
[19]
▁비전문가
▁최극
▁능률적인
▁좋겠어
파워
▁아멘
▁둘러보기
▁얼마입니까
▁흥미있는
▁Kai
▁지뢰
▁오로라
▁점진적으로
▁그렇듯
erator
▁해협
▁설교자
▁형법
▁만들어지고
▁도우미
▁보았던
해줘야
▁Eric
▁띄게
702
▁말했죠
ECO
▁레버
▁청종
▁RAW
▁독소
▁명료
▁기념식
▁정말이지
▁뒷문
레이저
▁개최됩니다
▁우선적으로
▁피해자들
▁들었어
▁밀크
▁아니하셨
▁녀석들
RES
▁CFD
▁확실하다
▁꿀벌
▁니콜
되어야만
▁트랜
맥주
▁침식
였음
하였나니
BOX
feng
접수
▁require
△
­
▁Storage
▁Taylor
▁XenMobile
▁publication
▁신칸센
▁호놀룰루
ラ
캉
Publish
▁specified
▁고급장교
▁괴로워
▁소홀히
▁아늑한
▁쿠데타
要
▁고마움
▁인버터
▁Blockchain
▁Animal
▁Glass
▁microsoft
▁Freedom
▁BIOS
▁Style
▁트리플룸
▁죄송해요
▁사로잡혀
Stream
▁찾으세요
▁빠져나가
▁치열
▁still
▁Jay
▁바레인
▁알려지게
▁암몬
▁재촉
▁간사이
▁채워진
▁VGA
heat
scope
▁Tits
▁메탄
▁1902
▁HTTPS
▁마쳤다
468
▁결론적으로
▁어린애
▁천문대
▁추석
▁Lost
▁가꾸
(100)
▁operation
▁지도력
frame
▁마칠
▁낫게
enny
▁책임있는
▁추모
▁거듭나
▁중첩
▁바꿔야
▁황동
론자들
page
686
astic
5-9
▁판금
RAN
▁평형
금요일
칼리
made
\"
BER
▁붙어있
해져서
▁적었다
Sync
▁짧다
음료
▁붙잡아
▁찾아낸
▁exc
▁수호자
▁포커스
音
+00:00
▁Bentley
▁President
▁캠코더
▁쾰른
▁펼쳤
▁프란치스코
██
産
▁Industrial
▁represent
▁캔버라
帝
▁Madrid
▁RPG
▁Archives
▁돌려보내
▁잔뜩
노미야
▁least
▁Bird
▁밝혔
▁몰몬
▁close
▁태스크
▁조심하세요
▁포르토
▁초밥
▁부르신
acht
▁철강선
▁천황
▁어린이를위한
▁관객들
▁면담
▁Jose
▁바쁘게
▁바젤
▁both
▁직불
▁부상자
▁Soul
▁인격체
▁제외하면
▁Spy
▁호환됩니다
했거든요
펠트
▁이방인들
▁Gay
heim
부모님
▁귀속
▁유적지
BASE
▁영웅들
중앙일보
767
앨
횡
닭
Every
오른쪽
공동체
▁가득하다
group
왼쪽
▁축선
물리학
블로그
▁말이냐
▁코믹
▁우편물
AWG
agan
CHA
▁스님
▁Anna
▁휴전
아니오
▁Hero
▁빠져들
둡
낱
▁while
▁매끄럽
▁샌디에고
▁아리스토텔레스
▁우라늄
▁자율주행
◈
슭
젓
ا
▁남동생
▁레코더
▁벧엘
▁커스텀
▁태극권
▁히타치
▁하노버
▁SharePoint
가필니다
▁촉발
▁이윽고
▁Citrix
▁Organization
▁Comfort
▁진진한
▁강우량
▁tesa
▁오프셋
▁페이팔
▁훔쳤
▁이정표
▁버킷
▁strip
▁사고방식
▁포획
wear
▁버려야
▁페트로
▁교묘
▁Kids
▁복싱
▁guy
▁이뤄진
▁부당하게
▁억류
▁헬스장
▁내다보
▁현저하게
▁Canon
▁낮출
▁혈당
▁코칭
Make
▁Paper
▁칼날
608
▁아닐까요
▁교육기관
781
▁기침
▁원칙들
▁반격
506
▁사랑하시는
904
▁피셔
▁간행
▁타고난
▁음력
▁즐거웠
▁만지지
▁변론
MIN
Public
썩
박람회
얼마나
주머니
▁편의성
▁제시카
벨트
▁얼마간
▁신경계
API
▁높았다
▁교양
temp
▁뚱뚱
댄스
했었는데
펀드
▁빛난
▁외교관
576
▁Youth
****
flowers
밈
Tumblr
tribution
▁December
▁Koruna
▁November
▁과테말라
▁다이어그램
▁리뉴얼
▁송수신기
▁열교환기
先
떴
▁벤자민
▁식습관
流
668
▁췌장
science
▁human
▁생계를
▁볼로냐
▁미주리
▁Stephen
▁반바지
▁Kingdom
▁Account
▁프라이비트
▁Clark
▁탄핵
▁전리품
▁SunPorno
▁안식처
hether
▁무서웠
▁장쑤
▁되셨나요
[16]
▁클락
lier
▁페레
▁젊어
689
▁색다른
▁리옹
▁급진적
▁나리타
▁주고받
▁touch
▁탁자
▁씨름
▁이어집니다
▁좋았던
▁08:30
methyl
▁감람
anny
결국
▁새겨진
▁엘프
▁치환
▁Flow
▁변호인
▁굴러
▁발전시키는
▁ARM
▁스탠리
▁업종
▁있단다
ending
ethyl
▁아십니다
▁지켜봐
▁필수품
▁채권자
PORT
▁용병
▁허무
셨느니라
▁범죄자들
1995
▁정립
퀸
마이크로
watch
밀리미터
해드릴
▁DAC
셔츠
비율
▁유용성
06:10
ichi
담배
▁인도하심
▁통찰
낡
벙
▁탄자니아
告
▁Beauty
▁CMYK
▁Chinese
▁Hollywood
▁property
▁멈춘
▁브라우징
▁브래지어
▁블리자드
▁시그널
▁익스플로러
▁충만하심이라
造
갠
국가법령정보센터
깍
뎅
strasse
判
位
報
▁오순절
▁간신히
▁그라나다
▁대주교
▁의거하여
▁애드웨어
▁양조장
▁플레잉
▁두루마리
▁Level
▁칭송
▁여럿
▁갖추어져
▁운동선수
▁혹독
▁애써
▁지녔
▁아껴
▁것임이라
▁아바타
▁되셨습니까
▁컴파일러
[15]
▁밀폐
▁산업혁명
▁연구결과
▁called
▁잊어버렸
했으므로
▁골격
▁버클
▁적당히
▁다뤄
▁우간다
ctic
▁증류
▁달빛
여기서
▁수증기
▁움직이기
▁청량
▁받으면서
▁공황
▁작습니다
▁가닥
▁바칠
▁허영
▁아프리카계
▁풍요로
TRO
1°
체육
Tom
▁Most
▁침상
▁뜻밖
▁Ford
틈
display
캠프
브라질
계좌
▁사용되기
▁Fred
여섯
▁취직
eira
완벽히
▁선출된
화이트
OTA
댓
▁몰아내
얽
見
볍
⇒
▁Nandrolone
▁메르세데스
:+86-
▁Innovation
▁Safety
▁September
▁Verisign
▁관련검색온라인어디서나
▁굶주리
▁바베큐
▁엉뚱한
▁와이너리
▁울부짖
▁워드프레스
▁인터랙티브
▁죔쇠
▁커리큘럼
▁쿠알라룸푸르
等
숀
팻
▁votes
▁통조림
戰
▁인공위성
▁하코네
용하심으로써
▁안팎
material
▁앞장서
▁Fluke
▁모국어
▁브라더스
▁나그네
▁백만장자
▁바오로
▁스타크래프트
▁Backup
▁Device
▁연구진은
▁억지로
▁appear
▁설레
▁틈새
▁살펴보겠습니다
▁늘어날
▁발톱
▁않겠는가
▁아니하였느냐
Act
▁Mother
▁mode
▁around
▁그리곤
▁망쳐
▁귀찮게
▁자랐다
▁빅터
▁party
▁분이십니다
▁보내주세요
▁감격
▁없었죠
▁연봉
▁하나님이시라
TEX
▁Disc
▁출국
▁알려져있다
▁굳어
▁모닝
▁두렵게
proof
▁요령
▁첨가제
▁0.75
▁어디든지
▁소액
▁사이공
▁Arab
▁Lamb
▁옮긴
Now
system
외국인
▁명확하지
50%
▁차별화된
한국어판
Text
Old
▁effect
▁EAS
▁학력
▁개척자
▁체내
▁Lang
▁환자들에게
▁미혼
▁요하네스
▁Harbour
▁거느리고
▁그나저나
▁끊었
▁나뭇잎
▁매카트니
▁안타까운
▁오리엔탈
▁플래티넘
林
껌
뽕
▁떠올려
▁뿌듯
▁소용돌이
龍
냇
캥
▁Computer
式
▁발자취
▁백분율
▁줄어든
▁키시미
▁Rhino
▁개인정보보호정책
▁until
▁ASME
▁말썽
▁AISI
▁마일리지
798
▁계몽
▁super
Arthur
[26]
▁twin
▁재충전용
▁않았는가
▁침술
▁있으십시오
▁흑연
▁비춰
▁봉급
없어
되었읍니다
▁흘렸
▁리빙
▁말라리아
fps
▁사라지게
▁훌륭하다
▁증가시키는
▁생각해보세요
▁빈민
1-0
▁시럽
▁리턴
그렇지
CHE
▁공의회
gang
▁자유케
▁견학
▁부록
▁EDM
.05.20
하였는지
▁승차권
▁살아온
▁offer
▁move
▁옴니
rone
해보죠
AVI
▁회심
▁학계
▁갈래
늦
똑
낚시
안녕
클릭
Trader
Uni
▁Rosa
PAC
▁Corn
696
왼
version
▁Paradise
▁기생충
▁디스커버리
▁래디슨
▁베드앤브렉퍼스트
▁움직입니다
▁일깨워
字
닻
▁어르신
▁골판지
▁인코더
▁진열대
▁납땜
▁십계명
▁Olympic
XVideos
▁국한되지
▁폴리에틸렌
▁중산층
▁Regular
▁지킨다
hard
▁버릇
▁backup
▁Cancer
▁디즈니랜드
▁포도나무
▁만드세요
▁싶으세요
▁task
▁누굴
▁불지옥
▁일본레즈비언
▁Clinic
▁SAS
▁Prat
[18]
▁좋았어요
▁탄압
▁찾으러
lift
▁고정밀
855
▁식구들
90%
▁군사력
ficial
Photo
▁내딛
▁펄프
675
골프
9°
▁Prime
▁호응
메이트
▁주님으로부터
quot
▁늙어
▁주어질
478
▁난이도
▁카잔
끌
.03.201
▁일찍부터
▁기다리며
▁외투
0.10
rice
▁Leave
▁귀하께서
▁호감
▁존엄
byte
778
▁가르친
▁근절
ré
TOP
▁보여줘
▁기증자
▁유리병
▁Anne
▁부르짖음
669
▁부족함
짚
포르투갈
▁징수
얼굴
당신들
공무원
▁ESL
쳤으며
먼저
1991
▁far
▁Shan
▁bio
▁말해줘
▁24:3
그라드
▁Rain
▁선언문
379
ague
▁부여받
pass
끗
왁
ク
▁록펠러
▁선글라스
▁유고슬라비아
▁클리블랜드
▁트립어드바이저
口
늪
챠
▁Premier
重
▁Location
▁부에노스
將
출장마사지샵
▁앰프
▁선풍기
▁receive
▁아사쿠사
▁왠지
▁관련검색온라인
▁셰퍼드
▁카바이드
▁Dragon
▁테슬라
▁들으려
▁씰링
▁엽서
▁빌보드
▁연령대
▁계획하시나요
▁관련검색
▁검색결과
▁어딜
cup
▁연휴
▁되겠습니까
▁판매가격
▁뭘까요
ench
▁해리슨
▁있군요
▁아니었지만
▁선천적
버튼
▁먹었습니다
▁이미징
▁놔두
▁은하계
ually
명씩
389
iddle
▁Asian
▁환호
되리라
▁Robot
▁연방정부
하시리니
▁봉사자들
▁앞쪽
킬로그램
콘텐츠
스웨덴
Great
▁새끼들
월요일
▁잡음
▁행해진
버렸어
law
006
sports
878
했네
▁연주회
브라우
uki
▁받아들인
체육관
쎄
샐
β
▁Barcelona
▁Mexico
▁NVIDIA
▁무브러시
쏙
▁document
▁크리에이터
條
볼루션
▁nothing
▁Evernote
▁되돌리
▁클러치
▁above
▁남서부
▁Agency
▁줄기세포
▁캘리
▁CMOS
기가바이트
▁sales
▁점성술
너희들
▁Intl
▁requested
▁통신판매
▁생쥐
▁개장하였으며
▁어떨
▁먹으라
▁변혁
시켰으며
▁재건축
▁콜린
▁바하마
▁Twit
797
▁프라임
있나요
▁베른
▁Zero
▁Father
▁Arena
▁DDR
▁Nations
▁겸비
camp
▁있었지요
▁괴롭게
▁에이커
▁돌격
▁시스코
owl
▁Lux
▁정돈
있음
▁02-5
▁광복
▁아시죠
▁뒤이어
6-9
캄
팜
젖
amba
탱크
▁분께서
됐던
▁대항하
709
효율
▁Leon
▁믿으라
界
国
▁Atlantic
▁Manhattan
▁Tranny
▁넥타이
▁뉴캐슬
▁대중음식점
▁부드러움
▁블로깅
▁스탬프
▁컨디셔너
▁크리에이티브
▁휘발유
냑
슛
얌
√
▁Mercedes
▁women
▁갑상선
▁차이나타운
▁활발하게
度
雲
▁술취한
▁장엄한
殿
▁살충제
▁believe
▁카를로스
▁Axis
▁Alexander
▁credit
▁위키미디어
▁여행자들
▁데비안
▁보청기
▁바카라사이트
▁평의회
▁Trump
▁청와대
▁좌익
▁앞뒤
><
jiang
▁파블로
▁JSON
▁cnc
▁Orange
▁종이컵
▁아주머니
▁세분화
▁존경받는
▁물어보십시오
▁되겠지
869
▁국제연합
▁당혹
▁양념
▁응축
▁Unity
▁아이레스
▁아사히
▁결혼생활
▁조심하십시오
▁통곡
▁손녀
▁읽습니다
▁부과됩니다
였을까
▁콜센터
▁소요될
▁맛있게
9:1
metric
▁생강
▁3,500
▁웃으
▁되니라
▁Plat
▁Temp
▁살아남았
▁저작권법
조선일보
▁둘러싸
▁장식품
뿔
크리스마스
▁Flor
pay
▁깨닫기
동맥
개념
▁전능자
4,5
▁안토니
▁채무자
깡
▁SOLIDWORKS
▁variable
▁거푸집
▁관련검색인터넷어디서나
▁레이캬비크
▁복숭아
▁스노클링
▁인텔리전스
▁케임브리지
▁터무니없
▁프로토타입
堂
電
빤
셩
因
工
렷
▁드로잉
▁다운로더
▁튀니지
▁메소드
▁돛대
▁TUV
▁싣고
▁심오한
▁온실가스
▁정반대
▁모뎀
▁소득세
▁좋겠네요
▁투르크
▁북아프리카
▁무너졌
▁느껴집니다
▁화나게
▁산호초
▁비폭력
협동조합
▁캐빈
▁선하심
▁Plant
▁긴밀히
▁예멘
▁기타리스트
▁DRM
wei
tropin
홍색
▁배우십시오
▁편향
▁팩터
▁Order
▁졸업생들
▁예쁘게
▁교육과정
Kw
love
DEX
▁킬러
open
▁Feel
▁빌려주
▁Polar
홍보
OOM
▁루피
Asia
▁Keep
▁원수들
▁내려갔
넓
인터뷰
트럼프
싸움
미사일
▁하시더라
▁주사위
STE
황색
KING
▁끝났어
▁좌절감
value
베스트
녔
투성이
grade
▁얻으려
쩌
▁request
privacy
罪
С
非
▁Acronis
▁SurveyMonkey
▁따옴표
▁뜨거워
▁맬웨어
▁쿠웨이트
씽
찻
▁──
宮
▁Monument
▁깨뜨리
google
處
▁콤팩트
▁코카인
▁큐레이터
condition
▁샌더스
▁선보인
Insight
▁놀랄만한
▁record
▁레지스터
▁조깅
▁축하드립니다
▁프리웨어
▁사진작가
▁리워드
▁래퍼
▁NHK
▁office
▁튜터
▁문맥
▁NGO
ernal
▁4:3
경영시스템
▁못하느냐
▁색채
aze
▁감소시키는
▁들린다
▁반쯤
▁우호적
▁customer
▁소련군
▁일관되
▁커브
vice
▁무슨일이
클래스
응답
뮤직
▁여인들
▁Artist
978
ILE
패션
start
▁나아갔
▁CDN
20,000
▁Roma
알리미
▁그리스도께
▁연구자들
而
常
滅
▁Apache
▁Boldenone
▁Prague
▁활발히
期
긔
켐
▁Lewis
▁느슨한
▁코트야드
保
に
約
▁Branch
▁기드온
▁조밀한
▁북동부
▁바이에른
▁앙코르
▁엘리엇
▁Japanese
▁두드러지
▁헨타이
▁순진한
▁빠릅니다
▁Directory
▁무수한
▁wait
▁레이첼
▁매춘
▁올라갑니다
▁빈센트
▁예뻐
▁부러워
▁알고있
▁HANA
▁Cinema
[20]
▁비밀리에
stead
▁없나이다
▁사용가능
▁단축키
▁뉴런
▁안드레아
▁gold
▁제이미
▁대조적으로
Provide
▁만들어낼
▁커팅
▁하찮
▁섬김
▁Siri
▁Twin
▁도끼
4-9
▁물려받
▁각지에서
------
▁무궁
4-0
677
TOM
▁진료소
깐
IAN
hui
▁재혼
▁friends
▁Joy
압력
▁택하신
▁kind
Feat
vard
▁무신론자
▁실질적
필리핀
안녕하세요
됐어요
▁비어있
▁채운
Home
ulu
▁Playa
학생들
678
발전소
state
팸
▁Memory
▁Performance
▁Zurich
▁미시시피
▁시즈오카
▁아스팔트
▁에워싸
▁팔레르모
▁패키징
▁페미니스트
治
│
▁Success
▁에뮬레이터
件
兵
親
▁자폐증
可
▁온전케
▁추상적인
七
千
▁돌이킬
▁Course
▁루카스
▁마가렛
▁익스트림
▁타당성
▁헬륨
▁알아차리
▁불일치
▁목구멍
릅니까
▁Honor
▁삼성전자
▁바라본다
/03/
▁카네이션
▁마이닝
▁렌트카
▁enable
▁후쿠시마
▁연구팀은
▁황홀
▁입맛
▁연삭
▁경첩
▁레트로
▁릴리즈
▁Flower
▁협력업체
▁안정적이고
▁srt
▁치욕
▁라켓
ASH
▁Spin
▁판례
▁얼마든지
▁서유럽
▁술탄
▁스몰
커플
arian
▁있구요
▁Pink
▁크래
▁KBO
▁신도들
These
▁Cord
▁Million
▁첨가물
dorf
Pack
하였음이라
▁기울어
▁올려놓
▁새롭
라기보다
~^^
Point
직접
1.25
▁cri
enberg
▁바깥쪽
스타그램
zone
▁물었을
Elizabeth
▁Adventure
▁교향곡
▁알렉시스
▁펜실베니아
▸
忠
▁Budget
▁불충분
▁빕니다
▁설치조례
タ
思
▁안탈리아
▁지속가능성
▁Fashion
▁어울려
▁독창성
▁Diamond
▁얘들아
▁항저우
▁승낙
▁괴로운
▁죄지은
Chat
▁협곡
▁ASUS
▁형편없
▁엔젤
▁아시리아
▁일어났는지
▁상품코드
▁보냄
▁국가대표
▁긍휼히
▁기혼
▁루핑
텔레콤
687
▁받았어요
▁방식대로
▁도왔습니다
firm
▁06:01
욕탕
▁관계자들
▁포스코
클루
▁계셔
▁냉정
▁밀접
▁윈드
771
겠는데
▁크릭
TON
했느냐
IMA
▁공략
£
Next
모바일
폴란드
inda
Full
0.99
최초
teen
껴
▁묻혔
色
▁Protocol
求
祖
떄
▁JPEG
▁빠뜨리
▁폴리우레탄
▁허드슨
星
▁텍스처
▁껴안
▁청문회
來
多
支
▁대홍수
▁유력한
▁풍요롭게
▁쓸데없
▁의외로
▁having
▁Congress
▁words
▁리프팅
▁파이널
OEM
▁신비로운
▁really
▁항공우주
▁벨소리
▁있거든
▁마옵소서
▁클릭하시면
▁미첼
▁알려주십시오
▁Graph
▁뭘까
▁공예품
▁05:59
▁올렸습니다
▁Posted
▁책임지고
▁계셨습니다
▁트림
프스키
▁Route
▁개정판
▁다이브
▁꾸며진
pine
villa
▁syn
▁Shell
▁2:3
▁따뜻함
phil
▁cost
oper
▁SUV
ically
▁8.9
▁닫았
▁신실하
ogni
William
▁그랬어
girl
바둑
▁Solution
▁쾌적
냐구요
영혼
▁Brad
▁프롤레타리아
▁보고싶
▁Greg
하느님께서
눔
dress
wheel
▁target
≪
▁Shadow
▁가까우며
▁가로질러
▁골동품
▁로테르담
▁무시무시한
▁샌안토니오
▁스파이더맨
▁코카콜라
▁헐리우드
朝鮮
빡
퀄
퀵
헹
▁세탁기술자
▁옷차림
▁생생하게
り
果
괌
▁present
▁괄호
▁리야드
▁저널리즘
▁Editor
日本
▁eyes
▁집어넣
▁스크랩
▁Canyon
▁에이전시
스케이프
▁댓가
▁클리닝
▁우에노
▁일용할
period
▁우아함
Dupe
▁현재로서는
▁칼륨
▁여섯째
fiber
▁혼란스러운
▁쇠약
▁운옥
▁삼켜
▁밤하늘
▁완결
▁혈류
▁카리브해
▁여깁니다
▁빨래
▁operat
▁수업료
▁Trail
▁프롤레타리아트
▁빌릴
▁에돔
▁문의하시기
▁몰랐던
▁웃었다
▁코르크
▁결백
▁벤츠
▁0.03
Message
▁구체화
▁포도당
▁신축성
▁상처받
Protect
1994
▁원주민들
▁활동가들
▁Costa
윗
\\
었거든요
▁어린아이들
적절한
▁깨어있
아름다운
power
고속도로
prise
▁내세우
jet
▁이기심
ん
▁Electronics
▁Frankfurt
▁노천탕
▁미츠비시
▁보살펴
▁입혔습니다
▁프랜시스
▁플라멩코
土
谷
会
節
淸
▁JPG
▁원어민
▁도상국
▁반가워
▁Personal
▁한밤중
▁미끄러짐
▁접히는
▁배낭객
▁악귀들
】【
▁액티브
▁Customer
▁music
▁이러하니라
▁북마크
▁칩셋
feld
▁소시지
▁빼내
▁Neu
▁능동적
▁자칫
oku
▁응벌
▁기술설계
▁Ryan
▁fail
▁깃들
▁잉카
▁라이벌
▁섬겨
CAP
겠읍니까
▁여름철
▁생리학
되었어요
aja
▁금메달
▁다운받
불확실한
▁논증
CHI
issa
jack
IES
Australian
▁창조주께서
▁침체
705
ACS
겠구나
▁심사위원
▁조부모
윈도우
잘못
-_-
906
▁공주님
▁babe
ッ
左
귄
▁Anavar
▁Antalya
▁Imperial
▁Swift
▁simple
▁나눕니다
▁아부다비
▁인클로저
▁재검토
▁테헤란
然
츰
▁Woman
器
從
ま
▁동대문
▁찬란한
헥타르
▁토스터기
▁Collins
▁KOREA
▁이명박
▁사단법인
였습니까
▁Hydro
▁Empire
▁먹으러
▁센다이
Error
▁외딴
▁lcd
▁결핵
▁평택
▁우붓
▁항균
▁유니온
▁새겨져
▁instance
▁채찍질
▁크리스티안
▁열흘
China
▁코넬
▁때문이었습니다
amine
▁성공적이었
huang
▁규명
▁현존하
▁콜린스
▁갔는데
▁MOD
Lead
▁Koh
grad
하나님께
Type
윌
싱가포르
Robert
Green
접촉
▁Wonder
핸드
azar
챔
몹
----------------
▁Wikipedia
▁feature
▁값비싼
▁관련검색인터넷정확하게
▁나뉜다
▁닉네임
▁레오나르도
▁베토벤
▁시끄러운
▁어울릴
▁프롬프트
か
員
큘
▁르완다
ジ
河
▁신경쓰지
▁타원형
▁프로이센
▁첫걸음
▁불분명
▁아쿠아리움
VIEW
▁모자이크
▁카네기
▁무너진
▁로그아웃
▁뱃속
▁의정서
▁빅뱅
▁랜덤
▁임상시험
▁런칭
마가복음
▁드레스덴
▁크리스틴
▁죄송하지만
▁흘린
▁용맹
▁이루어졌습니다
▁Price
▁가져왔습니다
▁양털
▁바램
▁좋네요
▁유니언
▁usb
▁탄탄
▁파이버
EGA
▁Estate
▁효모
▁기지국
▁수비수
error
▁Origin
▁뿐이죠
▁hope
weight
489
▁집행위원회
▁도심부에
▁Owner
▁천문학자들
전문학교
3.00
룹
○
▁열성적
▁Messag
딴
체크아웃
훌륭한
service
혜택
현대미술
Connect
▁요인들
Park
▁숲속
쁨
high
훔
ο
▁children
▁including
▁내비게이션
▁드래프트
▁루이지애나
▁매니지먼트
▁보충교재
▁브리스톨
▁상파울루
▁온두라스
▁캘리브레이션
盟
▁에미레이트
▁나침반
▁그랑프리
▁이르시기를
老
▁yeah
▁비핵화
▁지평선
▁guide
▁웰링턴
▁모나코
▁유망한
▁데리러
▁아이러니
therapy
▁connection
▁럭비
▁query
▁샐리
▁국민투표
▁Psycho
▁트레킹
하셨는지
▁치솟
▁Revolution
▁올라간다
▁파트너쉽
▁데려갔
▁라이딩
▁완제품
Player
▁떨쳐
▁재시작
▁타깃
▁흑암
▁교섭
▁변환장치
▁베델
▁감소시킵니다
▁있겠네요
▁Inside
▁death
▁격언
▁콤보
▁감금소
▁강릉
▁인간관계
▁바뀌었습니다
ADA
▁않았는지
▁Solid
▁여러분들께
▁추진력
했답니다
▁쏟아져
Russian
▁가져갔
▁도우심
제서야
▁못하더라
andra
▁즐겼
청구권
Cloud
드래곤
거룩한
▁늙었
진정한
▁Pipe
▁명심해야
으리로다
▁열려있
멤
출장업소
г
clusive
▁Document
▁February
▁HOTEL
▁cryptocurrency
▁건너뛰기
▁깔따구
▁불러일으키
▁에센셜
▁충청북도
▁카탈루냐
▁트렁크
▁폭스바겐
▁프리랜서
갭
맏
삯
쨌
▁Cebu
▁글루텐
▁레노버
▁스파르타
▁준우승
▁헤아릴
▁호화스러운
務
興
▁소아마비
▁수페리어
▁키패드
▁뜨개질
▁리모트
Install
▁더러워
▁얼어붙
▁스트로크
▁조나단
▁레버리지
▁시부야
▁Guesthouse
▁가습기
Francis
▁Museo
▁홀로그램
▁살펴봄
StarCount
▁Organ
▁율례
▁social
▁Better
.]”—
국한문
▁영광스럽게
▁스톰
▁바라보았다
▁침범
▁SaaS
▁아름답습니다
▁턴키
▁휴먼
◆
섀
О
愛
智
녜
別
關
甲
な
任
잊
옛
と
曰
基
母
뫼
숏
木
딛
촬
功
き
右
귓
シ
花
遠
る
훌
ロ
Т
š
傳
場
夫
朴
解
章
콰
也
Р
弟
佛
괘
空
富
섞
낄
食
‐
想
火
目
英
뇽
헴
휼
꿨
ᄎ
像
촛
ν
カ
問
松
넵
八
父
퀀
ي
✓
寶
觀
넋
왑
챈
폈
훅
ë
入
典
你
휠
球
量
商
車
運
맬
멩
셧
線
手
す
は
엑
맺
썬
뎀
現
駅
헷
훗
ы
я
−
テ
營
風
슥
を
諸
向
높
웍
닿
왠
돛
コ
羅
集
م
應
멍
왓
됩
樂
臨
願
周
表
領
꾹
進
«
©
〖
〗
建
園
孫
갛
걍
펍
銀
Н
各
λ
靑
넉
私
숄
쭤
п
種
結
뭔
›
變
꽝
π
ل
쌤
젬
و
感
救
が
屬
計
特
뺄
交
궂
깬
탤
걷
ᅢ
マ
館
虛
곶
꿋
짬
亡
選
졍
吉
黃
鄭
뻔
떤
ム
Ü
펨
헉
朝
根
챗
得
憲
É
管
¶
슘
列
科
숯
邑
슝
黨
慶
加
♬
엿
◇
≤
옮
벵
副
華
갸
귈
取
守
녘
歸
꽂
헐
꿔
キ
點
題
뻑
で
例
監
衆
頭
品
う
直
ß
А
レ
共
隊
뭣
숴
훤
죤
衛
홋
텝
チ
依
ر
폿
橋
活
펭
κ
足
過
首
最
늙
뜸
バ
與
兄
害
職
뮌
팥
ι
初
꿉
졔
찹
さ
次
苦
プ
夜
派
男
ø
댜
맣
훨
濟
굼
뚤
敬
썼
낫
엎
ε
省
井
放
受
놉
今
異
갖
짧
빼
〈
싣
‹
備
뻘
쥔
촐
쾨
텨
始
源
益
ᆯ
●
쌈
便
륭
ᅩ
ら
ꀰ
く
て
半
至
ᅥ
덧
닙
땜
遺
お
質
꺽
뗄
욤
챤
б
歌
類
샅
春
謝
術
起
♫
쉘
옳
얕
又
フ
孝
識
셴
ê
σ
統
郞
良
證
텅
덟
봅
굉
於
サ
限
唐
念
町
똘
쟝
즁
ド
圖
則
申
땀
좁
잦
τ
学
回
å
렝
욜
й
ホ
局
č
↓
勝
恩
昌
病
承
台
規
흙
뜬
オ
村
資
導
뮈
侍
比
趙
듦
쥴
쫒
쳔
宣
展
陰
콴
グ
勢
寧
臺
難
↔
榮
號
끓
≥
듈
境
◦
請
香
욧
御
復
戶
魔
超
認
必
Φ
댐
뒷
津
張
引
聯
캅
δ
د
役
精
쾅
完
獨
ь
未
指
떻
톈
少
豫
み
慧
깽
젋
컥
ᄯ
ウ
찡
崔
붐
答
っ
エ
秋
つ
由
舊
草
順
꼰
뎁
쫄
ᄐ
こ
康
玉
甚
聞
賢
創
決
洪
何
엌
γ
ω
援
뮴
†
容
改
望
믄
뵐
쌔
퍅
廣
達
▣
伊
츨
쉴
픔
ć
і
財
껀
닳
잿
펐
ı
ч
調
貞
쭐
챌
志
組
貴
錄
⊙
あ
꼈
律
震
냠
쩜
퓰
К
尙
波
皇
酒
겄
넹
쁴
얏
ō
з
尹
店
肉
曹
示
샀
녁
뎌
伯
布
Ö
Δ
易
茶
鄕
몄
퓌
了
禪
船
育
住
離
亞
푹
싫
為
此
域
好
뷴
춧
修
句
爭
걘
롄
☜
岩
泉
許
施
덮
ナ
体
内
格
⋅
ᄑ
設
象
際
꼼
볕
켠
防
洋
鐵
殺
狀
곁
禁
♣
型
멎
쩐
尊
曲
ᄊ
護
連
섯
⁄
兩
壇
樹
ѕ
넸
뎠
힝
ж
具
協
豊
陵
覺
久
딥
□
뭘
쩔
極
習
넴
え
侯
区
В
П
〮
息
房
犯
쓱
텟
튠
풉
丁
刑
均
敵
牛
鎭
奉
郎
뭅
乙
れ
儀
切
잼
튬
ニ
價
갬
И
ن
슌
到
港
喜
熱
終
鳥
那
就
갚
쿡
슷
Å
究
η
存
提
服
̊
✅
奇
察
庫
强
浦
뻥
웡
勞
印
竹
탔
₩
￼
횟
쩡
校
話
陸
▽
や
섣
ς
去
갉
햐
メ
參
柳
準
雨
닢
致
ペ
考
잽
視
友
얻
쪼
料
團
惠
農
뗀
훙
ρ
▒
ワ
轉
近
壽
ュ
帶
젊
뽑
썹
姓
再
羊
긱
쥘
짹
텁
휙
휩
ī
吳
逆
邦
븀
區
潛
葉
宋
빕
俗
材
客
弘
群
ᄍ
仙
植
置
街
送
革
佐
養
☎
企
聲
ビ
굳
맑
뭄
だ
庭
ャ
待
番
캬
✨
湖
玄
誠
¡
ع
〯
啓
總
越
镇
꿍
빳
뺐
텃
햅
宇
慈
注
獄
系
藤
照
阿
뉘
캇
✈
ェ
沙
稱
休
獻
줏
ž
י
或
牧
밉
칵
密
池
邪
斷
構
賞
接
兒
よ
鬼
ハ
落
衣
잌
¢
М
х
ب
〃
景
矣
移
詞
辭
깄
띵
쳇
힉
υ
歲
毛
裁
赤
눗
솝
뜹
收
破
僕
펴
찼
늬
♠
せ
س
け
ち
亂
亭
デ
뀌
컫
몫
돕
뵙
헛
썽
핌
▶
눕
뵈
뻤
█
씹
췌
뽐
빚
꽤
뷸
쌉
ᆼ
탓
끽
갇
ᆫ
쏠
걀
씰
닦
웜
←
↑
릎
鮮
뉜
쟤
짠
겉
뗏
걔
눠
뾰
耶
◎
잤
꾀
뚫
낵
띄
앳
깥
빽
씻
찢
뀐
튿
딪
밌
챕
겅
►
꽉
떳
튤
좇
낍
뻣
쨋
‚
뿍
▷
덫
엊
낚
▪
ã
ל
뺨
מ
긁
앎
뀔
엮
„
팎
쏴
왙
꿴
찝
묽
횃
귐
튕
엷
뮐
們
뉩
윔
ᆷ
엾
땄
겊
깼
뭡
쬐
읊
쐈
뛴
끕
⬇
̋
핼
숱
훑
뀝
뺀
숟
쐐
켤
얗
땋
챘
죔
촘
뺏
쾰
짊
〒
쌌
뤘
짙
뱉
눴
굵
빴
팠
컸
랗
꿇
얹
껑
벚
큽
깎
꿰
쁩
꺾
탉
뻗
앓
댑
흩
핥
얇
밟
쏟
붉
묶
펼
쫓
낳
쌓
겪
끊
잃
땠
딨
밝
