<unk>
<s>
</s>
.
,
▁the
s
▁of
▁to
▁and
▁a
▁in
▁is
▁you
▁I
▁for
▁that
▁
-
'
▁The
:
▁with
▁it
▁are
’
?
▁on
▁be
▁(
▁was
▁not
▁have
t
▁this
)
▁from
▁your
▁can
▁will
▁as
▁or
▁by
▁“
▁we
▁at
▁"
ing
▁all
▁-
▁they
▁,
▁he
▁an
▁has
!
▁one
▁do
▁It
▁God
▁And
▁In
▁his
▁my
ed
▁their
▁but
▁about
▁more
▁our
▁A
▁time
▁who
▁them
▁We
▁people
▁me
▁1
d
.”
;
▁You
▁what
▁ago
▁This
m
▁years
/
▁were
▁so
▁there
▁also
▁He
▁up
▁2
▁which
▁out
re
▁3
▁other
▁when
▁been
▁no
▁like
▁had
▁if
▁us
▁know
▁than
▁But
▁him
...
"
▁.
▁only
▁first
▁would
▁If
e
."
▁What
S
▁said
▁world
▁new
▁just
er
ly
▁use
▁So
▁may
▁into
▁They
▁how
▁4
▁5
▁year
▁her
▁Hotel
▁these
▁life
▁For
a
▁want
▁get
▁see
▁make
▁day
▁any
▁some
▁two
▁over
▁most
I
▁many
”
▁now
▁need
▁then
▁good
▁way
▁very
▁–
]
▁/
▁10
y
▁its
▁work
▁don
▁should
th
▁[
▁go
▁such
▁those
▁did
▁How
▁right
▁after
▁There
▁here
▁even
▁take
C
▁could
▁well
A
▁When
▁think
▁used
▁before
ll
▁she
in
▁same
ve
▁&
▁All
▁come
▁made
▁man
2
▁No
▁help
▁back
▁because
▁much
▁through
▁does
▁6
▁every
▁New
▁_
▁love
▁say
▁system
▁own
▁best
▁months
n
▁shall
▁where
▁That
▁each
▁To
▁things
D
▁information
▁going
r
▁must
(
▁Do
▁data
▁My
o
▁S
▁am
▁too
▁find
▁high
▁8
▁great
al
▁On
▁7
▁As
▁name
▁Jesus
▁B
▁days
▁place
mm
▁three
▁still
▁12
es
▁always
▁really
▁free
▁children
The
▁being
▁down
▁20
▁long
▁United
▁:
1
▁C
▁between
▁away
▁map
▁give
▁service
i
or
▁different
▁hotel
▁'
).
▁another
▁home
com
▁part
▁power
▁again
▁within
▁never
▁‘
3
▁water
B
▁business
▁something
▁With
▁15
▁set
x
▁...
▁without
▁number
g
▁around
▁9
V
▁last
▁look
▁One
▁She
▁U
▁big
▁Why
▁today
▁E
▁family
▁China
▁important
▁11
W
▁better
▁end
▁18
▁Lord
▁city
▁available
▁Now
▁called
▁under
▁minutes
T
▁show
▁why
▁change
▁xHamster
▁More
▁found
▁thing
▁old
▁both
▁P
▁company
▁men
M
4
▁T
▁O
▁next
▁Your
▁game
▁His
▁while
▁little
▁At
▁lot
▁Then
▁30
▁experience
▁States
▁book
F
G
▁using
▁Our
▁become
▁let
▁room
▁control
—
▁against
▁order
to
c
▁person
▁feel
▁X
▁per
▁live
▁products
▁M
▁From
▁car
b
▁off
▁D
▁area
▁able
▁human
K
▁came
▁example
▁hotels
▁believe
▁times
the
▁16
▁small
on
▁money
▁heart
▁food
E
an
▁put
▁might
▁hand
ers
▁City
able
▁support
P
▁Jehovah
▁light
▁course
▁km
▁US
▁Korea
▁Can
▁got
▁By
▁stay
▁during
h
▁G
▁since
5
L
▁night
▁country
k
▁body
▁house
▁14
▁few
star
▁rooms
▁until
▁re
H
▁World
▁means
▁13
▁school
▁start
▁After
▁However
▁keep
l
▁together
▁women
▁cannot
▁quality
▁provide
▁Home
▁already
▁>
▁full
▁case
▁real
▁hard
▁says
▁R
▁team
▁earth
▁left
▁17
▁month
▁open
▁High
▁file
▁)
▁possible
▁K
N
▁second
▁done
▁F
▁upon
▁Co
?”
Show
▁South
▁hours
▁ever
▁offers
▁tell
▁personal
▁These
▁walk
▁others
▁everything
▁group
▁24
_
▁didn
▁H
),
▁Not
▁point
en
▁call
▁de
X
▁May
▁doing
▁V
▁often
▁including
▁video
▁process
▁four
▁week
▁death
▁young
▁Free
▁went
▁read
▁future
▁services
man
▁child
▁word
▁50
▁25
▁page
▁Bible
,”
▁son
p
▁product
▁un
▁University
▁TV
▁understand
▁least
▁fact
▁working
▁side
▁easy
▁enough
O
▁type
▁line
▁International
▁access
▁design
▁100
▁offer
▁price
▁Park
▁Let
▁website
▁American
▁words
▁law
▁yet
▁public
▁true
▁Please
▁known
▁later
▁technology
▁wife
▁given
▁among
▁Or
▁kind
▁drive
▁special
▁problem
▁Are
▁truth
▁English
▁sure
▁N
▁try
▁thought
▁nothing
▁once
▁government
▁five
▁Some
▁L
▁Windows
▁property
▁far
▁actually
▁program
▁play
▁Israel
▁care
▁close
▁land
▁view
▁friends
▁2018
▁following
▁based
▁online
st
▁York
▁software
R
▁machine
▁million
▁21
▁An
▁became
▁countries
▁won
w
▁Japan
▁face
▁yourself
▁site
▁comes
▁learn
▁single
We
▁Who
▁someone
▁anything
ic
▁bring
▁living
▁whole
▁size
▁large
▁Read
8
▁Center
▁father
▁students
▁ask
▁unto
6
▁--
▁less
▁user
▁safe
▁Q
▁doesn
▁state
▁create
▁local
▁took
▁top
▁mean
▁19
▁North
▁age
▁located
▁level
▁Is
▁Don
▁past
▁though
▁making
▁problems
▁seen
▁talk
▁social
▁air
ation
▁computer
▁third
▁faith
▁Japanese
v
▁space
▁themselves
▁2019
▁looking
▁—
▁health
▁files
▁weeks
▁please
▁House
▁history
▁needs
▁war
▁National
▁March
▁told
▁mind
▁head
▁music
▁woman
▁Machine
▁created
▁First
▁Re
▁percent
▁hope
▁Christ
▁HD
▁study
▁Go
?"
▁test
▁makes
▁provides
▁center
▁mother
▁enjoy
and
ion
*
▁eyes
▁choose
▁40
▁pay
▁started
▁+
▁reason
us
ness
▁result
▁Power
▁Korean
▁include
▁development
+
▁eat
f
▁April
▁building
▁form
▁question
▁Be
▁People
▁January
10
▁December
▁language
▁beautiful
▁energy
▁king
up
▁stop
▁2017
▁security
▁having
▁saying
▁value
▁*
&
▁Of
▁saw
▁remember
u
▁sent
▁America
▁production
▁account
▁research
▁according
▁hear
▁wanted
▁industry
▁etc
▁Well
▁J
▁0
▁customers
▁leave
▁users
▁himself
▁color
▁St
▁main
▁save
▁everyone
▁meet
▁wrong
▁early
▁asked
▁international
▁list
▁July
co
ity
▁October
▁John
▁project
▁features
7
▁web
▁near
▁lost
▁e
▁airport
▁matter
▁natural
▁W
▁bad
no
z
▁several
▁began
▁share
▁market
▁black
▁low
▁travel
▁run
▁station
▁present
▁Day
▁Most
▁short
▁June
▁job
▁22
▁September
You
▁Me
▁parents
▁turn
less
▁LED
▁answer
▁various
▁non
▁guests
▁material
▁August
▁else
▁i
▁self
▁morning
▁deal
▁version
▁Car
▁School
▁receive
▁November
▁gave
▁period
▁San
▁plan
▁longer
▁Good
▁Yes
▁Street
▁peace
▁rights
▁network
▁Because
▁x
▁above
▁System
▁story
▁Many
le
▁Him
▁check
▁Inn
it
▁knowledge
▁office
▁phone
▁Chinese
▁follow
▁card
▁device
▁blood
$
▁La
▁rest
▁games
▁lives
▁common
▁management
▁Air
▁soon
▁contact
▁results
▁Model
▁fire
▁#
▁Just
▁ways
▁companies
▁About
▁white
▁range
▁front
is
▁Father
▁Man
▁return
▁alone
▁almost
▁clear
▁happy
▁code
▁move
▁coming
▁fear
▁content
▁cost
▁party
▁application
▁perfect
▁23
ment
▁works
▁friend
▁heard
▁simple
▁key
▁members
▁strong
▁half
▁taken
▁visit
▁60
▁current
▁private
▁hands
▁Have
▁along
▁date
▁complete
▁idea
▁customer
▁anyone
J
▁Where
▁Business
▁provided
▁Black
ia
▁amateur
▁•
▁Best
▁systems
▁buy
▁Time
▁individual
▁Even
▁either
▁White
▁modern
▁box
▁Get
▁die
ism
▁Water
▁26
▁De
te
▁Kingdom
▁model
▁February
▁average
na
▁however
▁speak
▁certain
▁War
▁Internet
It
▁born
▁Station
▁send
ist
ro
▁community
▁Since
▁built
▁(1
▁Service
▁Oh
▁2016
▁questions
9
▁required
minute
▁cause
▁total
year
▁Room
▁King
▁oil
▁location
▁sea
▁environment
▁rate
▁Today
▁dead
▁1.
▁needed
▁performance
do
▁Beach
▁Allah
▁David
est
▁Europe
▁outside
Y
▁28
▁European
▁LORD
▁m
▁news
▁difficult
ton
▁received
▁getting
▁continue
▁itself
▁Book
▁six
ra
▁film
▁Check
▁changes
▁Number
▁moment
▁church
▁Google
▁choice
▁original
▁View
▁bit
▁fast
▁Red
▁standard
▁designed
▁field
▁changed
▁series
▁Search
▁London
▁post
▁Dr
time
▁whether
▁professional
▁brought
▁message
▁speed
▁27
▁purpose
▁major
▁Color
▁art
▁girl
▁build
▁knew
▁Size
▁usually
▁address
de
▁sex
▁Life
▁Airport
Z
▁Paul
▁Pro
▁trying
▁Site
▁app
▁Italy
▁Christian
▁$
▁Museum
▁See
▁Hotels
▁below
▁died
▁Group
▁French
▁Steel
▁class
▁p
▁ready
▁media
▁apartment
▁kids
▁train
▁Son
▁©
▁education
▁meters
el
▁especially
▁taking
▁global
▁event
▁parts
▁Every
,"
▁popular
▁quickly
▁heaven
▁easily
▁fun
ar
▁takes
ry
▁addition
▁hair
▁trust
▁husband
▁across
▁stars
▁Will
12
▁relationship
▁step
▁Church
▁function
▁Z
▁entire
▁steel
▁hot
▁risk
ate
▁equipment
▁inside
▁Al
▁ye
▁soul
da
▁shower
U
▁(18+)
▁hosting
▁Light
▁watch
at
▁opened
▁bed
▁tits
▁Road
▁2.
▁Two
▁held
▁Hot
▁Office
▁Seoul
▁drink
▁search
ive
▁East
▁Name
▁Germany
▁century
▁bar
In
▁views
▁spirit
▁German
▁Here
▁similar
▁France
!”
▁Other
▁action
▁due
▁2015
".
▁lead
▁Product
▁added
▁Mac
▁beginning
▁sense
rs
▁brother
▁evil
▁nature
ian
▁door
▁isn
▁increase
▁stand
▁season
▁types
▁add
▁national
go
▁myself
ting
▁Open
▁wait
▁general
▁solution
▁training
▁pressure
▁temperature
▁political
▁happened
▁3-
▁West
▁Use
▁seven
▁Love
▁report
▁1,
▁position
▁enter
▁treatment
▁behind
▁amount
▁whom
▁mature
▁released
What
▁image
one
ri
▁member
▁Also
▁unique
▁further
▁therefore
ch
ne
▁voice
▁Company
▁thou
as
▁necessary
ta
▁weight
ty
▁simply
▁bus
®
▁nor
▁Old
ling
▁situation
age
▁President
▁29
▁Mr
▁table
▁specific
▁Type
▁higher
▁Next
▁Only
▁allow
▁paper
▁developed
▁talking
▁According
▁email
▁Download
un
▁reach
▁Her
▁PornHub
▁download
▁rather
▁Did
▁effect
11
old
▁final
▁option
▁Take
min
▁hold
▁Great
▁mom
▁policy
▁sin
▁hour
0
▁Android
▁wants
▁write
▁Un
▁places
▁Word
▁fine
▁completely
▁red
▁happen
▁quite
▁probably
▁safety
If
▁State
▁devices
▁Kim
▁culture
▁While
▁options
▁written
▁seems
▁pre
▁co
▁Ltd
▁PC
▁coffee
▁mobile
▁forward
▁double
▁ten
20
▁gives
▁Art
ie
>
▁tool
son
▁climate
▁movie
▁led
▁digital
▁fully
▁protection
▁military
▁Y
ized
▁Guests
▁areas
▁success
▁directly
out
▁Each
▁issue
▁c
▁society
am
▁pain
▁conditions
▁decision
▁couple
▁source
▁35
land
▁Bar
ant
▁medical
▁Earth
▁Data
il
▁Republic
▁sometimes
▁particular
▁internet
▁town
▁Canada
This
▁activities
la
▁pass
▁Central
ma
▁News
▁clean
▁Those
▁Material
▁leading
15
▁growth
–
▁fall
▁Video
”.
▁platform
▁goes
▁loss
▁article
▁opportunity
▁protect
nd
▁legal
▁player
▁skin
▁meeting
▁sun
▁cut
▁sound
▁request
▁physical
▁31
▁related
▁goal
▁Information
ary
▁200
▁screen
▁role
▁issues
▁sleep
ul
▁store
▁sign
▁storage
▁Wi
▁feet
▁sites
▁ability
▁thinking
▁interest
▁Web
▁memory
▁powerful
▁baby
▁thy
▁Young
▁Paris
▁turned
li
▁late
▁Up
▁wish
▁Therefore
▁Hong
▁Russian
▁truly
▁Satan
▁shows
▁forget
▁server
▁reality
▁instead
▁wide
▁Products
And
▁knows
▁Does
▁Last
Fi
▁ensure
▁strength
▁applications
▁ground
30
▁student
▁path
▁president
▁felt
▁videos
▁Bed
▁via
▁<
18
▁consider
▁learning
▁Hostel
▁Copyright
▁running
▁daughter
▁improve
▁Asian
▁feature
▁attention
▁factory
▁trade
▁click
▁immediately
▁01
▁method
▁Show
He
▁Russia
ine
▁terms
▁includes
▁Asia
▁largest
▁staff
▁eye
▁Like
▁Le
▁currently
▁British
▁brain
▁32
▁fight
ol
▁comfortable
▁grow
▁events
▁display
▁Spirit
▁materials
of
▁charge
▁Moses
▁included
▁nation
▁force
▁Resort
▁road
▁record
▁facilities
▁kingdom
▁reading
▁100%
um
▁Green
▁teen
▁serve
▁act
▁summer
▁text
▁distance
ization
▁win
▁cases
▁(19
▁mouth
▁apply
▁dream
▁Thus
▁lose
▁details
16
▁Year
▁published
▁4-
▁greater
for
▁Family
▁IP
Q
▁listen
▁doctor
Tube
me
▁Over
▁|
▁PDF
▁financial
▁points
▁loved
ca
mo
▁02
▁Line
▁sales
▁allows
ur
line
▁~
▁05
▁Find
▁rules
▁finally
▁disease
be
▁500
▁Teen
▁successful
▁accept
▁board
ful
▁Africa
▁seem
▁throughout
▁famous
▁2014
▁killed
▁supply
▁accommodation
▁Games
▁gone
▁song
▁writing
▁Thank
▁begin
▁THE
▁decided
▁animals
ce
▁effective
▁select
17
▁established
!"
▁Top
lo
▁3.
▁During
▁Big
▁anal
▁Union
▁Australia
▁economic
▁floor
▁b
▁ones
day
▁Long
▁Holy
▁normal
▁kill
▁80
▁Contact
▁forth
▁beauty
▁Apple
▁Technology
▁gold
▁japanese
50
▁understanding
19
▁direct
▁appointed
▁likely
▁Come
▁poor
▁Microsoft
▁uses
▁worship
▁avoid
▁marriage
▁2013
ter
▁official
▁excellent
▁science
▁General
▁Make
▁books
▁hundreds
▁wall
▁fish
▁Global
et
▁90
▁Design
▁wrote
▁milf
▁tried
▁style
▁promise
▁additional
▁levels
▁dog
▁chance
▁photos
▁healthy
▁worth
net
▁requirements
▁creation
▁Official
▁organization
ge
▁cities
▁term
▁happens
▁Sun
▁difference
▁offering
-1
▁gift
▁focus
▁Maybe
▁(2
▁activity
▁Their
▁Yet
▁spend
▁cookies
per
▁Island
▁Blue
▁India
▁Once
▁Tags
▁sons
▁tools
▁looks
24
▁Kong
based
▁forever
▁giving
▁Party
by
▁cancer
▁operation
▁ISO
▁prayer
▁met
ko
▁recent
▁pool
▁45
▁deep
▁USA
▁technical
▁returned
▁produce
▁Management
▁06
▁certainly
25
▁capacity
▁worked
ous
ha
▁spiritual
▁guide
13
▁positive
▁develop
14
ated
▁surface
▁Court
▁Facebook
▁Club
▁foreign
▁College
▁El
▁lower
ah
▁pretty
▁Live
▁response
~
▁restaurant
▁respect
▁television
▁·
di
ga
▁brand
▁cold
▁command
▁daily
▁freedom
▁2012
ka
▁Law
▁green
▁multiple
▁thus
▁groups
▁Health
▁Game
▁middle
▁feeling
▁waiting
▁stage
▁Peter
eth
▁basic
▁break
▁variety
▁Food
▁300
▁involved
▁police
▁2-
▁saved
▁Double
▁practice
▁wasn
▁reasons
▁subject
▁03
▁recently
▁thousands
▁Grand
▁Yeah
▁married
▁lies
▁nice
▁playing
▁potential
id
▁nations
▁moved
▁toward
▁UK
▁traditional
▁desire
@
▁ourselves
▁exactly
▁button
▁USB
▁evidence
▁70
▁allowed
▁camera
▁considered
▁looked
▁programs
▁tree
▁Control
▁Large
▁Although
▁partner
▁afraid
▁connection
▁latest
▁Hall
▁Support
▁Sea
▁Online
▁release
▁Tokyo
▁mm
▁central
▁solutions
▁reserved
▁Ho
▁population
▁meaning
Â
▁36
▁Services
▁07
▁Bay
gu
▁ass
▁=
▁region
▁learned
▁active
▁interesting
▁serious
▁thanks
▁Security
Do
▁thousand
▁picture
ies
No
▁cover
▁Hi
▁boy
▁II
ni
▁Western
▁document
▁steps
men
▁appear
▁equal
▁exist
▁River
▁Any
▁Three
▁sold
ad
▁Another
▁wear
▁huge
▁touch
▁trip
con
▁4.
▁Play
▁Article
▁cable
▁2020
▁teach
▁2010
▁connected
way
▁interested
▁eight
▁Standard
▁Back
▁rule
▁benefit
▁Privacy
▁indeed
▁delivery
▁Women
▁purchase
▁teacher
▁court
▁Wall
▁gets
▁04
j
▁dark
▁Christians
▁offered
▁2011
▁v
▁photo
▁responsible
▁weather
ya
▁Super
cm
▁Date
▁Look
▁players
▁08
▁construction
ING
▁Us
▁Christmas
▁Department
▁rich
▁remain
▁reached
▁Mar
▁g
▁except
bit
▁journey
▁highly
▁hundred
▁religion
▁patient
▁Music
▁degree
▁Am
100
▁advice
▁sins
▁d
▁direction
▁blue
▁wine
▁link
ki
▁pray
▁»
▁helps
▁passed
▁Price
▁attack
▁character
tic
▁lived
▁gonna
▁operating
▁impact
▁highest
he
▁doubt
▁James
▁holy
▁Rome
ji
▁window
▁benefits
▁billion
▁expect
ex
▁Research
▁growing
▁transfer
▁exchange
▁star
▁named
▁heat
we
▁placed
▁outdoor
▁prevent
▁track
▁welcome
▁base
▁status
▁electric
▁gas
▁college
▁Pre
▁plant
den
▁Garden
▁produced
▁purposes
ang
▁garden
45
▁Tube
▁increased
▁states
▁ideas
▁dis
▁33
▁shown
▁agree
▁patients
▁multi
60
▁mode
▁require
▁Rights
▁district
▁anti
▁shopping
▁tomorrow
▁served
▁joy
▁religious
▁spring
But
▁reviews
bo
▁Ha
▁sky
▁tax
io
ley
▁Italian
▁Jerusalem
▁Page
▁length
▁advanced
ance
▁opening
▁Men
▁families
▁CO
▁contract
▁sub
:10
▁teaching
▁error
▁workers
▁recommend
▁leaders
▁ship
▁mountain
▁moving
if
▁park
=
▁File
rd
▁numbers
▁Real
im
32
▁review
▁approach
▁Spanish
▁Science
▁Phone
▁expected
▁sell
▁becomes
▁kept
▁secure
▁Max
ted
▁wonderful
%
[
▁seek
pe
▁whose
▁section
▁credit
▁cell
My
▁birth
▁skills
▁girls
▁amazing
▁hate
ir
ac
▁California
ba
▁press
▁Board
ci
▁believed
▁Abraham
▁Should
▁Children
os
65
▁Second
se
▁taught
▁couldn
▁universe
▁Cup
▁Square
▁Image
▁Centre
▁items
▁animal
TM
▁deliver
▁names
▁analysis
▁kinds
▁foot
▁Series
▁Council
▁USD
▁Which
▁extra
▁followed
▁Software
▁movies
▁maybe
▁hit
▁beyond
▁marketing
ping
▁judgment
▁documents
.”—
▁wisdom
▁install
▁fruit
▁update
▁walking
▁payment
▁Mary
▁hath
▁structure
▁reduce
▁Before
▁Quality
▁Institute
▁host
▁RF
▁complex
▁capital
▁Master
▁depend
▁Project
▁army
▁career
▁secret
Sun
▁testing
▁battery
▁Singapore
▁towards
▁carry
▁Suites
▁effects
▁Policy
▁guy
▁t
▁investment
▁Single
▁projects
▁paid
▁Lake
▁employees
▁club
▁Holiday
▁whatever
▁unit
▁costs
▁former
▁taste
▁Witnesses
▁Education
There
▁shared
▁Bus
▁engine
▁completed
▁properties
▁maximum
▁continued
▁150
▁plastic
▁cock
▁Egypt
40
▁Part
▁worldwide
▁Guide
▁join
▁condition
▁Sometimes
em
▁damage
▁greatest
▁played
▁fat
▁Learn
▁industrial
▁manage
▁Display
▁announced
▁laws
▁Los
▁starting
▁kitchen
▁favorite
▁processing
▁nearly
▁sorry
▁Mexico
▁App
▁bank
▁Star
For
po
▁beach
▁achieve
▁Inc
▁massage
▁useful
▁Test
▁plans
▁alive
▁Work
▁brothers
▁standards
▁Con
▁48
▁quick
21
▁Full
▁wedding
side
▁breakfast
How
▁separate
▁flow
▁Mo
▁seconds
▁manufacturers
▁desk
▁Set
:11
▁5-
▁generation
ST
ent
▁glory
que
▁Porn
▁Such
▁Checks
▁movement
▁resources
▁communication
▁providing
▁hearts
▁ancient
▁Main
▁previous
▁Mobile
▁domain
▁images
▁Building
▁sports
▁Code
▁selected
ER
▁en
▁Ka
▁37
▁associated
▁responsibility
▁Thanks
▁Spain
▁presence
▁master
▁Association
▁contain
▁Version
▁destroy
▁neither
▁Digital
▁Both
▁cross
▁Analdin
▁glass
▁clearly
▁38
▁Select
▁wind
▁Post
▁worry
▁recovery
▁Apartments
ner
ler
▁thank
red
▁Joseph
▁bathrooms
▁street
▁Sa
▁remove
ship
▁strategy
200
-10
▁09
▁DC
é
▁sit
▁architecture
ish
▁shop
:20
▁Gold
▁→
hour
▁deposit
▁bath
▁pro
▁prepared
▁Fire
▁England
▁creating
▁sort
▁Mark
▁comfort
▁round
▁cloud
▁humans
▁Right
▁Lu
▁Human
▁core
▁spread
▁Spa
▁leader
▁entered
▁AC
▁Weight
ja
▁biggest
▁commercial
▁Would
▁2000
▁Card
▁hospital
▁Special
▁correct
▁values
▁Help
▁Ko
▁regular
01
▁joined
▁reported
▁vehicle
▁Festival
▁di
▁cells
▁History
▁studies
▁00
ite
▁square
Re
▁helped
end
▁older
ver
▁collect
▁caused
ating
▁Plastic
▁Click
ho
▁sister
▁Royal
▁suffering
▁effort
▁End
so
▁happiness
▁Apartment
35
▁race
▁parking
▁Â
ise
▁Public
▁port
▁asian
ana
▁Lo
▁advantage
▁significant
▁clients
▁models
▁progress
▁collection
▁eating
▁letter
▁album
▁mercy
ize
ard
▁bathroom
▁Washington
▁Industrial
▁Su
▁Screen
▁Factory
▁hairdryer
▁2008
▁interface
▁faster
▁requires
▁Add
▁2009
▁Da
▁founded
▁insurance
▁minute
▁dress
▁prices
▁basis
▁contains
▁dance
▁output
▁spoke
▁ahead
▁Saint
▁object
▁agreement
▁Drive
▁judge
▁En
To
▁particularly
▁realize
▁setting
▁Network
▁explain
▁perform
▁iPhone
▁forces
▁spent
▁warm
▁cards
▁Li
▁Di
▁notice
▁blog
▁easier
▁hidden
▁Act
▁hell
▁Tel
▁34
▁Mother
▁vision
2)
let
▁Adam
22
▁bear
▁f
▁piece
▁(1)
▁rain
▁metal
▁balance
▁Na
▁maintain
:12
▁drug
▁Tower
▁Total
ally
all
▁guys
▁PVC
▁destroyed
kg
▁cast
▁gain
▁TXXX
▁connect
▁blonde
▁Delivery
▁Server
▁affect
ber
▁battle
▁described
▁generally
80
▁Auto
▁chosen
▁African
▁applied
mi
▁mine
▁Bank
▁winter
▁haven
▁Equipment
▁earlier
▁flat
▁pick
▁negative
lin
▁Social
▁Medical
▁Electric
▁Area
:15
▁limited
▁female
▁Port
▁channel
▁Metal
▁mass
▁authority
pa
▁remains
▁Okay
▁closed
▁failed
▁Everyone
▁Lee
▁driver
▁species
▁arrived
▁Keep
▁Villa
▁Indian
▁super
▁influence
▁hurt
▁Program
64
▁lie
▁north
▁IT
▁note
AL
:14
▁dangerous
▁changing
▁Box
ak
▁answered
dy
▁installed
ists
▁rise
▁Watch
▁con
▁planet
▁mankind
▁evening
▁revealed
▁prepare
:30
▁Head
▁behavior
▁trial
▁Mom
▁Media
▁nuclear
▁selection
▁5.
▁Jews
▁supported
▁island
▁showed
▁shape
▁Mi
▁finished
ence
▁aren
▁enemy
▁raised
▁Travel
▁George
▁economy
▁suitable
▁sight
▁regarding
▁Bo
▁seeing
▁%
90
▁actions
▁discovered
▁individuals
▁Store
▁competition
▁concept
▁Welcome
▁opportunities
▁1000
▁none
▁cars
izing
▁methods
room
ron
▁becoming
▁Per
▁OEM
▁o
.—
▁JizzBunker
▁Trump
29
▁Remember
▁menu
▁false
free
▁exercise
▁ideal
▁traffic
▁manufacturing
▁Ben
-2
▁trading
▁calls
▁justice
▁Chi
▁author
▁sale
▁EU
mail
our
▁Everything
▁400
over
ED
▁efforts
▁Note
:18
▁Place
▁appropriate
▁OS
▁wonder
▁fresh
▁reports
▁lines
sa
ial
▁resistance
ke
light
▁violence
}
▁automatically
▁Sale
▁challenge
▁river
▁Cable
500
▁proud
▁League
▁plants
▁functions
▁sample
▁title
▁custom
▁flight
:17
▁independent
▁machines
▁surely
▁Rooms
port
▁websites
▁equipped
▁Small
▁driving
When
▁Smart
▁caught
▁languages
▁Hey
▁client
▁trouble
▁Angeles
▁Multi
▁task
▁milk
▁Development
back
▁venue
ti
MA
▁Town
▁manufacturer
▁claim
▁appeared
▁okay
▁browser
▁pictures
▁Try
▁accepted
▁format
▁theory
▁Ar
▁mission
▁recommended
▁filled
▁(3
▁Greek
▁Team
▁42
▁trees
▁iron
▁speaking
▁technologies
▁aware
▁manner
der
▁KAYAK
▁Key
▁essential
▁straight
▁mentioned
:13
▁sweet
▁god
▁pages
▁twice
▁definitely
▁measure
▁Guest
▁eternal
▁approximately
▁IN
▁appears
va
):
▁Walk
led
▁Out
▁yen
▁radio
▁75
▁sitting
▁heavy
▁Save
▁stuff
▁Ask
▁signs
▁efficiency
▁cat
▁block
▁owner
▁bag
▁thoughts
▁partners
▁dry
▁Anal
▁fair
▁Was
sh
▁www
They
▁smart
ee
▁watching
▁fill
▁ice
▁fit
▁signed
▁stock
▁55
ities
▁Se
▁delivered
▁Night
▁external
▁wise
▁experienced
▁Give
▁magic
▁Photo
▁prison
▁planning
▁handle
board
▁honor
chi
▁scale
▁developing
▁Stainless
▁broken
▁{
ju
▁lesbian
28
▁parties
▁@
▁Society
ina
▁solar
▁clothes
▁Michael
▁guess
bu
▁Very
ding
IN
ology
▁$1
▁Spring
▁Paper
▁satellite
▁Committee
▁TO
▁39
▁Via
▁statement
23
▁slow
▁wireless
:22
ft
▁degrees
▁Step
▁match
▁blowjob
▁stone
si
hi
▁solve
▁dinner
▁Description
▁Government
▁°
▁package
▁stories
ran
▁election
▁anymore
▁Friday
48
▁LCD
▁moon
▁colors
▁120
▁recorded
▁committed
▁respond
▁signal
ham
--
▁anywhere
▁existing
▁Call
▁la
▁south
▁User
▁rates
ze
39
Laughter
▁Aluminum
▁Panel
▁miles
▁motor
▁carried
▁Powder
▁ball
▁min
▁waste
▁cutting
ped
-5
lu
▁Anti
▁Ni
not
▁Linux
ning
▁lack
▁prove
▁fuck
▁schools
▁perhaps
▁panel
▁conversation
▁District
▁Start
▁Amateur
:16
▁leaving
▁persons
▁Beijing
▁target
ph
▁Royalty
op
▁nine
▁miss
▁Website
▁meat
▁decide
▁jobs
ut
▁extremely
▁praise
▁promised
-4
▁Map
▁Energy
Why
▁eventually
▁Without
▁efficient
▁instance
▁Non
▁Motor
▁demand
▁imagine
▁impossible
▁Army
▁figure
▁compared
▁worse
▁installation
▁larger
▁Low
▁cool
▁Views
▁university
▁Palace
▁visitors
ster
bar
▁registered
▁Bravo
▁Four
house
▁feelings
▁Using
▁removed
▁Sunday
▁Oil
▁stress
▁sick
▁creative
▁Film
▁tour
▁printing
▁pleasure
▁solo
▁organizations
ability
▁Cloud
off
▁goods
ru
▁Reserved
▁Santa
ator
▁ex
▁launched
▁elements
▁bread
▁campaign
▁advance
600
▁components
▁asking
▁CE
▁salvation
▁Mature
▁strip
▁k
▁millions
04
▁Yahweh
▁village
27
▁flesh
▁Under
▁servants
▁forms
▁08:00
▁(2)
75
▁height
:21
08
▁seemed
car
▁witness
▁fail
▁starts
▁sport
▁scientific
▁Sex
law
▁ID
▁begins
▁introduced
▁cultural
So
:19
▁widely
▁copy
▁database
▁Brand
▁Wire
▁Monday
▁audio
▁heating
▁chemical
▁football
▁punishment
▁wouldn
▁Vietnam
▁cheap
▁swear
▁brings
▁Language
▁tea
31
",
05
▁covered
▁continues
▁centre
▁missing
tra
▁Instead
▁revolution
2:
▁Americans
70
tro
▁Roman
▁Ma
▁CD
▁messages
▁blind
▁Review
▁Previous
▁meant
▁fee
▁Could
▁existence
ong
ger
▁Choose
▁Foundation
▁businesses
▁internal
▁shoes
▁(4
▁CEO
▁Congress
▁Plus
▁List
33
▁temple
▁Ra
300
▁drop
-12
▁Market
▁settings
▁pure
▁plus
▁expensive
au
ig
▁Change
▁treat
▁Want
za
▁OF
▁righteous
▁shot
▁Casino
uk
▁ticket
:23
▁fell
▁decisions
▁YouTube
▁minimum
les
▁stopped
▁loving
▁operations
▁experiences
▁failure
▁24-
sen
▁grace
▁Speed
▁helping
▁adults
▁suppliers
▁250
:24
▁Breakfast
▁dollars
org
▁quiet
▁drugs
▁rock
▁flowers
▁Has
▁Pa
▁mountains
▁enemies
▁actual
▁Jo
▁sharing
▁soft
▁pieces
°
▁disciples
03
▁hide
ier
her
▁scientists
▁Way
▁Engine
▁65
▁calling
▁2007
▁feed
▁goals
▁director
â
▁apps
Ltd
▁answers
▁band
▁Application
▁opinion
term
▁suffer
▁babe
▁tube
ring
▁classes
All
54
#
▁print
▁powder
▁male
▁happening
▁supports
▁loves
▁sexual
▁express
▁Stay
▁fourth
▁Moon
▁Han
▁hearing
▁mini
▁standing
▁Think
▁County
▁busy
▁fighting
▁dedicated
▁occur
▁yes
▁Middle
wood
▁Press
▁Express
▁darkness
▁determine
▁wood
like
▁situated
▁orders
:25
my
▁privacy
▁principles
▁labor
▁ended
▁channels
▁Industry
▁weapons
▁Third
▁wicked
▁Berlin
▁escape
God
▁Cor
▁importance
▁Francisco
▁drinking
▁majority
▁guarantee
▁smoking
▁[...]
PA
▁seat
▁serving
▁load
▁Space
▁Times
▁Sam
▁Battery
▁Tell
▁laser
55
▁l
▁GotPorn
▁searches
ck
▁formed
AM
▁congregation
▁Si
ok
▁prior
▁Sports
66
ide
▁Peace
▁mid
▁raise
02
▁manager
▁Avenue
▁recognize
:28
LE
▁license
▁proper
▁Catholic
-3
▁Studio
▁toys
▁Shin
▁fellow
▁bbw
▁adult
▁600
▁Restaurant
▁input
▁Trade
▁relationships
▁profile
gi
▁limit
▁discount
▁bought
▁speech
▁accurate
▁Soviet
▁fetish
▁Shanghai
▁records
▁circumstances
▁43
▁recognized
mer
▁Yu
▁boat
▁principle
▁cash
▁finish
▁experts
▁10-
-20
▁carbon
▁Tour
▁Parts
▁citizens
screen
▁appearance
▁lots
▁bottom
▁updated
▁determined
ible
800
▁Manager
▁wire
▁convenient
▁draw
26
▁XXX
:1
44
jo
▁Enjoy
▁friendly
bi
▁worst
▁Location
▁suddenly
▁Ne
▁vote
▁empty
ab
▁enable
▁stockings
▁distribution
▁cleaning
▁knowing
▁Through
▁Arab
▁Quick
▁â
▁income
95
▁performed
▁fashion
▁bright
▁victory
▁stable
▁Summer
▁repair
:00
▁angel
▁laptop
▁matters
mar
▁angels
▁Perhaps
▁Working
▁Ex
▁cute
▁servant
▁n
▁Visit
ure
▁toilet
▁Customer
▁firm
▁44
▁Jacob
▁password
-6
▁nearby
▁medicine
▁Land
gen
▁Indeed
ung
▁teachers
▁fuel
42
▁Tom
but
-19
▁reward
▁Access
▁41
▁confirmed
86
▁successfully
▁fan
▁Personal
▁Sha
▁although
▁al
▁Creator
Porn
▁Ball
▁AND
▁covenant
▁dreams
▁reliable
lan
▁environmental
▁Plan
ium
▁units
▁Po
▁Queen
▁guestrooms
▁€
▁mental
▁Natural
€
▁library
▁swimming
▁Bridge
▁survive
▁classic
▁harm
▁Conference
▁stored
▁Min
▁guest
▁Rock
▁plate
▁default
▁volume
▁OK
▁Bitcoin
▁chief
▁Heaven
Be
qui
▁Outdoor
▁fields
▁Finally
▁tells
oc
▁bathtub
▁grade
▁closer
▁teams
▁recover
can
▁orgasm
▁interview
▁choices
▁1.5
▁gods
▁background
hu
▁Hard
ap
400
▁scene
▁NO
▁switch
▁Zealand
▁guidance
▁Solar
▁Laser
36
67
▁Temperature
:26
▁conference
▁SD
wa
▁Side
▁pattern
41
▁participate
ten
▁everywhere
▁Say
ised
▁cup
▁preserved
▁fans
▁Mini
▁Pacific
▁suits
▁divided
06
▁researchers
▁filter
ek
▁masturbation
▁cry
▁pump
▁Gu
▁h
▁forgiveness
▁Convention
▁Professional
▁spot
▁booking
▁seriously
53
▁compilation
▁conflict
99
▁ring
▁engineering
▁Ten
▁arrival
▁crime
▁Inter
▁fix
▁crazy
▁budget
▁resolution
ku
▁Tri
▁bodies
▁sword
▁civil
▁heavens
▁CAS
▁combination
▁symptoms
▁politics
▁Daniel
▁spoken
om
▁webcam
▁songs
▁lift
▁Sydney
▁Address
98
box
with
▁brunette
▁electronic
38
▁catch
▁buildings
▁Stop
▁tank
▁houses
▁Sign
▁ride
▁Hill
▁Located
▁advertising
down
▁transport
▁processes
▁sad
▁meal
▁faithful
▁forgive
▁lunch
▁funny
▁Twitter
▁surprise
▁decades
▁Community
ura
▁(5
▁practical
▁Saturday
▁DVD
▁Robert
▁bottle
▁causes
▁Hostels
▁Chicago
▁feels
MP
-7
▁concerning
▁translation
▁restore
Me
▁careful
▁innovation
▁mention
su
▁primary
▁aid
▁valuable
▁Protection
▁priest
▁Osaka
tor
▁enjoyed
▁Greece
▁domestic
▁presented
▁concerned
://
▁links
▁yesterday
▁characters
▁Village
▁accident
▁46
▁tests
▁Popular
▁challenges
▁prophet
▁8,
▁Plaza
61
▁Hair
스
▁sides
▁camp
ative
ware
▁solid
▁discover
▁protected
-8
09
▁AM
▁2012.
▁properly
:27
▁Canadian
▁absolutely
▁session
▁showing
▁Terms
ID
▁Notice
▁reduced
▁Local
vo
q
▁PM
▁Win
▁auto
▁Datasheet
Open
52
▁pregnant
site
▁comments
▁entry
▁toiletries
▁helpful
▁Know
▁constantly
▁conduct
▁hardware
▁finding
you
mon
:29
▁duty
▁Suite
▁innovative
▁everybody
▁2010,
That
43
▁anger
▁border
▁critical
▁checked
▁Class
▁dishes
GB
▁fly
▁vehicles
▁shipping
▁Ocean
use
king
▁item
▁Golden
▁carefully
▁Mount
▁cent
▁Still
▁49
▁Bill
▁2018.
▁otherwise
▁managed
▁Five
▁smaller
▁replace
▁Supreme
▁layer
▁Custom
:9
don
▁Close
▁route
▁moral
▁Flower
▁Experience
US
▁hostels
▁maintenance
▁Pool
▁Paradise
:6
▁totally
▁arm
▁Camera
field
▁willing
▁Ad
▁Easy
▁Cross
▁Temple
▁chain
▁Moscow
▁Safety
ez
▁Truth
name
ical
▁dogs
▁7,
han
▁policies
-11
▁backup
▁Ba
▁righteousness
▁wild
▁launch
IP
▁r
▁Glass
▁accordance
▁warning
ned
ny
▁gun
▁Whether
▁interests
▁Minister
▁wake
:7
▁Wood
▁struggle
▁dust
▁micro
fi
▁describes
:31
Dan
▁6.
▁64
▁Hand
▁Pan
▁shemale
ray
ville
▁declared
▁explore
▁Nothing
▁prefer
▁Thailand
▁accounts
▁Near
▁bigger
▁Systems
mp
▁listening
▁emergency
▁Cat
▁initial
▁Country
▁Source
ml
▁Category
▁lay
00
▁Assembly
SA
▁approved
▁integrated
▁threat
▁interracial
▁Automatic
▁Sorry
style
▁remote
▁identify
▁glad
▁confidence
▁measures
▁Students
▁register
ino
▁reservation
▁deleted
art
▁Style
▁count
▁CLD
▁listed
▁obtain
▁Order
ot
▁computers
▁twenty
▁Police
▁52
▁Czech
▁silver
▁purchased
▁Death
▁Point
pro
▁fitted
▁grown
▁selling
▁forest
▁>>
▁angry
▁Amazon
▁UN
▁Videos
▁Sky
▁noise
69
▁Need
▁MP
▁Golf
▁participants
▁1)
▁strange
ow
▁4,
▁holiday
▁folder
▁Modern
▁defined
▁Commission
▁historical
▁soldiers
▁wealth
▁alternative
▁leadership
▁discuss
▁yellow
▁understood
▁Solomon
▁valid
shi
▁artist
▁relevant
▁lingerie
▁ALL
cho
▁attempt
▁Share
ably
▁corporate
▁Never
▁Core
▁mistake
▁realized
tion
▁MS
▁fixed
▁voltage
▁atmosphere
▁Capacity
▁previously
▁threesome
▁sat
▁frame
▁youth
▁Years
▁Director
▁exists
▁Ministry
▁explained
ix
ov
▁Empire
▁sounds
▁Jewish
);
▁combined
▁10:00
▁birds
▁inter
▁weak
▁sacrifice
▁roof
▁assistance
▁holding
▁Private
▁capable
▁treated
▁mainly
▁favor
▁hairy
▁divine
▁Fiber
▁casino
▁800
▁Manufacturers
▁pipe
▁chat
head
▁2006
▁inner
▁telling
▁factors
▁11,
▁Body
▁Especially
▁tags
▁Report
▁numerous
▁Ya
ara
ward
▁weekend
▁diet
▁leads
▁theme
▁module
▁grateful
▁Gallery
work
▁facial
▁keeping
▁mi
▁xhamster
▁Create
▁Length
yo
▁attacks
nt
iv
▁greatly
▁Available
▁frequently
▁expression
▁2)
▁Hu
▁gay
TS
▁Award
▁Money
▁affected
▁tested
▁Current
▁Voltage
▁Ro
ES
▁aluminum
▁angle
▁Ke
▁snow
▁47
▁NOT
▁●
▁phase
▁Buy
▁stated
▁William
▁kid
▁overall
▁Coffee
CE
▁ordered
▁versions
▁blessed
▁reasonable
▁overcome
▁Table
SE
▁museum
▁sleeping
▁flower
▁objects
▁Tag
▁cycle
▁Gas
▁Net
▁visiting
3)
Applause
▁destruction
▁complimentary
MS
▁Martin
▁instructions
▁URL
▁department
▁Little
pi
▁unless
】
▁Hospital
vi
▁girlfriend
▁Force
▁Jack
▁customized
▁ran
set
▁Features
▁visited
▁broke
▁Hell
▁provider
ery
▁seed
▁proof
John
▁honest
▁Charles
book
▁ocean
AC
▁Really
▁terrible
▁certificate
▁grew
▁creampie
▁owned
▁perspective
▁Computer
▁Touch
▁restaurants
▁22,
▁Bi
▁Thomas
▁sheet
▁]
▁turns
▁element
▁stood
ama
▁Girl
:4
▁Outlook
▁Shopping
san
▁Things
▁Being
▁interior
▁Pressure
▁Again
▁Job
▁era
▁comment
du
tech
07
▁15,
▁entirely
▁effectively
▁counsel
▁Shi
▁exciting
▁Exhibition
▁fabric
▁passion
▁da
▁True
▁earn
▁Luxury
▁homes
▁disk
ita
▁root
RE
Let
▁Du
▁updates
▁entertainment
ik
▁birthday
▁leaves
▁convert
51
▁Storage
▁assembly
:5
▁afternoon
:34
▁Judah
ries
▁factor
▁monitor
▁comprehensive
▁Barcelona
▁foundation
!!
▁description
▁Led
▁golf
▁registration
▁agreed
▁survey
▁illegal
▁w
▁currency
▁depends
▁aim
▁referred
▁Pass
▁Unfortunately
▁RE
▁Follow
fer
ou
ions
▁Mountain
▁sets
▁Vi
▁articles
▁Happy
▁remained
▁consent
▁losing
▁applies
▁15-
▁automatic
▁Kids
▁walls
lic
▁Academy
▁iOS
▁mirror
▁Switzerland
che
ari
▁surprised
ps
IT
:32
▁claims
hr
▁identity
▁Grade
▁Nations
ano
▁110
▁permission
Read
▁28,
cha
▁humanity
▁lighting
▁Har
▁1970
▁del
-15
class
▁Ireland
▁Brazil
1)
kin
▁focused
▁51
▁competitive
▁rating
▁Living
▁networks
▁2010.
▁cumshot
▁promote
▁seeking
▁Texas
▁rental
▁Suppliers
▁y
▁Silver
▁east
▁acid
▁Training
▁bringing
:8
▁resurrection
▁saving
▁annual
▁6,
▁Ga
4)
▁Iron
▁arrive
▁parent
▁doors
▁fault
EN
▁virtual
▁shut
▁aircraft
Th
▁sensor
▁regulations
▁dad
▁2015.
리
▁Baby
▁blessing
▁Heart
▁Te
▁Floor
▁operate
:33
▁alloy
TH
▁yourselves
▁Care
▁Fast
▁suggest
▁Arts
▁Boutique
▁featuring
De
▁Off
▁Enter
▁precious
tel
▁ears
▁Days
▁fiber
▁remaining
▁luxury
▁Fair
▁gate
▁attitude
ey
▁chose
Picture
59
▁Age
▁1980
▁Dutch
▁gifts
▁boys
▁succeed
▁severe
▁expand
▁2011.
▁Valley
CH
▁reference
▁increasing
▁fucking
▁Jan
▁1990
▁stayed
▁salt
One
▁tonight
▁Prince
▁Organization
gar
PC
▁belief
▁studying
▁Bangkok
▁Radio
▁broadcast
▁west
▁Reviews
700
AS
▁Level
▁somewhere
▁counter
▁medium
▁unable
▁intended
▁Front
▁profit
▁mask
▁14,
▁Las
▁improved
▁Cap
▁consumption
▁CNC
▁runs
▁liquid
▁schedule
▁regard
▁constant
▁Exchange
92
▁crisis
▁forgotten
▁follows
▁Turn
47
34
ng
ada
▁churches
tan
▁familiar
▁telephone
▁05:00
▁winning
▁HOME
▁exact
}}
▁Cell
▁receiving
▁tend
▁procedure
▁destination
▁Battle
▁administration
▁plenty
▁adopted
▁plane
▁Song
ney
RO
▁nurse
49
56
▁sugar
CK
▁acts
▁category
▁Olympic
▁Prague
SS
▁till
▁defense
▁Milan
▁mark
▁Islands
▁riding
82
▁Student
ker
▁log
▁Dad
▁Latin
ual
▁taxi
istic
▁Pipe
more
▁pleasant
▁Self
▁2005
▁uniform
ris
▁forced
▁herself
▁CA
▁50%
MO
▁Brown
▁danger
pcs
▁edge
▁【
▁evolution
see
▁Recovery
▁info
▁sources
▁SP
▁stronger
▁Details
▁surgery
▁fundamental
▁concern
▁flexible
▁Dubai
▁FOR
▁enterprise
▁extension
▁stainless
▁arms
68
▁EN
▁GPS
▁pen
97
▁lights
▁Electronic
:45
▁Link
▁agent
▁Moreover
▁ends
▁Pi
ach
▁attend
▁bike
▁studio
▁occurred
▁10%
▁Shop
▁personally
▁apart
▁conducted
▁clock
▁alcohol
▁anyway
▁220
▁Tim
▁desired
▁writer
CC
pm
▁casting
▁muscle
▁newspaper
▁represent
46
AR
▁aspects
▁Module
▁(6
▁ear
▁buying
fa
▁courage
▁beings
Who
▁invited
▁magazine
▁specified
▁180
▁tight
ff
▁institutions
▁personality
▁obey
▁Micro
▁markets
▁Corporation
▁wholesale
▁regularly
▁Always
▁Child
▁joint
▁18,
▁16,
▁Production
:2
▁transportation
▁2.0
app
ious
96
air
▁educational
▁2014.
▁Supply
▁Samsung
▁Block
▁bound
▁Roll
▁Mon
▁reaction
▁elected
▁specifically
▁Flash
▁Dream
▁Polish
▁PP
▁Motel
▁Hydraulic
▁detailed
▁sand
▁supposed
▁stands
party
▁Wine
▁compare
▁Euro
▁academic
▁net
lon
▁dwell
▁deals
▁supplier
▁developers
▁Dan
CO
▁Engineering
▁Ru
▁2011,
▁throw
▁hole
▁dining
Please
▁Log
▁Gen
▁Whatever
▁sector
▁score
▁Library
▁apostle
▁ST
IS
▁Ah
▁diseases
sha
▁roll
▁suite
▁priests
▁inspired
▁smell
▁2016,
▁fishing
▁VPN
▁investors
▁Stone
▁faces
▁Tu
▁certification
▁Britain
:35
ria
▁Pump
oo
▁ordinary
▁capture
▁audience
▁Turkey
ming
▁2015,
stone
OR
▁slowly
▁diameter
▁laugh
▁horse
▁delete
▁Season
▁Australian
▁satisfied
val
▁collected
▁behold
▁9,
▁hd
od
▁Though
▁2.5
▁tongue
▁Castle
▁intelligence
▁Developer
▁13,
▁hostel
▁communities
tter
▁talked
▁Tea
▁posted
▁cooperation
▁Poland
▁Sales
▁meetings
▁Content
eg
tea
85
▁opposite
▁pop
▁SC
▁Winter
inch
▁onto
▁electrical
▁corner
▁PE
▁packaging
▁Richard
▁turning
▁Case
▁stores
:37
:40
▁planned
▁Within
="
.[
▁studied
▁locations
▁Ja
rate
ile
▁sake
▁Filter
▁smile
▁guard
▁techniques
:3
▁Certificate
top
▁Chapter
▁flash
▁manual
▁believers
▁push
▁YOU
▁Thickness
▁operated
▁sing
▁doctors
▁sheep
yl
▁implement
▁Join
▁glasses
▁Sch
▁breath
▁virus
▁Bit
▁communicate
▁Guangzhou
▁pull
▁deeply
▁controller
▁2017.
▁refer
▁minister
▁#1
▁authorities
ip
▁21,
▁truck
▁RedTube
OS
▁represents
▁artists
▁assist
▁2012,
▁ma
▁Revolution
sk
▁neighbor
▁30,
▁Iran
▁Twin
well
▁25,
▁Trust
▁tired
▁Cold
▁regions
▁Statement
▁Cookie
▁industries
▁pleased
▁27,
▁promises
▁Truck
▁commitment
▁2003
▁shoot
▁servers
▁perfectly
:36
Our
이
▁tasks
▁windows
▁putting
▁establish
water
▁Email
▁Bio
▁detail
▁issued
▁chair
▁tattoo
lar
▁Cookies
▁usage
▁Ge
ue
▁JR
▁appreciate
▁raw
▁58
×
▁2013,
▁CS
▁Based
▁Hilton
▁dates
berg
▁2019.
PE
▁lifetime
ep
▁0.5
▁emotional
▁context
▁vast
▁serves
▁farm
▁Story
▁Bedroom
▁monster
▁describe
RA
▁followers
▁1,000
▁Dis
▁Train
58
▁expert
long
▁Hope
▁1960
▁suffered
▁celebrate
▁Too
▁Residence
hand
ice
▁possibility
▁beer
▁stick
▁meals
▁Pin
▁PA
▁Event
▁component
▁Ku
▁balcony
▁Short
▁closely
that
▁Send
▁(3)
▁Unit
Matthew
▁reform
72
▁discussion
▁superior
As
63
▁Switch
▁grave
▁wash
▁chapter
▁29,
EC
▁clothing
ani
84
▁tower
EL
▁officially
▁2017,
▁ha
▁enables
▁courses
▁12,
TA
▁mostly
▁estimated
▁Account
▁Study
▁Around
▁drinks
low
▁Doctor
▁sufficient
▁brands
ini
▁Nature
zo
▁Ver
MM
▁facility
▁blockchain
▁Ukraine
▁temporary
▁tickets
▁belongs
▁Despite
▁Update
▁Tuesday
▁beat
▁AI
▁victims
▁agency
▁Consider
▁replaced
▁Taiwan
log
▁mail
new
▁literally
▁GB
▁Yellow
▁Frank
▁69
▁19,
▁Che
▁Platform
▁1:
▁Rose
act
\
74
▁owners
▁pair
▁granny
▁achieved
▁subway
▁Culture
NA
▁Gar
▁displayed
ug
▁drunk
▁rice
▁23,
▁26,
▁Pay
link
▁Mc
▁missed
▁2016.
▁2014,
▁charged
▁commanded
▁Parking
▁Future
ified
▁10,
km
from
▁refused
▁vital
▁visible
▁Noah
▁Package
Mo
▁assigned
▁Melbourne
▁consists
▁Corinthians
▁17,
▁54
93
▁wearing
▁Enterprise
▁occurs
▁2013.
ging
▁tradition
▁letters
▁Johnson
▁rapidly
▁Surely
▁Printing
▁logo
▁Week
▁professor
▁Ki
▁immediate
▁notes
▁Henry
▁jump
▁daughters
▁Advanced
story
▁slave
▁federal
▁ho
▁Face
:02
▁relations
DC
▁somebody
proof
▁7.
TO
▁continuing
▁Miami
▁tips
▁prayers
▁Beauty
▁creatures
▁Looking
list
▁calm
▁gathered
▁excited
▁Action
▁permanent
▁requested
▁Daily
▁Maria
▁designated
▁Reservation
▁abuse
▁hosts
▁$2
▁infrastructure
▁vintage
▁Collection
:38
▁souls
TV
▁Among
▁frequency
▁organized
▁porn
▁Swiss
▁sentence
▁shit
▁Flat
▁granted
▁Chat
▁stupid
▁situations
quality
▁killing
ola
▁centuries
▁fees
▁Tank
▁SS
▁Florence
▁Railway
▁controlled
Co
SP
▁officer
van
▁programme
nes
▁Sp
▁identified
▁Round
▁healing
▁HP
▁Thursday
▁Latest
▁native
▁allowing
▁makers
▁Clean
▁elevator
▁obtained
▁typically
▁traveling
▁pet
▁Netherlands
▁grand
hotels
▁(18
▁deserve
▁Talk
▁UV
:50
▁Cam
▁thickness
▁Economic
▁differences
▁dealing
▁vary
▁ebony
▁requirement
▁obvious
▁72
www
ud
ification
ica
▁intelligent
▁Federal
▁BE
▁DNA
▁assets
▁wheel
▁extensive
▁Justice
▁debt
▁burn
cc
▁rely
▁rare
▁Seven
▁quarter
▁extent
IC
▁2009,
▁motion
ons
▁linked
ane
▁fifth
▁mistakes
▁Posted
▁2008,
▁professionals
▁films
AD
▁Pack
▁monitoring
▁0.1
▁rent
▁Until
▁quantity
▁Mode
▁visa
▁pov
Ex
▁configuration
▁Hav
▁Leave
▁Ca
:05
ath
▁walked
dis
▁murder
▁suicide
▁lock
▁mo
▁Dance
▁Technical
▁laid
▁Hours
▁indoor
▁award
▁transmission
:09
▁Alloy
▁wave
▁relatively
▁witnesses
On
▁Prime
94
ec
▁Wednesday
37
▁Door
의
CA
“
">
▁prophets
▁SO
▁label
▁blessings
▁dollar
▁Something
▁normally
▁Player
zi
▁API
▁circuit
▁despite
point
SC
▁1992
▁inch
▁capabilities
▁ministry
▁Flowers
▁requests
▁Tool
▁sensitive
▁Van
▁MB
▁reputation
▁encourage
Con
▁risks
79
Don
ites
▁submit
▁throne
▁Vegas
▁PS
▁smooth
je
▁abroad
ological
▁WordPress
▁winner
▁characteristics
oid
76
71
▁”
▁Operating
▁Heat
▁Plant
:39
▁nylon
▁Smith
7%
▁naturally
▁Nor
▁export
▁bio
▁contrast
▁therapy
▁practices
▁liked
▁leather
▁pack
▁31,
▁Pink
cy
▁bird
▁Lock
▁fathers
▁approval
▁philosophy
▁stability
:07
▁sending
▁Ta
▁bill
▁Profile
▁programming
▁recording
▁funds
▁younger
▁Pe
▁senior
related
▁covers
▁lo
▁massive
▁Terminal
▁electricity
▁smoke
▁democracy
▁increasingly
/1
▁Executive
ns
tin
▁Boy
▁ME
▁foods
▁Had
▁rose
era
▁ultimate
▁Ever
▁streets
▁handjob
▁Yo
▁Par
nm
▁drives
▁burden
▁Bottle
ular
▁Joe
fu
▁Bra
▁ill
MB
AP
ON
▁banks
▁dear
:46
▁rejected
▁DO
트
▁53
▁Universal
▁conversion
uring
▁Driver
▁ironing
▁enhance
▁PCB
▁sisters
89
▁availability
BA
▁Pen
▁Packaging
▁Gi
An
▁95
▁broad
▁applicable
:04
▁Fabric
▁Kit
▁entrance
▁furniture
▁♫
ose
▁zone
Go
▁edit
▁24,
iz
▁origin
▁20,
ona
57
▁storm
▁neck
Al
▁unknown
▁suit
▁Sweden
▁memories
▁spa
▁stations
mit
▁Rate
88
▁split
ren
▁Ti
▁Fe
▁Saul
cur
▁increases
▁attractive
load
▁2004
▁belong
▁2:
Now
▁tons
▁slightly
▁Financial
▁upper
-16
▁Payment
AN
▁experiment
▁2007,
right
▁cheapest
▁Later
▁Matthew
|
▁cuisine
▁contest
▁reply
▁usual
▁lamp
▁injury
▁everyday
▁AS
▁crying
▁spending
91
rin
▁Mexican
▁twelve
▁Soft
▁hall
▁holds
▁30%
▁luck
▁Shenzhen
▁symbol
▁cap
▁flood
▁Far
▁shalt
▁deny
▁cum
:49
▁pm
vin
▁Sin
Lust
ENT
·
DS
▁1996
▁adopt
▁Channel
LA
az
▁Put
sky
▁replied
▁Item
yu
▁measurement
▁cm
▁extreme
▁swallow
▁Sheet
ration
▁Athens
▁estate
▁technique
▁Cultural
ball
▁Dec
▁Medicine
▁blame
are
▁criminal
0,000
:57
▁ban
▁56
ET
IL
uc
▁painting
▁imp
▁Confirmed
view
▁Luke
ack
▁III
▁Northern
▁homemade
▁victim
▁distributed
▁Magic
▁Gate
”?
▁tears
▁360
▁appeal
▁Marine
▁departure
▁hungry
▁Beautiful
▁resource
ai
▁cream
▁repeat
▁commonly
▁worried
▁amenities
▁lady
▁divorce
ky
▁Someone
▁actor
▁generations
▁trained
mark
▁dying
:03
▁bridge
▁crowd
▁valve
▁Excellent
wan
▁topic
▁Eye
:42
ens
▁visual
▁collaboration
▁Iraq
▁Bag
▁ratio
▁nobody
uck
LY
▁Manufacturer
AT
ford
▁Surface
▁desert
▁Run
▁Safe
▁damaged
▁assume
▁Testing
▁lowest
▁3.5
Pro
▁lord
▁Louis
▁accuracy
▁soccer
▁explains
▁85
▁devil
▁mix
▁container
▁Meeting
▁Tech
▁peaceful
▁leg
▁57
▁german
▁heads
▁Field
▁Better
▁protein
▁observed
▁poverty
-9
▁Release
:55
▁portion
▁housing
▁defeat
▁Journal
▁diverse
▁examples
ple
PO
ther
▁thread
▁Manual
pre
77
▁household
▁lucky
▁com
▁novel
▁extended
▁officials
▁mechanical
tu
▁Basic
▁Xo
▁shooting
▁lessons
▁Original
▁vacation
▁mouse
▁Treatment
▁samples
▁Performance
ations
▁Actually
▁relax
▁2001
▁thereof
▁strike
Oh
▁Booking
▁beds
▁lying
▁adventure
▁gather
▁lesson
▁Range
▁Sir
▁extract
▁Professor
▁argue
▁exit
▁mis
▁exhibition
▁Hat
:41
▁coating
:01
▁Rubber
▁2002
▁Fun
Zilla
▁paint
▁Value
▁producing
▁paying
▁Ab
▁coast
known
bin
▁fridge
▁(10
▁ease
▁refuse
cal
▁alarm
▁complicated
▁Ri
▁2018,
▁Ice
▁provision
▁invest
▁Kitchen
▁Sensor
▁engineers
▁basically
▁debate
▁Making
▁weapon
・
▁admit
▁keeps
lia
▁Edition
`
▁warranty
▁sizes
▁communications
▁Casa
▁creates
▁Faith
▁Aaron
▁adding
▁Farm
▁providers
gra
▁verse
▁drivers
▁pride
rated
▁engage
lock
▁surrounding
▁integration
▁reveal
▁passengers
▁resist
▁printed
▁Output
▁staying
▁obviously
▁strengthen
▁shift
tz
lor
▁FC
▁recognition
▁territory
▁Foreign
ade
▁detect
▁20%
▁shame
▁Band
▁2008.
78
▁Jin
▁acting
▁demands
▁Waterproof
▁emotions
3%
▁originally
▁historic
:44
▁Dark
:54
▁patterns
Can
▁compatible
▁platforms
ag
some
▁flying
▁Eastern
▁confirm
▁dogging
▁apostles
▁£
▁universities
▁Isaac
▁lovely
▁significantly
gate
▁midst
ble
▁icon
▁Eve
-30
friendly
▁vi
▁Wind
▁commit
cent
month
▁Himself
▁Dress
▁regime
▁whenever
▁dynamic
▁2009.
▁Southern
▁DE
▁robot
▁Fashion
▁guilty
▁stream
▁Simple
120
▁cooling
▁proved
▁zero
▁branch
PS
▁troops
▁Rather
▁resort
▁Audio
▁skinny
hotel
ants
▁Direct
▁Sport
ev
▁yeah
dom
▁merely
▁Movie
pl
▁tough
▁Documents
81
▁consequences
▁preparation
▁Seattle
▁dressing
▁Lady
▁thick
▁Carbon
▁Angel
-18
▁burning
fully
▁Camp
▁Scripture
▁pregnancy
life
▁None
▁1950
BS
150
▁Listen
▁OR
▁Six
▁speaks
▁tape
:47
▁Chris
▁Shipping
▁Stock
press
▁Cho
RI
▁precision
▁¥
▁observe
▁upgrade
▁arrested
▁Wait
▁soil
▁calendar
▁edition
▁legs
▁Youth
▁saith
▁functionality
▁Tools
scale
▁Mu
▁Nice
▁na
▁grass
▁sought
ski
▁duration
ala
▁lake
▁ultimately
IA
made
▁noticed
▁thirty
▁Pope
▁59
▁prize
5%
▁Deep
▁designer
2.5
ay
ash
bus
▁Adobe
▁Related
▁transferred
gg
level
▁Question
▁waters
▁consult
ea
▁Swedish
▁trans
▁Fort
ken
▁Stadium
▁Chrome
▁Intel
83
May
PM
▁Forest
▁99
▁hire
▁exclusive
▁ads
▁Mesh
▁Alex
-01
▁independence
▁Legal
▁minds
war
▁Down
▁Blood
▁Due
▁Author
lit
▁reject
nic
▁3)
▁strategic
ius
5)
▁penetration
▁desktop
▁moments
▁Indoor
▁Hello
▁possess
▁designs
▁66
▁finance
▁SCP
▁Prophet
▁Wholesale
▁Construction
New
▁Scriptures
▁row
▁directed
▁ingredients
▁boxes
speed
▁Villas
▁Anyone
▁chubby
▁Florida
▁Average
▁Marketing
:56
▁comprises
:06
▁Alpha
▁Snow
▁EX
▁objective
▁deeds
▁keys
110
:48
▁Major
▁errors
pt
▁63
▁http
win
▁Early
▁kg
▁facts
▁Mor
▁Bob
▁cook
▁Certification
▁gym
▁pursue
af
:58
▁Eli
▁strongly
▁Pop
▁viewed
Hz
▁investigation
EP
▁Packing
▁shops
ick
▁reflect
▁incredible
▁iPad
62
▁Chief
▁Offering
▁Nu
▁bonus
▁connections
▁survival
▁favourite
▁Fat
▁aspect
bed
▁Blog
▁Course
▁urban
▁Bad
▁Soon
▁entering
▁TEL
▁preaching
▁Boston
▁Bear
▁Pharaoh
▁Plate
▁trusted
▁delay
▁officers
▁Dead
▁Strip
▁Inch
▁editor
▁expressed
▁Agreement
▁Cutting
gy
▁rejoice
tri
▁facing
▁instruction
▁string
▁Limited
EA
▁Thai
▁호텔
▁Entertainment
▁northern
▁satisfaction
▁thin
ami
▁agencies
▁depression
▁Kyoto
▁vs
▁Comments
kw
▁10,000
▁newly
▁contemporary
▁crew
▁employment
▁decade
gue
jin
wi
▁worthy
form
PP
▁shouldn
▁rid
▁advantages
▁procedures
▁Mike
▁{{
▁afford
▁Bur
▁equivalent
town
▁concerns
sis
▁absolute
▁Jordan
▁Israelites
har
▁Ph
▁Sub
▁predict
250
▁choosing
▁committee
▁Title
▁plays
run
:59
▁Wireless
▁Operation
▁definition
▁colour
▁ASTM
▁sp
called
▁Valve
▁Metro
▁painful
▁elegant
▁terrace
▁Secretary
▁surrounded
▁Frame
▁Ram
▁350
Yes
▁seats
▁Diamond
▁array
▁creature
▁universal
mat
ese
▁IS
▁Lot
▁Skin
▁shadow
▁react
▁Turkish
Then
▁Dong
▁everlasting
▁Dragon
▁PR
▁residents
▁Christianity
1.5
▁continuous
▁li
▁Updated
▁mixed
▁Timothy
▁fantastic
▁sir
▁eggs
▁PRO
▁employee
:43
ify
▁tracking
▁drawing
0.0
▁sheets
▁Samuel
▁(7
▁typical
▁possibly
▁proposed
▁trains
▁index
▁argument
ME
▁Ji
▁safely
▁Fa
▁expansion
▁french
▁Die
▁Dollar
▁productivity
6)
dia
▁harder
▁Solutions
▁Coast
▁microwave
▁cameras
▁Return
▁dating
▁FREE
ob
▁MA
▁festival
:51
▁Del
▁Forum
▁rapid
▁wherever
▁RO
▁chart
▁contents
▁cougar
▁Besides
1%
▁cooking
-13
DA
tal
▁marry
▁mighty
▁Stand
▁elders
▁Coin
▁introduction
▁Lights
▁Overview
▁instrument
eng
▁expertise
▁separated
▁Added
▁2007.
▁Customized
▁flights
▁Olympics
▁functional
ros
▁Eco
▁printer
▁Portable
▁beloved
▁governments
▁font
▁(8
▁Democratic
bra
ell
Ro
▁plug
BC
great
including
▁ships
▁Indonesia
▁chocolate
▁removal
▁copyright
▁yoga
▁IBM
▁gained
▁watched
▁tennis
▁permitted
▁AT
▁Fund
NET
▁Mars
Clips
▁Civil
▁contribute
▁Female
▁heavenly
▁IC
▁discounts
▁Java
▁Nobody
▁Supplier
▁Nov
▁behalf
▁Chemical
▁friendship
▁coach
▁Questions
▁oxygen
▁secretary
▁Male
▁carrying
▁thankful
▁representative
á
▁chicken
▁Jean
▁st
▁Others
▁supplied
▁HOTEL
▁blocks
▁rescue
▁Simon
par
Your
2%
▁import
▁disaster
▁Hence
▁trend
▁convenience
▁delicious
▁reception
▁rail
zu
vert
tle
▁Classic
▁taxes
▁buried
She
▁WEB
▁Constitution
November
▁Bring
▁oldest
▁palace
ven
▁tap
▁dirty
▁Avoid
St
▁engaged
nan
900
▁genetic
▁Learning
▁Sand
▁EUR
▁claimed
/10
▁Ze
▁depth
▁Made
▁Files
▁Commercial
▁refrigerator
라
73
▁smartphone
▁transaction
Is
▁Agency
▁giant
cher
▁accessible
▁Cover
▁converted
▁expectations
▁Much
▁fallen
▁centers
illa
this
▁desires
▁laundry
▁62
▁160
▁j
▁Fall
▁flag
▁grant
▁consumer
▁translated
▁Miss
▁prayed
len
▁supplies
▁awesome
▁paragraph
▁gaming
▁rubber
▁07:00
▁Connector
▁Shower
▁700
LI
220
▁130
▁executive
▁shuttle
▁forecast
▁VR
▁generate
smoking
▁lab
▁Fi
▁kings
▁Bal
▁teeth
▁resolve
table
ties
▁Base
▁Ken
▁union
▁illness
▁organic
▁Babe
ei
▁fitness
▁Mal
▁68
▁Chip
▁1.2
▁returns
～
NO
▁Austria
▁scared
avi
▁dispute
▁testimony
▁sacred
▁fought
▁exception
▁gear
ima
▁Used
▁strategies
▁Division
▁2006,
▁attractions
▁RS
▁finger
4%
▁exposed
KW
▁1999
ew
ette
▁License
▁copper
▁Device
▁moves
▁restored
▁Behold
▁Sony
TE
▁castle
▁steal
▁Portugal
▁Downtown
▁Premium
print
▁attended
▁attached
rk
▁AD
▁Message
▁width
nie
▁viewing
▁shell
GA
▁Mass
▁Ray
ero
CM
▁Currently
▁bow
nu
▁Materials
▁rated
▁freely
▁Weather
▁Repair
▁inspection
▁fool
▁Introduction
▁positions
▁Cal
type
vis
▁tab
▁Football
▁poly
▁implementation
ella
▁displays
▁refers
▁gambling
▁literature
▁silence
▁Ring
▁blow
▁indicate
▁certified
:08
▁unusual
▁Member
▁Wheel
▁naked
▁steam
▁Victoria
▁lawyer
▁Flight
▁Sweet
▁supporting
▁Sal
▁tri
▁enjoying
▁genuine
kr
▁fulfill
€“
▁renovated
▁injured
▁Clear
uff
▁packing
▁3.0
English
▁Sen
")
▁Nevertheless
▁wives
-14
▁protocol
▁cats
▁phones
ax
▁Load
play
▁squirt
▁Babylon
▁difficulty
▁0.3
pin
▁Psalm
Man
-17
▁}
▁spy
Psalm
gan
▁Je
▁panties
▁cancel
▁WiFi
▁contained
▁asks
▁division
▁environments
:53
oz
bol
▁transition
▁Kan
▁aside
▁romantic
▁Hollywood
▁Track
Ha
▁LG
ction
▁ON
▁weren
▁relative
▁(4)
▁140
▁wet
▁po
▁Gift
▁brief
Where
▁fruits
▁dropped
▁Tourism
La
▁meter
▁※
▁signals
Ma
▁Prayer
▁fulfilled
▁Studies
▁cried
▁strive
▁Syria
▁eliminate
place
▁Usually
▁Registration
▁LA
▁formula
▁Remove
▁goodness
cing
▁Wife
▁noted
▁regional
▁ignore
▁Mag
▁SK
▁Process
▁convention
hai
▁whoever
:52
▁Eat
▁comparison
▁spouse
▁outstanding
▁le
▁Pet
▁pin
▁threats
read
▁Prize
▁Sound
▁belt
▁ES
▁singer
▁adjust
bal
▁developer
DrTuber
▁HTML
py
▁priority
▁encounter
▁marked
uri
▁differently
▁Active
SH
▁2005,
ye
▁para
▁introduce
8%
▁reign
▁Rental
▁Perfect
▁86
▁hang
▁Fu
size
FA
▁differ
▁altar
▁implemented
▁Less
part
▁Ci
▁×
test
med
▁Za
5,000
▁Budapest
▁Wedding
▁Woman
▁Bluetooth
▁scan
▁conclusion
▁Mall
▁association
▁Apps
▁forgot
▁Except
▁modified
▁peak
▁plain
▁treasure
cast
▁heels
▁mathematics
▁revolutionary
▁Crystal
▁Steve
▁acknowledge
▁agents
▁deeper
▁emails
000
yn
mal
▁Cheap
▁consumers
▁strict
non
int
meter
▁Tar
▁tiny
▁Connect
fe
RC
▁improvement
▁believes
ect
▁sofa
▁habits
▁gospel
▁Diameter
▁SE
▁commission
▁discipline
▁Ed
▁outcome
▁recovered
▁Common
▁Op
row
▁Built
▁Section
▁Guesthouse
▁posts
▁ought
des
▁kindness
▁infection
▁confident
▁Jim
▁365
▁shoulder
▁cure
▁Fan
▁execution
▁Lighting
▁chip
ika
▁productive
ign
▁partnership
▁Vintage
▁Matt
qua
▁narrow
▁southern
▁defend
▁landscape
▁anybody
▁proven
▁Move
▁aunt
▁Thou
▁Specifications
br
yama
▁pounds
▁charges
kan
▁baseball
▁Jackson
og
▁discussed
▁handling
▁tourist
▁hero
▁Mill
▁TA
ato
/2
▁inhabitants
ins
▁fake
▁falling
sion
eo
cul
▁Ju
HD
▁Raw
▁opt
▁graphics
av
▁bedroom
▁promotion
▁Isaiah
▁brethren
▁improving
▁queen
▁lens
▁Capital
▁Vol
▁silent
ui
▁begun
▁Height
▁extend
▁yield
▁Lodge
▁Roses
BO
▁Bath
▁adapt
▁Finland
▁redhead
▁heal
▁u
▁offices
code
▁3000
▁Dog
Well
▁Environmental
▁loan
▁powers
▁›
▁Zone
▁exam
▁Vehicle
▁sees
ians
▁Ye
▁Transfer
ib
▁shock
hua
ever
iah
▁Trans
▁regret
▁Andrew
▁Estate
▁passing
▁invite
IM
ado
▁inform
▁occasion
▁fate
▁theater
▁boss
▁1.0
▁Final
▁Gay
▁incident
()
▁MT
▁paradise
▁Between
▁Virtual
▁Princess
▁Wild
▁discovery
▁Cha
▁explanation
▁BA
▁prime
▁sum
▁Palm
pp
▁Controller
▁Cafe
▁sinners
▁gender
key
▁Meet
▁Opera
▁0.2
▁Bell
▁Administration
▁dur
tsu
▁optional
▁Awards
▁russian
ast
▁sexy
▁searching
▁Memory
izer
LC
▁stones
▁warned
Po
▁praying
▁concert
▁PU
ene
▁Wikipedia
▁invitation
▁Got
▁browse
▁Furthermore
1000
LS
▁shirt
▁colleagues
▁ceiling
▁monthly
cu
▁passage
▁Tree
▁Rio
▁Adult
SD
RS
▁beliefs
Acts
▁eaten
▁artificial
▁fairly
▁Vienna
▁cartoon
▁transactions
▁column
▁equally
▁Stage
mg
▁Events
lam
▁Hebrew
▁Disney
▁babies
▁patience
▁pollution
▁Denmark
▁feedback
▁Users
▁Dar
▁Girls
▁headquarters
▁Info
▁Lost
▁Toronto
▁ugly
wing
▁burned
▁PST
▁represented
dan
▁machinery
▁Cu
▁operator
▁relief
▁Lab
▁honey
cus
▁scheduled
dong
▁Maximum
▁bo
▁Ve
OT
▁anniversary
away
ear
tru
▁oh
▁AShemale
▁Phase
▁adds
▁mount
mun
▁refund
which
▁reliability
、
▁RFID
▁childhood
▁Property
160
aka
▁campus
▁WE
roll
▁combat
▁Bre
▁Checked
%)
▁railway
▁invention
▁Cast
▁Jones
ulation
▁limits
▁Form
▁intellectual
▁Couple
▁thermal
▁simultaneously
ub
oma
born
6%
OP
▁tall
▁Argentina
▁denied
ain
▁membership
▁votes
ture
▁304
▁Fine
▁BC
Not
▁accomplish
ien
EM
nce
tes
▁measured
▁affairs
▁retail
▁BO
▁legitimate
▁Val
▁engines
▁1988
▁holidays
▁cheating
▁Gun
▁Rated
▁therein
▁bearing
▁Fish
▁Revelation
qu
▁globe
▁Rod
▁consciousness
▁revenue
▁involves
▁Arabic
ori
▁kissing
▁Theatre
▁Cost
▁Tai
▁Frequency
fire
▁Environment
▁gardens
▁Arm
rt
▁council
▁biological
▁Ok
▁generated
▁musical
▁Grey
▁crystal
▁actively
▁percentage
Are
▁Contacts
▁bond
▁commands
▁Er
▁specialized
9%
▁exposure
▁luggage
▁Foot
▁Gal
▁Gospel
OL
▁semi
▁Communist
▁Pattaya
▁publication
▁rising
ua
▁bones
▁humble
▁Ger
▁Remote
lie
▁islands
UR
▁categories
▁accessories
cia
▁Defense
▁Adventure
▁reduction
▁underground
▁establishment
▁cake
▁Nam
▁Print
▁Georgia
▁crucial
▁Almighty
▁overseas
▁96
▁sequence
▁NEW
▁opens
ising
▁examine
ock
▁Protect
▁grain
▁20-
▁Venice
▁LTD
▁captured
▁spare
▁Mission
▁Credit
▁divide
-21
▁drawn
▁transform
▁tied
▁Deluxe
▁pussy
▁Instant
▁comply
001
making
▁guaranteed
▁preserve
ition
▁Mail
▁singing
▁western
▁kit
UN
▁Heritage
▁voyeur
▁Irish
▁Petersburg
PDF
▁coverage
▁skill
▁Applications
ida
▁matches
▁≤
▁Phil
▁innocent
OM
▁ownership
▁Orange
ute
▁Solution
▁Hairy
▁Extract
▁stages
▁Bu
▁Poly
▁radiation
▁bi
▁Portuguese
▁Ultra
*1
▁Para
▁packages
▁XP
mann
▁AR
▁Memorial
▁featured
phone
At
▁terminal
▁performing
▁ca
▁nose
▁indicates
ense
▁enabled
▁Lead
▁boasts
▁forty
▁bless
▁1986
▁breaking
▁3:
▁80%
▁violent
▁necessarily
▁corruption
Luke
▁replacement
▁61
▁quit
304
▁brush
/8
-25
▁Philippines
▁Firefox
▁Insurance
▁residence
▁Madrid
▁opinions
▁«
▁earned
die
▁attacked
▁upload
sco
GE
ments
▁screw
ook
▁twin
▁90%
▁Captain
▁considering
▁conscience
▁contrary
▁latter
▁Scott
▁boost
▁maintained
▁Left
▁Featured
▁se
dra
▁Fear
Di
▁pot
▁boyfriend
▁Strong
▁presentation
-03
▁Adults
▁Categories
SI
▁loud
▁debut
▁**
▁delight
aries
▁uncle
▁cave
▁journal
▁`
▁cattle
▁Different
▁disappointed
EX
▁wooden
▁1998
▁somewhat
▁awareness
▁du
▁possibilities
▁humidity
▁Chain
▁expanded
▁125
▁waves
▁Remo
eon
▁breast
▁administrative
▁tunnel
▁neighborhood
▁transformation
bel
▁kiss
sel
▁clinical
▁variable
▁supplement
▁tables
▁98
CP
▁manifest
▁FLOWER
▁inspiration
▁compact
▁hasn
▁BS
▁Pages
▁fastest
▁talks
▁province
▁analyze
ake
▁breakfasts
▁prophecy
▁Manchester
▁Bonus
▁Navy
▁Oct
▁compete
▁Mat
▁travelers
cut
lm
▁Ban
▁vacuum
▁mystery
▁Monitor
▁tag
-24
DO
▁scope
▁gr
▁tablet
MC
▁bomb
▁loyal
▁defeated
▁concentration
▁awarded
▁1989
tur
power
▁hast
▁Write
▁Blonde
▁Cas
nal
▁complain
▁Steroids
ALL
Ã
▁Companies
▁Heavy
▁causing
▁Chair
▁beast
▁acquired
▁passenger
▁neighbors
▁Results
▁1991
ric
▁believing
▁Mad
▁assessment
AH
▁manufacture
und
▁miracle
▁orgy
▁flashing
▁^
▁formats
▁1500
▁drama
▁subscription
▁baptized
▁suggested
▁Friends
▁minus
▁Build
▁3*
▁Gardens
she
▁farmers
FT
기
▁FIFA
▁$3
▁cabinet
▁passport
▁formal
iness
▁CPU
▁Hungary
▁logic
rio
nch
▁executed
ava
▁Cut
▁22:
▁endure
▁Upon
hal
uch
▁circle
▁british
▁principal
▁DELIVERY
var
Com
▁Discover
▁statistics
▁protecting
TER
▁ending
tax
aki
▁script
▁citizen
▁SA
gent
▁talent
▁Parliament
▁valley
▁Military
▁DA
▁latina
▁Resorts
▁Imagine
▁Jun
TP
face
▁importantly
▁Sample
ded
mble
isation
▁Reader
▁Input
▁permit
▁patent
▁ONLINE
▁HE
▁Gett
ld
▁Everybody
▁ages
▁maid
even
2000
dal
▁Qur
ali
▁mechanism
▁accomplished
HO
▁compassion
▁disappear
▁submitted
▁produces
▁besides
▁Mont
▁faced
fish
▁AnySe
▁captain
▁challenging
▁enormous
▁Meanwhile
▁mg
▁flu
sp
▁promoted
▁Corporate
▁define
vers
ase
burg
▁controls
▁Method
▁et
See
▁applying
▁egg
▁retain
▁vegetables
▁measuring
▁Visual
▁suggests
▁Genesis
▁modules
▁folks
▁APK
iya
▁su
▁Pat
▁commandments
▁1.1
▁Mind
▁Following
OO
▁preparing
▁delivers
▁FA
▁difficulties
ient
▁Fuji
▁Hold
▁driven
”)
▁roots
▁directory
Time
▁78
gin
rick
▁Elizabeth
▁addresses
▁chemicals
▁Sleep
▁Lamp
▁900
SM
▁falls
▁NA
▁wings
sta
▁mining
▁Mid
▁boots
del
▁parameters
▁Photos
▁fingers
▁responded
▁ashamed
▁diversity
▁Answer
▁civilization
TT
▁somehow
▁Electronics
BR
ks
▁carton
▁intense
▁MI
▁max
▁hat
zen
▁physically
▁Wa
▁participation
▁stuck
▁struck
▁copies
▁Dear
▁gap
▁shine
▁1945
ct
pri
▁cousin
high
▁CC
▁Recover
▁licking
▁Tomorrow
▁seal
▁(12
▁Chang
get
▁\
▁12:00
▁ICO
-02
▁anxiety
▁elsewhere
▁jail
▁Copper
▁compliance
▁pace
hoo
▁crack
▁ta
With
▁filling
▁Cy
▁Label
▁existed
▁Galaxy
▁dancing
▁imagination
▁Houston
▁Emergency
▁wallet
▁emissions
being
▁Roller
▁reservations
ace
▁94
▁pan
▁fucked
▁Cylinder
▁connecting
▁Theater
IR
▁detection
▁Usage
▁Brother
▁Kings
mes
▁Smoking
▁AL
ova
▁couples
ening
▁lifestyle
▁tent
▁Taxi
▁lips
▁Istanbul
▁Marriott
▁pantyhose
▁premium
▁bride
▁density
won
▁Ol
UM
ena
▁consistent
tionhost
▁returning
▁pink
▁Cathedral
▁Traffic
▁FLORI
▁Opening
▁slaves
▁Must
▁Diego
▁gradually
▁regardless
▁2019,
▁Voice
▁Printer
▁gathering
▁■
▁***
▁Sta
▁Race
▁doll
CS
▁concrete
▁technological
▁insight
▁UL
▁washing
▁bags
▁ignored
▁hill
▁informed
▁sorrow
▁scanning
▁Investment
▁EC
▁Harry
▁affordable
world
▁punish
Free
▁arrest
++
▁settled
▁Kar
▁Ham
▁brown
▁mu
▁announcement
verse
▁coal
▁Bearing
put
bb
▁Busan
ati
▁Pra
▁directions
▁remembered
▁precise
▁seating
▁structures
rid
▁Den
▁Further
▁Messenger
▁simulation
▁Almost
▁movements
ira
▁damn
8)
▁impressive
▁essentially
▁injection
▁downloaded
▁managing
▁128
▁Together
▁reaching
,000,000
▁Eric
▁corrupt
▁blah
▁1984
▁1983
how
▁Mrs
▁bacteria
▁76
▁empire
▁sauna
▁Focus
▁Specification
▁em
ans
tte
▁subjects
▁Request
-09
▁instantly
▁Machinery
▁swinger
▁2004,
▁Virgin
iest
ult
▁consist
▁Vision
▁armed
▁TNT
▁1.6
LO
▁Install
-22
▁graduate
▁Pakistan
▁GOD
▁Featuring
▁Province
▁console
▁tutorial
▁reducing
▁Bathroom
▁(16
▁lands
▁combine
▁1981
March
▁breathing
▁sudden
87
▁habit
▁preach
▁cotton
▁bondage
▁robots
▁crash
▁Innovation
▁vice
most
▁bowl
▁TS
home
▁LC
▁dies
▁Arch
▁breathe
▁iPod
▁inheritance
▁relation
▁Additionally
▁consideration
▁van
gsm
▁Converter
lands
▁cam
▁fled
▁Sciences
▁Instagram
▁Half
▁outer
▁Ave
▁processor
▁rear
▁instruments
▁minor
▁Devil
▁101
▁4*
▁89
love
TR
▁adapter
▁Federation
xi
▁000
ert
▁lounge
▁sh
▁Tax
▁tech
▁1971
▁(5)
mus
2017
▁founder
▁Rating
▁covering
▁Overall
▁Automotive
▁possession
bs
▁institution
▁alert
▁Ur
▁Pure
▁disappeared
▁meaningful
lum
어
▁nervous
▁extraordinary
▁fluid
▁bone
▁Cancer
140
▁signature
▁88
▁Xbox
ora
▁physics
▁5%
▁Massage
▁Visa
PT
▁Jeremiah
▁worker
▁golden
▁fifty
▁Alexander
▁Otherwise
▁Host
▁Export
.’”
▁personnel
▁hardcore
sol
▁processed
▁Error
gh
vent
rum
▁Expo
▁hiding
▁FAQ
▁indicated
▁Ch
onic
▁Advertising
▁Resolution
▁wishes
DR
▁asset
▁Xi
▁Hy
piece
▁Command
▁mold
▁payments
CT
▁brave
▁ruin
▁cheese
▁celebration
▁immigration
▁Analysis
▁torment
▁450
▁GO
ically
▁Volume
▁reverse
▁Bel
▁Pad
ters
▁tip
▁influenced
▁conditioning
▁Vietnamese
▁capability
▁stack
▁Uh
▁0.6
▁Romans
nny
!!!
oon
▁beam
▁Allow
▁Blu
▁dual
AI
▁Belgium
▁Muslim
▁instant
▁Strength
▁(15
city
▁craft
▁Growth
core
▁Lion
▁Milk
TI
▁concluded
real
▁affects
▁2,000
state
HA
▁wrath
▁bars
▁ne
▁completion
▁Anna
-07
▁2003,
▁Vista
USD
▁arise
▁Apart
yang
▁seventh
▁70%
KG
▁abilities
▁qualities
2019
▁82
▁Discount
aw
▁Cl
▁suspect
▁Ford
▁unity
▁Secret
▁nights
▁4)
DE
▁Pole
▁wilderness
▁Afghanistan
tr
▁interact
▁satisfy
rie
▁IV
▁assured
▁embrace
▁Founded
▁Route
▁Jane
▁****
▁optical
▁repeated
▁Hosting
▁Ass
▁roller
▁Bathrooms
▁closing
▁Generator
▁Cinema
▁Several
▁framework
tar
▁FM
pan
▁mat
▁Bush
시
▁sessions
▁reader
▁Dual
▁97
/3
▁Lin
▁admin
▁Warranty
▁entitled
▁weird
▁Were
▁Month
▁portable
▁dive
▁stroke
TC
▁royal
▁utility
▁injuries
▁primarily
▁Teacher
▁engineer
▁im
▁Freedom
▁Hol
via
▁Coil
▁qualified
▁fund
▁2.4
such
▁creativity
▁←
▁Norway
tai
▁infected
▁clouds
‘
▁candidate
▁Cash
▁Logo
▁Compare
clock
▁teaches
▁・
▁kettle
▁horses
▁assistant
▁disc
▁wa
date
▁survived
▁Mai
▁Same
iki
▁pilot
▁integrity
▁nipples
▁heritage
▁Beer
▁coupon
▁Feb
▁cease
▁Match
▁acceptable
▁2006.
▁trail
▁Tor
▁Jong
▁analytics
NC
▁criteria
▁cinema
▁orange
▁Ly
▁Index
▁layers
▁seeds
▁♪
▁acquire
▁VI
CD
pen
▁concepts
▁Costa
▁trends
▁sha
▁Path
mb
▁AP
▁0.4
▁1972
▁1979
▁Client
arm
▁Accessories
▁vulnerable
▁hated
▁$5
ister
▁Unlike
▁1920
▁joke
▁convinced
▁strictly
China
▁mesh
▁Thy
▁Bali
KB
▁coins
▁sixth
▁Rich
▁doctrine
▁temptation
▁consume
▁managers
▁quote
Matt
▁orbit
yan
▁designers
▁secrets
▁Ber
Name
▁ABS
hood
-08
matic
▁Circuit
▁Apply
▁Electrical
▁Mega
▁harmful
▁scientist
American
▁Members
ole
▁inches
▁Inside
▁leisure
▁beneficial
▁Ali
▁operates
1.1
▁Yesterday
9001
▁1/2
▁dare
▁SM
▁Born
▁noble
▁initially
days
XHamster
▁psychological
▁Obama
▁connector
▁Airwheel
▁Monster
▁stem
▁minibar
▁Font
▁Comment
▁1200
▁PET
▁Okinawa
▁Boat
▁loose
good
▁Window
▁guided
▁Agent
ION
▁formation
▁proximity
▁cryptocurrency
▁declare
▁algorithm
Ar
COM
▁Signal
tha
▁mono
▁Alice
front
-06
stra
▁67
▁4.0
▁Played
▁Fox
▁largely
▁Frankfurt
▁Jersey
▁SI
▁wanna
▁Dublin
wide
▁dragon
rr
▁figures
▁Reading
▁92
▁1982
only
mel
▁cu
▁Francis
▁Knowledge
▁Screw
▁chamber
▁Coupon
▁preferred
▁exceed
▁deepthroat
▁Geo
▁Condo
{
▁gene
By
▁Dimension
▁ski
sch
chu
shan
EST
who
▁welcoming
▁celebrity
▁vessels
take
▁wars
now
<
▁passes
▁refugees
FC
pu
▁84
amp
▁bikini
▁immune
▁feast
▁ruling
ett
▁mood
▁correctly
▁Optical
▁Hor
▁cr
▁ruled
▁decrease
▁impression
▁Qu
FI
▁cookie
▁opposition
▁Driving
▁Oracle
▁fleet
▁Published
▁Steam
ound
▁Vacuum
▁confirmation
▁modify
▁Parents
Le
▁Ter
▁1969
▁Fuck
▁Championship
▁Ski
▁aims
DP
▁(14
▁PO
nk
▁computing
▁experiencing
▁repentance
▁Patent
▁plot
IO
▁1997
vy
TY
olo
▁foam
▁closet
▁tourists
▁continuously
Japan
▁hi
▁par
cat
▁Origin
ili
▁receives
▁dawn
▁raising
▁Morning
▁welding
▁Feel
▁disabled
post
▁Tony
▁Ton
▁arranged
ily
▁cord
space
-05
▁encouraged
▁contacts
▁league
▁animation
▁Regular
▁juice
▁authentic
sun
▁(20
▁Options
▁SQL
▁loop
ving
pon
▁spaces
▁guns
▁Risk
▁tissue
▁sa
gna
▁bdsm
▁Antonio
▁appointment
▁Ash
-40
▁des
▁Bor
▁speaker
▁tracks
▁bra
▁MO
▁sq
ls
▁Convert
▁tribe
▁Flow
▁Communication
▁fired
▁gangbang
▁transparent
▁asleep
▁Saudi
▁teachings
mont
▁Rev
▁confused
cap
color
▁Robot
▁shares
grade
▁Islam
FF
▁stepmom
▁laboratory
▁funding
▁Chamber
▁Tips
pers
▁hunger
▁sole
▁threatened
zer
Gen
▁potentially
▁manufactured
▁(9
▁dr
hard
/5
eb
gging
▁deck
care
▁multitude
▁admitted
▁healthcare
▁statements
▁Detail
▁Vo
▁forming
▁Bang
▁nearest
▁Il
▁tail
▁Vice
▁treaty
▁trials
AA
▁Amsterdam
▁Stephen
▁vitamin
▁forgiven
▁Ways
▁feeding
▁abandoned
▁1940
▁1976
▁corresponding
▁Tourist
▁prisoners
▁lets
▁excuse
▁Partner
▁Comfort
▁mere
una
gun
▁Emperor
▁Translation
▁Creative
▁Interface
▁reaches
▁Col
▁classroom
▁Philip
▁endless
-0
gr
▁apartments
로
brand
▁Rain
-23
tus
▁owe
▁automotive
▁remarkable
▁Than
▁Degree
▁Strategy
RT
card
More
▁Upload
▁crown
▁Monte
▁sections
▁Gr
▁highway
▁hunting
130
▁customs
▁Embassy
▁flexibility
▁loyalty
▁governor
▁adoption
▁participated
▁listened
▁aged
channel
fold
▁NY
hole
▁mod
1.2
드
▁Manhattan
▁agricultural
▁behaviour
▁destiny
▁kilometers
▁bulk
▁Jeju
▁amounts
▁Below
▁accused
▁Guard
▁FL
PR
▁span
▁DIN
▁grandmother
▁harmony
▁shaving
▁silk
▁Trading
▁1.8
▁phrase
▁Fer
▁Soul
▁opposed
▁charging
▁slide
lla
▁1-
▁Plug
▁Loss
▁Menu
▁ju
▁81
▁Brooklyn
▁Hitler
▁Finance
▁verify
ass
▁gloves
▁Officer
▁publish
▁delivering
wear
▁cloth
▁bite
▁routine
▁random
▁Solid
▁dimension
band
▁Ancient
▁crimes
gger
▁pa
▁execute
▁Carl
chen
2018
uz
▁Tab
▁Feature
(1
▁touched
▁liver
▁Orlando
▁brilliant
▁incredibly
▁Lisbon
▁partition
지
▁[1]
▁±
CR
▁77
▁meets
▁evaluation
LL
▁Liquid
▁prohibited
▁UPS
▁Shape
▁welcomed
▁politicians
▁coat
▁Wave
HZ
▁Drink
eu
▁spots
▁reserve
▁tomb
▁bull
▁Trip
▁portfolio
▁Thermal
▁batteries
▁spacious
▁Perform
▁06:00
▁composed
▁mad
▁Egyptian
▁Depend
▁Ready
▁cylinder
▁panels
▁2.1
▁Gra
▁th
▁Zoo
/15
▁estimates
▁mate
Or
▁floors
▁71
▁medication
▁ceremony
▁Muscle
▁vertical
ata
▁housewife
▁sensors
▁locked
▁Components
ö
▁Pick
ichi
▁PLC
acy
hee
ators
five
▁Sep
App
▁logical
▁Albert
350
▁automation
▁Premier
▁Bike
▁encryption
▁downloads
▁sectors
▁picked
▁waterproof
they
▁Mel
▁invented
stein
cro
▁SMD
0.1
▁73
▁stops
ates
▁wheels
tch
▁arts
▁dildo
gon
▁Anyway
▁holes
▁Settings
▁ro
ets
▁solved
NN
▁ongoing
▁Century
▁maintaining
-60
▁Nick
▁2005.
▁mess
▁CAD
▁1914
about
▁(“
▁kick
▁harvest
▁writers
ivity
▁jealous
page
▁settle
▁Fortunately
▁agriculture
▁optimal
▁Joshua
▁hormone
-50
▁Springs
aba
▁Similarly
▁Wide
oli
▁thrown
▁clubs
▁trigger
▁("
101
▁1.3
0.00
»
▁DS
week
▁Sim
▁Atlantic
▁ate
▁sustainable
▁Theme
nor
!)
▁Eight
▁resistant
▁safer
▁alien
lat
cr
exp
Come
▁assess
▁whereas
▁(13
▁DB
under
GO
Lord
sur
Porno
shima
▁Aqua
▁MD
▁1995
CL
▁VIP
▁Temp
▁Universe
▁Various
▁treatments
▁retired
▁2020.
▁Animal
▁Rules
▁uh
hy
▁conventional
mate
▁dealer
▁perish
col
▁parallel
▁binary
▁obligation
▁hydraulic
▁Editor
▁Hay
▁fl
▁Mt
▁demonstrate
▁lu
bot
BAR
▁Episode
▁participating
▁Width
▁Rotary
▁roles
▁retirement
▁poker
▁CP
DI
▁ra
sure
din
park
ula
▁privilege
▁newest
LT
▁marks
▁Tap
▁united
▁5000
▁losses
▁gratitude
tics
▁Certainly
▁consultation
▁Secure
▁Cape
▁Function
teen
▁pocket
▁focusing
Ra
▁collapse
▁mar
0°
user
GS
▁companion
porn
gle
▁2000,
pic
▁diabetes
▁composition
▁grab
▁1994
ency
▁Believe
▁succeeded
etc
▁shipment
▁reminder
▁conclude
People
▁1974
Good
▁mutual
▁tension
▁Muslims
▁topics
MI
▁swim
▁Magazine
▁Taipei
▁Flood
▁Mer
▁Planning
lay
▁Branch
▁RGB
▁tribes
3.5
▁1968
▁guilt
▁distinct
▁Promotion
▁Atlanta
▁tremendous
▁cyber
▁MY
▁RESERVED
▁Nan
▁realistic
▁Gre
▁Sho
▁documentation
▁Comp
ago
▁rough
▁Points
▁Pain
las
▁NC
▁Daddy
▁hunt
chan
-00
▁HTTP
uro
▁harsh
range
▁5,000
▁interpretation
▁Congratulations
▁KO
▁waited
ele
▁coin
ale
step
sia
bing
▁Starting
pad
▁Whoever
르
▁ladies
▁banned
▁jacket
▁wondered
▁Period
rn
▁1.4
▁impressed
▁Communications
▁domination
▁shield
▁IoT
▁Israeli
▁Minh
▁deaths
Proverbs
▁1930
▁pig
▁Manufacturing
▁iTunes
▁mysterious
▁stunning
▁Isn
▁strain
▁bbc
▁HellPorno
▁trick
▁Interview
▁ensures
▁dimensions
▁Rule
▁substance
▁Tan
▁specify
▁Aug
▁chances
ico
June
▁proceed
▁Additional
▁Sur
일
▁penalty
▁funeral
▁Swimming
▁decoration
▁SMS
▁savings
▁flee
▁Ship
▁boot
▁Edge
▁interaction
▁Seat
Ba
▁setup
▁2.2
▁Hub
yen
▁Tro
▁blend
▁Geneva
▁hub
ied
what
▁MC
▁Cute
▁Wolf
ache
▁profound
bro
there
▁COPYRIGHT
▁Leather
fo
▁spray
sex
▁conscious
▁elections
▁tablets
▁EP
▁dependent
BE
▁responsibilitie
▁unlimited
-04
▁Dun
▁passionate
▁Won
▁pioneer
▁Honor
▁isolated
▁Grace
nam
▁Reply
▁Partners
▁branches
▁pointed
rest
▁240
▁Conditions
▁Success
▁curse
▁urge
II
Love
▁infinite
sum
dam
▁presents
ches
aving
▁metres
hol
▁coated
▁380
▁gallery
▁Ser
oy
▁Challenge
▁graph
사
▁Cooling
▁sealed
▁FI
▁WA
late
▁hits
▁attorney
▁navigation
▁offspring
cra
▁gu
CI
▁Edit
FE
▁fails
▁champion
▁scheme
▁Regional
Un
ef
▁derived
ban
ulate
▁virtually
▁Reg
century
▁Affairs
▁Spy
his
▁bold
▁vaccine
▁Desktop
▁Granny
▁intention
tive
▁CON
▁Processing
inter
▁producer
ram
▁Pri
▁Eden
▁judges
wer
▁z
lip
▁slot
▁graduated
NS
▁attract
▁legally
▁pharmaceutical
▁sperm
▁humor
▁Fruit
▁Neither
▁presidential
▁Exit
▁Explorer
rian
▁streaming
two
▁Layer
▁rec
▁workshop
SU
iti
▁cl
▁profits
▁Va
ional
▁Scotland
▁obedience
▁Telephone
▁disorder
Car
▁analytical
▁Person
▁Hour
▁TH
▁Tape
자
ened
hon
▁Zen
국
▁generator
▁ecosystem
▁Economy
▁racing
▁slip
▁Paint
▁Often
▁keyboard
▁muscles
▁Text
▁Reserve
▁indian
▁BBC
€”
FS
kawa
▁automobile
▁piano
▁BY
▁continually
▁enforcement
▁decline
OC
▁linear
just
▁93
▁evaluate
▁Ac
▁seller
▁chest
service
fit
rich
▁Acts
▁clicking
▁combines
dar
▁Practice
▁glorious
▁oath
▁Fee
rah
▁shake
▁Prefecture
sized
▁nest
▁joining
▁flame
oh
July
▁efficiently
▁Transport
tree
▁thinks
▁Lincoln
▁BMW
▁Blockchain
▁Sat
▁Danish
▁automated
▁apparently
▁Adapter
▁Drop
stop
▁5)
▁shy
▁voters
▁globally
▁pitch
▁Jung
awa
▁ports
LM
▁Airlines
▁KRW
tta
RY
▁diamond
kh
▁mothers
▁Fetish
▁assurance
▁legislation
▁warehouse
▁heavily
▁0.9
▁□
▁cultures
▁Record
▁devoted
▁poll
▁Tra
▁Coating
mir
▁magnetic
2015
▁lists
lee
▁latex
▁stranger
▁killer
▁weakness
▁Alliance
▁Pixel
▁Simply
▁Cabinet
▁serial
▁finds
▁Tagged
▁airline
▁fa
▁74
▁upset
▁investments
ved
▁TR
▁insert
VE
▁Mario
▁lasting
▁Break
▁expenses
From
▁Bro
▁leaf
▁Cool
▁Contract
-100
▁layout
ame
▁demo
▁internationally
Mi
▁reveals
▁pissing
UL
▁commander
▁roads
▁climb
▁frequent
hn
▁protest
▁HIV
▁wins
▁corn
▁Calendar
▁Graduate
▁Removal
▁hatred
▁anointed
▁Daughter
▁roughly
▁attempts
▁operational
IE
▁이
▁Jay
TION
▁drum
▁Unless
▁COM
인
▁tanks
▁unlike
cell
▁Budget
▁interactive
▁suck
▁LI
▁Jul
▁marine
▁warn
▁electro
▁99%
▁candidates
ML
cious
▁clip
▁transformed
▁relatives
ome
▁Ticket
rom
▁towns
▁GA
ste
▁Em
▁explosion
▁phenomenon
▁tumor
▁Disease
▁democratic
▁Lens
Box
ATE
▁powered
▁Spot
▁Mis
▁examination
▁guardian
▁Fri
▁Belt
▁improvements
▁honestly
lle
High
▁exceptional
aging
▁Precision
▁grief
▁involving
▁Creation
ways
bat
▁sc
▁Mask
▁gotten
▁balanced
bag
iff
lot
▁sharp
▁Fre
▁Count
▁Sar
▁utilize
▁25%
▁Continue
▁hopes
▁urgent
▁Cur
▁styles
▁commandment
▁remind
▁Emirates
▁Pharmaceutical
▁Taylor
▁invasion
▁Political
▁Important
▁Extension
HS
▁Scan
nate
▁Cook
▁Traditional
▁conversations
▁Figure
lf
▁sorts
▁Muhammad
▁travelling
▁hoping
▁honour
▁cha
▁grid
ump
RP
±
0000
MT
▁unexpected
pol
Jesus
rc
bul
zy
▁distant
▁Imperial
▁assault
▁Dinner
▁Authority
▁Button
▁beside
▁pulled
ching
▁shade
▁withdraw
▁installing
▁suppose
logy
▁Register
▁Syrian
IG
▁https
White
ska
▁Malaysia
▁intervention
▁virtue
▁erotic
▁legend
▁lobby
▁absorb
▁unnecessary
</
▁planets
fall
▁rod
oni
▁Zo
▁rush
▁tear
Up
▁Meter
▁secondary
▁villa
ics
▁mortal
▁100,000
▁dwelling
These
ONG
AG
str
▁Au
▁Rest
▁facilitate
▁Zurich
▁magical
▁traders
▁Duration
▁Fitness
▁Ross
▁Installation
▁Th
▁Launch
▁Climate
▁scooter
▁1975
▁CAN
í
▁regulation
▁surprising
▁hook
▁Sexy
▁rack
mount
Other
▁2002,
크
▁inquiry
▁alliance
▁<<
▁leak
▁merciful
▁Import
▁abandon
active
▁Sri
try
▁religions
▁pit
▁prince
▁bicycle
▁findings
IX
Min
▁virgin
▁Summit
▁ffm
ight
▁writes
▁associate
▁engagement
▁Norwegian
▁scenes
ux
▁miracles
▁Sure
ail
ess
duct
▁4.5
▁clinic
▁sights
▁Kill
▁firms
SO
▁mall
▁Inflatable
▁Puerto
▁chinese
▁mathematical
walk
▁whore
▁Cisco
▁́
▁Brian
▁Sarah
OW
▁Ren
▁cons
ire
▁1978
▁Hills
▁variables
▁Highway
▁refuge
180
▁GT
pping
▁organisation
ston
Around
▁dignity
。
▁Chu
▁Annual
▁boundaries
▁gates
▁Lane
▁Marina
▁targets
▁Marriage
▁inspire
▁spite
Ta
▁Complete
sung
▁1987
▁Hawaii
▁30-
▁gotta
▁105
▁Oxford
▁Housing
▁Database
▁Books
▁demons
tory
▁Finnish
lk
▁proportion
ND
gas
▁ruler
cel
▁reporter
▁FDA
▁mill
▁contributed
▁episode
▁earthquake
▁compound
▁buffet
▁acquisition
▁Resistance
til
lies
▁Physical
▁nano
▁stake
▁Cyber
▁tries
OK
9)
▁editing
edge
▁rivers
▁RT
▁perfection
NI
EE
▁Nine
▁Ste
▁Ob
▁foolish
▁Aluminium
▁Flexible
▁draft
▁packed
▁ensur
▁fulfillment
vid
▁stolen
▁palm
▁adhesive
▁Recently
▁Rates
▁tin
▁grows
▁Mm
▁surrender
▁Gear
/4
▁Virginia
▁resolved
kov
▁healed
▁behave
September
▁thine
▁Ceramic
▁jeans
▁bat
▁spanish
▁accounting
▁crypto
lly
its
working
▁specially
aku
pack
ral
▁specifications
▁40%
▁puts
▁immigrants
3/
▁violation
▁Sh
▁respective
▁Rail
▁Cro
▁Hidden
▁Racing
▁independently
▁24/7
▁Mono
▁representation
▁offerings
▁Cleaning
2.0
]]
▁≥
▁750
▁Cent
▁imported
ONE
Cafe
0%
▁fossil
▁Donald
▁dish
▁spin
▁cart
▁correspond
Ad
▁determination
▁Reality
▁complaint
▁87
▁thereby
▁Grant
▁wage
▁Zion
imp
Did
▁(17
word
125
▁hills
▁guitar
▁Charge
aga
▁arch
▁Term
Romans
▁Religion
▁devotion
▁horrible
▁antenna
▁91
▁Ukrainian
▁Rob
▁jerking
▁Fresh
ched
▁Accept
240
▁employed
open
umi
will
ICE
▁judged
▁1993
▁External
▁compensation
▁trillion
▁cluster
▁abortion
▁traditions
▁audition
▁Duty
▁hanging
▁excluded
▁heroes
▁burnt
▁Dell
▁visits
▁involve
▁guides
▁Brain
▁83
▁TOP
order
HP
aff
©
▁Optic
▁generous
▁DNS
ATION
▁accommodate
▁jet
▁provisions
▁equality
▁publicly
▁calculated
▁chips
▁intent
▁sustain
▁Salt
▁eastern
▁realm
lice
UP
▁papers
▁1977
▁8.1
▁Pearl
ii
Every
oka
atory
▁tale
▁czech
▁Polyester
▁rural
person
▁Yang
▁hospitals
▁seduced
▁casinos
▁Customers
▁brightness
▁networking
▁Probably
▁Phuket
▁lovers
750
▁NT
▁readers
wall
▁bottles
▁Com
▁spirits
▁Cons
IST
▁Evolution
▁Testament
▁purchasing
▁guidelines
▁Lesson
232
▁gravity
▁prompt
▁prevention
▁SW
▁Dry
▁advise
lim
▁SSL
itis
▁resulted
▁wondering
▁rub
▁profession
▁reporting
▁cache
▁prominent
▁Hopefully
▁Compressor
▁labour
▁Tiger
▁79
▁Excel
cip
▁shoulders
▁316
▁Flu
dor
5°
ao
▁temperatures
▁Williams
WA
mid
ox
foot
rail
▁BTC
▁dishwasher
▁spectacular
▁absence
▁Attack
▁Elijah
iva
▁Workshop
▁unfair
▁ferry
▁durable
▁Individual
▁thoroughly
▁soap
tum
▁$10
▁representatives
▁respectively
▁Lift
▁el
▁Joy
▁Angle
▁integrate
▁awake
▁+82
▁Hua
pha
▁expanding
▁shoe
ornia
▁cheaper
itch
에
▁favour
▁bubble
▁voting
▁Nylon
ituated
ILL
▁Hostelworld
▁landing
Whenever
▁visitor
▁anytime
▁Bin
▁LO
▁loading
▁login
catering
San
▁Wonder
▁vessel
▁Columbia
▁Eventually
▁bug
▁Concert
iling
▁08:01
young
▁rational
▁Bon
▁borders
pos
▁Works
▁Archive
▁Seal
OD
ich
▁consumed
▁reviewed
Flix
▁HR
▁3,000
▁coil
▁Trinity
▁identical
▁Judge
▁abide
▁Apk
▁tourism
mic
ae
▁NASA
cl
any
▁Acid
rent
turn
▁periods
▁Bat
▁Cer
▁CV
▁sends
ography
▁Friendly
▁DJ
▁Resources
▁experiments
▁Archives
▁hurry
▁buttons
NY
ore
▁closest
▁Nano
▁LE
MD
▁(11
▁reset
▁recall
▁Sara
▁Pl
320
▁stretch
▁welcomes
kel
▁hired
ashi
eller
▁RAM
Genesis
▁Boulevard
▁curious
▁spectrum
▁admission
▁Montreal
eri
▁equation
Look
▁UP
▁carrier
▁Mod
master
▁poison
map
▁fears
▁Char
▁drill
▁approaches
rating
▁Watt
▁ch
▁Explore
▁Region
▁Rent
▁specialize
▁twins
yeong
▁Harvard
▁emperor
▁graduation
▁confusion
▁Webcam
▁preview
▁Fo
▁volunteer
▁defendant
▁trademark
▁elderly
450
▁Connection
▁%1
info
▁1985
Day
▁strangers
▁destinations
▁Ann
▁:)
▁(6)
▁fed
123
▁particles
aya
▁responses
*2
Because
▁Munich
▁Shemale
▁Choice
tim
▁shelter
▁ni
▁elementary
▁ceramic
▁liberal
▁barely
▁separately
ifying
▁ODM
ello
ink
Jo
▁hosted
AGE
Ho
▁Howard
▁celebrated
demand
▁NuVid
▁eligible
pper
▁Bureau
▁Nurse
▁forbidden
▁Transportation
Mar
▁Roof
▁activate
▁LLC
▁Issue
▁downtown
▁fisting
▁soup
▁workplace
▁organ
▁0.8
max
▁Mari
▁geo
▁Jet
▁Silk
▁170
▁Filling
▁attending
▁def
▁LAN
bre
PL
▁photograph
11)
▁Wear
▁Arena
­
▁separation
▁stadium
▁Amendment
Thank
▁lonely
▁appreciation
▁liability
hill
▁Brad
▁nun
▁carpet
▁1800
▁observation
cor
▁soldier
.99
gil
▁2004.
▁nutrition
▁Container
▁ethical
▁idols
▁distress
▁venture
▁Generally
tube
ela
▁Login
▁alter
LP
▁assure
▁node
▁Mediterranean
▁Cambridge
▁legacy
▁checking
▁Benefits
▁Ground
▁Bright
▁revelation
rry
bank
▁Moving
▁Hungarian
▁exercises
-28
▁statue
▁fewer
anda
▁constructed
▁painted
▁Owner
ender
▁authors
▁aggressive
▁mounted
▁letting
▁Witness
▁dose
▁detected
other
▁embedded
▁Messiah
▁Thread
▁italian
ras
maker
NE
▁hip
▁Str
fra
▁effectiveness
▁Islamic
▁1080
▁Gran
1.0
▁Bas
▁mild
▁Technologies
▁cuckold
▁tungsten
View
▁tender
▁archive
▁bother
▁patch
effective
▁speakers
▁230
ANG
▁complexity
▁precisely
▁apple
▁affection
IF
▁Bri
▁restrictions
▁Crown
▁corrupted
ime
10)
▁Chart
▁Threesome
▁Intelligence
▁declaration
▁Either
Japanese
▁Beeg
tent
▁neuro
▁Taking
▁Shoes
...”
▁Fin
▁lifted
elle
lis
▁cargo
Sa
▁Spec
▁Hole
▁attributes
▁Posts
▁SSD
makers
▁Pu
▁boobs
▁ISBN
▁Titjob
▁cooperate
▁Complex
▁grandfather
▁Lounge
▁Diesel
▁cafe
▁RIGHTS
rus
Some
▁Designed
iko
▁Tin
▁Extra
NT
▁wealthy
▁towels
▁Benjamin
▁hybrid
▁piercing
▁sauce
▁dialogue
gram
JPY
▁trap
▁gray
▁Fla
▁reactions
ibility
▁Shu
▁Cream
▁Gil
▁rope
▁banking
omi
▁NAS
Su
▁punished
▁Comm
▁organize
▁translate
▁Brussels
▁stomach
▁stats
▁Integrated
▁grip
zing
▁investing
▁convey
▁Sister
▁ver
gal
▁feared
train
▁Kat
▁rewards
▁Senior
▁Ghost
▁Chairman
▁DHL
nel
▁compression
▁CR
▁IR
kai
▁Shall
▁Found
▁beef
▁disagree
▁forests
▁Sleeping
▁transmitted
▁Handle
▁Nation
Isaiah
▁withdrawal
▁5:
▁1962
0.2
▁ark
▁evolved
fin
GP
▁continent
▁swap
▁breaks
_<
▁pcs
▁ancestors
▁Planet
▁Writing
▁throat
▁tropical
▁essence
▁Welding
▁Ce
▁plague
▁motorcycle
▁Toys
ique
▁Brazilian
▁prop
▁construct
have
MHz
En
▁Dining
nar
▁Tna
▁Des
▁1965
▁clothed
horn
▁posting
▁hydro
▁Arabia
▁significance
▁Fifth
▁hesitate
▁duties
▁architect
▁Domain
▁0.7
pot
▁86-
▁Horse
lig
▁bitch
▁$4
▁popularity
▁enterprises
▁reside
agon
▁Hero
▁arrange
Gu
met
burn
▁Lamb
▁Fourth
RR
2016
▁Nigeria
▁accurately
▁2001,
▁electronics
▁ft
▁pizza
▁Charlie
▁socks
▁5.5
▁Skype
▁factories
▁Furniture
▁Kenya
▁Along
▁Present
▁>_
▁flavor
▁Picture
▁voices
▁den
▁belonging
LTD
▁Cuba
▁123
cer
▁hose
▁permanently
▁HS
▁pets
▁targeted
▁Stockholm
▁enabling
▁grasp
▁Iceland
▁AWS
485
▁classified
가
650
▁Quran
▁shorter
search
▁Normal
boy
▁contribution
▁puzzle
▁arrangement
▁spec
gro
▁exclusively
▁sponsor
lib
▁accompanied
▁Ana
▁specification
▁borrow
▁listing
source
▁minimize
▁PornoX
▁intimate
▁vector
force
0.3
▁preferences
▁Hack
cies
17)
stick
nia
▁Hai
▁arab
▁HO
▁regarded
▁colorful
rat
▁wounded
▁settlement
316
▁strap
▁competitors
oe
▁agreeing
▁Lots
▁Slot
▁Forex
▁Mountains
▁firmly
▁codes
▁meta
▁ethnic
▁Cotton
▁Distribution
▁Poker
ern
▁longest
▁tire
▁Backup
▁Copy
▁conquer
▁achievement
ttle
▁parks
▁terror
▁Ag
▁focuses
bri
▁transmit
tone
▁SAP
▁Vancouver
▁Watchtower
▁identification
▁curve
▁Knowing
poli
January
ü
▁str
▁filters
▁Independent
▁repeatedly
far
ope
▁flock
▁deploy
▁YOUR
▁reduces
▁Million
▁repent
▁Hide
▁Meat
▁Going
▁beaches
▁sw
▁Sense
bad
▁graduates
▁Urban
▁Internal
▁Edward
▁authentication
rad
▁descendants
bil
▁cruel
7.5
▁Brush
AND
▁renowned
▁아
▁Upper
▁ba
Link
▁recommendations
▁Tied
▁adjustment
▁Studios
adi
ANT
▁compromise
▁#2
▁investor
▁Flex
▁Multiple
▁bell
170
▁fascinating
▁revenge
▁Immigration
▁Tattoo
▁ultra
▁trouser
▁Bulgaria
▁1900
▁Delete
▁unfortunately
▁Joint
▁accommodations
▁hadn
▁Kin
lah
▁Format
▁foreigners
▁Abu
▁ok
bl
2.1
sub
uma
▁converter
product
Have
▁retreat
▁lit
▁1967
▁header
▁spell
▁Bond
▁Guy
..."
▁Triple
▁Savior
▁HDMI
▁respected
▁operators
▁buses
system
▁FR
IVE
▁diagnosis
▁Wake
▁traveled
▁Beyond
group
▁demonstrated
Tech
▁Nazi
ema
▁Shell
3000
▁CH
▁Mine
▁plugin
Air
▁GP
▁gentle
▁Netflix
▁robust
▁struggling
▁CT
▁Competition
▁Ethernet
▁sincere
▁Dallas
ule
▁Subway
▁estimate
▁Cord
▁shortly
▁Treaty
▁$100
29)
▁2003.
50,000
Bo
360
▁bind
▁vain
▁15%
TB
▁60%
▁Schools
ference
▁Kon
rist
▁invested
▁Clinton
▁Subject
▁Status
▁drew
▁Cebu
▁evolutionary
white
▁Kelly
ement
Am
▁myth
▁trace
▁Fuel
▁Lang
▁tubes
▁PH
case
▁Wing
▁Ty
AB
sign
▁bay
rit
▁investigate
eur
▁obstacles
▁rocket
▁Ros
▁smallest
▁proclaim
KA
▁1964
▁excess
▁galleries
▁motivation
▁welfare
▁rebellion
▁Television
▁entity
▁Retail
▁Movement
▁specialist
▁Aparthotel
(2
▁106
▁scary
▁Dogs
game
▁shed
ech
pr
pass
▁voted
▁Bull
▁occupied
cri
▁WHO
▁races
5000
▁weekly
UT
▁talented
aria
mu
cover
▁headed
Get
▁AB
wind
IV
▁Hit
▁Manage
▁Efficiency
▁Cambodia
▁Hamburg
▁Azure
▁Purity
▁wider
aj
▁Spray
stream
▁Movies
rov
▁pushed
▁washed
▁suggestions
▁dressed
▁Password
lio
▁cope
▁convince
▁Past
▁si
shing
▁Analytics
▁Counter
▁Sol
▁Machines
bury
▁tele
ito
▁Mirror
▁Session
▁Superior
▁Cop
▁Jump
▁Dia
▁tone
sar
▁Duke
three
ó
four
cle
▁Teaching
ulating
▁Reference
bound
▁preached
human
own
▁Coming
▁Maker
▁notification
▁Molecular
▁recipient
▁VipTube
▁multiply
▁Likewise
▁boring
▁NI
▁deployment
.[1]
▁wages
▁chi
▁alongside
▁photography
▁Fill
▁ONE
/12
▁verses
▁villages
▁centrally
▁rarely
gia
2,000
▁highlight
▁Milf
▁tricks
▁capitalist
mine
lent
è
▁charm
uni
▁Facilities
▁theoretical
▁Eternal
▁Laboratory
▁Structure
▁foster
▁pe
▁acceptance
▁rank
▁likewise
▁balls
▁Giant
ory
ked
▁sweat
▁Solo
LD
▁torture
4-
▁Drill
layer
your
▁princess
▁teens
▁CI
▁depart
▁stylish
▁wrestling
▁cancellation
▁scratch
▁Mean
▁stroll
▁slavery
▁fence
girl
▁Chile
▁RA
▁texture
▁Tits
Revelation
▁Rack
using
▁Bags
▁medal
▁Cancel
▁Burn
▁Dy
tric
▁heading
▁adequate
▁modes
say
▁Anything
▁Straight
▁mixture
▁pose
▁pairs
▁Downloads
Pre
▁3.2
iga
▁corrosion
0.5
base
▁Casting
▁initiative
▁Expert
▁SEO
▁controlling
market
▁1%
▁Links
▁lawyers
▁135
▁jurisdiction
▁JavaScript
zar
▁Medium
▁Effective
▁surgeon
▁sunlight
▁Minimum
▁makeup
^
▁protective
block
▁attempted
▁enjoys
12)
▁proposal
▁accepting
▁announce
▁Bow
▁Sort
bridge
▁($
dale
▁prostate
▁render
▁excitement
Hi
▁strapon
▁Rapid
▁arrives
mis
NK
▁artistic
▁Stra
▁relaxing
DB
▁Hebrews
▁conform
▁Rear
rang
▁employer
▁IEC
▁metro
▁magnificent
▁translator
▁widow
▁Framework
▁intend
▁oven
▁synthetic
▁malware
eh
▁configured
VA
ben
▁paths
▁Apr
▁SGS
▁rings
▁syn
▁1949
▁annually
▁binding
▁ranking
▁scenario
▁barrier
▁publishing
▁organs
▁Playing
▁Jonathan
▁Nagoya
▁surveillance
▁sophisticated
▁analyse
▁Creating
▁102
▁enjoyable
▁9:00
▁regulatory
▁distinction
22)
▁eco
click
trans
▁petition
▁Staff
▁Sapporo
▁watches
ATA
▁Records
▁screaming
▁chemistry
▁pressing
▁Kind
ups
▁1966
▁Fit
▁invisible
▁socket
▁fraud
PU
▁authorized
▁insulation
▁4:
19)
▁KB
▁Obviously
After
gel
ELL
▁discharge
▁WITH
▁viruses
▁Gaming
▁token
ume
▁GS
16)
▁Colors
128
▁downloading
▁1.7
▁certificates
▁alike
▁characteristic
▁evident
▁15:
text
▁Mechanical
▁emerging
▁Album
▁Toilet
▁Terrace
▁diving
▁Wilson
▁Circle
▁ti
▁dryer
▁Eyes
▁Lower
MAN
▁wanting
▁bid
▁Steven
▁meantime
▁CF
111
▁audit
▁WI
▁Option
was
anti
▁1973
race
2013
▁BR
▁Injection
▁Ultrasonic
▁baggage
▁fifteen
▁knife
▁receipt
▁frozen
▁promoting
▁rotation
mil
▁Jeff
▁overwhelming
sea
value
▁Bird
▁fe
▁Wil
▁Tire
▁rulers
▁Jam
-26
0~
▁assembled
▁configure
▁1963
▁individually
▁administrator
▁indicator
ges
ACE
▁drag
Take
▁speeds
▁Shadow
▁persecution
▁Properties
Ch
▁resin
▁dick
first
▁20,000
zan
host
▁shore
▁Career
hang
▁outcomes
ERS
mmer
▁needle
▁104
tis
exe
▁classical
▁tease
▁collective
▁luxurious
▁sanctuary
▁tobacco
▁relating
▁Dropbox
▁dramatic
▁appreciated
▁Shrine
uda
▁unlock
▁limitations
ident
▁Pray
▁algorithms
▁1944
▁fer
▁Cities
▁booth
▁Wash
▁Mun
▁Powered
▁creator
nation
▁swing
▁Skip
/6
▁Christendom
▁Philadelphia
▁Position
▁UEFA
▁Vitamin
emp
dr
▁restart
▁Warning
2-
▁Schedule
▁Letter
▁Proverbs
oth
pet
▁9:
▁enjoyment
▁minimal
264
▁subsequent
▁Alan
position
▁booked
mini
▁Campaign
▁Purchase
▁easiest
▁instinct
▁serpent
▁Colour
▁Kevin
▁Lunch
bble
▁Nobel
▁Spin
▁11:00
▁bin
▁Fur
▁accidents
▁knock
▁filed
▁laughing
vol
▁EM
▁tournament
▁warrant
▁sink
▁receiver
Pa
▁Harbour
▁Metropolitan
▁probability
▁pursuit
▁Distance
235
graph
▁resident
rine
▁Dae
▁Prepare
keeper
고
▁Uncle
▁Prices
▁1:1
▁Cruise
▁rocks
VR
iel
▁shaft
cate
▁relate
▁Directory
cept
▁qua
aged
▁4000
▁Similar
▁radical
▁museums
▁segment
▁template
▁Meta
▁Mumbai
▁Survey
ough
▁Med
▁excessive
▁Divine
last
▁Row
▁dorm
▁genes
SR
▁Karl
▁cow
▁SU
▁newspapers
▁Awake
▁arguments
▁Designer
▁solving
▁demanding
▁PI
lone
Lo
▁awards
▁enhanced
▁reflected
▁eternity
mber
▁bisexual
▁Response
▁Running
▁Drug
▁theories
▁carries
▁warship
ode
second
31)
▁Mixed
▁Coach
▁bitter
etic
▁ranked
▁Marco
une
EY
phi
tile
▁Mas
▁TE
▁Dorm
chin
▁AN
▁comprehend
▁ambition
▁Titanium
▁Stick
path
▁dealt
▁Gray
ific
▁1999,
vie
▁(8)
▁florists
▁contracts
bun
▁fortune
▁sync
▁Peru
ison
RU
▁Liverpool
▁societies
▁airplane
▁Funny
▁Drinks
▁betting
icide
sc
▁parable
craft
▁complaints
▁poster
▁5.0
▁journalist
ille
▁Healthy
▁loans
▁shaped
body
tern
▁1961
▁spiritually
ón
ctor
▁Amazing
▁Gene
▁caring
▁broker
▁Bella
dress
▁slept
▁corporations
▁Become
▁removing
▁Evil
▁Friend
▁armies
▁brake
▁Programs
▁earthly
▁Offer
▁badly
▁awful
▁terrorism
▁Lesbian
▁apologize
▁Prior
▁HU
Na
lid
▁Zi
▁tours
▁1946
▁obligations
▁scripture
▁boast
MENT
▁catalog
▁+86
▁Junior
▁thief
▁astray
▁conviction
▁Foam
▁blast
▁Distributor
▁dial
▁Homemade
hara
▁Feet
▁Reasons
▁Twenty
▁ratings
3,000
▁Tours
tation
hin
▁Blade
▁advised
▁pulse
self
▁oral
▁attracted
▁calculate
▁decree
▁decent
▁Chan
▁nail
▁Kid
och
▁Br
scription
▁arrow
▁Hear
▁attraction
▁Associate
▁Caesar
▁Consumer
▁helmet
FP
ancy
▁epi
▁Throughout
▁3.1
▁terrorist
bian
▁suspended
▁Campus
▁Bern
▁PHP
▁Token
▁tu
▁solely
soft
▁Falls
tia
ean
▁considerable
▁Saving
▁Silicone
▁distribute
▁//
got
▁Sil
▁Sabbath
▁helicopter
▁Pretty
▁beneath
▁wardrobe
▁witch
▁hobby
▁salary
▁Bomb
▁Tablet
ridge
gress
Vi
550
▁talents
▁23:
▁inherit
▁manually
▁knees
berry
▁Cart
▁substances
zhou
▁Sel
▁insist
▁(7)
ees
▁liberty
▁stimulate
▁Relative
▁hydrogen
▁Finger
osa
has
▁Intelligent
▁Clip
▁static
▁conservative
▁Clock
stan
▁cruise
▁Labor
▁Fly
▁Honey
▁folders
▁Thought
vel
▁distinguish
▁1941
▁buyers
▁violate
▁Forming
shed
rea
Li
▁8-
-29
▁corporation
▁upskirt
▁Pennsylvania
▁obedient
▁Gabriel
▁steady
▁korean
▁Liberty
▁designing
▁depressed
▁opera
▁horizontal
▁Interior
▁Fukuoka
▁Example
▁math
▁te
▁penis
▁judgement
April
frame
▁op
control
▁aimed
▁fitting
▁Kor
▁reminded
▁Increase
-35
main
machi
▁Spi
▁Yan
▁320
los
▁Eu
dimensional
▁Hormone
▁Sheraton
▁steroid
Mark
▁Places
▁DM
each
도
▁Steps
105
▁Carton
▁Tip
▁poet
▁sn
▁anime
flow
PD
Part
GR
▁Ultimate
▁Cr
▁GM
bas
▁blocked
eration
▁Tungsten
▁baptism
▁unwanted
▁garage
▁Purpose
aught
▁ED
▁Hyper
▁Jason
▁protects
▁Alt
▁Magnetic
▁Wow
▁adjustable
▁Ride
▁AIDS
SK
▁useless
▁offline
▁Lanka
▁resume
▁locate
▁contributions
-200
4.5
▁Economics
mAh
▁publications
amine
▁lodging
▁temporarily
▁Akamai
▁eleven
▁Spider
data
▁Navigation
▁comprise
▁liar
▁scores
▁perception
NZ
▁pad
sil
▁gro
▁Fax
▁Mos
▁ram
▁ja
▁dozens
▁eighth
▁Truly
▁+1
▁bare
▁deserves
mond
▁Dave
▁argued
▁melt
▁gains
dd
▁[[
▁abstract
▁exploring
▁inevitable
▁moisture
▁complet
▁Balance
watch
▁Knight
▁mounting
▁Outside
▁Winner
▁missile
yr
▁insects
▁spreading
▁Verse
2012
school
▁1948
▁Colombia
3-
▁optimize
▁Hal
▁Pull
▁Deposit
ART
▁bonds
▁DR
▁Own
▁sta
▁genius
▁spark
▁Syn
▁thai
Se
▁fits
▁Loading
els
▁Mil
▁avoided
▁consulting
ener
▁utter
content
Rom
▁bl
▁Formula
mA
▁trucks
▁EL
▁courts
▁apparent
▁addressed
▁photographs
▁Recent
ending
oop
▁va
▁Speaker
AU
▁gorgeous
▁wheat
TOR
▁Cycle
▁scanner
▁CM
▁rentals
▁domains
▁cleaner
▁overnight
▁Ron
▁clit
▁Eva
▁TP
shirt
▁NOW
▁Plain
▁Lan
▁attain
▁regulated
▁exhaust
▁portal
▁Republican
tina
▁7:
▁pole
▁retrieve
▁8:
▁1998,
▁Agriculture
▁Impact
▁Birthday
hot
▁Oriental
▁olive
▁Emb
▁Steroid
▁Hang
▁reap
▁Tam
▁signing
▁Mayor
▁warming
ception
▁partial
▁lest
ground
2020
▁64-
▁threaten
▁wing
▁Juan
▁Behind
▁Edinburgh
▁Essential
▁vibration
▁query
▁Density
file
▁Generation
▁trapped
▁uncertainty
▁leap
▁mentor
▁expense
▁allies
▁Thinking
▁1955
▁wolf
▁rape
DM
14)
▁empower
note
▁Kir
▁perceive
▁rolling
.5+
▁Late
▁AG
▁assumed
Ti
▁Pier
▁discussing
▁chronic
▁NH
night
▁intuitive
▁Romania
▁expressions
▁THIS
mas
shot
him
▁Galvanized
▁Koh
▁sacrifices
generation
▁jo
▁mixing
▁JA
▁believer
▁Ul
▁loaded
▁115
▁UI
▁evolve
▁aging
나
▁Halloween
▁Shield
▁VMware
▁scar
▁leverage
▁Yama
▁Southeast
▁MBA
▁ghost
103
▁characterized
▁Closed
▁grey
▁nowhere
▁Feed
-27
▁Marie
▁survivors
▁연
▁ga
▁Cause
▁athletes
ila
▁Tre
▁TED
▁tie
▁Bet
▁upright
▁Stars
▁Kai
woo
▁afterwards
▁experimental
▁interfere
▁Phoenix
▁Resurrection
▁Suddenly
▁cfnm
▁escort
▁Husband
▁bathrobes
▁anxious
▁psychology
▁basketball
▁Toyota
▁Watson
▁Rd
▁Turbo
▁Aunt
▁prescribed
▁Slim
▁breed
▁stamp
kar
▁hyper
lea
▁customize
▁expecting
SL
▁bored
▁correction
▁Fix
▁prostitute
▁Hyatt
▁anonymous
▁Drunk
▁Aquarium
▁bitcoin
▁Vacation
▁elect
▁Repeat
▁whatsoever
dec
▁parameter
▁Indonesian
▁attribute
▁consistently
World
▁arose
▁poured
Today
▁pl
▁lion
RM
▁Hose
▁Pol
▁emerge
▁Finding
230
ease
▁skilled
▁exchanges
char
CU
▁volunteers
▁Gang
wire
▁bunch
▁Vertical
▁Tennis
▁prosperity
erie
▁compressor
▁conflicts
pop
▁Happiness
worth
▁pour
6,000
▁Zero
▁confess
▁Sy
dle
uka
▁hoped
▁treating
▁escaped
▁subscribers
▁Cock
ECT
▁examined
ffer
ifies
▁Pal
▁wound
bashi
▁sinful
zz
▁Billy
▁Om
▁OFF
▁endeavor
▁Austin
▁Seamless
▁amazed
▁Apache
▁Pension
▁Hardcore
▁purity
▁MOQ
▁exported
▁potatoes
▁unjust
▁Accommodation
▁Gain
▁Slide
▁notion
stock
osis
▁Shock
▁Wars
▁Anne
▁pound
▁650
August
▁Pitch
Just
▁Seed
▁selecting
▁Clark
▁criminals
tier
ā
▁Inner
▁Um
Only
▁graphic
39)
▁abundance
▁browsing
▁currencies
▁fantasy
▁horror
▁intensity
▁sovereignty
▁AV
▁Delhi
▁poem
▁Senate
▁breach
▁diesel
▁agreements
▁Lie
▁dismissed
▁Rice
▁consequence
▁Tur
rop
▁lover
▁Dick
▁Motion
▁supplements
▁Az
▁sleeve
grad
▁Leader
UK
rank
PH
▁Sons
inate
▁buyer
▁handled
▁Kra
▁demonstration
▁Vatican
▁routes
▁anchor
102
▁Bolt
▁silicone
nis
.*
▁panic
▁Jen
▁cups
▁Rick
oke
black
▁Saw
▁2020,
▁AMD
▁pixels
Point
▁::
▁worm
▁touches
▁2010)
15)
uce
Ga
bert
▁Historic
▁billions
▁planted
▁faculty
▁influential
▁idiot
▁indication
oku
▁fiction
▁widespread
▁Primary
▁farmer
▁Finish
▁attachment
▁Easter
▁polyester
▁folk
▁SDK
6.5
▁knee
▁crossing
▁Wan
quin
▁scenarios
▁Object
▁mayor
▁licensed
▁analog
nc
▁Bai
lash
▁95%
▁shapes
asse
▁Workers
성
▁Compatible
▁Shinjuku
▁Valentine
▁Worship
▁brutal
▁circulation
▁emphasis
▁remnant
▁tragedy
▁Xiaomi
▁marble
▁Hanoi
▁dialog
64)
▁06:15
▁Higher
▁Collect
Allac
▁wax
rou
▁diplomatic
BL
▁finishing
pur
▁Forget
▁tr
프
people
▁collector
▁Coated
▁fi
EK
▁doubts
bon
TRA
190
▁happier
한
▁Above
▁Blowjob
▁Politics
▁Fisting
▁Footjob
▁triangle
▁womb
illo
▁submission
▁seminar
▁jewelry
▁biology
▁Porto
Qu
▁cabin
210
▁drops
▁toxic
BI
2010
▁discussions
▁Trail
liness
▁infections
▁Deal
▁Tsu
▁Jar
▁representing
hen
uel
TECH
ido
▁beta
nz
▁Animals
VI
▁Naka
38)
▁squared
▁Chelsea
▁meditation
▁syndrome
▁uncomfortable
▁Apostle
▁Lewis
▁despair
▁nightmare
▁charity
▁Delta
▁insights
▁ATM
▁capitalism
▁Dome
▁Former
▁Proof
▁occasions
▁pic
▁Charger
▁holder
▁Seo
▁bore
▁pr
하
μ
▁activated
▁crop
▁Av
▁lean
▁ka
▁Operations
▁fold
▁approaching
Cr
pho
▁conveniently
▁★
▁predicted
elli
▁determines
nn
ddle
▁necessity
▁drove
▁119
▁Warsaw
▁Speak
gli
Boobs
▁제
▁Toy
▁112
▁Concept
▁Ari
▁Task
▁constitution
▁Clearly
▁Ref
▁bri
mix
▁failing
▁EB
▁Heater
▁APP
building
▁drilling
▁Rap
▁collaborate
▁malicious
▁restoration
▁Push
▁insertion
21)
▁WP
▁Cru
moto
▁Native
EU
▁triple
▁smartphones
shu
About
▁formatted
▁1939
▁SL
Book
ssa
▁rep
▁objectives
▁IQ
▁Notes
35)
▁boom
▁Journey
▁african
▁vibrator
▁Sofia
▁Rachel
▁residential
show
▁Subscribe
▁Seriously
soon
▁Nepal
▁Pot
▁lightning
▁youths
▁Ward
▁assignment
Black
electric
▁scholars
▁bang
cial
TON
ania
▁albums
▁someday
▁condemn
rag
▁hack
▁deadly
▁Jobs
▁concentrate
VER
sale
▁Crane
▁Drum
ote
▁ya
uru
▁seeks
▁JPY
▁psychologist
▁Naples
▁Harbor
▁Partnership
▁lamb
▁safeguard
▁addiction
▁Orgy
▁Begin
▁Champions
1.4
▁diagnosed
▁Les
jima
▁Panels
▁maker
cam
▁airlines
▁Kobe
▁tile
2014
▁substitute
▁pastor
spire
▁temp
▁adjusted
▁quietly
Fe
TL
▁Ming
▁Cottage
▁Excavator
▁worries
▁Python
44)
▁Douglas
▁Serving
▁Amenities
▁2*
store
▁drone
▁19:
▁sunset
▁Brothers
▁Testosterone
▁Epi
▁wrap
▁ink
45)
▁winners
▁bam
big
ugh
compatible
▁Articles
▁1956
display
▁1933
Life
guard
▁SN
▁Pie
▁attach
▁occupation
▁tokens
▁forum
▁Xin
▁SR
▁Aid
▁Certified
▁Kennedy
▁Protocol
▁Automation
▁CB
▁hence
▁Worldwide
▁pla
3.0
▁Wooden
▁rolled
▁Allen
▁packet
▁Optional
defined
lli
fun
tail
tine
▁greeting
▁Qua
▁Fixed
ses
shop
▁cables
▁acted
▁Wish
▁Rub
cla
▁connects
▁cheat
▁SF
▁charming
▁Corp
▁Patch
lier
▁saves
gang
▁negotiations
▁riches
135
2.2
▁trauma
▁Pregnant
▁disposal
▁Brunette
▁Courtyard
▁underlying
▁kidney
check
▁Domestic
▁GDP
▁Measurement
▁pumps
▁collecting
AY
▁Yi
USE
▁Rosa
▁nu
flower
wise
▁Exp
▁strikes
▁finest
▁router
▁Gor
LED
Mpa
▁specialty
▁Mah
▁2.3
▁substantial
spec
").
▁handed
▁AlotPorn
▁dedication
▁swimsuit
▁Nuclear
▁Carolina
▁Arthur
▁attendance
rina
▁murdered
▁Chiang
▁Ryan
ington
▁missionary
▁wonders
ISO
▁Heroes
rod
▁laughed
▁springs
▁Holder
dai
▁loses
tec
pc
▁Flag
mos
▁Scale
▁snap
▁neighbour
▁256
▁PT
▁personalized
▁Given
▁6-
eight
▁Signs
▁Imp
▁wi
▁Teach
▁heir
oxy
▁titles
▁strengthened
▁1947
▁facesitting
▁Alcohol
▁Independence
▁gauge
▁Worth
▁smiling
▁dioxide
stage
▁varies
▁bears
▁fare
▁144
▁resurrected
▁discrimination
▁Boss
▁chairman
▁Target
▁membrane
kind
380
rise
310
▁Dimensions
KE
▁mile
▁Effect
▁Hans
▁Vin
▁prevail
▁spoil
▁Educational
▁Maid
▁grams
▁SIM
▁producers
▁Hum
nik
▁trademarks
▁Tent
▁Newton
▁Chocolate
▁Fabulous
▁Mercedes
▁fierce
▁galaxy
▁shrink
▁achieving
▁Recommended
▁racial
▁dried
▁Era
▁Ferry
brow
▁Unique
▁Sing
▁countless
▁KA
▁Extended
▁Programme
▁magazines
pal
▁50,000
▁flowing
▁labels
▁1995,
▁Kur
▁fatal
▁Artist
▁assign
HC
▁browsers
VPN
▁seasons
▁Pla
/20
▁café
▁triumph
▁Leadership
▁Disk
▁instructor
▁OLED
▁Lip
▁Sad
2011
may
▁scattered
TU
▁bush
▁unlikely
dB
AK
▁boats
nder
▁108
nish
atic
▁elephant
▁messenger
▁campaigns
Ps
▁restrict
▁145
▁moderate
▁Pur
▁Kara
dio
▁prototype
▁bundle
atch
▁tiger
Even
▁Dam
▁Bowl
▁satisfying
igh
▁MAN
▁Wisdom
▁lecture
▁Standards
▁unclean
▁(22
motion
▁Draw
emon
duction
url
▁32-
bird
js
▁1919
rock
▁crops
▁departments
▁abundant
▁witnessed
▁homeless
▁probe
▁neutral
▁Spare
▁autumn
▁arriving
▁THAT
▁Expect
▁diaper
-70
rim
▁hey
▁Persian
▁encrypted
PER
▁Sai
▁selfish
▁(10)
▁HA
▁THB
job
mod
▁reflection
▁Compact
ark
▁dig
shin
▁1997,
ega
▁Oak
▁nodes
mina
▁Onsen
▁Wet
help
▁Homes
▁prisoner
▁saints
▁bytes
▁Warm
▁lacking
▁odd
▁oppose
▁Sk
▁Pic
uan
▁PV
utter
Lib
▁containers
▁Nelson
▁tar
▁pursuing
▁fraction
▁Corn
▁diagnostic
hun
▁skip
ility
▁fever
▁Greater
▁gross
▁Fully
▁Condition
Web
▁mon
▁tens
▁1957
▁trailer
▁Bol
▁2001.
▁Romantic
▁210
HE
gt
¥
▁Blessed
shaped
▁constitute
▁Cooking
▁actors
108
▁(9)
▁encountered
▁measurements
▁CAR
Will
▁Adhesive
▁Caribbean
▁Surgery
▁encouraging
▁supreme
성급
▁Antenna
▁Apollo
▁Motorcycle
▁timing
▁salad
▁Activity
2/
▁sinned
▁07:30
▁blank
▁Damn
also
ggle
▁Desk
▁bedrooms
▁Shot
▁dozen
▁reminds
▁burst
▁condom
▁batch
make
FL
jan
▁Boys
bell
▁rescued
Ne
▁titled
▁Kate
▁paste
▁sooner
▁Cars
▁Cyprus
▁Maintenance
▁consecutive
▁iniquity
▁transplant
▁Handjob
▁Dynamic
pdf
▁stairs
▁Verified
▁Creek
▁je
▁bot
▁directors
▁Heating
▁Roger
▁decides
▁Rica
▁jam
Of
▁infant
▁Gel
▁departed
▁UC
▁optimized
DU
▁Arc
▁risen
nounce
▁HK
▁ARE
▁bullet
345
▁heater
GN
▁protocols
▁cuts
▁instances
▁progressive
green
▁bloom
▁vibrant
▁vicinity
미
▁Valencia
yi
▁altogether
▁criticism
▁godly
then
▁occasionally
104
▁HC
▁sickness
▁cycling
charge
uous
▁107
▁heated
EO
카
Windows
HR
▁Drilling
▁achievements
▁emphasize
▁judgments
▁advocate
▁1943
▁wounds
▁Scientists
hel
▁cycles
had
바
lian
▁Semi
▁Croatia
miss
iable
▁Arizona
▁Exercise
▁gracious
▁sculpture
▁Ladies
▁Disc
▁Scene
▁renewable
▁Wales
▁sadness
▁Busty
▁Dal
lux
▁Sw
▁wipe
▁functioning
▁Wu
▁Sell
▁Rad
▁1942
280
them
loc
GI
lang
South
rite
▁Eating
▁Zip
▁redeem
▁matching
▁politician
▁paintings
▁Mak
41)
▁Var
(4
▁Philistines
▁hid
Br
2.3
UE
▁femdom
▁Napoleon
▁Suspension
▁encyclopedia
▁navigate
▁Scout
very
▁institute
▁09:00
13)
▁lifting
▁Crime
▁Dust
▁profitable
cca
▁comp
▁organisations
▁scrap
tag
▁mud
▁Cave
▁ties
▁Thin
43)
▁103
▁Hunter
▁admire
▁1952
▁RC
▁Mold
BT
▁175
▁casual
▁Activities
▁Declaration
▁sightseeing
▁nowadays
▁Michigan
▁silly
▁Photoshop
FM
▁wool
▁relaxation
▁KI
30)
tron
▁exalted
fl
coin
▁rat
abi
fill
▁Types
▁Yoga
▁guards
trip
▁preventing
▁Diet
RF
▁Successful
▁sinner
▁Gym
plan
▁Factor
▁Root
▁threw
▁Sierra
▁wherein
▁Therapy
▁WHAT
▁suspicious
▁worn
▁Darwin
▁bidet
[7]
▁spam
▁Kiev
▁offense
▁theatre
▁Ai
▁avoiding
▁Corner
▁preacher
▁descend
▁Fr
▁2002.
bla
▁Levi
▁Pharisees
▁disclose
morph
byte
pra
▁MOV
88)
▁pp
▁fur
▁(30
▁fr
Rev
▁tragic
▁Pattern
▁Hindu
▁Baseball
▁Jimmy
▁Regardless
▁Adjustable
▁brick
▁shipped
▁Wifi
▁coral
▁McC
▁titanium
▁utterly
▁march
▁compounds
▁overlook
▁Discovery
"?
▁testosterone
pel
▁bookings
33)
▁Rec
▁credits
▁woke
LU
▁pope
▁exploit
CON
▁laughter
▁Tele
▁CJ
FO
vision
udi
▁2.8
▁undergo
▁Started
ISH
Da
▁Judgment
▁ambassador
▁prestigious
▁Gangnam
▁photographer
▁gaining
rel
▁banner
▁occurring
▁Craft
▁scenery
▁FE
▁30,000
▁1918
gio
action
▁Glen
▁Ky
▁TB
▁ranks
▁testify
▁0.00
▁maximize
used
ESS
▁Changes
▁reflects
stay
▁Plat
round
▁Reason
▁DH
FX
▁demanded
lov
door
▁Beth
▁ru
▁Angels
▁Administrator
▁Definitely
▁Hamilton
▁Morocco
▁distributor
▁fatigue
▁pricing
ometer
▁Broadway
▁tendency
▁dramatically
▁Replacement
▁MORE
ois
/16
▁rhythm
ony
▁stopping
▁Organic
▁companions
▁restricted
▁floating
▁Shan
▁profiles
▁chairs
▁wholly
49)
▁Jose
-80
▁pushing
rain
methyl
▁Khan
▁Kal
▁sandwich
▁Miller
▁damages
▁Eagle
▁Rescue
▁sermon
▁Facial
▁Prison
▁Hardware
▁medications
▁Holland
▁subtle
▁reserves
630
▁Character
▁소
▁partially
▁reads
▁personalities
▁axis
KING
27)
held
▁1953
ket
▁treasures
▁CN
46)
.000
▁Beat
▁emotion
nov
▁lighter
▁Lux
▁guarantees
Sha
▁Painting
eta
▁championship
inn
aud
▁pi
▁um
▁viewers
NG
▁Jon
▁scroll
nda
8.5
▁Reduce
▁bleeding
▁인
▁3:1
▁musicians
mai
▁Gro
▁counted
▁flows
▁GR
▁9001
▁seasonal
▁ow
▁FAT
Next
1.6
▁youngest
48)
▁expose
▁Enable
bor
▁Whole
▁san
▁[2]
▁cigarette
wn
ush
▁Treasure
▁machining
▁Thirty
▁orientation
▁entities
▁wheelchair
▁matrix
▁ranging
▁Hon
▁Contest
▁pipes
▁openly
▁elite
▁Beta
▁Peak
▁abolished
bie
▁Established
▁interpret
▁kindly
▁elder
Ah
▁rotate
▁crossed
▁strongest
▁bits
tex
▁1959
▁messengers
Mon
ige
다
▁plates
▁CAT
▁innovations
▁Ms
▁acknowledged
claim
▁farming
▁renew
▁wallpaper
▁heed
330
▁Players
▁Split
▁Anniversary
▁Dildo
▁Russell
▁engaging
▁Contemporary
▁Architecture
▁themes
▁bulb
▁Scanner
▁Sitemap
▁Canon
▁clay
▁Jerry
▁courageous
sey
▁disable
sburg
after
▁portrait
▁7.5
ITY
\'
▁destroying
▁mega
109
▁hardship
▁Provider
▁TC
▁Tickets
VAC
▁Kay
▁pie
dian
76)
▁proteins
ARD
▁disorders
▁1958
▁accessed
eck
▁warnings
cker
▁symbols
▁supporters
/22
▁FS
▁drain
119
▁placing
▁ladyboy
▁Patrick
▁dump
▁bolt
asa
▁pants
DD
▁Ak
izz
42)
▁SHA
▁Relax
▁Blow
▁1935
▁persistent
where
▁Damage
5*
▁Hydro
▁Doesn
▁Poor
▁exhibit
▁urged
▁dangers
▁scream
▁sm
▁migration
마
▁responding
eno
▁Matter
▁references
▁Ark
▁euros
▁Koreans
▁physician
▁disrupt
▁honored
EAR
▁Administrative
▁Buddha
호
▁Machining
▁combining
▁Orleans
▁slope
▁Hyundai
▁RSS
▁Franklin
lac
▁PowerPoint
▁Fishing
usa
easing
▁govern
▁healthier
▁diamonds
▁onsite
▁tan
▁ko
▁wasted
▁Lou
▁1938
▁distinguished
▁Understanding
Home
aru
support
▁tro
tiv
▁cor
án
lev
▁cleaned
▁illustration
▁6000
▁sentenced
니
▁uncertain
▁dessert
▁tackle
▁Kansas
▁Hampton
▁mobility
▁scholarship
▁polar
▁citizenship
▁revision
3.3
▁composite
hor
fur
▁Sung
▁condemned
▁Doll
▁monsters
▁Treat
▁counts
lated
count
▁screens
▁Speaking
orn
▁establishing
▁8:00
Best
▁tenth
–1
▁KOREA
▁Trial
▁marking
▁pigs
eus
▁specialists
▁interactions
▁Doing
when
1.3
safe
▁senses
2.4
▁startup
▁Maps
정
▁Einstein
▁EmEditor
▁exploration
▁structural
′′
▁Ethereum
▁respondents
▁invalid
▁Gloryhole
▁swore
▁Yodot
▁verily
▁Amy
▁hates
▁pest
ifier
▁tune
rig
▁surround
66)
▁upcoming
▁compressed
▁Crypto
▁sang
▁textile
▁Chen
▁associates
(1)
▁praised
html
▁Theory
fulness
▁GBP
El
▁demon
▁shortage
▁SkyTeam
▁optimization
▁plasma
▁Lenovo
▁foretold
▁Urantia
▁verification
▁torque
▁summit
▁candy
▁Escape
▁subscribe
hold
▁Attractions
RN
▁Waste
▁Mercy
▁journalists
▁Audi
▁Guang
left
▁116
▁princes
▁Fight
Won
▁Score
▁vow
▁cy
▁720
▁regards
paid
▁2016)
▁---
Last
▁Visitors
▁dye
vor
▁blade
▁Faculty
▁Passenger
▁Xvideos
850
▁interference
▁preference
▁2-3
▁cozy
▁Nar
002
93)
▁armor
▁screening
▁truths
fort
ike
scape
▁polymer
▁NP
▁prevents
▁Tester
February
para
▁DN
Red
Net
▁Fred
stat
▁garment
▁Definition
▁dictionary
▁excellence
▁thrive
▁wizard
▁deemed
▁Jammer
▁Chicken
▁Governor
een
quire
hearted
anta
▁salon
▁foursome
▁1-2
break
mad
▁114
▁Taka
▁hinder
▁plead
▁defines
▁Susan
station
▁Roma
Video
tie
▁1.9
▁7-
▁Leo
▁persist
ulator
▁approached
▁Hur
▁6)
kit
▁550
▁1/4
iso
▁architectural
▁seamless
ologist
▁4.2
▁stressed
▁Items
gie
▁Relation
▁Regulation
▁Anabolic
▁Surprise
▁Madison
▁flour
track
▁Birth
▁insult
pit
▁influences
ographic
IDE
▁walks
▁Normally
▁Cab
▁withstand
▁270
▁chill
▁DP
▁interfaces
▁126
67)
▁tolerance
▁rows
road
▁decreased
▁magician
▁1954
▁Silicon
▁educated
current
ential
▁envelope
▁broadcasting
tress
▁arc
20)
▁programmes
▁Gall
▁ob
angle
▁Devices
▁injustice
▁shining
▁Barrier
▁Mori
hong
▁dumb
▁refresh
▁purchases
58)
126
INE
▁Ultimately
▁LS
mah
▁marital
▁recognised
▁permits
plus
ugu
▁pills
▁Commerce
mission
▁pretend
▁TM
▁quoted
201
phil
profit
Ja
carbon
▁8.0
Bedroom
▁1100
40°
▁Printed
▁flip
▁understands
Port
arch
▁Tang
gni
pus
▁rival
▁ethics
▁Cycling
▁controversial
▁panoramic
▁practicing
BU
▁Consulate
▁Levites
▁Already
Art
▁recipe
▁vegetable
▁referring
▁AA
▁numbered
▁explaining
480
polis
▁Panama
▁FBI
▁Invest
▁Yokohama
▁thereafter
▁Jer
▁sail
▁Playa
Out
▁cometh
▁Clothing
▁renewed
▁rust
ended
▁2015).
▁proclaimed
▁XL
▁namely
▁Zinc
▁Cel
▁139
▁Grill
▁ministers
▁statistical
▁transit
Star
155
▁tub
uki
▁accelerate
▁incorporate
ota
▁Limit
media
▁LP
▁109
ract
tori
▁privileges
▁logistics
115
▁landed
▁horizon
▁Apparently
▁summary
▁brazil
▁imaging
100%
▁adverse
▁wrapped
stain
▁Enough
▁Prevention
▁Juice
▁4+
▁suited
69)
24)
▁disputes
▁Praise
▁marketplace
nna
▁greenhouse
▁Resource
▁XML
▁grinding
aid
aven
▁stove
▁perceived
▁motors
mill
ici
▁cheer
▁volumes
▁backed
0.6
195
▁founding
▁Glad
▁MAR
▁shots
▁propose
▁Walking
His
▁divisions
▁Uni
NB
▁NE
▁Deliver
▁lust
▁touching
▁Breath
▁Lebanon
▁earliest
▁bucket
▁decisive
▁Industries
▁vocal
▁Thanksgiving
▁glance
▁disappointment
▁modest
▁Bou
▁Storm
▁1,500
▁Hin
▁Approximately
▁faint
4,000
▁hospitality
sie
▁Axis
▁positioned
▁incorporated
▁Cards
sec
▁Verily
▁Glasses
65)
uv
▁trips
skaya
▁butter
213
went
▁absorbed
ying
cid
주
Hebrews
▁unbelievers
▁prevented
center
440
going
▁Dean
fore
Hey
▁1993,
▁Sticker
▁dirt
▁Ear
▁Measure
▁hardness
amo
1-1
▁libraries
▁4.3
▁offensive
▁verified
▁exile
Product
▁affair
▁cents
▁showcase
▁Macau
ITE
▁wickedness
▁concerts
▁notebook
Work
▁Kil
▁secured
rpm
......
▁Yun
▁[00:
▁towel
▁emerged
▁Sca
outs
▁(0
1200
▁Carter
60)
-300
through
▁peer
47)
▁Sharing
▁Drinking
speaking
tas
▁Feeling
▁Pictures
▁molding
▁RI
▁Iraqi
▁controversy
▁threshold
▁Explain
▁isolation
▁CCTV
▁spanking
▁garments
▁republic
▁Mul
▁Rough
▁Rise
▁Sunset
▁keen
▁Stress
▁Border
hem
▁databases
bet
▁Currency
function
▁certainty
logic
26)
itor
▁discern
▁Germans
▁economics
▁VA
performance
▁charger
▁drying
video
enc
Bookings
▁3.3
▁Krakow
▁Scientific
▁Shepherd
▁humility
▁suspension
▁upward
▁Desert
▁Beginning
▁Barbara
▁DIY
Game
▁Ability
kle
▁acids
▁4,000
▁sensitivity
▁Superb
▁CW
gri
▁Brass
▁lawful
▁Beam
rai
▁grades
▁researcher
▁rev
▁Gates
▁Polar
▁Meal
idi
▁applicants
270
▁merit
lift
▁ml
▁aroma
▁approve
▁Math
▁shocked
ander
▁Alternative
▁Victor
▁lung
ncy
▁id
▁lately
▁Rep
▁Historical
▁Extreme
▁Words
▁Monitoring
▁Inspection
▁Protestant
▁Covenant
▁expedition
▁striking
▁Cris
▁smarter
▁Appearance
▁famine
▁footprint
▁cement
▁Hands
▁EV
▁weaknesses
▁switching
ICO
▁communist
77)
▁brains
half
▁overview
▁licenses
Non
PORT
▁Engineer
struct
▁fade
▁tolerate
▁Forces
EG
▁hardest
▁Promise
▁Seasons
Job
Heb
azi
0×
dict
pool
▁steroids
▁Auckland
▁Buddhist
▁Galilee
▁determining
▁sensation
▁tribulation
▁dominant
▁essay
▁clever
▁creep
▁chaos
85)
▁vids
dica
▁livestock
▁classification
92)
▁dosage
▁shepherd
▁streams
▁Processor
▁Ruby
-2019
▁motivated
▁extends
▁MPEG
▁gel
▁boards
▁coll
▁comic
nom
▁GE
▁qualify
▁justified
▁county
firm
▁DAY
wheel
girlfriend
Power
▁Ava
Per
▁3/4
books
▁brass
▁disbelieve
▁Ap
▁ransom
▁Academic
▁promising
▁renovation
▁Soccer
▁entries
▁Ceiling
▁drank
▁warfare
55)
▁amino
▁tribute
eye
▁Kh
▁username
▁Legend
▁Gentiles
▁HI
▁subsequently
gor
version
model
▁——
▁cosmetics
▁BI
achi
▁Graphics
▁fo
▁collections
Men
vic
metal
▁airports
▁Understand
Play
eat
▁theft
▁afterward
59)
▁socialist
hui
▁trainer
▁practically
oi
East
▁thorough
ith
▁cares
standing
aire
▁possessions
chem
▁Favourite
▁Nutrition
니다
▁Sang
▁Suitabl
▁Canvas
▁GNU
▁Alarm
▁Approx
six
uf
eli
▁118
▁Didn
▁exports
oil
tam
▁Kam
▁Asset
ABLE
▁Drawing
▁foundations
▁CSS
▁valves
▁chains
▁GL
265
▁transgress
▁Hyun
▁sticker
▁Choi
rge
ENG
hab
▁Pocket
▁Sleeve
▁enzyme
▁nickname
▁Bisexual
▁Transmission
▁Hawk
▁Entry
▁Gulf
▁poetry
▁lightweight
▁readily
▁Sunny
▁encouragement
▁(25
▁Nut
▁rejection
▁advertisement
▁bonuses
177
▁teenagers
▁Shared
▁euro
▁Incheon
▁mechanisms
▁Democrats
▁Prop
gawa
-31
fr
▁sits
bru
▁190
▁embodiments
▁entertain
hum
▁outlet
▁pity
→
cad
▁questioned
Help
▁intake
▁thirst
KO
▁Groups
▁garbage
▁mathematician
▁nitrogen
▁simplify
▁romance
▁vineyard
▁bishop
▁Glory
86)
▁Sugar
▁DVB
▁Morgan
▁zones
CN
▁unified
▁planes
▁Favorite
▁workflow
▁NBA
▁2.7
ummy
▁Clo
▁JO
later
GF
▁Len
▁linen
▁Lovely
cient
▁helper
▁Lenin
ré
▁sal
▁Jew
yuan
Jehovah
▁MM
▁Anton
▁claiming
▁vol
chat
▁Leaders
RL
▁eager
▁Contents
▁Bla
GHz
▁Provide
▁columns
▁Tile
▁Approved
▁Difference
▁Glasgow
▁Municipal
▁kernel
▁slain
▁WIFI
-45
▁Charging
▁iCloud
▁delicate
degree
▁lawsuit
▁Emily
▁Witch
▁grounds
▁Indians
pid
▁Electro
▁Coll
BB
▁punch
▁curtain
▁Elite
▁sur
▁Bulk
▁Woo
▁Rue
pac
stead
ude
▁Merc
▁attracts
First
▁troubled
Hotel
dder
▁performances
MR
omb
▁locally
▁Images
260
▁Wang
▁Tru
▁performs
▁bench
▁complement
▁clergy
▁comparing
▁integral
▁requiring
▁Tweet
▁wavelength
▁chef
▁Smoke
▁Configuration
▁connectivity
▁Scottish
wed
Si
vice
▁SH
▁Ads
▁colored
▁Slow
▁1999.
▁sealing
hz
▁camps
itz
▁patents
▁conductor
▁Representatives
▁halt
db
▁3.7
▁freeze
urg
5.6
▁1917
▁workout
▁Boot
▁Millions
▁Breakfasts
NP
chain
▁165
owned
▁intentions
-32
ject
wel
▁Vote
25)
▁educate
▁fearful
smoker
▁bands
53)
6.6
▁threatening
▁calories
▁relaxed
▁Mus
▁woods
▁Booth
▁Hybrid
▁McDonald
▁Piazza
▁definitive
▁endurance
▁fountain
▁junior
▁utmost
▁sentiment
▁android
▁involvement
▁WILL
▁grandpa
▁cho
specific
▁Loop
▁macro
▁Cutter
▁lap
▁seized
▁Surf
▁jealousy
222
▁Doctors
▁worrying
▁instructed
▁destructive
▁contend
▁Models
▁interviews
▁Austrian
▁Ezekiel
▁Snap
▁checks
▁beautifully
▁Bride
▁extensions
▁cop
ages
gno
▁Moo
▁conquered
▁Selection
▁Wise
kill
than
레
▁severely
▁Cali
▁observer
heng
eau
아
▁deceive
PRO
▁incorrect
▁DI
web
▁lasted
mut
▁RESERVE
0.8
▁possessed
▁OP
.'"
▁Anthony
▁Safari
▁WORLD
▁unforgettable
▁inquiries
▁Verona
uku
▁Durable
▁Passover
▁planetary
36)
▁BB
ANCE
▁evolving
▁Anime
▁(0)
▁STA
cost
▁Linear
Bar
▁Folk
▁artwork
due
▁사
▁employ
▁Piece
cum
▁pile
▁modeling
ij
▁deployed
live
▁broader
▁yard
▁formally
▁Greg
▁1931
▁throwing
▁Isle
▁neglect
54)
▁der
▁deadline
Trans
73)
aro
▁2014)
cute
▁QC
▁#3
▁1990,
▁Buenos
▁Jacuzzi
▁Monument
▁Sponsor
▁bronze
▁décor
▁intermediate
▁Applied
▁Bicycle
▁Mozilla
▁genre
▁supermarket
▁LOVE
▁MacBook
▁agenda
▁Clamp
▁gentlemen
▁Domination
3.2
▁hint
ç
▁detector
▁seventy
▁surprisingly
▁ascend
lad
▁Lisa
▁beverage
▁nerve
kon
▁Ibis
wick
▁hopefully
.—1
▁Cher
▁inherited
vir
▁122
118
▁evaluated
cott
▁Requirements
▁wander
▁congregations
▁Flying
ACT
▁시
UB
lix
▁xxx
rium
ought
비
oper
▁canceled
▁Corps
▁Kang
▁Hunt
▁murderer
▁Satellite
▁memorial
▁slut
▁imitate
▁varied
▁25-
▁Elementary
▁pardon
▁balloon
▁Upgrade
▁daddy
vari
▁pork
▁Homepage
IB
▁deliberately
▁Helen
▁Valid
▁Ohio
▁lenses
▁Guardian
config
▁dock
79)
▁Icon
▁$7
Ni
75)
▁Rom
▁VM
▁Document
▁Shoot
▁Nord
▁gal
▁slots
gnition
▁127
▁SMT
010
▁truthful
▁Bug
posed
▁corners
▁Dev
▁BU
▁Mira
▁Blvd
▁appetite
▁lactating
▁tabernacle
▁unprecedented
▁illusion
▁Nokia
▁orchestra
▁Giving
▁huh
▁microphone
▁Pilate
▁Advisory
blin
▁renewal
▁psycho
City
▁Tracking
▁Jazz
bling
udge
106
Give
▁responsive
▁201
▁civilian
720
▁Oral
▁pulling
▁repay
▁Rico
lessness
▁suspected
▁ruined
hair
▁$6
▁valued
zel
▁Noise
Cu
oriented
▁adapted
cause
minded
▁Baal
▁Que
▁Emo
tors
▁successor
▁Canal
▁GSM
050
▁obtaining
▁outfit
▁Ambassador
▁Integration
▁Lithium
▁semester
▁Marshall
▁bandwidth
▁Sunshine
▁skirt
▁Conversion
▁Denver
▁cancelled
▁fellowship
▁Artec
▁dine
84)
▁Sadly
133
▁Anderson
itive
▁Suit
kins
▁12-
jp
▁timely
▁releases
▁1951
▁Roy
▁encourages
▁GHz
ICS
▁BP
▁Aires
edit
▁pause
▁Bee
▁Dai
prop
▁figured
arian
▁Mix
▁Conduct
▁robotic
present
▁VS
87)
▁winds
▁bases
Those
▁upgraded
ural
▁Unity
haus
▁behaviors
▁Estonia
▁outward
▁Stream
ides
▁trim
▁Bronze
▁Terracotta
▁Zombie
▁dynasty
▁ritual
▁unpleasant
▁varieties
▁Charlotte
▁auction
▁Foursquare
▁adhere
▁Newsletter
▁Countries
▁trumpet
▁seafood
▁Potter
▁Showing
▁holders
boo
▁cooler
▁soundproof
▁hackers
▁TI
▁Volunteer
hop
▁Yong
changing
▁brokers
▁Stalin
iwa
▁BEST
sort
▁Mining
sho
metric
ication
▁NS
▁Ker
▁Bot
▁Sav
mile
70)
▁rap
zone
▁Flame
iro
IES
wash
friend
▁maintains
▁17:00
▁gang
▁climbing
▁joyful
▁IF
168
▁Gan
5.5
uge
560
▁plum
reach
▁immortal
▁complaining
▁Catch
▁Retrieve
▁absorption
▁rifle
▁Erotic
▁Crazy
▁secular
▁therapist
▁straw
▁unhappy
blue
▁Bernard
kes
▁Hammer
▁slim
▁Kingston
420
▁colleges
▁bias
▁pipeline
▁beaten
▁transgression
▁FT
▁tiles
▁SPA
▁INC
▁Laws
▁Stan
▁odds
▁hostage
▁searched
yeon
▁mineral
▁Sid
▁offend
ality
▁failures
▁fu
▁refugee
▁cultivate
DN
jia
▁Looks
▁uploaded
yes
iate
▁lawn
▁mock
▁Disposable
▁explosive
▁Bottom
▁contributing
▁Basketball
▁mutation
▁Bishop
▁midnight
iri
▁oppression
▁embarrassed
▁distinctive
▁Jr
▁Colorado
▁Powerful
▁Haven
▁forgiving
▁MHz
▁deaf
▁TFT
205
▁gateway
User
▁Thi
▁builds
▁q
▁workforce
▁inhabited
▁(21
▁1937
ril
▁ke
▁1936
▁Walter
▁Forever
▁festivals
▁lamps
▁Problem
▁Uber
rac
▁Kun
▁Mouse
▁Deck
▁warns
▁traveler
▁Sit
61)
▁constitutional
▁tweet
▁appliances
Prov
▁5:00
efficient
▁organizational
▁1998.
▁odor
▁simplest
▁AU
imi
▁jar
▁Walt
▁avail
▁Accuracy
▁brochure
▁proprietary
▁simplicity
▁visibility
▁holiness
▁Resistant
▁captive
▁Stories
122
▁Decoration
▁Skinny
▁pagan
▁Canyon
uation
▁Egyptians
▁Exe
▁6.0
▁Fortune
▁Nathan
/50
cco
▁dominated
▁candle
▁Cleaner
▁cre
▁“[
wave
4.1
▁employers
▁monkey
137
php
▁Boxes
▁Sexual
SON
▁rewarded
80)
▁hop
▁Meaning
▁twist
▁PIN
▁CU
member
Pi
ature
???
▁refine
▁sphere
▁512
▁surfaces
▁Spend
▁Bachelor
▁Baptist
▁Elephant
▁buffer
▁Peninsula
▁Shuttle
▁mp
▁Membership
MG
▁Nickel
---
▁Spiritual
▁Piano
89)
coming
onia
▁2000.
▁Andy
omo
▁Socket
▁rage
▁compatibility
▁females
YO
▁Lyon
▁surroundings
location
SF
saving
best
▁canvas
▁satin
▁2008)
cycle
▁Bing
▁310
▁Thor
▁betray
▁18:00
lv
▁Adams
▁enforce
▁dreaming
*3
http
LAND
▁entrepreneurs
plex
__
▁identifying
SCO
▁prosper
▁confidential
▁Artificial
▁Biblical
▁Ebony
▁Encyclopedia
▁Pantyhose
▁imprisoned
▁prejudice
▁shampoo
▁substrate
▁vulnerability
▁Alzheimer
▁ordering
▁perfume
▁quantities
▁Yahoo
▁describing
▁radar
▁Healthcare
▁Brightness
▁SUS
Note
▁doth
▁Tight
Win
cheon
▁Ny
▁administrators
▁330
▁RJ
Ka
▁Wallet
ggy
yon
▁tv
▁shout
▁beans
▁clips
▁Justin
▁dreamed
▁prospect
▁basket
▁embodiment
▁interval
▁jack
▁colours
▁Shim
▁Ages
▁98%
▁repaired
▁Demo
▁nuts
▁metals
▁advertisements
소
toxic
uke
▁symbolic
▁divorced
▁스
▁warmth
yard
atsu
bur
▁Affiliate
▁Interracial
▁conjunction
▁curiosity
▁furnace
▁glorify
▁gyno
▁exterior
▁ladder
▁Dancing
(3
▁scriptures
temp
▁Pine
▁Codes
flu
74)
AV
agi
▁PL
▁Romanian
▁Folder
1,000
▁$50
▁Met
▁Mama
boat
▁pressed
▁snack
▁china
Char
▁ABC
lp
▁simpler
winning
▁mourn
▁pill
▁zoo
MU
▁155
144
eer
▁retire
57)
share
제
▁Grandpa
▁immense
▁unfortunate
aking
▁oxide
agan
▁Polo
▁Changing
▁Horizon
▁Philosophy
▁confusing
▁territories
▁primitive
▁pleasing
▁Browse
▁rigid
VO
▁gently
▁conducting
▁unfold
Inter
▁Vir
▁decorated
▁Mostly
▁stealing
▁gem
▁Quarter
▁stain
raw
ZE
shore
▁placement
▁Raise
▁Said
18)
▁Default
▁Monthly
1.8
▁crush
brook
▁cal
lines
▁Rot
▁newsletter
▁scholar
buk
mov
▁SEC
$1
▁rendering
▁CL
▁regulate
fly
136
▁publisher
Spanish
▁FO
Music
▁pixel
▁observations
▁Torre
▁Luther
▁quest
▁Constant
▁Hokkaido
▁ultrasonic
▁PayPal
▁sworn
▁occurrence
▁trash
▁recycling
▁wrist
looking
▁glorified
▁Expressway
▁glow
blo
▁landmark
▁Chung
formed
▁furnished
Cam
▁resigned
eva
78)
▁Benz
▁securely
rse
▁charts
▁Terra
sai
▁traits
▁utilized
▁offset
▁cursed
WE
▁enters
▁emotionally
▁metric
▁Grow
▁translations
▁wished
▁gi
Korea
▁challenged
File
▁Moto
▁belly
Chinese
▁132
peace
▁desperate
▁costly
▁Quad
▁blogs
▁Esc
▁Watching
suite
▁Bangladesh
▁Decision
▁desirable
▁disclosure
▁plaintiff
▁Psychology
▁Laptop
lem
▁legendary
▁nails
▁jury
▁Elder
▁wore
▁stepped
▁Acrylic
▁recovering
▁Norman
▁activation
▁faithfulness
124
▁Tha
▁Hook
▁accordingly
▁Vic
Bi
▁Restaurants
▁Researchers
▁invent
▁optic
bid
enberg
▁sy
span
▁Commander
▁75%
▁terminate
fix
▁Aviv
▁Tao
▁Carrier
[5]
▁fortunate
▁Bru
phon
bay
gam
▁Agricultural
▁gesture
▁happily
▁stumble
▁Ontario
▁Hiroshima
▁freight
▁Oscar
▁Textile
▁Interactive
▁Relations
▁Assistant
▁Hereafter
Bu
▁Vas
▁shortcut
yer
▁1300
MAX
91)
▁Rand
▁Florist
▁incidents
-34
▁Cake
▁AVI
▁similarly
9,000
▁Few
Working
▁Updates
rica
▁advancement
▁texts
titude
▁stretched
▁Mile
▁16-
▁verb
Many
▁Cats
axis
▁ir
Ac
too
▁dominate
▁Scar
▁$0.
▁Cruz
▁char
security
▁String
President
▁Tyre
▁Lar
▁Prov
▁Tease
IAN
conditioned
▁Antalya
▁Columbus
▁Summary
▁curriculum
▁specimen
▁IELTS
▁pellet
▁Inquiry
▁Luckily
ante
▁Cartoon
DL
▁Arcade
▁Gordon
bby
▁1991,
▁zombies
oa
▁blogging
▁raid
▁Malta
▁Filesize
▁impacts
▁glue
▁calculations
▁redirect
▁Birds
▁Barb
▁SAM
▁Pierre
RAM
▁answering
▁Doc
5.3
▁Tal
▁AUD
▁intensive
▁Alien
82)
▁clamp
▁parliament
▁publishers
▁Nail
ologists
▁civilians
zh
▁gases
▁eliminated
[1]
▁notify
▁Rat
LF
nova
fast
▁expectation
▁recognise
▁pathway
2009
▁Compilation
▁Consequently
▁exquisite
▁Bentley
▁incentive
▁telescope
▁bugs
▁diagram
▁Chubby
▁Purple
▁BOOK
▁unemployment
▁brew
▁gloryhole
▁lemon
▁stocks
Pack
tens
direct
▁Hak
Two
▁Warren
▁Gary
▁morality
▁Cement
▁initiated
tun
▁bills
▁sixty
static
▁(50
▁manifestation
▁circuits
dro
▁4.1
▁EA
83)
▁herein
▁opponent
▁marker
▁KBS
rene
▁arrangements
price
▁Sn
▁133
▁formerly
TD
▁Jing
▁111
aca
except
▁기
▁Ching
▁develops
▁chiller
▁wisely
▁Pokémon
▁Vivud
▁adjacent
▁replacing
▁transparency
▁Kazakhstan
▁allergy
▁Quebec
▁Stanford
▁falsehood
97)
▁Harris
▁Cherry
▁Homestay
Sin
▁slice
▁inventory
▁nutrients
hall
DY
▁documentary
▁Gross
▁insane
▁Passion
34)
▁cigarettes
rator
▁Walker
▁Et
▁favorable
▁3-5
feed
num
FR
THER
▁Filed
Stop
▁philosopher
▁Sean
▁workshops
▁Sexu
odo
▁420
▁zoom
▁kills
▁struggles
▁enrich
rance
▁cage
▁negotiate
▁pledge
610
▁medicines
007
child
▁cooked
▁OD
▁stereo
23)
▁Myanmar
▁Nintendo
▁deletion
▁disadvantage
▁actress
▁purple
▁messaging
▁scored
에서
▁Elisha
▁transmitter
▁tray
igan
▁Senator
▁Cry
esh
▁Weekend
▁echo
▁tram
▁directive
▁Against
▁Guangdong
▁Retro
▁Cra
-1000
▁promptly
6000
doc
▁Venue
ista
▁136
▁Spark
▁violated
lish
▁Lev
mode
175
▁Robin
3-5
▁merchant
▁ingredient
▁snake
▁careers
▁Omni
▁prey
▁Films
▁$20
▁tick
uga
▁Lim
abil
▁coordinates
▁broadcasts
▁Bass
odi
yne
68)
▁advisor
▁Dreams
organ
▁homosexual
▁donation
▁GmbH
▁Strategic
▁Written
▁ridiculous
▁jungle
▁Scriptural
▁aviation
▁foremost
▁Admission
▁equity
esteem
▁patio
▁Smartphone
▁Seville
▁Thankfully
around
▁Yourself
▁ZIP
▁reasonably
▁DIS
▁commend
▁Democracy
▁Pun
oro
▁programmer
▁Reach
▁confession
▁scare
YA
ption
cock
▁280
▁Kas
▁dense
90)
▁whisper
▁Moment
▁KC
▁Matsu
▁sometime
▁Sco
▁lungs
▁Thousands
▁delayed
▁Might
itarian
Save
▁ambulance
▁calculator
▁manuscript
▁semiconductor
▁Maintain
▁Bosnia
▁caution
▁modular
▁accountable
▁clue
EF
▁tit
▁frames
▁promotes
▁cab
▁draws
▁bro
▁Mae
117
ODM
Data
▁promotional
▁dec
▁musician
51)
TF
▁Pound
="1
▁113
▁(40
fen
▁Tier
▁whi
▁approx
▁disciple
▁monitors
▁1912
▁NEWS
▁boiler
▁Parent
7.2
▁[3]
▁households
▁pal
▁(11)
▁cutter
▁notifications
▁Julia
cio
Dr
INA
▁6.5
▁variations
▁participant
▁justify
▁Clinic
▁Ink
Pictures
INT
▁sciences
4000
▁Fucking
▁Vid
030
▁Dor
▁HOW
▁jewel
Ecclesiastes
▁Coco
▁Scooter
▁inappropriate
▁umbrella
▁whilst
▁mould
▁observing
▁cherry
▁accent
▁decorative
▁MAC
▁edited
▁housekeeping
4.2
suit
▁minority
▁blanket
Allah
hir
▁depths
util
▁Cannes
▁Vis
▁float
hwa
▁concentrated
▁117
pay
▁MR
graphic
▁refreshing
lide
▁drawings
▁sustained
▁Seeing
▁2.6
▁Hearing
355
▁Saga
thy
▁Andrea
▁beating
▁Compared
▁boarding
▁(24
▁STO
▁1932
sten
change
▁assemble
▁Boots
▁KP
71)
▁1600
RK
GC
nell
▁Hart
▁imperfect
gest
Blue
[6]
Behold
UC
▁attempting
Russian
▁Serbia
▁mattress
▁counting
▁cosmetic
▁MX
▁stole
▁frustration
▁resemble
▁Margaret
▁Basilica
▁Boeing
▁seemingly
▁Manila
▁1994,
▁chick
script
▁strand
▁exert
▁ND
▁unite
▁Gy
▁Bethel
▁homepage
▁Maryland
▁JAPAN
▁Wong
sight
▁Offers
olds
▁Laura
▁strengthening
oko
▁trusting
cake
▁7:00
▁overseer
Km
gard
▁towers
cross
▁superb
▁Classical
–19
▁horn
▁reg
▁EVA
▁Minutes
▁Rope
▁analyzed
yong
▁Taste
▁premises
▁deed
▁Grove
bn
5.00
▁fools
Ephesians
.”—1
▁VO
rav
cen
lau
personal
▁Attorney
▁Wyndham
▁autonomous
▁cognitive
▁comparable
▁economist
▁undoubtedly
▁indicating
▁Logistics
▁Mur
▁Wheels
▁Bloom
219
dae
▁fixture
▁pension
▁Regard
▁Pinterest
▁Ale
▁Exclusive
-86
▁templates
▁wilt
▁Shoe
icular
040
▁Drivers
~1
▁Quest
▁Clinical
▁recruit
▁IPL
phy
DT
▁Leon
▁surveys
▁Oliver
▁mistaken
nah
Over
▁hike
▁masses
▁colon
▁1928
390
▁practiced
202
▁imagined
▁accord
▁HDD
imo
▁SUN
trust
ask
▁bah
▁*****
▁attacking
▁sow
BER
jun
▁phases
Compare
▁$8
▁stiff
▁Massachusetts
▁ignorant
▁abnormal
▁revolt
▁Cartridge
▁cartridge
▁Bubble
▁Pizza
▁RoHS
▁Cooper
▁crane
nine
▁Chron
▁Cooperation
▁discoveries
▁magnet
▁introducing
▁pigment
▁Johnny
▁scam
▁Ant
nde
▁Older
▁ACT
▁imposed
▁Josh
▁Loft
▁Bread
▁Hip
▁Sync
▁chapters
GM
pher
▁Cargo
▁refuses
onym
▁reasoning
131
▁Vel
vit
▁Gets
▁Effects
121
▁teenage
▁LTE
▁smoothly
ride
8,000
▁traditionally
▁PAR
▁Forward
Set
▁assert
▁sucking
LAN
CB
▁5*
▁Lace
▁Stack
tical
dir
HI
▁sexually
anna
”—
cess
voice
▁Leg
95)
▁Depression
▁Initiative
▁acceleration
▁lithium
▁proxy
▁Blind
▁recommendation
▁durability
▁prescription
▁Tunnel
mura
▁terrorists
join
hiro
▁jumped
62)
▁JIS
▁outlook
▁reportedly
333
lop
uded
▁3.8
▁lectures
▁Markets
saki
▁Gla
375
▁relieve
GL
▁Mixer
ENS
▁beasts
▁notable
▁honesty
mates
▁Bak
tribute
▁1929
▁scans
▁138
▁Slots
▁compress
VDC
▁Miles
▁Blanc
ADE
▁2030
conf
▁mentally
980
▁WIN
resistant
198
▁Squirt
▁closure
▁mortgage
▁nursing
▁redemption
▁remodeled
▁Messages
▁Organisation
▁Macedonia
▁pallet
▁fingerprint
▁Christopher
NF
▁LM
▁UFO
sheet
▁comforts
▁cult
witch
▁endangered
▁Beware
east
▁Crack
2.8
hl
▁Grid
▁acrylic
▁outbreak
▁Pastor
▁robe
▁Carol
ffe
▁switches
▁PD
stand
▁molecules
▁ceased
▁Greeks
Au
840
nut
▁respects
▁complained
PI
▁expects
▁slaughter
▁Receive
▁occupie
▁850
▁Jae
(2)
▁teenager
install
▁Cad
Singapore
▁woven
950
▁Marc
▁vent
▁Copenhagen
▁Capsule
▁surgical
▁drift
▁reproach
▁liberation
▁dashboard
▁flourish
▁Abram
▁Basically
▁124
▁Writer
▁Priest
▁Gateway
▁Lucky
▁compensate
▁Larry
▁digit
▁blowing
pton
▁pornstar
spi
igo
112
▁ext
▁fights
erate
Coin
▁barriers
▁Ace
loss
powered
food
113
▁briefly
▁Cole
▁partnerships
GG
▁Kn
▁Into
▁ANY
xx
author
acre
▁Gau
-2017
6.2
Cor
▁depict
▁Olive
▁Sites
▁NU
rose
▁calculation
40)
▁Released
cil
▁nm
오
normal
▁combinations
▁attitudes
290
▁Preparation
▁Puzzle
▁Wizard
▁harbor
▁vegetarian
▁prosecutor
▁Porsche
▁Observatory
▁Jessica
▁PTFE
▁shrine
▁Brief
▁encoding
▁flew
▁PADI
▁polite
▁Insulation
ako
▁missionaries
▁Davis
▁hostile
▁HGH
▁accidentally
▁divers
glass
▁Neuro
▁passive
▁hy
▁Consulting
▁monitored
▁homework
lute
lton
▁480
▁Dot
▁elephants
leg
▁GF
▁Hz
serv
▁nurses
▁15:00
▁positively
▁pillars
▁runner
▁Portal
▁Lines
▁Deals
tti
▁cured
▁delighted
▁Trailer
▁OUT
hoe
▁neo
▁capsule
▁passwords
▁organizer
301
▁2021
▁Reform
▁Santo
9.99
960
HTML
▁0.01
▁Insert
▁Mathematics
▁competing
▁prophecies
▁turbine
▁wolves
▁inflatable
▁decimal
▁straightforward
▁Girlfriend
▁eighteen
▁SB
▁Immediately
▁spake
▁stays
liter
▁jazz
▁asshole
▁Keyboard
▁handles
▁traded
▁Outer
call
▁tooth
▁recreational
Col
▁OM
7,000
mori
▁partly
460
▁Fra
▁한국어
▁fighter
nai
mination
▁HTC
▁Shore
▁donor
▁Punch
▁Plugin
▁alcoholic
▁Carr
199
▁relay
END
▁rendered
▁satellites
▁Numbers
▁logs
▁handy
▁Earn
▁seas
llo
OME
▁Poli
parent
▁Champion
▁Thing
▁shark
▁monument
216
▁weigh
▁suggestion
▁gut
please
▁insect
▁forsake
lyn
▁picking
Check
▁limitation
▁Dubrovnik
▁Illinois
▁Luxembourg
▁clarity
▁occupy
▁Column
▁termination
▁Woven
▁Collins
▁thunder
Korean
vc
▁Bruce
▁Haiti
▁troubles
▁Preview
▁Romance
▁Voices
▁Portland
▁10000
▁galvanized
▁fax
▁accepts
▁Barbie
▁Jacket
/24
oto
▁1995.
▁(26
▁vendors
2-4
div
▁Tian
▁Pel
▁Role
▁pronounced
▁Papa
601
28)
▁Shift
▁projector
▁Medi
▁advances
GU
▁ML
▁DU
▁Fans
▁OST
▁tends
▁Gh
▁Parker
▁instruct
Mbps
▁cakes
▁pillow
iu
▁fin
▁LD
▁await
▁Strap
▁Aren
strong
woman
gov
▁Santiago
▁Trotsky
▁aluminium
▁boutique
▁calibration
▁disobey
▁squad
▁veteran
▁miserable
▁banquet
▁footsteps
▁Template
▁Janeiro
▁hammer
▁Setting
▁Bailey
▁Volvo
▁Vector
▁Honda
▁priorities
▁bon
▁disability
▁1987,
▁philosophical
[10]
▁collar
▁121
kgs
▁Wayne
▁Sword
node
▁invaded
▁fulfilling
▁icons
▁MK
oxid
▁sincerely
▁Specific
▁KE
VC
▁gl
▁promotions
▁thumb
▁EMS
build
Here
▁sells
5.4
▁err
▁minerals
plate
▁Tray
32)
▁lb
▁controllers
145
▁presentations
▁Kei
▁confront
▁oz
national
AF
▁Joel
▁rib
▁리
▁ruins
bang
▁cocktail
▁tongues
▁Pets
▁writings
▁missiles
전
Peace
writing
Water
because
▁riders
▁Ubuntu
▁ignorance
▁grandparents
▁Scroll
▁cheerleader
▁ABOUT
▁Belgian
▁impulse
▁Submit
▁spill
▁deciding
▁cru
▁sodium
▁weekends
3.1
▁Stockings
▁Aviation
▁Sudan
▁Binary
phase
▁hello
▁reef
▁wines
▁viewpoint
/7
▁Grab
drop
305
▁lively
▁foil
▁Whit
▁2%
▁14:00
stit
ester
▁LINE
▁Secondly
chy
xxx
▁Catholics
▁Foil
▁Customs
etto
▁->
LOG
USA
▁Household
▁von
DF
▁snacks
ulu
81)
roy
TCH
/9
▁interrupt
▁outdoors
▁bend
▁Naga
▁Away
▁Centers
ENCE
▁sponsored
60°
":
▁Poll
spot
179
▁Esp
talk
▁Berg
▁Expand
Easy
▁Humans
▁Continuous
▁consensus
▁physicist
▁Cancun
▁supervisor
▁Organiser
▁Tesla
▁scandal
▁marvelous
▁Dhabi
▁Alaska
Line
▁Zu
▁Batman
-240
sided
▁Languages
bia
▁pur
▁Wat
▁Developed
▁2:1
▁awaits
oC
still
▁missions
Fo
lasting
▁joints
gation
lush
0.9
xin
▁Selected
▁firstborn
▁farms
▁shelf
hof
▁Trader
▁Transformer
▁Yep
fla
isa
▁μ
/60
full
fest
Hu
▁131
▁Der
borne
giving
▁exceeding
write
37)
▁camel
Ye
▁faithfully
▁Ethiopia
▁improves
▁Supported
General
Room
▁10.1
RD
▁Tun
▁Easily
▁Laundry
Philippians
▁Positive
▁hungarian
▁geometry
▁quotation
▁bracelet
▁vivid
▁Esther
▁undergraduate
▁Keyword
▁Cairo
▁Lawyer
▁lease
▁executives
▁thrust
▁revised
RING
▁Included
▁sigh
▁1050
1500
▁politically
▁unions
▁reactor
▁illustrated
▁Nova
▁conceived
▁Strike
copy
sales
▁vine
▁Ay
bei
cf
score
▁dancer
aco
UA
256
▁Socialist
sca
▁appoint
▁Courses
▁socially
/11
365
▁sentences
880
▁fame
▁185
▁Certain
lag
▁Resid
▁carriers
.[2]
▁protector
mass
written
Green
▁appearing
public
▁Shakespeare
▁bracket
▁circular
▁Jamaica
▁spiral
▁transcend
▁Rainbow
▁ninth
▁titjob
▁Vale
▁Spanking
▁quantum
▁hiking
Zero
watt
▁Sodium
▁Mankind
▁bump
▁Healing
▁Emma
▁Restore
zza
[9]
▁statutes
▁Smile
▁formatting
▁conservation
▁relates
▁Excuse
bear
▁ce
▁forbid
▁Sm
▁corrected
▁basement
Map
▁Tear
▁PhD
▁Ivan
▁flies
▁Been
▁chase
▁beg
▁QR
▁Mounted
Use
▁collapsed
▁Till
3.4
elect
▁lied
wal
▁contacted
▁Pig
▁1/3
▁Turin
trac
▁Cuban
▁Bun
▁reigned
▁eats
▁bombs
▁coding
▁Admiral
▁Celebrity
▁Swift
▁communicating
▁identifier
▁irregular
▁celebrating
▁damaging
▁Jewelry
▁colonial
▁grants
driven
▁gloss
▁Mosque
▁Background
▁AF
▁Dash
ente
▁Outlet
▁Lessons
EAN
fid
▁packs
▁worldly
▁annoying
▁monk
▁Created
▁vitamins
▁Exam
▁Required
chang
▁Est
hur
▁launches
56)
bis
▁initiatives
▁bets
▁greet
▁Pulse
134
▁Macro
▁Units
ogen
mature
years
isi
▁borrowed
▁Glo
▁Alexandria
heim
▁margin
▁Siri
▁Problems
▁dev
0.4
4.8
▁regain
▁swift
▁peel
(5
Call
▁seated
natural
▁hormones
▁Publication
Service
standard
107
▁slight
▁Cologne
▁Genuine
▁Jennifer
▁Orthodox
▁Statistics
▁Temporary
▁Trenbolone
▁aesthetic
▁cholesterol
▁economies
▁exercising
▁magnitude
▁Warehouse
▁Permanent
▁Sandwich
▁nourish
▁pencil
▁implies
▁Calvin
▁Simulation
▁Tableau
▁Venus
▁tread
▁prediction
▁webpage
▁exceptions
▁intersection
▁breakdown
ér
▁Gin
▁molecular
nica
▁Chef
▁Ranking
1-5
7.3
▁atomic
52)
▁betrayed
▁disclosed
▁Candy
▁Lily
▁Gem
▁Lauren
fan
▁circles
▁Shooting
▁Abel
ROM
LES
corp
▁1989,
▁centered
▁declined
▁rays
nea
Par
title
▁associations
ffic
▁Yoon
▁Makes
therapy
▁Months
▁Fen
▁retained
scan
▁Improve
▁pursued
020
weight
OST
▁yo
▁(+
uta
third
Credit
dry
YS
▁Ethics
▁Physics
▁calcium
▁collaborative
▁memorable
▁mushroom
▁vapor
▁stabilize
▁barrel
▁dinosaurs
9.5
▁couch
without
▁Transmitter
▁crowds
purpose
▁cited
▁coupled
AO
▁welded
Max
▁disconnect
▁Nat
▁Chun
▁episodes
▁roses
▁Labs
▁Tale
rri
▁activists
▁Tas
▁fonts
ager
▁Marx
▁Pod
▁1923
dog
loy
TMs
▁Py
▁Yuan
203
minating
▁Beau
CF
▁pilots
▁6,000
▁Beck
159
▁pu
▁printers
Add
lom
kW
138
340
72)
def
Wi
review
▁pointing
▁headline
▁pockets
▁definite
▁Alma
▁Songs
▁Tong
▁aliens
▁Ala
서
Therefore
▁Religious
▁Thessalonians
▁complications
▁disgrace
▁judicial
▁pepper
▁macOS
▁trustworthy
▁plunge
▁belonged
▁Riding
▁cellular
▁Observ
▁Leaf
Mac
hours
Click
▁Apt
▁Brighton
▁silicon
▁frightened
▁authorization
888
eum
▁cube
IZ
▁selective
▁lodge
▁rats
▁crap
heat
▁refined
▁secretly
guchi
▁Hop
AZ
790
▁Waiting
▁2500
▁Moore
▁nationality
kyo
-90
angel
▁Nishi
BP
▁260
PG
▁Etc
iser
▁acute
▁1905
▁Fab
hydr
▁Rolling
-39
▁(12)
▁Heights
▁Slovakia
▁pros
plant
▁SV
▁6:00
▁Sala
▁Kom
▁Previously
▁objection
▁developments
Contact
▁POS
International
Keep
▁erase
▁COMPANY
▁Consumption
▁Semiconductor
▁cathedral
▁derivative
▁discretion
▁likelihood
▁turtle
▁Buffet
▁Practical
▁Gilead
▁Quote
elia
Christian
▁Recycle
▁Lilies
▁grandson
▁[1
▁Ven
oria
▁farther
▁Masters
▁retro
▁Sonic
jar
▁overflow
▁Jia
▁Drama
NU
▁wired
neu
▁1926
▁voluntary
▁Carmen
3.6
▁boiling
CAR
▁counselor
▁governed
▁surf
hak
▁Rai
▁Hana
▁textbook
▁folding
▁DT
▁excel
chip
07)
▁VC
▁MBC
▁transfers
▁1910
▁WC
PVC
▁masters
▁milling
▁Sei
▁Grande
inner
▁newer
▁Advance
▁bypass
▁Naturally
▁Asa
197
▁regulator
commerce
▁Kha
▁Resin
▁911
lution
▁weaken
▁Feng
▁bury
▁slower
Shrine
▁Dictionary
▁Fantasy
▁Responsibility
▁Symphony
▁ambitious
▁anabolic
▁epidemic
▁prophesy
▁puppy
▁Starbucks
▁bastard
▁Diagnostic
▁sneak
▁Gangbang
▁Creampie
▁Vincent
social
▁Graham
▁Loving
▁GC
▁Attend
▁rebuilt
▁fancy
lb
▁nude
▁goodbye
▁1927
▁kin
eni
▁reinforced
▁males
▁anticipated
SN
▁Alternatively
▁afflicted
heart
Ray
▁Bulb
hea
▁interpreted
▁1924
▁exceeds
▁mandate
▁FX
▁declares
255
▁organisms
▁recognizes
▁altered
080
▁targeting
▁Coral
▁fundamentally
▁Opti
▁herbs
trained
+1
▁rebuild
▁(32
▁arises
▁Penn
▁DX
▁Dur
▁dated
▁purely
▁matched
tv
iron
▁4.4
▁Nazareth
▁Unlimited
▁devastating
▁mexican
▁mandatory
▁Orgasm
▁Novotel
▁Transparent
▁alternate
▁railroad
▁WhatsApp
▁Venture
▁cooperative
▁Pilot
▁defence
olic
▁junk
139
114
▁camping
▁inclined
ucci
4.4
▁waist
▁12:1
▁costume
▁cocktails
/100
129
▁Autumn
▁Bud
▁Iranian
uit
▁locker
▁Whom
▁sore
▁Ry
▁1996.
ador
127
ogram
▁Charter
▁Element
▁donated
▁projection
▁다
▁VAT
▁defect
oji
▁dip
hub
▁mor
▁backward
▁2.9
149
▁CG
Cl
isha
▁RAR
▁exceeded
63)
add
lining
▁TX
▁parade
512
▁siblings
▁continents
▁entrepreneur
▁1922
▁professors
▁Nara
▁LU
▁MU
212
Mu
▁GET
▁greed
▁Disco
▁cleanse
▁SET
▁plastics
▁Baltimore
▁Detroit
▁Portrait
▁Sovereign
▁Violence
▁narrative
▁perpetual
▁thirteen
▁tasty
▁migrate
▁Automobile
▁psalmist
▁Married
▁ET
▁courtyard
Footnotes
▁apk
apa
▁Quiet
▁Cloth
UD
▁compassionate
▁detective
▁Flor
▁“‘
▁8.5
▁Election
uh
▁dude
▁extraction
Master
▁torn
▁hitting
MER
▁Rolled
▁Institution
▁battles
▁자
▁franc
feld
▁exams
RES
▁Gad
▁CIA
▁Miya
▁expressing
quest
▁176
▁consuming
▁inspiring
▁governing
760
▁Interest
Make
Kg
▁NV
▁overlooking
▁implications
▁Lifting
Post
▁loads
▁Epic
▁1997.
▁Shit
▁donations
▁Motors
ANA
▁illustrate
▁Reservations
▁Wo
▁hurts
▁Clar
PCS
9.3
▁processors
▁SAN
▁Gala
soo
▁Famous
▁UNESCO
▁galaxies
▁utilizing
▁Nowadays
▁franchise
▁solemn
▁Respect
▁submarine
▁Horizontal
▁altitude
▁Empty
Pacific
▁supervision
Business
▁Progress
Shaft
▁charter
▁Wherefore
▁mainstream
4.0
▁nut
▁unclear
▁Mansion
[11]
tip
▁Marvel
▁recycled
▁roast
▁neat
▁populations
easy
▁Brit
▁Churches
▁Skills
▁obeyed
git
writer
uer
▁purify
▁Foods
▁Wiki
▁1934
▁EF
▁ward
UI
scribe
▁Swan
▁noon
▁SBS
▁bud
icle
▁screws
▁#5
gic
arrow
▁lend
Gr
▁Guarantee
▁3:16
▁Kol
▁explicit
▁Krist
6.7
▁Shaw
zed
▁Principles
▁Brisbane
▁Humidity
▁Renaissance
▁Thompson
▁eagle
▁remedy
▁rigorous
▁Ningbo
▁drought
▁Disaster
▁preservation
▁tagged
▁multimedia
▁misery
▁pvc
▁Crisis
[8]
▁Riad
Everyone
▁Directive
▁stressful
inc
▁Mina
Great
▁therapeutic
▁Wallpaper
▁3%
▁Browser
▁consultant
▁particle
▁originated
.[3]
620
▁invites
hou
Babe
▁deceived
▁Ideas
alia
▁IDD
▁exchanged
▁Cabin
jet
▁fortress
▁Growing
▁지
▁dew
pose
▁Hank
▁equip
▁realization
acle
▁Ara
lane
mother
▁baskets
▁(100
▁Pub
▁Wal
▁Yoshi
▁UTC
▁Def
▁rebel
▁impress
▁Turning
▁Recording
▁DL
▁temples
▁GMT
German
▁Networks
cub
DING
abo
▁Judas
188
▁Tr
▁gasoline
▁cheek
▁Literature
▁absent
▁Fifty
▁travels
▁commerce
▁Panties
▁hiring
computer
▁{\
erson
Lab
▁undertake
▁전
jpg
▁Norton
▁FAX
▁Dominican
▁Alps
▁composer
▁Alba
▁Mei
dh
226
1/2
▁Samaria
▁GI
evo
TX
227
▁administered
▁conferences
uo
▁Experts
▁Ruth
▁notified
quit
Tri
▁highlighted
MET
risk
▁3.6
▁134
▁competitions
▁configurations
4.5+
▁5.1
mph
▁prohibit
WP
TN
look
▁HY
duced
520
▁Loan
▁earnings
▁Philips
▁Organiz
▁192
▁profess
▁positioning
▁manages
▁Swinger
▁Acetate
▁Exactly
▁Measuring
▁Sustainable
▁underneath
▁Alfred
▁abomination
▁sketch
▁ribbon
▁Failure
▁UAE
▁suitcase
▁inequality
▁Monkey
▁competent
▁organizing
King
▁Continental
▁Jonah
▁rooftop
science
▁Arctic
▁Destination
▁Marble
▁Samoa
▁mortality
course
▁fig
Page
▁Asked
▁Cosmetic
▁Victory
▁motive
▁aggregate
▁pillows
5.0
▁Rei
▁Pont
▁Amen
▁Congo
▁coastal
▁undermine
ental
▁grill
▁Barry
▁Publisher
▁watt
creat
▁SY
229
▁google
▁weighing
▁Kos
▁rabbit
▁Gong
▁oneself
▁Visitor
▁ARM
▁treats
▁Instruments
▁oceans
▁void
▁tires
hama
▁lane
▁TD
161
Dec
LAS
enter
▁revelations
▁Buying
/30
PF
▁affiliate
oodle
▁Aero
every
▁Behavior
▁Bucharest
▁Minnesota
▁Oxygen
▁Rechargeable
▁Sightseeing
▁cushion
▁trunk
▁Overseas
50°
▁Leisure
▁updating
▁Qatar
▁Stepmom
▁upgrades
▁shaking
▁Capture
▁stir
▁Polymer
▁Detector
length
cd
▁cries
▁explicitly
▁Zhu
▁“...
▁Mental
▁phrases
▁gaze
▁1993.
▁qualification
▁colleague
▁Relationship
Chat
▁Says
▁Por
▁EOS
▁SEA
▁busty
▁babes
▁1907
▁Vehicles
clo
▁Medal
format
pole
haul
tw
seven
▁TCP
▁highlights
▁BT
lab
▁exhausted
lick
▁Yea
▁2007)
hat
▁pine
▁presenting
pil
▁privileged
tral
▁ROM
ARY
▁addressing
virus
emia
xia
dust
news
▁Horn
▁Swing
rog
187
▁Trend
▁Bao
▁ph
▁Shut
▁despise
▁piss
LOW
▁JS
▁brighter
▁Wei
▁pap
▁Canaan
OUR
both
0.7
▁deposits
▁Respond
▁Salvation
▁captivity
▁judging
▁nurture
▁rebellious
▁souvenir
▁Dirty
▁infrared
▁nevertheless
▁Mould
▁generating
▁Lawrence
▁Teddy
▁Hui
▁norm
▁congress
▁Zhong
▁148
▁thong
North
United
▁generates
▁Bondage
▁stating
▁Relay
▁fond
▁considerably
▁Brake
▁partitions
▁tracker
141
▁Tonight
▁liable
▁Cube
▁enrolled
Pay
QU
▁feeds
225
194
uth
tian
▁electron
▁lip
▁AIR
▁PCs
▁Gir
▁ego
▁connectors
287
▁edges
▁thermo
mie
▁Bean
404
▁Sounds
▁Ideal
737
▁168
▁suppress
/14
Does
photo
fuck
▁timeline
▁uni
ario
NL
▁accuse
▁pat
151
UNG
▁CBD
ego
▁sto
▁Drugs
beat
▁Bologna
▁Catherine
▁Hezekiah
▁vengeance
▁versus
▁radius
▁verdict
chel
▁logged
▁spear
▁Titan
▁breakthrough
▁False
▁Hangzhou
▁rounds
▁uninstall
▁refurbished
▁FROM
▁potent
James
▁Mann
▁jaw
▁dislike
580
▁BL
169
▁GPU
▁persecuted
▁creators
ono
▁1400
▁Chosun
▁Brexit
chemical
▁Deca
▁structured
shire
▁thrilled
▁permissions
▁antibiotics
▁Standing
▁reforms
logical
demi
▁meaningless
Sung
▁attributed
▁strengths
▁Fence
▁merchants
▁equals
▁Indiana
axial
tell
fused
▁quotes
1-6
8.7
▁950
▁146
immer
▁Detailed
▁PSD
▁Towers
▁technicians
Sam
456
iana
▁Builder
cn
▁Patients
▁ah
▁prim
8.1
▁Mit
enburg
▁fusion
▁Colorful
185
connect
obo
▁laying
▁pearl
▁subjected
▁Criminal
▁Wrong
▁enthusiasm
▁grocery
▁obsessed
▁retention
▁Merciful
▁Warrior
▁pornhub
▁storing
▁footjob
depend
▁solvent
▁Moab
father
▁conveyor
▁realise
▁Jiangsu
▁tempted
▁trader
▁Seek
▁immigrant
local
Most
▁Patient
▁modification
▁Fle
▁Diver
▁Ox
▁Whose
▁TT
robe
/0
image
▁fuse
icon
▁Sant
functional
bee
▁1921
▁Grass
otto
▁Shortly
▁technically
▁sec
▁dread
▁Wy
▁debuted
▁Moral
▁ion
▁conceal
▁Egg
NR
hp
▁Themes
▁risky
▁Counsel
HU
▁Manag
etti
▁Ras
▁launching
▁abound
excluding
▁Approval
▁Extrusion
▁Facility
▁Filipino
▁QNAP
▁athletic
▁contributor
▁eliminating
▁fracture
▁unauthorized
iac
▁urine
▁Pepper
▁kitchenette
▁coordinate
▁Intl
▁earning
▁Airways
▁torrent
fon
▁affliction
language
Remember
▁Connectors
▁Neck
204
▁hearken
▁symbolize
▁null
▁porno
▁10:10
Old
▁gameplay
▁Prat
▁wires
Key
▁wasting
yun
▁outline
▁alternatives
-----
▁Insight
▁Baker
hom
▁electrode
▁logging
▁(13)
▁investigated
▁exporting
nzo
▁Olympia
Event
▁Dating
2.7
▁Duc
▁cheerful
▁melting
▁Router
▁137
ppm
mac
seo
ply
▁illegally
▁strings
orie
▁crafts
▁implant
▁dismiss
▁fasting
▁privately
7.1
▁Venezuela
1.7
206
▁habitat
▁lace
▁steadfast
▁Honolulu
▁Infrastructure
▁Jupiter
▁Procedure
▁Tournament
▁disabilities
▁dispatch
▁filipina
▁widget
▁Utility
▁desolate
VoyeurHit
▁zinc
▁tariff
▁forehead
▁veil
▁ADHD
▁Spread
▁explorer
▁TIME
▁Dawn
▁Profit
▁remainder
▁Hillary
custom
4.9
▁BD
▁오
▁Initially
▁freezing
▁Folding
thirds
Che
▁agrees
▁Kent
▁unaware
▁Neu
▁rooted
▁IDE
ried
Sub
▁Evening
▁manufactures
▁doubled
▁(15)
▁Sets
▁로
▁Hen
▁Acc
▁WW
▁Registered
▁lakes
▁1908
▁interviewed
▁Mate
▁introduces
▁Ammon
174
MIN
▁JE
▁Filters
▁financially
▁devour
132
seong
▁hung
▁KW
uba
▁skiing
▁7.0
▁Lau
▁Goal
ilo
▁Bldg
▁Destroy
▁Entrance
▁Helsinki
▁carbide
▁indigenous
▁inferior
▁marijuana
▁medieval
▁Welded
▁Somalia
▁Malawi
▁expelled
▁+82-2-
▁incense
▁denial
▁Cow
▁adultery
▁sixteen
▁gentleman
▁overlap
▁Lifestyle
▁systematic
▁ECU
-33
▁compiled
▁INTER
▁badge
XL
▁inject
▁Pete
1-2
▁MON
▁compliant
▁Interested
▁disturbing
410
SAN
founded
▁Architect
▁travellers
▁Ple
▁Whereas
▁fixes
▁Naha
▁mourning
design
▁ranges
▁Done
arra
-81
▁CNN
▁Promo
▁rises
▁hug
6.8
BASE
plane
▁Dora
▁Nazis
Exp
arily
▁tightly
rib
▁cared
▁Sum
▁Strange
▁blocking
▁Chao
▁nutritional
▁Fed
▁Desire
▁(36
▁greatness
▁miraculous
▁unconscious
▁Sheets
▁Cain
▁fibers
▁Lil
▁Sup
▁resting
email
▁caffeine
▁Choosing
▁Families
▁collision
▁elaborate
▁Tensile
▁hollow
▁terrain
▁simulate
▁copied
▁tuition
▁NTFS
▁monetary
▁sustainability
▁BBQ
▁Robinson
▁Supports
▁Ottoman
▁frustrated
▁Jiang
▁baths
▁firewall
▁Unknown
▁Shaft
▁Gui
▁Photography
▁fourteen
chon
Type
Official
Learn
▁마
▁iconic
▁Tae
▁Latex
▁desperately
▁0%
▁Sym
▁Rig
neck
▁Schu
▁weary
holder
▁Citizens
▁Championships
▁Kawa
▁Includes
Ru
Her
▁1925
▁adventures
▁Mau
Bus
▁conclusions
▁portions
▁weep
suing
▁Riga
News
▁lightly
▁schemes
bach
▁affirm
Tell
▁PART
Sea
▁shooter
▁Johann
▁kilo
▁geographical
▁Prevent
680
▁adviser
▁Russians
▁Indie
▁defects
▁backwards
▁bombing
▁inventor
▁Attention
▁Xiamen
▁improper
▁preceding
▁slogan
▁Providing
▁harness
▁versatile
▁Speech
▁alphabet
▁friction
▁Gyeonggi
▁hazardous
▁Dangerous
▁picnic
▁Earlier
▁governance
▁Animation
▁alignment
▁Hamster
Pad
+00:00
▁Ghana
▁slay
built
▁FCC
▁rolls
▁dropping
▁Wrap
KV
▁recite
woven
Isa
▁colony
▁validity
▁Karen
306
▁tailored
▁Amp
▁playback
▁lament
▁Neo
▁MDF
nger
-400
jiang
▁Returns
issa
▁pH
(10
IPS
▁Viva
801
▁Reward
fil
IRE
5.2
▁visualize
▁Direction
licit
▁1906
▁(16)
▁Firm
▁(23
▁fuels
▁Alone
▁supportive
NV
▁Legends
Site
▁156
▁displaying
▁literal
▁Canton
▁Café
▁Cuisine
▁Headquarters
▁Orchestra
▁Relief
▁concierge
▁financing
▁graduating
▁predecessor
▁steep
▁Yobt
▁Decorative
】【
▁inviting
▁sunshine
▁Mounting
▁Stanley
▁Quantity
▁Casual
▁chasing
▁Viking
▁Shark
▁remembering
▁KS
JI
▁comfortably
99)
▁boundary
▁Honestly
fight
▁Virus
▁Carlos
Search
season
pat
▁Tutor
▁bouquets
▁Protector
▁Qui
ife
▁underwater
▁Answers
number
▁129
-36
SEC
▁warrior
▁assumption
▁obstacle
5.7
▁Mich
▁parental
aunt
▁sucks
▁opponents
pair
greg
smith
ndi
etta
HT
▁186
▁Originally
▁Selling
▁extensively
iza
▁supplying
Shi
▁Rin
▁bridges
▁Magnet
▁tracked
Phil
▁Secrets
▁Listing
▁Adjuster
HY
kk
clus
▁EMC
eem
▁Raj
Bs
▁Seminar
ologies
ée
▁Din
▁abused
5.1
scribed
▁Queens
vey
▁Cle
▁Awesome
▁Beverage
▁Nandrolone
▁discomfort
▁identifies
▁velocity
▁Sacred
▁penetrate
▁revival
▁Huawei
▁Ugly
▁yarn
▁Approach
▁Arbitration
▁buddy
▁Population
▁Balloon
▁Sharp
▁waking
▁Belize
▁Jeong
▁tutor
andro
▁Gauge
156
▁extinction
335
▁Sem
paper
leading
Mr
▁Huge
October
▁Presentation
▁limb
116
▁Stella
207
▁physicians
▁geographic
▁Rush
▁whosoever
▁critic
Hot
▁jokes
▁mins
▁Makeup
▁neglected
▁revealing
▁Advantage
▁variation
▁Backpackers
00:00
▁eva
▁Kits
▁yea
▁newsletters
▁Mut
upon
Start
▁#4
430
▁Goods
NESS
▁Tat
ocratic
▁patented
234
▁sounded
rik
▁Avi
▁HF
atu
▁impose
▁Perth
▁RH
▁pond
Dental
▁7)
tica
fusion
▁Brook
▁Barn
▁Berkeley
▁Fountain
▁accredited
▁dwelt
▁educator
▁laboratories
▁proverb
▁Capitol
oluble
▁defensive
▁Claire
▁steward
▁LIFE
▁centimeters
▁Granada
wei
▁businessman
▁vending
▁Qi
▁Leading
▁Sinai
▁disbelievers
Any
▁Disneyland
▁Cove
▁Handling
▁Absolutely
Cause
interest
yung
▁Chal
gene
▁accumulated
▁Tie
▁willingness
Teen
▁Employees
GH
▁Brick
▁Kel
▁ordained
403
▁Sec
plastic
▁realizing
aux
workers
▁McG
▁Result
▁proposals
▁FD
▁!!
▁genuinely
State
▁Meters
▁Talking
▁Molding
their
OY
▁Todd
▁LV
wai
▁Finn
▁Elect
▁mag
▁Viewing
98)
▁Maxim
▁RIGHT
▁Typical
▁202
370
×1
rity
▁Span
▁pee
▁Concrete
▁Ephraim
▁Threat
▁advancing
▁clause
▁decentralized
▁inevitably
▁pharmacy
▁surviving
▁Aurora
▁LinkedIn
▁goddess
▁inflation
▁deleting
symmetric
▁freak
▁replies
▁rides
▁Console
▁intervene
▁Pedro
▁Friendship
▁motto
▁rig
amba
▁fri
▁obliged
▁madness
▁Pul
▁goat
▁Cum
▁gallon
gui
▁Gender
family
•
▁Ephesians
▁segments
anne
▁Lima
▁Shows
▁substantially
▁pc
OUND
▁Garage
-75
GHT
▁questioning
▁Banks
▁154
▁HPE
▁Rings
277
▁worthless
▁(28
▁conditioner
2.6
▁dough
▁differential
▁dia
▁raises
▁damp
▁incomplete
shell
▁Salon
▁ICT
4.3
JA
▁Guys
▁Hara
▁Dish
▁hopeless
▁Sao
▁Brands
▁PCI
cop
▁CHA
War
▁marriages
▁1994.
166
▁Serve
▁Vari
▁$15
▁scales
999
▁Personally
▁halls
AWG
▁fires
▁Exodus
▁pressures
▁rob
536
▁Adopt
▁accessing
▁fertilizer
▁ordinance
▁Infrared
▁Samaritan
▁guiding
▁peculiar
▁proletariat
▁ridicule
▁synagogue
▁Teresa
▁Rwanda
▁Nagasaki
▁wrongdoing
▁striving
▁Miracle
▁Richmond
▁decay
▁Boiler
▁Random
▁Guidelines
08)
▁Pom
▁Motorola
▁에
series
▁PLA
▁Panda
▁submitting
pressed
▁Ted
▁Beef
▁Serbian
▁WAS
Whoever
special
50)
▁Talent
▁Tubes
▁footage
7.6
▁sacrificed
▁Shen
▁deepest
section
found
enna
="2
▁Useful
▁redeemed
▁husbands
▁Perl
▁alpha
▁behavioral
▁sanctions
comp
▁Boom
▁homeland
▁Minute
▁카
song
275
HK
oxide
▁Nay
276
▁soak
1.00
▁assumptions
▁comedy
election
▁195
LG
▁fighters
▁Provides
IEC
▁MAX
▁installations
▁persuade
▁upside
▁reproduce
▁ghosts
mia
▁rein
▁Herod
▁Flo
HAN
▁knowledgeable
▁Abuse
▁Minor
▁tabs
▁Malay
Mom
▁Ecuador
▁Radisson
▁Salvador
▁Ninja
▁Diploma
▁Missouri
▁Competitive
▁EmpFlix
▁Throne
▁ecological
▁Pillow
▁Eurail
▁Saigon
▁Duplex
▁Throw
▁armpit
▁Handheld
▁ornament
▁subtitle
▁crab
▁Equal
izu
▁intact
▁reproduction
▁exporter
IND
▁Hood
▁DVR
System
Everything
French
▁Atlas
2007
vine
▁rewarding
▁Hama
mur
OLD
▁Blo
bond
▁LL
▁Dive
▁Commandment
▁SJ
▁offended
▁wellness
▁Myth
kata
▁Instruction
▁Instrument
DER
▁Jake
▁References
003
Class
▁Km
▁Oz
tification
▁flooring
▁clicks
▁Kates
Press
▁Investors
▁6:1
RON
▁goats
▁HOL
USB
Photo
▁inspect
▁prophetic
aq
▁-1
▁Heavenly
▁expire
dot
▁alleged
▁Rib
vil
TIC
gur
▁Rabbit
▁Alabama
▁Athletic
▁Cleveland
▁Millennium
▁Palestinian
▁cameltoe
▁illumination
▁migrants
▁releasing
▁steak
▁Oasis
▁mist
▁Kuwait
▁fittings
▁Cameron
▁Mitchell
▁Lecture
▁masterpiece
▁1-3
▁DF
▁scent
cheng
▁Mali
▁vein
▁convicted
▁Accordingly
▁Specialist
▁Zhejiang
▁Hardness
▁Pissing
▁Directors
▁wallpapers
▁stall
tool
▁Georgian
▁excuses
itted
god
bou
▁Luna
Graph
▁Stable
▁mac
▁PER
▁bass
▁enhancement
lecommunications
Son
▁twink
▁adopting
640
▁Toward
▁Maya
(3)
▁historian
▁competitor
cou
▁saint
▁pillar
▁Michel
▁Conf
/19
▁headache
▁surrendered
▁Sau
nium
▁plugins
▁proceeded
AVE
▁Washing
▁endured
157
▁LIVE
▁hears
rak
▁cleared
9.7
ipped
sym
▁Sands
▁yards
▁backgrounds
aster
▁WR
root
cation
▁documented
▁Prof
▁Issues
▁Libya
elo
▁Latvia
▁Jude
▁respectful
2.00
▁origins
▁zeal
▁Edwards
▁Basket
▁accustomed
▁commodity
▁crossdresser
▁inexpensive
▁investigating
▁rejoicing
▁steadily
▁Twelve
▁arbitration
▁Infinite
▁Guinea
▁Lam
▁Landscape
▁Ferries
▁defender
▁disposition
▁Forgiveness
▁Bryan
▁HAVE
173
▁chess
▁predictions
▁Ranger
▁ideally
▁Riverside
citation
▁Punta
mobile
▁Mighty
▁RPG
lingual
phen
double
▁157
▁Grandma
▁(20)
▁decor
fuel
Right
▁CRM
▁Marcus
Year
189
▁disasters
▁Perv
▁MOD
ulf
▁href
▁Neil
▁Lemon
Mainland
▁Chance
storm
bai
▁Zoom
-2016
▁frog
▁151
▁diagnose
▁novels
ía
▁2018)
▁147
▁entertaining
TOP
▁Toner
▁Billion
GER
9.00
ishi
▁Joan
▁housed
-2000
▁Clients
trade
▁sufficiently
▁adjustments
▁200,000
WF
▁Gab
▁Lucia
▁Sundays
▁dash
ffle
▁PRE
▁Coal
▁economical
rule
▁exalt
▁derive
▁ETH
erial
▁Traveler
▁Wallpapers
2008
▁Tren
▁Mongolia
▁Julian
▁Lite
works
▁elastic
▁Stud
▁Masturbation
▁Qingdao
▁Roosevelt
▁coconut
▁hypothesis
▁loneliness
▁pedestrian
▁Bolivia
▁Climb
▁rainbow
PLA
▁slippers
▁Holmes
▁Modified
▁Beatles
itude
▁kW
▁nightclub
▁motel
sam
▁Pac
▁Danny
▁Replace
▁Highly
▁05:30
[12]
Exodus
▁Wonderful
▁torch
▁1985,
shift
▁Broad
▁Nicola
centric
▁Kiss
▁basics
▁seals
Never
▁progression
TES
▁Rum
▁85%
▁emphasized
1-4
iku
▁institutional
keeping
▁counterpart
Reg
▁bending
▁Bund
▁duplicate
▁Nav
RED
▁molecule
▁athlete
▁Dock
▁163
▁provinces
▁handful
▁8.4
▁likeness
fine
▁Fried
▁Firstly
UG
▁venues
▁jointly
▁hood
9.6
▁funded
▁Cheng
▁Reich
▁addict
Low
kha
▁Hmm
▁Seller
▁backing
▁Hiro
▁motivate
▁coupons
▁Fake
▁Petro
▁Gam
▁nap
0.000
▁demonstrates
▁willingly
onne
▁Cliff
▁Traveling
▁2011).
▁Stein
iba
▁potato
▁2017)
▁Abstract
▁SOLIDWORKS
▁custody
▁nephew
▁residue
▁mysteries
▁crawl
▁VIDEO
▁grandchildren
▁violin
▁Lucas
▁Soldier
▁RAID
▁1250
▁coefficient
▁inward
▁Sto
▁wildlife
▁Martha
▁Lucy
▁8,000
▁Programming
▁Somebody
▁Paulo
▁Clothes
▁transferring
▁Founder
gold
▁Greetings
▁Candle
▁Globe
hart
▁Secondary
uli
▁Beast
▁spine
mag
pressure
▁Duck
production
▁struggled
▁temper
▁Lind
▁152
▁realities
dol
handed
credit
▁disappears
▁Listening
optional
▁FP
208
super
▁puff
uber
312
▁compliment
▁awe
▁Sodom
OH
501
▁Herb
soever
▁switched
▁Weekly
▁$9
▁Fisher
UX
ANO
▁Calle
▁surprises
▁dam
▁devote
server
metry
▁Vent
▁deepen
787
▁shareholders
▁satan
EGA
-85
▁Rare
▁repairs
TEC
▁Slovenia
▁compute
▁dots
-500
lav
▁PPT
▁Arrival
▁Guatemala
▁Nicholas
▁Universities
▁Zimbabwe
▁cemetery
▁inflammation
▁remembrance
▁thieves
▁underestimate
▁Ralph
▁Upskirt
▁unconditional
▁Separate
▁distributing
▁metadata
▁breathtaking
186
▁Orient
▁Ridge
▁Michelle
▁blur
▁transforming
▁Ramada
▁NFL
▁embarrassing
▁04:00
▁Ritz
▁NFC
▁SAT
▁Wh
▁CITY
▁Reverse
▁Interestingly
▁deter
▁Teens
▁Mormon
▁Thick
▁Fighter
▁defending
gb
▁safest
famous
★
ADA
▁RD
▁Ville
▁idol
▁Combined
▁Projects
▁inclusive
▁Pair
▁vest
▁crushed
Big
165
▁hats
iao
▁주
▁atoms
wig
▁patiently
535
▁pirate
▁Ang
▁rushed
▁embraced
lance
▁shallow
GT
302
▁0.05
▁Consult
▁Buck
shoot
GIS
bc
▁CAM
▁beverages
445
▁Milano
158
zawa
rup
▁Nude
▁sect
▁Sue
770
▁universes
Back
▁40,000
camp
▁revenues
▁norms
▁Mou
▁thesis
94)
▁surge
psi
ín
ür
▁earnest
▁freed
▁Assessment
▁Intermediate
▁Palestine
▁assemblies
▁biblical
▁deceased
▁receptor
▁swedish
▁vampire
▁Protein
▁spider
▁Lennon
▁peers
▁stitch
▁milestone
▁Labour
▁Monica
▁Frequently
▁kidding
▁Uniform
▁visualization
▁Phen
▁Boo
▁03:00
▁Telecom
▁extending
▁Abi
evi
▁Reef
iano
zzi
▁FTP
December
Father
While
▁tester
NER
▁Disable
▁143
▁imports
operative
▁Notification
▁Diana
164
401
Know
owner
million
▁commented
▁Mela
▁horns
TEN
saw
▁scripts
qi
▁215
▁4:1
▁Needle
▁hail
dependent
▁removes
▁mice
▁whale
▁phenomena
820
+2
bok
▁mapping
▁Quin
unit
▁SG
lite
RPM
▁Gifts
lapse
ody
▁condo
▁worsen
travel
wo
▁Psalms
Host
510
▁..."
▁PRODUCT
▁Volt
▁inherent
▁delightful
▁audiences
▁overthrow
▁prizes
here
ently
▁sovereign
▁corpse
▁sweater
▁Corrugate
▁aquarium
▁multiplied
▁swept
▁uncensored
▁Oregon
▁nozzle
▁defining
▁insulin
▁Owen
▁grammar
163
▁catfight
deluxe
▁Silence
▁1973,
▁Craig
▁Pharma
5-8
▁firmware
▁Sakura
▁Tommy
▁humankind
▁overwhelmed
▁Reset
▁worshipped
▁elevated
▁Yale
Mail
Global
Text
mei
▁imperial
tang
▁(17)
▁shouted
▁Brew
▁intern
▁Superman
▁countryside
153
▁newborn
kou
▁Mason
ibi
▁Cassi
▁prospects
▁Sever
▁applicant
▁underway
▁Adv
Hand
191
▁breeding
▁emission
▁organism
Control
▁burns
▁Advantages
470
▁scr
▁doses
APP
lean
tero
▁counseling
▁Ratio
!—
Sex
▁seize
ieving
▁Lastly
▁Earl
▁oversee
▁mindful
▁Republicans
▁INT
crypt
▁tier
▁environmentally
▁extracted
▁pub
▁delegates
cryptocurrencies
▁Compliance
▁Zechariah
▁recompense
▁subsidiary
▁Stretch
▁cubits
▁queue
▁Uganda
▁Pricing
▁haunt
▁Mercure
▁wifi
▁colonies
▁priesthood
▁Angry
▁Amber
▁envy
▁$200
▁playground
Du
▁knot
▁TN
▁Networking
▁planting
▁Pirate
▁Wol
-2018
px
▁backpack
▁contaminated
zilla
▁validation
▁Suck
inus
▁accommodat
▁expired
NCH
▁Comic
▁8.2
▁economically
Super
▁tilt
▁PAGE
▁DD
RH
hear
ibe
moving
Like
▁Yen
▁Crush
▁430
▁affiliated
▁awaiting
▁Critical
clean
WEB
▁Fig
▁align
▁mul
▁(14)
▁BW
ppo
▁Cache
▁HQ
▁Tac
▁blossom
Safe
▁Graphic
▁monkeys
▁[4]
▁보
▁suburbs
▁Trap
▁TU
▁comb
▁Franco
▁Sofa
Log
▁4.8
zip
▁commissioned
korea
▁XM
146
▁rabbits
▁Hira
small
▁Nun
▁Northwest
242
lake
▁Sold
Cho
▁Cala
▁TOEFL
▁Nursing
▁Suggest
▁Banking
▁unlawful
▁meteor
▁Mong
▁fetch
▁Advice
▁knight
▁Neg
▁rainfall
-37
▁Partition
▁Composite
▁Variable
▁appropriately
flux
▁ACC
gay
▁Eun
HQ
.7)
▁rip
▁oppressed
▁elector
▁Heels
▁dynamics
▁Cage
▁(27
lc
Support
depth
health
growing
Yeah
operation
▁violations
▁toast
▁bestowed
▁hopeful
Unix
Full
▁kits
505
192
alone
▁RV
.[4]
147
2-3
▁recommends
167
▁breasts
▁imply
▁conception
▁transported
▁GU
ZA
▁flames
ISE
▁Commons
▁164
▁COR
▁infants
▁SFP
▁Wellness
▁Alexandr
▁Slave
zon
▁mines
FU
▁terminals
TURE
▁Broadcast
▁equi
cup
▁zip
▁converting
▁fairy
▁basin
▁Rogers
▁alerts
astic
▁needy
▁poles
▁uphold
▁conc
Term
▁Tumblr
▁Conversation
▁Identity
▁Ulitsa
▁aggression
▁clarify
▁marathon
▁optimistic
▁peninsula
▁vulnerabilities
▁dairy
▁adorable
▁rotating
▁predator
▁Algeria
▁acres
▁wiki
▁chew
▁tallest
▁painter
▁Botanical
▁Unix
▁shocking
ushi
▁waterfall
▁sul
▁Bulgarian
보기
Plus
▁capsules
Drive
sensitive
taking
▁digits
303
vio
▁Slovak
▁accompanying
BOX
▁Kissing
▁tide
Maybe
▁curl
▁beforehand
004
▁Shirt
▁Transit
did
▁inquire
▁Fighting
rack
▁Retreat
▁witnessing
▁mailing
▁peacefully
ucker
▁Instructions
Ko
▁investigations
570
▁ip
▁suggesting
▁Shy
▁Credits
▁Assyria
▁hunter
▁angles
▁Jesse
▁Dist
▁Nero
ovich
406
▁fulfil
hydro
▁Musical
▁Keeping
▁mechanics
BET
▁crowded
▁Utilities
▁Alibaba
▁Bolshevik
▁McAfee
▁Pavilion
▁Welfare
▁acoustic
▁deficiency
▁disobedience
▁registry
▁terrified
▁literary
▁simplified
▁Dispute
▁smiled
▁rugged
▁Reports
▁Regency
▁Mir
▁podcast
PET
▁Hakone
▁energies
▁arising
▁Aircraft
▁Astro
corn
▁Luis
rome
▁Serial
▁coward
▁quad
▁deliveries
▁cows
▁Hire
▁catching
178
▁fixing
▁thirsty
▁Armor
▁uniquely
especially
Special
3.8
citing
meters
▁EPS
▁indicators
▁interrupted
▁Blast
Pass
gain
▁Tracker
▁assisted
▁Node
Sat
▁insisted
▁helpless
medi
▁8.6
Lu
▁Artists
▁Representative
-88
96)
▁Rewards
TEX
misunderstanding
▁historically
▁Afghan
▁exclude
BY
ORD
Em
▁Kum
▁Functions
▁Starter
▁UE
CY
grand
▁Circ
▁Participat
osi
▁marvel
▁Pneumatic
▁Wisconsin
▁discreet
▁enclosure
▁investigator
▁lyrics
▁refrain
▁suspicion
▁ventilation
▁withdrew
▁Hudson
▁Hitachi
▁comrade
▁microscope
▁antivirus
▁Gloss
▁Detection
▁txxx
▁Yarn
▁Gather
▁Chuck
▁thoughtful
▁Kyung
▁HERE
▁Edo
BIT
▁cone
▁Rolex
▁Huang
▁NGO
hye
▁Fame
▁relies
▁drawer
▁groom
▁Hom
▁sized
▁Persons
4.6
▁Delight
auto
▁Piston
▁baked
▁Receiver
cultural
stitution
Adult
▁Afterward
mouth
▁explanations
172
▁Heh
228
▁Chemicals
Light
▁responds
▁traitor
pub
▁recordings
imple
bio
▁rot
deal
▁JU
▁Paid
founder
▁thrill
limit
tropin
▁Accounting
▁Adding
cine
▁Commissioner
▁Listings
rap
▁Sul
▁Basel
-52
▁administer
▁explode
▁AAA
▁forums
▁pronounce
▁Relationships
dori
ury
666
▁Forgive
▁Killer
▁maxim
▁smells
draw
▁Divorce
▁Fantastic
▁apparatus
▁arguing
▁convincing
▁prophesied
▁vocabulary
▁genome
▁licence
▁Palazzo
▁racist
▁infectious
▁assuming
▁spindle
리아
▁smash
▁pornography
yoshi
▁worthwhile
▁generic
▁hash
▁Regulations
▁Queensland
▁patron
▁Obtain
bacter
▁Nancy
▁Seems
NX
905
AIR
▁Lotus
:1-3
▁9/11
▁OUR
▁Nike
▁playlist
Date
▁Covers
143
▁Rim
conscious
09)
▁Keys
▁hypo
jah
▁steering
▁Allied
▁Deutsch
Since
▁gum
▁boil
▁Analog
allow
▁pickup
▁tents
▁Milling
lkaline
bah
▁Needs
▁Westin
▁viewer
▁attained
▁Liber
▁sailing
-150
true
DAY
selling
▁prompted
▁KT
▁jumping
▁lifelong
input
▁historians
biotic
▁editors
▁Hut
▁Colon
▁critics
kong
▁tighten
▁2006)
152
▁rim
▁Teachers
2003
▁ox
▁speciality
▁35%
ernal
008
▁Kick
▁Searching
▁Aga
▁enroll
▁inhabit
▁bowed
▁FU
▁Fittings
▁GH
▁Breaker
▁Ratings
▁Armenia
▁LIN
▁suffers
MY
▁centres
▁Investigation
▁Stewart
▁eclipse
▁mosque
▁Reveal
▁kilogram
▁exotic
▁Hannah
▁rotary
▁Evans
▁Adrian
▁humanitarian
606
590
▁NATO
▁retailers
▁3.4
16:19
2-6
▁Mol
▁CRE
▁keywords
▁fashionable
▁quicker
▁greeted
▁antique
why
buck
[2]
etsu
ott
▁gig
▁Alexa
RAN
mani
▁1911
▁404
ih
▁collectively
nin
▁6:9
destin
▁Compos
MON
ryl
▁Guan
▁MV
▁ASP
▁Citizen
▁raped
▁158
▁}}
▁accompany
660
▁Tub
▁ART
▁Trim
6.3
thank
eria
▁initiate
▁electrons
▁affiliates
▁lions
▁uncover
▁MG
▁2019)
▁Ec
▁Plans
IAL
▁hurting
▁bourgeois
iter
6.0
▁Bethlehem
▁BlackBerry
▁Chronicles
▁Elevator
▁Excellence
▁LANGUAGE
▁Opportunity
▁Penetration
▁Possible
▁Salzburg
▁celebrities
▁deficit
▁psychic
▁stimulation
▁unchanged
▁wrinkle
▁미국
▁sliding
▁Ripple
▁restoring
▁Surround
▁Examples
▁rehabilitation
▁arcade
▁PlayStation
▁(2014)
▁Frederick
▁Stereo
▁Lightweight
▁immorality
eira
▁clash
▁Fiji
▁Passport
▁Billboard
UST
▁GDPR
▁amendment
▁deception
▁Nearby
▁Bookmark
Wire
mari
▁Ost
▁UX
Gold
▁Judea
▁hereafter
▁Perry
EV
IONS
▁enduring
factor
▁clearance
▁sorting
dynamic
▁COP
Hear
▁Trick
386
▁Sept
780
▁Wick
▁Lime
▁IPv
▁Mam
▁mansion
▁Doors
▁cliff
▁Known
▁Rou
▁Lap
▁billing
2004
▁Angela
▁APIs
▁Liu
oba
▁Lotte
▁bloody
touch
THE
▁Pala
▁spheres
▁RAW
▁Git
▁Laos
▁8:30
▁1913
▁3+
990
asi
▁8.8
▁flavors
kka
Care
▁Develop
rip
▁Carry
complete
▁exercised
▁Trying
6.4
wang
7.7
▁signatures
▁deliberate
WAN
288
▁가
▁Orders
▁Manufacture
▁equations
2-5
▁Clenbuterol
▁Dolphin
▁Producer
▁maturity
▁transistor
▁voyage
▁Companion
▁Dresden
▁Trouble
▁accusation
▁proxies
▁voucher
▁routing
▁TYPE
▁cosmic
▁inclusion
▁Gambling
▁nonsense
▁integer
▁Stroke
▁consistency
▁conquest
▁finite
▁Underground
▁thanksgiving
▁Simulator
▁Allies
▁Torque
▁shutdown
▁reuse
▁Diode
▁Maritime
▁Crew
▁BBW
▁Sally
▁Ner
KM
fair
▁Divide
▁dissolved
▁Linda
▁cleansing
▁allocated
LIC
sys
▁sho
▁Fest
▁competitiveness
▁sheer
▁sewing
▁Blake
▁Suppose
▁sack
construct
218
fruit
▁illnesses
181
▁Tubing
▁cleansed
▁tissues
plication
▁atom
▁constitutes
gee
▁20:00
vig
▁Desi
▁2025
▁philosophers
▁1:00
777
▁Rip
▁herbal
▁pastors
540
yle
▁poorly
EMS
▁sadly
▁grains
urin
▁Channels
910
▁Equi
▁conserv
▁Pea
50%
chlor
▁Albania
agin
▁analyzing
▁cautious
▁declaring
▁feminist
▁immunity
▁inadequate
▁kindergarten
▁merchandise
▁pyramid
▁Reliable
▁sponge
▁allergic
▁Yacht
▁Nashville
▁compelling
▁Signature
▁Pablo
▁coupling
▁Newspaper
▁infringement
▁acne
▁Diving
▁Nagano
▁leakage
▁Aki
▁rude
▁Satin
▁proudly
▁Bobby
▁stances
▁hottest
▁handheld
material
307
▁Lumen
▁Pride
▁Parties
▁1903
▁Loved
▁prone
▁Warner
▁Lynn
▁Bach
Would
▁PK
flex
Download
346
005
▁Setup
▁Methods
▁Fuse
▁admits
▁Idea
690
▁Sole
rier
Top
▁denying
299
ctic
▁1,200
▁polish
Long
filled
▁handsome
▁NOTE
ouch
>>
cool
▁React
/18
rma
thin
Tu
Live
▁smiles
▁Kok
▁activist
▁vendor
▁VIEW
▁grandma
▁stag
DEX
fri
▁Happen
8.3
▁outlets
901
western
SER
▁Nad
▁Sealing
▁Initial
▁Transform
▁robber
rice
flat
▁bearings
Main
UAL
▁Fellow
▁clan
▁washer
▁Chemistry
▁bukkake
▁embassy
▁hockey
▁Kensington
▁amusement
▁Nissan
▁elbow
▁enthusiastic
▁IEEE
▁Frost
hawk
▁Kansai
▁Forecast
▁internship
▁Compression
▁zealous
▁neurons
▁CFD
▁thyself
WAY
▁Monaco
▁07:01
▁Mommy
gul
-55
▁Ranch
process
8-9
setting
][
▁Petit
▁22:00
▁duct
▁NR
▁adaptation
▁emit
signed
▁planner
05)
Nothing
Talk
flo
▁Developing
▁Chapel
matsu
Close
▁spit
▁Melt
▁Sixth
▁Blend
196
ambo
▁Nit
▁3-4
810
▁PG
machine
▁2400
▁synthesis
Cap
pies
alter
▁MW
enko
abe
▁WO
2500
▁Bend
359
▁headset
▁engineered
▁Residents
2°
▁Rust
▁proceedings
▁2009).
▁arena
2001
▁AMP
▁Confirm
loaded
▁blamed
kun
217
▁Turner
▁Rocket
▁QU
access
▁exempt
▁deserved
▁donate
▁Elements
▁Anchor
▁Leopard
▁Niagara
▁Platinum
▁Stupid
▁circum
▁disregard
▁fabulous
▁imprisonment
▁turkish
▁nickel
▁Guidance
▁Butterfly
▁Omega
▁saggy
▁TitsBox
▁successes
▁ROHS
▁Seafood
▁Terror
▁advertise
▁pouch
▁Atomic
▁manipulation
▁Insertion
▁50/60
▁Harrison
▁Improvement
slave
nick
▁duck
▁indirect
▁betrayal
▁Wright
▁7,000
▁==
▁Cosmo
▁VGA
▁WT
▁frightening
▁bake
▁founders
roma
▁Bare
▁shaken
▁sharks
▁flo
▁Greenland
Uni
▁hometown
▁viable
lude
admin
Script
보
release
▁ESL
("
269
Pr
▁winding
▁BUT
*4
060
aza
▁Bir
▁315
182
142
▁professionally
▁204
▁161
▁dresses
▁141
490
iller
▁Belle
706
cci
dad
III
▁balancing
331
▁Centro
▁Echo
▁15,000
close
vas
▁Script
Pu
▁indulge
NH
272
▁modifications
3.7
LET
▁ZM
▁Vital
EVER
poly
Ju
▁gamers
▁Demon
▁clearer
cz
▁internally
bye
▁Wool
▁lib
▁warmer
jeong
▁recipes
011
스트
▁fog
▁Innovative
▁Tropical
▁champagne
▁precaution
▁Automated
▁expenditure
▁increment
▁tidings
▁Mystery
▁Bahamas
▁destined
▁Mattress
▁apology
▁Scholarship
▁Stefan
▁Oslo
▁cling
▁Panzer
▁Fleet
▁eternally
▁SunPorno
▁Ronald
▁spacecraft
[14]
▁Revolutionary
▁vanity
-120
▁rented
▁1896
▁entrusted
2.9
▁disruption
▁205
▁wishing
▁Mongol
▁Presidential
kV
▁Shah
▁monuments
RB
STA
Girl
▁erased
Smart
▁비
fat
▁confronted
▁sticks
▁9.0
short
France
something
▁19:00
▁Residences
▁187
▁Poster
refundable
▁exhibitions
Dupe
clear
▁Erik
▁protests
▁TRI
HER
▁visually
▁188
▁forcing
80°
▁inserted
jung
▁Locker
▁triggered
▁Buyer
agged
TEL
▁PB
/13
▁{{/
▁Roth
large
▁SATA
▁Nest
▁pun
▁keyword
TG
oso
▁qualifications
▁EDM
string
▁beard
▁MH
▁recreation
loo
▁Zambia
▁manipulate
▁Morris
▁hon
▁Bristol
▁Ceremony
▁Majesty
▁Mississippi
▁SPECIFICATIONS
▁glimpse
▁scenic
▁twentieth
▁ideology
▁meditate
▁Statue
▁Cardinal
▁Guitar
▁OBD
▁endorse
censor
▁Costume
▁Specifically
670
▁Species
▁proving
▁shaping
8000
▁Banner
▁gangs
▁nationwide
▁banana
democrat
▁Brooks
▁flags
Meetup
pharma
▁losers
atta
▁Skill
▁4.7
▁prolonged
-2-
▁POV
kid
oiled
00000
▁outlined
▁possesses
Western
different
337
▁weakened
▁Solve
kindness
wife
▁POP
Off
▁terminated
▁159
Color
▁Camping
▁transformer
351
▁11:30
OEM
3-4
▁Bert
Auto
▁shadows
▁tense
▁chic
headed
▁woe
OVER
▁Dame
▁tract
257
▁rumors
Code
▁Jungle
▁lid
▁25,000
▁informal
▁Sisters
bba
tung
▁symptom
▁toaster
▁Aside
nim
▁builders
those
▁shipments
▁Arms
171
7.4
176
fare
▁Matte
▁Celebrate
▁Embedded
▁Evidence
▁Frozen
▁Jakarta
▁Kyushu
▁Marrakech
▁Sukhumvit
▁arrogant
▁astronomical
▁feminine
▁quarrel
▁skull
▁Claim
ntercontinental
▁Tallinn
▁tactics
▁snapshot
▁2015-05-0
▁piston
▁Residential
▁Murray
▁proposition
070
▁IMF
KJV
▁sincerity
▁Strapon
ulus
zzo
▁standpoint
▁fireplace
▁172
▁cough
▁Siam
▁Publishing
▁Typically
▁Annie
▁continental
▁adjusting
▁KG
▁mixer
Simplified
▁Kita
▁206
ival
cuff
3-1
▁embark
istan
【
House
279
▁Swa
-800
MAT
/2015
▁epic
▁graphical
▁Deleted
▁shouting
▁WORK
▁Streaming
▁Youtube
player
vian
▁Kirk
▁Mao
1800
▁Chuo
7.9
▁$30
circ
308
▁debts
▁Kre
▁Burning
▁Managed
▁Prev
▁spared
borg
▁Hae
fps
▁Employee
▁4:4
▁staring
▁diminish
▁Dryer
▁herb
▁5:1
×2
▁Pai
gori
▁flush
▁pointer
▁Goals
▁aerial
▁Fil
▁contempt
▁recognizing
▁attentive
▁cottage
▁spatial
▁wreck
▁Mercury
▁dominion
▁nasty
▁Jefferson
▁ANKO
▁integrating
▁abode
▁Conservation
▁Lay
▁annex
▁Tranny
▁advertisers
▁scanned
▁Rugged
▁fireworks
▁Guess
▁Ensure
gata
▁impart
▁Landmark
▁Rhodes
▁editorial
JU
▁barcode
▁digest
▁Gregory
▁unwind
▁06:5
▁Armenian
uzz
▁Engineers
▁Tara
▁POWER
▁Lid
▁disturbed
▁Chinatown
▁tournaments
▁Drag
▁championships
▁estrogen
▁wow
▁Celsius
▁explored
▁chickens
789
▁Received
▁recorder
Sharing
controlled
▁contributes
ltd
VP
isse
▁Novel
Design
▁fruitful
▁plainly
Based
▁dataset
▁Someday
dead
▁Fran
▁STR
▁worshipers
▁incoming
▁Audit
446
HB
gree
262
▁ray
WD
▁dim
▁Rentals
▁2,500
▁pads
JP
▁contradict
EZ
▁defendants
▁tailor
▁considerations
▁immoral
▁(18+)29
▁Turks
ovsky
▁Employment
▁Lazarus
▁Manasseh
▁Nonetheless
▁awkward
▁compulsory
▁extrusion
▁spandex
▁squeeze
▁Dakota
▁american
▁Dongguan
▁carriage
▁queries
opposing
▁lottery
▁shiny
▁forefront
▁Siberia
▁Tutorial
▁coalition
8.0
▁Quartz
▁Dylan
▁(2015)
▁repetition
borough
▁Sermon
sei
▁premature
▁Arrow
▁roar
[13]
▁confined
▁GEN
▁Bil
▁Univ
▁formulation
▁Jess
ibo
SIC
▁Silent
-600
▁Saying
▁withdrawn
vac
▁gaps
erry
▁fro
Happy
▁weighed
Series
▁accelerated
▁twisted
berries
give
▁16:00
▁Maha
▁descended
05:01
PLE
▁Tail
NIC
Each
▁401
linear
▁emo
▁survivor
▁Ling
▁153
▁Hate
247
Fun
▁WWE
▁Grain
▁Lei
07:59
▁warriors
▁9.5
bber
▁Topics
▁Shelf
▁WS
Mal
▁2022
▁Quickly
▁restrain
▁Laugh
▁confuse
▁Configure
LAR
▁Absolute
▁RP
Form
▁Advisor
▁Ei
▁hatch
▁recalls
▁Corinth
▁Component
▁Prostitute
▁autonomy
▁breeze
▁embryo
▁reconciliation
▁trespass
▁Ethnic
▁GROUP
▁Myrtle
culinary
▁renamed
▁abusive
▁bamboo
▁Siemens
olin
▁Windsor
▁Esau
▁Housewife
agne
▁sushi
▁JSON
▁142
NAME
uu
Lock
▁discovering
221
▁Cardboard
▁Cork
▁Bosch
▁hardened
▁Princeton
▁KDE
▁Nyc
▁testified
▁Keith
▁criticized
▁Concerning
▁cardboard
zio
***
▁exploded
▁crashes
medical
▁Changed
▁Fact
9.8
quarter
▁polishing
Australia
Daniel
▁Greatest
▁intends
issue
TRI
602
▁mortals
▁7.8
▁snakes
▁Startup
▁11:1
▁Ellis
▁caps
Hun
866
▁credentials
▁datasheet
▁Shame
tera
▁FB
▁debug
▁lined
▁hacking
▁KR
fic
▁pouring
▁assessed
▁analysts
245
▁induce
Sign
ICA
▁employs
▁RM
▁BIOS
▁Deb
owed
.—2
▁foresee
675
tek
▁promo
▁commence
▁shepherds
▁4.6
▁7.1
ductive
sets
▁Forms
▁Mara
▁invade
zzy
CHE
FIN
▁Announcement
▁Computing
▁Lloyd
▁Saviour
▁atmospheric
▁crucified
▁hesitation
▁hygiene
▁psychiatrist
▁testimonies
▁tremble
▁Prussia
▁Smooth
▁typing
▁heap
▁Lucifer
▁gowns
▁Participants
▁benchmark
▁quartz
▁Broker
▁Fusion
▁bareback
▁Ulsan
▁bargain
▁scribes
▁prospective
323
▁zipper
▁profitability
▁Wellington
▁REAL
▁2012)
▁filing
▁reinforcement
▁Darling
▁13:1
▁oak
▁MILF
▁Define
ña
▁08:30
▁Conv
▁Pit
▁contradiction
▁Admin
licate
▁fist
▁Quite
▁Connecting
▁Optimize
▁Translate
▁patches
▁oversight
▁Clay
▁Naked
▁fatty
2005
▁enhancing
▁startups
FOR
▁Marty
▁bathing
▁Turk
▁Trees
▁evidently
▁Across
▁BAR
VIEW
Gbps
include
Office
DVD
▁comforted
bara
fiber
▁wiped
esse
NES
▁tapes
brush
▁Tall
▁1915
FB
feng
▁Hits
lai
▁MF
▁knocked
▁9:30
dev
▁ping
▁hind
625
▁Sandy
pine
▁disturb
trap
................
arium
▁curves
lion
▁Mineral
▁Directions
arr
isco
▁bent
▁kissed
west
▁Franc
zin
▁linking
▁Establish
▁Pav
wara
emic
▁traps
▁scanners
colored
ducing
ogue
oshi
rchaeological
▁Appliance
▁Buddhism
▁Carbide
▁Evaluation
▁HDZog
▁Identify
▁Lumpur
▁bachelor
▁extinguish
▁quench
▁unsuccessful
▁utilization
▁slander
▁unseen
▁peasant
▁demographic
▁unstable
▁Tianjin
▁multilingual
▁exponent
▁FARO
▁Colonel
▁Cheese
anga
▁rebuke
▁Trademark
Han
▁Montana
▁Elastic
▁Represent
▁SEE
▁bonding
184
▁offshore
HM
▁rally
▁Isabel
▁Bearings
▁Alexis
▁Liter
▁mammals
▁Teenage
215
▁filtering
▁Bros
▁Came
▁Cancellation
▁weighs
▁bookmark
1080
▁aligned
were
rigg
▁earthquakes
▁volcano
▁standardized
Dutch
5.9
▁coup
▁bicycles
▁projected
Market
405
▁impressions
Hello
▁Amar
/2019
worthy
▁10:01
▁12,000
193
▁wept
740
nak
▁Notre
254
▁Cham
▁WM
hack
▁fried
▁contr
▁DON
little
JS
▁Pieces
5-6
ISS
▁gladly
▁statu
▁255
Share
Wall
otel
595
mind
▁$25
▁sim
kyu
▁rebels
▁cater
▁10:30
▁dome
747
▁continual
▁SAR
▁NYC
KVA
▁Viewer
▁GIF
▁Cheat
rl
▁2/3
′
▁Bamboo
▁Conveyor
▁Gandhi
▁Lieutenant
▁Melchizedek
▁Membrane
▁Moisture
▁Pentecost
▁SOCKS
▁Tanzania
▁Transceiver
▁admonition
▁executing
▁fragrance
▁satisfactory
▁unbelievable
▁Sponge
▁cardiovascular
▁Crusade
▁ISP
▁therapies
▁Registry
▁headphones
▁Worse
▁Tunisia
▁[+]
▁subtract
▁whiskey
▁Snack
▁grease
▁Campbell
▁Bodybuilding
▁Midtown
▁Hakata
▁Kraft
▁harassment
▁prosperous
▁lazy
▁soluble
▁spinning
▁Appear
▁Surprisingly
▁Cheong
▁182
508
▁Pouch
▁confrontation
▁quo
▁Functional
▁illustrations
/17
▁Harness
▁Jamie
▁Facts
바이
▁accountability
9.4
▁Doug
▁Liz
▁dull
555
▁Interesting
Italian
while
▁Broadcasting
manufacture
Google
▁GMP
offering
▁honorable
▁Letters
Okay
▁Camel
209
Once
▁mainland
▁hacked
▁Contain
▁medals
keep
pira
▁(25)
▁179
hmm
▁177
▁designation
▁settlements
save
▁(21)
team
701
687
▁Ep
▁5.8
inning
▁Supplements
ITA
▁scatter
tronic
DX
▁Greeting
▁Benefit
▁Lose
▁Pale
▁Memphis
▁Nevada
▁barbecue
▁capturing
▁optimum
▁wrought
▁Arnold
▁fiscal
▁UHF
▁examining
▁victories
▁neighbourhood
▁Thunder
▁spokesman
▁Christchurch
▁chastisement
▁Pallet
▁snare
▁proactive
▁descent
▁Falcon
INO
eating
▁Gum
▁integrates
▁Audition
▁unsafe
▁blades
▁Sanders
lug
▁blink
[16]
buy
▁dietary
▁Operator
▁Terry
XP
▁carved
▁Reap
laughs
▁Mura
▁warmly
▁Otto
▁bedding
ready
▁Robots
▁Fail
▁centralized
▁Adjust
▁Chiller
▁Yard
▁Buzz
▁183
▁inhibit
▁Babylonian
▁2050
▁Julie
▁reflecting
▁Promised
▁808
Galatians
business
Single
▁surveyed
LR
hydrate
▁Arabian
▁announces
231
quo
075
Sur
▁Classes
▁Rover
▁Photon
(6
▁301
▁priced
▁Deity
▁traces
▁Mast
▁167
▁assignments
▁flocks
▁Cure
▁Recorder
API
/25
▁Highest
▁AAC
▁remotely
until
▁HT
▁rejoiced
oki
mom
▁flex
ensive
▁FAQs
▁Tiles
▁anticipate
▁enlarge
▁portray
served
1-8
▁lacked
▁MIT
▁plea
▁daylight
earth
▁tranquil
gmail
qual
사이트
▁Applicable
▁CMYK
▁Difficult
▁Efficient
▁Forklift
▁Kiosk
▁Tennessee
▁commodities
▁corridor
▁ignoring
▁liquor
▁nucleus
▁respiratory
▁skeleton
▁Calculator
▁chassis
▁Sliding
▁Champagne
▁upgrading
▁pupil
▁Shrink
▁Citrix
▁Policies
▁uprising
▁cybersecurity
▁Twist
▁fibre
strasse
▁mistress
▁Vinyl
▁(2017)
▁wafer
▁quiz
▁Sunrise
▁Sitting
▁reconstruction
▁fragment
▁omni
▁riot
▁Income
▁periodically
▁labeled
▁accessibility
▁Spell
▁committing
▁Gyeong
▁dependence
▁Sparta
▁Darkness
▁smokers
▁customization
▁Floating
▁Fluid
▁Gig
▁predictable
▁spinal
▁Responses
▁rider
▁yoke
▁SKY
▁Electricity
▁downtime
▁(37
▁addicted
8.4
▁forgetting
▁worshiped
▁Legs
avo
154
▁Hawaiian
▁Fal
▁spirituality
available
Deuteronomy
Copyright
official
▁Gmail
European
Change
▁Noble
▁1/8
▁Forty
pent
Fire
XX
chester
SHI
▁flooding
clip
▁10-15
▁520
▁Scr
▁expresses
aves
▁14:1
caine
347
egan
▁162
▁germ
183
▁Mud
343
▁Idol
▁1850
rino
bearing
LV
▁Logic
327
603
▁compile
▁Galatians
▁manifested
▁proceeds
855
4.7
▁afflict
anza
▁bloggers
▁Boost
▁178
▁510
▁Connected
BTC
940
▁Messag
lect
▁LT
▁Generate
▁Aka
▁JP
pie
kal
▁(18)
▁Reflect
▁Holding
803
▁Twink
▁borne
▁costumes
▁circumstance
635
▁Parameter
▁5-7
▁stance
▁richest
▁compass
▁Simpson
▁TripAdvisor
▁Absalom
▁Acronis
▁Condominium
▁Jeremy
▁KNOW
▁Marathon
▁Ordinary
▁Panasonic
▁Refugee
▁TubeWolf
▁contamination
▁credibility
▁dividing
▁licensing
▁metabolism
▁nicotine
▁terrifying
▁aspiration
▁martyr
▁Mosaic
▁animated
▁slew
▁Cumshot
▁atonement
▁pertain
▁JD
▁Demand
▁remarks
▁specifies
▁Exterior
▁transfusion
▁bounce
▁Broken
▁Derek
many
▁recruitment
920
▁Fool
▁calf
▁corps
▁seventeen
▁lining
▁Metric
▁Barcode
▁spur
▁Apartamento
▁Cai
▁Latina
▁negatively
▁wholesome
Kit
▁exhibits
▁Shr
▁Ranked
▁300,000
▁Dump
▁travelled
▁requesting
▁fairness
▁360°
890
Christ
▁infect
▁Phra
birth
Blurb
Mobile
▁debit
awn
▁builder
▁Finished
▁Ble
▁catches
located
877
cene
336
Soft
fal
402
▁RED
nip
▁adore
boot
terra
hah
▁compliments
▁intervals
Young
dorf
522
▁posed
▁puzzles
▁champions
;&
▁235
▁breadth
cable
lter
lung
▁Pap
▁(18+)27
▁Phillips
▁filming
▁PCS
▁Glu
309
▁variants
▁Victorian
▁noodles
SIA
▁filmed
shaw
▁dinosaur
▁zombie
Har
▁Survival
▁constellation
▁disposable
▁excursion
▁scalable
▁superuniverse
▁skeptic
▁siege
▁Appeal
▁Lingerie
▁stakeholders
▁Condens
▁necklace
▁Matrix
▁pulp
▁Subscription
Gal
▁rebelled
▁Modular
▁2007-11-
▁diode
iche
▁Reagan
▁imbalance
▁brotherhood
chron
▁battlefield
▁idle
▁Sector
▁Parade
▁Analyzer
605
▁streamline
▁deliverance
▁Towel
▁indirectly
▁toolbar
▁06:10
▁Chong
▁interruption
▁Canaanite
▁lad
▁Chem
▁bark
▁Thu
▁1901
▁pasture
▁commercially
▁hacker
▁Catalog
2006
▁blown
rust
▁Gram
▁learners
believers
▁overtake
weather
Welcome
Which
Seoul
spring
KRW
▁13:00
living
▁rods
kei
▁Lick
fed
▁Masa
multi
▁overload
drive
▁Carlo
holders
545
▁Mint
768
8°
▁crashed
▁stretching
▁Deuteronomy
530
▁Adapt
▁interpreter
238
umbling
▁reinforce
▁Hyde
games
*10
▁Anger
▁illustrates
▁extinct
▁orphan
strict
▁Jade
Footnote
▁Asakusa
▁Curtain
▁Holocaust
▁Intellectual
▁Palermo
▁Parallel
▁Syndrome
▁calamity
▁preliminary
▁ambient
▁Beverly
▁Defensive
▁peanut
▁urgency
Expiry
▁Civic
▁Dennis
▁Detective
▁SharePoint
▁retardant
▁trek
invasive
▁midget
▁Bucket
▁sunrise
▁hedge
▁SHOP
▁서
▁postpone
388
▁immortality
▁constructive
▁eject
▁Manuel
▁Permit
3-6
▁Yoko
▁intentionally
MPa
▁Tablets
▁arrows
uchi
▁Genetic
Act
3.9
▁Vene
▁Actor
▁VOD
▁shutter
lun
▁Hostal
▁Pam
8.2
West
▁enforced
▁PLAY
apped
laundry
Standard
QUE
▁Lifetime
bike
tune
nice
entry
▁340
▁tortured
Find
wit
▁Dana
▁325
Test
▁Hye
292
▁2005)
▁Nico
▁dB
Real
ör
pora
▁Cul
▁nerves
▁Nha
334
▁BIG
▁Armed
▁CY
payment
▁Tiny
263
giver
Thou
▁motives
apt
▁Trends
▁gland
▁Birmingham
▁Grinding
▁Marrakesh
▁Mitsubishi
▁Pyongyang
▁SYSTEM
▁Tiffany
▁astronomy
▁constraints
▁embroidery
▁sampling
▁Banquet
▁yacht
▁Orchid
▁deteriorate
▁Inspired
▁José
▁Complain
▁Abbey
worm
▁vSphere
▁Gorgeous
▁delegate
▁dictatorship
▁parcel
ouncing
▁Mistake
▁Philippine
▁attendees
▁Refresh
▁premiere
▁entice
AVI
▁Attachment
▁Joab
▁exploitation
valence
338
▁Drake
▁pea
▁+81-
▁pending
▁deprived
▁Chester
sexual
▁DOC
326
▁NET
▁Aram
162
▁swelling
▁Hundreds
▁0.02
▁Swim
▁diplomat
▁ponder
Tra
▁BLACK
QC
▁Guam
▁commute
▁poorest
▁Cau
▁debtor
258
▁hazards
▁supp
▁Croatian
width
Android
Three
710
Before
▁Exist
▁Atom
▁PARK
Enter
▁favored
▁7.2
0.5%
▁Businesses
Wait
fro
▁realised
90%
▁neighbours
ivo
237
▁TW
Down
directional
▁Europa
evil
▁chariots
▁reversed
▁Aged
▁sticking
▁Feeding
▁LR
▁homo
▁1909
Yu
805
20%
▁171
Bit
▁Cay
30%
sell
▁translates
▁curtains
▁Mala
▁6%
Tour
▁dedicate
273
▁Shouldn
▁Charm
▁MVP
▁Persia
Kw
▁$500
20,000
▁premier
▁Albufeira
▁Buffalo
▁Congregation
▁Sanctuary
▁Seychelles
▁acquiring
▁fragile
▁generosity
▁granite
▁penalties
▁pronunciation
▁CENTER
▁aerospace
▁intuition
▁theologian
475
▁Murphy
▁tasting
▁kilometres
▁mob
▁Assistance
▁(2012)
eti
▁(2016)
▁expectancy
cchi
▁Daegu
▁IcePorn
▁Principle
▁Depth
▁baking
▁Hollow
▁discernment
▁genetically
▁girdle
▁Bengal
▁CMOS
▁purified
▁Carpet
▁Debian
▁Wealth
▁Aston
▁Grave
▁GUI
▁Discussion
mae
▁Maison
▁DMX
[17]
glu
▁Signage
▁Fuku
▁Prix
▁underwear
▁socio
▁Meiji
▁Torah
▁Naval
▁Forgot
▁oriented
▁ECO
▁magnets
▁adolescents
▁Minami
▁%1$
club
▁XX
Israel
Surely
▁Maple
▁resumed
▁appealing
EACH
square
▁Claus
882
pod
▁misuse
▁Customize
▁scarce
▁ser
iety
FUL
Toll
▁sting
▁Launched
▁Yeong
▁0.25
▁candles
Listen
itzer
DEN
forming
▁overhead
Eph
▁contractor
▁slider
▁149
▁humbled
▁Mia
▁Plum
total
▁4%
268
▁OH
Sim
▁bribe
cloth
**
▁Northeast
▁Museo
▁Washer
Ten
ORI
▁pale
▁Abe
match
came
415
▁Buk
▁2:4
Fri
▁Blizzard
▁Compatibility
▁Ferrari
▁Hearthstone
▁Pittsburgh
▁Principal
▁Renovated
▁Vegetable
▁XenMobile
▁algebra
▁astronaut
▁flavour
▁glacier
▁misfortune
▁remedies
▁identities
▁darling
▁petroleum
▁heavier
▁incapable
▁senator
▁Jesuit
▁Negative
▁emergence
▁Quantum
escent
▁Defence
▁grabbed
▁Closing
▁(2011)
▁Wildlife
BIO
▁Foster
▁radioactive
▁flagship
▁filthy
▁backpackers
▁Decide
iler
▁detained
▁pioneers
▁Hue
▁horny
▁discouraged
▁225
348
▁imperfection
▁SAS
▁SITE
▁append
▁polished
▁Missing
468
panel
▁Gill
▁advocates
▁ascended
▁donkey
▁shifting
▁checkout
mite
before
381
▁166
▁HER
Fox
phor
▁feat
▁sporting
Tax
525
JO
bone
▁8000
nap
▁socialism
▁ICC
structure
▁VII
▁listeners
▁1904
ndrogenic
▁unread
rp
ethyl
dance
ezer
Ki
▁damned
▁LF
hana
Base
▁RU
▁Scala
blast
▁pioneering
asia
▁Reporter
Run
onomy
▁shew
▁Tau
▁4:8
bility
▁Este
411
090
▁(90
▁Autonomous
▁BUSINESS
▁Belarus
▁Brochure
▁Bungalow
▁Colombo
▁Enanthate
▁Instructor
▁Lexington
▁Pregnancy
▁Symptoms
▁Technique
▁Verisign
▁Volkswagen
▁dishonest
▁electromagnetic
▁facade
▁paradigm
▁propaganda
▁reliably
▁shrimp
▁synchronize
▁Opinion
▁Synchronis
▁simulator
▁HIGH
ennial
▁Utah
▁robbed
▁(2008)
▁systematically
▁supernatural
▁preserving
▁navy
▁Lobby
▁spike
moon
▁Granite
▁dictate
▁Ashley
ubi
▁settlers
▁Biology
ando
▁Apo
▁adorn
▁Slab
▁biologist
hd
▁specialties
236
▁ERP
▁merged
▁Clara
8.6
▁originate
▁Strand
▁Oven
▁seamlessly
▁Edom
▁Fut
▁por
▁hrs
▁disappointing
Depart
▁nearer
▁(23)
431
vial
▁confirming
▁photographers
Saturday
Health
▁Coca
bedroom
▁repeating
shadow
▁verbal
▁Dj
Germany
Mother
808
▁Wii
870
UV
▁BTS
▁whales
▁CBS
▁COB
211
266
▁Steal
▁1899
0-3
":"
▁whip
332
▁Bench
622
324
▁Rider
▁recalled
uter
assi
▁Bundle
858
▁WD
▁consisted
▁Peach
▁USP
rington
agent
▁attracting
▁reckon
ORS
oga
▁fleeing
ija
▁blond
PRESS
▁Tir
pati
▁grieve
246
KR
▁consultants
▁208
▁Leonard
▁USE
▁selfie
synchronous
▁Batteries
▁Courage
▁Damascus
▁Emerald
▁Examination
▁Gravity
▁antioxidant
▁happiest
▁inaccessible
▁refusing
▁sabbath
▁anguish
▁Pussy
▁asteroid
▁asylum
▁victorious
▁fornication
▁Legacy
▁Medicare
▁Trojan
▁scalp
▁Cosplay
▁Transaction
▁Harvey
▁burial
▁Turtle
▁GOOD
▁Alpine
▁500,000
▁pluck
▁Jenny
▁Saturn
▁denies
▁infantry
▁stray
▁Gwang
▁programmed
▁conceptual
▁frankly
▁trafficking
know
▁lump
cnc
▁Emil
▁lowered
▁slit
▁enacted
▁Liberal
▁forged
▁Tak
▁disagreement
learn
3.00
▁subjective
rough
▁Marian
▁KY
▁despised
▁Plated
▁ashes
▁Photograph
orous
▁Marking
lord
OUT
▁Crowd
oud
▁atheist
▁Roh
▁tact
laughter
yellow
▁Pornstar
program
▁Israelite
▁Octa
However
▁DAC
Daddy
arry
Say
Card
▁grapes
▁soften
pathy
▁mast
Table
▁bunk
▁Organ
egi
▁Castro
▁Probe
▁Hanging
▁Chic
SIS
▁CHE
321
dream
286
▁hypocrites
▁Flooring
▁ISIS
ahu
1600
▁isolate
5.8
▁stud
▁AES
▁lesser
585
akura
▁Kami
▁pod
▁weaker
▁(18+)18
▁Tradition
▁Boxing
▁contractors
▁pilgrim
▁cigar
▁Revenue
▁Territory
▁acquaintance
▁acquainted
▁frustrating
▁humiliation
▁inconvenience
pseudo
▁Comparison
▁christmas
▁Namibia
▁coincidence
▁metaphor
▁codec
▁dismantl
▁enclosed
▁Freight
▁Strict
▁Narita
▁wiring
▁multinational
▁Naomi
▁Scope
▁shook
▁ecommerce
▁digging
▁wh
▁starving
▁Productivity
▁harp
328
▁Thermo
▁tesa
▁counties
▁practitioners
▁Kitty
▁Gai
▁Sebastian
▁Nicole
▁Compet
515
▁variant
▁Thousand
▁Comedy
seat
/09/
▁£1
25°
80,000
▁lime
▁Cree
▁shareholder
214
▁halfway
▁inmates
▁Landing
▁successive
STER
▁concealed
▁momentum
▁Quay
▁Gaz
▁imagery
▁Refer
▁depicted
▁bullets
▁weeping
148
▁lending
balancing
contain
dollar
Deutsch
energy
Sorry
culture
Moses
▁var
fighter
▁speeches
▁12%
End
10%
money
▁hunters
▁soda
▁Decana
steel
▁selves
▁CMS
▁410
▁additives
▁perished
cture
▁Denis
▁640
▁Tv
223
▁foreigner
▁HL
▁Unto
▁shear
▁cont
▁Tomb
▁Correction
▁morally
activity
▁parenting
lik
▁Peri
▁Ivy
-180
~+
srt
▁hassle
/2018
▁Bone
▁resign
▁insufficient
▁gall
▁differentiate
raz
▁LGBT
▁Yeon
▁Blossom
▁Cricket
▁Dinosaur
▁Insulated
▁Madagascar
▁Santorini
▁antibodies
▁comprising
▁detention
▁dilemma
▁gadget
▁glucose
▁repository
▁subsidiaries
▁unpredictable
▁Radiator
▁Wilhelm
▁denomination
▁hurricane
▁obscure
▁Nixon
▁suffice
▁Hopkins
▁Coalition
▁Harvest
▁Minecraft
▁Pharmacy
▁Louisiana
▁casualties
▁CHINA
▁Abroad
▁cubic
▁Murder
▁Pills
fel
▁Suicide
▁bald
▁innovate
▁Anywhere
▁Collaboration
▁Incident
!!!!
▁Trash
▁Everywhere
▁Wanko
iq
▁awaken
zero
▁Yemen
▁Parameters
▁CHI
▁diligently
▁Holdings
▁Ueno
▁sunny
▁Flip
▁drowned
▁liters
▁merger
▁Notebook
▁advisory
▁TUV
▁exceedingly
▁vet
(20
▁flaws
829
▁Wax
▁rad
06)
▁yuan
▁€1
▁370
▁HTTPS
592
coding
▁189
356
7.8
certain
▁freezer
▁SHR
259
respect
Food
Connect
Access
+81
▁mal
▁Cri
▁breaker
▁Waka
▁Alto
009
▁repented
▁Fem
▁Coat
wp
joo
CAD
▁headaches
▁1902
CHO
▁inflict
▁Kro
▁Critic
▁Transition
▁packaged
MH
▁Dow
▁obeying
▁Eng
common
676
▁SHI
▁Kuro
▁foe
lbert
▁HB
▁Extend
▁Salad
▁Describe
▁CODE
▁Crossdresser
▁Elegant
▁Expansion
▁Particularly
▁Separation
▁Shibuya
▁Uruguay
▁Yosemite
▁combustion
▁conspiracy
▁courier
▁morontia
▁precipitation
▁refusal
▁quilt
▁turbo
▁Mandarin
▁courtesy
▁dispense
▁relied
▁celestial
begotten
▁vague
▁embed
▁spoon
▁discourse
▁Tongue
▁STEP
▁Sendai
▁enrollment
▁Runner
▁8%
▁Zhang
▁ballot
▁Reduction
▁Wesley
partisan
▁Introducing
▁7:1
▁Vila
▁loser
owski
▁Slip
▁Lightning
▁KIM
399
▁presently
▁Promotional
▁Fitting
▁Farmers
▁Dodge
▁screenshots
▁Malaysian
figure
289
▁persuaded
▁Leone
▁Humanity
ETH
▁Orphek
▁shameful
ORE
▁liner
▁negotiation
▁ample
▁Opened
="3
kaku
▁NW
▁noticeable
.01.20
AWA
tight
▁confessed
▁curved
▁Pha
▁～
▁169
▁wandering
607
▁Tee
▁Carlton
▁Lac
▁Franz
▁Stark
nomic
▁installer
tab
▁PAL
LESS
251
8.00
knowing
(8
▁Rabbi
▁Uploaded
STAR
ERO
Yo
hibition
▁Cit
▁Manga
▁VW
▁Emp
lina
▁replicate
dc
6-1
015
▁sweep
▁Sink
eung
484
▁surpass
▁2:2
▁Cosmetics
▁provoke
▁lick
▁Reporting
▁smoked
▁Christophe
▁municipal
▁Jur
▁$12
inflammatory
▁Corrosion
▁Suzuki
▁astonished
▁astonishing
▁vaccination
▁vegetation
▁consolidate
▁penguin
▁taxpayer
▁Aristotle
▁Activate
▁Hentai
▁cereal
▁craving
▁prevalent
▁Gloria
▁vicious
▁tribal
로드
▁ONLY
▁Ful
▁BUY
▁mailbox
boss
▁Remain
▁spotlight
OTA
▁distraction
CAM
▁Winning
▁MEN
▁protesters
▁Comfortable
▁methodology
▁Recall
▁Og
▁SUV
▁commemorate
▁Mist
▁[5]
XVideos
▁fury
▁wo
▁accomplishment
▁coaching
List
▁FOB
▁Booster
▁mindset
1.9
▁Provided
▁440
oscope
though
bath
502
453
▁Annex
▁banker
£
School
Space
collect
Think
434
Stay
Number
▁1150
283
▁ankle
▁1890
origin
clin
Edit
elected
▁miners
kko
▁하
▁Constitutional
▁retrieved
uster
▁Remark
▁beginners
▁Mov
▁Mole
▁ounce
insta
▁Louise
20°
designed
▁Ou
enza
▁spelling
281
▁JW
▁Jab
ño
▁181
▁Bong
248
▁Lore
▁Kual
▁insecure
239
▁benefited
▁Kata
Gem
▁accumulate
▁criticize
▁interacting
Benz
trop
▁median
omplimentary
▁Acrobat
▁Beirut
▁Calgary
▁Kentucky
▁Securities
▁hairdresser
▁Gartner
▁Benedict
▁Venetian
▁dentist
▁persevere
▁Swallow
▁Snake
▁revolve
▁purification
▁savor
▁syntax
▁Anavar
▁disturbance
▁Disorder
▁Breast
▁Steak
▁Rh
▁BK
▁presume
▁Corfu
▁Symbol
▁northwest
▁Believers
574
▁catalogue
Anti
▁condemnation
▁HVAC
LEA
gyo
▁Midian
yla
▁Invite
▁robbery
▁bible
liver
▁frost
▁Caught
wak
▁Ruler
▁Mouth
▁Mach
▁villagers
▁203
▁Palma
▁overcoming
▁hover
▁compiler
▁21:00
wait
▁Failed
▁9.1
Asia
▁MIL
▁Alert
▁plow
▁Pakistani
▁seriousness
▁thrilling
▁boldly
VintageTube
▁WSP
America
▁doggy
Source
Speed
project
viv
odor
516
maid
▁Penta
Watch
▁Southwest
engine
▁locking
▁1024
▁Colossians
gong
▁Duo
▁HAR
▁(24)
▁Seen
▁Muse
▁disappoint
311
395
illi
▁MIN
rach
bug
233
▁CCC
▁Tram
▁Puri
fty
▁Gren
▁Eggs
▁jerk
▁southwest
Park
▁alley
▁eff
9.9
5-1
ün
▁Grad
VIS
▁Cata
▁SAE
lamp
▁RB
EUR
align
▁Supplement
Comp
▁NOR
SEL
▁sep
▁Lack
ZZ
MIT
285
▁Govern
▁Airbnb
▁Deputy
▁Eiffel
▁Supplies
▁amplifier
▁nonetheless
▁refrigeration
▁synchronization
▁Nanjing
▁cursor
▁unleash
▁webhosting
▁pursuan
▁Nominal
▁Inverter
▁Grenada
▁timber
▁advent
▁furnishings
▁Refund
▁fiery
▁severity
▁(2013)
▁cocaine
▁Biggest
▁sponsorship
▁Tyler
▁Smell
▁Spacious
▁crib
▁penny
▁Forbes
▁Eleven
CHA
DIA
▁Leonardo
802
696
▁Conductor
▁unsure
fashioned
▁ASUS
▁Rab
▁6.2
▁Specify
▁Berry
▁CNY
▁stepping
zine
▁fingering
▁bomber
▁termed
▁bliss
▁elevation
▁Napa
807
sync
▁repairing
▁awakening
▁$40
9.2
▁negotiated
▁Phi
506
▁urgently
Deut
▁3.9
▁exhibited
▁overlooked
▁Sick
▁NIS
Update
Guard
▁STAR
▁HOT
▁astronomers
Under
▁1889
▁richer
▁Sham
servant
bps
▁EAS
-46
▁copying
▁bur
carton
▁LOT
addy
yana
▁justification
▁Megan
▁17:3
Pop
meaning
Sunday
▁rode
7-8
again
~20
▁Fog
▁Calling
▁JC
▁Leak
04:59
▁Wouldn
▁eh
▁disgust
▁Alive
WH
▁Pond
▁Dude
breaking
▁10.5
▁Weapons
▁accountant
gami
▁Brun
860
vitation
▁Illustrat
▁Lithuania
▁196
▁3500
▁exhort
1-3
▁dictator
▁Cemetery
▁Earthquake
▁Enforcement
▁Equipped
▁Influence
▁Ishmael
▁Kissimmee
▁Oklahoma
▁Pleasure
▁Vampire
▁allegations
▁collagen
▁compartment
▁counterfeit
▁demonstrating
▁efficacy
▁frequencies
▁indispensable
▁Dynasty
▁Perfume
▁Bohemia
▁Ribbon
▁thriving
▁Nitrogen
▁jelly
bbie
▁Cyrus
467
▁tensile
▁suction
▁broadband
▁Tulip
▁enlightenment
▁beacon
▁Asahi
▁Kap
▁Sche
▁tyre
▁meanwhile
▁{{#
▁YEAR
▁Biological
▁repel
357
▁Seagate
▁tractor
▁problematic
▁Gone
ovo
▁fragments
▁IRS
▁Shipment
▁Kru
▁1870
▁patrol
▁denote
▁swiftly
▁lifespan
▁allowance
636
Luc
▁Ezra
▁EXPO
▁coaches
▁java
ORY
▁amended
▁Elsa
▁Dealer
eater
teth
▁mutually
kva
▁Holly
▁paw
NEX
ERN
▁rh
▁070
▁Proper
temperature
Jeremiah
▁Burg
should
important
critical
significant
Bank
▁confidently
▁Translator
▁powerless
Total
▁accidental
903
compare
▁blossoms
▁Shira
focused
▁sandy
lé
▁1880
▁Methyl
▁kicked
▁reviewing
▁governmental
tested
▁thanked
▁7.4
roo
▁6:10
▁feathers
▁discharged
▁#6
318
Chi
▁Shang
nail
▁defended
▁Messe
▁pane
▁accomplishments
▁Fare
these
6-2
▁Bul
▁shifted
▁Honest
267
▁Amnesty
▁Availability
▁Bahrain
▁Celebration
▁Comprehensive
▁Miguel
▁Pyramid
▁Rebecca
▁Taliban
▁Vladimir
▁Westminster
▁hierarchy
▁monastery
▁paradox
▁pollutants
▁seizure
▁sequel
▁translating
▁OECD
▁Cummins
▁Elliot
▁Worst
▁DDoS
▁vomit
▁Carnations
▁sojourn
▁WetPlace
▁stubborn
▁Arrive
▁strife
▁kidnapped
▁outdated
▁Shandong
▁Fixture
▁Composition
▁multiplayer
▁salute
▁vault
▁naval
▁orphans
▁Palais
▁Siena
▁Barrel
▁Circus
▁Hugh
▁Galeri
▁Schoolgirl
▁Reception
▁Mare
▁Abdul
▁stripped
▁accessory
414
Ware
stair
▁greedy
given
▁Downloaded
▁2013)
▁Totally
▁attackers
▁Thereafter
▁pumping
seed
▁2:3
▁Discuss
▁211
▁GRA
▁191
▁parish
▁booty
▁bail
▁Titus
▁cultivated
▁blogger
Shan
▁Chase
Info
▁Putin
▁discusses
▁exploited
voltage
Double
Sometimes
▁3:15
organized
country
▁Hunting
Money
▁ascending
252
▁Colombian
▁Finder
▁Gul
▁Galerie
void
▁NJ
▁Trek
ITION
▁skillful
▁Specifie
▁Musk
▁cod
Judg
296
30°
mania
249
▁DOM
plain
▁Resist
Clean
▁Characteristics
atio
▁Breaking
Vending
leigh
▁rug
▁Tick
488
CAT
▁invoke
▁Mango
▁CLI
rush
875
\\
▁wager
YU
▁Experiment
AQ
4.00
▁Canberra
▁Carnegie
▁Exploration
▁Galileo
▁Indicator
▁Mozart
▁Nozzle
▁Shinkansen
▁Sustainability
▁Twice
▁Vibration
▁bodily
▁dolphin
▁energetic
▁indonesian
▁removable
▁reproductive
▁securities
▁unparalleled
▁unwilling
▁Diversity
firefox
▁garlic
▁Wavelength
▁implicit
▁Drift
▁FedEx
▁Cedar
▁Judaism
▁unemployed
▁Eddie
▁(2010)
▁firing
Dong
▁Jac
▁Anybody
▁alright
▁tonnes
▁Zipper
▁royalty
▁Stats
▁Unlock
fact
▁Somehow
▁06:30
▁Solder
704
POS
▁nightlife
▁vanished
metre
▁Lyn
▁Cub
vik
▁Lance
588
▁turnover
inder
▁eighty
▁Helping
▁1916
digit
▁comforting
trol
▁Scientist
463
▁limiting
▁MRI
▁randomly
(12
▁Blessings
▁comm
▁outsider
≥
Although
Summer
Short
▁finishes
cloud
▁organise
uffle
Also
OOL
atten
▁asthma
gence
▁Kyle
umming
▁Amount
754
▁chrome
▁KL
:3.1
757
think
Tea
osphere
▁7.6
▁Ingredients
▁CHF
slav
▁:::
▁DOS
557
▁amend
▁JH
▁accommodated
394
00/
▁artifacts
▁enthusiasts
626
▁deer
▁Reno
▁Verde
▁Poe
smart
▁Brave
▁Alerts
769
▁immuno
▁ripe
▁Dip
chia
▁simultaneous
Op
ube
▁sue
umber
▁interchange
▁802.11
▁Alcatraz
▁chromosome
▁continuity
▁desolation
▁sympathy
▁terribly
▁ungodly
▁Amplifier
▁engraving
▁rectangle
▁ultrasound
▁Dimmable
Joomla
▁Roulette
▁Pioneer
▁Ubud
▁JPEG
▁surcharge
▁Closure
▁Curtis
▁focal
▁blew
▁(2009)
▁dutch
▁confidentiality
▁slap
▁WHY
▁Underwater
▁Milton
▁Legion
▁unused
Tool
[15]
▁Dept
▁Knee
▁forsaken
▁clone
▁posture
▁HDPE
rati
6.1
▁UFC
8.8
443
bbe
▁revert
▁DDR
tale
▁handmade
686
▁bait
▁Invitation
▁eagerly
▁bung
▁skies
leave
▁psi
▁Including
▁replica
▁daytime
▁headquarter
▁Kyo
▁CDN
▁nationally
▁Ahab
hyun
▁ROOM
fran
ograph
agging
Swedish
distance
migration
Sports
▁py
▁attendant
sharing
▁Reduc
liner
▁nicely
▁reel
EMA
▁Jang
XXX
▁Switching
▁grape
▁candid
▁Wald
▁credited
▁999
asian
▁Promote
703
chloro
▁impacted
▁530
▁booster
▁Aya
▁stro
▁furnish
3-2
Jun
▁anoint
▁expressly
holy
-2014
▁SERVICE
▁Lao
526
▁recycle
▁6061
▁Topic
▁defile
spiring
▁Deepthroat
▁INFORMATION
▁Macintosh
▁Picasso
▁Refrigerator
▁Strategies
▁Surveillance
▁YORK
▁absurd
▁contemplate
▁devastated
▁intimacy
▁majesty
▁sanctified
▁solidarity
▁unacceptable
▁Perspective
▁Yankee
▁Josiah
▁avenue
▁pierce
▁alleviate
▁compelled
▁scrub
▁vCenter
▁Evernote
▁sweetheart
▁referral
▁buzz
667
▁conductivity
▁Beloved
▁addictive
▁Mathematical
▁dental
▁gearbox
▁Socks
▁Rockwell
▁Clement
▁Becoming
▁Rhino
▁initialise
▁dug
▁eruption
▁AUTO
▁Antique
▁reopen
▁Ellen
▁12.5
▁290
harm
▁misleading
▁4:6
▁tasted
▁2:00
293
▁awakened
nen
▁Ske
▁HAN
▁throughput
▁sweeping
SET
▁adequately
▁2004)
▁Trainer
▁Pil
▁Completely
▁Wage
▁ancestor
▁feather
853
▁Proud
▁Cheating
RAIN
▁LDS
616
▁stretches
▁Christine
▁offence
▁html
Company
▁Ryu
zaki
▁runtime
▁shortest
▁305
▁drip
▁Nile
▁1895
▁Completed
▁6.3
▁Crowne
▁befall
▁weld
jang
LEX
Option
onian
▁merge
▁wiser
▁Knit
342
closed
▁RNA
▁supposedly
▁Emerg
▁Vac
▁poisoning
Hong
amino
▁10.0
▁partake
Ask
activate
▁1.25
▁Pov
▁Pere
688
▁conceive
solve
▁1700
ambi
gave
▁openness
hil
▁20000
cab
▁Authentic
▁2:10
▁chemist
UPS
709
▁Lathe
▁Neighbor
▁Cheerleader
▁Conflict
▁Herzegovina
▁Jeroboam
▁Luggage
▁Stuart
▁catastrophe
▁fascinated
▁imperative
▁reluctant
▁roulette
▁stimulating
▁utilities
▁voluntarily
▁EVERY
▁Explosion
▁Orchard
▁Spencer
▁dementia
▁erosion
9001:2008
▁Bbw
▁inclination
▁Creature
▁debris
▁butterfly
▁diplomacy
▁Potential
▁lunar
▁Edison
▁volcani
▁Triangle
▁Skirt
Boy
▁lcd
▁Hungry
928
▁Feedback
▁dubbe
▁entail
▁Shaving
▁(150
▁Fairfield
▁Wallace
▁loom
▁rinse
glia
▁Waterfront
ethanol
▁spotted
▁schoolgirl
▁Fir
▁Penh
▁Enhanced
341
▁Quinta
▁Toggle
7.0
▁DRM
label
409
mony
▁spices
▁broadcaster
▁Nigerian
nomiya
▁DLC
▁mum
▁bestow
Trade
serve
▁cooled
868
iev
▁relieved
▁appliance
▁(27)
▁Burger
518
▁rounded
▁Drone
852
▁Strengthen
Mart
Pal
▁978
effect
≤
.10.20
children
Women
Continue
Small
David
income
Chain
either
▁Crash
▁(26)
▁Bran
casting
▁avenge
▁XY
added
▁Finishing
3-3
▁Sci
▁프
▁Sealed
▁crosses
Multi
▁(107
▁flick
Shop
▁sour
Vol
LOCK
chun
blah
kie
▁encrypt
▁vanish
/28
KY
rub
▁Serious
▁deci
(7
▁303
▁intellect
vascular
▁Cougar
▁Occupation
▁Possibly
▁auxiliary
▁capacities
▁epoxy
▁equilibrium
▁expiration
▁legislative
▁obesity
▁prefecture
▁rubbish
▁Ottawa
▁Sherlock
▁temporal
▁reunion
▁Presence
▁snatch
▁BDSM
▁fertile
▁superhero
▁gram
▁Sultan
▁Babies
▁farewell
▁ether
▁allocation
▁massacre
▁spawn
▁jammer
qiao
uto
▁Kaiser
▁Crete
568
▁Liberation
platz
▁Hurry
▁thigh
▁correspondent
▁Feast
▁journalism
▁brace
▁Able
[4]
▁Static
▁USSR
▁02:00
▁niche
▁Tribe
▁earnestly
▁Outline
▁defiled
▁shaved
▁SELL
▁organised
▁frontier
▁Woe
ARA
10°
▁MRT
▁460
344
▁Entrepreneur
339
ylene
▁habitation
▁Sweat
▁rejecting
▁hasten
▁grinder
▁Luci
▁florist
755
▁RUB
▁ants
▁Aroma
jay
cream
▁Curse
835
▁Iowa
solving
80*
Should
suffering
Children
Image
▁888
▁Plato
▁Palmer
trix
Whatever
bili
developed
final
825
▁Porni
▁stamping
▁Rey
▁owed
▁sober
▁CAP
▁1:5
nj
/40
▁numerical
-87
4-0
LAT
Dear
▁HG
lived
▁VP
▁고
▁publicity
▁14001
▁Manor
▁suburb
agawa
▁premise
▁Yeo
▁960
▁abolish
▁analyzer
▁Gap
495
▁3:13
▁Pee
483
▁Coro
▁(104
lva
▁Loader
730
▁Halo
▁Debt
IDA
utical
▁fullness
plug
▁snorkel
cknowledging
▁Arduino
▁Giovanni
▁Malcolm
▁Marseille
▁Mohammed
▁Vodka
▁Wharf
▁Yandex
▁anonymity
▁elimination
▁forefathers
▁innocence
▁invaluable
▁magnesium
▁masturbating
▁sensible
▁starvation
▁Catalonia
▁Montenegro
▁Schneider
▁Spectrum
▁civic
▁deviation
▁heartfelt
▁nominated
▁sprout
▁Gothic
▁Steering
▁pivot
▁Nikola
Eye
saturated
▁disguise
▁reseller
▁Friedrich
▁dragged
▁japan
▁trophy
▁arbitrary
▁doggystyle
▁Fiberglass
▁(2007)
▁Imaging
▁viral
▁Patong
▁versa
▁inverter
▁resignation
▁NEVER
umerous
▁Spiral
▁Rank
▁Cohen
▁Sperm
▁Scheme
▁proceeding
▁stringent
▁NBC
▁overweight
▁Hospitality
▁Specialty
▁Bunk
rone
SOL
▁flatter
ELE
▁campuses
▁Guaranteed
▁globalization
▁MSN
▁Odd
899
▁micron
▁novelist
▁consciously
▁exceptionally
serving
▁admired
Player
407
▁understandable
889
▁booklet
▁Bound
Was
▁whisk
▁specialization
▁60,000
Follow
▁Contr
attack
▁exchanger
6.00
▁07:5
Price
▁UNIT
iii
Suppl
▁Dei
▁crowned
▁Praying
▁Cox
▁Careful
LINE
▁kar
▁(30)
reaching
lich
▁attacker
▁(34)
venture
▁5:3
▁7000
lou
rence
▁instrumental
▁Bac
zie
879
▁Valle
▁steer
-2008
▁Nim
▁Soho
▁suspend
▁Phu
▁Deco
▁prolong
778
▁chop
beck
▁comparative
(9
▁5.2
Nu
▁catalyst
▁perpetrator
▁sprinkle
▁Adelaide
▁Memories
▁Penguin
▁Synthetic
▁bounty
▁communion
▁comprehension
▁eBay
▁misunderstood
▁retribution
▁medicinal
ordinarily
▁Patriot
▁Recipe
▁Ibiza
▁empathy
▁Vendor
▁carrot
▁drastically
▁Phnom
▁unbelief
▁Bullet
▁$30.00
▁palette
▁Ladyboy
▁Dashboard
▁Rigid
▁Anglo
▁Banana
▁caption
▁Hindi
▁Leaving
575
▁Tohoku
▁Okayama
▁MUST
Put
▁Barack
▁Wai
▁620
▁unveiled
▁Albanian
▁curing
▁Petr
▁Collector
▁backyard
▁Spun
▁NSW
▁Roo
▁WAR
▁NK
▁smite
▁Airline
▁Luck
aaS
▁Stor
637
▁Dyna
438
▁portrayed
▁Herbal
▁workstation
▁mama
▁Methodist
▁disgusting
ogenic
레이
▁Charming
visit
▁CLO
▁shorten
PIC
▁taxation
▁shave
▁Curve
▁1:18
▁NSA
▁Liner
▁777
▁Tyr
▁Resident
▁1898
Friend
Phone
▁meek
▁crushing
fford
villa
▁dreadful
▁Investor
report
▁CRI
Student
established
political
▁darker
Turn
loe
677
Friday
▁Bid
▁labeling
hino
▁marginal
▁stripes
hari
▁Kla
LING
▁8.9
▁Prima
612
▁roommate
Ku
▁climbed
▁Cooled
disciplinary
▁ROI
NEW
476
tension
▁dared
death
flight
ppi
▁linguistic
▁Kaz
SEN
▁Marcel
▁sam
9:00
omer
ution
▁Went
▁1350
▁plated
▁seduce
▁decorate
extra
▁Trio
central
heating
▁Marti
1-9
▁Trace
▁Grim
▁lure
▁NVIDIA
▁Naughty
▁Antwerp
▁Creativity
▁Diabetes
▁Solenoid
▁Zagreb
▁escaping
▁relentless
▁Ernst
▁Higashi
▁Penthouse
▁vinyl
▁melody
▁incurred
▁memorize
▁Eugene
▁bankruptcy
▁Combat
▁furious
▁Cousin
▁VoIP
▁terry
▁Catalan
▁adulthood
▁Messiani
▁singular
▁Advent
▁burger
▁Provision
▁homosexuality
▁Heather
▁MySQL
▁Danger
▁Sauna
▁Priority
▁culminat
▁Grape
▁08:02
▁Sharon
▁spun
▁Xiao
taka
ggie
ector
▁Bab
skiy
phenol
▁Disclaimer
▁[6]
▁Sushi
▁8.3
txt
.07.201
▁blindness
▁Haz
▁encompasse
▁chant
▁importing
fidelity
▁Agree
▁4:3
▁gambler
▁Pants
▁Affect
▁fox
lace
▁Assist
existent
▁Introduce
▁postal
▁FPS
Bring
▁blower
▁Rally
▁encompass
▁Increased
.02.20
▁technician
465
NDI
551
274
▁Vine
▁Rosen
▁compromised
744
platform
Material
Group
Blessed
Quality
▁qualifying
ikan
70,000
Without
floor
invest
▁Palo
litary
▁Correct
URA
▁tempt
hei
Core
▁honoured
▁Amos
▁SHE
music
▁Paste
single
qa
ographer
▁$300
▁discontinu
▁Deli
▁Rocky
792
▁Musa
lative
▁youthful
14001
LUX
kami
▁southeast
▁3:5
Step
▁Quit
509
▁3:7
▁Sap
▁erect
▁Bold
UTC
▁summon
▁discourage
Network
30,000
▁approximate
▁payout
▁Directed
zhen
bey
bull
422
▁knit
▁harass
▁Voyeur
sacrificing
▁Argentine
▁Cigarette
▁Cladding
▁Lauderdale
▁Riviera
▁encoded
▁hamburger
▁jizzbunker
▁repetitive
▁shelves
▁announcing
▁eldest
▁seldom
▁Awareness
▁dwarf
▁racism
▁Servant
▁intrigue
▁Cryptocurrency
▁Concord
▁Cowboy
▁cedar
▁neural
▁pneumatic
▁Prosper
▁swallowed
▁ETAS
▁Chateau
▁salmon
▁Junction
facing
▁Multimedia
▁sedan
▁Audience
▁Enhancement
▁utterance
▁Documentary
▁elasticity
▁Malaga
▁stalk
▁Splitter
▁recession
▁roam
▁metallic
▁Observation
▁Dale
▁polluted
▁iphone
▁%2
▁Stuff
▁Passive
▁Airbus
▁stab
JR
▁Guardia
▁mommy
▁solitary
487
aker
▁Myself
GMT
mcg
endo
▁discontinued
▁summoned
BURG
▁facebook
physi
▁Hung
▁outrage
471
▁quickest
▁Dub
▁Nh
▁Rejoice
MBA
▁drunken
▁Ferre
▁Stem
80%
▁signage
created
▁intercept
457
▁HAS
▁whispered
guide
623
▁monarch
006
▁Augustine
566
ipping
▁65%
▁Castell
balance
▁BUS
▁Bending
follow
Develop
perfect
▁tubing
682
995
707
INFO
▁peptide
▁Nestle
Media
Doc
▁23:00
▁Nang
BIZ
GY
letter
494
6°
▁HKD
▁Swap
Law
ordinate
▁Chap
centered
373
▁UNI
▁Nah
▁MINI
876
fluoro
mean
opia
naya
826
lene
▁knoweth
▁Backpack
▁Dominic
selves
AUD
291
png
▁¥1
▁Bordeaux
▁Chevrolet
▁Encoder
▁Gothenburg
▁INTERNATIONAL
▁Increasing
▁Luminous
▁Montgomery
▁Newcastle
▁PEOPLE
▁chloride
▁correlation
▁evacuation
▁evaluating
▁executable
▁grievous
▁separating
▁spectacle
▁splendid
▁stimulus
▁communal
▁Vimeo
▁sulfur
▁obstruct
▁SHOW
▁Infinity
▁cowboy
▁Wendy
▁servo
▁Gwangju
▁Mobility
▁Jerking
811
▁competence
▁Geographic
▁Nikon
▁distill
▁digestive
▁Layout
▁chord
▁MAKE
▁Servo
▁deserving
▁rechargeable
▁Novella
▁assassination
▁Objective
▁Shutter
▁Reject
▁Jill
agh
▁reinstall
▁handicap
▁Pigment
▁Chin
▁scientifically
tique
▁Latvian
▁Baltic
[20]
▁sandwiches
▁devised
▁Reaction
746
271
▁enlightened
▁Webex
▁Assay
ltima
unity
▁Ctrl
▁Hotline
444
▁lol
▁lame
film
358
goku
▁choke
▁Kurt
▁READ
▁Tran
▁YES
▁analyst
▁grim
▁Puff
▁DV
cino
contact
Studio
electronic
▁Butler
Dream
Persons
development
archy
Grand
▁Crow
537
0.10
708
▁dearly
▁Fairy
▁filler
▁7:30
quan
▁Clan
Month
/2016
4-5
▁MAY
conditioning
886
ggling
▁Vase
lei
▁도
stadt
9.1
▁critically
725
▁Kg
Station
tele
▁timetable
354
▁Oiled
seok
champ
▁revive
383
486
tov
▁correlate
▁SALE
▁erupt
loving
▁unrest
▁disappearing
▁appealed
▁(37)
▁Psycho
▁Anonymous
▁Kowloon
▁Portfolio
▁Reuben
▁Sculpture
▁Transducer
▁harmonious
▁livelihood
▁negotiating
▁patriarch
▁Yield
▁Jeffrey
▁VERY
▁forklift
▁Intensive
▁Delicious
▁Fukushima
▁Circular
▁splash
▁Literally
▁pedal
▁stink
▁Honour
573
▁Fluke
▁Playground
▁naming
▁Planetary
▁Documentation
▁Jorge
▁tapping
▁conformity
▁Brushless
▁Array
osan
▁0086
▁Namba
▁APC
▁validate
▁540
Pat
▁Eph
Select
▁Carmel
▁Personality
rade
condition
▁Garment
▁Castel
▁nomination
70°
truth
existing
528
cole
▁209
▁Improved
▁2:9
▁OPEN
▁Melting
▁Michelin
▁PLUS
▁1:15
▁SNS
▁Needed
▁rumor
Russia
▁additive
▁punching
▁Gregor
▁AFC
▁restriction
Spring
Family
enabled
client
History
Public
499
Human
▁Faithful
▁Viola
▁lecturer
GRA
icker
▁YU
▁EPA
▁cannon
driving
▁JAV
Print
▁retriev
Plan
next
576
883
Arm
393
▁ABB
▁Shoulder
▁Alfa
▁Drying
▁advert
▁tee
▁HON
▁6.1
ahl
▁1871
Ball
Four
796
▁succession
▁Henri
Direct
tape
▁culturally
378
api
ounce
----------------
Español
▁hepatitis
▁interDidactica
Nehemiah
▁Acoustic
▁Bangalore
▁Extruder
▁Hispanic
▁Identification
▁Opportunities
▁Raspberry
▁Tolerance
▁Vegetarian
▁advisable
▁ammunition
▁categorize
▁charitable
▁hurried
▁irrational
▁proclamation
▁unhealthy
▁gossip
▁infinity
▁Churchill
▁intestine
▁scaling
▁groove
▁Essay
▁Aerospace
▁profane
▁Voyage
▁Microwave
▁subordinate
▁Compound
▁youngsters
▁aloud
▁northeast
▁730
▁wagon
▁traumatic
▁bucks
▁foul
▁liking
▁slab
▁poisonous
▁Ginger
tei
▁Coordinates
▁Katie
▁dividend
▁undertaking
▁handler
▁Charity
▁Dansk
▁Huh
▁Delay
▁9000
▁undertaken
▁moist
705
▁chatting
▁hut
▁JPG
pf
▁grieved
Jan
95%
▁Coordinat
▁Happened
?’”
▁ramp
▁Vita
▁establishes
▁PTC
558
07:58
▁Siem
▁OPT
▁16:30
▁performers
▁Quant
▁Kamp
▁Junk
▁vener
▁Amor
▁traced
▁silently
jack
▁chariot
ROS
global
company
broken
Road
▁farting
▁Pho
ABS
▁Regis
ffy
539
usually
Rock
sqm
Asian
▁Worker
▁Cran
▁hooker
016
vu
learning
▁outright
▁berries
▁refunded
ugged
▁Rua
▁Fate
681
pipe
▁bleed
613
zai
physical
▁doctoral
eiro
▁Flora
▁thyroid
▁Convenient
phenyl
Size
▁outset
▁Amusement
▁Atlantik
▁Azerbaijan
▁Monastery
▁Nebadon
▁Nebuchadnezzar
▁Presbyterian
▁Significant
▁allegiance
▁divinity
▁exclusion
▁gourmet
▁majestic
▁territorial
▁uranium
▁Shampoo
▁encoder
▁communicated
▁Domino
▁Antigua
▁Champ
▁Herald
▁Gustav
▁Porter
▁ASEAN
▁(2006)
▁speculation
▁ANSI
▁miniature
▁schema
▁reconstruct
ravelodge
▁Rimini
▁AISI
▁ASME
▁Clever
▁Jeep
▁Spotlight
▁nominal
▁Toxic
Sir
788
Francais
▁shred
▁plating
▁Lithuanian
LON
▁exemption
▁Rural
▁TOUR
018
){
▁directories
▁Traveller
▁discarded
▁dispersed
▁Hunger
SHIP
vita
▁uniformity
▁witches
▁PRODUCTS
▁Lara
2002
▁Pisa
▁Leviticus
▁HFS
▁alteration
error
6-7
▁Maz
EVE
illon
479
▁Draft
▁ester
▁24:14
inous
775
▁Stranger
▁vowed
▁hinge
▁Rex
KHz
LCD
▁experimenting
▁empowered
reservation
democracy
secret
National
▁Shade
▁Cola
Self
asha
stroke
otic
970
pun
spirit
▁Watches
▁Juliet
▁recreate
▁Butter
▁Kazan
labor
▁Nai
network
bong
Fear
376
7-1
lium
776
845
▁6.4
▁9.2
(18
▁Faster
▁Expression
284
549
▁Kris
▁Soap
▁20-30
▁Romeo
10,000
▁Editing
▁spraying
Ang
▁Koran
▁Robo
coated
▁endanger
▁10:16
▁-->
579
▁Arkansas
▁Armageddon
▁CONTACT
▁Caterpillar
▁Dusseldorf
▁Edmonton
▁Gigabit
▁Hannover
▁Hurricane
▁Logitech
▁Recognition
▁Rotterdam
▁Sacramento
▁Toshiba
▁Whisky
▁ceremonies
▁clutch
▁hurdle
▁identifiable
▁physiological
▁remarkably
▁Kodak
▁Gideon
▁geography
▁Afternoon
▁Monterey
▁remarked
▁Galleria
▁microbes
▁Cluster
▁Doubt
▁crisp
▁(2002)
▁Cocktail
▁abrupt
▁securing
▁intercourse
▁pantry
▁coordination
441
▁(2018)
▁Blackjack
▁envision
▁Insect
▁latency
908
▁Establishment
▁Crop
909
▁lumen
▁Tibetan
▁Frontier
▁06:01
▁Maxwell
▁spies
▁OTHER
▁renounce
▁Ether
▁virtualization
▁Alright
▁picturesque
[18]
▁Harold
▁Cozy
connected
▁Kerry
▁tasteful
▁Ethiopian
▁Colin
▁(28)
nico
▁321
armament
▁Fortress
▁8:1
▁Extremely
▁Stability
547
▁Collar
▁radically
577
▁goeth
▁tricky
▁Equality
▁LIGHT
▁1:8
▁downward
speak
385
447
ggio
discriminate
514
▁melted
▁5-10
▁MPa
Song
peptide
Factory
Speak
Commerce
shemale
Level
▁harmless
783
gye
▁SOC
Night
=1
protected
▁Yaku
▁Zach
▁Basin
▁proclaiming
3-7
▁Aging
yaki
DIN
▁Hoi
▁nigh
▁Calm
▁Penis
▁Gaza
atti
Buy
▁Laban
▁wit
727
▁Rhe
▁Offset
▁gradual
WELL
meta
▁Scholar
▁succumb
▁tarpaulin
▁Assurance
▁Atlantis
▁Magyar
▁Maternity
▁allergies
▁disastrous
▁disobedient
▁junction
▁praising
▁unbelieving
▁yogurt
▁insulated
▁ninja
▁consecrate
▁Sophie
▁wrestle
▁abstain
ollywood
▁upstairs
▁prioritize
▁noisy
▁menstrual
▁plunder
▁Submission
▁Whitney
▁Recycling
▁Paypal
▁Simeon
▁Recreation
▁99.9%
▁Tuition
▁Scanning
▁defective
▁correspondence
▁informative
▁Enoch
368
▁uncommon
▁broaden
▁Regina
▁disappearance
▁oxen
▁Herbert
▁reboot
▁Toolbar
▁Transformation
▁Destiny
▁CARE
▁bestowal
▁drawback
▁kitchenware
▁regeneration
▁Keller
384
▁augmented
▁Seaside
▁lengthy
▁Strait
▁disposed
Oct
Send
▁orbital
(11
856
▁MAG
▁Yak
CBM
▁-20°
722
▁grilled
▁Horny
▁+/-
▁interim
cone
▁sharply
▁XVI
▁Bib
ANGE
▁Diner
▁weave
▁stare
▁DSP
▁filtration
▁Klein
▁Rong
▁spoiled
▁Photographer
▁Nina
▁Liv
motor
▁Mum
▁stresses
▁3:00
▁$14
technology
MAP
frequency
Indeed
▁Liberia
Travel
largest
chrome
926
▁Starr
TRON
765
region
▁Tho
▁beginner
hyang
chol
én
▁Blond
Center
▁Ruin
loved
837
▁hanged
▁BRI
▁cherish
507
▁Joke
Poly
ieu
▁Spice
▁diligent
▁automate
▁privat
▁illustr
▁[8]
▁Hash
▁Nana
▁Asphalt
▁Balcony
▁Boldenone
▁Enclosure
▁Endangered
▁Jericho
▁Precise
▁Shizuoka
▁Stuttgart
▁Tenerife
▁circulate
▁condensation
▁denominator
▁imminent
▁impairment
▁irrigation
▁populated
▁sanitary
▁trembling
▁unfamiliar
▁ICANN
▁Jacques
▁Entire
▁Micah
▁Turnstile
▁niece
▁Lagoon
▁Renault
▁diffuse
▁Conservative
▁Invalid
▁Matsumoto
▁Worry
▁christ
▁begged
▁malaria
▁Bloomberg
▁lubrication
▁chunk
▁staple
▁Rhine
▁Pantone
▁Nexus
▁Blair
▁Ankara
▁gasket
▁Suzhou
▁Ignore
▁Goodbye
▁heathen
▁adware
merge
▁Amanda
▁Showcase
▁Participation
▁crude
hypno
▁LNG
▁06:07
▁144,000
▁inspector
▁reflective
▁Braun
▁Glossy
▁Truss
▁Hazel
▁revived
▁kitten
Their
▁Forgiving
▁Popularity
GSM
▁Marxist
▁Ginza
▁Combo
▁Helena
▁sexuality
pain
657
SUN
▁uncovered
▁Aria
▁Everyday
▁marrying
vale
919
▁hijacker
▁Sino
▁11,000
hira
▁enriched
▁pushes
mata
846
▁FUN
426
▁Plane
FDA
▁Sera
▁1450
LOS
chemistry
strength
whether
typical
8-2
Africa
wolf
▁7:9
▁Italia
▁99.9
▁shun
kor
▁LPG
▁£5
379
▁coping
772
efici
▁Dim
025
grin
▁WH
477
optic
▁Corona
▁Gare
▁sap
▁harvesting
Hour
리스
▁2:11
▁5:12
▁ATP
▁MAP
▁prep
online
▁Roche
▁periodic
boro
▁lovingly
▁Stamp
▁owl
▁13:4
▁bankrupt
▁murmur
Cryptocurrencies
phosphate
▁Activation
▁Avenida
▁Consortium
▁Departure
▁Glacier
▁Lombard
▁McCartney
▁Peptide
▁Rugby
▁Waikiki
▁advocacy
▁apparel
▁cultivation
▁decreasing
▁feasible
▁fertility
▁humbly
▁juvenile
▁litigation
▁millennium
▁sensual
▁tendencies
▁ultraviolet
▁Merchant
▁martial
▁Recommendation
▁Parkinson
▁scoring
▁shortcomings
▁flirt
▁Diffuser
▁toothbrush
▁Knife
▁Emotional
▁reverence
▁ammonia
▁mischief
▁SUPER
▁diaphragm
▁Forgotten
▁Felix
▁assassinated
▁NEED
▁Accessibility
▁ancestr
478
▁fortified
▁Genius
▁scorn
▁Goddess
▁wedge
▁recharge
lost
▁freshly
[24]
blog
GREEN
▁subset
▁PNG
Far
469
▁summarized
EON
▁Toyo
▁Held
▁experimentation
▁brightest
▁Hof
▁Rising
▁diary
▁Wig
▁minimiz
▁sealant
cyclo
▁coordinated
▁Pitt
amu
▁$10,000
▁rash
1100
▁twitter
otherapy
▁Header
treatment
DOS
728
859
▁commentator
▁PAN
▁Bore
lynn
▁15-20
since
▁Chess
▁Mona
0-0
▁Econo
jong
premise
▁distressed
976
▁2:13
document
According
hip
ticket
Shame
ethane
▁Stir
▁Tune
596
▁Raven
▁1894
949
▁Taj
▁fullest
294
▁SON
▁rabbi
▁thi
▁RFC
▁Chick
▁45%
ophy
827
▁ADD
revolution
index
▁persecute
▁prescribe
▁rainy
▁Botanic
389
▁Actual
ordination
Pan
cash
▁tomato
unconstitutional
▁Advertisement
▁Belief
▁Beppu
▁Kyrgyzstan
▁Reliability
▁bizarre
▁chemotherapy
▁displacement
▁intriguing
▁knives
▁lieutenant
▁lubricant
▁maneuver
▁obsolete
▁peripheral
▁prerequisite
▁puppet
▁resilience
▁viscosity
▁CHRIST
▁Horror
▁practise
▁stipulat
▁Escort
▁Sherman
▁webinar
▁Incredible
▁Ernest
▁Harmony
▁embarrassment
▁Tahoe
▁disinfect
▁polio
▁joking
▁Whale
▁Aruba
▁Soundproof
▁wrapping
▁Caroline
▁NEXT
▁Rouge
▁Particle
▁sqm
▁JUST
ienne
▁transmitting
▁theorem
▁millionaire
GEN
▁Somewhere
[26]
▁Bulletin
Scan
▁falsely
elecommunication
▁commentary
▁barren
987
▁Vig
▁Seung
▁Harper
▁Clash
▁Kemp
shape
holding
▁inhibitor
▁Nose
▁fearless
▁barley
▁XRP
▁Sauce
▁Burke
▁Accident
055
▁(118
▁(32)
ogged
▁trait
KIN
▁Milky
▁Verify
▁profoundly
▁DIP
▁mocked
▁Jail
▁Negro
559
▁refreshed
▁50000
bill
▁Bruno
▁660
▁decreed
▁Gibb
brain
Pharm
▁SMB
▁starch
이스
▁kHz
ATT
righteous
currency
Digital
equipped
Privacy
Osaka
blood
349
Social
Canada
▁barn
street
Micro
▁leaning
Opera
lead
lactic
▁BSD
9000
urban
Forex
▁quota
▁150,000
▁Postal
▁sweating
▁Donna
▁computation
▁SUR
▁agitat
Sync
▁Fold
▁Accu
▁Parc
Vac
▁Crab
▁27500
Very
gian
▁HIS
bow
Train
▁fluent
▁admonish
kv
▁SPI
izen
▁Zap
▁Spe
micro
▁Bushing
SAT
▁Burma
797
▁Maj
stablish
609
thos
naka
▁chastise
Recommend
ABILITY
Capacitive
▁Cartagena
▁Helicopter
▁Hockey
▁Migration
▁Sofitel
▁acclaimed
▁communism
▁credible
▁figurative
▁locomotive
▁reassure
▁relevance
▁transducer
▁virtuous
▁Poverty
▁assortment
▁eradicate
▁Kepler
▁Sophia
▁Ebola
▁clerk
▁gloom
▁crises
▁Epoxy
▁Residency
▁tentacle
▁chapel
rape
▁Chengdu
▁PTSD
▁Governance
▁choir
▁Duomo
▁Vinci
▁BACK
▁Inventor
▁slipped
▁Produced
▁Binding
▁antibody
▁(102
▁cruelty
▁nonprofit
717
▁distortion
▁bingo
▁covet
▁Blackberry
▁Lamination
▁enlist
anthrop
[22]
▁guesthouse
▁postcard
onetary
▁contractual
458
}}}
▁Icelandic
▁Illustration
scope
hov
▁illuminated
▁Lunar
▁dart
▁vitality
646
▁breaches
▁ninety
▁allegedly
▁silo
▁Vivi
terior
dome
hydroxy
▁fabrication
▁advertised
▁Swear
377
449
Crypt
▁Gur
▁Boris
▁EMI
▁GRE
▁Tract
716
hao
▁workspace
pick
WinPorn
▁asserted
▁tuned
843
▁loudly
▁violently
▁restraint
▁sown
▁undo
▁cue
▁SUB
▁Glue
Gil
▁Lama
▁Largest
SEA
▁Docker
odic
taro
Land
Colossians
›
Second
Casting
grown
▁Killed
Optional
▁Glyc
create
▁Heng
▁24:3
office
usse
registered
Friendly
sleep
Comment
651
▁TPE
962
VOL
▁Georg
▁subscriber
morrow
▁1884
▁YE
▁bearer
lette
▁Grip
847
9.0
▁Dali
▁nationalist
▁Campo
▁fry
▁Bead
gear
▁Dial
bao
9-8
▁Tama
▁Predict
▁Detect
TIA
▁Attach
▁lush
▁Bracelet
▁Calcium
▁Connecticut
▁FIRST
▁Fundamental
▁Lancaster
▁Umbrella
▁acetate
▁adhesion
▁proletarian
▁referendum
▁reservoir
▁sediment
▁Monroe
▁deputy
▁fishermen
▁implied
▁Injector
▁Sicily
▁epoch
condensing
▁whistle
▁Astoria
▁Vessel
▁scuba
▁Flavor
▁REALLY
▁complies
▁emulator
▁transcript
▁Halogen
▁Fraud
▁Gasket
▁Citizenship
▁Infantry
ceptive
▁buckle
▁Pusan
▁bidding
▁pilgrimage
pong
▁Oakland
▁cardiac
▁Tension
▁preferably
▁pottery
▁Blogging
▁Rotation
▁folly
▁Harley
▁Diaper
▁spann
▁freelance
Hub
▁liberated
Cola
▁handbag
▁inherently
▁Sharm
998
▁Scarlet
▁nationalities
749
▁HANA
▁lifecycle
grain
655
▁Zig
▁Curator
▁hap
▁Medici
logue
▁Freeware
▁Quiz
▁Tough
lust
fearing
▁deceit
▁POL
▁photographic
▁pledged
▁mute
▁messy
▁Fol
▁unexpectedly
▁SEM
prehensi
▁maiden
Custom
▁tweeted
▁Rie
sistent
biz
▁Merit
▁CHAR
▁DEL
▁showroom
find
662
▁CSR
▁employing
▁Lido
Organizer
WDM
▁pretending
▁IUCN
Mary
chal
▁misses
▁KOREAN
Cloud
management
would
Teacher
information
▁Zak
automatic
growth
record
Internet
powerful
shaft
domain
produced
▁1897
distorted
▁astronomer
▁ETC
patient
▁SHIN
571
buri
correct
▁departing
▁alkali
storey
828
▁1865
▁Insider
IFF
7000
imming
▁Feeder
Hard
▁1864
624
▁Anim
▁Laminat
▁absorbing
eflect
▁Miner
pray
▁Pyr
▁Guru
pure
▁1860
▁Chad
CAP
17:00
▁Tibet
~10
▁Chill
▁3,500
Français
▁Commonwealth
▁Effort
▁Fifteen
▁Gibraltar
▁Mordecai
▁Nippon
▁Retirement
▁Sergeant
▁Subsequent
▁Svenska
▁Turbine
▁accumulation
▁arthritis
▁bladder
▁census
▁corrugated
▁english
▁exposing
▁incorporating
▁masturbate
▁necessities
▁prosecution
▁reputable
▁scalability
▁PowerShell
▁Prosecutor
▁genital
▁algae
▁Angkor
▁sensing
▁oriental
▁Scratch
▁notorious
▁impatient
▁almighty
▁disbelief
▁autism
▁Cristina
▁geometric
▁customizable
▁proficiency
▁Sketch
▁Squadron
▁Midnight
▁Infant
▁Colonial
▁WATER
▁contour
▁expel
▁Wuhan
3/4
▁blackjack
▁Firewall
▁Importance
▁Marketplace
▁resolving
zzie
4.99
▁cellphone
▁Tamil
▁maze
▁Nag
▁06:06
▁05:59
▁divert
▁Elvis
SYS
ault
▁4:7
▁yeast
▁uneven
▁Seminary
▁annoyed
▁nobility
▁reborn
▁Trang
▁barber
▁occasional
▁Allison
Classic
▁Needless
▁TRANS
▁Stamping
872
owl
▁Shear
▁attainment
75,000
▁conditional
▁quake
▁devoured
cina
angzhou
▁coexist
▁recruited
▁SDI
luck
874
Diagram
791
MAIL
70%
▁numeric
▁MTV
▁Peel
562
▁trendy
▁rebuilding
382
985
ár
▁Casey
precision
Could
respond
translation
surface
Model
▁(106
▁YG
▁cram
organic
Walk
infect
Indian
sql
▁diploma
▁gf
factory
▁sanction
sufficient
▁Fern
SAM
ethylene
▁Stripe
Customer
▁4:00
▁Haman
▁CCD
▁Latino
838
628
Pen
▁debated
462
▁Rag
kul
▁Barra
▁reconcile
▁elevate
bak
▁Astra
▁swell
▁Saba
adine
foo
▁Collaborat
▁Weave
▁Beethoven
▁Bournemouth
▁Dedicated
▁Ferdinand
▁Jehoshaphat
▁Pilgrim
▁Scenic
▁Stylish
▁Tobacco
▁accelerating
▁authoritative
▁capacitor
▁conscientious
▁squirrel
▁Secretariat
▁Sullivan
▁SurveyMonkey
▁Walmart
▁savage
▁separator
▁Sanitary
▁perimeter
▁plywood
▁dysfunction
▁stunt
▁Slut
▁Lantern
▁Sigma
▁seduction
▁unrighteous
▁rotten
▁Natalie
▁Discharge
▁ransomware
▁pips
▁Oakwood
▁Permission
▁Roselle
▁Zhou
▁COLOR
▁Cpanel
▁rewrite
▁Civilization
▁6:4
/01/20
▁Sixty
▁Kö
▁Ethan
▁Lutheran
▁conductive
▁troubleshooting
▁Fang
▁drowning
▁enlarged
▁(112
menu
▁LAW
▁stern
KEN
mbre
▁solicit
▁pitcher
▁정보
▁Palau
▁uplift
▁Oita
▁Distribut
▁Shaker
▁Rav
[3]
▁nationalism
▁Lean
▁surfing
▁mole
▁(114
▁Luk
▁Exchanger
▁Num
979
▁Lever
▁JUN
IUCN
appointed
accurate
Education
synthesis
▁12:30
Software
▁Prefectur
president
riving
▁burner
feel
▁Newport
▁Troy
836
coat
zumi
786
▁Buses
▁plank
▁Batch
stad
illion
Eccl
▁Pip
raf
▁reminding
▁imperialist
erator
▁1550
figuring
1250
▁Joon
MED
▁Baku
▁dispose
▁Tamar
▁spontaneous
▁Catha
Roll
▁characterize
▁Blank
▁infringe
▁Combine
fei
▁predominant
▁Abimelech
▁Bermuda
▁Communities
▁Ephesus
▁Integrity
▁Meredith
▁Pokemon
▁Veteran
▁flamenco
▁gradient
▁sleek
▁sundeck
▁sunglasses
▁supplication
▁susceptible
▁Manifest
▁CZK
▁Reuters
▁Psychological
▁graft
▁Prompt
orthodox
▁Kawasaki
▁Coconut
▁Contrast
▁Pigtail
phobia
▁geological
▁(2004)
▁pancake
▁Mutual
▁latitude
▁Hydrogen
▁stirred
▁dragging
▁spreadsheet
▁unfaithful
▁mimic
▁Equity
▁resentment
▁COL
▁stronghold
▁Reformation
▁Dio
▁strategically
▁flare
▁birthplace
OFF
▁crystalline
▁reunited
▁Loose
▁launcher
ccio
RATION
MARK
▁authenticity
▁immersed
▁rotor
911
▁Digi
▁flawed
▁Bakery
▁Pony
▁Merry
▁Hou
▁Penny
▁lender
▁immensely
989
disc
▁30000
906
▁bosses
▁personalize
▁Aerial
oxi
437
▁Sq
▁aggressively
▁misunderstand
chair
▁Winston
▁97%
▁CFR
849
▁sailed
▁contention
×3
▁doctorate
▁Ballet
raku
▁Mild
ctn
focus
972
express
▁jig
soul
▁ETF
▁Conditioner
Europe
▁Nak
japanese
average
Centre
volume
Polish
▁Include
RAY
842
Delete
▁grind
Trust
▁UNS
dock
▁coined
sample
627
Pod
▁Zhen
▁borrowing
\"
▁Installed
▁Cabo
▁sinking
534
bright
8-1
shine
▁1886
▁Remind
387
▁deceitful
çe
▁Fay
▁deity
Realize
pound
▁Chor
278
▁enlighten
▁Kig
▁Digit
ddling
▁Kle
plated
AAA
▁fluctuation
▁Barnabas
▁Calibration
▁Fractional
▁Immigrant
▁Minneapolis
▁SPECIAL
▁Symposium
▁Tarpaulin
▁calculating
▁degradation
▁displaced
▁engraved
▁enquiry
▁goddamn
▁influenza
▁militant
▁platinum
▁poultry
▁residing
▁scourge
▁stunned
▁intrinsic
▁ivory
▁nudity
▁cloak
▁razor
▁Beacon
▁kayak
▁spectator
▁delusion
▁surplus
▁BLUE
▁drugged
▁Accurate
▁Daisy
▁whirl
▁Armstrong
▁exemplary
▁Sejong
▁Eurasia
▁WEEK
▁Boyfriend
▁paved
▁dialect
▁curb
▁exchanging
▁gagging
▁creditors
▁Huntington
▁bruise
▁Nihon
▁VAN
▁unavailable
cyclic
▁decrypt
▁Warcraft
▁Havana
▁Scream
▁whomever
destruct
▁Runtime
▁mattresses
▁23:59
▁distracted
▁$100,000
▁Radical
▁policemen
▁Travelling
742
▁coolest
▁override
▁helium
▁Capri
▁progressively
▁endpoint
▁tempered
▁Pile
▁tempting
▁(113
york
▁goodwill
▁mitigate
WIN
▁Teeth
▁slaughtered
▁KEY
OIL
▁substituted
WARD
▁peach
▁Programmer
▁Shinto
maki
Eng
NOT
556
▁Mixing
▁seekers
▁behaved
mbra
▁3/8
▁bothered
(16
▁broadly
▁1848
▁Recognize
▁feeder
Linux
Silk
Content
drink
Nobody
analysis
895
▁BMI
▁raft
▁Carrie
▁Orbit
▁Democrat
FAQ
Metal
Apple
Spain
Stra
644
▁hanger
▁Blessing
▁Saka
▁EAST
▁Clare
Track
▁gamble
obbing
thinking
766
—“
▁Implement
▁resent
▁1888
▁Linde
▁retract
▁Türk
▁Accelerate
▁BlizzCon
▁Curvature
▁Heidelberg
▁Panorama
▁Reconnaissance
▁Retweet
▁Sleazy
▁Surgical
▁arsenal
▁catastrophic
▁detached
▁enslaved
▁extruder
▁harbour
▁inconsistent
▁periphery
▁perseverance
▁prudent
▁recurring
▁satisfies
▁scheduling
▁soybean
▁treacherous
▁unreasonable
▁wretched
▁traverse
▁Nudist
▁wield
▁Laguna
▁Sterling
▁intricate
▁Lorenzo
▁soothing
▁Sheikh
▁Hebron
▁abhor
▁Neighborhood
▁Polynesia
▁lipstick
▁jackpot
▁smote
▁MUSIC
▁Mistress
▁settling
▁Loyalty
▁(2003)
▁doomed
▁Victims
▁(2005)
▁Gilbert
▁Navi
▁MasterCard
▁Bavaria
▁Ethical
▁tuning
▁Tilt
▁imperialism
▁Hubble
▁Supermarket
▁Binance
▁Overnight
▁Attract
▁Salou
▁PASS
▁Blogger
▁Wheat
▁Mirage
▁Elena
▁1885
[21]
▁OneDrive
▁consequently
▁Coverage
▁litter
▁loot
▁naive
▁Acquired
▁Emission
▁09:30
▁coastline
▁Vest
option
▁bacterial
▁Lighthouse
near
hero
▁Hath
▁provoked
▁Plot
▁LEE
648
▁darkest
▁MTR
▁Chest
82-31-
▁Mitsu
▁suppressed
▁Merri
▁WPC
▁DEC
▁infinitely
▁sling
809
▁intensely
▁sharpen
▁folded
▁Seventh
▁Mapo
▁photographed
PIN
▁Couldn
percent
0-9
knowledge
연
Silver
amateur
producing
Word
Fast
brother
▁GAMES
▁blended
GPS
▁harvested
treated
Online
laid
▁competed
Store
governmental
▁PDA
Tele
756
699
▁Dye
Head
Stand
▁annoy
▁TEST
▁sage
deep
▁Bark
pulse
processing
▁WTO
Shall
679
▁traveller
▁Ryd
▁allocate
TICAL
▁MOU
▁mmf
971
831
▁loader
▁assassin
▁capita
▁crooked
▁APARTMENT
▁Ambient
▁Baghdad
▁Biennale
▁Concierge
▁Copacabana
▁CrocoTube
▁Majestic
▁NUMBER
▁Rockefeller
▁SanDisk
▁Satisfaction
▁Spandex
▁TECHNOLOGY
▁biodiversity
▁delegation
▁elegance
▁gigantic
▁pistol
▁sanctify
▁sausage
▁secrecy
▁undeserved
▁uninterrupted
divisible
▁Winstrol
▁Cassette
▁Segment
▁oxidation
▁stigma
▁depressing
▁GitHub
▁bosom
▁Janssen
▁nudist
▁Wolves
▁strait
▁disseminat
▁Mickey
▁stumbling
▁Greenwich
▁Piercing
▁Engagement
▁Seduced
▁Auction
▁Antivirus
▁entrepreneurial
▁paddle
▁Caleb
▁Illumination
▁ferries
▁Nex
▁Outstanding
▁Flesh
▁Additive
▁Vermont
▁Angola
▁Submitted
▁mythology
▁Forged
▁cleanliness
▁saddle
▁crank
cert
▁Judy
▁ozone
▁stiffness
▁stool
fuse
▁tomatoes
▁Shake
▁Chanel
▁lawlessness
▁Radar
▁Libra
▁foolishness
▁Debug
▁Townhouse
▁Wanna
▁scout
▁Putting
▁pcb
▁preceded
▁Compressed
▁paperwork
▁Zor
▁homestay
▁vibe
▁superpower
▁interconnected
▁customary
▁Vibe
▁Liam
▁clap
▁Diary
▁tactical
▁fortunately
CIS
▁commenced
▁bowel
▁Taxes
▁Stalinist
▁Hosea
▁abundantly
▁Christina
LIVE
ñ
▁skate
chul
▁Mick
▁vile
▁119:1
▁Brandon
▁Samson
▁routinely
▁Viet
china
▁Chop
Nov
▁recruiting
▁crave
▁Seeking
878
EVEN
▁discerning
▁starr
▁1868
▁Wipe
ionic
SQL
Count
▁flute
consuming
Greek
548
billion
▁Shun
session
mask
kHz
▁Thorn
▁disrespect
▁Buckle
Item
Final
763
RUS
▁PSA
▁influenc
vista
40*
▁$35
▁Singer
Jet
FIT
▁heroic
▁commemorat
▁Enhance
▁Mug
pang
gura
Angel
="4
▁mosquito
▁lever
ndonesianItalian
ThaiTurk
▁Flamingo
▁Milwaukee
▁Stunning
▁skyscraper
▁====
▁Destruction
▁Furnace
▁Heathrow
▁Johannesburg
▁Petroleum
▁Responsible
▁accreditation
▁adversaries
▁arithmetic
▁cricket
▁embracing
▁immersion
▁immersive
▁obligated
▁pandemic
▁reappear
▁sanitation
▁savior
▁sympathetic
▁Miriam
▁Somerset
▁Survive
▁aperture
▁holistic
▁malfunction
▁Acquisition
▁Adolf
▁Encourage
▁precedent
▁IKEA
grid
▁surgeries
▁carbohydrates
▁Reddit
▁Freud
▁plaster
▁Uninstall
▁deceptive
▁slightest
▁landlord
▁Exhibitor
▁Foursome
▁marrow
▁Macao
Wise
▁06:05
▁linger
▁reclaim
solution
▁04:26
▁crust
▁Roland
mesh
781
▁rhino
▁NHK
▁mediation
▁Wiring
661
AKU
▁replay
▁unrelated
▁Hacker
▁boiled
evsky
MAR
▁marsh
▁SAL
▁occupational
▁HIM
▁Khal
474
PHONE
▁1892
▁Launcher
759
scribing
▁Piper
▁porch
734
▁glut
▁NEO
▁conveyed
opp
▁BIM
Excellent
confidence
according
{{
sweet
(0)
Manager
Movie
Large
▁Cooler
XXXXXXXXXXXXXXXX
Ref
Body
▁Mash
▁Bonn
▁6:30
▁GMO
Jack
▁Hoist
Building
chino
927
rocket
▁hazard
▁Cao
once
500,000
*30
azole
continue
bbling
631
Basic
PSK
▁Concern
▁lymph
▁Hinge
REN
▁Inkje
▁indefinite
5-9
▁humid
▁Squad
▁smuggle
Lanzarote
▁BIBLE
▁Coupling
▁Dormitory
▁Dorothy
▁Familia
▁Galleries
▁Maldives
▁Michelangelo
▁Nairobi
▁RELATED
▁Refrigeration
▁Statistical
▁Withdrawal
▁arguably
▁dormitory
▁imaginary
▁kiosk
▁militia
▁molten
▁persuasion
▁polyurethane
▁provincial
▁qualitative
▁radiator
▁sacrament
▁sunbathing
▁turmoil
▁Expedia
▁Injectable
▁actuator
▁tweak
▁Flamenco
intestinal
ubuntu
▁Velvet
▁deported
▁skating
▁Telescope
▁Swimsuit
▁Como
▁honeymoon
▁Railroad
▁Belfast
▁debugging
▁Cambria
▁Bliss
▁instability
▁SEOUL
▁Unicode
▁SMART
▁Bareback
▁Cecil
▁impartial
▁concise
▁Cyclo
▁Poison
▁Childhood
▁Trigger
▁hostility
▁Constantine
▁Authentication
▁Context
▁prefix
▁Restart
▁undergone
▁Achievement
▁Ahaz
▁slash
▁naughty
jk
▁Consultation
▁freshwater
▁daring
▁plateau
▁Gale
▁playstore
▁Prostate
▁GOLD
▁adaptive
▁05:08
▁predictive
▁SKU
▁backbone
▁Seong
▁Alamo
▁Examine
▁punk
▁toxins
▁Salmon
958
▁Kala
cutting
▁waiver
▁Sunlight
▁hairstyle
▁pious
▁prohibition
[...]
