{"<unk>": 0, "<s>": 1, "</s>": 2, ".": 3, ",": 4, "\u2581the": 5, "s": 6, "\u2581of": 7, "\u2581to": 8, "\u2581and": 9, "\u2581a": 10, "\u2581in": 11, "\u2581is": 12, "\u2581you": 13, "\u2581I": 14, "\u2581for": 15, "\u2581that": 16, "\u2581": 17, "-": 18, "'": 19, "\u2581The": 20, ":": 21, "\u2581with": 22, "\u2581it": 23, "\u2581are": 24, "\u2019": 25, "?": 26, "\u2581on": 27, "\u2581be": 28, "\u2581(": 29, "\u2581was": 30, "\u2581not": 31, "\u2581have": 32, "t": 33, "\u2581this": 34, ")": 35, "\u2581from": 36, "\u2581your": 37, "\u2581can": 38, "\u2581will": 39, "\u2581as": 40, "\u2581or": 41, "\u2581by": 42, "\u2581\u201c": 43, "\u2581we": 44, "\u2581at": 45, "\u2581\"": 46, "ing": 47, "\u2581all": 48, "\u2581-": 49, "\u2581they": 50, "\u2581,": 51, "\u2581he": 52, "\u2581an": 53, "\u2581has": 54, "!": 55, "\u2581one": 56, "\u2581do": 57, "\u2581It": 58, "\u2581God": 59, "\u2581And": 60, "\u2581In": 61, "\u2581his": 62, "\u2581my": 63, "ed": 64, "\u2581their": 65, "\u2581but": 66, "\u2581about": 67, "\u2581more": 68, "\u2581our": 69, "\u2581A": 70, "\u2581time": 71, "\u2581who": 72, "\u2581them": 73, "\u2581We": 74, "\u2581people": 75, "\u2581me": 76, "\u25811": 77, "d": 78, ".\u201d": 79, ";": 80, "\u2581You": 81, "\u2581what": 82, "\u2581ago": 83, "\u2581This": 84, "m": 85, "\u2581years": 86, "/": 87, "\u2581were": 88, "\u2581so": 89, "\u2581there": 90, "\u2581also": 91, "\u2581He": 92, "\u2581up": 93, "\u25812": 94, "\u2581which": 95, "\u2581out": 96, "re": 97, "\u25813": 98, "\u2581other": 99, "\u2581when": 100, "\u2581been": 101, "\u2581no": 102, "\u2581like": 103, "\u2581had": 104, "\u2581if": 105, "\u2581us": 106, "\u2581know": 107, "\u2581than": 108, "\u2581But": 109, "\u2581him": 110, "...": 111, "\"": 112, "\u2581.": 113, "\u2581only": 114, "\u2581first": 115, "\u2581would": 116, "\u2581If": 117, "e": 118, ".\"": 119, "\u2581What": 120, "S": 121, "\u2581said": 122, "\u2581world": 123, "\u2581new": 124, "\u2581just": 125, "er": 126, "ly": 127, "\u2581use": 128, "\u2581So": 129, "\u2581may": 130, "\u2581into": 131, "\u2581They": 132, "\u2581how": 133, "\u25814": 134, "\u25815": 135, "\u2581year": 136, "\u2581her": 137, "\u2581Hotel": 138, "\u2581these": 139, "\u2581life": 140, "\u2581For": 141, "a": 142, "\u2581want": 143, "\u2581get": 144, "\u2581see": 145, "\u2581make": 146, "\u2581day": 147, "\u2581any": 148, "\u2581some": 149, "\u2581two": 150, "\u2581over": 151, "\u2581most": 152, "I": 153, "\u2581many": 154, "\u201d": 155, "\u2581now": 156, "\u2581need": 157, "\u2581then": 158, "\u2581good": 159, "\u2581way": 160, "\u2581very": 161, "\u2581\u2013": 162, "]": 163, "\u2581/": 164, "\u258110": 165, "y": 166, "\u2581its": 167, "\u2581work": 168, "\u2581don": 169, "\u2581should": 170, "th": 171, "\u2581[": 172, "\u2581go": 173, "\u2581such": 174, "\u2581those": 175, "\u2581did": 176, "\u2581How": 177, "\u2581right": 178, "\u2581after": 179, "\u2581There": 180, "\u2581here": 181, "\u2581even": 182, "\u2581take": 183, "C": 184, "\u2581could": 185, "\u2581well": 186, "A": 187, "\u2581When": 188, "\u2581think": 189, "\u2581used": 190, "\u2581before": 191, "ll": 192, "\u2581she": 193, "in": 194, "\u2581same": 195, "ve": 196, "\u2581&": 197, "\u2581All": 198, "\u2581come": 199, "\u2581made": 200, "\u2581man": 201, "2": 202, "\u2581No": 203, "\u2581help": 204, "\u2581back": 205, "\u2581because": 206, "\u2581much": 207, "\u2581through": 208, "\u2581does": 209, "\u25816": 210, "\u2581every": 211, "\u2581New": 212, "\u2581_": 213, "\u2581love": 214, "\u2581say": 215, "\u2581system": 216, "\u2581own": 217, "\u2581best": 218, "\u2581months": 219, "n": 220, "\u2581shall": 221, "\u2581where": 222, "\u2581That": 223, "\u2581each": 224, "\u2581To": 225, "\u2581things": 226, "D": 227, "\u2581information": 228, "\u2581going": 229, "r": 230, "\u2581must": 231, "(": 232, "\u2581Do": 233, "\u2581data": 234, "\u2581My": 235, "o": 236, "\u2581S": 237, "\u2581am": 238, "\u2581too": 239, "\u2581find": 240, "\u2581high": 241, "\u25818": 242, "\u2581great": 243, "al": 244, "\u2581On": 245, "\u25817": 246, "\u2581As": 247, "\u2581name": 248, "\u2581Jesus": 249, "\u2581B": 250, "\u2581days": 251, "\u2581place": 252, "mm": 253, "\u2581three": 254, "\u2581still": 255, "\u258112": 256, "es": 257, "\u2581always": 258, "\u2581really": 259, "\u2581free": 260, "\u2581children": 261, "The": 262, "\u2581being": 263, "\u2581down": 264, "\u258120": 265, "\u2581long": 266, "\u2581United": 267, "\u2581:": 268, "1": 269, "\u2581C": 270, "\u2581between": 271, "\u2581away": 272, "\u2581map": 273, "\u2581give": 274, "\u2581service": 275, "i": 276, "or": 277, "\u2581different": 278, "\u2581hotel": 279, "\u2581'": 280, ").": 281, "\u2581another": 282, "\u2581home": 283, "com": 284, "\u2581part": 285, "\u2581power": 286, "\u2581again": 287, "\u2581within": 288, "\u2581never": 289, "\u2581\u2018": 290, "3": 291, "\u2581water": 292, "B": 293, "\u2581business": 294, "\u2581something": 295, "\u2581With": 296, "\u258115": 297, "\u2581set": 298, "x": 299, "\u2581...": 300, "\u2581without": 301, "\u2581number": 302, "g": 303, "\u2581around": 304, "\u25819": 305, "V": 306, "\u2581last": 307, "\u2581look": 308, "\u2581One": 309, "\u2581She": 310, "\u2581U": 311, "\u2581big": 312, "\u2581Why": 313, "\u2581today": 314, "\u2581E": 315, "\u2581family": 316, "\u2581China": 317, "\u2581important": 318, "\u258111": 319, "W": 320, "\u2581better": 321, "\u2581end": 322, "\u258118": 323, "\u2581Lord": 324, "\u2581city": 325, "\u2581available": 326, "\u2581Now": 327, "\u2581called": 328, "\u2581under": 329, "\u2581minutes": 330, "T": 331, "\u2581show": 332, "\u2581why": 333, "\u2581change": 334, "\u2581xHamster": 335, "\u2581More": 336, "\u2581found": 337, "\u2581thing": 338, "\u2581old": 339, "\u2581both": 340, "\u2581P": 341, "\u2581company": 342, "\u2581men": 343, "M": 344, "4": 345, "\u2581T": 346, "\u2581O": 347, "\u2581next": 348, "\u2581Your": 349, "\u2581game": 350, "\u2581His": 351, "\u2581while": 352, "\u2581little": 353, "\u2581At": 354, "\u2581lot": 355, "\u2581Then": 356, "\u258130": 357, "\u2581experience": 358, "\u2581States": 359, "\u2581book": 360, "F": 361, "G": 362, "\u2581using": 363, "\u2581Our": 364, "\u2581become": 365, "\u2581let": 366, "\u2581room": 367, "\u2581control": 368, "\u2014": 369, "\u2581against": 370, "\u2581order": 371, "to": 372, "c": 373, "\u2581person": 374, "\u2581feel": 375, "\u2581X": 376, "\u2581per": 377, "\u2581live": 378, "\u2581products": 379, "\u2581M": 380, "\u2581From": 381, "\u2581car": 382, "b": 383, "\u2581off": 384, "\u2581D": 385, "\u2581area": 386, "\u2581able": 387, "\u2581human": 388, "K": 389, "\u2581came": 390, "\u2581example": 391, "\u2581hotels": 392, "\u2581believe": 393, "\u2581times": 394, "the": 395, "\u258116": 396, "\u2581small": 397, "on": 398, "\u2581money": 399, "\u2581heart": 400, "\u2581food": 401, "E": 402, "an": 403, "\u2581put": 404, "\u2581might": 405, "\u2581hand": 406, "ers": 407, "\u2581City": 408, "able": 409, "\u2581support": 410, "P": 411, "\u2581Jehovah": 412, "\u2581light": 413, "\u2581course": 414, "\u2581km": 415, "\u2581US": 416, "\u2581Korea": 417, "\u2581Can": 418, "\u2581got": 419, "\u2581By": 420, "\u2581stay": 421, "\u2581during": 422, "h": 423, "\u2581G": 424, "\u2581since": 425, "5": 426, "L": 427, "\u2581night": 428, "\u2581country": 429, "k": 430, "\u2581body": 431, "\u2581house": 432, "\u258114": 433, "\u2581few": 434, "star": 435, "\u2581rooms": 436, "\u2581until": 437, "\u2581re": 438, "H": 439, "\u2581World": 440, "\u2581means": 441, "\u258113": 442, "\u2581school": 443, "\u2581start": 444, "\u2581After": 445, "\u2581However": 446, "\u2581keep": 447, "l": 448, "\u2581together": 449, "\u2581women": 450, "\u2581cannot": 451, "\u2581quality": 452, "\u2581provide": 453, "\u2581Home": 454, "\u2581already": 455, "\u2581>": 456, "\u2581full": 457, "\u2581case": 458, "\u2581real": 459, "\u2581hard": 460, "\u2581says": 461, "\u2581R": 462, "\u2581team": 463, "\u2581earth": 464, "\u2581left": 465, "\u258117": 466, "\u2581month": 467, "\u2581open": 468, "\u2581High": 469, "\u2581file": 470, "\u2581)": 471, "\u2581possible": 472, "\u2581K": 473, "N": 474, "\u2581second": 475, "\u2581done": 476, "\u2581F": 477, "\u2581upon": 478, "\u2581Co": 479, "?\u201d": 480, "Show": 481, "\u2581South": 482, "\u2581hours": 483, "\u2581ever": 484, "\u2581offers": 485, "\u2581tell": 486, "\u2581personal": 487, "\u2581These": 488, "\u2581walk": 489, "\u2581others": 490, "\u2581everything": 491, "\u2581group": 492, "\u258124": 493, "_": 494, "\u2581didn": 495, "\u2581H": 496, "),": 497, "\u2581Not": 498, "\u2581point": 499, "en": 500, "\u2581call": 501, "\u2581de": 502, "X": 503, "\u2581May": 504, "\u2581doing": 505, "\u2581V": 506, "\u2581often": 507, "\u2581including": 508, "\u2581video": 509, "\u2581process": 510, "\u2581four": 511, "\u2581week": 512, "\u2581death": 513, "\u2581young": 514, "\u2581Free": 515, "\u2581went": 516, "\u2581read": 517, "\u2581future": 518, "\u2581services": 519, "man": 520, "\u2581child": 521, "\u2581word": 522, "\u258150": 523, "\u258125": 524, "\u2581page": 525, "\u2581Bible": 526, ",\u201d": 527, "\u2581son": 528, "p": 529, "\u2581product": 530, "\u2581un": 531, "\u2581University": 532, "\u2581TV": 533, "\u2581understand": 534, "\u2581least": 535, "\u2581fact": 536, "\u2581working": 537, "\u2581side": 538, "\u2581easy": 539, "\u2581enough": 540, "O": 541, "\u2581type": 542, "\u2581line": 543, "\u2581International": 544, "\u2581access": 545, "\u2581design": 546, "\u2581100": 547, "\u2581offer": 548, "\u2581price": 549, "\u2581Park": 550, "\u2581Let": 551, "\u2581website": 552, "\u2581American": 553, "\u2581words": 554, "\u2581law": 555, "\u2581yet": 556, "\u2581public": 557, "\u2581true": 558, "\u2581Please": 559, "\u2581known": 560, "\u2581later": 561, "\u2581technology": 562, "\u2581wife": 563, "\u2581given": 564, "\u2581among": 565, "\u2581Or": 566, "\u2581kind": 567, "\u2581drive": 568, "\u2581special": 569, "\u2581problem": 570, "\u2581Are": 571, "\u2581truth": 572, "\u2581English": 573, "\u2581sure": 574, "\u2581N": 575, "\u2581try": 576, "\u2581thought": 577, "\u2581nothing": 578, "\u2581once": 579, "\u2581government": 580, "\u2581five": 581, "\u2581Some": 582, "\u2581L": 583, "\u2581Windows": 584, "\u2581property": 585, "\u2581far": 586, "\u2581actually": 587, "\u2581program": 588, "\u2581play": 589, "\u2581Israel": 590, "\u2581care": 591, "\u2581close": 592, "\u2581land": 593, "\u2581view": 594, "\u2581friends": 595, "\u25812018": 596, "\u2581following": 597, "\u2581based": 598, "\u2581online": 599, "st": 600, "\u2581York": 601, "\u2581software": 602, "R": 603, "\u2581machine": 604, "\u2581million": 605, "\u258121": 606, "\u2581An": 607, "\u2581became": 608, "\u2581countries": 609, "\u2581won": 610, "w": 611, "\u2581Japan": 612, "\u2581face": 613, "\u2581yourself": 614, "\u2581site": 615, "\u2581comes": 616, "\u2581learn": 617, "\u2581single": 618, "We": 619, "\u2581Who": 620, "\u2581someone": 621, "\u2581anything": 622, "ic": 623, "\u2581bring": 624, "\u2581living": 625, "\u2581whole": 626, "\u2581size": 627, "\u2581large": 628, "\u2581Read": 629, "8": 630, "\u2581Center": 631, "\u2581father": 632, "\u2581students": 633, "\u2581ask": 634, "\u2581unto": 635, "6": 636, "\u2581--": 637, "\u2581less": 638, "\u2581user": 639, "\u2581safe": 640, "\u2581Q": 641, "\u2581doesn": 642, "\u2581state": 643, "\u2581create": 644, "\u2581local": 645, "\u2581took": 646, "\u2581top": 647, "\u2581mean": 648, "\u258119": 649, "\u2581North": 650, "\u2581age": 651, "\u2581located": 652, "\u2581level": 653, "\u2581Is": 654, "\u2581Don": 655, "\u2581past": 656, "\u2581though": 657, "\u2581making": 658, "\u2581problems": 659, "\u2581seen": 660, "\u2581talk": 661, "\u2581social": 662, "\u2581air": 663, "ation": 664, "\u2581computer": 665, "\u2581third": 666, "\u2581faith": 667, "\u2581Japanese": 668, "v": 669, "\u2581space": 670, "\u2581themselves": 671, "\u25812019": 672, "\u2581looking": 673, "\u2581\u2014": 674, "\u2581health": 675, "\u2581files": 676, "\u2581weeks": 677, "\u2581please": 678, "\u2581House": 679, "\u2581history": 680, "\u2581needs": 681, "\u2581war": 682, "\u2581National": 683, "\u2581March": 684, "\u2581told": 685, "\u2581mind": 686, "\u2581head": 687, "\u2581music": 688, "\u2581woman": 689, "\u2581Machine": 690, "\u2581created": 691, "\u2581First": 692, "\u2581Re": 693, "\u2581percent": 694, "\u2581hope": 695, "\u2581Christ": 696, "\u2581HD": 697, "\u2581study": 698, "\u2581Go": 699, "?\"": 700, "\u2581test": 701, "\u2581makes": 702, "\u2581provides": 703, "\u2581center": 704, "\u2581mother": 705, "\u2581enjoy": 706, "and": 707, "ion": 708, "*": 709, "\u2581eyes": 710, "\u2581choose": 711, "\u258140": 712, "\u2581pay": 713, "\u2581started": 714, "\u2581+": 715, "\u2581reason": 716, "us": 717, "ness": 718, "\u2581result": 719, "\u2581Power": 720, "\u2581Korean": 721, "\u2581include": 722, "\u2581development": 723, "+": 724, "\u2581eat": 725, "f": 726, "\u2581April": 727, "\u2581building": 728, "\u2581form": 729, "\u2581question": 730, "\u2581Be": 731, "\u2581People": 732, "\u2581January": 733, "10": 734, "\u2581December": 735, "\u2581language": 736, "\u2581beautiful": 737, "\u2581energy": 738, "\u2581king": 739, "up": 740, "\u2581stop": 741, "\u25812017": 742, "\u2581security": 743, "\u2581having": 744, "\u2581saying": 745, "\u2581value": 746, "\u2581*": 747, "&": 748, "\u2581Of": 749, "\u2581saw": 750, "\u2581remember": 751, "u": 752, "\u2581sent": 753, "\u2581America": 754, "\u2581production": 755, "\u2581account": 756, "\u2581research": 757, "\u2581according": 758, "\u2581hear": 759, "\u2581wanted": 760, "\u2581industry": 761, "\u2581etc": 762, "\u2581Well": 763, "\u2581J": 764, "\u25810": 765, "\u2581customers": 766, "\u2581leave": 767, "\u2581users": 768, "\u2581himself": 769, "\u2581color": 770, "\u2581St": 771, "\u2581main": 772, "\u2581save": 773, "\u2581everyone": 774, "\u2581meet": 775, "\u2581wrong": 776, "\u2581early": 777, "\u2581asked": 778, "\u2581international": 779, "\u2581list": 780, "\u2581July": 781, "co": 782, "ity": 783, "\u2581October": 784, "\u2581John": 785, "\u2581project": 786, "\u2581features": 787, "7": 788, "\u2581web": 789, "\u2581near": 790, "\u2581lost": 791, "\u2581e": 792, "\u2581airport": 793, "\u2581matter": 794, "\u2581natural": 795, "\u2581W": 796, "\u2581bad": 797, "no": 798, "z": 799, "\u2581several": 800, "\u2581began": 801, "\u2581share": 802, "\u2581market": 803, "\u2581black": 804, "\u2581low": 805, "\u2581travel": 806, "\u2581run": 807, "\u2581station": 808, "\u2581present": 809, "\u2581Day": 810, "\u2581Most": 811, "\u2581short": 812, "\u2581June": 813, "\u2581job": 814, "\u258122": 815, "\u2581September": 816, "You": 817, "\u2581Me": 818, "\u2581parents": 819, "\u2581turn": 820, "less": 821, "\u2581LED": 822, "\u2581answer": 823, "\u2581various": 824, "\u2581non": 825, "\u2581guests": 826, "\u2581material": 827, "\u2581August": 828, "\u2581else": 829, "\u2581i": 830, "\u2581self": 831, "\u2581morning": 832, "\u2581deal": 833, "\u2581version": 834, "\u2581Car": 835, "\u2581School": 836, "\u2581receive": 837, "\u2581November": 838, "\u2581gave": 839, "\u2581period": 840, "\u2581San": 841, "\u2581plan": 842, "\u2581longer": 843, "\u2581Good": 844, "\u2581Yes": 845, "\u2581Street": 846, "\u2581peace": 847, "\u2581rights": 848, "\u2581network": 849, "\u2581Because": 850, "\u2581x": 851, "\u2581above": 852, "\u2581System": 853, "\u2581story": 854, "\u2581Many": 855, "le": 856, "\u2581Him": 857, "\u2581check": 858, "\u2581Inn": 859, "it": 860, "\u2581knowledge": 861, "\u2581office": 862, "\u2581phone": 863, "\u2581Chinese": 864, "\u2581follow": 865, "\u2581card": 866, "\u2581device": 867, "\u2581blood": 868, "$": 869, "\u2581La": 870, "\u2581rest": 871, "\u2581games": 872, "\u2581lives": 873, "\u2581common": 874, "\u2581management": 875, "\u2581Air": 876, "\u2581soon": 877, "\u2581contact": 878, "\u2581results": 879, "\u2581Model": 880, "\u2581fire": 881, "\u2581#": 882, "\u2581Just": 883, "\u2581ways": 884, "\u2581companies": 885, "\u2581About": 886, "\u2581white": 887, "\u2581range": 888, "\u2581front": 889, "is": 890, "\u2581Father": 891, "\u2581Man": 892, "\u2581return": 893, "\u2581alone": 894, "\u2581almost": 895, "\u2581clear": 896, "\u2581happy": 897, "\u2581code": 898, "\u2581move": 899, "\u2581coming": 900, "\u2581fear": 901, "\u2581content": 902, "\u2581cost": 903, "\u2581party": 904, "\u2581application": 905, "\u2581perfect": 906, "\u258123": 907, "ment": 908, "\u2581works": 909, "\u2581friend": 910, "\u2581heard": 911, "\u2581simple": 912, "\u2581key": 913, "\u2581members": 914, "\u2581strong": 915, "\u2581half": 916, "\u2581taken": 917, "\u2581visit": 918, "\u258160": 919, "\u2581current": 920, "\u2581private": 921, "\u2581hands": 922, "\u2581Have": 923, "\u2581along": 924, "\u2581date": 925, "\u2581complete": 926, "\u2581idea": 927, "\u2581customer": 928, "\u2581anyone": 929, "J": 930, "\u2581Where": 931, "\u2581Business": 932, "\u2581provided": 933, "\u2581Black": 934, "ia": 935, "\u2581amateur": 936, "\u2581\u2022": 937, "\u2581Best": 938, "\u2581systems": 939, "\u2581buy": 940, "\u2581Time": 941, "\u2581individual": 942, "\u2581Even": 943, "\u2581either": 944, "\u2581White": 945, "\u2581modern": 946, "\u2581box": 947, "\u2581Get": 948, "\u2581die": 949, "ism": 950, "\u2581Water": 951, "\u258126": 952, "\u2581De": 953, "te": 954, "\u2581Kingdom": 955, "\u2581model": 956, "\u2581February": 957, "\u2581average": 958, "na": 959, "\u2581however": 960, "\u2581speak": 961, "\u2581certain": 962, "\u2581War": 963, "\u2581Internet": 964, "It": 965, "\u2581born": 966, "\u2581Station": 967, "\u2581send": 968, "ist": 969, "ro": 970, "\u2581community": 971, "\u2581Since": 972, "\u2581built": 973, "\u2581(1": 974, "\u2581Service": 975, "\u2581Oh": 976, "\u25812016": 977, "\u2581questions": 978, "9": 979, "\u2581required": 980, "minute": 981, "\u2581cause": 982, "\u2581total": 983, "year": 984, "\u2581Room": 985, "\u2581King": 986, "\u2581oil": 987, "\u2581location": 988, "\u2581sea": 989, "\u2581environment": 990, "\u2581rate": 991, "\u2581Today": 992, "\u2581dead": 993, "\u25811.": 994, "\u2581needed": 995, "\u2581performance": 996, "do": 997, "\u2581Beach": 998, "\u2581Allah": 999, "\u2581David": 1000, "est": 1001, "\u2581Europe": 1002, "\u2581outside": 1003, "Y": 1004, "\u258128": 1005, "\u2581European": 1006, "\u2581LORD": 1007, "\u2581m": 1008, "\u2581news": 1009, "\u2581difficult": 1010, "ton": 1011, "\u2581received": 1012, "\u2581getting": 1013, "\u2581continue": 1014, "\u2581itself": 1015, "\u2581Book": 1016, "\u2581six": 1017, "ra": 1018, "\u2581film": 1019, "\u2581Check": 1020, "\u2581changes": 1021, "\u2581Number": 1022, "\u2581moment": 1023, "\u2581church": 1024, "\u2581Google": 1025, "\u2581choice": 1026, "\u2581original": 1027, "\u2581View": 1028, "\u2581bit": 1029, "\u2581fast": 1030, "\u2581Red": 1031, "\u2581standard": 1032, "\u2581designed": 1033, "\u2581field": 1034, "\u2581changed": 1035, "\u2581series": 1036, "\u2581Search": 1037, "\u2581London": 1038, "\u2581post": 1039, "\u2581Dr": 1040, "time": 1041, "\u2581whether": 1042, "\u2581professional": 1043, "\u2581brought": 1044, "\u2581message": 1045, "\u2581speed": 1046, "\u258127": 1047, "\u2581purpose": 1048, "\u2581major": 1049, "\u2581Color": 1050, "\u2581art": 1051, "\u2581girl": 1052, "\u2581build": 1053, "\u2581knew": 1054, "\u2581Size": 1055, "\u2581usually": 1056, "\u2581address": 1057, "de": 1058, "\u2581sex": 1059, "\u2581Life": 1060, "\u2581Airport": 1061, "Z": 1062, "\u2581Paul": 1063, "\u2581Pro": 1064, "\u2581trying": 1065, "\u2581Site": 1066, "\u2581app": 1067, "\u2581Italy": 1068, "\u2581Christian": 1069, "\u2581$": 1070, "\u2581Museum": 1071, "\u2581See": 1072, "\u2581Hotels": 1073, "\u2581below": 1074, "\u2581died": 1075, "\u2581Group": 1076, "\u2581French": 1077, "\u2581Steel": 1078, "\u2581class": 1079, "\u2581p": 1080, "\u2581ready": 1081, "\u2581media": 1082, "\u2581apartment": 1083, "\u2581kids": 1084, "\u2581train": 1085, "\u2581Son": 1086, "\u2581\u00a9": 1087, "\u2581education": 1088, "\u2581meters": 1089, "el": 1090, "\u2581especially": 1091, "\u2581taking": 1092, "\u2581global": 1093, "\u2581event": 1094, "\u2581parts": 1095, "\u2581Every": 1096, ",\"": 1097, "\u2581popular": 1098, "\u2581quickly": 1099, "\u2581heaven": 1100, "\u2581easily": 1101, "\u2581fun": 1102, "ar": 1103, "\u2581takes": 1104, "ry": 1105, "\u2581addition": 1106, "\u2581hair": 1107, "\u2581trust": 1108, "\u2581husband": 1109, "\u2581across": 1110, "\u2581stars": 1111, "\u2581Will": 1112, "12": 1113, "\u2581relationship": 1114, "\u2581step": 1115, "\u2581Church": 1116, "\u2581function": 1117, "\u2581Z": 1118, "\u2581entire": 1119, "\u2581steel": 1120, "\u2581hot": 1121, "\u2581risk": 1122, "ate": 1123, "\u2581equipment": 1124, "\u2581inside": 1125, "\u2581Al": 1126, "\u2581ye": 1127, "\u2581soul": 1128, "da": 1129, "\u2581shower": 1130, "U": 1131, "\u2581(18+)": 1132, "\u2581hosting": 1133, "\u2581Light": 1134, "\u2581watch": 1135, "at": 1136, "\u2581opened": 1137, "\u2581bed": 1138, "\u2581tits": 1139, "\u2581Road": 1140, "\u25812.": 1141, "\u2581Two": 1142, "\u2581held": 1143, "\u2581Hot": 1144, "\u2581Office": 1145, "\u2581Seoul": 1146, "\u2581drink": 1147, "\u2581search": 1148, "ive": 1149, "\u2581East": 1150, "\u2581Name": 1151, "\u2581Germany": 1152, "\u2581century": 1153, "\u2581bar": 1154, "In": 1155, "\u2581views": 1156, "\u2581spirit": 1157, "\u2581German": 1158, "\u2581Here": 1159, "\u2581similar": 1160, "\u2581France": 1161, "!\u201d": 1162, "\u2581Other": 1163, "\u2581action": 1164, "\u2581due": 1165, "\u25812015": 1166, "\".": 1167, "\u2581lead": 1168, "\u2581Product": 1169, "\u2581added": 1170, "\u2581Mac": 1171, "\u2581beginning": 1172, "\u2581sense": 1173, "rs": 1174, "\u2581brother": 1175, "\u2581evil": 1176, "\u2581nature": 1177, "ian": 1178, "\u2581door": 1179, "\u2581isn": 1180, "\u2581increase": 1181, "\u2581stand": 1182, "\u2581season": 1183, "\u2581types": 1184, "\u2581add": 1185, "\u2581national": 1186, "go": 1187, "\u2581myself": 1188, "ting": 1189, "\u2581Open": 1190, "\u2581wait": 1191, "\u2581general": 1192, "\u2581solution": 1193, "\u2581training": 1194, "\u2581pressure": 1195, "\u2581temperature": 1196, "\u2581political": 1197, "\u2581happened": 1198, "\u25813-": 1199, "\u2581West": 1200, "\u2581Use": 1201, "\u2581seven": 1202, "\u2581Love": 1203, "\u2581report": 1204, "\u25811,": 1205, "\u2581position": 1206, "\u2581enter": 1207, "\u2581treatment": 1208, "\u2581behind": 1209, "\u2581amount": 1210, "\u2581whom": 1211, "\u2581mature": 1212, "\u2581released": 1213, "What": 1214, "\u2581image": 1215, "one": 1216, "ri": 1217, "\u2581member": 1218, "\u2581Also": 1219, "\u2581unique": 1220, "\u2581further": 1221, "\u2581therefore": 1222, "ch": 1223, "ne": 1224, "\u2581voice": 1225, "\u2581Company": 1226, "\u2581thou": 1227, "as": 1228, "\u2581necessary": 1229, "ta": 1230, "\u2581weight": 1231, "ty": 1232, "\u2581simply": 1233, "\u2581bus": 1234, "\u00ae": 1235, "\u2581nor": 1236, "\u2581Old": 1237, "ling": 1238, "\u2581situation": 1239, "age": 1240, "\u2581President": 1241, "\u258129": 1242, "\u2581Mr": 1243, "\u2581table": 1244, "\u2581specific": 1245, "\u2581Type": 1246, "\u2581higher": 1247, "\u2581Next": 1248, "\u2581Only": 1249, "\u2581allow": 1250, "\u2581paper": 1251, "\u2581developed": 1252, "\u2581talking": 1253, "\u2581According": 1254, "\u2581email": 1255, "\u2581Download": 1256, "un": 1257, "\u2581reach": 1258, "\u2581Her": 1259, "\u2581PornHub": 1260, "\u2581download": 1261, "\u2581rather": 1262, "\u2581Did": 1263, "\u2581effect": 1264, "11": 1265, "old": 1266, "\u2581final": 1267, "\u2581option": 1268, "\u2581Take": 1269, "min": 1270, "\u2581hold": 1271, "\u2581Great": 1272, "\u2581mom": 1273, "\u2581policy": 1274, "\u2581sin": 1275, "\u2581hour": 1276, "0": 1277, "\u2581Android": 1278, "\u2581wants": 1279, "\u2581write": 1280, "\u2581Un": 1281, "\u2581places": 1282, "\u2581Word": 1283, "\u2581fine": 1284, "\u2581completely": 1285, "\u2581red": 1286, "\u2581happen": 1287, "\u2581quite": 1288, "\u2581probably": 1289, "\u2581safety": 1290, "If": 1291, "\u2581State": 1292, "\u2581devices": 1293, "\u2581Kim": 1294, "\u2581culture": 1295, "\u2581While": 1296, "\u2581options": 1297, "\u2581written": 1298, "\u2581seems": 1299, "\u2581pre": 1300, "\u2581co": 1301, "\u2581Ltd": 1302, "\u2581PC": 1303, "\u2581coffee": 1304, "\u2581mobile": 1305, "\u2581forward": 1306, "\u2581double": 1307, "\u2581ten": 1308, "20": 1309, "\u2581gives": 1310, "\u2581Art": 1311, "ie": 1312, ">": 1313, "\u2581tool": 1314, "son": 1315, "\u2581climate": 1316, "\u2581movie": 1317, "\u2581led": 1318, "\u2581digital": 1319, "\u2581fully": 1320, "\u2581protection": 1321, "\u2581military": 1322, "\u2581Y": 1323, "ized": 1324, "\u2581Guests": 1325, "\u2581areas": 1326, "\u2581success": 1327, "\u2581directly": 1328, "out": 1329, "\u2581Each": 1330, "\u2581issue": 1331, "\u2581c": 1332, "\u2581society": 1333, "am": 1334, "\u2581pain": 1335, "\u2581conditions": 1336, "\u2581decision": 1337, "\u2581couple": 1338, "\u2581source": 1339, "\u258135": 1340, "land": 1341, "\u2581Bar": 1342, "ant": 1343, "\u2581medical": 1344, "\u2581Earth": 1345, "\u2581Data": 1346, "il": 1347, "\u2581Republic": 1348, "\u2581sometimes": 1349, "\u2581particular": 1350, "\u2581internet": 1351, "\u2581town": 1352, "\u2581Canada": 1353, "This": 1354, "\u2581activities": 1355, "la": 1356, "\u2581pass": 1357, "\u2581Central": 1358, "ma": 1359, "\u2581News": 1360, "\u2581clean": 1361, "\u2581Those": 1362, "\u2581Material": 1363, "\u2581leading": 1364, "15": 1365, "\u2581growth": 1366, "\u2013": 1367, "\u2581fall": 1368, "\u2581Video": 1369, "\u201d.": 1370, "\u2581platform": 1371, "\u2581goes": 1372, "\u2581loss": 1373, "\u2581article": 1374, "\u2581opportunity": 1375, "\u2581protect": 1376, "nd": 1377, "\u2581legal": 1378, "\u2581player": 1379, "\u2581skin": 1380, "\u2581meeting": 1381, "\u2581sun": 1382, "\u2581cut": 1383, "\u2581sound": 1384, "\u2581request": 1385, "\u2581physical": 1386, "\u258131": 1387, "\u2581related": 1388, "\u2581goal": 1389, "\u2581Information": 1390, "ary": 1391, "\u2581200": 1392, "\u2581screen": 1393, "\u2581role": 1394, "\u2581issues": 1395, "\u2581sleep": 1396, "ul": 1397, "\u2581store": 1398, "\u2581sign": 1399, "\u2581storage": 1400, "\u2581Wi": 1401, "\u2581feet": 1402, "\u2581sites": 1403, "\u2581ability": 1404, "\u2581thinking": 1405, "\u2581interest": 1406, "\u2581Web": 1407, "\u2581memory": 1408, "\u2581powerful": 1409, "\u2581baby": 1410, "\u2581thy": 1411, "\u2581Young": 1412, "\u2581Paris": 1413, "\u2581turned": 1414, "li": 1415, "\u2581late": 1416, "\u2581Up": 1417, "\u2581wish": 1418, "\u2581Therefore": 1419, "\u2581Hong": 1420, "\u2581Russian": 1421, "\u2581truly": 1422, "\u2581Satan": 1423, "\u2581shows": 1424, "\u2581forget": 1425, "\u2581server": 1426, "\u2581reality": 1427, "\u2581instead": 1428, "\u2581wide": 1429, "\u2581Products": 1430, "And": 1431, "\u2581knows": 1432, "\u2581Does": 1433, "\u2581Last": 1434, "Fi": 1435, "\u2581ensure": 1436, "\u2581strength": 1437, "\u2581applications": 1438, "\u2581ground": 1439, "30": 1440, "\u2581student": 1441, "\u2581path": 1442, "\u2581president": 1443, "\u2581felt": 1444, "\u2581videos": 1445, "\u2581Bed": 1446, "\u2581via": 1447, "\u2581<": 1448, "18": 1449, "\u2581consider": 1450, "\u2581learning": 1451, "\u2581Hostel": 1452, "\u2581Copyright": 1453, "\u2581running": 1454, "\u2581daughter": 1455, "\u2581improve": 1456, "\u2581Asian": 1457, "\u2581feature": 1458, "\u2581attention": 1459, "\u2581factory": 1460, "\u2581trade": 1461, "\u2581click": 1462, "\u2581immediately": 1463, "\u258101": 1464, "\u2581method": 1465, "\u2581Show": 1466, "He": 1467, "\u2581Russia": 1468, "ine": 1469, "\u2581terms": 1470, "\u2581includes": 1471, "\u2581Asia": 1472, "\u2581largest": 1473, "\u2581staff": 1474, "\u2581eye": 1475, "\u2581Like": 1476, "\u2581Le": 1477, "\u2581currently": 1478, "\u2581British": 1479, "\u2581brain": 1480, "\u258132": 1481, "\u2581fight": 1482, "ol": 1483, "\u2581comfortable": 1484, "\u2581grow": 1485, "\u2581events": 1486, "\u2581display": 1487, "\u2581Spirit": 1488, "\u2581materials": 1489, "of": 1490, "\u2581charge": 1491, "\u2581Moses": 1492, "\u2581included": 1493, "\u2581nation": 1494, "\u2581force": 1495, "\u2581Resort": 1496, "\u2581road": 1497, "\u2581record": 1498, "\u2581facilities": 1499, "\u2581kingdom": 1500, "\u2581reading": 1501, "\u2581100%": 1502, "um": 1503, "\u2581Green": 1504, "\u2581teen": 1505, "\u2581serve": 1506, "\u2581act": 1507, "\u2581summer": 1508, "\u2581text": 1509, "\u2581distance": 1510, "ization": 1511, "\u2581win": 1512, "\u2581cases": 1513, "\u2581(19": 1514, "\u2581mouth": 1515, "\u2581apply": 1516, "\u2581dream": 1517, "\u2581Thus": 1518, "\u2581lose": 1519, "\u2581details": 1520, "16": 1521, "\u2581Year": 1522, "\u2581published": 1523, "\u25814-": 1524, "\u2581greater": 1525, "for": 1526, "\u2581Family": 1527, "\u2581IP": 1528, "Q": 1529, "\u2581listen": 1530, "\u2581doctor": 1531, "Tube": 1532, "me": 1533, "\u2581Over": 1534, "\u2581|": 1535, "\u2581PDF": 1536, "\u2581financial": 1537, "\u2581points": 1538, "\u2581loved": 1539, "ca": 1540, "mo": 1541, "\u258102": 1542, "\u2581Line": 1543, "\u2581sales": 1544, "\u2581allows": 1545, "ur": 1546, "line": 1547, "\u2581~": 1548, "\u258105": 1549, "\u2581Find": 1550, "\u2581rules": 1551, "\u2581finally": 1552, "\u2581disease": 1553, "be": 1554, "\u2581500": 1555, "\u2581Teen": 1556, "\u2581successful": 1557, "\u2581accept": 1558, "\u2581board": 1559, "ful": 1560, "\u2581Africa": 1561, "\u2581seem": 1562, "\u2581throughout": 1563, "\u2581famous": 1564, "\u25812014": 1565, "\u2581killed": 1566, "\u2581supply": 1567, "\u2581accommodation": 1568, "\u2581Games": 1569, "\u2581gone": 1570, "\u2581song": 1571, "\u2581writing": 1572, "\u2581Thank": 1573, "\u2581begin": 1574, "\u2581THE": 1575, "\u2581decided": 1576, "\u2581animals": 1577, "ce": 1578, "\u2581effective": 1579, "\u2581select": 1580, "17": 1581, "\u2581established": 1582, "!\"": 1583, "\u2581Top": 1584, "lo": 1585, "\u25813.": 1586, "\u2581During": 1587, "\u2581Big": 1588, "\u2581anal": 1589, "\u2581Union": 1590, "\u2581Australia": 1591, "\u2581economic": 1592, "\u2581floor": 1593, "\u2581b": 1594, "\u2581ones": 1595, "day": 1596, "\u2581Long": 1597, "\u2581Holy": 1598, "\u2581normal": 1599, "\u2581kill": 1600, "\u258180": 1601, "\u2581Contact": 1602, "\u2581forth": 1603, "\u2581beauty": 1604, "\u2581Apple": 1605, "\u2581Technology": 1606, "\u2581gold": 1607, "\u2581japanese": 1608, "50": 1609, "\u2581understanding": 1610, "19": 1611, "\u2581direct": 1612, "\u2581appointed": 1613, "\u2581likely": 1614, "\u2581Come": 1615, "\u2581poor": 1616, "\u2581Microsoft": 1617, "\u2581uses": 1618, "\u2581worship": 1619, "\u2581avoid": 1620, "\u2581marriage": 1621, "\u25812013": 1622, "ter": 1623, "\u2581official": 1624, "\u2581excellent": 1625, "\u2581science": 1626, "\u2581General": 1627, "\u2581Make": 1628, "\u2581books": 1629, "\u2581hundreds": 1630, "\u2581wall": 1631, "\u2581fish": 1632, "\u2581Global": 1633, "et": 1634, "\u258190": 1635, "\u2581Design": 1636, "\u2581wrote": 1637, "\u2581milf": 1638, "\u2581tried": 1639, "\u2581style": 1640, "\u2581promise": 1641, "\u2581additional": 1642, "\u2581levels": 1643, "\u2581dog": 1644, "\u2581chance": 1645, "\u2581photos": 1646, "\u2581healthy": 1647, "\u2581worth": 1648, "net": 1649, "\u2581requirements": 1650, "\u2581creation": 1651, "\u2581Official": 1652, "\u2581organization": 1653, "ge": 1654, "\u2581cities": 1655, "\u2581term": 1656, "\u2581happens": 1657, "\u2581Sun": 1658, "\u2581difference": 1659, "\u2581offering": 1660, "-1": 1661, "\u2581gift": 1662, "\u2581focus": 1663, "\u2581Maybe": 1664, "\u2581(2": 1665, "\u2581activity": 1666, "\u2581Their": 1667, "\u2581Yet": 1668, "\u2581spend": 1669, "\u2581cookies": 1670, "per": 1671, "\u2581Island": 1672, "\u2581Blue": 1673, "\u2581India": 1674, "\u2581Once": 1675, "\u2581Tags": 1676, "\u2581sons": 1677, "\u2581tools": 1678, "\u2581looks": 1679, "24": 1680, "\u2581Kong": 1681, "based": 1682, "\u2581forever": 1683, "\u2581giving": 1684, "\u2581Party": 1685, "by": 1686, "\u2581cancer": 1687, "\u2581operation": 1688, "\u2581ISO": 1689, "\u2581prayer": 1690, "\u2581met": 1691, "ko": 1692, "\u2581recent": 1693, "\u2581pool": 1694, "\u258145": 1695, "\u2581deep": 1696, "\u2581USA": 1697, "\u2581technical": 1698, "\u2581returned": 1699, "\u2581produce": 1700, "\u2581Management": 1701, "\u258106": 1702, "\u2581certainly": 1703, "25": 1704, "\u2581capacity": 1705, "\u2581worked": 1706, "ous": 1707, "ha": 1708, "\u2581spiritual": 1709, "\u2581guide": 1710, "13": 1711, "\u2581positive": 1712, "\u2581develop": 1713, "14": 1714, "ated": 1715, "\u2581surface": 1716, "\u2581Court": 1717, "\u2581Facebook": 1718, "\u2581Club": 1719, "\u2581foreign": 1720, "\u2581College": 1721, "\u2581El": 1722, "\u2581lower": 1723, "ah": 1724, "\u2581pretty": 1725, "\u2581Live": 1726, "\u2581response": 1727, "~": 1728, "\u2581restaurant": 1729, "\u2581respect": 1730, "\u2581television": 1731, "\u2581\u00b7": 1732, "di": 1733, "ga": 1734, "\u2581brand": 1735, "\u2581cold": 1736, "\u2581command": 1737, "\u2581daily": 1738, "\u2581freedom": 1739, "\u25812012": 1740, "ka": 1741, "\u2581Law": 1742, "\u2581green": 1743, "\u2581multiple": 1744, "\u2581thus": 1745, "\u2581groups": 1746, "\u2581Health": 1747, "\u2581Game": 1748, "\u2581middle": 1749, "\u2581feeling": 1750, "\u2581waiting": 1751, "\u2581stage": 1752, "\u2581Peter": 1753, "eth": 1754, "\u2581basic": 1755, "\u2581break": 1756, "\u2581variety": 1757, "\u2581Food": 1758, "\u2581300": 1759, "\u2581involved": 1760, "\u2581police": 1761, "\u25812-": 1762, "\u2581saved": 1763, "\u2581Double": 1764, "\u2581practice": 1765, "\u2581wasn": 1766, "\u2581reasons": 1767, "\u2581subject": 1768, "\u258103": 1769, "\u2581recently": 1770, "\u2581thousands": 1771, "\u2581Grand": 1772, "\u2581Yeah": 1773, "\u2581married": 1774, "\u2581lies": 1775, "\u2581nice": 1776, "\u2581playing": 1777, "\u2581potential": 1778, "id": 1779, "\u2581nations": 1780, "\u2581moved": 1781, "\u2581toward": 1782, "\u2581UK": 1783, "\u2581traditional": 1784, "\u2581desire": 1785, "@": 1786, "\u2581ourselves": 1787, "\u2581exactly": 1788, "\u2581button": 1789, "\u2581USB": 1790, "\u2581evidence": 1791, "\u258170": 1792, "\u2581allowed": 1793, "\u2581camera": 1794, "\u2581considered": 1795, "\u2581looked": 1796, "\u2581programs": 1797, "\u2581tree": 1798, "\u2581Control": 1799, "\u2581Large": 1800, "\u2581Although": 1801, "\u2581partner": 1802, "\u2581afraid": 1803, "\u2581connection": 1804, "\u2581latest": 1805, "\u2581Hall": 1806, "\u2581Support": 1807, "\u2581Sea": 1808, "\u2581Online": 1809, "\u2581release": 1810, "\u2581Tokyo": 1811, "\u2581mm": 1812, "\u2581central": 1813, "\u2581solutions": 1814, "\u2581reserved": 1815, "\u2581Ho": 1816, "\u2581population": 1817, "\u2581meaning": 1818, "\u00c2": 1819, "\u258136": 1820, "\u2581Services": 1821, "\u258107": 1822, "\u2581Bay": 1823, "gu": 1824, "\u2581ass": 1825, "\u2581=": 1826, "\u2581region": 1827, "\u2581learned": 1828, "\u2581active": 1829, "\u2581interesting": 1830, "\u2581serious": 1831, "\u2581thanks": 1832, "\u2581Security": 1833, "Do": 1834, "\u2581thousand": 1835, "\u2581picture": 1836, "ies": 1837, "No": 1838, "\u2581cover": 1839, "\u2581Hi": 1840, "\u2581boy": 1841, "\u2581II": 1842, "ni": 1843, "\u2581Western": 1844, "\u2581document": 1845, "\u2581steps": 1846, "men": 1847, "\u2581appear": 1848, "\u2581equal": 1849, "\u2581exist": 1850, "\u2581River": 1851, "\u2581Any": 1852, "\u2581Three": 1853, "\u2581sold": 1854, "ad": 1855, "\u2581Another": 1856, "\u2581wear": 1857, "\u2581huge": 1858, "\u2581touch": 1859, "\u2581trip": 1860, "con": 1861, "\u25814.": 1862, "\u2581Play": 1863, "\u2581Article": 1864, "\u2581cable": 1865, "\u25812020": 1866, "\u2581teach": 1867, "\u25812010": 1868, "\u2581connected": 1869, "way": 1870, "\u2581interested": 1871, "\u2581eight": 1872, "\u2581Standard": 1873, "\u2581Back": 1874, "\u2581rule": 1875, "\u2581benefit": 1876, "\u2581Privacy": 1877, "\u2581indeed": 1878, "\u2581delivery": 1879, "\u2581Women": 1880, "\u2581purchase": 1881, "\u2581teacher": 1882, "\u2581court": 1883, "\u2581Wall": 1884, "\u2581gets": 1885, "\u258104": 1886, "j": 1887, "\u2581dark": 1888, "\u2581Christians": 1889, "\u2581offered": 1890, "\u25812011": 1891, "\u2581v": 1892, "\u2581photo": 1893, "\u2581responsible": 1894, "\u2581weather": 1895, "ya": 1896, "\u2581Super": 1897, "cm": 1898, "\u2581Date": 1899, "\u2581Look": 1900, "\u2581players": 1901, "\u258108": 1902, "\u2581construction": 1903, "ING": 1904, "\u2581Us": 1905, "\u2581Christmas": 1906, "\u2581Department": 1907, "\u2581rich": 1908, "\u2581remain": 1909, "\u2581reached": 1910, "\u2581Mar": 1911, "\u2581g": 1912, "\u2581except": 1913, "bit": 1914, "\u2581journey": 1915, "\u2581highly": 1916, "\u2581hundred": 1917, "\u2581religion": 1918, "\u2581patient": 1919, "\u2581Music": 1920, "\u2581degree": 1921, "\u2581Am": 1922, "100": 1923, "\u2581advice": 1924, "\u2581sins": 1925, "\u2581d": 1926, "\u2581direction": 1927, "\u2581blue": 1928, "\u2581wine": 1929, "\u2581link": 1930, "ki": 1931, "\u2581pray": 1932, "\u2581\u00bb": 1933, "\u2581helps": 1934, "\u2581passed": 1935, "\u2581Price": 1936, "\u2581attack": 1937, "\u2581character": 1938, "tic": 1939, "\u2581lived": 1940, "\u2581gonna": 1941, "\u2581operating": 1942, "\u2581impact": 1943, "\u2581highest": 1944, "he": 1945, "\u2581doubt": 1946, "\u2581James": 1947, "\u2581holy": 1948, "\u2581Rome": 1949, "ji": 1950, "\u2581window": 1951, "\u2581benefits": 1952, "\u2581billion": 1953, "\u2581expect": 1954, "ex": 1955, "\u2581Research": 1956, "\u2581growing": 1957, "\u2581transfer": 1958, "\u2581exchange": 1959, "\u2581star": 1960, "\u2581named": 1961, "\u2581heat": 1962, "we": 1963, "\u2581placed": 1964, "\u2581outdoor": 1965, "\u2581prevent": 1966, "\u2581track": 1967, "\u2581welcome": 1968, "\u2581base": 1969, "\u2581status": 1970, "\u2581electric": 1971, "\u2581gas": 1972, "\u2581college": 1973, "\u2581Pre": 1974, "\u2581plant": 1975, "den": 1976, "\u2581Garden": 1977, "\u2581produced": 1978, "\u2581purposes": 1979, "ang": 1980, "\u2581garden": 1981, "45": 1982, "\u2581Tube": 1983, "\u2581increased": 1984, "\u2581states": 1985, "\u2581ideas": 1986, "\u2581dis": 1987, "\u258133": 1988, "\u2581shown": 1989, "\u2581agree": 1990, "\u2581patients": 1991, "\u2581multi": 1992, "60": 1993, "\u2581mode": 1994, "\u2581require": 1995, "\u2581Rights": 1996, "\u2581district": 1997, "\u2581anti": 1998, "\u2581shopping": 1999, "\u2581tomorrow": 2000, "\u2581served": 2001, "\u2581joy": 2002, "\u2581religious": 2003, "\u2581spring": 2004, "But": 2005, "\u2581reviews": 2006, "bo": 2007, "\u2581Ha": 2008, "\u2581sky": 2009, "\u2581tax": 2010, "io": 2011, "ley": 2012, "\u2581Italian": 2013, "\u2581Jerusalem": 2014, "\u2581Page": 2015, "\u2581length": 2016, "\u2581advanced": 2017, "ance": 2018, "\u2581opening": 2019, "\u2581Men": 2020, "\u2581families": 2021, "\u2581CO": 2022, "\u2581contract": 2023, "\u2581sub": 2024, ":10": 2025, "\u2581teaching": 2026, "\u2581error": 2027, "\u2581workers": 2028, "\u2581recommend": 2029, "\u2581leaders": 2030, "\u2581ship": 2031, "\u2581mountain": 2032, "\u2581moving": 2033, "if": 2034, "\u2581park": 2035, "=": 2036, "\u2581File": 2037, "rd": 2038, "\u2581numbers": 2039, "\u2581Real": 2040, "im": 2041, "32": 2042, "\u2581review": 2043, "\u2581approach": 2044, "\u2581Spanish": 2045, "\u2581Science": 2046, "\u2581Phone": 2047, "\u2581expected": 2048, "\u2581sell": 2049, "\u2581becomes": 2050, "\u2581kept": 2051, "\u2581secure": 2052, "\u2581Max": 2053, "ted": 2054, "\u2581wonderful": 2055, "%": 2056, "[": 2057, "\u2581seek": 2058, "pe": 2059, "\u2581whose": 2060, "\u2581section": 2061, "\u2581credit": 2062, "\u2581cell": 2063, "My": 2064, "\u2581birth": 2065, "\u2581skills": 2066, "\u2581girls": 2067, "\u2581amazing": 2068, "\u2581hate": 2069, "ir": 2070, "ac": 2071, "\u2581California": 2072, "ba": 2073, "\u2581press": 2074, "\u2581Board": 2075, "ci": 2076, "\u2581believed": 2077, "\u2581Abraham": 2078, "\u2581Should": 2079, "\u2581Children": 2080, "os": 2081, "65": 2082, "\u2581Second": 2083, "se": 2084, "\u2581taught": 2085, "\u2581couldn": 2086, "\u2581universe": 2087, "\u2581Cup": 2088, "\u2581Square": 2089, "\u2581Image": 2090, "\u2581Centre": 2091, "\u2581items": 2092, "\u2581animal": 2093, "TM": 2094, "\u2581deliver": 2095, "\u2581names": 2096, "\u2581analysis": 2097, "\u2581kinds": 2098, "\u2581foot": 2099, "\u2581Series": 2100, "\u2581Council": 2101, "\u2581USD": 2102, "\u2581Which": 2103, "\u2581extra": 2104, "\u2581followed": 2105, "\u2581Software": 2106, "\u2581movies": 2107, "\u2581maybe": 2108, "\u2581hit": 2109, "\u2581beyond": 2110, "\u2581marketing": 2111, "ping": 2112, "\u2581judgment": 2113, "\u2581documents": 2114, ".\u201d\u2014": 2115, "\u2581wisdom": 2116, "\u2581install": 2117, "\u2581fruit": 2118, "\u2581update": 2119, "\u2581walking": 2120, "\u2581payment": 2121, "\u2581Mary": 2122, "\u2581hath": 2123, "\u2581structure": 2124, "\u2581reduce": 2125, "\u2581Before": 2126, "\u2581Quality": 2127, "\u2581Institute": 2128, "\u2581host": 2129, "\u2581RF": 2130, "\u2581complex": 2131, "\u2581capital": 2132, "\u2581Master": 2133, "\u2581depend": 2134, "\u2581Project": 2135, "\u2581army": 2136, "\u2581career": 2137, "\u2581secret": 2138, "Sun": 2139, "\u2581testing": 2140, "\u2581battery": 2141, "\u2581Singapore": 2142, "\u2581towards": 2143, "\u2581carry": 2144, "\u2581Suites": 2145, "\u2581effects": 2146, "\u2581Policy": 2147, "\u2581guy": 2148, "\u2581t": 2149, "\u2581investment": 2150, "\u2581Single": 2151, "\u2581projects": 2152, "\u2581paid": 2153, "\u2581Lake": 2154, "\u2581employees": 2155, "\u2581club": 2156, "\u2581Holiday": 2157, "\u2581whatever": 2158, "\u2581unit": 2159, "\u2581costs": 2160, "\u2581former": 2161, "\u2581taste": 2162, "\u2581Witnesses": 2163, "\u2581Education": 2164, "There": 2165, "\u2581shared": 2166, "\u2581Bus": 2167, "\u2581engine": 2168, "\u2581completed": 2169, "\u2581properties": 2170, "\u2581maximum": 2171, "\u2581continued": 2172, "\u2581150": 2173, "\u2581plastic": 2174, "\u2581cock": 2175, "\u2581Egypt": 2176, "40": 2177, "\u2581Part": 2178, "\u2581worldwide": 2179, "\u2581Guide": 2180, "\u2581join": 2181, "\u2581condition": 2182, "\u2581Sometimes": 2183, "em": 2184, "\u2581damage": 2185, "\u2581greatest": 2186, "\u2581played": 2187, "\u2581fat": 2188, "\u2581Learn": 2189, "\u2581industrial": 2190, "\u2581manage": 2191, "\u2581Display": 2192, "\u2581announced": 2193, "\u2581laws": 2194, "\u2581Los": 2195, "\u2581starting": 2196, "\u2581kitchen": 2197, "\u2581favorite": 2198, "\u2581processing": 2199, "\u2581nearly": 2200, "\u2581sorry": 2201, "\u2581Mexico": 2202, "\u2581App": 2203, "\u2581bank": 2204, "\u2581Star": 2205, "For": 2206, "po": 2207, "\u2581beach": 2208, "\u2581achieve": 2209, "\u2581Inc": 2210, "\u2581massage": 2211, "\u2581useful": 2212, "\u2581Test": 2213, "\u2581plans": 2214, "\u2581alive": 2215, "\u2581Work": 2216, "\u2581brothers": 2217, "\u2581standards": 2218, "\u2581Con": 2219, "\u258148": 2220, "\u2581quick": 2221, "21": 2222, "\u2581Full": 2223, "\u2581wedding": 2224, "side": 2225, "\u2581breakfast": 2226, "How": 2227, "\u2581separate": 2228, "\u2581flow": 2229, "\u2581Mo": 2230, "\u2581seconds": 2231, "\u2581manufacturers": 2232, "\u2581desk": 2233, "\u2581Set": 2234, ":11": 2235, "\u25815-": 2236, "\u2581generation": 2237, "ST": 2238, "ent": 2239, "\u2581glory": 2240, "que": 2241, "\u2581Porn": 2242, "\u2581Such": 2243, "\u2581Checks": 2244, "\u2581movement": 2245, "\u2581resources": 2246, "\u2581communication": 2247, "\u2581providing": 2248, "\u2581hearts": 2249, "\u2581ancient": 2250, "\u2581Main": 2251, "\u2581previous": 2252, "\u2581Mobile": 2253, "\u2581domain": 2254, "\u2581images": 2255, "\u2581Building": 2256, "\u2581sports": 2257, "\u2581Code": 2258, "\u2581selected": 2259, "ER": 2260, "\u2581en": 2261, "\u2581Ka": 2262, "\u258137": 2263, "\u2581associated": 2264, "\u2581responsibility": 2265, "\u2581Thanks": 2266, "\u2581Spain": 2267, "\u2581presence": 2268, "\u2581master": 2269, "\u2581Association": 2270, "\u2581contain": 2271, "\u2581Version": 2272, "\u2581destroy": 2273, "\u2581neither": 2274, "\u2581Digital": 2275, "\u2581Both": 2276, "\u2581cross": 2277, "\u2581Analdin": 2278, "\u2581glass": 2279, "\u2581clearly": 2280, "\u258138": 2281, "\u2581Select": 2282, "\u2581wind": 2283, "\u2581Post": 2284, "\u2581worry": 2285, "\u2581recovery": 2286, "\u2581Apartments": 2287, "ner": 2288, "ler": 2289, "\u2581thank": 2290, "red": 2291, "\u2581Joseph": 2292, "\u2581bathrooms": 2293, "\u2581street": 2294, "\u2581Sa": 2295, "\u2581remove": 2296, "ship": 2297, "\u2581strategy": 2298, "200": 2299, "-10": 2300, "\u258109": 2301, "\u2581DC": 2302, "\u00e9": 2303, "\u2581sit": 2304, "\u2581architecture": 2305, "ish": 2306, "\u2581shop": 2307, ":20": 2308, "\u2581Gold": 2309, "\u2581\u2192": 2310, "hour": 2311, "\u2581deposit": 2312, "\u2581bath": 2313, "\u2581pro": 2314, "\u2581prepared": 2315, "\u2581Fire": 2316, "\u2581England": 2317, "\u2581creating": 2318, "\u2581sort": 2319, "\u2581Mark": 2320, "\u2581comfort": 2321, "\u2581round": 2322, "\u2581cloud": 2323, "\u2581humans": 2324, "\u2581Right": 2325, "\u2581Lu": 2326, "\u2581Human": 2327, "\u2581core": 2328, "\u2581spread": 2329, "\u2581Spa": 2330, "\u2581leader": 2331, "\u2581entered": 2332, "\u2581AC": 2333, "\u2581Weight": 2334, "ja": 2335, "\u2581biggest": 2336, "\u2581commercial": 2337, "\u2581Would": 2338, "\u25812000": 2339, "\u2581Card": 2340, "\u2581hospital": 2341, "\u2581Special": 2342, "\u2581correct": 2343, "\u2581values": 2344, "\u2581Help": 2345, "\u2581Ko": 2346, "\u2581regular": 2347, "01": 2348, "\u2581joined": 2349, "\u2581reported": 2350, "\u2581vehicle": 2351, "\u2581Festival": 2352, "\u2581di": 2353, "\u2581cells": 2354, "\u2581History": 2355, "\u2581studies": 2356, "\u258100": 2357, "ite": 2358, "\u2581square": 2359, "Re": 2360, "\u2581helped": 2361, "end": 2362, "\u2581older": 2363, "ver": 2364, "\u2581collect": 2365, "\u2581caused": 2366, "ating": 2367, "\u2581Plastic": 2368, "\u2581Click": 2369, "ho": 2370, "\u2581sister": 2371, "\u2581Royal": 2372, "\u2581suffering": 2373, "\u2581effort": 2374, "\u2581End": 2375, "so": 2376, "\u2581happiness": 2377, "\u2581Apartment": 2378, "35": 2379, "\u2581race": 2380, "\u2581parking": 2381, "\u2581\u00c2": 2382, "ise": 2383, "\u2581Public": 2384, "\u2581port": 2385, "\u2581asian": 2386, "ana": 2387, "\u2581Lo": 2388, "\u2581advantage": 2389, "\u2581significant": 2390, "\u2581clients": 2391, "\u2581models": 2392, "\u2581progress": 2393, "\u2581collection": 2394, "\u2581eating": 2395, "\u2581letter": 2396, "\u2581album": 2397, "\u2581mercy": 2398, "ize": 2399, "ard": 2400, "\u2581bathroom": 2401, "\u2581Washington": 2402, "\u2581Industrial": 2403, "\u2581Su": 2404, "\u2581Screen": 2405, "\u2581Factory": 2406, "\u2581hairdryer": 2407, "\u25812008": 2408, "\u2581interface": 2409, "\u2581faster": 2410, "\u2581requires": 2411, "\u2581Add": 2412, "\u25812009": 2413, "\u2581Da": 2414, "\u2581founded": 2415, "\u2581insurance": 2416, "\u2581minute": 2417, "\u2581dress": 2418, "\u2581prices": 2419, "\u2581basis": 2420, "\u2581contains": 2421, "\u2581dance": 2422, "\u2581output": 2423, "\u2581spoke": 2424, "\u2581ahead": 2425, "\u2581Saint": 2426, "\u2581object": 2427, "\u2581agreement": 2428, "\u2581Drive": 2429, "\u2581judge": 2430, "\u2581En": 2431, "To": 2432, "\u2581particularly": 2433, "\u2581realize": 2434, "\u2581setting": 2435, "\u2581Network": 2436, "\u2581explain": 2437, "\u2581perform": 2438, "\u2581iPhone": 2439, "\u2581forces": 2440, "\u2581spent": 2441, "\u2581warm": 2442, "\u2581cards": 2443, "\u2581Li": 2444, "\u2581Di": 2445, "\u2581notice": 2446, "\u2581blog": 2447, "\u2581easier": 2448, "\u2581hidden": 2449, "\u2581Act": 2450, "\u2581hell": 2451, "\u2581Tel": 2452, "\u258134": 2453, "\u2581Mother": 2454, "\u2581vision": 2455, "2)": 2456, "let": 2457, "\u2581Adam": 2458, "22": 2459, "\u2581bear": 2460, "\u2581f": 2461, "\u2581piece": 2462, "\u2581(1)": 2463, "\u2581rain": 2464, "\u2581metal": 2465, "\u2581balance": 2466, "\u2581Na": 2467, "\u2581maintain": 2468, ":12": 2469, "\u2581drug": 2470, "\u2581Tower": 2471, "\u2581Total": 2472, "ally": 2473, "all": 2474, "\u2581guys": 2475, "\u2581PVC": 2476, "\u2581destroyed": 2477, "kg": 2478, "\u2581cast": 2479, "\u2581gain": 2480, "\u2581TXXX": 2481, "\u2581connect": 2482, "\u2581blonde": 2483, "\u2581Delivery": 2484, "\u2581Server": 2485, "\u2581affect": 2486, "ber": 2487, "\u2581battle": 2488, "\u2581described": 2489, "\u2581generally": 2490, "80": 2491, "\u2581Auto": 2492, "\u2581chosen": 2493, "\u2581African": 2494, "\u2581applied": 2495, "mi": 2496, "\u2581mine": 2497, "\u2581Bank": 2498, "\u2581winter": 2499, "\u2581haven": 2500, "\u2581Equipment": 2501, "\u2581earlier": 2502, "\u2581flat": 2503, "\u2581pick": 2504, "\u2581negative": 2505, "lin": 2506, "\u2581Social": 2507, "\u2581Medical": 2508, "\u2581Electric": 2509, "\u2581Area": 2510, ":15": 2511, "\u2581limited": 2512, "\u2581female": 2513, "\u2581Port": 2514, "\u2581channel": 2515, "\u2581Metal": 2516, "\u2581mass": 2517, "\u2581authority": 2518, "pa": 2519, "\u2581remains": 2520, "\u2581Okay": 2521, "\u2581closed": 2522, "\u2581failed": 2523, "\u2581Everyone": 2524, "\u2581Lee": 2525, "\u2581driver": 2526, "\u2581species": 2527, "\u2581arrived": 2528, "\u2581Keep": 2529, "\u2581Villa": 2530, "\u2581Indian": 2531, "\u2581super": 2532, "\u2581influence": 2533, "\u2581hurt": 2534, "\u2581Program": 2535, "64": 2536, "\u2581lie": 2537, "\u2581north": 2538, "\u2581IT": 2539, "\u2581note": 2540, "AL": 2541, ":14": 2542, "\u2581dangerous": 2543, "\u2581changing": 2544, "\u2581Box": 2545, "ak": 2546, "\u2581answered": 2547, "dy": 2548, "\u2581installed": 2549, "ists": 2550, "\u2581rise": 2551, "\u2581Watch": 2552, "\u2581con": 2553, "\u2581planet": 2554, "\u2581mankind": 2555, "\u2581evening": 2556, "\u2581revealed": 2557, "\u2581prepare": 2558, ":30": 2559, "\u2581Head": 2560, "\u2581behavior": 2561, "\u2581trial": 2562, "\u2581Mom": 2563, "\u2581Media": 2564, "\u2581nuclear": 2565, "\u2581selection": 2566, "\u25815.": 2567, "\u2581Jews": 2568, "\u2581supported": 2569, "\u2581island": 2570, "\u2581showed": 2571, "\u2581shape": 2572, "\u2581Mi": 2573, "\u2581finished": 2574, "ence": 2575, "\u2581aren": 2576, "\u2581enemy": 2577, "\u2581raised": 2578, "\u2581Travel": 2579, "\u2581George": 2580, "\u2581economy": 2581, "\u2581suitable": 2582, "\u2581sight": 2583, "\u2581regarding": 2584, "\u2581Bo": 2585, "\u2581seeing": 2586, "\u2581%": 2587, "90": 2588, "\u2581actions": 2589, "\u2581discovered": 2590, "\u2581individuals": 2591, "\u2581Store": 2592, "\u2581competition": 2593, "\u2581concept": 2594, "\u2581Welcome": 2595, "\u2581opportunities": 2596, "\u25811000": 2597, "\u2581none": 2598, "\u2581cars": 2599, "izing": 2600, "\u2581methods": 2601, "room": 2602, "ron": 2603, "\u2581becoming": 2604, "\u2581Per": 2605, "\u2581OEM": 2606, "\u2581o": 2607, ".\u2014": 2608, "\u2581JizzBunker": 2609, "\u2581Trump": 2610, "29": 2611, "\u2581Remember": 2612, "\u2581menu": 2613, "\u2581false": 2614, "free": 2615, "\u2581exercise": 2616, "\u2581ideal": 2617, "\u2581traffic": 2618, "\u2581manufacturing": 2619, "\u2581Ben": 2620, "-2": 2621, "\u2581trading": 2622, "\u2581calls": 2623, "\u2581justice": 2624, "\u2581Chi": 2625, "\u2581author": 2626, "\u2581sale": 2627, "\u2581EU": 2628, "mail": 2629, "our": 2630, "\u2581Everything": 2631, "\u2581400": 2632, "over": 2633, "ED": 2634, "\u2581efforts": 2635, "\u2581Note": 2636, ":18": 2637, "\u2581Place": 2638, "\u2581appropriate": 2639, "\u2581OS": 2640, "\u2581wonder": 2641, "\u2581fresh": 2642, "\u2581reports": 2643, "\u2581lines": 2644, "sa": 2645, "ial": 2646, "\u2581resistance": 2647, "ke": 2648, "light": 2649, "\u2581violence": 2650, "}": 2651, "\u2581automatically": 2652, "\u2581Sale": 2653, "\u2581challenge": 2654, "\u2581river": 2655, "\u2581Cable": 2656, "500": 2657, "\u2581proud": 2658, "\u2581League": 2659, "\u2581plants": 2660, "\u2581functions": 2661, "\u2581sample": 2662, "\u2581title": 2663, "\u2581custom": 2664, "\u2581flight": 2665, ":17": 2666, "\u2581independent": 2667, "\u2581machines": 2668, "\u2581surely": 2669, "\u2581Rooms": 2670, "port": 2671, "\u2581websites": 2672, "\u2581equipped": 2673, "\u2581Small": 2674, "\u2581driving": 2675, "When": 2676, "\u2581Smart": 2677, "\u2581caught": 2678, "\u2581languages": 2679, "\u2581Hey": 2680, "\u2581client": 2681, "\u2581trouble": 2682, "\u2581Angeles": 2683, "\u2581Multi": 2684, "\u2581task": 2685, "\u2581milk": 2686, "\u2581Development": 2687, "back": 2688, "\u2581venue": 2689, "ti": 2690, "MA": 2691, "\u2581Town": 2692, "\u2581manufacturer": 2693, "\u2581claim": 2694, "\u2581appeared": 2695, "\u2581okay": 2696, "\u2581browser": 2697, "\u2581pictures": 2698, "\u2581Try": 2699, "\u2581accepted": 2700, "\u2581format": 2701, "\u2581theory": 2702, "\u2581Ar": 2703, "\u2581mission": 2704, "\u2581recommended": 2705, "\u2581filled": 2706, "\u2581(3": 2707, "\u2581Greek": 2708, "\u2581Team": 2709, "\u258142": 2710, "\u2581trees": 2711, "\u2581iron": 2712, "\u2581speaking": 2713, "\u2581technologies": 2714, "\u2581aware": 2715, "\u2581manner": 2716, "der": 2717, "\u2581KAYAK": 2718, "\u2581Key": 2719, "\u2581essential": 2720, "\u2581straight": 2721, "\u2581mentioned": 2722, ":13": 2723, "\u2581sweet": 2724, "\u2581god": 2725, "\u2581pages": 2726, "\u2581twice": 2727, "\u2581definitely": 2728, "\u2581measure": 2729, "\u2581Guest": 2730, "\u2581eternal": 2731, "\u2581approximately": 2732, "\u2581IN": 2733, "\u2581appears": 2734, "va": 2735, "):": 2736, "\u2581Walk": 2737, "led": 2738, "\u2581Out": 2739, "\u2581yen": 2740, "\u2581radio": 2741, "\u258175": 2742, "\u2581sitting": 2743, "\u2581heavy": 2744, "\u2581Save": 2745, "\u2581stuff": 2746, "\u2581Ask": 2747, "\u2581signs": 2748, "\u2581efficiency": 2749, "\u2581cat": 2750, "\u2581block": 2751, "\u2581owner": 2752, "\u2581bag": 2753, "\u2581thoughts": 2754, "\u2581partners": 2755, "\u2581dry": 2756, "\u2581Anal": 2757, "\u2581fair": 2758, "\u2581Was": 2759, "sh": 2760, "\u2581www": 2761, "They": 2762, "\u2581smart": 2763, "ee": 2764, "\u2581watching": 2765, "\u2581fill": 2766, "\u2581ice": 2767, "\u2581fit": 2768, "\u2581signed": 2769, "\u2581stock": 2770, "\u258155": 2771, "ities": 2772, "\u2581Se": 2773, "\u2581delivered": 2774, "\u2581Night": 2775, "\u2581external": 2776, "\u2581wise": 2777, "\u2581experienced": 2778, "\u2581Give": 2779, "\u2581magic": 2780, "\u2581Photo": 2781, "\u2581prison": 2782, "\u2581planning": 2783, "\u2581handle": 2784, "board": 2785, "\u2581honor": 2786, "chi": 2787, "\u2581scale": 2788, "\u2581developing": 2789, "\u2581Stainless": 2790, "\u2581broken": 2791, "\u2581{": 2792, "ju": 2793, "\u2581lesbian": 2794, "28": 2795, "\u2581parties": 2796, "\u2581@": 2797, "\u2581Society": 2798, "ina": 2799, "\u2581solar": 2800, "\u2581clothes": 2801, "\u2581Michael": 2802, "\u2581guess": 2803, "bu": 2804, "\u2581Very": 2805, "ding": 2806, "IN": 2807, "ology": 2808, "\u2581$1": 2809, "\u2581Spring": 2810, "\u2581Paper": 2811, "\u2581satellite": 2812, "\u2581Committee": 2813, "\u2581TO": 2814, "\u258139": 2815, "\u2581Via": 2816, "\u2581statement": 2817, "23": 2818, "\u2581slow": 2819, "\u2581wireless": 2820, ":22": 2821, "ft": 2822, "\u2581degrees": 2823, "\u2581Step": 2824, "\u2581match": 2825, "\u2581blowjob": 2826, "\u2581stone": 2827, "si": 2828, "hi": 2829, "\u2581solve": 2830, "\u2581dinner": 2831, "\u2581Description": 2832, "\u2581Government": 2833, "\u2581\u00b0": 2834, "\u2581package": 2835, "\u2581stories": 2836, "ran": 2837, "\u2581election": 2838, "\u2581anymore": 2839, "\u2581Friday": 2840, "48": 2841, "\u2581LCD": 2842, "\u2581moon": 2843, "\u2581colors": 2844, "\u2581120": 2845, "\u2581recorded": 2846, "\u2581committed": 2847, "\u2581respond": 2848, "\u2581signal": 2849, "ham": 2850, "--": 2851, "\u2581anywhere": 2852, "\u2581existing": 2853, "\u2581Call": 2854, "\u2581la": 2855, "\u2581south": 2856, "\u2581User": 2857, "\u2581rates": 2858, "ze": 2859, "39": 2860, "Laughter": 2861, "\u2581Aluminum": 2862, "\u2581Panel": 2863, "\u2581miles": 2864, "\u2581motor": 2865, "\u2581carried": 2866, "\u2581Powder": 2867, "\u2581ball": 2868, "\u2581min": 2869, "\u2581waste": 2870, "\u2581cutting": 2871, "ped": 2872, "-5": 2873, "lu": 2874, "\u2581Anti": 2875, "\u2581Ni": 2876, "not": 2877, "\u2581Linux": 2878, "ning": 2879, "\u2581lack": 2880, "\u2581prove": 2881, "\u2581fuck": 2882, "\u2581schools": 2883, "\u2581perhaps": 2884, "\u2581panel": 2885, "\u2581conversation": 2886, "\u2581District": 2887, "\u2581Start": 2888, "\u2581Amateur": 2889, ":16": 2890, "\u2581leaving": 2891, "\u2581persons": 2892, "\u2581Beijing": 2893, "\u2581target": 2894, "ph": 2895, "\u2581Royalty": 2896, "op": 2897, "\u2581nine": 2898, "\u2581miss": 2899, "\u2581Website": 2900, "\u2581meat": 2901, "\u2581decide": 2902, "\u2581jobs": 2903, "ut": 2904, "\u2581extremely": 2905, "\u2581praise": 2906, "\u2581promised": 2907, "-4": 2908, "\u2581Map": 2909, "\u2581Energy": 2910, "Why": 2911, "\u2581eventually": 2912, "\u2581Without": 2913, "\u2581efficient": 2914, "\u2581instance": 2915, "\u2581Non": 2916, "\u2581Motor": 2917, "\u2581demand": 2918, "\u2581imagine": 2919, "\u2581impossible": 2920, "\u2581Army": 2921, "\u2581figure": 2922, "\u2581compared": 2923, "\u2581worse": 2924, "\u2581installation": 2925, "\u2581larger": 2926, "\u2581Low": 2927, "\u2581cool": 2928, "\u2581Views": 2929, "\u2581university": 2930, "\u2581Palace": 2931, "\u2581visitors": 2932, "ster": 2933, "bar": 2934, "\u2581registered": 2935, "\u2581Bravo": 2936, "\u2581Four": 2937, "house": 2938, "\u2581feelings": 2939, "\u2581Using": 2940, "\u2581removed": 2941, "\u2581Sunday": 2942, "\u2581Oil": 2943, "\u2581stress": 2944, "\u2581sick": 2945, "\u2581creative": 2946, "\u2581Film": 2947, "\u2581tour": 2948, "\u2581printing": 2949, "\u2581pleasure": 2950, "\u2581solo": 2951, "\u2581organizations": 2952, "ability": 2953, "\u2581Cloud": 2954, "off": 2955, "\u2581goods": 2956, "ru": 2957, "\u2581Reserved": 2958, "\u2581Santa": 2959, "ator": 2960, "\u2581ex": 2961, "\u2581launched": 2962, "\u2581elements": 2963, "\u2581bread": 2964, "\u2581campaign": 2965, "\u2581advance": 2966, "600": 2967, "\u2581components": 2968, "\u2581asking": 2969, "\u2581CE": 2970, "\u2581salvation": 2971, "\u2581Mature": 2972, "\u2581strip": 2973, "\u2581k": 2974, "\u2581millions": 2975, "04": 2976, "\u2581Yahweh": 2977, "\u2581village": 2978, "27": 2979, "\u2581flesh": 2980, "\u2581Under": 2981, "\u2581servants": 2982, "\u2581forms": 2983, "\u258108:00": 2984, "\u2581(2)": 2985, "75": 2986, "\u2581height": 2987, ":21": 2988, "08": 2989, "\u2581seemed": 2990, "car": 2991, "\u2581witness": 2992, "\u2581fail": 2993, "\u2581starts": 2994, "\u2581sport": 2995, "\u2581scientific": 2996, "\u2581Sex": 2997, "law": 2998, "\u2581ID": 2999, "\u2581begins": 3000, "\u2581introduced": 3001, "\u2581cultural": 3002, "So": 3003, ":19": 3004, "\u2581widely": 3005, "\u2581copy": 3006, "\u2581database": 3007, "\u2581Brand": 3008, "\u2581Wire": 3009, "\u2581Monday": 3010, "\u2581audio": 3011, "\u2581heating": 3012, "\u2581chemical": 3013, "\u2581football": 3014, "\u2581punishment": 3015, "\u2581wouldn": 3016, "\u2581Vietnam": 3017, "\u2581cheap": 3018, "\u2581swear": 3019, "\u2581brings": 3020, "\u2581Language": 3021, "\u2581tea": 3022, "31": 3023, "\",": 3024, "05": 3025, "\u2581covered": 3026, "\u2581continues": 3027, "\u2581centre": 3028, "\u2581missing": 3029, "tra": 3030, "\u2581Instead": 3031, "\u2581revolution": 3032, "2:": 3033, "\u2581Americans": 3034, "70": 3035, "tro": 3036, "\u2581Roman": 3037, "\u2581Ma": 3038, "\u2581CD": 3039, "\u2581messages": 3040, "\u2581blind": 3041, "\u2581Review": 3042, "\u2581Previous": 3043, "\u2581meant": 3044, "\u2581fee": 3045, "\u2581Could": 3046, "\u2581existence": 3047, "ong": 3048, "ger": 3049, "\u2581Choose": 3050, "\u2581Foundation": 3051, "\u2581businesses": 3052, "\u2581internal": 3053, "\u2581shoes": 3054, "\u2581(4": 3055, "\u2581CEO": 3056, "\u2581Congress": 3057, "\u2581Plus": 3058, "\u2581List": 3059, "33": 3060, "\u2581temple": 3061, "\u2581Ra": 3062, "300": 3063, "\u2581drop": 3064, "-12": 3065, "\u2581Market": 3066, "\u2581settings": 3067, "\u2581pure": 3068, "\u2581plus": 3069, "\u2581expensive": 3070, "au": 3071, "ig": 3072, "\u2581Change": 3073, "\u2581treat": 3074, "\u2581Want": 3075, "za": 3076, "\u2581OF": 3077, "\u2581righteous": 3078, "\u2581shot": 3079, "\u2581Casino": 3080, "uk": 3081, "\u2581ticket": 3082, ":23": 3083, "\u2581fell": 3084, "\u2581decisions": 3085, "\u2581YouTube": 3086, "\u2581minimum": 3087, "les": 3088, "\u2581stopped": 3089, "\u2581loving": 3090, "\u2581operations": 3091, "\u2581experiences": 3092, "\u2581failure": 3093, "\u258124-": 3094, "sen": 3095, "\u2581grace": 3096, "\u2581Speed": 3097, "\u2581helping": 3098, "\u2581adults": 3099, "\u2581suppliers": 3100, "\u2581250": 3101, ":24": 3102, "\u2581Breakfast": 3103, "\u2581dollars": 3104, "org": 3105, "\u2581quiet": 3106, "\u2581drugs": 3107, "\u2581rock": 3108, "\u2581flowers": 3109, "\u2581Has": 3110, "\u2581Pa": 3111, "\u2581mountains": 3112, "\u2581enemies": 3113, "\u2581actual": 3114, "\u2581Jo": 3115, "\u2581sharing": 3116, "\u2581soft": 3117, "\u2581pieces": 3118, "\u00b0": 3119, "\u2581disciples": 3120, "03": 3121, "\u2581hide": 3122, "ier": 3123, "her": 3124, "\u2581scientists": 3125, "\u2581Way": 3126, "\u2581Engine": 3127, "\u258165": 3128, "\u2581calling": 3129, "\u25812007": 3130, "\u2581feed": 3131, "\u2581goals": 3132, "\u2581director": 3133, "\u00e2": 3134, "\u2581apps": 3135, "Ltd": 3136, "\u2581answers": 3137, "\u2581band": 3138, "\u2581Application": 3139, "\u2581opinion": 3140, "term": 3141, "\u2581suffer": 3142, "\u2581babe": 3143, "\u2581tube": 3144, "ring": 3145, "\u2581classes": 3146, "All": 3147, "54": 3148, "#": 3149, "\u2581print": 3150, "\u2581powder": 3151, "\u2581male": 3152, "\u2581happening": 3153, "\u2581supports": 3154, "\u2581loves": 3155, "\u2581sexual": 3156, "\u2581express": 3157, "\u2581Stay": 3158, "\u2581fourth": 3159, "\u2581Moon": 3160, "\u2581Han": 3161, "\u2581hearing": 3162, "\u2581mini": 3163, "\u2581standing": 3164, "\u2581Think": 3165, "\u2581County": 3166, "\u2581busy": 3167, "\u2581fighting": 3168, "\u2581dedicated": 3169, "\u2581occur": 3170, "\u2581yes": 3171, "\u2581Middle": 3172, "wood": 3173, "\u2581Press": 3174, "\u2581Express": 3175, "\u2581darkness": 3176, "\u2581determine": 3177, "\u2581wood": 3178, "like": 3179, "\u2581situated": 3180, "\u2581orders": 3181, ":25": 3182, "my": 3183, "\u2581privacy": 3184, "\u2581principles": 3185, "\u2581labor": 3186, "\u2581ended": 3187, "\u2581channels": 3188, "\u2581Industry": 3189, "\u2581weapons": 3190, "\u2581Third": 3191, "\u2581wicked": 3192, "\u2581Berlin": 3193, "\u2581escape": 3194, "God": 3195, "\u2581Cor": 3196, "\u2581importance": 3197, "\u2581Francisco": 3198, "\u2581drinking": 3199, "\u2581majority": 3200, "\u2581guarantee": 3201, "\u2581smoking": 3202, "\u2581[...]": 3203, "PA": 3204, "\u2581seat": 3205, "\u2581serving": 3206, "\u2581load": 3207, "\u2581Space": 3208, "\u2581Times": 3209, "\u2581Sam": 3210, "\u2581Battery": 3211, "\u2581Tell": 3212, "\u2581laser": 3213, "55": 3214, "\u2581l": 3215, "\u2581GotPorn": 3216, "\u2581searches": 3217, "ck": 3218, "\u2581formed": 3219, "AM": 3220, "\u2581congregation": 3221, "\u2581Si": 3222, "ok": 3223, "\u2581prior": 3224, "\u2581Sports": 3225, "66": 3226, "ide": 3227, "\u2581Peace": 3228, "\u2581mid": 3229, "\u2581raise": 3230, "02": 3231, "\u2581manager": 3232, "\u2581Avenue": 3233, "\u2581recognize": 3234, ":28": 3235, "LE": 3236, "\u2581license": 3237, "\u2581proper": 3238, "\u2581Catholic": 3239, "-3": 3240, "\u2581Studio": 3241, "\u2581toys": 3242, "\u2581Shin": 3243, "\u2581fellow": 3244, "\u2581bbw": 3245, "\u2581adult": 3246, "\u2581600": 3247, "\u2581Restaurant": 3248, "\u2581input": 3249, "\u2581Trade": 3250, "\u2581relationships": 3251, "\u2581profile": 3252, "gi": 3253, "\u2581limit": 3254, "\u2581discount": 3255, "\u2581bought": 3256, "\u2581speech": 3257, "\u2581accurate": 3258, "\u2581Soviet": 3259, "\u2581fetish": 3260, "\u2581Shanghai": 3261, "\u2581records": 3262, "\u2581circumstances": 3263, "\u258143": 3264, "\u2581recognized": 3265, "mer": 3266, "\u2581Yu": 3267, "\u2581boat": 3268, "\u2581principle": 3269, "\u2581cash": 3270, "\u2581finish": 3271, "\u2581experts": 3272, "\u258110-": 3273, "-20": 3274, "\u2581carbon": 3275, "\u2581Tour": 3276, "\u2581Parts": 3277, "\u2581citizens": 3278, "screen": 3279, "\u2581appearance": 3280, "\u2581lots": 3281, "\u2581bottom": 3282, "\u2581updated": 3283, "\u2581determined": 3284, "ible": 3285, "800": 3286, "\u2581Manager": 3287, "\u2581wire": 3288, "\u2581convenient": 3289, "\u2581draw": 3290, "26": 3291, "\u2581XXX": 3292, ":1": 3293, "44": 3294, "jo": 3295, "\u2581Enjoy": 3296, "\u2581friendly": 3297, "bi": 3298, "\u2581worst": 3299, "\u2581Location": 3300, "\u2581suddenly": 3301, "\u2581Ne": 3302, "\u2581vote": 3303, "\u2581empty": 3304, "ab": 3305, "\u2581enable": 3306, "\u2581stockings": 3307, "\u2581distribution": 3308, "\u2581cleaning": 3309, "\u2581knowing": 3310, "\u2581Through": 3311, "\u2581Arab": 3312, "\u2581Quick": 3313, "\u2581\u00e2": 3314, "\u2581income": 3315, "95": 3316, "\u2581performed": 3317, "\u2581fashion": 3318, "\u2581bright": 3319, "\u2581victory": 3320, "\u2581stable": 3321, "\u2581Summer": 3322, "\u2581repair": 3323, ":00": 3324, "\u2581angel": 3325, "\u2581laptop": 3326, "\u2581matters": 3327, "mar": 3328, "\u2581angels": 3329, "\u2581Perhaps": 3330, "\u2581Working": 3331, "\u2581Ex": 3332, "\u2581cute": 3333, "\u2581servant": 3334, "\u2581n": 3335, "\u2581Visit": 3336, "ure": 3337, "\u2581toilet": 3338, "\u2581Customer": 3339, "\u2581firm": 3340, "\u258144": 3341, "\u2581Jacob": 3342, "\u2581password": 3343, "-6": 3344, "\u2581nearby": 3345, "\u2581medicine": 3346, "\u2581Land": 3347, "gen": 3348, "\u2581Indeed": 3349, "ung": 3350, "\u2581teachers": 3351, "\u2581fuel": 3352, "42": 3353, "\u2581Tom": 3354, "but": 3355, "-19": 3356, "\u2581reward": 3357, "\u2581Access": 3358, "\u258141": 3359, "\u2581confirmed": 3360, "86": 3361, "\u2581successfully": 3362, "\u2581fan": 3363, "\u2581Personal": 3364, "\u2581Sha": 3365, "\u2581although": 3366, "\u2581al": 3367, "\u2581Creator": 3368, "Porn": 3369, "\u2581Ball": 3370, "\u2581AND": 3371, "\u2581covenant": 3372, "\u2581dreams": 3373, "\u2581reliable": 3374, "lan": 3375, "\u2581environmental": 3376, "\u2581Plan": 3377, "ium": 3378, "\u2581units": 3379, "\u2581Po": 3380, "\u2581Queen": 3381, "\u2581guestrooms": 3382, "\u2581\u20ac": 3383, "\u2581mental": 3384, "\u2581Natural": 3385, "\u20ac": 3386, "\u2581library": 3387, "\u2581swimming": 3388, "\u2581Bridge": 3389, "\u2581survive": 3390, "\u2581classic": 3391, "\u2581harm": 3392, "\u2581Conference": 3393, "\u2581stored": 3394, "\u2581Min": 3395, "\u2581guest": 3396, "\u2581Rock": 3397, "\u2581plate": 3398, "\u2581default": 3399, "\u2581volume": 3400, "\u2581OK": 3401, "\u2581Bitcoin": 3402, "\u2581chief": 3403, "\u2581Heaven": 3404, "Be": 3405, "qui": 3406, "\u2581Outdoor": 3407, "\u2581fields": 3408, "\u2581Finally": 3409, "\u2581tells": 3410, "oc": 3411, "\u2581bathtub": 3412, "\u2581grade": 3413, "\u2581closer": 3414, "\u2581teams": 3415, "\u2581recover": 3416, "can": 3417, "\u2581orgasm": 3418, "\u2581interview": 3419, "\u2581choices": 3420, "\u25811.5": 3421, "\u2581gods": 3422, "\u2581background": 3423, "hu": 3424, "\u2581Hard": 3425, "ap": 3426, "400": 3427, "\u2581scene": 3428, "\u2581NO": 3429, "\u2581switch": 3430, "\u2581Zealand": 3431, "\u2581guidance": 3432, "\u2581Solar": 3433, "\u2581Laser": 3434, "36": 3435, "67": 3436, "\u2581Temperature": 3437, ":26": 3438, "\u2581conference": 3439, "\u2581SD": 3440, "wa": 3441, "\u2581Side": 3442, "\u2581pattern": 3443, "41": 3444, "\u2581participate": 3445, "ten": 3446, "\u2581everywhere": 3447, "\u2581Say": 3448, "ised": 3449, "\u2581cup": 3450, "\u2581preserved": 3451, "\u2581fans": 3452, "\u2581Mini": 3453, "\u2581Pacific": 3454, "\u2581suits": 3455, "\u2581divided": 3456, "06": 3457, "\u2581researchers": 3458, "\u2581filter": 3459, "ek": 3460, "\u2581masturbation": 3461, "\u2581cry": 3462, "\u2581pump": 3463, "\u2581Gu": 3464, "\u2581h": 3465, "\u2581forgiveness": 3466, "\u2581Convention": 3467, "\u2581Professional": 3468, "\u2581spot": 3469, "\u2581booking": 3470, "\u2581seriously": 3471, "53": 3472, "\u2581compilation": 3473, "\u2581conflict": 3474, "99": 3475, "\u2581ring": 3476, "\u2581engineering": 3477, "\u2581Ten": 3478, "\u2581arrival": 3479, "\u2581crime": 3480, "\u2581Inter": 3481, "\u2581fix": 3482, "\u2581crazy": 3483, "\u2581budget": 3484, "\u2581resolution": 3485, "ku": 3486, "\u2581Tri": 3487, "\u2581bodies": 3488, "\u2581sword": 3489, "\u2581civil": 3490, "\u2581heavens": 3491, "\u2581CAS": 3492, "\u2581combination": 3493, "\u2581symptoms": 3494, "\u2581politics": 3495, "\u2581Daniel": 3496, "\u2581spoken": 3497, "om": 3498, "\u2581webcam": 3499, "\u2581songs": 3500, "\u2581lift": 3501, "\u2581Sydney": 3502, "\u2581Address": 3503, "98": 3504, "box": 3505, "with": 3506, "\u2581brunette": 3507, "\u2581electronic": 3508, "38": 3509, "\u2581catch": 3510, "\u2581buildings": 3511, "\u2581Stop": 3512, "\u2581tank": 3513, "\u2581houses": 3514, "\u2581Sign": 3515, "\u2581ride": 3516, "\u2581Hill": 3517, "\u2581Located": 3518, "\u2581advertising": 3519, "down": 3520, "\u2581transport": 3521, "\u2581processes": 3522, "\u2581sad": 3523, "\u2581meal": 3524, "\u2581faithful": 3525, "\u2581forgive": 3526, "\u2581lunch": 3527, "\u2581funny": 3528, "\u2581Twitter": 3529, "\u2581surprise": 3530, "\u2581decades": 3531, "\u2581Community": 3532, "ura": 3533, "\u2581(5": 3534, "\u2581practical": 3535, "\u2581Saturday": 3536, "\u2581DVD": 3537, "\u2581Robert": 3538, "\u2581bottle": 3539, "\u2581causes": 3540, "\u2581Hostels": 3541, "\u2581Chicago": 3542, "\u2581feels": 3543, "MP": 3544, "-7": 3545, "\u2581concerning": 3546, "\u2581translation": 3547, "\u2581restore": 3548, "Me": 3549, "\u2581careful": 3550, "\u2581innovation": 3551, "\u2581mention": 3552, "su": 3553, "\u2581primary": 3554, "\u2581aid": 3555, "\u2581valuable": 3556, "\u2581Protection": 3557, "\u2581priest": 3558, "\u2581Osaka": 3559, "tor": 3560, "\u2581enjoyed": 3561, "\u2581Greece": 3562, "\u2581domestic": 3563, "\u2581presented": 3564, "\u2581concerned": 3565, "://": 3566, "\u2581links": 3567, "\u2581yesterday": 3568, "\u2581characters": 3569, "\u2581Village": 3570, "\u2581accident": 3571, "\u258146": 3572, "\u2581tests": 3573, "\u2581Popular": 3574, "\u2581challenges": 3575, "\u2581prophet": 3576, "\u25818,": 3577, "\u2581Plaza": 3578, "61": 3579, "\u2581Hair": 3580, "\uc2a4": 3581, "\u2581sides": 3582, "\u2581camp": 3583, "ative": 3584, "ware": 3585, "\u2581solid": 3586, "\u2581discover": 3587, "\u2581protected": 3588, "-8": 3589, "09": 3590, "\u2581AM": 3591, "\u25812012.": 3592, "\u2581properly": 3593, ":27": 3594, "\u2581Canadian": 3595, "\u2581absolutely": 3596, "\u2581session": 3597, "\u2581showing": 3598, "\u2581Terms": 3599, "ID": 3600, "\u2581Notice": 3601, "\u2581reduced": 3602, "\u2581Local": 3603, "vo": 3604, "q": 3605, "\u2581PM": 3606, "\u2581Win": 3607, "\u2581auto": 3608, "\u2581Datasheet": 3609, "Open": 3610, "52": 3611, "\u2581pregnant": 3612, "site": 3613, "\u2581comments": 3614, "\u2581entry": 3615, "\u2581toiletries": 3616, "\u2581helpful": 3617, "\u2581Know": 3618, "\u2581constantly": 3619, "\u2581conduct": 3620, "\u2581hardware": 3621, "\u2581finding": 3622, "you": 3623, "mon": 3624, ":29": 3625, "\u2581duty": 3626, "\u2581Suite": 3627, "\u2581innovative": 3628, "\u2581everybody": 3629, "\u25812010,": 3630, "That": 3631, "43": 3632, "\u2581anger": 3633, "\u2581border": 3634, "\u2581critical": 3635, "\u2581checked": 3636, "\u2581Class": 3637, "\u2581dishes": 3638, "GB": 3639, "\u2581fly": 3640, "\u2581vehicles": 3641, "\u2581shipping": 3642, "\u2581Ocean": 3643, "use": 3644, "king": 3645, "\u2581item": 3646, "\u2581Golden": 3647, "\u2581carefully": 3648, "\u2581Mount": 3649, "\u2581cent": 3650, "\u2581Still": 3651, "\u258149": 3652, "\u2581Bill": 3653, "\u25812018.": 3654, "\u2581otherwise": 3655, "\u2581managed": 3656, "\u2581Five": 3657, "\u2581smaller": 3658, "\u2581replace": 3659, "\u2581Supreme": 3660, "\u2581layer": 3661, "\u2581Custom": 3662, ":9": 3663, "don": 3664, "\u2581Close": 3665, "\u2581route": 3666, "\u2581moral": 3667, "\u2581Flower": 3668, "\u2581Experience": 3669, "US": 3670, "\u2581hostels": 3671, "\u2581maintenance": 3672, "\u2581Pool": 3673, "\u2581Paradise": 3674, ":6": 3675, "\u2581totally": 3676, "\u2581arm": 3677, "\u2581Camera": 3678, "field": 3679, "\u2581willing": 3680, "\u2581Ad": 3681, "\u2581Easy": 3682, "\u2581Cross": 3683, "\u2581Temple": 3684, "\u2581chain": 3685, "\u2581Moscow": 3686, "\u2581Safety": 3687, "ez": 3688, "\u2581Truth": 3689, "name": 3690, "ical": 3691, "\u2581dogs": 3692, "\u25817,": 3693, "han": 3694, "\u2581policies": 3695, "-11": 3696, "\u2581backup": 3697, "\u2581Ba": 3698, "\u2581righteousness": 3699, "\u2581wild": 3700, "\u2581launch": 3701, "IP": 3702, "\u2581r": 3703, "\u2581Glass": 3704, "\u2581accordance": 3705, "\u2581warning": 3706, "ned": 3707, "ny": 3708, "\u2581gun": 3709, "\u2581Whether": 3710, "\u2581interests": 3711, "\u2581Minister": 3712, "\u2581wake": 3713, ":7": 3714, "\u2581Wood": 3715, "\u2581struggle": 3716, "\u2581dust": 3717, "\u2581micro": 3718, "fi": 3719, "\u2581describes": 3720, ":31": 3721, "Dan": 3722, "\u25816.": 3723, "\u258164": 3724, "\u2581Hand": 3725, "\u2581Pan": 3726, "\u2581shemale": 3727, "ray": 3728, "ville": 3729, "\u2581declared": 3730, "\u2581explore": 3731, "\u2581Nothing": 3732, "\u2581prefer": 3733, "\u2581Thailand": 3734, "\u2581accounts": 3735, "\u2581Near": 3736, "\u2581bigger": 3737, "\u2581Systems": 3738, "mp": 3739, "\u2581listening": 3740, "\u2581emergency": 3741, "\u2581Cat": 3742, "\u2581initial": 3743, "\u2581Country": 3744, "\u2581Source": 3745, "ml": 3746, "\u2581Category": 3747, "\u2581lay": 3748, "00": 3749, "\u2581Assembly": 3750, "SA": 3751, "\u2581approved": 3752, "\u2581integrated": 3753, "\u2581threat": 3754, "\u2581interracial": 3755, "\u2581Automatic": 3756, "\u2581Sorry": 3757, "style": 3758, "\u2581remote": 3759, "\u2581identify": 3760, "\u2581glad": 3761, "\u2581confidence": 3762, "\u2581measures": 3763, "\u2581Students": 3764, "\u2581register": 3765, "ino": 3766, "\u2581reservation": 3767, "\u2581deleted": 3768, "art": 3769, "\u2581Style": 3770, "\u2581count": 3771, "\u2581CLD": 3772, "\u2581listed": 3773, "\u2581obtain": 3774, "\u2581Order": 3775, "ot": 3776, "\u2581computers": 3777, "\u2581twenty": 3778, "\u2581Police": 3779, "\u258152": 3780, "\u2581Czech": 3781, "\u2581silver": 3782, "\u2581purchased": 3783, "\u2581Death": 3784, "\u2581Point": 3785, "pro": 3786, "\u2581fitted": 3787, "\u2581grown": 3788, "\u2581selling": 3789, "\u2581forest": 3790, "\u2581>>": 3791, "\u2581angry": 3792, "\u2581Amazon": 3793, "\u2581UN": 3794, "\u2581Videos": 3795, "\u2581Sky": 3796, "\u2581noise": 3797, "69": 3798, "\u2581Need": 3799, "\u2581MP": 3800, "\u2581Golf": 3801, "\u2581participants": 3802, "\u25811)": 3803, "\u2581strange": 3804, "ow": 3805, "\u25814,": 3806, "\u2581holiday": 3807, "\u2581folder": 3808, "\u2581Modern": 3809, "\u2581defined": 3810, "\u2581Commission": 3811, "\u2581historical": 3812, "\u2581soldiers": 3813, "\u2581wealth": 3814, "\u2581alternative": 3815, "\u2581leadership": 3816, "\u2581discuss": 3817, "\u2581yellow": 3818, "\u2581understood": 3819, "\u2581Solomon": 3820, "\u2581valid": 3821, "shi": 3822, "\u2581artist": 3823, "\u2581relevant": 3824, "\u2581lingerie": 3825, "\u2581ALL": 3826, "cho": 3827, "\u2581attempt": 3828, "\u2581Share": 3829, "ably": 3830, "\u2581corporate": 3831, "\u2581Never": 3832, "\u2581Core": 3833, "\u2581mistake": 3834, "\u2581realized": 3835, "tion": 3836, "\u2581MS": 3837, "\u2581fixed": 3838, "\u2581voltage": 3839, "\u2581atmosphere": 3840, "\u2581Capacity": 3841, "\u2581previously": 3842, "\u2581threesome": 3843, "\u2581sat": 3844, "\u2581frame": 3845, "\u2581youth": 3846, "\u2581Years": 3847, "\u2581Director": 3848, "\u2581exists": 3849, "\u2581Ministry": 3850, "\u2581explained": 3851, "ix": 3852, "ov": 3853, "\u2581Empire": 3854, "\u2581sounds": 3855, "\u2581Jewish": 3856, ");": 3857, "\u2581combined": 3858, "\u258110:00": 3859, "\u2581birds": 3860, "\u2581inter": 3861, "\u2581weak": 3862, "\u2581sacrifice": 3863, "\u2581roof": 3864, "\u2581assistance": 3865, "\u2581holding": 3866, "\u2581Private": 3867, "\u2581capable": 3868, "\u2581treated": 3869, "\u2581mainly": 3870, "\u2581favor": 3871, "\u2581hairy": 3872, "\u2581divine": 3873, "\u2581Fiber": 3874, "\u2581casino": 3875, "\u2581800": 3876, "\u2581Manufacturers": 3877, "\u2581pipe": 3878, "\u2581chat": 3879, "head": 3880, "\u25812006": 3881, "\u2581inner": 3882, "\u2581telling": 3883, "\u2581factors": 3884, "\u258111,": 3885, "\u2581Body": 3886, "\u2581Especially": 3887, "\u2581tags": 3888, "\u2581Report": 3889, "\u2581numerous": 3890, "\u2581Ya": 3891, "ara": 3892, "ward": 3893, "\u2581weekend": 3894, "\u2581diet": 3895, "\u2581leads": 3896, "\u2581theme": 3897, "\u2581module": 3898, "\u2581grateful": 3899, "\u2581Gallery": 3900, "work": 3901, "\u2581facial": 3902, "\u2581keeping": 3903, "\u2581mi": 3904, "\u2581xhamster": 3905, "\u2581Create": 3906, "\u2581Length": 3907, "yo": 3908, "\u2581attacks": 3909, "nt": 3910, "iv": 3911, "\u2581greatly": 3912, "\u2581Available": 3913, "\u2581frequently": 3914, "\u2581expression": 3915, "\u25812)": 3916, "\u2581Hu": 3917, "\u2581gay": 3918, "TS": 3919, "\u2581Award": 3920, "\u2581Money": 3921, "\u2581affected": 3922, "\u2581tested": 3923, "\u2581Current": 3924, "\u2581Voltage": 3925, "\u2581Ro": 3926, "ES": 3927, "\u2581aluminum": 3928, "\u2581angle": 3929, "\u2581Ke": 3930, "\u2581snow": 3931, "\u258147": 3932, "\u2581NOT": 3933, "\u2581\u25cf": 3934, "\u2581phase": 3935, "\u2581Buy": 3936, "\u2581stated": 3937, "\u2581William": 3938, "\u2581kid": 3939, "\u2581overall": 3940, "\u2581Coffee": 3941, "CE": 3942, "\u2581ordered": 3943, "\u2581versions": 3944, "\u2581blessed": 3945, "\u2581reasonable": 3946, "\u2581overcome": 3947, "\u2581Table": 3948, "SE": 3949, "\u2581museum": 3950, "\u2581sleeping": 3951, "\u2581flower": 3952, "\u2581objects": 3953, "\u2581Tag": 3954, "\u2581cycle": 3955, "\u2581Gas": 3956, "\u2581Net": 3957, "\u2581visiting": 3958, "3)": 3959, "Applause": 3960, "\u2581destruction": 3961, "\u2581complimentary": 3962, "MS": 3963, "\u2581Martin": 3964, "\u2581instructions": 3965, "\u2581URL": 3966, "\u2581department": 3967, "\u2581Little": 3968, "pi": 3969, "\u2581unless": 3970, "\u3011": 3971, "\u2581Hospital": 3972, "vi": 3973, "\u2581girlfriend": 3974, "\u2581Force": 3975, "\u2581Jack": 3976, "\u2581customized": 3977, "\u2581ran": 3978, "set": 3979, "\u2581Features": 3980, "\u2581visited": 3981, "\u2581broke": 3982, "\u2581Hell": 3983, "\u2581provider": 3984, "ery": 3985, "\u2581seed": 3986, "\u2581proof": 3987, "John": 3988, "\u2581honest": 3989, "\u2581Charles": 3990, "book": 3991, "\u2581ocean": 3992, "AC": 3993, "\u2581Really": 3994, "\u2581terrible": 3995, "\u2581certificate": 3996, "\u2581grew": 3997, "\u2581creampie": 3998, "\u2581owned": 3999, "\u2581perspective": 4000, "\u2581Computer": 4001, "\u2581Touch": 4002, "\u2581restaurants": 4003, "\u258122,": 4004, "\u2581Bi": 4005, "\u2581Thomas": 4006, "\u2581sheet": 4007, "\u2581]": 4008, "\u2581turns": 4009, "\u2581element": 4010, "\u2581stood": 4011, "ama": 4012, "\u2581Girl": 4013, ":4": 4014, "\u2581Outlook": 4015, "\u2581Shopping": 4016, "san": 4017, "\u2581Things": 4018, "\u2581Being": 4019, "\u2581interior": 4020, "\u2581Pressure": 4021, "\u2581Again": 4022, "\u2581Job": 4023, "\u2581era": 4024, "\u2581comment": 4025, "du": 4026, "tech": 4027, "07": 4028, "\u258115,": 4029, "\u2581entirely": 4030, "\u2581effectively": 4031, "\u2581counsel": 4032, "\u2581Shi": 4033, "\u2581exciting": 4034, "\u2581Exhibition": 4035, "\u2581fabric": 4036, "\u2581passion": 4037, "\u2581da": 4038, "\u2581True": 4039, "\u2581earn": 4040, "\u2581Luxury": 4041, "\u2581homes": 4042, "\u2581disk": 4043, "ita": 4044, "\u2581root": 4045, "RE": 4046, "Let": 4047, "\u2581Du": 4048, "\u2581updates": 4049, "\u2581entertainment": 4050, "ik": 4051, "\u2581birthday": 4052, "\u2581leaves": 4053, "\u2581convert": 4054, "51": 4055, "\u2581Storage": 4056, "\u2581assembly": 4057, ":5": 4058, "\u2581afternoon": 4059, ":34": 4060, "\u2581Judah": 4061, "ries": 4062, "\u2581factor": 4063, "\u2581monitor": 4064, "\u2581comprehensive": 4065, "\u2581Barcelona": 4066, "\u2581foundation": 4067, "!!": 4068, "\u2581description": 4069, "\u2581Led": 4070, "\u2581golf": 4071, "\u2581registration": 4072, "\u2581agreed": 4073, "\u2581survey": 4074, "\u2581illegal": 4075, "\u2581w": 4076, "\u2581currency": 4077, "\u2581depends": 4078, "\u2581aim": 4079, "\u2581referred": 4080, "\u2581Pass": 4081, "\u2581Unfortunately": 4082, "\u2581RE": 4083, "\u2581Follow": 4084, "fer": 4085, "ou": 4086, "ions": 4087, "\u2581Mountain": 4088, "\u2581sets": 4089, "\u2581Vi": 4090, "\u2581articles": 4091, "\u2581Happy": 4092, "\u2581remained": 4093, "\u2581consent": 4094, "\u2581losing": 4095, "\u2581applies": 4096, "\u258115-": 4097, "\u2581automatic": 4098, "\u2581Kids": 4099, "\u2581walls": 4100, "lic": 4101, "\u2581Academy": 4102, "\u2581iOS": 4103, "\u2581mirror": 4104, "\u2581Switzerland": 4105, "che": 4106, "ari": 4107, "\u2581surprised": 4108, "ps": 4109, "IT": 4110, ":32": 4111, "\u2581claims": 4112, "hr": 4113, "\u2581identity": 4114, "\u2581Grade": 4115, "\u2581Nations": 4116, "ano": 4117, "\u2581110": 4118, "\u2581permission": 4119, "Read": 4120, "\u258128,": 4121, "cha": 4122, "\u2581humanity": 4123, "\u2581lighting": 4124, "\u2581Har": 4125, "\u25811970": 4126, "\u2581del": 4127, "-15": 4128, "class": 4129, "\u2581Ireland": 4130, "\u2581Brazil": 4131, "1)": 4132, "kin": 4133, "\u2581focused": 4134, "\u258151": 4135, "\u2581competitive": 4136, "\u2581rating": 4137, "\u2581Living": 4138, "\u2581networks": 4139, "\u25812010.": 4140, "\u2581cumshot": 4141, "\u2581promote": 4142, "\u2581seeking": 4143, "\u2581Texas": 4144, "\u2581rental": 4145, "\u2581Suppliers": 4146, "\u2581y": 4147, "\u2581Silver": 4148, "\u2581east": 4149, "\u2581acid": 4150, "\u2581Training": 4151, "\u2581bringing": 4152, ":8": 4153, "\u2581resurrection": 4154, "\u2581saving": 4155, "\u2581annual": 4156, "\u25816,": 4157, "\u2581Ga": 4158, "4)": 4159, "\u2581Iron": 4160, "\u2581arrive": 4161, "\u2581parent": 4162, "\u2581doors": 4163, "\u2581fault": 4164, "EN": 4165, "\u2581virtual": 4166, "\u2581shut": 4167, "\u2581aircraft": 4168, "Th": 4169, "\u2581sensor": 4170, "\u2581regulations": 4171, "\u2581dad": 4172, "\u25812015.": 4173, "\ub9ac": 4174, "\u2581Baby": 4175, "\u2581blessing": 4176, "\u2581Heart": 4177, "\u2581Te": 4178, "\u2581Floor": 4179, "\u2581operate": 4180, ":33": 4181, "\u2581alloy": 4182, "TH": 4183, "\u2581yourselves": 4184, "\u2581Care": 4185, "\u2581Fast": 4186, "\u2581suggest": 4187, "\u2581Arts": 4188, "\u2581Boutique": 4189, "\u2581featuring": 4190, "De": 4191, "\u2581Off": 4192, "\u2581Enter": 4193, "\u2581precious": 4194, "tel": 4195, "\u2581ears": 4196, "\u2581Days": 4197, "\u2581fiber": 4198, "\u2581remaining": 4199, "\u2581luxury": 4200, "\u2581Fair": 4201, "\u2581gate": 4202, "\u2581attitude": 4203, "ey": 4204, "\u2581chose": 4205, "Picture": 4206, "59": 4207, "\u2581Age": 4208, "\u25811980": 4209, "\u2581Dutch": 4210, "\u2581gifts": 4211, "\u2581boys": 4212, "\u2581succeed": 4213, "\u2581severe": 4214, "\u2581expand": 4215, "\u25812011.": 4216, "\u2581Valley": 4217, "CH": 4218, "\u2581reference": 4219, "\u2581increasing": 4220, "\u2581fucking": 4221, "\u2581Jan": 4222, "\u25811990": 4223, "\u2581stayed": 4224, "\u2581salt": 4225, "One": 4226, "\u2581tonight": 4227, "\u2581Prince": 4228, "\u2581Organization": 4229, "gar": 4230, "PC": 4231, "\u2581belief": 4232, "\u2581studying": 4233, "\u2581Bangkok": 4234, "\u2581Radio": 4235, "\u2581broadcast": 4236, "\u2581west": 4237, "\u2581Reviews": 4238, "700": 4239, "AS": 4240, "\u2581Level": 4241, "\u2581somewhere": 4242, "\u2581counter": 4243, "\u2581medium": 4244, "\u2581unable": 4245, "\u2581intended": 4246, "\u2581Front": 4247, "\u2581profit": 4248, "\u2581mask": 4249, "\u258114,": 4250, "\u2581Las": 4251, "\u2581improved": 4252, "\u2581Cap": 4253, "\u2581consumption": 4254, "\u2581CNC": 4255, "\u2581runs": 4256, "\u2581liquid": 4257, "\u2581schedule": 4258, "\u2581regard": 4259, "\u2581constant": 4260, "\u2581Exchange": 4261, "92": 4262, "\u2581crisis": 4263, "\u2581forgotten": 4264, "\u2581follows": 4265, "\u2581Turn": 4266, "47": 4267, "34": 4268, "ng": 4269, "ada": 4270, "\u2581churches": 4271, "tan": 4272, "\u2581familiar": 4273, "\u2581telephone": 4274, "\u258105:00": 4275, "\u2581winning": 4276, "\u2581HOME": 4277, "\u2581exact": 4278, "}}": 4279, "\u2581Cell": 4280, "\u2581receiving": 4281, "\u2581tend": 4282, "\u2581procedure": 4283, "\u2581destination": 4284, "\u2581Battle": 4285, "\u2581administration": 4286, "\u2581plenty": 4287, "\u2581adopted": 4288, "\u2581plane": 4289, "\u2581Song": 4290, "ney": 4291, "RO": 4292, "\u2581nurse": 4293, "49": 4294, "56": 4295, "\u2581sugar": 4296, "CK": 4297, "\u2581acts": 4298, "\u2581category": 4299, "\u2581Olympic": 4300, "\u2581Prague": 4301, "SS": 4302, "\u2581till": 4303, "\u2581defense": 4304, "\u2581Milan": 4305, "\u2581mark": 4306, "\u2581Islands": 4307, "\u2581riding": 4308, "82": 4309, "\u2581Student": 4310, "ker": 4311, "\u2581log": 4312, "\u2581Dad": 4313, "\u2581Latin": 4314, "ual": 4315, "\u2581taxi": 4316, "istic": 4317, "\u2581Pipe": 4318, "more": 4319, "\u2581pleasant": 4320, "\u2581Self": 4321, "\u25812005": 4322, "\u2581uniform": 4323, "ris": 4324, "\u2581forced": 4325, "\u2581herself": 4326, "\u2581CA": 4327, "\u258150%": 4328, "MO": 4329, "\u2581Brown": 4330, "\u2581danger": 4331, "pcs": 4332, "\u2581edge": 4333, "\u2581\u3010": 4334, "\u2581evolution": 4335, "see": 4336, "\u2581Recovery": 4337, "\u2581info": 4338, "\u2581sources": 4339, "\u2581SP": 4340, "\u2581stronger": 4341, "\u2581Details": 4342, "\u2581surgery": 4343, "\u2581fundamental": 4344, "\u2581concern": 4345, "\u2581flexible": 4346, "\u2581Dubai": 4347, "\u2581FOR": 4348, "\u2581enterprise": 4349, "\u2581extension": 4350, "\u2581stainless": 4351, "\u2581arms": 4352, "68": 4353, "\u2581EN": 4354, "\u2581GPS": 4355, "\u2581pen": 4356, "97": 4357, "\u2581lights": 4358, "\u2581Electronic": 4359, ":45": 4360, "\u2581Link": 4361, "\u2581agent": 4362, "\u2581Moreover": 4363, "\u2581ends": 4364, "\u2581Pi": 4365, "ach": 4366, "\u2581attend": 4367, "\u2581bike": 4368, "\u2581studio": 4369, "\u2581occurred": 4370, "\u258110%": 4371, "\u2581Shop": 4372, "\u2581personally": 4373, "\u2581apart": 4374, "\u2581conducted": 4375, "\u2581clock": 4376, "\u2581alcohol": 4377, "\u2581anyway": 4378, "\u2581220": 4379, "\u2581Tim": 4380, "\u2581desired": 4381, "\u2581writer": 4382, "CC": 4383, "pm": 4384, "\u2581casting": 4385, "\u2581muscle": 4386, "\u2581newspaper": 4387, "\u2581represent": 4388, "46": 4389, "AR": 4390, "\u2581aspects": 4391, "\u2581Module": 4392, "\u2581(6": 4393, "\u2581ear": 4394, "\u2581buying": 4395, "fa": 4396, "\u2581courage": 4397, "\u2581beings": 4398, "Who": 4399, "\u2581invited": 4400, "\u2581magazine": 4401, "\u2581specified": 4402, "\u2581180": 4403, "\u2581tight": 4404, "ff": 4405, "\u2581institutions": 4406, "\u2581personality": 4407, "\u2581obey": 4408, "\u2581Micro": 4409, "\u2581markets": 4410, "\u2581Corporation": 4411, "\u2581wholesale": 4412, "\u2581regularly": 4413, "\u2581Always": 4414, "\u2581Child": 4415, "\u2581joint": 4416, "\u258118,": 4417, "\u258116,": 4418, "\u2581Production": 4419, ":2": 4420, "\u2581transportation": 4421, "\u25812.0": 4422, "app": 4423, "ious": 4424, "96": 4425, "air": 4426, "\u2581educational": 4427, "\u25812014.": 4428, "\u2581Supply": 4429, "\u2581Samsung": 4430, "\u2581Block": 4431, "\u2581bound": 4432, "\u2581Roll": 4433, "\u2581Mon": 4434, "\u2581reaction": 4435, "\u2581elected": 4436, "\u2581specifically": 4437, "\u2581Flash": 4438, "\u2581Dream": 4439, "\u2581Polish": 4440, "\u2581PP": 4441, "\u2581Motel": 4442, "\u2581Hydraulic": 4443, "\u2581detailed": 4444, "\u2581sand": 4445, "\u2581supposed": 4446, "\u2581stands": 4447, "party": 4448, "\u2581Wine": 4449, "\u2581compare": 4450, "\u2581Euro": 4451, "\u2581academic": 4452, "\u2581net": 4453, "lon": 4454, "\u2581dwell": 4455, "\u2581deals": 4456, "\u2581supplier": 4457, "\u2581developers": 4458, "\u2581Dan": 4459, "CO": 4460, "\u2581Engineering": 4461, "\u2581Ru": 4462, "\u25812011,": 4463, "\u2581throw": 4464, "\u2581hole": 4465, "\u2581dining": 4466, "Please": 4467, "\u2581Log": 4468, "\u2581Gen": 4469, "\u2581Whatever": 4470, "\u2581sector": 4471, "\u2581score": 4472, "\u2581Library": 4473, "\u2581apostle": 4474, "\u2581ST": 4475, "IS": 4476, "\u2581Ah": 4477, "\u2581diseases": 4478, "sha": 4479, "\u2581roll": 4480, "\u2581suite": 4481, "\u2581priests": 4482, "\u2581inspired": 4483, "\u2581smell": 4484, "\u25812016,": 4485, "\u2581fishing": 4486, "\u2581VPN": 4487, "\u2581investors": 4488, "\u2581Stone": 4489, "\u2581faces": 4490, "\u2581Tu": 4491, "\u2581certification": 4492, "\u2581Britain": 4493, ":35": 4494, "ria": 4495, "\u2581Pump": 4496, "oo": 4497, "\u2581ordinary": 4498, "\u2581capture": 4499, "\u2581audience": 4500, "\u2581Turkey": 4501, "ming": 4502, "\u25812015,": 4503, "stone": 4504, "OR": 4505, "\u2581slowly": 4506, "\u2581diameter": 4507, "\u2581laugh": 4508, "\u2581horse": 4509, "\u2581delete": 4510, "\u2581Season": 4511, "\u2581Australian": 4512, "\u2581satisfied": 4513, "val": 4514, "\u2581collected": 4515, "\u2581behold": 4516, "\u25819,": 4517, "\u2581hd": 4518, "od": 4519, "\u2581Though": 4520, "\u25812.5": 4521, "\u2581tongue": 4522, "\u2581Castle": 4523, "\u2581intelligence": 4524, "\u2581Developer": 4525, "\u258113,": 4526, "\u2581hostel": 4527, "\u2581communities": 4528, "tter": 4529, "\u2581talked": 4530, "\u2581Tea": 4531, "\u2581posted": 4532, "\u2581cooperation": 4533, "\u2581Poland": 4534, "\u2581Sales": 4535, "\u2581meetings": 4536, "\u2581Content": 4537, "eg": 4538, "tea": 4539, "85": 4540, "\u2581opposite": 4541, "\u2581pop": 4542, "\u2581SC": 4543, "\u2581Winter": 4544, "inch": 4545, "\u2581onto": 4546, "\u2581electrical": 4547, "\u2581corner": 4548, "\u2581PE": 4549, "\u2581packaging": 4550, "\u2581Richard": 4551, "\u2581turning": 4552, "\u2581Case": 4553, "\u2581stores": 4554, ":37": 4555, ":40": 4556, "\u2581planned": 4557, "\u2581Within": 4558, "=\"": 4559, ".[": 4560, "\u2581studied": 4561, "\u2581locations": 4562, "\u2581Ja": 4563, "rate": 4564, "ile": 4565, "\u2581sake": 4566, "\u2581Filter": 4567, "\u2581smile": 4568, "\u2581guard": 4569, "\u2581techniques": 4570, ":3": 4571, "\u2581Certificate": 4572, "top": 4573, "\u2581Chapter": 4574, "\u2581flash": 4575, "\u2581manual": 4576, "\u2581believers": 4577, "\u2581push": 4578, "\u2581YOU": 4579, "\u2581Thickness": 4580, "\u2581operated": 4581, "\u2581sing": 4582, "\u2581doctors": 4583, "\u2581sheep": 4584, "yl": 4585, "\u2581implement": 4586, "\u2581Join": 4587, "\u2581glasses": 4588, "\u2581Sch": 4589, "\u2581breath": 4590, "\u2581virus": 4591, "\u2581Bit": 4592, "\u2581communicate": 4593, "\u2581Guangzhou": 4594, "\u2581pull": 4595, "\u2581deeply": 4596, "\u2581controller": 4597, "\u25812017.": 4598, "\u2581refer": 4599, "\u2581minister": 4600, "\u2581#1": 4601, "\u2581authorities": 4602, "ip": 4603, "\u258121,": 4604, "\u2581truck": 4605, "\u2581RedTube": 4606, "OS": 4607, "\u2581represents": 4608, "\u2581artists": 4609, "\u2581assist": 4610, "\u25812012,": 4611, "\u2581ma": 4612, "\u2581Revolution": 4613, "sk": 4614, "\u2581neighbor": 4615, "\u258130,": 4616, "\u2581Iran": 4617, "\u2581Twin": 4618, "well": 4619, "\u258125,": 4620, "\u2581Trust": 4621, "\u2581tired": 4622, "\u2581Cold": 4623, "\u2581regions": 4624, "\u2581Statement": 4625, "\u2581Cookie": 4626, "\u2581industries": 4627, "\u2581pleased": 4628, "\u258127,": 4629, "\u2581promises": 4630, "\u2581Truck": 4631, "\u2581commitment": 4632, "\u25812003": 4633, "\u2581shoot": 4634, "\u2581servers": 4635, "\u2581perfectly": 4636, ":36": 4637, "Our": 4638, "\uc774": 4639, "\u2581tasks": 4640, "\u2581windows": 4641, "\u2581putting": 4642, "\u2581establish": 4643, "water": 4644, "\u2581Email": 4645, "\u2581Bio": 4646, "\u2581detail": 4647, "\u2581issued": 4648, "\u2581chair": 4649, "\u2581tattoo": 4650, "lar": 4651, "\u2581Cookies": 4652, "\u2581usage": 4653, "\u2581Ge": 4654, "ue": 4655, "\u2581JR": 4656, "\u2581appreciate": 4657, "\u2581raw": 4658, "\u258158": 4659, "\u00d7": 4660, "\u25812013,": 4661, "\u2581CS": 4662, "\u2581Based": 4663, "\u2581Hilton": 4664, "\u2581dates": 4665, "berg": 4666, "\u25812019.": 4667, "PE": 4668, "\u2581lifetime": 4669, "ep": 4670, "\u25810.5": 4671, "\u2581emotional": 4672, "\u2581context": 4673, "\u2581vast": 4674, "\u2581serves": 4675, "\u2581farm": 4676, "\u2581Story": 4677, "\u2581Bedroom": 4678, "\u2581monster": 4679, "\u2581describe": 4680, "RA": 4681, "\u2581followers": 4682, "\u25811,000": 4683, "\u2581Dis": 4684, "\u2581Train": 4685, "58": 4686, "\u2581expert": 4687, "long": 4688, "\u2581Hope": 4689, "\u25811960": 4690, "\u2581suffered": 4691, "\u2581celebrate": 4692, "\u2581Too": 4693, "\u2581Residence": 4694, "hand": 4695, "ice": 4696, "\u2581possibility": 4697, "\u2581beer": 4698, "\u2581stick": 4699, "\u2581meals": 4700, "\u2581Pin": 4701, "\u2581PA": 4702, "\u2581Event": 4703, "\u2581component": 4704, "\u2581Ku": 4705, "\u2581balcony": 4706, "\u2581Short": 4707, "\u2581closely": 4708, "that": 4709, "\u2581Send": 4710, "\u2581(3)": 4711, "\u2581Unit": 4712, "Matthew": 4713, "\u2581reform": 4714, "72": 4715, "\u2581discussion": 4716, "\u2581superior": 4717, "As": 4718, "63": 4719, "\u2581Switch": 4720, "\u2581grave": 4721, "\u2581wash": 4722, "\u2581chapter": 4723, "\u258129,": 4724, "EC": 4725, "\u2581clothing": 4726, "ani": 4727, "84": 4728, "\u2581tower": 4729, "EL": 4730, "\u2581officially": 4731, "\u25812017,": 4732, "\u2581ha": 4733, "\u2581enables": 4734, "\u2581courses": 4735, "\u258112,": 4736, "TA": 4737, "\u2581mostly": 4738, "\u2581estimated": 4739, "\u2581Account": 4740, "\u2581Study": 4741, "\u2581Around": 4742, "\u2581drinks": 4743, "low": 4744, "\u2581Doctor": 4745, "\u2581sufficient": 4746, "\u2581brands": 4747, "ini": 4748, "\u2581Nature": 4749, "zo": 4750, "\u2581Ver": 4751, "MM": 4752, "\u2581facility": 4753, "\u2581blockchain": 4754, "\u2581Ukraine": 4755, "\u2581temporary": 4756, "\u2581tickets": 4757, "\u2581belongs": 4758, "\u2581Despite": 4759, "\u2581Update": 4760, "\u2581Tuesday": 4761, "\u2581beat": 4762, "\u2581AI": 4763, "\u2581victims": 4764, "\u2581agency": 4765, "\u2581Consider": 4766, "\u2581replaced": 4767, "\u2581Taiwan": 4768, "log": 4769, "\u2581mail": 4770, "new": 4771, "\u2581literally": 4772, "\u2581GB": 4773, "\u2581Yellow": 4774, "\u2581Frank": 4775, "\u258169": 4776, "\u258119,": 4777, "\u2581Che": 4778, "\u2581Platform": 4779, "\u25811:": 4780, "\u2581Rose": 4781, "act": 4782, "\\": 4783, "74": 4784, "\u2581owners": 4785, "\u2581pair": 4786, "\u2581granny": 4787, "\u2581achieved": 4788, "\u2581subway": 4789, "\u2581Culture": 4790, "NA": 4791, "\u2581Gar": 4792, "\u2581displayed": 4793, "ug": 4794, "\u2581drunk": 4795, "\u2581rice": 4796, "\u258123,": 4797, "\u258126,": 4798, "\u2581Pay": 4799, "link": 4800, "\u2581Mc": 4801, "\u2581missed": 4802, "\u25812016.": 4803, "\u25812014,": 4804, "\u2581charged": 4805, "\u2581commanded": 4806, "\u2581Parking": 4807, "\u2581Future": 4808, "ified": 4809, "\u258110,": 4810, "km": 4811, "from": 4812, "\u2581refused": 4813, "\u2581vital": 4814, "\u2581visible": 4815, "\u2581Noah": 4816, "\u2581Package": 4817, "Mo": 4818, "\u2581assigned": 4819, "\u2581Melbourne": 4820, "\u2581consists": 4821, "\u2581Corinthians": 4822, "\u258117,": 4823, "\u258154": 4824, "93": 4825, "\u2581wearing": 4826, "\u2581Enterprise": 4827, "\u2581occurs": 4828, "\u25812013.": 4829, "ging": 4830, "\u2581tradition": 4831, "\u2581letters": 4832, "\u2581Johnson": 4833, "\u2581rapidly": 4834, "\u2581Surely": 4835, "\u2581Printing": 4836, "\u2581logo": 4837, "\u2581Week": 4838, "\u2581professor": 4839, "\u2581Ki": 4840, "\u2581immediate": 4841, "\u2581notes": 4842, "\u2581Henry": 4843, "\u2581jump": 4844, "\u2581daughters": 4845, "\u2581Advanced": 4846, "story": 4847, "\u2581slave": 4848, "\u2581federal": 4849, "\u2581ho": 4850, "\u2581Face": 4851, ":02": 4852, "\u2581relations": 4853, "DC": 4854, "\u2581somebody": 4855, "proof": 4856, "\u25817.": 4857, "TO": 4858, "\u2581continuing": 4859, "\u2581Miami": 4860, "\u2581tips": 4861, "\u2581prayers": 4862, "\u2581Beauty": 4863, "\u2581creatures": 4864, "\u2581Looking": 4865, "list": 4866, "\u2581calm": 4867, "\u2581gathered": 4868, "\u2581excited": 4869, "\u2581Action": 4870, "\u2581permanent": 4871, "\u2581requested": 4872, "\u2581Daily": 4873, "\u2581Maria": 4874, "\u2581designated": 4875, "\u2581Reservation": 4876, "\u2581abuse": 4877, "\u2581hosts": 4878, "\u2581$2": 4879, "\u2581infrastructure": 4880, "\u2581vintage": 4881, "\u2581Collection": 4882, ":38": 4883, "\u2581souls": 4884, "TV": 4885, "\u2581Among": 4886, "\u2581frequency": 4887, "\u2581organized": 4888, "\u2581porn": 4889, "\u2581Swiss": 4890, "\u2581sentence": 4891, "\u2581shit": 4892, "\u2581Flat": 4893, "\u2581granted": 4894, "\u2581Chat": 4895, "\u2581stupid": 4896, "\u2581situations": 4897, "quality": 4898, "\u2581killing": 4899, "ola": 4900, "\u2581centuries": 4901, "\u2581fees": 4902, "\u2581Tank": 4903, "\u2581SS": 4904, "\u2581Florence": 4905, "\u2581Railway": 4906, "\u2581controlled": 4907, "Co": 4908, "SP": 4909, "\u2581officer": 4910, "van": 4911, "\u2581programme": 4912, "nes": 4913, "\u2581Sp": 4914, "\u2581identified": 4915, "\u2581Round": 4916, "\u2581healing": 4917, "\u2581HP": 4918, "\u2581Thursday": 4919, "\u2581Latest": 4920, "\u2581native": 4921, "\u2581allowing": 4922, "\u2581makers": 4923, "\u2581Clean": 4924, "\u2581elevator": 4925, "\u2581obtained": 4926, "\u2581typically": 4927, "\u2581traveling": 4928, "\u2581pet": 4929, "\u2581Netherlands": 4930, "\u2581grand": 4931, "hotels": 4932, "\u2581(18": 4933, "\u2581deserve": 4934, "\u2581Talk": 4935, "\u2581UV": 4936, ":50": 4937, "\u2581Cam": 4938, "\u2581thickness": 4939, "\u2581Economic": 4940, "\u2581differences": 4941, "\u2581dealing": 4942, "\u2581vary": 4943, "\u2581ebony": 4944, "\u2581requirement": 4945, "\u2581obvious": 4946, "\u258172": 4947, "www": 4948, "ud": 4949, "ification": 4950, "ica": 4951, "\u2581intelligent": 4952, "\u2581Federal": 4953, "\u2581BE": 4954, "\u2581DNA": 4955, "\u2581assets": 4956, "\u2581wheel": 4957, "\u2581extensive": 4958, "\u2581Justice": 4959, "\u2581debt": 4960, "\u2581burn": 4961, "cc": 4962, "\u2581rely": 4963, "\u2581rare": 4964, "\u2581Seven": 4965, "\u2581quarter": 4966, "\u2581extent": 4967, "IC": 4968, "\u25812009,": 4969, "\u2581motion": 4970, "ons": 4971, "\u2581linked": 4972, "ane": 4973, "\u2581fifth": 4974, "\u2581mistakes": 4975, "\u2581Posted": 4976, "\u25812008,": 4977, "\u2581professionals": 4978, "\u2581films": 4979, "AD": 4980, "\u2581Pack": 4981, "\u2581monitoring": 4982, "\u25810.1": 4983, "\u2581rent": 4984, "\u2581Until": 4985, "\u2581quantity": 4986, "\u2581Mode": 4987, "\u2581visa": 4988, "\u2581pov": 4989, "Ex": 4990, "\u2581configuration": 4991, "\u2581Hav": 4992, "\u2581Leave": 4993, "\u2581Ca": 4994, ":05": 4995, "ath": 4996, "\u2581walked": 4997, "dis": 4998, "\u2581murder": 4999, "\u2581suicide": 5000, "\u2581lock": 5001, "\u2581mo": 5002, "\u2581Dance": 5003, "\u2581Technical": 5004, "\u2581laid": 5005, "\u2581Hours": 5006, "\u2581indoor": 5007, "\u2581award": 5008, "\u2581transmission": 5009, ":09": 5010, "\u2581Alloy": 5011, "\u2581wave": 5012, "\u2581relatively": 5013, "\u2581witnesses": 5014, "On": 5015, "\u2581Prime": 5016, "94": 5017, "ec": 5018, "\u2581Wednesday": 5019, "37": 5020, "\u2581Door": 5021, "\uc758": 5022, "CA": 5023, "\u201c": 5024, "\">": 5025, "\u2581prophets": 5026, "\u2581SO": 5027, "\u2581label": 5028, "\u2581blessings": 5029, "\u2581dollar": 5030, "\u2581Something": 5031, "\u2581normally": 5032, "\u2581Player": 5033, "zi": 5034, "\u2581API": 5035, "\u2581circuit": 5036, "\u2581despite": 5037, "point": 5038, "SC": 5039, "\u25811992": 5040, "\u2581inch": 5041, "\u2581capabilities": 5042, "\u2581ministry": 5043, "\u2581Flowers": 5044, "\u2581requests": 5045, "\u2581Tool": 5046, "\u2581sensitive": 5047, "\u2581Van": 5048, "\u2581MB": 5049, "\u2581reputation": 5050, "\u2581encourage": 5051, "Con": 5052, "\u2581risks": 5053, "79": 5054, "Don": 5055, "ites": 5056, "\u2581submit": 5057, "\u2581throne": 5058, "\u2581Vegas": 5059, "\u2581PS": 5060, "\u2581smooth": 5061, "je": 5062, "\u2581abroad": 5063, "ological": 5064, "\u2581WordPress": 5065, "\u2581winner": 5066, "\u2581characteristics": 5067, "oid": 5068, "76": 5069, "71": 5070, "\u2581\u201d": 5071, "\u2581Operating": 5072, "\u2581Heat": 5073, "\u2581Plant": 5074, ":39": 5075, "\u2581nylon": 5076, "\u2581Smith": 5077, "7%": 5078, "\u2581naturally": 5079, "\u2581Nor": 5080, "\u2581export": 5081, "\u2581bio": 5082, "\u2581contrast": 5083, "\u2581therapy": 5084, "\u2581practices": 5085, "\u2581liked": 5086, "\u2581leather": 5087, "\u2581pack": 5088, "\u258131,": 5089, "\u2581Pink": 5090, "cy": 5091, "\u2581bird": 5092, "\u2581Lock": 5093, "\u2581fathers": 5094, "\u2581approval": 5095, "\u2581philosophy": 5096, "\u2581stability": 5097, ":07": 5098, "\u2581sending": 5099, "\u2581Ta": 5100, "\u2581bill": 5101, "\u2581Profile": 5102, "\u2581programming": 5103, "\u2581recording": 5104, "\u2581funds": 5105, "\u2581younger": 5106, "\u2581Pe": 5107, "\u2581senior": 5108, "related": 5109, "\u2581covers": 5110, "\u2581lo": 5111, "\u2581massive": 5112, "\u2581Terminal": 5113, "\u2581electricity": 5114, "\u2581smoke": 5115, "\u2581democracy": 5116, "\u2581increasingly": 5117, "/1": 5118, "\u2581Executive": 5119, "ns": 5120, "tin": 5121, "\u2581Boy": 5122, "\u2581ME": 5123, "\u2581foods": 5124, "\u2581Had": 5125, "\u2581rose": 5126, "era": 5127, "\u2581ultimate": 5128, "\u2581Ever": 5129, "\u2581streets": 5130, "\u2581handjob": 5131, "\u2581Yo": 5132, "\u2581Par": 5133, "nm": 5134, "\u2581drives": 5135, "\u2581burden": 5136, "\u2581Bottle": 5137, "ular": 5138, "\u2581Joe": 5139, "fu": 5140, "\u2581Bra": 5141, "\u2581ill": 5142, "MB": 5143, "AP": 5144, "ON": 5145, "\u2581banks": 5146, "\u2581dear": 5147, ":46": 5148, "\u2581rejected": 5149, "\u2581DO": 5150, "\ud2b8": 5151, "\u258153": 5152, "\u2581Universal": 5153, "\u2581conversion": 5154, "uring": 5155, "\u2581Driver": 5156, "\u2581ironing": 5157, "\u2581enhance": 5158, "\u2581PCB": 5159, "\u2581sisters": 5160, "89": 5161, "\u2581availability": 5162, "BA": 5163, "\u2581Pen": 5164, "\u2581Packaging": 5165, "\u2581Gi": 5166, "An": 5167, "\u258195": 5168, "\u2581broad": 5169, "\u2581applicable": 5170, ":04": 5171, "\u2581Fabric": 5172, "\u2581Kit": 5173, "\u2581entrance": 5174, "\u2581furniture": 5175, "\u2581\u266b": 5176, "ose": 5177, "\u2581zone": 5178, "Go": 5179, "\u2581edit": 5180, "\u258124,": 5181, "iz": 5182, "\u2581origin": 5183, "\u258120,": 5184, "ona": 5185, "57": 5186, "\u2581storm": 5187, "\u2581neck": 5188, "Al": 5189, "\u2581unknown": 5190, "\u2581suit": 5191, "\u2581Sweden": 5192, "\u2581memories": 5193, "\u2581spa": 5194, "\u2581stations": 5195, "mit": 5196, "\u2581Rate": 5197, "88": 5198, "\u2581split": 5199, "ren": 5200, "\u2581Ti": 5201, "\u2581Fe": 5202, "\u2581Saul": 5203, "cur": 5204, "\u2581increases": 5205, "\u2581attractive": 5206, "load": 5207, "\u25812004": 5208, "\u2581belong": 5209, "\u25812:": 5210, "Now": 5211, "\u2581tons": 5212, "\u2581slightly": 5213, "\u2581Financial": 5214, "\u2581upper": 5215, "-16": 5216, "\u2581Payment": 5217, "AN": 5218, "\u2581experiment": 5219, "\u25812007,": 5220, "right": 5221, "\u2581cheapest": 5222, "\u2581Later": 5223, "\u2581Matthew": 5224, "|": 5225, "\u2581cuisine": 5226, "\u2581contest": 5227, "\u2581reply": 5228, "\u2581usual": 5229, "\u2581lamp": 5230, "\u2581injury": 5231, "\u2581everyday": 5232, "\u2581AS": 5233, "\u2581crying": 5234, "\u2581spending": 5235, "91": 5236, "rin": 5237, "\u2581Mexican": 5238, "\u2581twelve": 5239, "\u2581Soft": 5240, "\u2581hall": 5241, "\u2581holds": 5242, "\u258130%": 5243, "\u2581luck": 5244, "\u2581Shenzhen": 5245, "\u2581symbol": 5246, "\u2581cap": 5247, "\u2581flood": 5248, "\u2581Far": 5249, "\u2581shalt": 5250, "\u2581deny": 5251, "\u2581cum": 5252, ":49": 5253, "\u2581pm": 5254, "vin": 5255, "\u2581Sin": 5256, "Lust": 5257, "ENT": 5258, "\u00b7": 5259, "DS": 5260, "\u25811996": 5261, "\u2581adopt": 5262, "\u2581Channel": 5263, "LA": 5264, "az": 5265, "\u2581Put": 5266, "sky": 5267, "\u2581replied": 5268, "\u2581Item": 5269, "yu": 5270, "\u2581measurement": 5271, "\u2581cm": 5272, "\u2581extreme": 5273, "\u2581swallow": 5274, "\u2581Sheet": 5275, "ration": 5276, "\u2581Athens": 5277, "\u2581estate": 5278, "\u2581technique": 5279, "\u2581Cultural": 5280, "ball": 5281, "\u2581Dec": 5282, "\u2581Medicine": 5283, "\u2581blame": 5284, "are": 5285, "\u2581criminal": 5286, "0,000": 5287, ":57": 5288, "\u2581ban": 5289, "\u258156": 5290, "ET": 5291, "IL": 5292, "uc": 5293, "\u2581painting": 5294, "\u2581imp": 5295, "\u2581Confirmed": 5296, "view": 5297, "\u2581Luke": 5298, "ack": 5299, "\u2581III": 5300, "\u2581Northern": 5301, "\u2581homemade": 5302, "\u2581victim": 5303, "\u2581distributed": 5304, "\u2581Magic": 5305, "\u2581Gate": 5306, "\u201d?": 5307, "\u2581tears": 5308, "\u2581360": 5309, "\u2581appeal": 5310, "\u2581Marine": 5311, "\u2581departure": 5312, "\u2581hungry": 5313, "\u2581Beautiful": 5314, "\u2581resource": 5315, "ai": 5316, "\u2581cream": 5317, "\u2581repeat": 5318, "\u2581commonly": 5319, "\u2581worried": 5320, "\u2581amenities": 5321, "\u2581lady": 5322, "\u2581divorce": 5323, "ky": 5324, "\u2581Someone": 5325, "\u2581actor": 5326, "\u2581generations": 5327, "\u2581trained": 5328, "mark": 5329, "\u2581dying": 5330, ":03": 5331, "\u2581bridge": 5332, "\u2581crowd": 5333, "\u2581valve": 5334, "\u2581Excellent": 5335, "wan": 5336, "\u2581topic": 5337, "\u2581Eye": 5338, ":42": 5339, "ens": 5340, "\u2581visual": 5341, "\u2581collaboration": 5342, "\u2581Iraq": 5343, "\u2581Bag": 5344, "\u2581ratio": 5345, "\u2581nobody": 5346, "uck": 5347, "LY": 5348, "\u2581Manufacturer": 5349, "AT": 5350, "ford": 5351, "\u2581Surface": 5352, "\u2581desert": 5353, "\u2581Run": 5354, "\u2581Safe": 5355, "\u2581damaged": 5356, "\u2581assume": 5357, "\u2581Testing": 5358, "\u2581lowest": 5359, "\u25813.5": 5360, "Pro": 5361, "\u2581lord": 5362, "\u2581Louis": 5363, "\u2581accuracy": 5364, "\u2581soccer": 5365, "\u2581explains": 5366, "\u258185": 5367, "\u2581devil": 5368, "\u2581mix": 5369, "\u2581container": 5370, "\u2581Meeting": 5371, "\u2581Tech": 5372, "\u2581peaceful": 5373, "\u2581leg": 5374, "\u258157": 5375, "\u2581german": 5376, "\u2581heads": 5377, "\u2581Field": 5378, "\u2581Better": 5379, "\u2581protein": 5380, "\u2581observed": 5381, "\u2581poverty": 5382, "-9": 5383, "\u2581Release": 5384, ":55": 5385, "\u2581portion": 5386, "\u2581housing": 5387, "\u2581defeat": 5388, "\u2581Journal": 5389, "\u2581diverse": 5390, "\u2581examples": 5391, "ple": 5392, "PO": 5393, "ther": 5394, "\u2581thread": 5395, "\u2581Manual": 5396, "pre": 5397, "77": 5398, "\u2581household": 5399, "\u2581lucky": 5400, "\u2581com": 5401, "\u2581novel": 5402, "\u2581extended": 5403, "\u2581officials": 5404, "\u2581mechanical": 5405, "tu": 5406, "\u2581Basic": 5407, "\u2581Xo": 5408, "\u2581shooting": 5409, "\u2581lessons": 5410, "\u2581Original": 5411, "\u2581vacation": 5412, "\u2581mouse": 5413, "\u2581Treatment": 5414, "\u2581samples": 5415, "\u2581Performance": 5416, "ations": 5417, "\u2581Actually": 5418, "\u2581relax": 5419, "\u25812001": 5420, "\u2581thereof": 5421, "\u2581strike": 5422, "Oh": 5423, "\u2581Booking": 5424, "\u2581beds": 5425, "\u2581lying": 5426, "\u2581adventure": 5427, "\u2581gather": 5428, "\u2581lesson": 5429, "\u2581Range": 5430, "\u2581Sir": 5431, "\u2581extract": 5432, "\u2581Professor": 5433, "\u2581argue": 5434, "\u2581exit": 5435, "\u2581mis": 5436, "\u2581exhibition": 5437, "\u2581Hat": 5438, ":41": 5439, "\u2581coating": 5440, ":01": 5441, "\u2581Rubber": 5442, "\u25812002": 5443, "\u2581Fun": 5444, "Zilla": 5445, "\u2581paint": 5446, "\u2581Value": 5447, "\u2581producing": 5448, "\u2581paying": 5449, "\u2581Ab": 5450, "\u2581coast": 5451, "known": 5452, "bin": 5453, "\u2581fridge": 5454, "\u2581(10": 5455, "\u2581ease": 5456, "\u2581refuse": 5457, "cal": 5458, "\u2581alarm": 5459, "\u2581complicated": 5460, "\u2581Ri": 5461, "\u25812018,": 5462, "\u2581Ice": 5463, "\u2581provision": 5464, "\u2581invest": 5465, "\u2581Kitchen": 5466, "\u2581Sensor": 5467, "\u2581engineers": 5468, "\u2581basically": 5469, "\u2581debate": 5470, "\u2581Making": 5471, "\u2581weapon": 5472, "\u30fb": 5473, "\u2581admit": 5474, "\u2581keeps": 5475, "lia": 5476, "\u2581Edition": 5477, "`": 5478, "\u2581warranty": 5479, "\u2581sizes": 5480, "\u2581communications": 5481, "\u2581Casa": 5482, "\u2581creates": 5483, "\u2581Faith": 5484, "\u2581Aaron": 5485, "\u2581adding": 5486, "\u2581Farm": 5487, "\u2581providers": 5488, "gra": 5489, "\u2581verse": 5490, "\u2581drivers": 5491, "\u2581pride": 5492, "rated": 5493, "\u2581engage": 5494, "lock": 5495, "\u2581surrounding": 5496, "\u2581integration": 5497, "\u2581reveal": 5498, "\u2581passengers": 5499, "\u2581resist": 5500, "\u2581printed": 5501, "\u2581Output": 5502, "\u2581staying": 5503, "\u2581obviously": 5504, "\u2581strengthen": 5505, "\u2581shift": 5506, "tz": 5507, "lor": 5508, "\u2581FC": 5509, "\u2581recognition": 5510, "\u2581territory": 5511, "\u2581Foreign": 5512, "ade": 5513, "\u2581detect": 5514, "\u258120%": 5515, "\u2581shame": 5516, "\u2581Band": 5517, "\u25812008.": 5518, "78": 5519, "\u2581Jin": 5520, "\u2581acting": 5521, "\u2581demands": 5522, "\u2581Waterproof": 5523, "\u2581emotions": 5524, "3%": 5525, "\u2581originally": 5526, "\u2581historic": 5527, ":44": 5528, "\u2581Dark": 5529, ":54": 5530, "\u2581patterns": 5531, "Can": 5532, "\u2581compatible": 5533, "\u2581platforms": 5534, "ag": 5535, "some": 5536, "\u2581flying": 5537, "\u2581Eastern": 5538, "\u2581confirm": 5539, "\u2581dogging": 5540, "\u2581apostles": 5541, "\u2581\u00a3": 5542, "\u2581universities": 5543, "\u2581Isaac": 5544, "\u2581lovely": 5545, "\u2581significantly": 5546, "gate": 5547, "\u2581midst": 5548, "ble": 5549, "\u2581icon": 5550, "\u2581Eve": 5551, "-30": 5552, "friendly": 5553, "\u2581vi": 5554, "\u2581Wind": 5555, "\u2581commit": 5556, "cent": 5557, "month": 5558, "\u2581Himself": 5559, "\u2581Dress": 5560, "\u2581regime": 5561, "\u2581whenever": 5562, "\u2581dynamic": 5563, "\u25812009.": 5564, "\u2581Southern": 5565, "\u2581DE": 5566, "\u2581robot": 5567, "\u2581Fashion": 5568, "\u2581guilty": 5569, "\u2581stream": 5570, "\u2581Simple": 5571, "120": 5572, "\u2581cooling": 5573, "\u2581proved": 5574, "\u2581zero": 5575, "\u2581branch": 5576, "PS": 5577, "\u2581troops": 5578, "\u2581Rather": 5579, "\u2581resort": 5580, "\u2581Audio": 5581, "\u2581skinny": 5582, "hotel": 5583, "ants": 5584, "\u2581Direct": 5585, "\u2581Sport": 5586, "ev": 5587, "\u2581yeah": 5588, "dom": 5589, "\u2581merely": 5590, "\u2581Movie": 5591, "pl": 5592, "\u2581tough": 5593, "\u2581Documents": 5594, "81": 5595, "\u2581consequences": 5596, "\u2581preparation": 5597, "\u2581Seattle": 5598, "\u2581dressing": 5599, "\u2581Lady": 5600, "\u2581thick": 5601, "\u2581Carbon": 5602, "\u2581Angel": 5603, "-18": 5604, "\u2581burning": 5605, "fully": 5606, "\u2581Camp": 5607, "\u2581Scripture": 5608, "\u2581pregnancy": 5609, "life": 5610, "\u2581None": 5611, "\u25811950": 5612, "BS": 5613, "150": 5614, "\u2581Listen": 5615, "\u2581OR": 5616, "\u2581Six": 5617, "\u2581speaks": 5618, "\u2581tape": 5619, ":47": 5620, "\u2581Chris": 5621, "\u2581Shipping": 5622, "\u2581Stock": 5623, "press": 5624, "\u2581Cho": 5625, "RI": 5626, "\u2581precision": 5627, "\u2581\u00a5": 5628, "\u2581observe": 5629, "\u2581upgrade": 5630, "\u2581arrested": 5631, "\u2581Wait": 5632, "\u2581soil": 5633, "\u2581calendar": 5634, "\u2581edition": 5635, "\u2581legs": 5636, "\u2581Youth": 5637, "\u2581saith": 5638, "\u2581functionality": 5639, "\u2581Tools": 5640, "scale": 5641, "\u2581Mu": 5642, "\u2581Nice": 5643, "\u2581na": 5644, "\u2581grass": 5645, "\u2581sought": 5646, "ski": 5647, "\u2581duration": 5648, "ala": 5649, "\u2581lake": 5650, "\u2581ultimately": 5651, "IA": 5652, "made": 5653, "\u2581noticed": 5654, "\u2581thirty": 5655, "\u2581Pope": 5656, "\u258159": 5657, "\u2581prize": 5658, "5%": 5659, "\u2581Deep": 5660, "\u2581designer": 5661, "2.5": 5662, "ay": 5663, "ash": 5664, "bus": 5665, "\u2581Adobe": 5666, "\u2581Related": 5667, "\u2581transferred": 5668, "gg": 5669, "level": 5670, "\u2581Question": 5671, "\u2581waters": 5672, "\u2581consult": 5673, "ea": 5674, "\u2581Swedish": 5675, "\u2581trans": 5676, "\u2581Fort": 5677, "ken": 5678, "\u2581Stadium": 5679, "\u2581Chrome": 5680, "\u2581Intel": 5681, "83": 5682, "May": 5683, "PM": 5684, "\u2581Forest": 5685, "\u258199": 5686, "\u2581hire": 5687, "\u2581exclusive": 5688, "\u2581ads": 5689, "\u2581Mesh": 5690, "\u2581Alex": 5691, "-01": 5692, "\u2581independence": 5693, "\u2581Legal": 5694, "\u2581minds": 5695, "war": 5696, "\u2581Down": 5697, "\u2581Blood": 5698, "\u2581Due": 5699, "\u2581Author": 5700, "lit": 5701, "\u2581reject": 5702, "nic": 5703, "\u25813)": 5704, "\u2581strategic": 5705, "ius": 5706, "5)": 5707, "\u2581penetration": 5708, "\u2581desktop": 5709, "\u2581moments": 5710, "\u2581Indoor": 5711, "\u2581Hello": 5712, "\u2581possess": 5713, "\u2581designs": 5714, "\u258166": 5715, "\u2581finance": 5716, "\u2581SCP": 5717, "\u2581Prophet": 5718, "\u2581Wholesale": 5719, "\u2581Construction": 5720, "New": 5721, "\u2581Scriptures": 5722, "\u2581row": 5723, "\u2581directed": 5724, "\u2581ingredients": 5725, "\u2581boxes": 5726, "speed": 5727, "\u2581Villas": 5728, "\u2581Anyone": 5729, "\u2581chubby": 5730, "\u2581Florida": 5731, "\u2581Average": 5732, "\u2581Marketing": 5733, ":56": 5734, "\u2581comprises": 5735, ":06": 5736, "\u2581Alpha": 5737, "\u2581Snow": 5738, "\u2581EX": 5739, "\u2581objective": 5740, "\u2581deeds": 5741, "\u2581keys": 5742, "110": 5743, ":48": 5744, "\u2581Major": 5745, "\u2581errors": 5746, "pt": 5747, "\u258163": 5748, "\u2581http": 5749, "win": 5750, "\u2581Early": 5751, "\u2581kg": 5752, "\u2581facts": 5753, "\u2581Mor": 5754, "\u2581Bob": 5755, "\u2581cook": 5756, "\u2581Certification": 5757, "\u2581gym": 5758, "\u2581pursue": 5759, "af": 5760, ":58": 5761, "\u2581Eli": 5762, "\u2581strongly": 5763, "\u2581Pop": 5764, "\u2581viewed": 5765, "Hz": 5766, "\u2581investigation": 5767, "EP": 5768, "\u2581Packing": 5769, "\u2581shops": 5770, "ick": 5771, "\u2581reflect": 5772, "\u2581incredible": 5773, "\u2581iPad": 5774, "62": 5775, "\u2581Chief": 5776, "\u2581Offering": 5777, "\u2581Nu": 5778, "\u2581bonus": 5779, "\u2581connections": 5780, "\u2581survival": 5781, "\u2581favourite": 5782, "\u2581Fat": 5783, "\u2581aspect": 5784, "bed": 5785, "\u2581Blog": 5786, "\u2581Course": 5787, "\u2581urban": 5788, "\u2581Bad": 5789, "\u2581Soon": 5790, "\u2581entering": 5791, "\u2581TEL": 5792, "\u2581preaching": 5793, "\u2581Boston": 5794, "\u2581Bear": 5795, "\u2581Pharaoh": 5796, "\u2581Plate": 5797, "\u2581trusted": 5798, "\u2581delay": 5799, "\u2581officers": 5800, "\u2581Dead": 5801, "\u2581Strip": 5802, "\u2581Inch": 5803, "\u2581editor": 5804, "\u2581expressed": 5805, "\u2581Agreement": 5806, "\u2581Cutting": 5807, "gy": 5808, "\u2581rejoice": 5809, "tri": 5810, "\u2581facing": 5811, "\u2581instruction": 5812, "\u2581string": 5813, "\u2581Limited": 5814, "EA": 5815, "\u2581Thai": 5816, "\u2581\ud638\ud154": 5817, "\u2581Entertainment": 5818, "\u2581northern": 5819, "\u2581satisfaction": 5820, "\u2581thin": 5821, "ami": 5822, "\u2581agencies": 5823, "\u2581depression": 5824, "\u2581Kyoto": 5825, "\u2581vs": 5826, "\u2581Comments": 5827, "kw": 5828, "\u258110,000": 5829, "\u2581newly": 5830, "\u2581contemporary": 5831, "\u2581crew": 5832, "\u2581employment": 5833, "\u2581decade": 5834, "gue": 5835, "jin": 5836, "wi": 5837, "\u2581worthy": 5838, "form": 5839, "PP": 5840, "\u2581shouldn": 5841, "\u2581rid": 5842, "\u2581advantages": 5843, "\u2581procedures": 5844, "\u2581Mike": 5845, "\u2581{{": 5846, "\u2581afford": 5847, "\u2581Bur": 5848, "\u2581equivalent": 5849, "town": 5850, "\u2581concerns": 5851, "sis": 5852, "\u2581absolute": 5853, "\u2581Jordan": 5854, "\u2581Israelites": 5855, "har": 5856, "\u2581Ph": 5857, "\u2581Sub": 5858, "\u2581predict": 5859, "250": 5860, "\u2581choosing": 5861, "\u2581committee": 5862, "\u2581Title": 5863, "\u2581plays": 5864, "run": 5865, ":59": 5866, "\u2581Wireless": 5867, "\u2581Operation": 5868, "\u2581definition": 5869, "\u2581colour": 5870, "\u2581ASTM": 5871, "\u2581sp": 5872, "called": 5873, "\u2581Valve": 5874, "\u2581Metro": 5875, "\u2581painful": 5876, "\u2581elegant": 5877, "\u2581terrace": 5878, "\u2581Secretary": 5879, "\u2581surrounded": 5880, "\u2581Frame": 5881, "\u2581Ram": 5882, "\u2581350": 5883, "Yes": 5884, "\u2581seats": 5885, "\u2581Diamond": 5886, "\u2581array": 5887, "\u2581creature": 5888, "\u2581universal": 5889, "mat": 5890, "ese": 5891, "\u2581IS": 5892, "\u2581Lot": 5893, "\u2581Skin": 5894, "\u2581shadow": 5895, "\u2581react": 5896, "\u2581Turkish": 5897, "Then": 5898, "\u2581Dong": 5899, "\u2581everlasting": 5900, "\u2581Dragon": 5901, "\u2581PR": 5902, "\u2581residents": 5903, "\u2581Christianity": 5904, "1.5": 5905, "\u2581continuous": 5906, "\u2581li": 5907, "\u2581Updated": 5908, "\u2581mixed": 5909, "\u2581Timothy": 5910, "\u2581fantastic": 5911, "\u2581sir": 5912, "\u2581eggs": 5913, "\u2581PRO": 5914, "\u2581employee": 5915, ":43": 5916, "ify": 5917, "\u2581tracking": 5918, "\u2581drawing": 5919, "0.0": 5920, "\u2581sheets": 5921, "\u2581Samuel": 5922, "\u2581(7": 5923, "\u2581typical": 5924, "\u2581possibly": 5925, "\u2581proposed": 5926, "\u2581trains": 5927, "\u2581index": 5928, "\u2581argument": 5929, "ME": 5930, "\u2581Ji": 5931, "\u2581safely": 5932, "\u2581Fa": 5933, "\u2581expansion": 5934, "\u2581french": 5935, "\u2581Die": 5936, "\u2581Dollar": 5937, "\u2581productivity": 5938, "6)": 5939, "dia": 5940, "\u2581harder": 5941, "\u2581Solutions": 5942, "\u2581Coast": 5943, "\u2581microwave": 5944, "\u2581cameras": 5945, "\u2581Return": 5946, "\u2581dating": 5947, "\u2581FREE": 5948, "ob": 5949, "\u2581MA": 5950, "\u2581festival": 5951, ":51": 5952, "\u2581Del": 5953, "\u2581Forum": 5954, "\u2581rapid": 5955, "\u2581wherever": 5956, "\u2581RO": 5957, "\u2581chart": 5958, "\u2581contents": 5959, "\u2581cougar": 5960, "\u2581Besides": 5961, "1%": 5962, "\u2581cooking": 5963, "-13": 5964, "DA": 5965, "tal": 5966, "\u2581marry": 5967, "\u2581mighty": 5968, "\u2581Stand": 5969, "\u2581elders": 5970, "\u2581Coin": 5971, "\u2581introduction": 5972, "\u2581Lights": 5973, "\u2581Overview": 5974, "\u2581instrument": 5975, "eng": 5976, "\u2581expertise": 5977, "\u2581separated": 5978, "\u2581Added": 5979, "\u25812007.": 5980, "\u2581Customized": 5981, "\u2581flights": 5982, "\u2581Olympics": 5983, "\u2581functional": 5984, "ros": 5985, "\u2581Eco": 5986, "\u2581printer": 5987, "\u2581Portable": 5988, "\u2581beloved": 5989, "\u2581governments": 5990, "\u2581font": 5991, "\u2581(8": 5992, "\u2581Democratic": 5993, "bra": 5994, "ell": 5995, "Ro": 5996, "\u2581plug": 5997, "BC": 5998, "great": 5999, "including": 6000, "\u2581ships": 6001, "\u2581Indonesia": 6002, "\u2581chocolate": 6003, "\u2581removal": 6004, "\u2581copyright": 6005, "\u2581yoga": 6006, "\u2581IBM": 6007, "\u2581gained": 6008, "\u2581watched": 6009, "\u2581tennis": 6010, "\u2581permitted": 6011, "\u2581AT": 6012, "\u2581Fund": 6013, "NET": 6014, "\u2581Mars": 6015, "Clips": 6016, "\u2581Civil": 6017, "\u2581contribute": 6018, "\u2581Female": 6019, "\u2581heavenly": 6020, "\u2581IC": 6021, "\u2581discounts": 6022, "\u2581Java": 6023, "\u2581Nobody": 6024, "\u2581Supplier": 6025, "\u2581Nov": 6026, "\u2581behalf": 6027, "\u2581Chemical": 6028, "\u2581friendship": 6029, "\u2581coach": 6030, "\u2581Questions": 6031, "\u2581oxygen": 6032, "\u2581secretary": 6033, "\u2581Male": 6034, "\u2581carrying": 6035, "\u2581thankful": 6036, "\u2581representative": 6037, "\u00e1": 6038, "\u2581chicken": 6039, "\u2581Jean": 6040, "\u2581st": 6041, "\u2581Others": 6042, "\u2581supplied": 6043, "\u2581HOTEL": 6044, "\u2581blocks": 6045, "\u2581rescue": 6046, "\u2581Simon": 6047, "par": 6048, "Your": 6049, "2%": 6050, "\u2581import": 6051, "\u2581disaster": 6052, "\u2581Hence": 6053, "\u2581trend": 6054, "\u2581convenience": 6055, "\u2581delicious": 6056, "\u2581reception": 6057, "\u2581rail": 6058, "zu": 6059, "vert": 6060, "tle": 6061, "\u2581Classic": 6062, "\u2581taxes": 6063, "\u2581buried": 6064, "She": 6065, "\u2581WEB": 6066, "\u2581Constitution": 6067, "November": 6068, "\u2581Bring": 6069, "\u2581oldest": 6070, "\u2581palace": 6071, "ven": 6072, "\u2581tap": 6073, "\u2581dirty": 6074, "\u2581Avoid": 6075, "St": 6076, "\u2581engaged": 6077, "nan": 6078, "900": 6079, "\u2581genetic": 6080, "\u2581Learning": 6081, "\u2581Sand": 6082, "\u2581EUR": 6083, "\u2581claimed": 6084, "/10": 6085, "\u2581Ze": 6086, "\u2581depth": 6087, "\u2581Made": 6088, "\u2581Files": 6089, "\u2581Commercial": 6090, "\u2581refrigerator": 6091, "\ub77c": 6092, "73": 6093, "\u2581smartphone": 6094, "\u2581transaction": 6095, "Is": 6096, "\u2581Agency": 6097, "\u2581giant": 6098, "cher": 6099, "\u2581accessible": 6100, "\u2581Cover": 6101, "\u2581converted": 6102, "\u2581expectations": 6103, "\u2581Much": 6104, "\u2581fallen": 6105, "\u2581centers": 6106, "illa": 6107, "this": 6108, "\u2581desires": 6109, "\u2581laundry": 6110, "\u258162": 6111, "\u2581160": 6112, "\u2581j": 6113, "\u2581Fall": 6114, "\u2581flag": 6115, "\u2581grant": 6116, "\u2581consumer": 6117, "\u2581translated": 6118, "\u2581Miss": 6119, "\u2581prayed": 6120, "len": 6121, "\u2581supplies": 6122, "\u2581awesome": 6123, "\u2581paragraph": 6124, "\u2581gaming": 6125, "\u2581rubber": 6126, "\u258107:00": 6127, "\u2581Connector": 6128, "\u2581Shower": 6129, "\u2581700": 6130, "LI": 6131, "220": 6132, "\u2581130": 6133, "\u2581executive": 6134, "\u2581shuttle": 6135, "\u2581forecast": 6136, "\u2581VR": 6137, "\u2581generate": 6138, "smoking": 6139, "\u2581lab": 6140, "\u2581Fi": 6141, "\u2581kings": 6142, "\u2581Bal": 6143, "\u2581teeth": 6144, "\u2581resolve": 6145, "table": 6146, "ties": 6147, "\u2581Base": 6148, "\u2581Ken": 6149, "\u2581union": 6150, "\u2581illness": 6151, "\u2581organic": 6152, "\u2581Babe": 6153, "ei": 6154, "\u2581fitness": 6155, "\u2581Mal": 6156, "\u258168": 6157, "\u2581Chip": 6158, "\u25811.2": 6159, "\u2581returns": 6160, "\uff5e": 6161, "NO": 6162, "\u2581Austria": 6163, "\u2581scared": 6164, "avi": 6165, "\u2581dispute": 6166, "\u2581testimony": 6167, "\u2581sacred": 6168, "\u2581fought": 6169, "\u2581exception": 6170, "\u2581gear": 6171, "ima": 6172, "\u2581Used": 6173, "\u2581strategies": 6174, "\u2581Division": 6175, "\u25812006,": 6176, "\u2581attractions": 6177, "\u2581RS": 6178, "\u2581finger": 6179, "4%": 6180, "\u2581exposed": 6181, "KW": 6182, "\u25811999": 6183, "ew": 6184, "ette": 6185, "\u2581License": 6186, "\u2581copper": 6187, "\u2581Device": 6188, "\u2581moves": 6189, "\u2581restored": 6190, "\u2581Behold": 6191, "\u2581Sony": 6192, "TE": 6193, "\u2581castle": 6194, "\u2581steal": 6195, "\u2581Portugal": 6196, "\u2581Downtown": 6197, "\u2581Premium": 6198, "print": 6199, "\u2581attended": 6200, "\u2581attached": 6201, "rk": 6202, "\u2581AD": 6203, "\u2581Message": 6204, "\u2581width": 6205, "nie": 6206, "\u2581viewing": 6207, "\u2581shell": 6208, "GA": 6209, "\u2581Mass": 6210, "\u2581Ray": 6211, "ero": 6212, "CM": 6213, "\u2581Currently": 6214, "\u2581bow": 6215, "nu": 6216, "\u2581Materials": 6217, "\u2581rated": 6218, "\u2581freely": 6219, "\u2581Weather": 6220, "\u2581Repair": 6221, "\u2581inspection": 6222, "\u2581fool": 6223, "\u2581Introduction": 6224, "\u2581positions": 6225, "\u2581Cal": 6226, "type": 6227, "vis": 6228, "\u2581tab": 6229, "\u2581Football": 6230, "\u2581poly": 6231, "\u2581implementation": 6232, "ella": 6233, "\u2581displays": 6234, "\u2581refers": 6235, "\u2581gambling": 6236, "\u2581literature": 6237, "\u2581silence": 6238, "\u2581Ring": 6239, "\u2581blow": 6240, "\u2581indicate": 6241, "\u2581certified": 6242, ":08": 6243, "\u2581unusual": 6244, "\u2581Member": 6245, "\u2581Wheel": 6246, "\u2581naked": 6247, "\u2581steam": 6248, "\u2581Victoria": 6249, "\u2581lawyer": 6250, "\u2581Flight": 6251, "\u2581Sweet": 6252, "\u2581supporting": 6253, "\u2581Sal": 6254, "\u2581tri": 6255, "\u2581enjoying": 6256, "\u2581genuine": 6257, "kr": 6258, "\u2581fulfill": 6259, "\u20ac\u201c": 6260, "\u2581renovated": 6261, "\u2581injured": 6262, "\u2581Clear": 6263, "uff": 6264, "\u2581packing": 6265, "\u25813.0": 6266, "English": 6267, "\u2581Sen": 6268, "\")": 6269, "\u2581Nevertheless": 6270, "\u2581wives": 6271, "-14": 6272, "\u2581protocol": 6273, "\u2581cats": 6274, "\u2581phones": 6275, "ax": 6276, "\u2581Load": 6277, "play": 6278, "\u2581squirt": 6279, "\u2581Babylon": 6280, "\u2581difficulty": 6281, "\u25810.3": 6282, "pin": 6283, "\u2581Psalm": 6284, "Man": 6285, "-17": 6286, "\u2581}": 6287, "\u2581spy": 6288, "Psalm": 6289, "gan": 6290, "\u2581Je": 6291, "\u2581panties": 6292, "\u2581cancel": 6293, "\u2581WiFi": 6294, "\u2581contained": 6295, "\u2581asks": 6296, "\u2581division": 6297, "\u2581environments": 6298, ":53": 6299, "oz": 6300, "bol": 6301, "\u2581transition": 6302, "\u2581Kan": 6303, "\u2581aside": 6304, "\u2581romantic": 6305, "\u2581Hollywood": 6306, "\u2581Track": 6307, "Ha": 6308, "\u2581LG": 6309, "ction": 6310, "\u2581ON": 6311, "\u2581weren": 6312, "\u2581relative": 6313, "\u2581(4)": 6314, "\u2581140": 6315, "\u2581wet": 6316, "\u2581po": 6317, "\u2581Gift": 6318, "\u2581brief": 6319, "Where": 6320, "\u2581fruits": 6321, "\u2581dropped": 6322, "\u2581Tourism": 6323, "La": 6324, "\u2581meter": 6325, "\u2581\u203b": 6326, "\u2581signals": 6327, "Ma": 6328, "\u2581Prayer": 6329, "\u2581fulfilled": 6330, "\u2581Studies": 6331, "\u2581cried": 6332, "\u2581strive": 6333, "\u2581Syria": 6334, "\u2581eliminate": 6335, "place": 6336, "\u2581Usually": 6337, "\u2581Registration": 6338, "\u2581LA": 6339, "\u2581formula": 6340, "\u2581Remove": 6341, "\u2581goodness": 6342, "cing": 6343, "\u2581Wife": 6344, "\u2581noted": 6345, "\u2581regional": 6346, "\u2581ignore": 6347, "\u2581Mag": 6348, "\u2581SK": 6349, "\u2581Process": 6350, "\u2581convention": 6351, "hai": 6352, "\u2581whoever": 6353, ":52": 6354, "\u2581Eat": 6355, "\u2581comparison": 6356, "\u2581spouse": 6357, "\u2581outstanding": 6358, "\u2581le": 6359, "\u2581Pet": 6360, "\u2581pin": 6361, "\u2581threats": 6362, "read": 6363, "\u2581Prize": 6364, "\u2581Sound": 6365, "\u2581belt": 6366, "\u2581ES": 6367, "\u2581singer": 6368, "\u2581adjust": 6369, "bal": 6370, "\u2581developer": 6371, "DrTuber": 6372, "\u2581HTML": 6373, "py": 6374, "\u2581priority": 6375, "\u2581encounter": 6376, "\u2581marked": 6377, "uri": 6378, "\u2581differently": 6379, "\u2581Active": 6380, "SH": 6381, "\u25812005,": 6382, "ye": 6383, "\u2581para": 6384, "\u2581introduce": 6385, "8%": 6386, "\u2581reign": 6387, "\u2581Rental": 6388, "\u2581Perfect": 6389, "\u258186": 6390, "\u2581hang": 6391, "\u2581Fu": 6392, "size": 6393, "FA": 6394, "\u2581differ": 6395, "\u2581altar": 6396, "\u2581implemented": 6397, "\u2581Less": 6398, "part": 6399, "\u2581Ci": 6400, "\u2581\u00d7": 6401, "test": 6402, "med": 6403, "\u2581Za": 6404, "5,000": 6405, "\u2581Budapest": 6406, "\u2581Wedding": 6407, "\u2581Woman": 6408, "\u2581Bluetooth": 6409, "\u2581scan": 6410, "\u2581conclusion": 6411, "\u2581Mall": 6412, "\u2581association": 6413, "\u2581Apps": 6414, "\u2581forgot": 6415, "\u2581Except": 6416, "\u2581modified": 6417, "\u2581peak": 6418, "\u2581plain": 6419, "\u2581treasure": 6420, "cast": 6421, "\u2581heels": 6422, "\u2581mathematics": 6423, "\u2581revolutionary": 6424, "\u2581Crystal": 6425, "\u2581Steve": 6426, "\u2581acknowledge": 6427, "\u2581agents": 6428, "\u2581deeper": 6429, "\u2581emails": 6430, "000": 6431, "yn": 6432, "mal": 6433, "\u2581Cheap": 6434, "\u2581consumers": 6435, "\u2581strict": 6436, "non": 6437, "int": 6438, "meter": 6439, "\u2581Tar": 6440, "\u2581tiny": 6441, "\u2581Connect": 6442, "fe": 6443, "RC": 6444, "\u2581improvement": 6445, "\u2581believes": 6446, "ect": 6447, "\u2581sofa": 6448, "\u2581habits": 6449, "\u2581gospel": 6450, "\u2581Diameter": 6451, "\u2581SE": 6452, "\u2581commission": 6453, "\u2581discipline": 6454, "\u2581Ed": 6455, "\u2581outcome": 6456, "\u2581recovered": 6457, "\u2581Common": 6458, "\u2581Op": 6459, "row": 6460, "\u2581Built": 6461, "\u2581Section": 6462, "\u2581Guesthouse": 6463, "\u2581posts": 6464, "\u2581ought": 6465, "des": 6466, "\u2581kindness": 6467, "\u2581infection": 6468, "\u2581confident": 6469, "\u2581Jim": 6470, "\u2581365": 6471, "\u2581shoulder": 6472, "\u2581cure": 6473, "\u2581Fan": 6474, "\u2581execution": 6475, "\u2581Lighting": 6476, "\u2581chip": 6477, "ika": 6478, "\u2581productive": 6479, "ign": 6480, "\u2581partnership": 6481, "\u2581Vintage": 6482, "\u2581Matt": 6483, "qua": 6484, "\u2581narrow": 6485, "\u2581southern": 6486, "\u2581defend": 6487, "\u2581landscape": 6488, "\u2581anybody": 6489, "\u2581proven": 6490, "\u2581Move": 6491, "\u2581aunt": 6492, "\u2581Thou": 6493, "\u2581Specifications": 6494, "br": 6495, "yama": 6496, "\u2581pounds": 6497, "\u2581charges": 6498, "kan": 6499, "\u2581baseball": 6500, "\u2581Jackson": 6501, "og": 6502, "\u2581discussed": 6503, "\u2581handling": 6504, "\u2581tourist": 6505, "\u2581hero": 6506, "\u2581Mill": 6507, "\u2581TA": 6508, "ato": 6509, "/2": 6510, "\u2581inhabitants": 6511, "ins": 6512, "\u2581fake": 6513, "\u2581falling": 6514, "sion": 6515, "eo": 6516, "cul": 6517, "\u2581Ju": 6518, "HD": 6519, "\u2581Raw": 6520, "\u2581opt": 6521, "\u2581graphics": 6522, "av": 6523, "\u2581bedroom": 6524, "\u2581promotion": 6525, "\u2581Isaiah": 6526, "\u2581brethren": 6527, "\u2581improving": 6528, "\u2581queen": 6529, "\u2581lens": 6530, "\u2581Capital": 6531, "\u2581Vol": 6532, "\u2581silent": 6533, "ui": 6534, "\u2581begun": 6535, "\u2581Height": 6536, "\u2581extend": 6537, "\u2581yield": 6538, "\u2581Lodge": 6539, "\u2581Roses": 6540, "BO": 6541, "\u2581Bath": 6542, "\u2581adapt": 6543, "\u2581Finland": 6544, "\u2581redhead": 6545, "\u2581heal": 6546, "\u2581u": 6547, "\u2581offices": 6548, "code": 6549, "\u25813000": 6550, "\u2581Dog": 6551, "Well": 6552, "\u2581Environmental": 6553, "\u2581loan": 6554, "\u2581powers": 6555, "\u2581\u203a": 6556, "\u2581Zone": 6557, "\u2581exam": 6558, "\u2581Vehicle": 6559, "\u2581sees": 6560, "ians": 6561, "\u2581Ye": 6562, "\u2581Transfer": 6563, "ib": 6564, "\u2581shock": 6565, "hua": 6566, "ever": 6567, "iah": 6568, "\u2581Trans": 6569, "\u2581regret": 6570, "\u2581Andrew": 6571, "\u2581Estate": 6572, "\u2581passing": 6573, "\u2581invite": 6574, "IM": 6575, "ado": 6576, "\u2581inform": 6577, "\u2581occasion": 6578, "\u2581fate": 6579, "\u2581theater": 6580, "\u2581boss": 6581, "\u25811.0": 6582, "\u2581Final": 6583, "\u2581Gay": 6584, "\u2581incident": 6585, "()": 6586, "\u2581MT": 6587, "\u2581paradise": 6588, "\u2581Between": 6589, "\u2581Virtual": 6590, "\u2581Princess": 6591, "\u2581Wild": 6592, "\u2581discovery": 6593, "\u2581Cha": 6594, "\u2581explanation": 6595, "\u2581BA": 6596, "\u2581prime": 6597, "\u2581sum": 6598, "\u2581Palm": 6599, "pp": 6600, "\u2581Controller": 6601, "\u2581Cafe": 6602, "\u2581sinners": 6603, "\u2581gender": 6604, "key": 6605, "\u2581Meet": 6606, "\u2581Opera": 6607, "\u25810.2": 6608, "\u2581Bell": 6609, "\u2581Administration": 6610, "\u2581dur": 6611, "tsu": 6612, "\u2581optional": 6613, "\u2581Awards": 6614, "\u2581russian": 6615, "ast": 6616, "\u2581sexy": 6617, "\u2581searching": 6618, "\u2581Memory": 6619, "izer": 6620, "LC": 6621, "\u2581stones": 6622, "\u2581warned": 6623, "Po": 6624, "\u2581praying": 6625, "\u2581concert": 6626, "\u2581PU": 6627, "ene": 6628, "\u2581Wikipedia": 6629, "\u2581invitation": 6630, "\u2581Got": 6631, "\u2581browse": 6632, "\u2581Furthermore": 6633, "1000": 6634, "LS": 6635, "\u2581shirt": 6636, "\u2581colleagues": 6637, "\u2581ceiling": 6638, "\u2581monthly": 6639, "cu": 6640, "\u2581passage": 6641, "\u2581Tree": 6642, "\u2581Rio": 6643, "\u2581Adult": 6644, "SD": 6645, "RS": 6646, "\u2581beliefs": 6647, "Acts": 6648, "\u2581eaten": 6649, "\u2581artificial": 6650, "\u2581fairly": 6651, "\u2581Vienna": 6652, "\u2581cartoon": 6653, "\u2581transactions": 6654, "\u2581column": 6655, "\u2581equally": 6656, "\u2581Stage": 6657, "mg": 6658, "\u2581Events": 6659, "lam": 6660, "\u2581Hebrew": 6661, "\u2581Disney": 6662, "\u2581babies": 6663, "\u2581patience": 6664, "\u2581pollution": 6665, "\u2581Denmark": 6666, "\u2581feedback": 6667, "\u2581Users": 6668, "\u2581Dar": 6669, "\u2581Girls": 6670, "\u2581headquarters": 6671, "\u2581Info": 6672, "\u2581Lost": 6673, "\u2581Toronto": 6674, "\u2581ugly": 6675, "wing": 6676, "\u2581burned": 6677, "\u2581PST": 6678, "\u2581represented": 6679, "dan": 6680, "\u2581machinery": 6681, "\u2581Cu": 6682, "\u2581operator": 6683, "\u2581relief": 6684, "\u2581Lab": 6685, "\u2581honey": 6686, "cus": 6687, "\u2581scheduled": 6688, "dong": 6689, "\u2581Maximum": 6690, "\u2581bo": 6691, "\u2581Ve": 6692, "OT": 6693, "\u2581anniversary": 6694, "away": 6695, "ear": 6696, "tru": 6697, "\u2581oh": 6698, "\u2581AShemale": 6699, "\u2581Phase": 6700, "\u2581adds": 6701, "\u2581mount": 6702, "mun": 6703, "\u2581refund": 6704, "which": 6705, "\u2581reliability": 6706, "\u3001": 6707, "\u2581RFID": 6708, "\u2581childhood": 6709, "\u2581Property": 6710, "160": 6711, "aka": 6712, "\u2581campus": 6713, "\u2581WE": 6714, "roll": 6715, "\u2581combat": 6716, "\u2581Bre": 6717, "\u2581Checked": 6718, "%)": 6719, "\u2581railway": 6720, "\u2581invention": 6721, "\u2581Cast": 6722, "\u2581Jones": 6723, "ulation": 6724, "\u2581limits": 6725, "\u2581Form": 6726, "\u2581intellectual": 6727, "\u2581Couple": 6728, "\u2581thermal": 6729, "\u2581simultaneously": 6730, "ub": 6731, "oma": 6732, "born": 6733, "6%": 6734, "OP": 6735, "\u2581tall": 6736, "\u2581Argentina": 6737, "\u2581denied": 6738, "ain": 6739, "\u2581membership": 6740, "\u2581votes": 6741, "ture": 6742, "\u2581304": 6743, "\u2581Fine": 6744, "\u2581BC": 6745, "Not": 6746, "\u2581accomplish": 6747, "ien": 6748, "EM": 6749, "nce": 6750, "tes": 6751, "\u2581measured": 6752, "\u2581affairs": 6753, "\u2581retail": 6754, "\u2581BO": 6755, "\u2581legitimate": 6756, "\u2581Val": 6757, "\u2581engines": 6758, "\u25811988": 6759, "\u2581holidays": 6760, "\u2581cheating": 6761, "\u2581Gun": 6762, "\u2581Rated": 6763, "\u2581therein": 6764, "\u2581bearing": 6765, "\u2581Fish": 6766, "\u2581Revelation": 6767, "qu": 6768, "\u2581globe": 6769, "\u2581Rod": 6770, "\u2581consciousness": 6771, "\u2581revenue": 6772, "\u2581involves": 6773, "\u2581Arabic": 6774, "ori": 6775, "\u2581kissing": 6776, "\u2581Theatre": 6777, "\u2581Cost": 6778, "\u2581Tai": 6779, "\u2581Frequency": 6780, "fire": 6781, "\u2581Environment": 6782, "\u2581gardens": 6783, "\u2581Arm": 6784, "rt": 6785, "\u2581council": 6786, "\u2581biological": 6787, "\u2581Ok": 6788, "\u2581generated": 6789, "\u2581musical": 6790, "\u2581Grey": 6791, "\u2581crystal": 6792, "\u2581actively": 6793, "\u2581percentage": 6794, "Are": 6795, "\u2581Contacts": 6796, "\u2581bond": 6797, "\u2581commands": 6798, "\u2581Er": 6799, "\u2581specialized": 6800, "9%": 6801, "\u2581exposure": 6802, "\u2581luggage": 6803, "\u2581Foot": 6804, "\u2581Gal": 6805, "\u2581Gospel": 6806, "OL": 6807, "\u2581semi": 6808, "\u2581Communist": 6809, "\u2581Pattaya": 6810, "\u2581publication": 6811, "\u2581rising": 6812, "ua": 6813, "\u2581bones": 6814, "\u2581humble": 6815, "\u2581Ger": 6816, "\u2581Remote": 6817, "lie": 6818, "\u2581islands": 6819, "UR": 6820, "\u2581categories": 6821, "\u2581accessories": 6822, "cia": 6823, "\u2581Defense": 6824, "\u2581Adventure": 6825, "\u2581reduction": 6826, "\u2581underground": 6827, "\u2581establishment": 6828, "\u2581cake": 6829, "\u2581Nam": 6830, "\u2581Print": 6831, "\u2581Georgia": 6832, "\u2581crucial": 6833, "\u2581Almighty": 6834, "\u2581overseas": 6835, "\u258196": 6836, "\u2581sequence": 6837, "\u2581NEW": 6838, "\u2581opens": 6839, "ising": 6840, "\u2581examine": 6841, "ock": 6842, "\u2581Protect": 6843, "\u2581grain": 6844, "\u258120-": 6845, "\u2581Venice": 6846, "\u2581LTD": 6847, "\u2581captured": 6848, "\u2581spare": 6849, "\u2581Mission": 6850, "\u2581Credit": 6851, "\u2581divide": 6852, "-21": 6853, "\u2581drawn": 6854, "\u2581transform": 6855, "\u2581tied": 6856, "\u2581Deluxe": 6857, "\u2581pussy": 6858, "\u2581Instant": 6859, "\u2581comply": 6860, "001": 6861, "making": 6862, "\u2581guaranteed": 6863, "\u2581preserve": 6864, "ition": 6865, "\u2581Mail": 6866, "\u2581singing": 6867, "\u2581western": 6868, "\u2581kit": 6869, "UN": 6870, "\u2581Heritage": 6871, "\u2581voyeur": 6872, "\u2581Irish": 6873, "\u2581Petersburg": 6874, "PDF": 6875, "\u2581coverage": 6876, "\u2581skill": 6877, "\u2581Applications": 6878, "ida": 6879, "\u2581matches": 6880, "\u2581\u2264": 6881, "\u2581Phil": 6882, "\u2581innocent": 6883, "OM": 6884, "\u2581ownership": 6885, "\u2581Orange": 6886, "ute": 6887, "\u2581Solution": 6888, "\u2581Hairy": 6889, "\u2581Extract": 6890, "\u2581stages": 6891, "\u2581Bu": 6892, "\u2581Poly": 6893, "\u2581radiation": 6894, "\u2581bi": 6895, "\u2581Portuguese": 6896, "\u2581Ultra": 6897, "*1": 6898, "\u2581Para": 6899, "\u2581packages": 6900, "\u2581XP": 6901, "mann": 6902, "\u2581AR": 6903, "\u2581Memorial": 6904, "\u2581featured": 6905, "phone": 6906, "At": 6907, "\u2581terminal": 6908, "\u2581performing": 6909, "\u2581ca": 6910, "\u2581nose": 6911, "\u2581indicates": 6912, "ense": 6913, "\u2581enabled": 6914, "\u2581Lead": 6915, "\u2581boasts": 6916, "\u2581forty": 6917, "\u2581bless": 6918, "\u25811986": 6919, "\u2581breaking": 6920, "\u25813:": 6921, "\u258180%": 6922, "\u2581violent": 6923, "\u2581necessarily": 6924, "\u2581corruption": 6925, "Luke": 6926, "\u2581replacement": 6927, "\u258161": 6928, "\u2581quit": 6929, "304": 6930, "\u2581brush": 6931, "/8": 6932, "-25": 6933, "\u2581Philippines": 6934, "\u2581Firefox": 6935, "\u2581Insurance": 6936, "\u2581residence": 6937, "\u2581Madrid": 6938, "\u2581opinions": 6939, "\u2581\u00ab": 6940, "\u2581earned": 6941, "die": 6942, "\u2581attacked": 6943, "\u2581upload": 6944, "sco": 6945, "GE": 6946, "ments": 6947, "\u2581screw": 6948, "ook": 6949, "\u2581twin": 6950, "\u258190%": 6951, "\u2581Captain": 6952, "\u2581considering": 6953, "\u2581conscience": 6954, "\u2581contrary": 6955, "\u2581latter": 6956, "\u2581Scott": 6957, "\u2581boost": 6958, "\u2581maintained": 6959, "\u2581Left": 6960, "\u2581Featured": 6961, "\u2581se": 6962, "dra": 6963, "\u2581Fear": 6964, "Di": 6965, "\u2581pot": 6966, "\u2581boyfriend": 6967, "\u2581Strong": 6968, "\u2581presentation": 6969, "-03": 6970, "\u2581Adults": 6971, "\u2581Categories": 6972, "SI": 6973, "\u2581loud": 6974, "\u2581debut": 6975, "\u2581**": 6976, "\u2581delight": 6977, "aries": 6978, "\u2581uncle": 6979, "\u2581cave": 6980, "\u2581journal": 6981, "\u2581`": 6982, "\u2581cattle": 6983, "\u2581Different": 6984, "\u2581disappointed": 6985, "EX": 6986, "\u2581wooden": 6987, "\u25811998": 6988, "\u2581somewhat": 6989, "\u2581awareness": 6990, "\u2581du": 6991, "\u2581possibilities": 6992, "\u2581humidity": 6993, "\u2581Chain": 6994, "\u2581expanded": 6995, "\u2581125": 6996, "\u2581waves": 6997, "\u2581Remo": 6998, "eon": 6999, "\u2581breast": 7000, "\u2581administrative": 7001, "\u2581tunnel": 7002, "\u2581neighborhood": 7003, "\u2581transformation": 7004, "bel": 7005, "\u2581kiss": 7006, "sel": 7007, "\u2581clinical": 7008, "\u2581variable": 7009, "\u2581supplement": 7010, "\u2581tables": 7011, "\u258198": 7012, "CP": 7013, "\u2581manifest": 7014, "\u2581FLOWER": 7015, "\u2581inspiration": 7016, "\u2581compact": 7017, "\u2581hasn": 7018, "\u2581BS": 7019, "\u2581Pages": 7020, "\u2581fastest": 7021, "\u2581talks": 7022, "\u2581province": 7023, "\u2581analyze": 7024, "ake": 7025, "\u2581breakfasts": 7026, "\u2581prophecy": 7027, "\u2581Manchester": 7028, "\u2581Bonus": 7029, "\u2581Navy": 7030, "\u2581Oct": 7031, "\u2581compete": 7032, "\u2581Mat": 7033, "\u2581travelers": 7034, "cut": 7035, "lm": 7036, "\u2581Ban": 7037, "\u2581vacuum": 7038, "\u2581mystery": 7039, "\u2581Monitor": 7040, "\u2581tag": 7041, "-24": 7042, "DO": 7043, "\u2581scope": 7044, "\u2581gr": 7045, "\u2581tablet": 7046, "MC": 7047, "\u2581bomb": 7048, "\u2581loyal": 7049, "\u2581defeated": 7050, "\u2581concentration": 7051, "\u2581awarded": 7052, "\u25811989": 7053, "tur": 7054, "power": 7055, "\u2581hast": 7056, "\u2581Write": 7057, "\u2581Blonde": 7058, "\u2581Cas": 7059, "nal": 7060, "\u2581complain": 7061, "\u2581Steroids": 7062, "ALL": 7063, "\u00c3": 7064, "\u2581Companies": 7065, "\u2581Heavy": 7066, "\u2581causing": 7067, "\u2581Chair": 7068, "\u2581beast": 7069, "\u2581acquired": 7070, "\u2581passenger": 7071, "\u2581neighbors": 7072, "\u2581Results": 7073, "\u25811991": 7074, "ric": 7075, "\u2581believing": 7076, "\u2581Mad": 7077, "\u2581assessment": 7078, "AH": 7079, "\u2581manufacture": 7080, "und": 7081, "\u2581miracle": 7082, "\u2581orgy": 7083, "\u2581flashing": 7084, "\u2581^": 7085, "\u2581formats": 7086, "\u25811500": 7087, "\u2581drama": 7088, "\u2581subscription": 7089, "\u2581baptized": 7090, "\u2581suggested": 7091, "\u2581Friends": 7092, "\u2581minus": 7093, "\u2581Build": 7094, "\u25813*": 7095, "\u2581Gardens": 7096, "she": 7097, "\u2581farmers": 7098, "FT": 7099, "\uae30": 7100, "\u2581FIFA": 7101, "\u2581$3": 7102, "\u2581cabinet": 7103, "\u2581passport": 7104, "\u2581formal": 7105, "iness": 7106, "\u2581CPU": 7107, "\u2581Hungary": 7108, "\u2581logic": 7109, "rio": 7110, "nch": 7111, "\u2581executed": 7112, "ava": 7113, "\u2581Cut": 7114, "\u258122:": 7115, "\u2581endure": 7116, "\u2581Upon": 7117, "hal": 7118, "uch": 7119, "\u2581circle": 7120, "\u2581british": 7121, "\u2581principal": 7122, "\u2581DELIVERY": 7123, "var": 7124, "Com": 7125, "\u2581Discover": 7126, "\u2581statistics": 7127, "\u2581protecting": 7128, "TER": 7129, "\u2581ending": 7130, "tax": 7131, "aki": 7132, "\u2581script": 7133, "\u2581citizen": 7134, "\u2581SA": 7135, "gent": 7136, "\u2581talent": 7137, "\u2581Parliament": 7138, "\u2581valley": 7139, "\u2581Military": 7140, "\u2581DA": 7141, "\u2581latina": 7142, "\u2581Resorts": 7143, "\u2581Imagine": 7144, "\u2581Jun": 7145, "TP": 7146, "face": 7147, "\u2581importantly": 7148, "\u2581Sample": 7149, "ded": 7150, "mble": 7151, "isation": 7152, "\u2581Reader": 7153, "\u2581Input": 7154, "\u2581permit": 7155, "\u2581patent": 7156, "\u2581ONLINE": 7157, "\u2581HE": 7158, "\u2581Gett": 7159, "ld": 7160, "\u2581Everybody": 7161, "\u2581ages": 7162, "\u2581maid": 7163, "even": 7164, "2000": 7165, "dal": 7166, "\u2581Qur": 7167, "ali": 7168, "\u2581mechanism": 7169, "\u2581accomplished": 7170, "HO": 7171, "\u2581compassion": 7172, "\u2581disappear": 7173, "\u2581submitted": 7174, "\u2581produces": 7175, "\u2581besides": 7176, "\u2581Mont": 7177, "\u2581faced": 7178, "fish": 7179, "\u2581AnySe": 7180, "\u2581captain": 7181, "\u2581challenging": 7182, "\u2581enormous": 7183, "\u2581Meanwhile": 7184, "\u2581mg": 7185, "\u2581flu": 7186, "sp": 7187, "\u2581promoted": 7188, "\u2581Corporate": 7189, "\u2581define": 7190, "vers": 7191, "ase": 7192, "burg": 7193, "\u2581controls": 7194, "\u2581Method": 7195, "\u2581et": 7196, "See": 7197, "\u2581applying": 7198, "\u2581egg": 7199, "\u2581retain": 7200, "\u2581vegetables": 7201, "\u2581measuring": 7202, "\u2581Visual": 7203, "\u2581suggests": 7204, "\u2581Genesis": 7205, "\u2581modules": 7206, "\u2581folks": 7207, "\u2581APK": 7208, "iya": 7209, "\u2581su": 7210, "\u2581Pat": 7211, "\u2581commandments": 7212, "\u25811.1": 7213, "\u2581Mind": 7214, "\u2581Following": 7215, "OO": 7216, "\u2581preparing": 7217, "\u2581delivers": 7218, "\u2581FA": 7219, "\u2581difficulties": 7220, "ient": 7221, "\u2581Fuji": 7222, "\u2581Hold": 7223, "\u2581driven": 7224, "\u201d)": 7225, "\u2581roots": 7226, "\u2581directory": 7227, "Time": 7228, "\u258178": 7229, "gin": 7230, "rick": 7231, "\u2581Elizabeth": 7232, "\u2581addresses": 7233, "\u2581chemicals": 7234, "\u2581Sleep": 7235, "\u2581Lamp": 7236, "\u2581900": 7237, "SM": 7238, "\u2581falls": 7239, "\u2581NA": 7240, "\u2581wings": 7241, "sta": 7242, "\u2581mining": 7243, "\u2581Mid": 7244, "\u2581boots": 7245, "del": 7246, "\u2581parameters": 7247, "\u2581Photos": 7248, "\u2581fingers": 7249, "\u2581responded": 7250, "\u2581ashamed": 7251, "\u2581diversity": 7252, "\u2581Answer": 7253, "\u2581civilization": 7254, "TT": 7255, "\u2581somehow": 7256, "\u2581Electronics": 7257, "BR": 7258, "ks": 7259, "\u2581carton": 7260, "\u2581intense": 7261, "\u2581MI": 7262, "\u2581max": 7263, "\u2581hat": 7264, "zen": 7265, "\u2581physically": 7266, "\u2581Wa": 7267, "\u2581participation": 7268, "\u2581stuck": 7269, "\u2581struck": 7270, "\u2581copies": 7271, "\u2581Dear": 7272, "\u2581gap": 7273, "\u2581shine": 7274, "\u25811945": 7275, "ct": 7276, "pri": 7277, "\u2581cousin": 7278, "high": 7279, "\u2581CC": 7280, "\u2581Recover": 7281, "\u2581licking": 7282, "\u2581Tomorrow": 7283, "\u2581seal": 7284, "\u2581(12": 7285, "\u2581Chang": 7286, "get": 7287, "\u2581\\": 7288, "\u258112:00": 7289, "\u2581ICO": 7290, "-02": 7291, "\u2581anxiety": 7292, "\u2581elsewhere": 7293, "\u2581jail": 7294, "\u2581Copper": 7295, "\u2581compliance": 7296, "\u2581pace": 7297, "hoo": 7298, "\u2581crack": 7299, "\u2581ta": 7300, "With": 7301, "\u2581filling": 7302, "\u2581Cy": 7303, "\u2581Label": 7304, "\u2581existed": 7305, "\u2581Galaxy": 7306, "\u2581dancing": 7307, "\u2581imagination": 7308, "\u2581Houston": 7309, "\u2581Emergency": 7310, "\u2581wallet": 7311, "\u2581emissions": 7312, "being": 7313, "\u2581Roller": 7314, "\u2581reservations": 7315, "ace": 7316, "\u258194": 7317, "\u2581pan": 7318, "\u2581fucked": 7319, "\u2581Cylinder": 7320, "\u2581connecting": 7321, "\u2581Theater": 7322, "IR": 7323, "\u2581detection": 7324, "\u2581Usage": 7325, "\u2581Brother": 7326, "\u2581Kings": 7327, "mes": 7328, "\u2581Smoking": 7329, "\u2581AL": 7330, "ova": 7331, "\u2581couples": 7332, "ening": 7333, "\u2581lifestyle": 7334, "\u2581tent": 7335, "\u2581Taxi": 7336, "\u2581lips": 7337, "\u2581Istanbul": 7338, "\u2581Marriott": 7339, "\u2581pantyhose": 7340, "\u2581premium": 7341, "\u2581bride": 7342, "\u2581density": 7343, "won": 7344, "\u2581Ol": 7345, "UM": 7346, "ena": 7347, "\u2581consistent": 7348, "tionhost": 7349, "\u2581returning": 7350, "\u2581pink": 7351, "\u2581Cathedral": 7352, "\u2581Traffic": 7353, "\u2581FLORI": 7354, "\u2581Opening": 7355, "\u2581slaves": 7356, "\u2581Must": 7357, "\u2581Diego": 7358, "\u2581gradually": 7359, "\u2581regardless": 7360, "\u25812019,": 7361, "\u2581Voice": 7362, "\u2581Printer": 7363, "\u2581gathering": 7364, "\u2581\u25a0": 7365, "\u2581***": 7366, "\u2581Sta": 7367, "\u2581Race": 7368, "\u2581doll": 7369, "CS": 7370, "\u2581concrete": 7371, "\u2581technological": 7372, "\u2581insight": 7373, "\u2581UL": 7374, "\u2581washing": 7375, "\u2581bags": 7376, "\u2581ignored": 7377, "\u2581hill": 7378, "\u2581informed": 7379, "\u2581sorrow": 7380, "\u2581scanning": 7381, "\u2581Investment": 7382, "\u2581EC": 7383, "\u2581Harry": 7384, "\u2581affordable": 7385, "world": 7386, "\u2581punish": 7387, "Free": 7388, "\u2581arrest": 7389, "++": 7390, "\u2581settled": 7391, "\u2581Kar": 7392, "\u2581Ham": 7393, "\u2581brown": 7394, "\u2581mu": 7395, "\u2581announcement": 7396, "verse": 7397, "\u2581coal": 7398, "\u2581Bearing": 7399, "put": 7400, "bb": 7401, "\u2581Busan": 7402, "ati": 7403, "\u2581Pra": 7404, "\u2581directions": 7405, "\u2581remembered": 7406, "\u2581precise": 7407, "\u2581seating": 7408, "\u2581structures": 7409, "rid": 7410, "\u2581Den": 7411, "\u2581Further": 7412, "\u2581Messenger": 7413, "\u2581simulation": 7414, "\u2581Almost": 7415, "\u2581movements": 7416, "ira": 7417, "\u2581damn": 7418, "8)": 7419, "\u2581impressive": 7420, "\u2581essentially": 7421, "\u2581injection": 7422, "\u2581downloaded": 7423, "\u2581managing": 7424, "\u2581128": 7425, "\u2581Together": 7426, "\u2581reaching": 7427, ",000,000": 7428, "\u2581Eric": 7429, "\u2581corrupt": 7430, "\u2581blah": 7431, "\u25811984": 7432, "\u25811983": 7433, "how": 7434, "\u2581Mrs": 7435, "\u2581bacteria": 7436, "\u258176": 7437, "\u2581empire": 7438, "\u2581sauna": 7439, "\u2581Focus": 7440, "\u2581Specification": 7441, "\u2581em": 7442, "ans": 7443, "tte": 7444, "\u2581subjects": 7445, "\u2581Request": 7446, "-09": 7447, "\u2581instantly": 7448, "\u2581Machinery": 7449, "\u2581swinger": 7450, "\u25812004,": 7451, "\u2581Virgin": 7452, "iest": 7453, "ult": 7454, "\u2581consist": 7455, "\u2581Vision": 7456, "\u2581armed": 7457, "\u2581TNT": 7458, "\u25811.6": 7459, "LO": 7460, "\u2581Install": 7461, "-22": 7462, "\u2581graduate": 7463, "\u2581Pakistan": 7464, "\u2581GOD": 7465, "\u2581Featuring": 7466, "\u2581Province": 7467, "\u2581console": 7468, "\u2581tutorial": 7469, "\u2581reducing": 7470, "\u2581Bathroom": 7471, "\u2581(16": 7472, "\u2581lands": 7473, "\u2581combine": 7474, "\u25811981": 7475, "March": 7476, "\u2581breathing": 7477, "\u2581sudden": 7478, "87": 7479, "\u2581habit": 7480, "\u2581preach": 7481, "\u2581cotton": 7482, "\u2581bondage": 7483, "\u2581robots": 7484, "\u2581crash": 7485, "\u2581Innovation": 7486, "\u2581vice": 7487, "most": 7488, "\u2581bowl": 7489, "\u2581TS": 7490, "home": 7491, "\u2581LC": 7492, "\u2581dies": 7493, "\u2581Arch": 7494, "\u2581breathe": 7495, "\u2581iPod": 7496, "\u2581inheritance": 7497, "\u2581relation": 7498, "\u2581Additionally": 7499, "\u2581consideration": 7500, "\u2581van": 7501, "gsm": 7502, "\u2581Converter": 7503, "lands": 7504, "\u2581cam": 7505, "\u2581fled": 7506, "\u2581Sciences": 7507, "\u2581Instagram": 7508, "\u2581Half": 7509, "\u2581outer": 7510, "\u2581Ave": 7511, "\u2581processor": 7512, "\u2581rear": 7513, "\u2581instruments": 7514, "\u2581minor": 7515, "\u2581Devil": 7516, "\u2581101": 7517, "\u25814*": 7518, "\u258189": 7519, "love": 7520, "TR": 7521, "\u2581adapter": 7522, "\u2581Federation": 7523, "xi": 7524, "\u2581000": 7525, "ert": 7526, "\u2581lounge": 7527, "\u2581sh": 7528, "\u2581Tax": 7529, "\u2581tech": 7530, "\u25811971": 7531, "\u2581(5)": 7532, "mus": 7533, "2017": 7534, "\u2581founder": 7535, "\u2581Rating": 7536, "\u2581covering": 7537, "\u2581Overall": 7538, "\u2581Automotive": 7539, "\u2581possession": 7540, "bs": 7541, "\u2581institution": 7542, "\u2581alert": 7543, "\u2581Ur": 7544, "\u2581Pure": 7545, "\u2581disappeared": 7546, "\u2581meaningful": 7547, "lum": 7548, "\uc5b4": 7549, "\u2581nervous": 7550, "\u2581extraordinary": 7551, "\u2581fluid": 7552, "\u2581bone": 7553, "\u2581Cancer": 7554, "140": 7555, "\u2581signature": 7556, "\u258188": 7557, "\u2581Xbox": 7558, "ora": 7559, "\u2581physics": 7560, "\u25815%": 7561, "\u2581Massage": 7562, "\u2581Visa": 7563, "PT": 7564, "\u2581Jeremiah": 7565, "\u2581worker": 7566, "\u2581golden": 7567, "\u2581fifty": 7568, "\u2581Alexander": 7569, "\u2581Otherwise": 7570, "\u2581Host": 7571, "\u2581Export": 7572, ".\u2019\u201d": 7573, "\u2581personnel": 7574, "\u2581hardcore": 7575, "sol": 7576, "\u2581processed": 7577, "\u2581Error": 7578, "gh": 7579, "vent": 7580, "rum": 7581, "\u2581Expo": 7582, "\u2581hiding": 7583, "\u2581FAQ": 7584, "\u2581indicated": 7585, "\u2581Ch": 7586, "onic": 7587, "\u2581Advertising": 7588, "\u2581Resolution": 7589, "\u2581wishes": 7590, "DR": 7591, "\u2581asset": 7592, "\u2581Xi": 7593, "\u2581Hy": 7594, "piece": 7595, "\u2581Command": 7596, "\u2581mold": 7597, "\u2581payments": 7598, "CT": 7599, "\u2581brave": 7600, "\u2581ruin": 7601, "\u2581cheese": 7602, "\u2581celebration": 7603, "\u2581immigration": 7604, "\u2581Analysis": 7605, "\u2581torment": 7606, "\u2581450": 7607, "\u2581GO": 7608, "ically": 7609, "\u2581Volume": 7610, "\u2581reverse": 7611, "\u2581Bel": 7612, "\u2581Pad": 7613, "ters": 7614, "\u2581tip": 7615, "\u2581influenced": 7616, "\u2581conditioning": 7617, "\u2581Vietnamese": 7618, "\u2581capability": 7619, "\u2581stack": 7620, "\u2581Uh": 7621, "\u25810.6": 7622, "\u2581Romans": 7623, "nny": 7624, "!!!": 7625, "oon": 7626, "\u2581beam": 7627, "\u2581Allow": 7628, "\u2581Blu": 7629, "\u2581dual": 7630, "AI": 7631, "\u2581Belgium": 7632, "\u2581Muslim": 7633, "\u2581instant": 7634, "\u2581Strength": 7635, "\u2581(15": 7636, "city": 7637, "\u2581craft": 7638, "\u2581Growth": 7639, "core": 7640, "\u2581Lion": 7641, "\u2581Milk": 7642, "TI": 7643, "\u2581concluded": 7644, "real": 7645, "\u2581affects": 7646, "\u25812,000": 7647, "state": 7648, "HA": 7649, "\u2581wrath": 7650, "\u2581bars": 7651, "\u2581ne": 7652, "\u2581completion": 7653, "\u2581Anna": 7654, "-07": 7655, "\u25812003,": 7656, "\u2581Vista": 7657, "USD": 7658, "\u2581arise": 7659, "\u2581Apart": 7660, "yang": 7661, "\u2581seventh": 7662, "\u258170%": 7663, "KG": 7664, "\u2581abilities": 7665, "\u2581qualities": 7666, "2019": 7667, "\u258182": 7668, "\u2581Discount": 7669, "aw": 7670, "\u2581Cl": 7671, "\u2581suspect": 7672, "\u2581Ford": 7673, "\u2581unity": 7674, "\u2581Secret": 7675, "\u2581nights": 7676, "\u25814)": 7677, "DE": 7678, "\u2581Pole": 7679, "\u2581wilderness": 7680, "\u2581Afghanistan": 7681, "tr": 7682, "\u2581interact": 7683, "\u2581satisfy": 7684, "rie": 7685, "\u2581IV": 7686, "\u2581assured": 7687, "\u2581embrace": 7688, "\u2581Founded": 7689, "\u2581Route": 7690, "\u2581Jane": 7691, "\u2581****": 7692, "\u2581optical": 7693, "\u2581repeated": 7694, "\u2581Hosting": 7695, "\u2581Ass": 7696, "\u2581roller": 7697, "\u2581Bathrooms": 7698, "\u2581closing": 7699, "\u2581Generator": 7700, "\u2581Cinema": 7701, "\u2581Several": 7702, "\u2581framework": 7703, "tar": 7704, "\u2581FM": 7705, "pan": 7706, "\u2581mat": 7707, "\u2581Bush": 7708, "\uc2dc": 7709, "\u2581sessions": 7710, "\u2581reader": 7711, "\u2581Dual": 7712, "\u258197": 7713, "/3": 7714, "\u2581Lin": 7715, "\u2581admin": 7716, "\u2581Warranty": 7717, "\u2581entitled": 7718, "\u2581weird": 7719, "\u2581Were": 7720, "\u2581Month": 7721, "\u2581portable": 7722, "\u2581dive": 7723, "\u2581stroke": 7724, "TC": 7725, "\u2581royal": 7726, "\u2581utility": 7727, "\u2581injuries": 7728, "\u2581primarily": 7729, "\u2581Teacher": 7730, "\u2581engineer": 7731, "\u2581im": 7732, "\u2581Freedom": 7733, "\u2581Hol": 7734, "via": 7735, "\u2581Coil": 7736, "\u2581qualified": 7737, "\u2581fund": 7738, "\u25812.4": 7739, "such": 7740, "\u2581creativity": 7741, "\u2581\u2190": 7742, "\u2581Norway": 7743, "tai": 7744, "\u2581infected": 7745, "\u2581clouds": 7746, "\u2018": 7747, "\u2581candidate": 7748, "\u2581Cash": 7749, "\u2581Logo": 7750, "\u2581Compare": 7751, "clock": 7752, "\u2581teaches": 7753, "\u2581\u30fb": 7754, "\u2581kettle": 7755, "\u2581horses": 7756, "\u2581assistant": 7757, "\u2581disc": 7758, "\u2581wa": 7759, "date": 7760, "\u2581survived": 7761, "\u2581Mai": 7762, "\u2581Same": 7763, "iki": 7764, "\u2581pilot": 7765, "\u2581integrity": 7766, "\u2581nipples": 7767, "\u2581heritage": 7768, "\u2581Beer": 7769, "\u2581coupon": 7770, "\u2581Feb": 7771, "\u2581cease": 7772, "\u2581Match": 7773, "\u2581acceptable": 7774, "\u25812006.": 7775, "\u2581trail": 7776, "\u2581Tor": 7777, "\u2581Jong": 7778, "\u2581analytics": 7779, "NC": 7780, "\u2581criteria": 7781, "\u2581cinema": 7782, "\u2581orange": 7783, "\u2581Ly": 7784, "\u2581Index": 7785, "\u2581layers": 7786, "\u2581seeds": 7787, "\u2581\u266a": 7788, "\u2581acquire": 7789, "\u2581VI": 7790, "CD": 7791, "pen": 7792, "\u2581concepts": 7793, "\u2581Costa": 7794, "\u2581trends": 7795, "\u2581sha": 7796, "\u2581Path": 7797, "mb": 7798, "\u2581AP": 7799, "\u25810.4": 7800, "\u25811972": 7801, "\u25811979": 7802, "\u2581Client": 7803, "arm": 7804, "\u2581Accessories": 7805, "\u2581vulnerable": 7806, "\u2581hated": 7807, "\u2581$5": 7808, "ister": 7809, "\u2581Unlike": 7810, "\u25811920": 7811, "\u2581joke": 7812, "\u2581convinced": 7813, "\u2581strictly": 7814, "China": 7815, "\u2581mesh": 7816, "\u2581Thy": 7817, "\u2581Bali": 7818, "KB": 7819, "\u2581coins": 7820, "\u2581sixth": 7821, "\u2581Rich": 7822, "\u2581doctrine": 7823, "\u2581temptation": 7824, "\u2581consume": 7825, "\u2581managers": 7826, "\u2581quote": 7827, "Matt": 7828, "\u2581orbit": 7829, "yan": 7830, "\u2581designers": 7831, "\u2581secrets": 7832, "\u2581Ber": 7833, "Name": 7834, "\u2581ABS": 7835, "hood": 7836, "-08": 7837, "matic": 7838, "\u2581Circuit": 7839, "\u2581Apply": 7840, "\u2581Electrical": 7841, "\u2581Mega": 7842, "\u2581harmful": 7843, "\u2581scientist": 7844, "American": 7845, "\u2581Members": 7846, "ole": 7847, "\u2581inches": 7848, "\u2581Inside": 7849, "\u2581leisure": 7850, "\u2581beneficial": 7851, "\u2581Ali": 7852, "\u2581operates": 7853, "1.1": 7854, "\u2581Yesterday": 7855, "9001": 7856, "\u25811/2": 7857, "\u2581dare": 7858, "\u2581SM": 7859, "\u2581Born": 7860, "\u2581noble": 7861, "\u2581initially": 7862, "days": 7863, "XHamster": 7864, "\u2581psychological": 7865, "\u2581Obama": 7866, "\u2581connector": 7867, "\u2581Airwheel": 7868, "\u2581Monster": 7869, "\u2581stem": 7870, "\u2581minibar": 7871, "\u2581Font": 7872, "\u2581Comment": 7873, "\u25811200": 7874, "\u2581PET": 7875, "\u2581Okinawa": 7876, "\u2581Boat": 7877, "\u2581loose": 7878, "good": 7879, "\u2581Window": 7880, "\u2581guided": 7881, "\u2581Agent": 7882, "ION": 7883, "\u2581formation": 7884, "\u2581proximity": 7885, "\u2581cryptocurrency": 7886, "\u2581declare": 7887, "\u2581algorithm": 7888, "Ar": 7889, "COM": 7890, "\u2581Signal": 7891, "tha": 7892, "\u2581mono": 7893, "\u2581Alice": 7894, "front": 7895, "-06": 7896, "stra": 7897, "\u258167": 7898, "\u25814.0": 7899, "\u2581Played": 7900, "\u2581Fox": 7901, "\u2581largely": 7902, "\u2581Frankfurt": 7903, "\u2581Jersey": 7904, "\u2581SI": 7905, "\u2581wanna": 7906, "\u2581Dublin": 7907, "wide": 7908, "\u2581dragon": 7909, "rr": 7910, "\u2581figures": 7911, "\u2581Reading": 7912, "\u258192": 7913, "\u25811982": 7914, "only": 7915, "mel": 7916, "\u2581cu": 7917, "\u2581Francis": 7918, "\u2581Knowledge": 7919, "\u2581Screw": 7920, "\u2581chamber": 7921, "\u2581Coupon": 7922, "\u2581preferred": 7923, "\u2581exceed": 7924, "\u2581deepthroat": 7925, "\u2581Geo": 7926, "\u2581Condo": 7927, "{": 7928, "\u2581gene": 7929, "By": 7930, "\u2581Dimension": 7931, "\u2581ski": 7932, "sch": 7933, "chu": 7934, "shan": 7935, "EST": 7936, "who": 7937, "\u2581welcoming": 7938, "\u2581celebrity": 7939, "\u2581vessels": 7940, "take": 7941, "\u2581wars": 7942, "now": 7943, "<": 7944, "\u2581passes": 7945, "\u2581refugees": 7946, "FC": 7947, "pu": 7948, "\u258184": 7949, "amp": 7950, "\u2581bikini": 7951, "\u2581immune": 7952, "\u2581feast": 7953, "\u2581ruling": 7954, "ett": 7955, "\u2581mood": 7956, "\u2581correctly": 7957, "\u2581Optical": 7958, "\u2581Hor": 7959, "\u2581cr": 7960, "\u2581ruled": 7961, "\u2581decrease": 7962, "\u2581impression": 7963, "\u2581Qu": 7964, "FI": 7965, "\u2581cookie": 7966, "\u2581opposition": 7967, "\u2581Driving": 7968, "\u2581Oracle": 7969, "\u2581fleet": 7970, "\u2581Published": 7971, "\u2581Steam": 7972, "ound": 7973, "\u2581Vacuum": 7974, "\u2581confirmation": 7975, "\u2581modify": 7976, "\u2581Parents": 7977, "Le": 7978, "\u2581Ter": 7979, "\u25811969": 7980, "\u2581Fuck": 7981, "\u2581Championship": 7982, "\u2581Ski": 7983, "\u2581aims": 7984, "DP": 7985, "\u2581(14": 7986, "\u2581PO": 7987, "nk": 7988, "\u2581computing": 7989, "\u2581experiencing": 7990, "\u2581repentance": 7991, "\u2581Patent": 7992, "\u2581plot": 7993, "IO": 7994, "\u25811997": 7995, "vy": 7996, "TY": 7997, "olo": 7998, "\u2581foam": 7999, "\u2581closet": 8000, "\u2581tourists": 8001, "\u2581continuously": 8002, "Japan": 8003, "\u2581hi": 8004, "\u2581par": 8005, "cat": 8006, "\u2581Origin": 8007, "ili": 8008, "\u2581receives": 8009, "\u2581dawn": 8010, "\u2581raising": 8011, "\u2581Morning": 8012, "\u2581welding": 8013, "\u2581Feel": 8014, "\u2581disabled": 8015, "post": 8016, "\u2581Tony": 8017, "\u2581Ton": 8018, "\u2581arranged": 8019, "ily": 8020, "\u2581cord": 8021, "space": 8022, "-05": 8023, "\u2581encouraged": 8024, "\u2581contacts": 8025, "\u2581league": 8026, "\u2581animation": 8027, "\u2581Regular": 8028, "\u2581juice": 8029, "\u2581authentic": 8030, "sun": 8031, "\u2581(20": 8032, "\u2581Options": 8033, "\u2581SQL": 8034, "\u2581loop": 8035, "ving": 8036, "pon": 8037, "\u2581spaces": 8038, "\u2581guns": 8039, "\u2581Risk": 8040, "\u2581tissue": 8041, "\u2581sa": 8042, "gna": 8043, "\u2581bdsm": 8044, "\u2581Antonio": 8045, "\u2581appointment": 8046, "\u2581Ash": 8047, "-40": 8048, "\u2581des": 8049, "\u2581Bor": 8050, "\u2581speaker": 8051, "\u2581tracks": 8052, "\u2581bra": 8053, "\u2581MO": 8054, "\u2581sq": 8055, "ls": 8056, "\u2581Convert": 8057, "\u2581tribe": 8058, "\u2581Flow": 8059, "\u2581Communication": 8060, "\u2581fired": 8061, "\u2581gangbang": 8062, "\u2581transparent": 8063, "\u2581asleep": 8064, "\u2581Saudi": 8065, "\u2581teachings": 8066, "mont": 8067, "\u2581Rev": 8068, "\u2581confused": 8069, "cap": 8070, "color": 8071, "\u2581Robot": 8072, "\u2581shares": 8073, "grade": 8074, "\u2581Islam": 8075, "FF": 8076, "\u2581stepmom": 8077, "\u2581laboratory": 8078, "\u2581funding": 8079, "\u2581Chamber": 8080, "\u2581Tips": 8081, "pers": 8082, "\u2581hunger": 8083, "\u2581sole": 8084, "\u2581threatened": 8085, "zer": 8086, "Gen": 8087, "\u2581potentially": 8088, "\u2581manufactured": 8089, "\u2581(9": 8090, "\u2581dr": 8091, "hard": 8092, "/5": 8093, "eb": 8094, "gging": 8095, "\u2581deck": 8096, "care": 8097, "\u2581multitude": 8098, "\u2581admitted": 8099, "\u2581healthcare": 8100, "\u2581statements": 8101, "\u2581Detail": 8102, "\u2581Vo": 8103, "\u2581forming": 8104, "\u2581Bang": 8105, "\u2581nearest": 8106, "\u2581Il": 8107, "\u2581tail": 8108, "\u2581Vice": 8109, "\u2581treaty": 8110, "\u2581trials": 8111, "AA": 8112, "\u2581Amsterdam": 8113, "\u2581Stephen": 8114, "\u2581vitamin": 8115, "\u2581forgiven": 8116, "\u2581Ways": 8117, "\u2581feeding": 8118, "\u2581abandoned": 8119, "\u25811940": 8120, "\u25811976": 8121, "\u2581corresponding": 8122, "\u2581Tourist": 8123, "\u2581prisoners": 8124, "\u2581lets": 8125, "\u2581excuse": 8126, "\u2581Partner": 8127, "\u2581Comfort": 8128, "\u2581mere": 8129, "una": 8130, "gun": 8131, "\u2581Emperor": 8132, "\u2581Translation": 8133, "\u2581Creative": 8134, "\u2581Interface": 8135, "\u2581reaches": 8136, "\u2581Col": 8137, "\u2581classroom": 8138, "\u2581Philip": 8139, "\u2581endless": 8140, "-0": 8141, "gr": 8142, "\u2581apartments": 8143, "\ub85c": 8144, "brand": 8145, "\u2581Rain": 8146, "-23": 8147, "tus": 8148, "\u2581owe": 8149, "\u2581automotive": 8150, "\u2581remarkable": 8151, "\u2581Than": 8152, "\u2581Degree": 8153, "\u2581Strategy": 8154, "RT": 8155, "card": 8156, "More": 8157, "\u2581Upload": 8158, "\u2581crown": 8159, "\u2581Monte": 8160, "\u2581sections": 8161, "\u2581Gr": 8162, "\u2581highway": 8163, "\u2581hunting": 8164, "130": 8165, "\u2581customs": 8166, "\u2581Embassy": 8167, "\u2581flexibility": 8168, "\u2581loyalty": 8169, "\u2581governor": 8170, "\u2581adoption": 8171, "\u2581participated": 8172, "\u2581listened": 8173, "\u2581aged": 8174, "channel": 8175, "fold": 8176, "\u2581NY": 8177, "hole": 8178, "\u2581mod": 8179, "1.2": 8180, "\ub4dc": 8181, "\u2581Manhattan": 8182, "\u2581agricultural": 8183, "\u2581behaviour": 8184, "\u2581destiny": 8185, "\u2581kilometers": 8186, "\u2581bulk": 8187, "\u2581Jeju": 8188, "\u2581amounts": 8189, "\u2581Below": 8190, "\u2581accused": 8191, "\u2581Guard": 8192, "\u2581FL": 8193, "PR": 8194, "\u2581span": 8195, "\u2581DIN": 8196, "\u2581grandmother": 8197, "\u2581harmony": 8198, "\u2581shaving": 8199, "\u2581silk": 8200, "\u2581Trading": 8201, "\u25811.8": 8202, "\u2581phrase": 8203, "\u2581Fer": 8204, "\u2581Soul": 8205, "\u2581opposed": 8206, "\u2581charging": 8207, "\u2581slide": 8208, "lla": 8209, "\u25811-": 8210, "\u2581Plug": 8211, "\u2581Loss": 8212, "\u2581Menu": 8213, "\u2581ju": 8214, "\u258181": 8215, "\u2581Brooklyn": 8216, "\u2581Hitler": 8217, "\u2581Finance": 8218, "\u2581verify": 8219, "ass": 8220, "\u2581gloves": 8221, "\u2581Officer": 8222, "\u2581publish": 8223, "\u2581delivering": 8224, "wear": 8225, "\u2581cloth": 8226, "\u2581bite": 8227, "\u2581routine": 8228, "\u2581random": 8229, "\u2581Solid": 8230, "\u2581dimension": 8231, "band": 8232, "\u2581Ancient": 8233, "\u2581crimes": 8234, "gger": 8235, "\u2581pa": 8236, "\u2581execute": 8237, "\u2581Carl": 8238, "chen": 8239, "2018": 8240, "uz": 8241, "\u2581Tab": 8242, "\u2581Feature": 8243, "(1": 8244, "\u2581touched": 8245, "\u2581liver": 8246, "\u2581Orlando": 8247, "\u2581brilliant": 8248, "\u2581incredibly": 8249, "\u2581Lisbon": 8250, "\u2581partition": 8251, "\uc9c0": 8252, "\u2581[1]": 8253, "\u2581\u00b1": 8254, "CR": 8255, "\u258177": 8256, "\u2581meets": 8257, "\u2581evaluation": 8258, "LL": 8259, "\u2581Liquid": 8260, "\u2581prohibited": 8261, "\u2581UPS": 8262, "\u2581Shape": 8263, "\u2581welcomed": 8264, "\u2581politicians": 8265, "\u2581coat": 8266, "\u2581Wave": 8267, "HZ": 8268, "\u2581Drink": 8269, "eu": 8270, "\u2581spots": 8271, "\u2581reserve": 8272, "\u2581tomb": 8273, "\u2581bull": 8274, "\u2581Trip": 8275, "\u2581portfolio": 8276, "\u2581Thermal": 8277, "\u2581batteries": 8278, "\u2581spacious": 8279, "\u2581Perform": 8280, "\u258106:00": 8281, "\u2581composed": 8282, "\u2581mad": 8283, "\u2581Egyptian": 8284, "\u2581Depend": 8285, "\u2581Ready": 8286, "\u2581cylinder": 8287, "\u2581panels": 8288, "\u25812.1": 8289, "\u2581Gra": 8290, "\u2581th": 8291, "\u2581Zoo": 8292, "/15": 8293, "\u2581estimates": 8294, "\u2581mate": 8295, "Or": 8296, "\u2581floors": 8297, "\u258171": 8298, "\u2581medication": 8299, "\u2581ceremony": 8300, "\u2581Muscle": 8301, "\u2581vertical": 8302, "ata": 8303, "\u2581housewife": 8304, "\u2581sensors": 8305, "\u2581locked": 8306, "\u2581Components": 8307, "\u00f6": 8308, "\u2581Pick": 8309, "ichi": 8310, "\u2581PLC": 8311, "acy": 8312, "hee": 8313, "ators": 8314, "five": 8315, "\u2581Sep": 8316, "App": 8317, "\u2581logical": 8318, "\u2581Albert": 8319, "350": 8320, "\u2581automation": 8321, "\u2581Premier": 8322, "\u2581Bike": 8323, "\u2581encryption": 8324, "\u2581downloads": 8325, "\u2581sectors": 8326, "\u2581picked": 8327, "\u2581waterproof": 8328, "they": 8329, "\u2581Mel": 8330, "\u2581invented": 8331, "stein": 8332, "cro": 8333, "\u2581SMD": 8334, "0.1": 8335, "\u258173": 8336, "\u2581stops": 8337, "ates": 8338, "\u2581wheels": 8339, "tch": 8340, "\u2581arts": 8341, "\u2581dildo": 8342, "gon": 8343, "\u2581Anyway": 8344, "\u2581holes": 8345, "\u2581Settings": 8346, "\u2581ro": 8347, "ets": 8348, "\u2581solved": 8349, "NN": 8350, "\u2581ongoing": 8351, "\u2581Century": 8352, "\u2581maintaining": 8353, "-60": 8354, "\u2581Nick": 8355, "\u25812005.": 8356, "\u2581mess": 8357, "\u2581CAD": 8358, "\u25811914": 8359, "about": 8360, "\u2581(\u201c": 8361, "\u2581kick": 8362, "\u2581harvest": 8363, "\u2581writers": 8364, "ivity": 8365, "\u2581jealous": 8366, "page": 8367, "\u2581settle": 8368, "\u2581Fortunately": 8369, "\u2581agriculture": 8370, "\u2581optimal": 8371, "\u2581Joshua": 8372, "\u2581hormone": 8373, "-50": 8374, "\u2581Springs": 8375, "aba": 8376, "\u2581Similarly": 8377, "\u2581Wide": 8378, "oli": 8379, "\u2581thrown": 8380, "\u2581clubs": 8381, "\u2581trigger": 8382, "\u2581(\"": 8383, "101": 8384, "\u25811.3": 8385, "0.00": 8386, "\u00bb": 8387, "\u2581DS": 8388, "week": 8389, "\u2581Sim": 8390, "\u2581Atlantic": 8391, "\u2581ate": 8392, "\u2581sustainable": 8393, "\u2581Theme": 8394, "nor": 8395, "!)": 8396, "\u2581Eight": 8397, "\u2581resistant": 8398, "\u2581safer": 8399, "\u2581alien": 8400, "lat": 8401, "cr": 8402, "exp": 8403, "Come": 8404, "\u2581assess": 8405, "\u2581whereas": 8406, "\u2581(13": 8407, "\u2581DB": 8408, "under": 8409, "GO": 8410, "Lord": 8411, "sur": 8412, "Porno": 8413, "shima": 8414, "\u2581Aqua": 8415, "\u2581MD": 8416, "\u25811995": 8417, "CL": 8418, "\u2581VIP": 8419, "\u2581Temp": 8420, "\u2581Universe": 8421, "\u2581Various": 8422, "\u2581treatments": 8423, "\u2581retired": 8424, "\u25812020.": 8425, "\u2581Animal": 8426, "\u2581Rules": 8427, "\u2581uh": 8428, "hy": 8429, "\u2581conventional": 8430, "mate": 8431, "\u2581dealer": 8432, "\u2581perish": 8433, "col": 8434, "\u2581parallel": 8435, "\u2581binary": 8436, "\u2581obligation": 8437, "\u2581hydraulic": 8438, "\u2581Editor": 8439, "\u2581Hay": 8440, "\u2581fl": 8441, "\u2581Mt": 8442, "\u2581demonstrate": 8443, "\u2581lu": 8444, "bot": 8445, "BAR": 8446, "\u2581Episode": 8447, "\u2581participating": 8448, "\u2581Width": 8449, "\u2581Rotary": 8450, "\u2581roles": 8451, "\u2581retirement": 8452, "\u2581poker": 8453, "\u2581CP": 8454, "DI": 8455, "\u2581ra": 8456, "sure": 8457, "din": 8458, "park": 8459, "ula": 8460, "\u2581privilege": 8461, "\u2581newest": 8462, "LT": 8463, "\u2581marks": 8464, "\u2581Tap": 8465, "\u2581united": 8466, "\u25815000": 8467, "\u2581losses": 8468, "\u2581gratitude": 8469, "tics": 8470, "\u2581Certainly": 8471, "\u2581consultation": 8472, "\u2581Secure": 8473, "\u2581Cape": 8474, "\u2581Function": 8475, "teen": 8476, "\u2581pocket": 8477, "\u2581focusing": 8478, "Ra": 8479, "\u2581collapse": 8480, "\u2581mar": 8481, "0\u00b0": 8482, "user": 8483, "GS": 8484, "\u2581companion": 8485, "porn": 8486, "gle": 8487, "\u25812000,": 8488, "pic": 8489, "\u2581diabetes": 8490, "\u2581composition": 8491, "\u2581grab": 8492, "\u25811994": 8493, "ency": 8494, "\u2581Believe": 8495, "\u2581succeeded": 8496, "etc": 8497, "\u2581shipment": 8498, "\u2581reminder": 8499, "\u2581conclude": 8500, "People": 8501, "\u25811974": 8502, "Good": 8503, "\u2581mutual": 8504, "\u2581tension": 8505, "\u2581Muslims": 8506, "\u2581topics": 8507, "MI": 8508, "\u2581swim": 8509, "\u2581Magazine": 8510, "\u2581Taipei": 8511, "\u2581Flood": 8512, "\u2581Mer": 8513, "\u2581Planning": 8514, "lay": 8515, "\u2581Branch": 8516, "\u2581RGB": 8517, "\u2581tribes": 8518, "3.5": 8519, "\u25811968": 8520, "\u2581guilt": 8521, "\u2581distinct": 8522, "\u2581Promotion": 8523, "\u2581Atlanta": 8524, "\u2581tremendous": 8525, "\u2581cyber": 8526, "\u2581MY": 8527, "\u2581RESERVED": 8528, "\u2581Nan": 8529, "\u2581realistic": 8530, "\u2581Gre": 8531, "\u2581Sho": 8532, "\u2581documentation": 8533, "\u2581Comp": 8534, "ago": 8535, "\u2581rough": 8536, "\u2581Points": 8537, "\u2581Pain": 8538, "las": 8539, "\u2581NC": 8540, "\u2581Daddy": 8541, "\u2581hunt": 8542, "chan": 8543, "-00": 8544, "\u2581HTTP": 8545, "uro": 8546, "\u2581harsh": 8547, "range": 8548, "\u25815,000": 8549, "\u2581interpretation": 8550, "\u2581Congratulations": 8551, "\u2581KO": 8552, "\u2581waited": 8553, "ele": 8554, "\u2581coin": 8555, "ale": 8556, "step": 8557, "sia": 8558, "bing": 8559, "\u2581Starting": 8560, "pad": 8561, "\u2581Whoever": 8562, "\ub974": 8563, "\u2581ladies": 8564, "\u2581banned": 8565, "\u2581jacket": 8566, "\u2581wondered": 8567, "\u2581Period": 8568, "rn": 8569, "\u25811.4": 8570, "\u2581impressed": 8571, "\u2581Communications": 8572, "\u2581domination": 8573, "\u2581shield": 8574, "\u2581IoT": 8575, "\u2581Israeli": 8576, "\u2581Minh": 8577, "\u2581deaths": 8578, "Proverbs": 8579, "\u25811930": 8580, "\u2581pig": 8581, "\u2581Manufacturing": 8582, "\u2581iTunes": 8583, "\u2581mysterious": 8584, "\u2581stunning": 8585, "\u2581Isn": 8586, "\u2581strain": 8587, "\u2581bbc": 8588, "\u2581HellPorno": 8589, "\u2581trick": 8590, "\u2581Interview": 8591, "\u2581ensures": 8592, "\u2581dimensions": 8593, "\u2581Rule": 8594, "\u2581substance": 8595, "\u2581Tan": 8596, "\u2581specify": 8597, "\u2581Aug": 8598, "\u2581chances": 8599, "ico": 8600, "June": 8601, "\u2581proceed": 8602, "\u2581Additional": 8603, "\u2581Sur": 8604, "\uc77c": 8605, "\u2581penalty": 8606, "\u2581funeral": 8607, "\u2581Swimming": 8608, "\u2581decoration": 8609, "\u2581SMS": 8610, "\u2581savings": 8611, "\u2581flee": 8612, "\u2581Ship": 8613, "\u2581boot": 8614, "\u2581Edge": 8615, "\u2581interaction": 8616, "\u2581Seat": 8617, "Ba": 8618, "\u2581setup": 8619, "\u25812.2": 8620, "\u2581Hub": 8621, "yen": 8622, "\u2581Tro": 8623, "\u2581blend": 8624, "\u2581Geneva": 8625, "\u2581hub": 8626, "ied": 8627, "what": 8628, "\u2581MC": 8629, "\u2581Cute": 8630, "\u2581Wolf": 8631, "ache": 8632, "\u2581profound": 8633, "bro": 8634, "there": 8635, "\u2581COPYRIGHT": 8636, "\u2581Leather": 8637, "fo": 8638, "\u2581spray": 8639, "sex": 8640, "\u2581conscious": 8641, "\u2581elections": 8642, "\u2581tablets": 8643, "\u2581EP": 8644, "\u2581dependent": 8645, "BE": 8646, "\u2581responsibilitie": 8647, "\u2581unlimited": 8648, "-04": 8649, "\u2581Dun": 8650, "\u2581passionate": 8651, "\u2581Won": 8652, "\u2581pioneer": 8653, "\u2581Honor": 8654, "\u2581isolated": 8655, "\u2581Grace": 8656, "nam": 8657, "\u2581Reply": 8658, "\u2581Partners": 8659, "\u2581branches": 8660, "\u2581pointed": 8661, "rest": 8662, "\u2581240": 8663, "\u2581Conditions": 8664, "\u2581Success": 8665, "\u2581curse": 8666, "\u2581urge": 8667, "II": 8668, "Love": 8669, "\u2581infinite": 8670, "sum": 8671, "dam": 8672, "\u2581presents": 8673, "ches": 8674, "aving": 8675, "\u2581metres": 8676, "hol": 8677, "\u2581coated": 8678, "\u2581380": 8679, "\u2581gallery": 8680, "\u2581Ser": 8681, "oy": 8682, "\u2581Challenge": 8683, "\u2581graph": 8684, "\uc0ac": 8685, "\u2581Cooling": 8686, "\u2581sealed": 8687, "\u2581FI": 8688, "\u2581WA": 8689, "late": 8690, "\u2581hits": 8691, "\u2581attorney": 8692, "\u2581navigation": 8693, "\u2581offspring": 8694, "cra": 8695, "\u2581gu": 8696, "CI": 8697, "\u2581Edit": 8698, "FE": 8699, "\u2581fails": 8700, "\u2581champion": 8701, "\u2581scheme": 8702, "\u2581Regional": 8703, "Un": 8704, "ef": 8705, "\u2581derived": 8706, "ban": 8707, "ulate": 8708, "\u2581virtually": 8709, "\u2581Reg": 8710, "century": 8711, "\u2581Affairs": 8712, "\u2581Spy": 8713, "his": 8714, "\u2581bold": 8715, "\u2581vaccine": 8716, "\u2581Desktop": 8717, "\u2581Granny": 8718, "\u2581intention": 8719, "tive": 8720, "\u2581CON": 8721, "\u2581Processing": 8722, "inter": 8723, "\u2581producer": 8724, "ram": 8725, "\u2581Pri": 8726, "\u2581Eden": 8727, "\u2581judges": 8728, "wer": 8729, "\u2581z": 8730, "lip": 8731, "\u2581slot": 8732, "\u2581graduated": 8733, "NS": 8734, "\u2581attract": 8735, "\u2581legally": 8736, "\u2581pharmaceutical": 8737, "\u2581sperm": 8738, "\u2581humor": 8739, "\u2581Fruit": 8740, "\u2581Neither": 8741, "\u2581presidential": 8742, "\u2581Exit": 8743, "\u2581Explorer": 8744, "rian": 8745, "\u2581streaming": 8746, "two": 8747, "\u2581Layer": 8748, "\u2581rec": 8749, "\u2581workshop": 8750, "SU": 8751, "iti": 8752, "\u2581cl": 8753, "\u2581profits": 8754, "\u2581Va": 8755, "ional": 8756, "\u2581Scotland": 8757, "\u2581obedience": 8758, "\u2581Telephone": 8759, "\u2581disorder": 8760, "Car": 8761, "\u2581analytical": 8762, "\u2581Person": 8763, "\u2581Hour": 8764, "\u2581TH": 8765, "\u2581Tape": 8766, "\uc790": 8767, "ened": 8768, "hon": 8769, "\u2581Zen": 8770, "\uad6d": 8771, "\u2581generator": 8772, "\u2581ecosystem": 8773, "\u2581Economy": 8774, "\u2581racing": 8775, "\u2581slip": 8776, "\u2581Paint": 8777, "\u2581Often": 8778, "\u2581keyboard": 8779, "\u2581muscles": 8780, "\u2581Text": 8781, "\u2581Reserve": 8782, "\u2581indian": 8783, "\u2581BBC": 8784, "\u20ac\u201d": 8785, "FS": 8786, "kawa": 8787, "\u2581automobile": 8788, "\u2581piano": 8789, "\u2581BY": 8790, "\u2581continually": 8791, "\u2581enforcement": 8792, "\u2581decline": 8793, "OC": 8794, "\u2581linear": 8795, "just": 8796, "\u258193": 8797, "\u2581evaluate": 8798, "\u2581Ac": 8799, "\u2581seller": 8800, "\u2581chest": 8801, "service": 8802, "fit": 8803, "rich": 8804, "\u2581Acts": 8805, "\u2581clicking": 8806, "\u2581combines": 8807, "dar": 8808, "\u2581Practice": 8809, "\u2581glorious": 8810, "\u2581oath": 8811, "\u2581Fee": 8812, "rah": 8813, "\u2581shake": 8814, "\u2581Prefecture": 8815, "sized": 8816, "\u2581nest": 8817, "\u2581joining": 8818, "\u2581flame": 8819, "oh": 8820, "July": 8821, "\u2581efficiently": 8822, "\u2581Transport": 8823, "tree": 8824, "\u2581thinks": 8825, "\u2581Lincoln": 8826, "\u2581BMW": 8827, "\u2581Blockchain": 8828, "\u2581Sat": 8829, "\u2581Danish": 8830, "\u2581automated": 8831, "\u2581apparently": 8832, "\u2581Adapter": 8833, "\u2581Drop": 8834, "stop": 8835, "\u25815)": 8836, "\u2581shy": 8837, "\u2581voters": 8838, "\u2581globally": 8839, "\u2581pitch": 8840, "\u2581Jung": 8841, "awa": 8842, "\u2581ports": 8843, "LM": 8844, "\u2581Airlines": 8845, "\u2581KRW": 8846, "tta": 8847, "RY": 8848, "\u2581diamond": 8849, "kh": 8850, "\u2581mothers": 8851, "\u2581Fetish": 8852, "\u2581assurance": 8853, "\u2581legislation": 8854, "\u2581warehouse": 8855, "\u2581heavily": 8856, "\u25810.9": 8857, "\u2581\u25a1": 8858, "\u2581cultures": 8859, "\u2581Record": 8860, "\u2581devoted": 8861, "\u2581poll": 8862, "\u2581Tra": 8863, "\u2581Coating": 8864, "mir": 8865, "\u2581magnetic": 8866, "2015": 8867, "\u2581lists": 8868, "lee": 8869, "\u2581latex": 8870, "\u2581stranger": 8871, "\u2581killer": 8872, "\u2581weakness": 8873, "\u2581Alliance": 8874, "\u2581Pixel": 8875, "\u2581Simply": 8876, "\u2581Cabinet": 8877, "\u2581serial": 8878, "\u2581finds": 8879, "\u2581Tagged": 8880, "\u2581airline": 8881, "\u2581fa": 8882, "\u258174": 8883, "\u2581upset": 8884, "\u2581investments": 8885, "ved": 8886, "\u2581TR": 8887, "\u2581insert": 8888, "VE": 8889, "\u2581Mario": 8890, "\u2581lasting": 8891, "\u2581Break": 8892, "\u2581expenses": 8893, "From": 8894, "\u2581Bro": 8895, "\u2581leaf": 8896, "\u2581Cool": 8897, "\u2581Contract": 8898, "-100": 8899, "\u2581layout": 8900, "ame": 8901, "\u2581demo": 8902, "\u2581internationally": 8903, "Mi": 8904, "\u2581reveals": 8905, "\u2581pissing": 8906, "UL": 8907, "\u2581commander": 8908, "\u2581roads": 8909, "\u2581climb": 8910, "\u2581frequent": 8911, "hn": 8912, "\u2581protest": 8913, "\u2581HIV": 8914, "\u2581wins": 8915, "\u2581corn": 8916, "\u2581Calendar": 8917, "\u2581Graduate": 8918, "\u2581Removal": 8919, "\u2581hatred": 8920, "\u2581anointed": 8921, "\u2581Daughter": 8922, "\u2581roughly": 8923, "\u2581attempts": 8924, "\u2581operational": 8925, "IE": 8926, "\u2581\uc774": 8927, "\u2581Jay": 8928, "TION": 8929, "\u2581drum": 8930, "\u2581Unless": 8931, "\u2581COM": 8932, "\uc778": 8933, "\u2581tanks": 8934, "\u2581unlike": 8935, "cell": 8936, "\u2581Budget": 8937, "\u2581interactive": 8938, "\u2581suck": 8939, "\u2581LI": 8940, "\u2581Jul": 8941, "\u2581marine": 8942, "\u2581warn": 8943, "\u2581electro": 8944, "\u258199%": 8945, "\u2581candidates": 8946, "ML": 8947, "cious": 8948, "\u2581clip": 8949, "\u2581transformed": 8950, "\u2581relatives": 8951, "ome": 8952, "\u2581Ticket": 8953, "rom": 8954, "\u2581towns": 8955, "\u2581GA": 8956, "ste": 8957, "\u2581Em": 8958, "\u2581explosion": 8959, "\u2581phenomenon": 8960, "\u2581tumor": 8961, "\u2581Disease": 8962, "\u2581democratic": 8963, "\u2581Lens": 8964, "Box": 8965, "ATE": 8966, "\u2581powered": 8967, "\u2581Spot": 8968, "\u2581Mis": 8969, "\u2581examination": 8970, "\u2581guardian": 8971, "\u2581Fri": 8972, "\u2581Belt": 8973, "\u2581improvements": 8974, "\u2581honestly": 8975, "lle": 8976, "High": 8977, "\u2581exceptional": 8978, "aging": 8979, "\u2581Precision": 8980, "\u2581grief": 8981, "\u2581involving": 8982, "\u2581Creation": 8983, "ways": 8984, "bat": 8985, "\u2581sc": 8986, "\u2581Mask": 8987, "\u2581gotten": 8988, "\u2581balanced": 8989, "bag": 8990, "iff": 8991, "lot": 8992, "\u2581sharp": 8993, "\u2581Fre": 8994, "\u2581Count": 8995, "\u2581Sar": 8996, "\u2581utilize": 8997, "\u258125%": 8998, "\u2581Continue": 8999, "\u2581hopes": 9000, "\u2581urgent": 9001, "\u2581Cur": 9002, "\u2581styles": 9003, "\u2581commandment": 9004, "\u2581remind": 9005, "\u2581Emirates": 9006, "\u2581Pharmaceutical": 9007, "\u2581Taylor": 9008, "\u2581invasion": 9009, "\u2581Political": 9010, "\u2581Important": 9011, "\u2581Extension": 9012, "HS": 9013, "\u2581Scan": 9014, "nate": 9015, "\u2581Cook": 9016, "\u2581Traditional": 9017, "\u2581conversations": 9018, "\u2581Figure": 9019, "lf": 9020, "\u2581sorts": 9021, "\u2581Muhammad": 9022, "\u2581travelling": 9023, "\u2581hoping": 9024, "\u2581honour": 9025, "\u2581cha": 9026, "\u2581grid": 9027, "ump": 9028, "RP": 9029, "\u00b1": 9030, "0000": 9031, "MT": 9032, "\u2581unexpected": 9033, "pol": 9034, "Jesus": 9035, "rc": 9036, "bul": 9037, "zy": 9038, "\u2581distant": 9039, "\u2581Imperial": 9040, "\u2581assault": 9041, "\u2581Dinner": 9042, "\u2581Authority": 9043, "\u2581Button": 9044, "\u2581beside": 9045, "\u2581pulled": 9046, "ching": 9047, "\u2581shade": 9048, "\u2581withdraw": 9049, "\u2581installing": 9050, "\u2581suppose": 9051, "logy": 9052, "\u2581Register": 9053, "\u2581Syrian": 9054, "IG": 9055, "\u2581https": 9056, "White": 9057, "ska": 9058, "\u2581Malaysia": 9059, "\u2581intervention": 9060, "\u2581virtue": 9061, "\u2581erotic": 9062, "\u2581legend": 9063, "\u2581lobby": 9064, "\u2581absorb": 9065, "\u2581unnecessary": 9066, "</": 9067, "\u2581planets": 9068, "fall": 9069, "\u2581rod": 9070, "oni": 9071, "\u2581Zo": 9072, "\u2581rush": 9073, "\u2581tear": 9074, "Up": 9075, "\u2581Meter": 9076, "\u2581secondary": 9077, "\u2581villa": 9078, "ics": 9079, "\u2581mortal": 9080, "\u2581100,000": 9081, "\u2581dwelling": 9082, "These": 9083, "ONG": 9084, "AG": 9085, "str": 9086, "\u2581Au": 9087, "\u2581Rest": 9088, "\u2581facilitate": 9089, "\u2581Zurich": 9090, "\u2581magical": 9091, "\u2581traders": 9092, "\u2581Duration": 9093, "\u2581Fitness": 9094, "\u2581Ross": 9095, "\u2581Installation": 9096, "\u2581Th": 9097, "\u2581Launch": 9098, "\u2581Climate": 9099, "\u2581scooter": 9100, "\u25811975": 9101, "\u2581CAN": 9102, "\u00ed": 9103, "\u2581regulation": 9104, "\u2581surprising": 9105, "\u2581hook": 9106, "\u2581Sexy": 9107, "\u2581rack": 9108, "mount": 9109, "Other": 9110, "\u25812002,": 9111, "\ud06c": 9112, "\u2581inquiry": 9113, "\u2581alliance": 9114, "\u2581<<": 9115, "\u2581leak": 9116, "\u2581merciful": 9117, "\u2581Import": 9118, "\u2581abandon": 9119, "active": 9120, "\u2581Sri": 9121, "try": 9122, "\u2581religions": 9123, "\u2581pit": 9124, "\u2581prince": 9125, "\u2581bicycle": 9126, "\u2581findings": 9127, "IX": 9128, "Min": 9129, "\u2581virgin": 9130, "\u2581Summit": 9131, "\u2581ffm": 9132, "ight": 9133, "\u2581writes": 9134, "\u2581associate": 9135, "\u2581engagement": 9136, "\u2581Norwegian": 9137, "\u2581scenes": 9138, "ux": 9139, "\u2581miracles": 9140, "\u2581Sure": 9141, "ail": 9142, "ess": 9143, "duct": 9144, "\u25814.5": 9145, "\u2581clinic": 9146, "\u2581sights": 9147, "\u2581Kill": 9148, "\u2581firms": 9149, "SO": 9150, "\u2581mall": 9151, "\u2581Inflatable": 9152, "\u2581Puerto": 9153, "\u2581chinese": 9154, "\u2581mathematical": 9155, "walk": 9156, "\u2581whore": 9157, "\u2581Cisco": 9158, "\u2581\u0301": 9159, "\u2581Brian": 9160, "\u2581Sarah": 9161, "OW": 9162, "\u2581Ren": 9163, "\u2581cons": 9164, "ire": 9165, "\u25811978": 9166, "\u2581Hills": 9167, "\u2581variables": 9168, "\u2581Highway": 9169, "\u2581refuge": 9170, "180": 9171, "\u2581GT": 9172, "pping": 9173, "\u2581organisation": 9174, "ston": 9175, "Around": 9176, "\u2581dignity": 9177, "\u3002": 9178, "\u2581Chu": 9179, "\u2581Annual": 9180, "\u2581boundaries": 9181, "\u2581gates": 9182, "\u2581Lane": 9183, "\u2581Marina": 9184, "\u2581targets": 9185, "\u2581Marriage": 9186, "\u2581inspire": 9187, "\u2581spite": 9188, "Ta": 9189, "\u2581Complete": 9190, "sung": 9191, "\u25811987": 9192, "\u2581Hawaii": 9193, "\u258130-": 9194, "\u2581gotta": 9195, "\u2581105": 9196, "\u2581Oxford": 9197, "\u2581Housing": 9198, "\u2581Database": 9199, "\u2581Books": 9200, "\u2581demons": 9201, "tory": 9202, "\u2581Finnish": 9203, "lk": 9204, "\u2581proportion": 9205, "ND": 9206, "gas": 9207, "\u2581ruler": 9208, "cel": 9209, "\u2581reporter": 9210, "\u2581FDA": 9211, "\u2581mill": 9212, "\u2581contributed": 9213, "\u2581episode": 9214, "\u2581earthquake": 9215, "\u2581compound": 9216, "\u2581buffet": 9217, "\u2581acquisition": 9218, "\u2581Resistance": 9219, "til": 9220, "lies": 9221, "\u2581Physical": 9222, "\u2581nano": 9223, "\u2581stake": 9224, "\u2581Cyber": 9225, "\u2581tries": 9226, "OK": 9227, "9)": 9228, "\u2581editing": 9229, "edge": 9230, "\u2581rivers": 9231, "\u2581RT": 9232, "\u2581perfection": 9233, "NI": 9234, "EE": 9235, "\u2581Nine": 9236, "\u2581Ste": 9237, "\u2581Ob": 9238, "\u2581foolish": 9239, "\u2581Aluminium": 9240, "\u2581Flexible": 9241, "\u2581draft": 9242, "\u2581packed": 9243, "\u2581ensur": 9244, "\u2581fulfillment": 9245, "vid": 9246, "\u2581stolen": 9247, "\u2581palm": 9248, "\u2581adhesive": 9249, "\u2581Recently": 9250, "\u2581Rates": 9251, "\u2581tin": 9252, "\u2581grows": 9253, "\u2581Mm": 9254, "\u2581surrender": 9255, "\u2581Gear": 9256, "/4": 9257, "\u2581Virginia": 9258, "\u2581resolved": 9259, "kov": 9260, "\u2581healed": 9261, "\u2581behave": 9262, "September": 9263, "\u2581thine": 9264, "\u2581Ceramic": 9265, "\u2581jeans": 9266, "\u2581bat": 9267, "\u2581spanish": 9268, "\u2581accounting": 9269, "\u2581crypto": 9270, "lly": 9271, "its": 9272, "working": 9273, "\u2581specially": 9274, "aku": 9275, "pack": 9276, "ral": 9277, "\u2581specifications": 9278, "\u258140%": 9279, "\u2581puts": 9280, "\u2581immigrants": 9281, "3/": 9282, "\u2581violation": 9283, "\u2581Sh": 9284, "\u2581respective": 9285, "\u2581Rail": 9286, "\u2581Cro": 9287, "\u2581Hidden": 9288, "\u2581Racing": 9289, "\u2581independently": 9290, "\u258124/7": 9291, "\u2581Mono": 9292, "\u2581representation": 9293, "\u2581offerings": 9294, "\u2581Cleaning": 9295, "2.0": 9296, "]]": 9297, "\u2581\u2265": 9298, "\u2581750": 9299, "\u2581Cent": 9300, "\u2581imported": 9301, "ONE": 9302, "Cafe": 9303, "0%": 9304, "\u2581fossil": 9305, "\u2581Donald": 9306, "\u2581dish": 9307, "\u2581spin": 9308, "\u2581cart": 9309, "\u2581correspond": 9310, "Ad": 9311, "\u2581determination": 9312, "\u2581Reality": 9313, "\u2581complaint": 9314, "\u258187": 9315, "\u2581thereby": 9316, "\u2581Grant": 9317, "\u2581wage": 9318, "\u2581Zion": 9319, "imp": 9320, "Did": 9321, "\u2581(17": 9322, "word": 9323, "125": 9324, "\u2581hills": 9325, "\u2581guitar": 9326, "\u2581Charge": 9327, "aga": 9328, "\u2581arch": 9329, "\u2581Term": 9330, "Romans": 9331, "\u2581Religion": 9332, "\u2581devotion": 9333, "\u2581horrible": 9334, "\u2581antenna": 9335, "\u258191": 9336, "\u2581Ukrainian": 9337, "\u2581Rob": 9338, "\u2581jerking": 9339, "\u2581Fresh": 9340, "ched": 9341, "\u2581Accept": 9342, "240": 9343, "\u2581employed": 9344, "open": 9345, "umi": 9346, "will": 9347, "ICE": 9348, "\u2581judged": 9349, "\u25811993": 9350, "\u2581External": 9351, "\u2581compensation": 9352, "\u2581trillion": 9353, "\u2581cluster": 9354, "\u2581abortion": 9355, "\u2581traditions": 9356, "\u2581audition": 9357, "\u2581Duty": 9358, "\u2581hanging": 9359, "\u2581excluded": 9360, "\u2581heroes": 9361, "\u2581burnt": 9362, "\u2581Dell": 9363, "\u2581visits": 9364, "\u2581involve": 9365, "\u2581guides": 9366, "\u2581Brain": 9367, "\u258183": 9368, "\u2581TOP": 9369, "order": 9370, "HP": 9371, "aff": 9372, "\u00a9": 9373, "\u2581Optic": 9374, "\u2581generous": 9375, "\u2581DNS": 9376, "ATION": 9377, "\u2581accommodate": 9378, "\u2581jet": 9379, "\u2581provisions": 9380, "\u2581equality": 9381, "\u2581publicly": 9382, "\u2581calculated": 9383, "\u2581chips": 9384, "\u2581intent": 9385, "\u2581sustain": 9386, "\u2581Salt": 9387, "\u2581eastern": 9388, "\u2581realm": 9389, "lice": 9390, "UP": 9391, "\u2581papers": 9392, "\u25811977": 9393, "\u25818.1": 9394, "\u2581Pearl": 9395, "ii": 9396, "Every": 9397, "oka": 9398, "atory": 9399, "\u2581tale": 9400, "\u2581czech": 9401, "\u2581Polyester": 9402, "\u2581rural": 9403, "person": 9404, "\u2581Yang": 9405, "\u2581hospitals": 9406, "\u2581seduced": 9407, "\u2581casinos": 9408, "\u2581Customers": 9409, "\u2581brightness": 9410, "\u2581networking": 9411, "\u2581Probably": 9412, "\u2581Phuket": 9413, "\u2581lovers": 9414, "750": 9415, "\u2581NT": 9416, "\u2581readers": 9417, "wall": 9418, "\u2581bottles": 9419, "\u2581Com": 9420, "\u2581spirits": 9421, "\u2581Cons": 9422, "IST": 9423, "\u2581Evolution": 9424, "\u2581Testament": 9425, "\u2581purchasing": 9426, "\u2581guidelines": 9427, "\u2581Lesson": 9428, "232": 9429, "\u2581gravity": 9430, "\u2581prompt": 9431, "\u2581prevention": 9432, "\u2581SW": 9433, "\u2581Dry": 9434, "\u2581advise": 9435, "lim": 9436, "\u2581SSL": 9437, "itis": 9438, "\u2581resulted": 9439, "\u2581wondering": 9440, "\u2581rub": 9441, "\u2581profession": 9442, "\u2581reporting": 9443, "\u2581cache": 9444, "\u2581prominent": 9445, "\u2581Hopefully": 9446, "\u2581Compressor": 9447, "\u2581labour": 9448, "\u2581Tiger": 9449, "\u258179": 9450, "\u2581Excel": 9451, "cip": 9452, "\u2581shoulders": 9453, "\u2581316": 9454, "\u2581Flu": 9455, "dor": 9456, "5\u00b0": 9457, "ao": 9458, "\u2581temperatures": 9459, "\u2581Williams": 9460, "WA": 9461, "mid": 9462, "ox": 9463, "foot": 9464, "rail": 9465, "\u2581BTC": 9466, "\u2581dishwasher": 9467, "\u2581spectacular": 9468, "\u2581absence": 9469, "\u2581Attack": 9470, "\u2581Elijah": 9471, "iva": 9472, "\u2581Workshop": 9473, "\u2581unfair": 9474, "\u2581ferry": 9475, "\u2581durable": 9476, "\u2581Individual": 9477, "\u2581thoroughly": 9478, "\u2581soap": 9479, "tum": 9480, "\u2581$10": 9481, "\u2581representatives": 9482, "\u2581respectively": 9483, "\u2581Lift": 9484, "\u2581el": 9485, "\u2581Joy": 9486, "\u2581Angle": 9487, "\u2581integrate": 9488, "\u2581awake": 9489, "\u2581+82": 9490, "\u2581Hua": 9491, "pha": 9492, "\u2581expanding": 9493, "\u2581shoe": 9494, "ornia": 9495, "\u2581cheaper": 9496, "itch": 9497, "\uc5d0": 9498, "\u2581favour": 9499, "\u2581bubble": 9500, "\u2581voting": 9501, "\u2581Nylon": 9502, "ituated": 9503, "ILL": 9504, "\u2581Hostelworld": 9505, "\u2581landing": 9506, "Whenever": 9507, "\u2581visitor": 9508, "\u2581anytime": 9509, "\u2581Bin": 9510, "\u2581LO": 9511, "\u2581loading": 9512, "\u2581login": 9513, "catering": 9514, "San": 9515, "\u2581Wonder": 9516, "\u2581vessel": 9517, "\u2581Columbia": 9518, "\u2581Eventually": 9519, "\u2581bug": 9520, "\u2581Concert": 9521, "iling": 9522, "\u258108:01": 9523, "young": 9524, "\u2581rational": 9525, "\u2581Bon": 9526, "\u2581borders": 9527, "pos": 9528, "\u2581Works": 9529, "\u2581Archive": 9530, "\u2581Seal": 9531, "OD": 9532, "ich": 9533, "\u2581consumed": 9534, "\u2581reviewed": 9535, "Flix": 9536, "\u2581HR": 9537, "\u25813,000": 9538, "\u2581coil": 9539, "\u2581Trinity": 9540, "\u2581identical": 9541, "\u2581Judge": 9542, "\u2581abide": 9543, "\u2581Apk": 9544, "\u2581tourism": 9545, "mic": 9546, "ae": 9547, "\u2581NASA": 9548, "cl": 9549, "any": 9550, "\u2581Acid": 9551, "rent": 9552, "turn": 9553, "\u2581periods": 9554, "\u2581Bat": 9555, "\u2581Cer": 9556, "\u2581CV": 9557, "\u2581sends": 9558, "ography": 9559, "\u2581Friendly": 9560, "\u2581DJ": 9561, "\u2581Resources": 9562, "\u2581experiments": 9563, "\u2581Archives": 9564, "\u2581hurry": 9565, "\u2581buttons": 9566, "NY": 9567, "ore": 9568, "\u2581closest": 9569, "\u2581Nano": 9570, "\u2581LE": 9571, "MD": 9572, "\u2581(11": 9573, "\u2581reset": 9574, "\u2581recall": 9575, "\u2581Sara": 9576, "\u2581Pl": 9577, "320": 9578, "\u2581stretch": 9579, "\u2581welcomes": 9580, "kel": 9581, "\u2581hired": 9582, "ashi": 9583, "eller": 9584, "\u2581RAM": 9585, "Genesis": 9586, "\u2581Boulevard": 9587, "\u2581curious": 9588, "\u2581spectrum": 9589, "\u2581admission": 9590, "\u2581Montreal": 9591, "eri": 9592, "\u2581equation": 9593, "Look": 9594, "\u2581UP": 9595, "\u2581carrier": 9596, "\u2581Mod": 9597, "master": 9598, "\u2581poison": 9599, "map": 9600, "\u2581fears": 9601, "\u2581Char": 9602, "\u2581drill": 9603, "\u2581approaches": 9604, "rating": 9605, "\u2581Watt": 9606, "\u2581ch": 9607, "\u2581Explore": 9608, "\u2581Region": 9609, "\u2581Rent": 9610, "\u2581specialize": 9611, "\u2581twins": 9612, "yeong": 9613, "\u2581Harvard": 9614, "\u2581emperor": 9615, "\u2581graduation": 9616, "\u2581confusion": 9617, "\u2581Webcam": 9618, "\u2581preview": 9619, "\u2581Fo": 9620, "\u2581volunteer": 9621, "\u2581defendant": 9622, "\u2581trademark": 9623, "\u2581elderly": 9624, "450": 9625, "\u2581Connection": 9626, "\u2581%1": 9627, "info": 9628, "\u25811985": 9629, "Day": 9630, "\u2581strangers": 9631, "\u2581destinations": 9632, "\u2581Ann": 9633, "\u2581:)": 9634, "\u2581(6)": 9635, "\u2581fed": 9636, "123": 9637, "\u2581particles": 9638, "aya": 9639, "\u2581responses": 9640, "*2": 9641, "Because": 9642, "\u2581Munich": 9643, "\u2581Shemale": 9644, "\u2581Choice": 9645, "tim": 9646, "\u2581shelter": 9647, "\u2581ni": 9648, "\u2581elementary": 9649, "\u2581ceramic": 9650, "\u2581liberal": 9651, "\u2581barely": 9652, "\u2581separately": 9653, "ifying": 9654, "\u2581ODM": 9655, "ello": 9656, "ink": 9657, "Jo": 9658, "\u2581hosted": 9659, "AGE": 9660, "Ho": 9661, "\u2581Howard": 9662, "\u2581celebrated": 9663, "demand": 9664, "\u2581NuVid": 9665, "\u2581eligible": 9666, "pper": 9667, "\u2581Bureau": 9668, "\u2581Nurse": 9669, "\u2581forbidden": 9670, "\u2581Transportation": 9671, "Mar": 9672, "\u2581Roof": 9673, "\u2581activate": 9674, "\u2581LLC": 9675, "\u2581Issue": 9676, "\u2581downtown": 9677, "\u2581fisting": 9678, "\u2581soup": 9679, "\u2581workplace": 9680, "\u2581organ": 9681, "\u25810.8": 9682, "max": 9683, "\u2581Mari": 9684, "\u2581geo": 9685, "\u2581Jet": 9686, "\u2581Silk": 9687, "\u2581170": 9688, "\u2581Filling": 9689, "\u2581attending": 9690, "\u2581def": 9691, "\u2581LAN": 9692, "bre": 9693, "PL": 9694, "\u2581photograph": 9695, "11)": 9696, "\u2581Wear": 9697, "\u2581Arena": 9698, "\u00ad": 9699, "\u2581separation": 9700, "\u2581stadium": 9701, "\u2581Amendment": 9702, "Thank": 9703, "\u2581lonely": 9704, "\u2581appreciation": 9705, "\u2581liability": 9706, "hill": 9707, "\u2581Brad": 9708, "\u2581nun": 9709, "\u2581carpet": 9710, "\u25811800": 9711, "\u2581observation": 9712, "cor": 9713, "\u2581soldier": 9714, ".99": 9715, "gil": 9716, "\u25812004.": 9717, "\u2581nutrition": 9718, "\u2581Container": 9719, "\u2581ethical": 9720, "\u2581idols": 9721, "\u2581distress": 9722, "\u2581venture": 9723, "\u2581Generally": 9724, "tube": 9725, "ela": 9726, "\u2581Login": 9727, "\u2581alter": 9728, "LP": 9729, "\u2581assure": 9730, "\u2581node": 9731, "\u2581Mediterranean": 9732, "\u2581Cambridge": 9733, "\u2581legacy": 9734, "\u2581checking": 9735, "\u2581Benefits": 9736, "\u2581Ground": 9737, "\u2581Bright": 9738, "\u2581revelation": 9739, "rry": 9740, "bank": 9741, "\u2581Moving": 9742, "\u2581Hungarian": 9743, "\u2581exercises": 9744, "-28": 9745, "\u2581statue": 9746, "\u2581fewer": 9747, "anda": 9748, "\u2581constructed": 9749, "\u2581painted": 9750, "\u2581Owner": 9751, "ender": 9752, "\u2581authors": 9753, "\u2581aggressive": 9754, "\u2581mounted": 9755, "\u2581letting": 9756, "\u2581Witness": 9757, "\u2581dose": 9758, "\u2581detected": 9759, "other": 9760, "\u2581embedded": 9761, "\u2581Messiah": 9762, "\u2581Thread": 9763, "\u2581italian": 9764, "ras": 9765, "maker": 9766, "NE": 9767, "\u2581hip": 9768, "\u2581Str": 9769, "fra": 9770, "\u2581effectiveness": 9771, "\u2581Islamic": 9772, "\u25811080": 9773, "\u2581Gran": 9774, "1.0": 9775, "\u2581Bas": 9776, "\u2581mild": 9777, "\u2581Technologies": 9778, "\u2581cuckold": 9779, "\u2581tungsten": 9780, "View": 9781, "\u2581tender": 9782, "\u2581archive": 9783, "\u2581bother": 9784, "\u2581patch": 9785, "effective": 9786, "\u2581speakers": 9787, "\u2581230": 9788, "ANG": 9789, "\u2581complexity": 9790, "\u2581precisely": 9791, "\u2581apple": 9792, "\u2581affection": 9793, "IF": 9794, "\u2581Bri": 9795, "\u2581restrictions": 9796, "\u2581Crown": 9797, "\u2581corrupted": 9798, "ime": 9799, "10)": 9800, "\u2581Chart": 9801, "\u2581Threesome": 9802, "\u2581Intelligence": 9803, "\u2581declaration": 9804, "\u2581Either": 9805, "Japanese": 9806, "\u2581Beeg": 9807, "tent": 9808, "\u2581neuro": 9809, "\u2581Taking": 9810, "\u2581Shoes": 9811, "...\u201d": 9812, "\u2581Fin": 9813, "\u2581lifted": 9814, "elle": 9815, "lis": 9816, "\u2581cargo": 9817, "Sa": 9818, "\u2581Spec": 9819, "\u2581Hole": 9820, "\u2581attributes": 9821, "\u2581Posts": 9822, "\u2581SSD": 9823, "makers": 9824, "\u2581Pu": 9825, "\u2581boobs": 9826, "\u2581ISBN": 9827, "\u2581Titjob": 9828, "\u2581cooperate": 9829, "\u2581Complex": 9830, "\u2581grandfather": 9831, "\u2581Lounge": 9832, "\u2581Diesel": 9833, "\u2581cafe": 9834, "\u2581RIGHTS": 9835, "rus": 9836, "Some": 9837, "\u2581Designed": 9838, "iko": 9839, "\u2581Tin": 9840, "\u2581Extra": 9841, "NT": 9842, "\u2581wealthy": 9843, "\u2581towels": 9844, "\u2581Benjamin": 9845, "\u2581hybrid": 9846, "\u2581piercing": 9847, "\u2581sauce": 9848, "\u2581dialogue": 9849, "gram": 9850, "JPY": 9851, "\u2581trap": 9852, "\u2581gray": 9853, "\u2581Fla": 9854, "\u2581reactions": 9855, "ibility": 9856, "\u2581Shu": 9857, "\u2581Cream": 9858, "\u2581Gil": 9859, "\u2581rope": 9860, "\u2581banking": 9861, "omi": 9862, "\u2581NAS": 9863, "Su": 9864, "\u2581punished": 9865, "\u2581Comm": 9866, "\u2581organize": 9867, "\u2581translate": 9868, "\u2581Brussels": 9869, "\u2581stomach": 9870, "\u2581stats": 9871, "\u2581Integrated": 9872, "\u2581grip": 9873, "zing": 9874, "\u2581investing": 9875, "\u2581convey": 9876, "\u2581Sister": 9877, "\u2581ver": 9878, "gal": 9879, "\u2581feared": 9880, "train": 9881, "\u2581Kat": 9882, "\u2581rewards": 9883, "\u2581Senior": 9884, "\u2581Ghost": 9885, "\u2581Chairman": 9886, "\u2581DHL": 9887, "nel": 9888, "\u2581compression": 9889, "\u2581CR": 9890, "\u2581IR": 9891, "kai": 9892, "\u2581Shall": 9893, "\u2581Found": 9894, "\u2581beef": 9895, "\u2581disagree": 9896, "\u2581forests": 9897, "\u2581Sleeping": 9898, "\u2581transmitted": 9899, "\u2581Handle": 9900, "\u2581Nation": 9901, "Isaiah": 9902, "\u2581withdrawal": 9903, "\u25815:": 9904, "\u25811962": 9905, "0.2": 9906, "\u2581ark": 9907, "\u2581evolved": 9908, "fin": 9909, "GP": 9910, "\u2581continent": 9911, "\u2581swap": 9912, "\u2581breaks": 9913, "_<": 9914, "\u2581pcs": 9915, "\u2581ancestors": 9916, "\u2581Planet": 9917, "\u2581Writing": 9918, "\u2581throat": 9919, "\u2581tropical": 9920, "\u2581essence": 9921, "\u2581Welding": 9922, "\u2581Ce": 9923, "\u2581plague": 9924, "\u2581motorcycle": 9925, "\u2581Toys": 9926, "ique": 9927, "\u2581Brazilian": 9928, "\u2581prop": 9929, "\u2581construct": 9930, "have": 9931, "MHz": 9932, "En": 9933, "\u2581Dining": 9934, "nar": 9935, "\u2581Tna": 9936, "\u2581Des": 9937, "\u25811965": 9938, "\u2581clothed": 9939, "horn": 9940, "\u2581posting": 9941, "\u2581hydro": 9942, "\u2581Arabia": 9943, "\u2581significance": 9944, "\u2581Fifth": 9945, "\u2581hesitate": 9946, "\u2581duties": 9947, "\u2581architect": 9948, "\u2581Domain": 9949, "\u25810.7": 9950, "pot": 9951, "\u258186-": 9952, "\u2581Horse": 9953, "lig": 9954, "\u2581bitch": 9955, "\u2581$4": 9956, "\u2581popularity": 9957, "\u2581enterprises": 9958, "\u2581reside": 9959, "agon": 9960, "\u2581Hero": 9961, "\u2581arrange": 9962, "Gu": 9963, "met": 9964, "burn": 9965, "\u2581Lamb": 9966, "\u2581Fourth": 9967, "RR": 9968, "2016": 9969, "\u2581Nigeria": 9970, "\u2581accurately": 9971, "\u25812001,": 9972, "\u2581electronics": 9973, "\u2581ft": 9974, "\u2581pizza": 9975, "\u2581Charlie": 9976, "\u2581socks": 9977, "\u25815.5": 9978,
[...]
