{"`": 0, "\u0306": 1, "^": 2, "\u030c": 3, "~": 4, "\u0307": 5, "\u00f7": 6, "\u00d7": 7, "<": 8, "=": 9, "==": 10, "===": 11, ">": 12, "|": 13, "\u00b0": 14, "_": 15, "\u00ad": 16, "-": 17, "-_": 18, ",": 19, ",...": 20, ";": 21, ":": 22, "://": 23, ":%": 24, "!": 25, "\u00a1": 26, "?": 27, "/": 28, ".": 29, "...": 30, "....": 31, ".)": 32, "\u00b7": 33, "'": 34, "\u2018": 35, "\u2019": 36, "\"": 37, "\",": 38, "\",\"": 39, "\".": 40, "\")": 41, "\u201c": 42, "\u201d": 43, "\u201d.": 44, "\u00ab": 45, "\u00bb": 46, "(": 47, "(_": 48, ")": 49, "),": 50, ");": 51, ").": 52, "[": 53, "]": 54, "];": 55, "{": 56, "\u00a9": 57, "\u00ae": 58, "@": 59, "$": 60, "\u00a3": 61, "\u20a6": 62, "\u20ab": 63, "\u20ac": 64, "*": 65, "\\": 66, "\\@": 67, "&": 68, "#": 69, "%": 70, "+": 71, "\u00b1": 72, "\u2190": 73, "\u2192": 74, "\u2191": 75, "\u2193": 76, "\u064e": 77, "\u064f": 78, "\u0650": 79, "\u0651": 80, "\u0652": 81, "\u05b0": 82, "\u05b4": 83, "\u05b7": 84, "\u05b8": 85, "\u05bc": 86, "\u05c1": 87, "\u02b9": 88, "\u2581": 89, "\u2581<": 90, "\u2581=": 91, "\u2581==": 92, "\u2581>": 93, "\u2581|": 94, "\u2581_": 95, "\u2581-": 96, "\u2581;": 97, "\u2581/": 98, "\u2581/\u02c8": 99, "\u2581.": 100, "\u2581'": 101, "\u2581\u2018": 102, "\u2581\u2019": 103, "\u2581\u2019?": 104, "\u2581\"": 105, "\u2581\u201c": 106, "\u2581\u201c[": 107, "\u2581\u201c%": 108, "\u2581\u201d": 109, "\u2581\u201d?": 110, "\u2581(": 111, "\u2581(_": 112, "\u2581(%": 113, "\u2581(\u2014)": 114, "\u2581[": 115, "\u2581$": 116, "\u2581*": 117, "\u2581&": 118, "\u2581%": 119, "\ud800\udfb9": 120, "\u2581\u02c8": 121, "\u2581\u2014": 122, "\u0300\u0300\u0300\u0300\u0300\u0300\u0300": 123, "\u09bc": 124, "\u0a71": 125, "0": 126, "\u25810": 127, "\u25810-": 128, "0.": 129, "0)": 130, "00": 131, "\u258100": 132, "000": 133, ",000": 134, ",000]": 135, "0,000": 136, ",000,000": 137, ",000,000]": 138, "001": 139, "01": 140, "-01-": 141, "01,": 142, "-01-01": 143, "0-130": 144, "02": 145, "-02-0": 146, "03": 147, "04": 148, "-04-": 149, "-05-": 150, "051": 151, "056": 152, "059": 153, "-06-": 154, "067": 155, "068": 156, "07": 157, "070": 158, "08": 159, "083": 160, "087": 161, "09": 162, "1": 163, "-1": 164, "\u25811": 165, "\u2581(1": 166, "\u2581(1)": 167, "\u2581[1": 168, "\u2581[1]": 169, "\u2581%1": 170, "\u25811,": 171, "\u25811:": 172, "\u25811.": 173, "1\"": 174, "1)": 175, "10": 176, "-10-": 177, "\u258110": 178, "\u258110,": 179, "\u258110:": 180, "\u258110.": 181, "100": 182, "\u2581100": 183, "\u2581[100]": 184, "\u2581[1,000]": 185, "\u25811,000": 186, "1,000": 187, "\u2581[10,000]": 188, "\u258110,000": 189, "\u2581[100,000]": 190, "\u2581100,000": 191, ":10.1": 192, "\u2581101": 193, "\u2581102": 194, "\u2581103": 195, "\u2581104": 196, "\u2581105": 197, "\u2581106": 198, "\u2581107": 199, "108": 200, "\u2581109": 201, "\u25811090": 202, "11": 203, "-11-": 204, "\u258111": 205, "\u2581[11": 206, "\u258111,": 207, "\u258111:": 208, "\u258111.": 209, "\u258111]": 210, "\u2581110": 211, "\u2581[110]": 212, "\u2581111": 213, "\u2581112": 214, "\u2581113": 215, "115": 216, "\u2581115": 217, "\u2581116": 218, "\u2581117": 219, "\u2581118": 220, "\u2581119": 221, "12": 222, "\u258112": 223, "\u2581[12": 224, "\u258112,": 225, "\u258112:": 226, "\u258112.": 227, "\u258112]": 228, "120": 229, "\u2581120": 230, "\u2581[120]": 231, "\u2581[1,200]": 232, "1201": 233, "\u2581121": 234, "\u2581123": 235, "\u2581125": 236, "\u2581126": 237, "\u2581127": 238, "\u2581128": 239, "13": 240, "\u258113": 241, "\u2581[13]": 242, "\u258113,": 243, "\u258113.": 244, "\u2581130": 245, "\u2581[130]": 246, "1307": 247, "\u2581133": 248, "135": 249, "\u2581135": 250, "136": 251, "\u2581139": 252, "14": 253, "\u258114": 254, "\u2581[14]": 255, "\u258114,": 256, "\u258114.": 257, "140": 258, "144": 259, "\u2581[144,000]": 260, "\u2581144,000": 261, "145": 262, "\u2581145": 263, "\u2581146": 264, "\u2581147": 265, "\u2581148": 266, "15": 267, "\u258115": 268, "\u2581[15]": 269, "\u258115,": 270, "\u258115.": 271, "\u258115]": 272, "150": 273, "\u2581150": 274, "\u2581[150]": 275, "\u2581[1,500]": 276, "\u25811,500": 277, "\u25811513": 278, "16": 279, "\u258116": 280, "\u2581[16]": 281, "\u258116,": 282, "\u258116:": 283, "\u258116.": 284, "160": 285, "\u2581160": 286, "\u2581[160]": 287, "\u2581[1,600]": 288, "164": 289, "165": 290, "166": 291, "167": 292, "168": 293, "169": 294, "17": 295, "\u258117": 296, "\u2581[17]": 297, "\u258117,": 298, "\u258117.": 299, "\u2581170": 300, "175": 301, "18": 302, "\u258118": 303, "\u2581(18": 304, "\u2581[18]": 305, "\u258118,": 306, "\u258118:": 307, "\u258118.": 308, "\u258118]": 309, "180": 310, "\u2581180": 311, "183": 312, "184": 313, "185": 314, "\u25811870": 315, "\u25811879": 316, "189": 317, "19": 318, "-19": 319, "\u258119": 320, "\u2581(19": 321, "\u2581[19]": 322, "\u258119,": 323, "\u258119.": 324, "\u258119]": 325, "190": 326, "\u25811900": 327, "\u25811901": 328, "\u25811908": 329, "191": 330, "\u25811910": 331, "\u25811912": 332, "\u25811913": 333, "\u25811914": 334, "\u25811916": 335, "\u25811917": 336, "\u25811918": 337, "\u25811919": 338, "\u25811919,": 339, "192": 340, "\u25811920": 341, "\u25811921": 342, "\u25811922": 343, "\u25811923": 344, "\u25811924": 345, "\u25811925": 346, "\u25811926": 347, "\u25811927": 348, "\u25811928": 349, "\u25811929": 350, "193": 351, "\u25811930": 352, "\u25811931": 353, "\u25811932": 354, "\u25811933": 355, "\u25811934": 356, "\u25811935": 357, "\u25811936": 358, "\u25811937": 359, "\u25811938": 360, "\u25811939": 361, "\u25811939,": 362, "194": 363, "\u25811940": 364, "\u25811941": 365, "\u25811942": 366, "\u25811943": 367, "\u25811944": 368, "\u25811945": 369, "\u25811946": 370, "\u25811947": 371, "\u25811948": 372, "\u25811949": 373, "195": 374, "\u25811950": 375, "\u25811950,": 376, "\u25811951": 377, "\u25811952": 378, "\u25811953": 379, "\u25811954": 380, "\u25811955": 381, "\u25811956": 382, "\u25811957": 383, "\u25811958": 384, "\u25811959": 385, "196": 386, "\u25811960": 387, "\u25811961": 388, "\u25811962": 389, "\u25811963": 390, "\u25811964": 391, "\u25811965": 392, "\u25811966": 393, "\u25811967": 394, "\u25811968": 395, "\u25811969": 396, "197": 397, "\u25811970": 398, "\u25811971": 399, "\u25811972": 400, "\u25811973": 401, "\u25811974": 402, "\u25811975": 403, "\u25811976": 404, "\u25811977": 405, "\u25811978": 406, "\u25811979": 407, "198": 408, "\u25811980": 409, "\u25811981": 410, "\u25811982": 411, "\u25811983": 412, "\u25811984": 413, "\u25811985": 414, "\u25811986": 415, "\u25811987": 416, "\u25811988": 417, "\u25811989": 418, "199": 419, "\u25811990": 420, "\u25811991": 421, "\u25811992": 422, "\u25811993": 423, "\u25811994": 424, "\u25811995": 425, "\u25811996": 426, "\u25811997": 427, "\u25811998": 428, "\u25811998,": 429, "\u25811999": 430, "2": 431, "-2": 432, "%2": 433, "\u25812": 434, "\u2581(2": 435, "\u2581(2)": 436, "\u2581[2": 437, "\u25812,": 438, "\u25812:": 439, "\u25812.": 440, "\u25812)": 441, "2)": 442, "20": 443, "-20": 444, "\u258120": 445, "\u2581(20": 446, "\u2581[20]": 447, "\u258120,": 448, "\u258120.": 449, "2.0": 450, "200": 451, "\u2581200": 452, "\u2581(200": 453, "\u2581[200]": 454, "\u25812000": 455, "\u2581[2,000]": 456, "\u25812,000": 457, "2,000": 458, "\u2581[20,000]": 459, "\u25812001": 460, "\u25812002": 461, "\u25812003": 462, "\u2581(2003)": 463, "\u25812003.": 464, "\u25812004": 465, "\u25812005": 466, "\u2581(2005)": 467, "\u25812006": 468, "\u25812006,": 469, "\u25812007": 470, "\u25812008": 471, "\u25812008,": 472, "\u25812009": 473, "\u2581(2009)": 474, "\u25812009.": 475, "\u25812009-10-0": 476, "\u25812009-11-": 477, "201": 478, "\u25812010": 479, "\u25812010.": 480, "\u25812011": 481, "\u25812011.": 482, "\u25812012": 483, "\u25812013": 484, "\u25812014": 485, "\u25812014.": 486, "\u25812015": 487, "\u25812015.": 488, "\u25812016": 489, "\u25812017": 490, "\u25812018": 491, "\u25812019": 492, "\u25812019-09-": 493, "\u25812019-12-": 494, "\u25812019-12-1": 495, "\u25812020": 496, "\u25812020-01-0": 497, "21": 498, "\u258121": 499, "\u2581[21]": 500, "\u258121,": 501, "\u258121.": 502, "\u2581214": 503, "22": 504, "\u258122": 505, "\u2581[22]": 506, "\u258122,": 507, "\u258122.": 508, "\u258122]": 509, "220": 510, "224": 511, "23": 512, "\u258123": 513, "\u2581[23]": 514, "\u258123,": 515, "\u258123.": 516, "\u258123]": 517, "\u2581230": 518, "\u2581[230]": 519, "234": 520, "235": 521, "\u2581[235]": 522, "237": 523, "238": 524, "239": 525, "24": 526, "\u258124": 527, "\u2581[24]": 528, "\u258124,": 529, "\u258124:": 530, "\u258124.": 531, "240": 532, "\u2581[240]": 533, "\u25812483": 534, "25": 535, "\u258125": 536, "\u2581[25]": 537, "\u258125,": 538, "\u258125:": 539, "\u258125.": 540, "250": 541, "\u2581250": 542, "\u2581[250]": 543, "\u2581[2,500]": 544, "\u25812,500": 545, "254": 546, "255": 547, "256": 548, "258": 549, "26": 550, "\u258126": 551, "\u25812.6": 552, "\u258126,": 553, "\u258126.": 554, "\u258126]": 555, "260": 556, "262": 557, "267": 558, "269": 559, "27": 560, "\u258127": 561, "\u258127,": 562, "\u258127.": 563, "270": 564, "275": 565, "277": 566, "278": 567, "279": 568, "28": 569, "\u258128": 570, "\u258128,": 571, "\u258128.": 572, "280": 573, "283": 574, "289": 575, "29": 576, "\u258129": 577, "\u258129,": 578, "\u258129.": 579, "292": 580, "293": 581, "3": 582, "-3": 583, "\u25813": 584, "\u2581(3": 585, "\u2581(3)": 586, "\u2581[3": 587, "\u25813,": 588, "\u25813:": 589, "\u25813.": 590, "\u25813)": 591, "3)": 592, "30": 593, "\u258130": 594, "\u2581[30]": 595, "\u258130,": 596, "\u258130:": 597, "\u258130.": 598, "300": 599, "\u2581300": 600, "\u2581[300]": 601, "\u25813000": 602, "\u2581[3,000]": 603, "\u25813,000": 604, "3,000": 605, "\u2581[30,000]": 606, "\u2581[300,000]": 607, "305": 608, "306": 609, "309": 610, "31": 611, "\u258131": 612, "\u258131,": 613, "\u258131.": 614, "310": 615, "\u2581316": 616, "\u2581316-2,": 617, "\u2581316-2:": 618, "\u25813166": 619, "\u25813166-2": 620, "\u25813166-2:": 621, "32": 622, "\u258132": 623, "\u2581[32]": 624, "\u258132.": 625, "325": 626, "329": 627, "33": 628, "\u258133": 629, "\u258133.": 630, "330": 631, "\u2581330,": 632, "333": 633, "335": 634, "34": 635, "\u258134": 636, "\u258134,": 637, "\u258134.": 638, "340": 639, "35": 640, "\u258135": 641, "\u2581[35]": 642, "\u258135:": 643, "\u258135.": 644, "350": 645, "\u2581[3,500]": 646, "\u25813,500": 647, "351": 648, "352": 649, "354": 650, "355": 651, "356": 652, "358": 653, "359": 654, "36": 655, "\u258136": 656, "\u258136:": 657, "\u258136.": 658, "360": 659, "363": 660, "364": 661, "365": 662, "369": 663, "37": 664, "\u258137": 665, "\u258137.": 666, "370": 667, "373": 668, "376": 669, "377": 670, "379": 671, "38": 672, "\u258138": 673, "\u258138.": 674, "380": 675, "384": 676, "39": 677, "\u258139": 678, "\u258139.": 679, "393": 680, "395": 681, "398": 682, "399": 683, "4": 684, "\u25814": 685, "\u2581(4)": 686, "\u2581[4": 687, "\u25814,": 688, "\u25814:": 689, "\u25814.": 690, "\u25814)": 691, "4.": 692, "4)": 693, "4]": 694, "40": 695, "\u258140": 696, "\u2581[40]": 697, "\u258140.": 698, "400": 699, ",400]": 700, "\u2581400": 701, "\u2581[400]": 702, "\u2581[4,000]": 703, "\u25814,000": 704, "4,000": 705, "405": 706, "41": 707, "\u258141": 708, "42": 709, "\u258142": 710, "\u258142.": 711, "43": 712, "\u258143": 713, "433": 714, "435": 715, "437": 716, "439": 717, "44": 718, "\u258144": 719, "\u258144.": 720, "443": 721, "444": 722, "448": 723, "449": 724, "45": 725, "\u258145": 726, "\u258145.": 727, "450": 728, "\u2581[450]": 729, "455": 730, "46": 731, "\u258146": 732, "460": 733, "467": 734, "47": 735, "\u258147": 736, "470": 737, "472": 738, "473": 739, "474": 740, "475": 741, "477": 742, "478": 743, "479": 744, "\u258148": 745, "480": 746, "481": 747, "483": 748, "484": 749, "485": 750, "488": 751, "\u258149": 752, "490": 753, "492": 754, "493": 755, "496": 756, "497": 757, "498": 758, "499": 759, "5": 760, "\u25815": 761, "\u2581(5": 762, "\u2581(5)": 763, "\u2581[5": 764, "\u25815,": 765, "\u25815:": 766, "\u25815.": 767, "\u25815]": 768, "5)": 769, "50": 770, "\u258150": 771, "\u2581[50]": 772, "50)": 773, "500": 774, ",500]": 775, "\u2581500": 776, "\u2581[500]": 777, "\u2581[5,000]": 778, "5,000": 779, "\u2581[50,000]": 780, "\u2581[500,000]": 781, "501": 782, "51": 783, "\u258151": 784, "\u258152": 785, "53": 786, "\u258153": 787, "\u258153:": 788, "533": 789, "535": 790, "536": 791, "537": 792, "\u2581537": 793, "\u2581539": 794, "54": 795, "\u258154": 796, "543": 797, "544": 798, "547": 799, "548": 800, "55": 801, "\u258155": 802, "550": 803, "551": 804, "552": 805, "553": 806, "555": 807, "556": 808, "557": 809, "558": 810, "559": 811, "56": 812, "\u258156": 813, "560": 814, "562": 815, "563": 816, "564": 817, "567": 818, "568": 819, "569": 820, "57": 821, "\u258157": 822, "570": 823, "571": 824, "572": 825, "573": 826, "574": 827, "575": 828, "576": 829, "578": 830, "579": 831, "58": 832, "\u258158": 833, "580": 834, "581": 835, "583": 836, "584": 837, "585": 838, "587": 839, "588": 840, "589": 841, "59": 842, "\u258159": 843, "592": 844, "596": 845, "597": 846, "599": 847, "6": 848, "\u25816": 849, "\u2581(6": 850, "\u2581[6": 851, "\u25816,": 852, "\u25816:": 853, "\u25816.": 854, "6)": 855, "6]": 856, "60": 857, "\u258160": 858, "60]": 859, "600": 860, ",600]": 861, "\u2581600": 862, "\u2581[600]": 863, "\u2581[6,000]": 864, "\u25816,000": 865, "6,000": 866, "601": 867, "605": 868, "\u2581607": 869, "61": 870, "\u258161": 871, "62": 872, "\u258162": 873, "620": 874, "625": 875, "\u258163": 876, "635": 877, "636": 878, "639": 879, "\u258164": 880, "64)": 881, "640": 882, "642": 883, "643": 884, "644": 885, "647": 886, "648": 887, "649": 888, "65": 889, "\u258165": 890, "\u2581[65]": 891, "650": 892, "656": 893, "657": 894, "659": 895, "66": 896, "\u258166": 897, "\u2581[66]": 898, "662": 899, "663": 900, "664": 901, "665": 902, "666": 903, "667": 904, "669": 905, "67": 906, "\u258167": 907, "670": 908, "672": 909, "673": 910, "674": 911, "675": 912, "676": 913, "678": 914, "679": 915, "68": 916, "\u258168": 917, "680": 918, "681": 919, "683": 920, "684": 921, "685": 922, "687": 923, "689": 924, "69": 925, "\u258169": 926, "691": 927, "693": 928, "695": 929, "696": 930, "697": 931, "698": 932, "699": 933, "7": 934, "\u25817": 935, "\u2581[7": 936, "\u25817,": 937, "\u25817:": 938, "\u25817.": 939, "7)": 940, "7]": 941, "70": 942, "\u258170": 943, "\u2581(70": 944, "\u2581[70]": 945, "700": 946, "\u2581700": 947, "\u2581[700]": 948, "\u2581[7,000]": 949, "\u25817,000": 950, "7,000": 951, "701": 952, "705": 953, "706": 954, "71": 955, "\u258171": 956, "718": 957, "72": 958, "\u258172": 959, "73": 960, "\u258173": 961, "735": 962, "736": 963, "737": 964, "74": 965, "\u258174": 966, "740": 967, "747": 968, "748": 969, "749": 970, "75": 971, "\u258175": 972, "750": 973, "751": 974, "753": 975, "754": 976, "755": 977, "757": 978, "758": 979, "76": 980, "\u258176": 981, "760": 982, "762": 983, "763": 984, "766": 985, "767": 986, "768": 987, "769": 988, "77": 989, "\u258177": 990, "770": 991, "774": 992, "775": 993, "776": 994, "777": 995, "778": 996, "779": 997, "78": 998, "\u258178": 999, "780": 1000, "781": 1001, "783": 1002, "785": 1003, "788": 1004, "789": 1005, "79": 1006, "\u258179": 1007, "791": 1008, "792": 1009, "793": 1010, "795": 1011, "796": 1012, "797": 1013, "798": 1014, "799": 1015, "8": 1016, "-8": 1017, "\u25818": 1018, "\u2581(8": 1019, "\u25818,": 1020, "\u25818:": 1021, "\u25818.": 1022, "\u25818.)": 1023, "8-": 1024, "8)": 1025, "8]": 1026, "80": 1027, "\u258180": 1028, "\u2581[80]": 1029, "800": 1030, "\u2581[800]": 1031, "8,000": 1032, "801": 1033, "805": 1034, "806": 1035, "\u258181": 1036, "82": 1037, "\u258182": 1038, "83": 1039, "\u258183": 1040, "836": 1041, "837": 1042, "84": 1043, "\u258184": 1044, "840": 1045, "843": 1046, "844": 1047, "845": 1048, "846": 1049, "847": 1050, "848": 1051, "849": 1052, "85": 1053, "\u258185": 1054, "850": 1055, "851": 1056, "852": 1057, "853": 1058, "854": 1059, "855": 1060, "855)": 1061, "856": 1062, "857": 1063, "858": 1064, "859": 1065, "86": 1066, "\u258186": 1067, "860": 1068, "861": 1069, "862": 1070, "863": 1071, "867": 1072, "87": 1073, "\u258187": 1074, "870": 1075, "871": 1076, "872": 1077, "873": 1078, "874": 1079, "875": 1080, "876": 1081, "877": 1082, "878": 1083, "879": 1084, "88": 1085, "\u258188": 1086, "880": 1087, "881": 1088, "883": 1089, "884": 1090, "885": 1091, "887": 1092, "888": 1093, "889": 1094, "89": 1095, "\u258189": 1096, "890": 1097, "891": 1098, "892": 1099, "893": 1100, "895": 1101, "896": 1102, "897": 1103, "898": 1104, "899": 1105, "9": 1106, "\u25819": 1107, "\u2581(9": 1108, "\u2581[9": 1109, "\u25819,": 1110, "\u25819:": 1111, "\u25819.": 1112, "90": 1113, "\u258190": 1114, "\u2581[90]": 1115, "900": 1116, "\u2581[900]": 1117, "9,000": 1118, "906": 1119, "91": 1120, "\u258191": 1121, "92": 1122, "\u258192": 1123, "93": 1124, "\u258193": 1125, "930": 1126, "939": 1127, "94": 1128, "\u258194": 1129, "95": 1130, "\u258195": 1131, "950": 1132, "952": 1133, "955": 1134, "956": 1135, "959": 1136, "96": 1137, "\u258196": 1138, "962": 1139, "963": 1140, "966": 1141, "967": 1142, "969": 1143, "97": 1144, "\u258197": 1145, "970": 1146, "971": 1147, "972": 1148, "973": 1149, "974": 1150, "978": 1151, "\u2581978-": 1152, "\u2581978-0": 1153, "\u2581978-3-": 1154, "979": 1155, "98": 1156, "\u258198": 1157, "980": 1158, "981": 1159, "983": 1160, "984": 1161, "988": 1162, "989": 1163, "99": 1164, "\u258199": 1165, "991": 1166, "992": 1167, "993": 1168, "994": 1169, "995": 1170, "996": 1171, "997": 1172, "998": 1173, "999": 1174, "a": 1175, "\u2581a": 1176, "A": 1177, "\u2581A": 1178, "\u00e1": 1179, "\u2581\u00e1": 1180, "\u00c1": 1181, "\u2581\u00c1": 1182, "\u00e0": 1183, "\u2581\u00e0": 1184, "\u00c0": 1185, "\u2581\u00c0": 1186, "\u0103": 1187, "\u00e2": 1188, "\u1ea5": 1189, "\u01ce": 1190, "\u00e5": 1191, "\u00c5": 1192, "\u00e4": 1193, "\u00c4": 1194, "\u00e3": 1195, "\u00c3": 1196, "\u0226": 1197, "\u0105": 1198, "\u0101": 1199, "\u0100": 1200, "\u1ea1": 1201, "\u1ea0": 1202, "\u00e0\u00e1": 1203, "\u2581\u00e0\u00e1": 1204, "\u00e1\u00e0": 1205, "\u2581\u00c1\u00e0": 1206, "\u2581\u00c0\u00e0": 1207, "\u00e1\u00e0\u00e1r\u00edn": 1208, "\u00e0\u00e0b\u00f2": 1209, "\u2581\u00e0\u00e0b\u00f2": 1210, "\u2581\u00c0\u00e0b\u00f2": 1211, "\u2581\u00e0\u00e1d\u00f3": 1212, "\u2581\u00c0\u00e1d\u00f3": 1213, "\u2581\u00e0\u00e1d\u1ecd": 1214, "\u2581\u00e0\u00e1d\u00f3je": 1215, "\u2581\u00e0\u00e0fin": 1216, "\u2581aago": 1217, "\u00e0\u00e1j\u00ec": 1218, "\u2581a\u00e1j\u00f2": 1219, "aaju": 1220, "\u2581\u00e1\u00e0k\u00ec": 1221, "\u2581\u00e0\u00e0l\u00e0": 1222, "\u00e0\u00e1n\u00fa": 1223, "\u2581\u00e0\u00e1n\u00fa": 1224, "\u2581\u00c0\u00e1n\u00fa": 1225, "\u2581a\u00e1p\u1ecdn": 1226, "\u2581\u00e0\u00e0r\u00e1": 1227, "\u2581Aare": 1228, "\u00e0\u00e1r\u00e8": 1229, "\u2581\u00c0\u00e1r\u00e8": 1230, "\u2581\u00e0\u00e0r\u1eb9": 1231, "\u2581\u00c0\u00e0r\u1eb9": 1232, "\u00e0\u00e1r\u00edn": 1233, "\u2581\u00e0\u00e1r\u00edn": 1234, "\u2581\u00c0\u00e1r\u00edn": 1235, "\u2581\u00e0\u00e1r\u00f2": 1236, "\u2581\u00c0\u00e1r\u00f2": 1237, "\u2581Aaron": 1238, "\u2581\u00c1\u00e1r\u00f3n\u00ec": 1239, "\u2581\u00e0\u00e0r\u00f9n": 1240, "\u2581a\u00e1s\u00eck\u00ed": 1241, "\u2581\u00e0\u00e0t\u00f2": 1242, "\u2581\u00c0\u00e0t\u00f2": 1243, "\u2581\u00e0\u00e0w": 1244, "\u2581\u00e0\u00e1y\u00e1": 1245, "\u2581a\u00e1y\u00e1n": 1246, "\u00e0\u00e0y\u00e8": 1247, "\u2581\u00e0\u00e0y\u00e8": 1248, "\u00c0\u00e0y\u00e8": 1249, "\u2581\u00c0\u00e0y\u00e8": 1250, "\u2581\u00e0\u00e0y\u00f2": 1251, "\u2581a\u00e1y\u00f9": 1252, "ab": 1253, "\u2581Ab": 1254, "\u2581Aba": 1255, "\u2581\u00e0b\u00e1": 1256, "\u2581\u00c0b\u00e1": 1257, "\u2581\u00c0B\u00c1": 1258, "\u2581\u00e0b\u00e0": 1259, "\u2581\u00e0b\u00e1j\u00e1de": 1260, "\u2581ab\u00e1j\u1ecd": 1261, "\u2581Ab\u00e1j\u1ecd": 1262, "\u2581abala": 1263, "\u2581Abala": 1264, "\u2581\u00e0b\u00e1l\u00e1y\u00e9": 1265, "\u2581ab\u00e0m\u00ec": 1266, "\u2581ab\u00e1n\u00e1": 1267, "abanbar\u00ec": 1268, "\u2581abandon": 1269, "\u2581abandoned": 1270, "\u2581ab\u00e1ni": 1271, "\u2581Ab\u00e1ni": 1272, "\u2581ab\u00e1nir": 1273, "ABAR": 1274, "\u2581abarap\u00e1": 1275, "\u2581\u00e0b\u00e1w\u1ecdl\u00e9": 1276, "\u2581\u00c0b\u00e1y": 1277, "\u2581\u00e0b\u00e1y\u1ecd": 1278, "abb": 1279, "\u2581Abd": 1280, "\u2581Abdul": 1281, "\u2581Abdullah": 1282, "\u2581ab\u00e9": 1283, "\u2581Ab\u00e9": 1284, "\u2581\u00c0b\u00e9": 1285, "\u2581\u00e0b\u00e8": 1286, "\u2581ab\u1eb9": 1287, "\u2581Ab\u1eb9": 1288, "\u2581Abel": 1289, "\u2581ab\u1eb9nugan": 1290, "\u2581Abeokuta": 1291, "\u2581ab\u00e8\u1e63e": 1292, "\u2581abhor": 1293, "\u2581Abi": 1294, "\u2581\u00c1b\u00ed": 1295, "\u2581\u00e0b\u00ed": 1296, "\u2581\u00c0b\u00ed": 1297, "\u00c0B\u00cd": 1298, "\u2581Abia": 1299, "\u2581abide": 1300, "\u2581abiding": 1301, "\u2581Abigail": 1302, "\u2581\u00c1b\u00edj\u00e0": 1303, "\u2581Abijah": 1304, "\u2581abil\u00e0": 1305, "\u2581abilities": 1306, "ability": 1307, "\u2581ability": 1308, "\u2581abinibi": 1309, "\u2581ab\u00ednib\u00ed": 1310, "\u2581\u00e0b\u00ednib\u00ed": 1311, "\u2581\u00c1b\u00edr\u00e1m\u00f9": 1312, "\u2581abir\u00f9n": 1313, "\u2581\u00c1b\u00ed\u1e63\u00e1\u00ec": 1314, "\u2581abiso": 1315, "\u2581abiyam\u1ecd": 1316, "\u2581Abiyam\u1ecd": 1317, "able": 1318, "\u2581able": 1319, "ABLE": 1320, "ably": 1321, "\u2581abnormal": 1322, "\u2581abo": 1323, "\u2581Abo": 1324, "\u2581ab\u00f3": 1325, "\u2581ab\u00f2": 1326, "\u00e0b\u00f2": 1327, "\u2581\u00e0b\u00f2": 1328, "\u2581\u00e0b\u1ecd": 1329, "\u2581\u00e0b\u00f3j\u00fat\u00f3": 1330, "\u2581abolish": 1331, "Abort": 1332, "\u2581aborted": 1333, "\u2581abortion": 1334, "\u2581\u00e0b\u00f2s\u00ed": 1335, "\u2581abound": 1336, "about": 1337, "\u2581about": 1338, "About": 1339, "\u2581About": 1340, "\u2581ABOUT": 1341, "\u2581above": 1342, "\u2581Above": 1343, "\u2581aboy\u00fan": 1344, "Abraham": 1345, "\u2581Abraham": 1346, "\u2581Abram": 1347, "\u2581abroad": 1348, "\u2581abrupt": 1349, "\u2581Absalom": 1350, "\u2581absence": 1351, "\u2581absent": 1352, "\u2581absolute": 1353, "\u2581absolutely": 1354, "\u2581Absolutely": 1355, "\u2581absorb": 1356, "\u2581absorbed": 1357, "\u2581abstain": 1358, "\u2581abstract": 1359, "\u2581Abu": 1360, "\u00e0b\u00f9": 1361, "\u2581\u00e0b\u00f9": 1362, "\u2581\u00c0b\u00f9": 1363, "\u2581Abubakar": 1364, "\u2581\u00e0b\u00f9d\u00e1": 1365, "\u2581ab\u00fagb\u00e0\u00f9": 1366, "\u2581Abuja": 1367, "\u2581\u00c0b\u00faj\u00e1": 1368, "\u2581\u00e0b\u00f9k\u00f9": 1369, "\u2581abule": 1370, "\u2581ab\u00fal\u00e9": 1371, "\u2581Ab\u00fal\u00e9": 1372, "\u2581abundance": 1373, "\u2581abundant": 1374, "\u00c1b\u00far\u00e1h\u00e1m\u00f9": 1375, "\u2581\u00c1b\u00far\u00e1h\u00e1m\u00f9": 1376, "\u2581\u00c1b\u00far\u00e1m\u00f9": 1377, "\u2581\u00e0b\u00far\u00f2": 1378, "\u2581\u00c0b\u00far\u00f2": 1379, "\u2581abur\u00fa": 1380, "\u2581\u00c1b\u00fas\u00e1l\u00f3m\u00f9": 1381, "\u2581abuse": 1382, "\u2581abused": 1383, "\u2581abusing": 1384, "\u2581abusive": 1385, "\u2581\u00e0b\u00f9\u00f9b\u00f9t\u00e1n": 1386, "\u2581abyss": 1387, "ac": 1388, "\u2581Ac": 1389, "\u2581academic": 1390, "\u2581Academy": 1391, "\u2581accelerat": 1392, "\u2581accept": 1393, "\u2581Accept": 1394, "\u2581acceptable": 1395, "\u2581acceptance": 1396, "\u2581accepted": 1397, "\u2581accepting": 1398, "\u2581access": 1399, "\u2581Access": 1400, "\u2581accessibility": 1401, "\u2581Accessibility": 1402, "\u2581accessible": 1403, "\u2581accident": 1404, "\u2581accidents": 1405, "\u2581accommodate": 1406, "\u2581accommodations": 1407, "\u2581accompanie": 1408, "\u2581accompany": 1409, "\u2581accomplish": 1410, "\u2581accomplished": 1411, "\u2581accomplishing": 1412, "\u2581accomplishment": 1413, "\u2581accord": 1414, "according": 1415, "\u2581according": 1416, "\u2581According": 1417, "\u2581Accordingly": 1418, "\u2581account": 1419, "\u2581Account": 1420, "\u2581accountable": 1421, "\u2581accounts": 1422, "\u2581accumulat": 1423, "\u2581accumulate": 1424, "\u2581accuracy": 1425, "\u2581accurate": 1426, "\u2581Accurate": 1427, "\u2581accurately": 1428, "\u2581accusation": 1429, "\u2581accusations": 1430, "\u2581accuse": 1431, "\u2581accused": 1432, "\u2581accusing": 1433, "\u2581accustomed": 1434, "\u2581Acerentom": 1435, "\u2581Aceretomidae": 1436, "ach": 1437, "ache": 1438, "\u2581achieve": 1439, "\u2581achieved": 1440, "\u2581achievement": 1441, "\u2581achieving": 1442, "\u2581acid": 1443, "ack": 1444, "\u2581acknowledg": 1445, "\u2581acknowledge": 1446, "\u2581acknowledged": 1447, "\u2581acquaintance": 1448, "\u2581acquainted": 1449, "\u2581Acquir": 1450, "\u2581acquire": 1451, "\u2581acquired": 1452, "\u2581acquiring": 1453, "\u2581across": 1454, "act": 1455, "\u2581act": 1456, "\u2581Act": 1457, "\u2581acted": 1458, "\u2581acting": 1459, "action": 1460, "\u2581action": 1461, "\u2581Action": 1462, "\u2581actions": 1463, "activ": 1464, "Activate": 1465, "\u2581active": 1466, "\u2581actively": 1467, "\u2581activities": 1468, "\u2581activity": 1469, "\u2581actress": 1470, "\u2581acts": 1471, "\u2581Acts": 1472, "ACTS": 1473, "\u2581actual": 1474, "\u2581actually": 1475, "\u2581Actually": 1476, "\u2581acute": 1477, "acy": 1478, "ad": 1479, "\u2581Ad": 1480, "AD": 1481, "ada": 1482, "\u2581\u00e0d\u00e1": 1483, "\u2581\u00e0d\u00e0": 1484, "\u2581\u00e0d\u00e0b\u00e0": 1485, "\u2581\u00e0d\u00e1d\u00f3": 1486, "\u2581ad\u00e1g\u00fan": 1487, "\u2581Ad\u00e1g\u00fan": 1488, "\u2581\u00e0d\u00e0k\u00e0dek\u00e8": 1489, "\u2581\u00e0d\u00e0k\u1ecd": 1490, "\u00c0d\u00e0k\u1ecd": 1491, "\u2581\u00c0d\u00e0k\u1ecd": 1492, "Adam": 1493, "\u2581Adam": 1494, "\u2581\u00c1d\u00e1m": 1495, "\u2581\u00e0d\u00e1m": 1496, "\u2581\u00c0d\u00e1m": 1497, "\u2581Adamawa": 1498, "\u2581Adams": 1499, "\u00c1d\u00e1m\u00f9": 1500, "\u2581\u00c1d\u00e1m\u00f9": 1501, "\u2581\u00e0d\u00e1ni": 1502, "adanida": 1503, "\u2581\u00e0d\u00e1nid\u00e1": 1504, "\u2581\u00e0d\u00e1n\u00f9": 1505, "\u2581\u00c0d\u00e1n\u00f9": 1506, "\u2581\u00e0d\u00e1nw\u00f2": 1507, "\u2581\u00c0d\u00e1nw\u00f2": 1508, "\u2581adapt": 1509, "\u2581adar\u00ed": 1510, "\u2581ad\u00e0w\u00e9k\u1ecd": 1511, "\u2581add": 1512, "Add": 1513, "\u2581Add": 1514, "\u2581added": 1515, "\u2581addict": 1516, "\u2581addiction": 1517, "\u2581adding": 1518, "\u2581addition": 1519, "\u2581additional": 1520, "\u2581Additional": 1521, "\u2581Additionally": 1522, "\u2581address": 1523, "Address": 1524, "\u2581Address": 1525, "\u2581addressed": 1526, "\u2581adds": 1527, "ade": 1528, "\u2581Ade": 1529, "\u2581ad\u00e9": 1530, "\u2581Ad\u00e9": 1531, "\u2581Adebayo": 1532, "\u2581Ad\u00e9b\u00e1y\u1ecd": 1533, "\u2581Adegbit": 1534, "\u2581\u00e0d\u00e9h\u00f9n": 1535, "\u2581\u00c0d\u00e9h\u00f9n": 1536, "\u2581Adekunle": 1537, "\u2581adequate": 1538, "\u2581Ad\u00e9w\u00e1l\u00e9": 1539, "\u2581adher": 1540, "\u2581adhere": 1541, "\u2581adherents": 1542, "\u2581\u00e0d\u00ec\u00ect\u00fa": 1543, "\u2581\u00e0d\u00edr": 1544, "\u2581\u00e0d\u00edr\u1eb9": 1545, "\u00c0d\u00edr\u1eb9": 1546, "\u2581\u00c0d\u00edr\u1eb9": 1547, "\u2581adit\u00ed": 1548, "\u2581Adit\u00ed": 1549, "\u2581ad\u00ecy\u1eb9": 1550, "\u2581adj": 1551, "\u2581adjust": 1552, "\u2581Adjust": 1553, "\u2581adjusted": 1554, "\u2581adjustment": 1555, "\u2581adjustments": 1556, "\u2581administer": 1557, "\u2581administration": 1558, "\u2581Administration": 1559, "\u2581administrator": 1560, "\u2581admirable": 1561, "\u2581admiration": 1562, "\u2581admire": 1563, "\u2581admired": 1564, "\u2581admission": 1565, "\u2581admit": 1566, "\u2581admits": 1567, "\u2581admitted": 1568, "\u2581admonish": 1569, "\u2581admonished": 1570, "\u2581admonishes": 1571, "\u2581admonition": 1572, "ado": 1573, "\u2581adolescence": 1574, "\u2581adolescent": 1575, "\u2581Adolf": 1576, "\u2581adopt": 1577, "\u2581adopted": 1578, "\u2581adoption": 1579, "ador": 1580, "\u2581adorn": 1581, "\u2581Adrian": 1582, "Adua": 1583, "\u2581\u00c0d\u00fagb": 1584, "\u2581adugbo": 1585, "Ad\u00fagb\u00f2": 1586, "\u2581\u00e0d\u00fagb\u00f2": 1587, "\u2581\u00c0d\u00fagb\u00f2": 1588, "\u2581ad\u00fal\u00e1w": 1589, "\u2581Ad\u00fal\u00e1w": 1590, "\u2581adult": 1591, "\u2581Adult": 1592, "\u2581adultery": 1593, "\u2581adulthood": 1594, "\u2581adults": 1595, "\u2581ad\u00f9n": 1596, "\u00e0d\u00far\u00e0": 1597, "\u2581\u00e0d\u00far\u00e0": 1598, "\u00c0d\u00far\u00e0": 1599, "\u2581\u00c0d\u00far\u00e0": 1600, "\u2581ad\u00far\u00f3\u1e63\u00e1n\u1e63\u00e1n": 1601, "\u2581ad\u00far\u00f3\u1e63in\u1e63in": 1602, "\u2581Ad\u00far\u00f3\u1e63in\u1e63in": 1603, "\u2581adv": 1604, "\u2581advance": 1605, "\u2581Advance": 1606, "\u2581advanced": 1607, "\u2581advancement": 1608, "\u2581advancing": 1609, "\u2581advantage": 1610, "\u2581advantages": 1611, "\u2581adversary": 1612, "\u2581adverse": 1613, "\u2581adversities": 1614, "\u2581adversity": 1615, "\u2581advertise": 1616, "\u2581advertisements": 1617, "\u2581advertising": 1618, "\u2581advice": 1619, "\u2581advise": 1620, "\u2581advised": 1621, "\u2581adviser": 1622, "\u2581advocate": 1623, "\u00e6": 1624, "\u2581Aegean": 1625, "af": 1626, "\u2581Af": 1627, "\u2581\u00e0f\u00e0": 1628, "\u2581\u00c0f\u00e0": 1629, "\u2581af\u00e0\u00ecs\u00e0n": 1630, "\u2581af\u00e1r\u00e1": 1631, "\u2581af\u00e9": 1632, "\u2581\u00e0f\u00e9": 1633, "\u2581\u00e0f\u1eb9nus\u1ecd": 1634, "\u2581affair": 1635, "\u2581affairs": 1636, "\u2581Affairs": 1637, "affect": 1638, "\u2581affect": 1639, "\u2581Affect": 1640, "\u2581affected": 1641, "\u2581affection": 1642, "\u2581affirm": 1643, "\u2581afflict": 1644, "\u2581afflicted": 1645, "\u2581affliction": 1646, "\u2581affluent": 1647, "\u2581afford": 1648, "AFI": 1649, "\u2581\u00e0fi": 1650, "\u2581\u00c0fi": 1651, "\u00e0fih\u00e0n": 1652, "\u2581\u00e0fih\u00e0n": 1653, "\u2581\u00e0f\u00edk": 1654, "\u2581afikun": 1655, "\u00e0fik\u00fan": 1656, "\u2581\u00e0fik\u00fan": 1657, "\u2581afini": 1658, "\u2581afinih\u00e0n": 1659, "\u2581\u00e0fip\u00e1\u1e63e": 1660, "\u2581Afirika": 1661, "\u2581Af\u00edr\u00edk\u00e0": 1662, "\u2581\u00c1f\u00edr\u00edk\u00e0": 1663, "\u2581\u00c1F\u00cdR\u00cdK\u00c0": 1664, "\u2581\u00e0fi\u1e63": 1665, "\u2581\u00e0fi\u1e63\u00e0p\u1eb9\u1eb9r\u1eb9": 1666, "\u2581\u00e0fi\u1e63el\u00e9": 1667, "\u2581\u00e0fiw\u00e9": 1668, "\u2581\u00e0fiy\u00e8s\u00ed": 1669, "\u2581af\u00f3": 1670, "\u2581af\u1ecd": 1671, "Af\u1ecd": 1672, "\u2581\u00c0f\u1ecd": 1673, "\u00e0foj\u00fadi": 1674, "\u2581\u00e0foj\u00fas\u00f9n": 1675, "\u00c0foj\u00fas\u00f9n": 1676, "\u2581\u00e0fon\u00edfoj\u00ec": 1677, "\u2581\u00e0for\u00edj\u00ec": 1678, "\u2581\u00e0f\u1ecdw": 1679, "\u2581afraid": 1680, "Africa": 1681, "\u2581Africa": 1682, "\u2581African": 1683, "\u2581Afrika": 1684, "\u2581\u00c1fr\u00edk\u00e0": 1685, "\u2581Afro": 1686, "after": 1687, "\u2581after": 1688, "After": 1689, "\u2581After": 1690, "\u2581afternoon": 1691, "\u2581afterward": 1692, "\u2581Afterward": 1693, "\u2581af\u00fanni": 1694, "\u2581af\u00fannil\u00f3kun": 1695, "\u2581af\u00fanr\u00fagb\u00ecn": 1696, "ag": 1697, "\u2581Ag": 1698, "\u2581\u00e0ga": 1699, "\u2581\u00e0g\u00e0b\u00e0geb\u00e8": 1700, "\u2581Agademi": 1701, "\u2581\u00e0g\u00e0g\u00e0": 1702, "\u2581again": 1703, "\u2581Again": 1704, "\u2581against": 1705, "\u2581Against": 1706, "\u2581\u00e0g\u00e1l\u00e1m\u00e0\u1e63\u00e0": 1707, "\u2581agba": 1708, "\u2581Agba": 1709, "\u2581\u00e0gb\u00e1": 1710, "\u2581\u00c0gb\u00e1": 1711, "\u00e0gb\u00e0": 1712, "\u2581\u00e0gb\u00e0": 1713, "\u2581\u00c0gb\u00e0": 1714, "\u2581\u00e0gb\u00e0\u00e0gb\u00e0": 1715, "\u2581agb\u00e1b": 1716, "\u2581agbaboolu": 1717, "\u2581\u00c0gb\u00e1d\u00e1r\u00ecg\u00ec": 1718, "\u2581\u00e0gb\u00e0do": 1719, "\u2581\u00e0gb\u00e1j\u1ecd": 1720, "\u2581\u00e0gb\u00e1k\u00f2": 1721, "\u2581\u00e0gb\u00e0l\u00e1": 1722, "\u2581\u00e0gb\u00e0lagb\u00e0": 1723, "\u2581\u00c0gb\u00e0lagb\u00e0": 1724, "\u2581agbami": 1725, "\u2581agbani": 1726, "\u2581agbanin\u00edm": 1727, "\u2581agbara": 1728, "agb\u00e1ra": 1729, "\u2581agb\u00e1ra": 1730, "Agb\u00e1ra": 1731, "\u2581Agb\u00e1ra": 1732, "\u2581agb\u00e1r\u00ed": 1733, "agb\u00e1t\u1eb9r": 1734, "\u2581\u00e0gb\u00e0yanu": 1735, "\u2581\u00c0gb\u00e0yanu": 1736, "\u2581agbaye": 1737, "\u2581Agbaye": 1738, "\u2581\u00e0gb\u00e1y\u00e9": 1739, "\u2581\u00c0gb\u00e1y\u00e9": 1740, "\u2581agbe": 1741, "\u2581\u00e0gb\u00e9": 1742, "\u2581\u00e0gb\u00e8": 1743, "\u2581\u00c0gb\u00e8": 1744, "\u2581\u00e0gb\u1eb9": 1745, "\u2581agbegbe": 1746, "\u2581Agbegbe": 1747, "\u2581agb\u00e8gb\u00e8": 1748, "\u2581\u00e0gb\u00e8gb\u00e8": 1749, "\u2581\u00c0gb\u00e8gb\u00e8": 1750, "\u2581agb\u1eb9j": 1751, "\u2581Agb\u1eb9j": 1752, "\u2581\u00e0gb\u00e9j\u00e1de": 1753, "\u2581agbejoro": 1754, "\u2581\u00e0gb\u00e9kal\u00e8": 1755, "\u00e0gb\u00e9kal\u1eb9": 1756, "\u2581\u00e0gb\u00e9l\u00e9b\u00f9\u00fa": 1757, "\u2581\u00c0gb\u00e9l\u00e9b\u00f9\u00fa": 1758, "\u00e0gb\u00e9l\u00e9w\u00f2": 1759, "\u2581\u00e0gb\u00e9l\u00e9w\u00f2": 1760, "\u2581agb\u1eb9nus\u1ecd": 1761, "\u2581agb\u00e9raga": 1762, "\u00e0gb\u00e8r\u00e8": 1763, "\u2581\u00e0gb\u00e8r\u00e8": 1764, "\u2581Agb\u00e9r\u00f2y\u00ecn": 1765, "\u2581agb\u00e9r\u00f2y\u00ecnj\u00e1de": 1766, "\u00e0gb\u00e9w\u1ecdl\u00e9": 1767, "\u2581\u00e0gb\u00e9w\u1ecdl\u00e9": 1768, "\u00e0gb\u00e9y\u00e8": 1769, "\u2581\u00e0gb\u00e9y\u00e8": 1770, "agbo": 1771, "\u2581agbo": 1772, "\u2581Agbo": 1773, "\u2581\u00e0gb\u00f2": 1774, "\u2581agb\u00f3finr\u00f3": 1775, "\u2581agb\u00f3gunti": 1776, "\u2581\u00e0gb\u1ecdn": 1777, "\u2581agbool\u00e9": 1778, "\u2581agbow\u00f3": 1779, "age": 1780, "\u2581age": 1781, "\u2581Age": 1782, "AGE": 1783, "\u2581aged": 1784, "\u2581agencies": 1785, "\u2581agency": 1786, "\u2581agents": 1787, "ager": 1788, "\u2581ages": 1789, "\u2581aggravate": 1790, "\u2581aggression": 1791, "\u2581aggressive": 1792, "\u2581Ag\u00edg\u00edr": 1793, "\u2581aging": 1794, "\u2581aginj\u00f9": 1795, "\u2581\u00c0g\u00edr\u00edp\u00e0": 1796, "\u2581agitated": 1797, "\u2581Agnes": 1798, "agnostic": 1799, "ago": 1800, "\u2581ago": 1801, "\u2581\u00e0g\u00f3": 1802, "\u2581\u00c0g\u00f3": 1803, "\u2581agogo": 1804, "\u2581agolo": 1805, "\u2581agonizing": 1806, "\u2581agree": 1807, "\u2581agreed": 1808, "\u2581agreement": 1809, "\u2581agriculture": 1810, "\u2581Agriculture": 1811, "\u2581Agrippa": 1812, "\u2581\u00c0g\u00f9d\u00e0": 1813, "\u00e0g\u00f9nt\u00e0n": 1814, "\u2581\u00e0g\u00f9nt\u00e0n": 1815, "\u2581\u00c0g\u00f9nt\u00e0n": 1816, "ah": 1817, "\u2581Ahab": 1818, "\u2581\u00c1h\u00e1b\u00f9": 1819, "\u2581\u00e0h\u00e1m\u00f3": 1820, "\u2581Ahas\u00e1y\u00e0": 1821, "\u2581\u00c1h\u00e1s\u00ec": 1822, "\u2581Ahasuerus": 1823, "\u2581Ahasuw\u00e9r\u00fas\u00ec": 1824, "\u2581Ahaz": 1825, "\u2581ahead": 1826, "\u2581ah\u00e9r\u00e9": 1827, "\u2581ah\u1eb9r\u1eb9p\u1eb9": 1828, "\u2581\u00e0hes\u1ecd": 1829, "\u2581\u00c1h\u00ed": 1830, "\u2581Ahmad": 1831, "\u2581Ahmed": 1832, "\u2581ah\u00f3": 1833, "\u2581ahoro": 1834, "\u2581ah\u00f3yaya": 1835, "ai": 1836, "\u00e0\u00ec": 1837, "\u2581\u00e0\u00ec": 1838, "\u2581\u00c0\u00ec": 1839, "\u2581\u00e0\u00ecb\u00eck\u00edt\u00e0": 1840, "\u2581aid": 1841, "\u2581\u00e0\u00ecd\u00e1a": 1842, "\u2581\u00e0\u00ecd\u00e1nil\u00f3j\u00fa": 1843, "AIDS": 1844, "\u2581AIDS": 1845, "\u2581\u00e0\u00ecfarar\u1ecd": 1846, "\u2581\u00e0\u00ecf\u1eb9s\u1eb9": 1847, "\u2581\u00e0\u00ecfoj\u00far\u00ed": 1848, "\u2581\u00e0\u00ecgb\u1ecdr\u00e0n": 1849, "\u2581\u00e0\u00ecj\u1eb9unrek\u00e1n\u00fa": 1850, "\u00e1\u00edk\u00e0nn\u00f9": 1851, "\u2581\u00e1\u00edk\u00e0nn\u00f9": 1852, "\u00c1\u00edk\u00e0nn\u00f9": 1853, "\u2581\u00e0\u00ecl\u00e1b\u00f2s\u00ed": 1854, "\u2581\u00e0\u00ecl\u00e1l\u00e8\u00e9b\u00f9": 1855, "\u2581\u00e0\u00ecl\u00e9": 1856, "\u2581\u00e0\u00ecl\u00e8": 1857, "\u2581\u00c0\u00ecl\u00e8": 1858, "\u00e0\u00ecl\u00e9\u00e8\u00e9r\u00ed": 1859, "\u2581\u00e0\u00ecle\u00e8k\u00fa": 1860, "\u2581Aileen": 1861, "\u2581\u00e0\u00eclera": 1862, "\u2581\u00c0\u00eclera": 1863, "\u2581\u00e0\u00ecl\u00f3": 1864, "\u2581\u00e0\u00ecl\u00f3fin": 1865, "\u2581aim": 1866, "\u00e0\u00ecm\u00f3": 1867, "\u2581\u00e0\u00ecm\u00f2": 1868, "\u2581\u00e0\u00ecm\u1ecd": 1869, "\u2581\u00c0\u00ecm\u1ecd": 1870, "\u2581\u00e0\u00ecm\u1ecdye": 1871, "ain": 1872, "\u00e0\u00ecn\u00e1\u00e1n\u00ed": 1873, "\u2581\u00e0\u00ecn\u00ed": 1874, "\u2581\u00c0\u00ecn\u00ed": 1875, "\u2581\u00e0\u00ecn\u00edj\u00e0\u00e1nu": 1876, "\u2581\u00e0\u00ecn\u00edp": 1877, "\u2581\u00e0\u00ecn\u00edr\u00e8t\u00ed": 1878, "\u2581\u00e0\u00ecp\u00e9": 1879, "\u2581\u00c0\u00ecp\u00e9": 1880, "\u2581\u00c0\u00ecp\u1eb9": 1881, "\u2581air": 1882, "\u2581Air": 1883, "\u2581aircraft": 1884, "\u2581\u00e0\u00ecr\u00ed": 1885, "\u2581\u00c0\u00ecr\u00ed": 1886, "\u2581\u00e0\u00ecr\u00edl\u00e9gb\u00e9": 1887, "\u2581\u00e0\u00ecr\u00f3oruns\u00f9n": 1888, "\u2581\u00e0\u00ecr\u00f2t": 1889, "\u2581airplane": 1890, "\u2581airport": 1891, "\u2581\u00e0\u00ec\u1e63": 1892, "\u2581A\u00eds\u00e1": 1893, "\u2581A\u00cdS\u00c1": 1894, "\u2581aisan": 1895, "\u2581\u00e0\u00ecs\u00e0n": 1896, "\u2581\u00c0\u00ecs\u00e0n": 1897, "\u2581A\u00cdS\u00c1Y": 1898, "\u2581A\u00eds\u00e1y\u00e0": 1899, "\u2581\u00e0\u00ec\u1e63\u00e8": 1900, "\u2581\u00e0\u00ec\u1e63\u00e8gb\u00e8": 1901, "\u2581\u00e0\u00ecs\u00ed": 1902, "\u2581\u00e0\u00ec\u1e63\u00f2dodo": 1903, "\u2581\u00e0\u00ec\u1e63ojo": 1904, "\u2581\u00e0\u00ect\u00f3": 1905, "\u2581\u00e0\u00ecyed\u00e8": 1906, "\u2581Aiyeraiye": 1907, "\u2581aj\u00e1": 1908, "\u2581\u00e0j\u00e0": 1909, "\u2581\u00c0j\u00e0": 1910, "\u2581aj\u00e0f": 1911, "\u2581\u00e0j\u00e0g\u00e0": 1912, "\u2581aj\u00e0j\u00e0gbara": 1913, "\u2581\u00e0j\u00e0k\u00e1l": 1914, "\u2581\u00c0j\u00e0k\u00e1l": 1915, "\u2581\u00e0j\u00e0k\u00fa": 1916, "\u2581\u00e0j\u00e1k\u00f9": 1917, "\u2581\u00e0j\u00e1l\u00f9": 1918, "\u2581\u00c0j\u00e1l\u00f9": 1919, "\u2581\u00c0j\u00e0pad\u00e1": 1920, "\u2581\u00e0j\u00e0r\u00e0": 1921, "\u2581aje": 1922, "\u2581aj\u00e9": 1923, "\u2581Aj\u00e9": 1924, "\u00e0j\u00e9": 1925, "\u2581\u00e0j\u00e9": 1926, "\u2581\u00e0j\u1eb9": 1927, "\u2581\u00e0j\u00e8j\u00ec": 1928, "\u2581\u00c0j\u00e8j\u00ec": 1929, "\u2581\u00e0j\u1eb9j\u00f9": 1930, "\u2581\u00e0j\u1eb9k\u00ec": 1931, "\u2581Aj\u1eb9nt\u00edn\u00e0": 1932, "\u2581\u00e0j\u1eb9s\u00e1ra": 1933, "\u2581\u00e0j\u1eb9y\u00f3": 1934, "\u2581Aj\u00edb\u00f3gun": 1935, "\u2581ajigb\u00e8s\u00e8": 1936, "\u2581aj\u00edh\u00ecnrere": 1937, "\u2581Aj\u00edh\u00ecnrere": 1938, "\u00e0j\u00ed\u01f9de": 1939, "\u2581\u00e0j\u00ed\u01f9de": 1940, "\u00c0j\u00ed\u01f9de": 1941, "\u2581\u00c0j\u00ed\u01f9de": 1942, "\u00e0j\u00f2": 1943, "\u2581\u00e0j\u00f2": 1944, "\u2581\u00c0j\u00f2": 1945, "\u2581\u00e0j\u1ecd": 1946, "\u2581\u00c0j\u1ecd": 1947, "\u2581ajog\u00fan": 1948, "\u2581\u00e0jog\u00fanb\u00e1": 1949, "\u2581\u00e0j\u1ecdl\u00f2": 1950, "\u2581ajo\u00f2g\u00f9ny\u00f3": 1951, "\u2581\u00e0j\u1ecdp\u00edn": 1952, "\u2581\u00e0j\u1ecdr\u00f2de": 1953, "\u2581\u00e0j\u1ecd\u1e63e": 1954, "\u2581\u00c0j\u1ecd\u1e63e": 1955, "\u2581\u00e0j\u1ecd\u1e63ep\u1ecd": 1956, "\u2581\u00e0j\u1ecdy": 1957, "\u00e1j\u00fa": 1958, "\u00c1J\u00da": 1959, "\u2581\u00e0j\u00fab\u00e0f\u00fan": 1960, "aj\u00fad\u00e9": 1961, "\u2581\u00e0j\u00f9m\u00f2": 1962, "ak": 1963, "\u2581Ak": 1964, "aka": 1965, "\u2581\u00e0k\u00e1": 1966, "\u2581\u00c0k\u00e1": 1967, "\u2581\u00e0k\u00e0b\u00e0": 1968, "\u2581Ak\u00e1d\u1eb9": 1969, "\u2581Akademi": 1970, "\u2581\u00e0k\u00e1j\u1ecd": 1971, "\u2581\u00c0k\u00e1j\u1ecd": 1972, "\u2581\u00c0k\u00e0n": 1973, "\u2581\u00e0k\u00e0nl\u00f2": 1974, "\u2581\u00e0k\u00e0n\u1e63": 1975, "\u00e0k\u00e0n\u1e63e": 1976, "\u2581\u00e0k\u00e0n\u1e63e": 1977, "\u2581\u00e0k\u00e1\u01f9t\u00ec": 1978, "\u2581\u00e0k\u00e0r\u00e0": 1979, "\u2581\u00c0k\u00e0r\u00e0": 1980, "\u2581ak\u00e1t\u00e1": 1981, "\u2581\u00e0k\u00e0w\u00e9": 1982, "ake": 1983, "\u2581ak\u00e9": 1984, "\u2581Ak\u00e9": 1985, "\u2581AK\u00c9": 1986, "\u2581ak\u1eb9": 1987, "\u2581ak\u00e9de": 1988, "\u00e1k\u00e8j\u00e1d\u00f2": 1989, "\u2581akewi": 1990, "\u2581ak\u00e9w\u00ec": 1991, "aki": 1992, "\u2581Aki": 1993, "\u2581ak\u00edkanj\u00fa": 1994, "\u2581akin": 1995, "\u2581Akin": 1996, "\u2581Ak\u00edn": 1997, "\u2581ak\u00ednkanj\u00fa": 1998, "\u00e0kiri": 1999, "\u2581akitiyan": 2000, "\u2581\u00e0k\u00edy\u00e8s\u00ed": 2001, "\u2581\u00c0k\u00edy\u00e8s\u00ed": 2002, "\u2581ako": 2003, "\u00e0k\u00f3": 2004, "\u2581\u00e0k\u00f3": 2005, "\u2581\u00c0k\u00f3": 2006, "\u2581ak\u00f2": 2007, "\u2581\u00c0k\u00f2": 2008, "\u2581ak\u1ecd": 2009, "\u2581\u00e0k\u1ecd": 2010, "\u00c0k\u1ecd": 2011, "\u2581\u00c0k\u1ecd": 2012, "\u2581\u00e0k\u00f3b\u00e1": 2013, "\u2581akoewi": 2014, "\u2581\u00e0k\u00f3j\u1ecd": 2015, "\u2581\u00c0k\u00f3j\u1ecd": 2016, "\u2581\u00c0k\u00f3j\u1ecdp": 2017, "\u2581akoko": 2018, "\u2581\u00e0k\u00f3k\u00f3": 2019, "\u00e0k\u00f3k\u00f2": 2020, "\u2581\u00e0k\u00f3k\u00f2": 2021, "\u00c0k\u00f3k\u00f2": 2022, "\u2581\u00c0k\u00f3k\u00f2": 2023, "\u2581\u00c0K\u00d3K\u00d2": 2024, "\u2581ak\u1ecdk\u1ecd": 2025, "\u2581\u00e0k\u1ecdl\u00e9": 2026, "\u2581ak\u00f3l\u00f3": 2027, "\u2581ak\u1ecdni": 2028, "\u2581akoo": 2029, "\u00c0k\u00f3p\u1ecd": 2030, "\u2581\u00c0k\u00f3p\u1ecd": 2031, "\u2581\u00e0k\u00f3r\u00e0n": 2032, "\u2581\u00e0k\u00f2r\u00ed": 2033, "\u2581\u00c0K\u00d2R\u00cd": 2034, "\u2581akorin": 2035, "\u2581ak\u1ecdrin": 2036, "\u00c0k\u1ecds\u00edl": 2037, "\u2581\u00c0k\u1ecds\u00edl": 2038, "\u00e0k\u1ecds\u00edl\u00e8": 2039, "\u2581\u00e0k\u1ecds\u00edl\u00e8": 2040, "\u00e0k\u1ecds\u00edl\u1eb9": 2041, "akoso": 2042, "\u2581Akoso": 2043, "\u2581\u00e0k\u00f3so": 2044, "\u2581\u00e0k\u00f2tag\u00ecr\u00ec": 2045, "\u2581\u00c1k\u00fa\u00edl\u00e0": 2046, "\u2581\u00e0k\u00f9k\u1ecd": 2047, "\u2581\u00e0k\u00fan": 2048, "\u2581\u00e0k\u00fanya": 2049, "\u2581\u00c0k\u00far": 2050, "\u2581\u00c0K\u00daR": 2051, "\u2581ak\u00fa\u1e63": 2052, "al": 2053, "\u2581al": 2054, "Al": 2055, "\u2581Al": 2056, "AL": 2057, "\u2581AL": 2058, "ala": 2059, "\u2581ala": 2060, "\u2581Ala": 2061, "\u2581al\u00e1": 2062, "\u2581Al\u00e1": 2063, "\u2581AL\u00c1": 2064, "\u00e1l\u00e1": 2065, "\u2581\u00e0l\u00e1": 2066, "\u2581al\u00e1\u00e0\u00e1n\u00fa": 2067, "\u2581Al\u00e1\u00e0\u00e1n\u00fa": 2068, "\u2581al\u00e1\u00e0\u00e1r": 2069, "\u2581al\u00e1\u00e0b\u00f2": 2070, "\u2581Al\u00e1\u00e0b\u00f2": 2071, "\u2581\u00e0l\u00e1\u00e1f\u00ed\u00e0": 2072, "\u00e0l\u00e0\u00e1f\u00ed\u00e0": 2073, "\u2581\u00e0l\u00e0\u00e1f\u00ed\u00e0": 2074, "\u00c0l\u00e0\u00e1f\u00ed\u00e0": 2075, "\u2581\u00c0l\u00e0\u00e1f\u00ed\u00e0": 2076, "\u2581Al\u00e1\u00e0fin": 2077, "\u2581alaal\u00e9": 2078, "\u2581al\u00e1\u00e1p\u1ecdn": 2079, "alaaye": 2080, "Al\u00e1ay\u00e8": 2081, "\u2581al\u00e0\u00e0y\u00e8": 2082, "\u2581Al\u00e0\u00e0y\u00e8": 2083, "\u2581al\u00e1b\u00e0\u00e1": 2084, "Al\u00e1b\u00e0\u00e1": 2085, "\u2581Al\u00e1b\u00e0\u00e1": 2086, "\u2581al\u00e1b\u00e0\u00e1gb\u00e9": 2087, "\u2581al\u00e1b\u00e0\u00e1k": 2088, "al\u00e1b\u00e0\u00e1p\u00edn": 2089, "\u2581al\u00e1b\u00e0\u00e1r\u00f2": 2090, "al\u00e1b\u00e0\u00e1\u1e63": 2091, "\u2581al\u00e1bala": 2092, "\u2581Al\u00e1bala": 2093, "\u2581Alabama": 2094, "\u2581al\u00e1b\u1ecd": 2095, "al\u00e1b\u00f2\u00f3j\u00fat\u00f3": 2096, "\u2581al\u00e1b\u00f2\u00f3j\u00fat\u00f3": 2097, "\u2581Al\u00e1b\u00f2\u00f3j\u00fat\u00f3": 2098, "\u2581al\u00e1boy\u00fan": 2099, "al\u00e1d\u00e0": 2100, "\u2581al\u00e1d\u00e0\u00e1": 2101, "\u2581Al\u00e1d\u00e0\u00e1": 2102, "\u2581al\u00e1d\u00e0\u00e1ni": 2103, "al\u00e1d\u00e0\u00e1\u1e63e": 2104, "\u2581al\u00e1d\u00e0k\u00e0dek\u00e8": 2105, "\u2581al\u00e1d\u00e9": 2106, "\u2581Al\u00e1d\u00e9": 2107, "\u2581Al\u00e1d\u00f9": 2108, "\u2581al\u00e1d\u00f9n": 2109, "\u2581al\u00e1d\u00f9\u00fagb\u00f2": 2110, "\u2581al\u00e1f": 2111, "\u2581al\u00e1f\u1eb9nu": 2112, "\u2581Alafia": 2113, "\u2581\u00e0l\u00e0fo": 2114, "\u2581al\u00e1ga": 2115, "\u2581Al\u00e1ga": 2116, "\u00e0l\u00e1g\u00e0": 2117, "\u2581al\u00e1g\u00e0b\u00e0geb\u00e8": 2118, "\u2581alagba": 2119, "\u2581Alagba": 2120, "\u2581al\u00e0gb\u00e0": 2121, "\u2581Al\u00e0gb\u00e0": 2122, "\u2581alagbal": 2123, "\u2581al\u00e1gb\u00e1ra": 2124, "\u2581Al\u00e1gb\u00e1ra": 2125, "\u2581al\u00e1gb\u00e0t": 2126, "al\u00e1gb\u00e0w\u00ed": 2127, "\u2581al\u00e1gb\u00e8": 2128, "\u2581al\u00e1gb\u00e8\u00e9k\u00e1": 2129, "\u2581al\u00e1gb\u00e8\u00e9r\u00ecn": 2130, "\u2581al\u00e1g\u00edd\u00ed": 2131, "\u2581alai": 2132, "\u2581al\u00e1\u00ec": 2133, "\u2581Al\u00e1\u00ec": 2134, "\u2581al\u00e1\u00ecd\u00e1": 2135, "\u2581al\u00e1\u00ecd\u00far\u00f3\u1e63in\u1e63in": 2136, "\u2581al\u00e1\u00ecgb\u00e0gb\u00f3": 2137, "\u2581al\u00e1\u00ecgb\u1ecdr\u00e0n": 2138, "\u2581al\u00e1\u00ecl\u00e1\u00e0\u00e1n\u00fa": 2139, "\u2581al\u00e1\u00ecl\u00e1b\u00f2s\u00ed": 2140, "\u2581al\u00e1\u00ecl\u00e1gb\u00e1ra": 2141, "al\u00e1\u00ecl\u00e9": 2142, "\u2581al\u00e1\u00ecl\u00e9": 2143, "\u2581al\u00e1\u00eclera": 2144, "\u2581al\u00e1\u00ecl\u00f3": 2145, "\u2581al\u00e1\u00ecl\u00f3b\u00ec\u00ed": 2146, "\u2581al\u00e1\u00ecm": 2147, "\u2581al\u00e1\u00ecm\u1ecd": 2148, "\u2581al\u00e1\u00ecmoore": 2149, "al\u00e1\u00ecn\u00ed": 2150, "\u2581al\u00e1\u00ecn\u00ed": 2151, "\u2581al\u00e1\u00ecn\u00edbaba": 2152, "\u2581al\u00e1\u00ecp\u00e9": 2153, "\u2581al\u00e1\u00ecr\u00edl\u00e9gb\u00e9": 2154, "\u2581al\u00e1\u00ec\u1e63": 2155, "\u2581al\u00e1\u00ecs\u00e0n": 2156, "\u2581Al\u00e1\u00ecs\u00e0n": 2157, "\u2581al\u00e1\u00ec\u1e63\u00e8": 2158, "\u2581al\u00e1\u00ec\u1e63e\u00e9": 2159, "\u2581al\u00e1\u00ec\u1e63\u00f2dodo": 2160, "\u2581al\u00e1\u00ec\u1e63ojo": 2161, "\u2581al\u00e1\u00ecw\u00fa": 2162, "\u2581al\u00e1j\u00e0": 2163, "\u2581al\u00e1j\u1eb9k\u00ec": 2164, "\u2581al\u00e1j\u1ecdgb\u00e1y\u00e9": 2165, "\u2581al\u00e1j\u1ecd\u1e63": 2166, "\u2581alakitiyan": 2167, "\u2581al\u00e1k\u00f2": 2168, "\u2581al\u00e1k\u1ecd": 2169, "\u2581al\u00e1k\u00f2\u00f3so": 2170, "\u2581Al\u00e1k\u00f2\u00f3so": 2171, "\u2581alakoso": 2172, "\u2581Alakoso": 2173, "\u2581al\u00e1l\u00e0\u00e1f\u00ed\u00e0": 2174, "\u2581Alan": 2175, "\u2581al\u00e1\u01f9gb\u00e1": 2176, "\u2581al\u00e1\u01f9tak\u00f9n": 2177, "\u2581\u00c0l\u00e0\u00f3": 2178, "\u2581al\u00e1p\u00e1": 2179, "\u2581alapere": 2180, "\u2581al\u00e1ra": 2181, "\u2581al\u00e1r\u00e0bar\u00e0": 2182, "\u2581al\u00e1r\u00ec\u00edw\u00eds\u00ed": 2183, "\u2581Al\u00e1r\u00ec\u00edw\u00eds\u00ed": 2184, "\u2581al\u00e1rin\u00e0": 2185, "\u2581Al\u00e1rin\u00e0": 2186, "\u2581al\u00e1rinrin": 2187, "\u2581al\u00e1riwo": 2188, "\u2581alarm": 2189, "\u2581al\u00e1r\u00f9n": 2190, "\u2581al\u00e1\u1e63\u1eb9": 2191, "\u2581Al\u00e1\u1e63\u1eb9": 2192, "\u2581al\u00e1\u1e63et\u00ec": 2193, "\u2581Alaska": 2194, "\u2581al\u00e1s\u1ecdt": 2195, "\u2581al\u00e1tagb\u00e0": 2196, "\u2581Al\u00e1tagb\u00e0": 2197, "\u2581al\u00e1tak\u00f2": 2198, "Al\u00e1tak\u00f2": 2199, "\u2581al\u00e1t\u00ecl\u1eb9y\u00ecn": 2200, "\u2581al\u00e1t\u00f9n": 2201, "\u2581Al\u00e1t\u00f9n": 2202, "\u2581al\u00e1w\u00e0d\u00e0": 2203, "\u2581al\u00e1w\u00f2": 2204, "\u2581al\u00e1w\u1ecd": 2205, "Al\u00e1y": 2206, "alaye": 2207, "\u00e0l\u00e0y\u00e9": 2208, "\u2581\u00e0l\u00e0y\u00e9": 2209, "\u2581\u00c0l\u00e0y\u00e9": 2210, "\u2581al\u00e0y\u00e8": 2211, "\u2581Alb": 2212, "\u2581Albania": 2213, "\u2581Albert": 2214, "\u2581album": 2215, "\u2581alcohol": 2216, "\u2581Alcohol": 2217, "\u2581alcoholic": 2218, "ale": 2219, "\u2581Ale": 2220, "\u2581al\u00e9": 2221, "\u2581Al\u00e9": 2222, "\u2581Aleba": 2223, "\u2581\u00e0l\u00e9\u00e8b\u00e1": 2224, "\u2581\u00e0l\u00e9\u00e9b\u00f9": 2225, "\u2581\u00e0l\u00e9\u00e9f\u00e0": 2226, "\u2581Alejandro": 2227, "\u2581\u00e0lej\u00f2": 2228, "\u2581\u00c0lej\u00f2": 2229, "\u2581Al\u1eb9kis\u00e1\u0144d\u00e0": 2230, "\u2581Al\u1eb9kis\u00e1\u0144d\u00edr\u00ed\u00e0": 2231, "alenda": 2232, "\u2581alert": 2233, "Al\u00e8w\u00edl\u00e8\u1e63e": 2234, "\u2581Alex": 2235, "\u2581Alexander": 2236, "\u2581Alexandra": 2237, "\u2581Alexandria": 2238, "\u2581Alfonso": 2239, "\u2581Alfred": 2240, "\u2581Algeria": 2241, "\u2581Alhaji": 2242, "ali": 2243, "\u2581Ali": 2244, "alia": 2245, "\u2581Alib\u00e9n\u00ed\u00e0": 2246, "\u2581Alice": 2247, "\u2581Alicia": 2248, "\u2581alien": 2249, "\u2581alienated": 2250, "\u2581\u00e0l\u00eck\u00e1m\u00e0": 2251, "\u2581Alikos": 2252, "\u2581alive": 2253, "\u2581Alive": 2254, "\u2581Alkoso": 2255, "all": 2256, "\u2581all": 2257, "All": 2258, "\u2581All": 2259, "\u2581ALL": 2260, "\u2581Allan": 2261, "\u2581alleged": 2262, "\u2581allegiance": 2263, "\u2581Allen": 2264, "\u2581alleviate": 2265, "\u2581alliance": 2266, "\u2581Alliance": 2267, "\u2581allow": 2268, "\u2581Allow": 2269, "\u2581allowed": 2270, "\u2581allows": 2271, "ally": 2272, "\u2581Alma": 2273, "\u2581Almeida": 2274, "\u2581almighty": 2275, "\u2581Almighty": 2276, "\u2581almo": 2277, "\u2581\u00e0l\u00f2k\u00f9": 2278, "\u2581alone": 2279, "\u2581along": 2280, "\u2581Along": 2281, "\u2581alongside": 2282, "\u2581aloud": 2283, "\u2581alpha": 2284, "\u2581alphabet": 2285, "\u2581already": 2286, "\u2581also": 2287, "\u2581Also": 2288, "\u2581altar": 2289, "\u2581alter": 2290, "\u2581alternative": 2291, "\u2581although": 2292, "Although": 2293, "\u2581Although": 2294, "\u2581altogether": 2295, "\u00c1L\u00d9": 2296, "\u2581\u00e0l\u00f9b": 2297, "\u00e0l\u00f9f\u00e1\u00e0": 2298, "\u2581\u00e0l\u00f9f\u00e1\u00e0": 2299, "\u2581\u00c0l\u00f9f\u00e1\u00e0": 2300, "\u2581\u00e0l\u00f9f\u00e0\u00e0\u1e63\u00e1": 2301, "\u2581\u00e0l\u00f9k\u00f2": 2302, "\u00e1luk\u00fa": 2303, "\u2581\u00e0l\u00f9m": 2304, "\u2581al\u00f9p\u00f9p\u00f9": 2305, "alwaye": 2306, "\u2581always": 2307, "am": 2308, "\u2581am": 2309, "\u2581Am": 2310, "ama": 2311, "\u2581Ama": 2312, "\u2581Am\u00e1": 2313, "\u2581\u00c1m\u00e1l\u00e9k\u00ec": 2314, "\u2581Amalekites": 2315, "\u2581am\u00e1ratuni": 2316, "\u2581Amas\u00e1\u00e1y\u00e0": 2317, "\u2581am\u00e1y\u00e9d\u1eb9r\u00f9n": 2318, "\u2581amazed": 2319, "\u2581amazement": 2320, "\u2581amazing": 2321, "\u2581Amazing": 2322, "\u2581Amazon": 2323, "\u2581ambassador": 2324, "\u2581ambition": 2325, "\u2581ambitious": 2326, "\u2581Am\u00e9": 2327, "\u2581Am\u1eb9": 2328, "\u2581\u00c0m\u00e9n\u00ed\u00e0": 2329, "America": 2330, "\u2581America": 2331, "\u2581American": 2332, "\u2581Amerika": 2333, "\u2581Am\u1eb9rika": 2334, "ami": 2335, "\u2581Ami": 2336, "AMI": 2337, "\u00e0m\u00ec": 2338, "\u2581\u00e0m\u00ec": 2339, "\u00c0m\u00ec": 2340, "\u2581\u00c0m\u00ec": 2341, "amine": 2342, "\u2581amioro": 2343, "\u2581Ammon": 2344, "\u2581Ammonites": 2345, "\u2581\u00e0m\u00f3": 2346, "\u00c0m\u00f3": 2347, "\u2581\u00c0m\u00f3": 2348, "\u2581am\u00f2": 2349, "\u2581AM\u00d2": 2350, "\u2581\u00e0m\u1ecd": 2351, "\u2581am\u00f2fin": 2352, "\u2581\u00e0m\u00f3j\u00fat\u00f3": 2353, "\u2581among": 2354, "\u2581\u00c1m\u00f3n\u00ec": 2355, "\u2581am\u00f3r\u00edy\u00e1": 2356, "\u2581Amos": 2357, "\u2581\u00c1m\u00f3s\u00ec": 2358, "\u2581amostoooo": 2359, "\u2581am\u00f3\u00fanj\u1eb9": 2360, "amount": 2361, "\u2581amount": 2362, "\u2581amounts": 2363, "\u2581amoye": 2364, "\u2581am\u00f2ye": 2365, "\u2581Am\u00f2ye": 2366, "\u2581Amsterdam": 2367, "\u2581\u00e0m\u00fa": 2368, "\u2581\u00c0m\u00fa": 2369, "\u2581am\u00fagb\u00e1l\u1eb9": 2370, "\u2581\u00e0muj\u00f9": 2371, "\u2581\u00c0muj\u00f9": 2372, "\u2581am\u00fal\u00e9tut\u00f9": 2373, "\u2581\u00e0m\u00fal\u00f9m\u00e1l\u00e0": 2374, "\u2581am\u00fani": 2375, "\u2581\u00e0mupara": 2376, "\u2581\u00e0m\u00fa\u1e63agb\u00e1ra": 2377, "\u2581amusement": 2378, "\u2581\u00e0m\u00fa\u1e63\u1ecdr": 2379, "\u2581\u00e0m\u00fayang\u00e0n": 2380, "\u2581\u00e0muy\u00edr\u00e0\u00e1": 2381, "\u2581\u00e0muy\u00f3": 2382, "\u2581Amy": 2383, "an": 2384, "\u2581an": 2385, "An": 2386, "\u2581An": 2387, "AN": 2388, "\u2581AN": 2389, "\u00e1n": 2390, "\u2581\u00e1n": 2391, "ana": 2392, "\u2581Ana": 2393, "\u2581\u00e0na": 2394, "\u2581\u00e0n\u00e1": 2395, "\u2581\u00c1n\u00e0": 2396, "\u2581Anabaptist": 2397, "\u2581\u00c1n\u00e1bat\u00ed\u00ecs\u00ec": 2398, "\u2581ANALY": 2399, "\u2581analysis": 2400, "\u2581analyze": 2401, "\u2581analyzing": 2402, "\u2581\u00e0n\u00e0m": 2403, "\u2581Anambra": 2404, "\u2581Anan\u00ed\u00e0": 2405, "\u2581Ananias": 2406, "\u2581\u00c1n\u00e1s\u00ec": 2407, "ance": 2408, "ANCE": 2409, "ancel": 2410, "\u2581ancestor": 2411, "\u2581ancestors": 2412, "\u2581ancestr": 2413, "\u2581anchor": 2414, "\u2581Anchor": 2415, "\u2581ancient": 2416, "ancing": 2417, "and": 2418, "\u2581and": 2419, "\u2581And": 2420, "\u2581AND": 2421, "anda": 2422, "\u2581Anderson": 2423, "\u2581\u00c1\u0144d\u00e9r\u00f9": 2424, "\u2581Andes": 2425, "\u2581Andr": 2426, "\u2581Andre": 2427, "\u2581Andr\u00e9": 2428, "\u2581Andrew": 2429, "\u00e1n\u1eb9": 2430, "\u2581\u00e0\u01f9f\u00e0\u00e0n\u00ed": 2431, "\u00c0\u01f9f\u00e0\u00e0n\u00ed": 2432, "\u2581\u00c0\u01f9f\u00e0\u00e0n\u00ed": 2433, "\u2581anfani": 2434, "\u2581\u00e0nf\u00e0n\u00ed": 2435, "ang": 2436, "\u00e1\u0144g": 2437, "\u2581\u00e1\u0144g": 2438, "\u2581\u00c1\u0144g": 2439, "angel": 2440, "\u2581angel": 2441, "\u2581Angel": 2442, "\u2581Angela": 2443, "\u2581Angeles": 2444, "angelic": 2445, "\u2581angels": 2446, "\u2581anger": 2447, "\u2581\u00c1\u0144g\u00edl\u00edk\u00e0": 2448, "\u2581Anglican": 2449, "\u2581Anglo": 2450, "\u2581Angola": 2451, "\u2581\u00c0\u01f9g\u00f3l\u00e0": 2452, "\u2581angry": 2453, "\u2581anguish": 2454, "ani": 2455, "\u00e1n\u00ed": 2456, "\u2581\u00e0n\u00ed": 2457, "\u00c0n\u00ed": 2458, "\u2581\u00c0n\u00ed": 2459, "\u2581\u00e0n\u00ed\u00e0n\u00ed": 2460, "\u2581an\u00eck\u00e0n": 2461, "\u2581\u00e0n\u00edm": 2462, "\u2581animal": 2463, "\u2581Animal": 2464, "\u2581animals": 2465, "\u2581animated": 2466, "\u2581animation": 2467, "\u2581Animation": 2468, "\u2581animosity": 2469, "\u2581aninil\u00e1ra": 2470, "\u2581Anita": 2471, "\u2581\u00e0n\u00edy\u00e0n": 2472, "\u2581\u00c0n\u00edy\u00e0n": 2473, "\u2581Ann": 2474, "anna": 2475, "\u2581Anna": 2476, "\u2581Anne": 2477, "\u2581annihilate": 2478, "\u2581anniversary": 2479, "\u2581announc": 2480, "\u2581announce": 2481, "\u2581announced": 2482, "\u2581announcement": 2483, "\u2581annual": 2484, "ano": 2485, "\u2581anoint": 2486, "\u2581anointed": 2487, "\u2581anonymous": 2488, "\u2581another": 2489, "\u2581Another": 2490, "ans": 2491, "\u2581answer": 2492, "\u2581Answer": 2493, "\u2581ANSWER": 2494, "\u2581answered": 2495, "\u2581Answered": 2496, "\u2581ANSWERED": 2497, "\u2581answers": 2498, "\u2581Answers": 2499, "ant": 2500, "\u2581Anthony": 2501, "\u2581anti": 2502, "\u2581Anti": 2503, "\u00e0\u01f9t\u00ed": 2504, "\u2581antichrist": 2505, "\u2581anticipate": 2506, "\u2581Antioch": 2507, "\u2581\u00c1\u0144t\u00ed\u00f3k\u00f9": 2508, "\u2581Antoine": 2509, "\u2581Anton": 2510, "\u2581Antoni": 2511, "\u2581Antonio": 2512, "\u2581Ant\u00f4nio": 2513, "ants": 2514, "\u2581Antwerp": 2515, "\u2581anxieties": 2516, "\u2581anxiety": 2517, "\u2581Anxiety": 2518, "\u2581anxious": 2519, "\u2581any": 2520, "\u2581Any": 2521, "\u2581\u00e1ny\u00e1n": 2522, "\u2581anymore": 2523, "\u2581anyone": 2524, "Anyone": 2525, "\u2581Anyone": 2526, "\u2581anything": 2527, "\u2581anyway": 2528, "\u2581Anyway": 2529, "\u2581anywhere": 2530, "\u00e3o": 2531, "ap": 2532, "\u2581Ap": 2533, "\u2581\u00e1p": 2534, "\u2581\u00c1p": 2535, "\u2581apa": 2536, "\u2581Apa": 2537, "ap\u00e1": 2538, "\u2581ap\u00e1": 2539, "\u2581Ap\u00e1": 2540, "\u2581\u00e0p\u00e1\u00e0d\u00ec": 2541, "\u2581\u00c0p\u00e1\u00e0d\u00ec": 2542, "\u2581ap\u00e0\u00e0y\u00e0n": 2543, "\u2581apaguusu": 2544, "\u2581apak\u00f2k\u00f2r\u00f2": 2545, "\u2581apanil": 2546, "\u2581ap\u00e1nil\u00e1y\u00e0": 2547, "\u2581ap\u00e0n\u00ecy\u00e0n": 2548, "\u2581\u00c0pap": 2549, "\u2581\u00e0pap\u00f2": 2550, "\u2581\u00e0pap\u1ecd": 2551, "\u2581apart": 2552, "\u2581apartment": 2553, "\u2581ap\u00e0\u1e63\u1eb9w\u00e0\u00e1": 2554, "\u2581apata": 2555, "\u2581\u00e0p\u00e1ta": 2556, "\u00c0p\u00e1ta": 2557, "\u2581\u00c0p\u00e1ta": 2558, "\u2581apathy": 2559, "\u2581\u00c0p\u00e9": 2560, "\u2581ap\u00e8": 2561, "\u00e0p\u1eb9\u1eb9r\u1eb9": 2562, "\u2581\u00e0p\u1eb9\u1eb9r\u1eb9": 2563, "\u2581\u00c0p\u1eb9\u1eb9r\u1eb9": 2564, "\u2581\u00c0P\u1eb8\u1eb8R\u1eb8": 2565, "\u2581ap\u1eb9ja": 2566, "\u2581\u00e0p\u00e8j\u1eb9": 2567, "\u2581\u00e0p\u00e9j\u1ecd": 2568, "\u2581\u00c0p\u00e9j\u1ecd": 2569, "\u2581\u00e0p\u00e8j\u00fawe": 2570, "\u2581\u00c0p\u00e8j\u00fawe": 2571, "\u2581apere": 2572, "\u2581\u00e0p\u00e9r\u00f2": 2573, "\u2581\u00e0p\u00e9w\u00f2": 2574, "\u2581\u00e0p\u00ed\u00ecr\u00ec": 2575, "\u2581\u00e0pil": 2576, "\u2581\u00c0PIL": 2577, "\u2581\u00c0pil\u00e8": 2578, "\u2581apilese": 2579, "\u2581ap\u00edn": 2580, "\u00e0p\u00f3": 2581, "\u2581\u00e0p\u00f3": 2582, "\u2581\u00c0p\u00f3": 2583, "\u2581\u00e0p\u00f2": 2584, "\u2581\u00e0p\u00f3k\u00edr\u00edf\u00e0": 2585, "\u2581\u00c0p\u00f3k\u00edr\u00edf\u00e0": 2586, "\u2581\u00e0p\u00f3l\u00e0": 2587, "\u2581Apollos": 2588, "\u2581\u00c0p\u00f3l\u00f2": 2589, "\u2581apologize": 2590, "\u2581apology": 2591, "\u2581\u00e0p\u00f2\u00f2w\u00e9": 2592, "\u2581apostasy": 2593, "\u2581apostate": 2594, "\u2581apostates": 2595, "\u2581apostle": 2596, "\u2581apostles": 2597, "\u2581\u00e0p\u00f3t\u00ed": 2598, "\u2581\u00c0p\u00f3t\u00ed": 2599, "appa": 2600, "\u2581apparent": 2601, "\u2581apparently": 2602, "\u2581Apparently": 2603, "\u2581appeal": 2604, "\u2581appealed": 2605, "\u2581appealing": 2606, "appear": 2607, "\u2581appear": 2608, "\u2581appearance": 2609, "\u2581appeared": 2610, "\u2581appears": 2611, "\u2581append": 2612, "\u2581appendix": 2613, "\u2581appetite": 2614, "\u2581applause": 2615, "apple": 2616, "applet": 2617, "\u2581applet": 2618, "Applet": 2619, "\u2581Applet": 2620, "\u2581applets": 2621, "\u2581application": 2622, "\u2581Application": 2623, "applications": 2624, "\u2581applications": 2625, "\u2581Applications": 2626, "\u2581applied": 2627, "\u2581applies": 2628, "\u2581apply": 2629, "\u2581Apply": 2630, "\u2581applying": 2631, "\u2581appoint": 2632, "\u2581appointed": 2633, "\u2581appointment": 2634, "\u2581appointments": 2635, "\u2581appreciat": 2636, "\u2581Appreciat": 2637, "\u2581appreciate": 2638, "\u2581appreciated": 2639, "\u2581appreciation": 2640, "\u2581appreciative": 2641, "\u2581apprehensive": 2642, "\u2581approach": 2643, "\u2581Approach": 2644, "\u2581approachable": 2645, "\u2581approached": 2646, "\u2581approaches": 2647, "\u2581approaching": 2648, "\u2581appropriate": 2649, "\u2581Appropriate": 2650, "\u2581approval": 2651, "\u2581approve": 2652, "\u2581approved": 2653, "\u2581approximate": 2654, "apps": 2655, "April": 2656, "\u2581April": 2657, "\u00e1p\u00fa": 2658, "\u2581\u00e1p\u00f9": 2659, "\u2581Aqa": 2660, "\u2581Aqui": 2661, "\u2581Aquila": 2662, "ar": 2663, "\u2581Ar": 2664, "AR": 2665, "ara": 2666, "\u2581ara": 2667, "\u2581Ara": 2668, "\u2581ARA": 2669, "ar\u00e1": 2670, "\u2581ar\u00e1": 2671, "\u2581Ar\u00e1": 2672, "\u2581AR\u00c1": 2673, "\u00e0r\u00e0": 2674, "\u2581\u00e0r\u00e0": 2675, "\u2581\u00c0r\u00e0": 2676, "\u2581\u00c0R\u00c0": 2677, "\u2581\u00e0r\u00e0\u00e1": 2678, "\u2581\u00c0r\u00e0\u00e1": 2679, "\u2581ar\u00e1al\u00e9": 2680, "\u2581ar\u00e1\u00e0l\u00fa": 2681, "\u2581Ar\u00e1\u00e0l\u00fa": 2682, "\u2581Arabia": 2683, "Arabic": 2684, "\u2581Arabic": 2685, "\u2581ar\u00e1b\u00ecnrin": 2686, "\u2581Ar\u00e1b\u00ecnrin": 2687, "\u2581\u00c1r\u00e1d\u00ec": 2688, "ar\u00e1k\u00f9nrin": 2689, "\u2581ar\u00e1k\u00f9nrin": 2690, "Ar\u00e1k\u00f9nrin": 2691, "\u2581Ar\u00e1k\u00f9nrin": 2692, "\u2581\u00c0r\u00e0m\u00e0": 2693, "\u2581Aramaic": 2694, "\u2581\u00c1r\u00e1m\u00e1\u00edk\u00ec": 2695, "\u2581\u00e0r\u00e0m\u00e0\u01f9d\u00e0": 2696, "\u2581\u00c1r\u00e1r\u00e1t\u00ec": 2697, "\u2581ar\u00e1y\u00e9": 2698, "\u2581Ar\u00e1y\u00e9": 2699, "\u2581arbitrary": 2700, "\u2581Archaeolog": 2701, "\u2581archaeologist": 2702, "\u2581Archaeology": 2703, "\u2581archangel": 2704, "\u2581Archbishop": 2705, "\u2581Archive": 2706, "ard": 2707, "ARD": 2708, "are": 2709, "\u2581are": 2710, "\u2581Are": 2711, "\u2581ARE": 2712, "\u2581area": 2713, "\u2581Area": 2714, "\u2581areas": 2715, "\u2581Ar\u00e9b\u00ed\u00e0": 2716, "\u2581\u00e0r\u00e9k\u00e9rek\u00e8": 2717, "\u2581Arena": 2718, "\u2581ar\u1eb9w\u00e0": 2719, "\u2581Argentina": 2720, "\u2581argue": 2721, "\u2581argued": 2722, "\u2581arguing": 2723, "\u2581argument": 2724, "\u2581arguments": 2725, "ari": 2726, "arian": 2727, "\u2581Arias": 2728, "\u2581\u00e0r\u00edd\u00e1j\u00fa": 2729, "\u2581Ariel": 2730, "aries": 2731, "\u2581\u00e0r\u00edf\u00edn": 2732, "\u2581ar\u00edj\u00e0gb\u00e1": 2733, "\u2581\u00e0r\u00edm\u00e1le\u00e8l\u1ecd": 2734, "\u2581Arimat\u00ed\u00e0": 2735, "arin": 2736, "\u2581ar\u00ecnd\u00ecn": 2737, "\u2581ar\u00ecnr\u00ecn": 2738, "Ar\u00ecnr\u00ecn": 2739, "\u2581ar\u00edran": 2740, "\u2581arise": 2741, "\u2581\u00c0r\u00eds\u00edt": 2742, "\u2581Aristotle": 2743, "\u2581ariwa": 2744, "\u2581Ariwa": 2745, "\u2581\u00e0r\u00edw\u00e1": 2746, "\u2581\u00c0r\u00edw\u00e1": 2747, "\u00e0r\u00edw\u00eds\u00ed": 2748, "\u2581\u00e0r\u00edw\u00eds\u00ed": 2749, "\u2581ariwo": 2750, "\u2581\u00e0r\u00edy\u00e1": 2751, "\u2581\u00e0r\u00edy\u00e0njiy\u00e0n": 2752, "\u2581\u00c0r\u00edy\u00e0njiy\u00e0n": 2753, "\u2581ark": 2754, "\u2581Ark": 2755, "\u2581arm": 2756, "\u2581Arm": 2757, "ARM": 2758, "\u2581Armageddon": 2759, "\u2581armed": 2760, "\u2581Armenia": 2761, "Armenian": 2762, "\u2581armies": 2763, "\u2581armor": 2764, "\u2581arms": 2765, "\u2581army": 2766, "\u2581Army": 2767, "\u2581ar\u00f3": 2768, "\u00e1r\u00f2": 2769, "\u2581\u00e0r\u00f2d\u00f9n": 2770, "\u2581\u00e0r\u00f2j": 2771, "\u2581\u00e0r\u00f3j\u1eb9": 2772, "\u2581\u00e0rok": 2773, "\u2581\u00e0r\u1ecdko": 2774, "\u2581\u00c0rok\u00f2": 2775, "\u2581\u00e0r\u00f2k\u1ecd": 2776, "\u00c0r\u00f2p\u1ecd": 2777, "\u2581arose": 2778, "\u2581\u00e0r\u00f2s\u1ecd": 2779, "\u2581\u00c0r\u00f2s\u1ecd": 2780, "\u2581around": 2781, "\u2581Around": 2782, "\u2581arouse": 2783, "\u2581\u00e0r\u00f2y\u00e9": 2784, "ARRAN": 2785, "\u2581arrange": 2786, "\u2581arranged": 2787, "\u2581arrangement": 2788, "\u2581arrangements": 2789, "\u2581arranging": 2790, "\u2581array": 2791, "\u2581arrest": 2792, "\u2581arrested": 2793, "\u2581arrival": 2794, "\u2581arrive": 2795, "\u2581arrived": 2796, "\u2581arrives": 2797, "\u2581arriving": 2798, "\u2581arrogant": 2799, "\u2581arrows": 2800, "art": 2801, "\u2581art": 2802, "\u2581Art": 2803, "\u2581Artaxerxes": 2804, "\u2581Artemis": 2805, "\u2581Arthur": 2806, "\u2581article": 2807, "\u2581Article": 2808, "\u2581ARTICLE": 2809, "\u2581articles": 2810, "\u2581artificial": 2811, "\u2581artist": 2812, "\u2581Arts": 2813, "\u2581ar\u00fafin": 2814, "\u2581ar\u00fagb\u00f3": 2815, "\u2581arukutu": 2816, "\u2581\u00e0r\u00f9n": 2817, "\u2581\u00c0r\u00f9n": 2818, "ary": 2819, "as": 2820, "\u2581as": 2821, "As": 2822, "\u2581As": 2823, "AS": 2824, "\u2581AS": 2825, "\u2581\u00c0\u1e63": 2826, "\u2581asa": 2827, "\u2581Asa": 2828, "\u2581a\u1e63\u00e1": 2829, "\u2581A\u1e62\u00c1": 2830, "\u2581\u00c1s\u00e0": 2831, "\u2581\u00e0\u1e63\u00e0": 2832, "\u2581\u00c0\u1e63\u00e0": 2833, "\u2581a\u1e63\u00e1\u00e1j\u00fa": 2834, "\u2581A\u1e63\u00e1\u00e1j\u00fa": 2835, "a\u1e63\u00e0fil\u1ecd": 2836, "\u2581a\u1e63\u00e0fil\u1ecd": 2837, "\u2581\u00c1s\u00e1f\u00f9": 2838, "\u2581\u00e0\u1e63\u00e0ka\u1e63\u00e0": 2839, "\u2581\u00e0s\u00e1l\u00e0": 2840, "\u2581as\u00e1n": 2841, "\u2581\u00e0s\u00e1paj\u00fad\u00e9": 2842, "\u2581Asaph": 2843, "\u2581a\u1e63aral\u00f3ore": 2844, "\u2581Asar\u00e1y\u00e0": 2845, "\u2581\u00e0\u1e63\u00e0r\u00f2": 2846, "\u2581ascend": 2847, "\u2581ascension": 2848, "ASCII": 2849, "ase": 2850, "\u2581\u00e0\u1e63e": 2851, "\u2581\u00c0\u1e63e": 2852, "\u2581\u00e0\u1e63\u00e9": 2853, "\u2581\u00c0\u1e63\u00e9": 2854, "\u2581\u00e0s\u00e8": 2855, "\u2581\u00c0s\u00e8": 2856, "\u00e0\u1e63\u1eb9": 2857, "\u2581\u00e0\u1e63\u1eb9": 2858, "\u2581\u00c0\u1e63\u1eb9": 2859, "\u2581a\u1e63ebi": 2860, "\u2581\u00e0\u1e63ed\u00e0n\u00f9": 2861, "\u2581\u00e0\u1e63ed\u00e1ray\u00e1": 2862, "\u2581\u00e0\u1e63efih\u00e0n": 2863, "\u2581\u00e0\u1e63ej\u00f9": 2864, "\u2581\u00e0\u1e63ek\u00e1gb\u00e1": 2865, "\u2581\u00e0\u1e63ek\u00e1ra": 2866, "\u2581\u00e0\u1e63ek\u00fa": 2867, "\u2581\u00e0\u1e63ek\u00fad\u00f3r\u00f3gb\u00f3": 2868, "\u2581a\u1e63ek\u00fapani": 2869, "\u2581\u00e0\u1e63el\u00e0\u00e1g\u00f9n": 2870, "\u2581\u00e0\u1e63el\u00e9k\u00e8": 2871, "\u2581\u00e0\u1e63em\u00e1\u1e63e": 2872, "\u00e0\u1e63en": 2873, "\u2581a\u1e63enil": 2874, "\u2581a\u1e63enil\u00e9\u1e63e": 2875, "\u2581aseoro": 2876, "\u00e0\u1e63epar\u00ed": 2877, "\u2581\u00e0\u1e63etil\u00e9w\u00e1": 2878, "\u2581\u00e0\u1e63ey\u1eb9": 2879, "\u2581\u00e0\u1e63ey\u1ecdr\u00ed": 2880, "\u2581\u00c0\u1e63ey\u1ecdr\u00ed": 2881, "ash": 2882, "\u2581ashamed": 2883, "\u2581\u00c0s\u00ec": 2884, "\u00e0\u1e63\u00ec": 2885, "\u2581asia": 2886, "\u2581Asia": 2887, "\u2581\u00e0s\u00ed\u00e1": 2888, "\u2581Asian": 2889, "\u2581\u00e0\u1e63\u00edbor\u00ed": 2890, "\u2581aside": 2891, "\u00e1s\u00eck\u00ed": 2892, "\u2581asiko": 2893, "\u2581\u00e0s\u00eck\u00f2": 2894, "\u2581\u00e0\u1e63\u00ecl": 2895, "\u00e0\u1e63\u00edr\u00ed": 2896, "\u2581\u00e0\u1e63\u00edr\u00ed": 2897, "\u2581\u00c0\u1e63\u00edr\u00ed": 2898, "\u2581As\u00edr\u00ed\u00e0": 2899, "\u2581\u00c1s\u00edr\u00ed\u00e0": 2900, "\u2581\u00e0\u1e63\u00ec\u1e63e": 2901, "\u2581\u00c0\u1e63\u00ec\u1e63e": 2902, "\u2581a\u1e63\u00edw": 2903, "\u2581ask": 2904, "\u2581Ask": 2905, "\u2581ASK": 2906, "\u2581asked": 2907, "\u2581asking": 2908, "\u2581asks": 2909, "\u2581asleep": 2910, "\u2581aso": 2911, "\u2581as\u00f2": 2912, "\u2581a\u1e63\u1ecd": 2913, "\u2581A\u1e63\u1ecd": 2914, "\u2581a\u1e63\u00f2d\u00ec": 2915, "\u2581\u00e0s\u1ecdd\u00f9n": 2916, "\u2581asofin": 2917, "\u2581Asofin": 2918, "\u2581a\u1e63\u00f2fin": 2919, "\u2581A\u1e63\u00f2fin": 2920, "\u2581\u00e0s\u1ecdj\u00e1de": 2921, "\u2581Asoju": 2922, "\u2581a\u1e63oj\u00fa": 2923, "\u2581A\u1e63oj\u00fa": 2924, "\u2581\u00c0s\u1ecdt": 2925, "\u2581\u00e0s\u1ecdt\u00e9": 2926, "\u2581\u00e0s\u1ecdt\u00fans\u1ecd": 2927, "\u2581\u00e0s\u1ecdy\u00e9": 2928, "\u2581\u00c0s\u1ecdy\u00e9": 2929, "\u2581aspect": 2930, "\u2581aspects": 2931, "\u2581aspirin": 2932, "\u2581assault": 2933, "\u2581assemble": 2934, "\u2581assembled": 2935, "\u2581assemblies": 2936, "\u2581assembly": 2937, "\u2581Assembly": 2938, "\u2581assert": 2939, "\u2581assess": 2940, "\u2581assets": 2941, "\u2581assign": 2942, "\u2581assigned": 2943, "\u2581assignment": 2944, "\u2581Assignment": 2945, "\u2581assignments": 2946, "\u2581assist": 2947, "\u2581assistance": 2948, "\u2581assistant": 2949, "\u2581assisted": 2950, "\u2581Associat": 2951, "\u2581associate": 2952, "\u2581associated": 2953, "\u2581associates": 2954, "\u2581associating": 2955, "\u2581association": 2956, "\u2581Association": 2957, "\u2581associations": 2958, "\u2581assume": 2959, "\u2581assumed": 2960, "\u2581assuming": 2961, "\u2581assurance": 2962, "\u2581assure": 2963, "\u2581assured": 2964, "\u2581Assyria": 2965, "\u2581Assyrian": 2966, "ast": 2967, "\u2581astonished": 2968, "\u2581astonishing": 2969, "\u2581astounded": 2970, "\u2581astray": 2971, "\u2581astrologers": 2972, "\u2581astrology": 2973, "\u2581astronomer": 2974, "\u2581as\u00f9nta": 2975, "\u2581\u00e0s\u00f9nw\u1ecdra": 2976, "at": 2977, "\u2581at": 2978, "At": 2979, "\u2581At": 2980, "\u2581AT": 2981, "\u2581\u00e0t": 2982, "\u2581\u00c0t\u00e0": 2983, "atadir": 2984, "\u2581\u00e0t\u00e0gb\u00e0": 2985, "\u2581\u00e0tak\u00f2": 2986, "\u2581\u00c0tak\u00f2": 2987, "\u2581\u00e0t\u00e0\u01f9p\u00e0k\u00f2": 2988, "\u2581Atas\u00e1s\u00edt\u00e0": 2989, "\u2581\u00e0t\u00e0t\u00e0": 2990, "\u2581\u00c0t\u00e0t\u00e0": 2991, "\u2581\u00e0t\u00e0w": 2992, "\u2581\u00e0t\u00e0w\u1ecdn": 2993, "\u2581\u00e0tay\u00e9b\u00e1y\u00e9": 2994, "\u2581\u00c0tay\u00e9b\u00e1y\u00e9": 2995, "atchtower": 2996, "ate": 2997, "ATE": 2998, "\u2581at\u00e9": 2999, "\u2581\u00c1t\u00e9": 3000, "\u2581\u00e0t\u00e9": 3001, "\u2581\u00e0t\u00e8": 3002, "\u2581\u00c0T\u00c8": 3003, "\u2581\u00e0t\u1eb9": 3004, "\u2581\u00c0t\u1eb9": 3005, "ated": 3006, "\u2581\u00c1t\u00e9n\u00ec": 3007, "\u2581\u00e0t\u1eb9nud\u00e9": 3008, "\u2581atheist": 3009, "\u2581Athens": 3010, "\u2581athlete": 3011, "\u2581athletic": 3012, "ati": 3013, "\u2581ati": 3014, "\u00e0ti": 3015, "\u2581\u00e0ti": 3016, "\u2581\u00c0ti": 3017, "\u2581\u00c0TI": 3018, "\u2581\u00e0t\u00edb\u00e0b\u00e0": 3019, "\u2581\u00c0t\u00edb\u00e0b\u00e0": 3020, "\u2581\u00e0t\u00ecgb\u00e0": 3021, "\u2581\u00c0t\u00ecgb\u00e0": 3022, "\u2581\u00e0t\u00ecgb\u00e0d\u00e9gb\u00e0": 3023, "\u2581\u00e0tij\u1eb9": 3024, "\u2581\u00e0tij\u00f3": 3025, "\u2581\u00c0t\u00ecl\u00e1\u0144t\u00ed\u00eck\u00ec": 3026, "\u2581\u00e0t\u00ecl\u1eb9": 3027, "\u2581\u00e0til\u1ecd": 3028, "\u2581\u00e0tim\u00e1a": 3029, "\u2581\u00e0timu": 3030, "ating": 3031, "\u2581\u00e0tin\u00faw\u00e1": 3032, "ation": 3033, "ATION": 3034, "ations": 3035, "\u2581\u00e0t\u00ecp\u00f3": 3036, "\u00e1t\u00ecr\u00ec": 3037, "\u2581\u00e0ti\u1e63e": 3038, "ative": 3039, "\u2581\u00e0t\u00ecy\u00e0w\u00f3": 3040, "\u2581Atlanta": 3041, "\u2581Atlanti": 3042, "Atlantic": 3043, "\u2581Atlantic": 3044, "\u2581atmosphere": 3045, "ato": 3046, "\u2581at\u00f3": 3047, "\u2581At\u00f3": 3048, "\u00e0t\u00f2": 3049, "\u2581\u00e0t\u00f2": 3050, "\u2581\u00c0t\u00f2": 3051, "\u00c0T\u00d2": 3052, "\u2581at\u1ecd": 3053, "\u2581At\u1ecd": 3054, "\u2581\u00e0t\u1ecd": 3055, "\u2581At\u00f3bi": 3056, "\u2581\u00e0tob\u00ecnrin": 3057, "\u00e0t\u00f2j\u1ecd": 3058, "\u2581\u00e0t\u00f2j\u1ecd": 3059, "\u2581\u00c0t\u00f2j\u1ecd": 3060, "\u2581\u00e0t\u1ecdk\u00e0nw\u00e1": 3061, "\u2581atokun": 3062, "\u2581\u00e0t\u1ecdm\u1ecd": 3063, "\u2581\u00e0t\u1ecdm\u1ecdd": 3064, "\u2581atomu": 3065, "\u2581atonement": 3066, "\u2581Atonement": 3067, "\u00e0t\u00f2p\u1ecd": 3068, "\u2581\u00e0t\u00f2p\u1ecd": 3069, "ator": 3070, "atory": 3071, "\u2581atrocities": 3072, "atsu": 3073, "\u2581attach": 3074, "\u2581attached": 3075, "\u2581attachment": 3076, "\u2581attack": 3077, "\u2581Attack": 3078, "\u2581attacked": 3079, "\u2581attacks": 3080, "\u2581attain": 3081, "\u2581attempt": 3082, "\u2581attempted": 3083, "\u2581attempts": 3084, "\u2581attend": 3085, "\u2581Attend": 3086, "\u2581ATTEND": 3087, "\u2581attendance": 3088, "\u2581attendant": 3089, "\u2581attended": 3090, "\u2581attending": 3091, "\u2581attention": 3092, "\u2581Attention": 3093, "\u2581attentive": 3094, "\u2581attitude": 3095, "\u2581Attitude": 3096, "\u2581attitudes": 3097, "\u2581attract": 3098, "\u2581attracted": 3099, "\u2581attraction": 3100, "\u2581attractive": 3101, "\u2581attribute": 3102, "\u2581atuk": 3103, "\u2581\u00e0t\u00fan": 3104, "\u2581\u00e0t\u00fanb\u00ed": 3105, "\u2581atunil\u00e1ra": 3106, "\u2581\u00c0t\u00fank": 3107, "\u2581\u00e0t\u00fan\u1e63e": 3108, "\u2581\u00c0t\u00fan\u1e63e": 3109, "\u2581\u00e0t\u00fant\u00f2": 3110, "\u2581\u00c0t\u00fant\u00f2": 3111, "\u2581\u00e0t\u00fanw\u00e1y\u00e9": 3112, "\u2581\u00e0t\u00f9p\u00e0": 3113, "\u2581\u00e0t\u00fapal": 3114, "ature": 3115, "au": 3116, "\u2581audience": 3117, "\u2581audio": 3118, "\u2581auditorium": 3119, "aught": 3120, "August": 3121, "\u2581August": 3122, "\u2581Augustine": 3123, "\u2581aunt": 3124, "\u2581Auschwitz": 3125, "\u2581Australia": 3126, "\u2581AUSTRALIA": 3127, "\u2581Austr\u00e1l\u00ed\u00e0": 3128, "\u2581Australian": 3129, "\u2581Austria": 3130, "\u2581authentic": 3131, "\u2581author": 3132, "\u2581Author": 3133, "\u2581authoritative": 3134, "\u2581authorities": 3135, "\u2581authority": 3136, "\u2581Authority": 3137, "authorized": 3138, "\u2581authorized": 3139, "autilus": 3140, "\u2581auto": 3141, "Auto": 3142, "\u2581autocomplet": 3143, "Automatic": 3144, "\u2581automatically": 3145, "\u2581automobile": 3146, "\u2581auxiliary": 3147, "ava": 3148, "\u2581avail": 3149, "\u2581available": 3150, "ave": 3151, "\u2581avenge": 3152, "\u2581average": 3153, "\u2581Average": 3154, "avi": 3155, "\u2581avocado": 3156, "\u2581avoid": 3157, "\u2581Avoid": 3158, "\u2581avoided": 3159, "aw": 3160, "\u2581\u00e0wa": 3161, "\u00c0wa": 3162, "\u2581\u00c0wa": 3163, "\u2581\u00e0w\u00e0d\u00e0": 3164, "\u2581await": 3165, "\u2581awaited": 3166, "\u2581awaiting": 3167, "\u2581awak": 3168, "\u2581awake": 3169, "\u2581Awake": 3170, "\u2581AWAKE": 3171, "\u2581awaken": 3172, "\u2581awak\u00f9s\u00e0": 3173, "\u2581\u00e0w\u00e1m\u00e1rid\u00ec\u00ed": 3174, "\u2581Award": 3175, "\u2581Awards": 3176, "\u2581aware": 3177, "\u2581awareness": 3178, "\u2581\u00e0w\u00e1r\u00ed": 3179, "\u2581aw\u00e1r\u00f2y\u00ecn": 3180, "\u2581\u00e0w\u00e1t\u00ec": 3181, "\u2581\u00e0w\u00e1w\u00ed": 3182, "away": 3183, "\u2581away": 3184, "\u2581awe": 3185, "\u00e0w\u00e8": 3186, "\u2581awesome": 3187, "\u2581\u00e0w\u00ed": 3188, "\u2581\u00e0w\u00edj\u00e0re": 3189, "\u2581\u00e0w\u00ecn": 3190, "\u2581awkward": 3191, "\u2581awo": 3192, "\u2581\u00e0wo": 3193, "\u2581\u00c0wo": 3194, "\u00e0w\u00f3": 3195, "\u2581\u00e0w\u00f3": 3196, "\u00e1w\u00f2": 3197, "\u2581\u00e0w\u00f2": 3198, "\u2581\u00c0w\u00f2": 3199, "\u2581aw\u1ecd": 3200, "\u2581\u00e0w\u1ecd": 3201, "\u2581\u00c0w\u1ecd": 3202, "\u2581\u00e0w\u00f2fi\u1e63\u00e0p\u1eb9\u1eb9r\u1eb9": 3203, "\u2581\u00e0w\u00f2j\u00fawe": 3204, "\u00c0w\u00f2k": 3205, "\u2581\u00e0w\u00f3k\u00f9": 3206, "\u2581Aw\u00f3l\u1ecd": 3207, "\u2581Awolowo": 3208, "\u2581awon": 3209, "\u2581Awon": 3210, "\u2581\u00e0won": 3211, "\u00e0w\u1ecdn": 3212, "\u2581\u00e0w\u1ecdn": 3213, "\u00c0w\u1ecdn": 3214, "\u2581\u00c0w\u1ecdn": 3215, "\u2581aworan": 3216, "\u00e0w\u00f2r\u00e1n": 3217, "\u2581\u00e0w\u00f2r\u00e1n": 3218, "\u00c0w\u00f2r\u00e1n": 3219, "\u2581\u00c0w\u00f2r\u00e1n": 3220, "\u2581\u00c0W\u00d2R\u00c1N": 3221, "\u2581aw\u00f2r\u00e0w": 3222, "\u00e0w\u1ecds\u00e1nm\u00e0": 3223, "\u2581\u00e0w\u1ecds\u00e1nm\u00e0": 3224, "\u2581\u00e0w\u00f2\u1e63e": 3225, "awujo": 3226, "\u2581awujo": 3227, "\u00e1w\u00f9j\u1ecd": 3228, "\u00e0w\u00f9j\u1ecd": 3229, "\u2581\u00e0w\u00f9j\u1ecd": 3230, "\u2581\u00c0w\u00f9j\u1ecd": 3231, "\u2581aw\u00far\u00faju": 3232, "\u2581awuyewuye": 3233, "ax": 3234, "axis": 3235, "\u2581Axis": 3236, "ay": 3237, "\u2581\u00e0y": 3238, "aya": 3239, "\u2581aya": 3240, "\u2581Aya": 3241, "\u00c1Y\u00c0": 3242, "\u2581\u00e0y\u00e0": 3243, "\u2581\u00c0y\u00e0": 3244, "\u2581ayaba": 3245, "\u2581Ayaba": 3246, "\u2581\u00e0y\u00e0fi": 3247, "\u2581\u00e0y\u00e1j": 3248, "\u2581\u00e0y\u00e0nf": 3249, "\u2581\u00e0y\u00e0nm": 3250, "\u2581ay\u00e0w\u00f2r\u00e1n": 3251, "aye": 3252, "\u2581aye": 3253, "\u2581Aye": 3254, "ay\u00e9": 3255, "\u2581ay\u00e9": 3256, "Ay\u00e9": 3257, "\u2581Ay\u00e9": 3258, "\u2581AY\u00c9": 3259, "\u00c1Y\u00c9": 3260, "\u00e0y\u00e8": 3261, "\u2581\u00e0y\u00e8": 3262, "\u00c0y\u00e8": 3263, "\u2581\u00c0y\u00e8": 3264, "\u2581\u00e0y\u1eb9": 3265, "\u2581ay\u00e9d\u00e8r\u00fa": 3266, "\u2581ay\u00e9ray\u00e9": 3267, "\u2581Ay\u00e9ray\u00e9": 3268, "\u2581ay\u1eb9wo": 3269, "\u2581ay\u1eb9y\u1eb9": 3270, "\u2581Ay\u1eb9y\u1eb9": 3271, "\u00e0y\u00edd\u00e0": 3272, "\u2581\u00e0y\u00edd\u00e1yid\u00e0": 3273, "\u2581ayika": 3274, "\u2581\u00e0y\u00edk\u00e1": 3275, "\u2581\u00c0y\u00edk\u00e1": 3276, "\u2581\u00e0y\u00edn\u00ecke": 3277, "\u2581\u00e0y\u00edpad\u00e0": 3278, "\u2581ay\u00edr\u00ed": 3279, "\u2581ay\u00f3": 3280, "\u00e1y\u00f3": 3281, "\u2581ay\u00f2": 3282, "Ay\u00f2": 3283, "\u2581Ay\u00f2": 3284, "\u2581\u00e0y\u1ecdk\u00e0": 3285, "\u2581ay\u1ecdn\u00e1y\u00e8\u00e9f\u00edn": 3286, "\u2581ay\u00f9n": 3287, "az": 3288, "\u2581Azariah": 3289, "\u2581Azerbaijan": 3290, "\u2581Aztec": 3291, "b": 3292, "\u2581b": 3293, "B": 3294, "\u2581B": 3295, "\u1e05": 3296, "\u1e04": 3297, "\u1e07": 3298, "\u0253": 3299, "ba": 3300, "\u2581ba": 3301, "\u2581Ba": 3302, "BA": 3303, "\u2581BA": 3304, "b\u00e1": 3305, "\u2581b\u00e1": 3306, "B\u00e1": 3307, "\u2581B\u00e1": 3308, "B\u00c1": 3309, "\u2581B\u00c1": 3310, "b\u00e0": 3311, "\u2581b\u00e0": 3312, "\u2581B\u00e0": 3313, "\u2581b\u00e1a": 3314, "\u2581b\u00e0a": 3315, "b\u00e0\u00e1": 3316, "\u2581b\u00e1\u00e0": 3317, "\u2581b\u00e1\u00e0g\u00ec": 3318, "\u2581Baal": 3319, "\u2581ba\u00e1l": 3320, "\u2581Ba\u00e1l": 3321, "\u2581b\u00e1\u00e1l\u00ec": 3322, "\u2581B\u00e1\u00e1l\u00ec": 3323, "\u2581baalu": 3324, "\u2581Bab": 3325, "baba": 3326, "\u2581baba": 3327, "Baba": 3328, "\u2581Baba": 3329, "\u2581b\u00e0b\u00e1": 3330, "B\u00e0b\u00e1": 3331, "\u2581B\u00e0b\u00e1": 3332, "\u2581b\u00e0b\u00e0": 3333, "\u2581babal\u00e1wo": 3334, "\u2581Babal\u00e1wo": 3335, "\u2581Babangida": 3336, "\u2581b\u00e0b\u00e0r\u00e0": 3337, "\u2581Bab\u00e1t\u00fand\u00e9": 3338, "\u2581babe": 3339, "\u2581Babel": 3340, "\u2581B\u00e1b\u00e9l\u00ec": 3341, "\u2581babies": 3342, "B\u00e1b\u00edl\u00f3n\u00ec": 3343, "\u2581B\u00e1b\u00edl\u00f3n\u00ec": 3344, "\u2581baby": 3345, "Babylon": 3346, "\u2581Babylon": 3347, "\u2581Babylonian": 3348, "\u2581Babylonians": 3349, "bach": 3350, "back": 3351, "\u2581back": 3352, "\u2581Back": 3353, "\u2581background": 3354, "\u2581Background": 3355, "\u2581backgrounds": 3356, "\u2581backing": 3357, "\u2581bacteria": 3358, "\u2581bad": 3359, "\u2581Bad": 3360, "Badagry": 3361, "b\u00e0d\u00e0n": 3362, "\u2581badly": 3363, "\u2581badness": 3364, "\u2581bag": 3365, "\u2581Bahamas": 3366, "\u2581Bahia": 3367, "\u2581b\u00e0\u00ecb\u00e0\u00ec": 3368, "b\u00e0j": 3369, "b\u00e1j\u00e1de": 3370, "\u2581b\u00e1kan": 3371, "\u2581B\u00e1kan": 3372, "\u2581bakanna": 3373, "\u2581Bakanna": 3374, "\u2581baked": 3375, "\u2581baker": 3376, "\u2581bakit\u00e9r\u00ed\u00e0": 3377, "bal": 3378, "\u2581Bal": 3379, "\u2581Balaam": 3380, "\u2581B\u00e1l\u00e1\u00e1m\u00f9": 3381, "\u2581b\u00e0l\u00e1g\u00e0": 3382, "\u2581balance": 3383, "\u2581balanced": 3384, "bal\u00e8": 3385, "\u2581bal\u00e8": 3386, "\u2581ball": 3387, "\u2581Bal\u00f3gun": 3388, "\u2581balsam": 3389, "\u2581B\u00e1mij": 3390, "\u2581b\u00e1m\u00fab\u00e1m\u00fa": 3391, "ban": 3392, "\u2581ban": 3393, "\u2581Ban": 3394, "\u2581B\u00e1n\u00e1b\u00e0": 3395, "\u2581band": 3396, "\u2581Bangladesh": 3397, "\u2581bani": 3398, "\u2581b\u00e1ni": 3399, "banij\u00e9": 3400, "b\u00e1nil\u00f2": 3401, "b\u00e1nis\u00f2": 3402, "\u2581bank": 3403, "\u2581Bank": 3404, "\u2581b\u00e1\u0144k\u00ec": 3405, "\u2581B\u00e1\u0144k\u00ec": 3406, "\u2581b\u00e1\u01f9k\u00ec": 3407, "\u2581bankrupt": 3408, "\u2581banned": 3409, "b\u00e1n\u00f3n\u00ec": 3410, "\u2581banquet": 3411, "b\u00e1\u0144t": 3412, "\u2581banta": 3413, "\u2581b\u00e0\u01f9t\u00e0": 3414, "\u2581b\u00e0\u01f9t\u00e0banta": 3415, "\u2581Bantu": 3416, "b\u00e0n\u00faj": 3417, "\u2581baptism": 3418, "\u2581Baptism": 3419, "Baptist": 3420, "\u2581Baptist": 3421, "\u2581baptiz": 3422, "\u2581baptized": 3423, "\u2581Baptizer": 3424, "bar": 3425, "\u2581bar": 3426, "\u2581Bar": 3427, "bara": 3428, "\u2581b\u00e1ra": 3429, "\u2581Barak": 3430, "\u2581B\u00e1r\u00e1k\u00ec": 3431, "\u2581b\u00e1rak\u00fa": 3432, "\u2581B\u00e1rak\u00fa": 3433, "\u2581Barbara": 3434, "\u2581Barber": 3435, "\u2581Barcelona": 3436, "\u2581bare": 3437, "\u2581barley": 3438, "\u2581Barnabas": 3439, "\u2581Barr": 3440, "\u2581barracks": 3441, "\u2581barren": 3442, "\u2581barrier": 3443, "\u2581Barry": 3444, "\u2581Baruch": 3445, "\u2581B\u00e1r\u00fak\u00f9": 3446, "\u2581Barzillai": 3447, "\u2581Bas": 3448, "\u2581b\u00e1s\u00e1m\u00f9": 3449, "\u2581base": 3450, "based": 3451, "\u2581based": 3452, "\u2581basic": 3453, "\u2581basically": 3454, "\u2581B\u00e1s\u00edl\u00e1\u00ec": 3455, "\u2581basin": 3456, "\u2581basis": 3457, "\u2581basket": 3458, "\u2581b\u00e1\u1e63ub\u00e0\u1e63u": 3459, "bat": 3460, "\u2581b\u00e0t\u00e0": 3461, "\u2581b\u00e1t\u00e0n\u00ec": 3462, "\u2581bath": 3463, "\u2581Bath": 3464, "\u2581B\u00e1t\u00ed": 3465, "batis\u00ed": 3466, "\u2581batis\u00ed": 3467, "\u2581battle": 3468, "\u2581Battle": 3469, "\u2581Bauchi": 3470, "\u2581b\u00e1wo": 3471, "B\u00e1wo": 3472, "\u2581B\u00e1wo": 3473, "\u2581B\u00c1WO": 3474, "\u2581b\u00e1w\u1ecdn": 3475, "\u2581Bay": 3476, "\u2581Bayelsa": 3477, "\u2581b\u00e1y\u1eb9n": 3478, "\u2581bayi": 3479, "\u2581b\u00e1y\u00ec\u00ed": 3480, "\u2581B\u00e1y\u00ec\u00ed": 3481, "b\u00e0y\u00edk\u00e1": 3482, "bb": 3483, "\u2581BBC": 3484, "bbl": 3485, "bble": 3486, "be": 3487, "\u2581be": 3488, "Be": 3489, "\u2581Be": 3490, "\u2581BE": 3491, "b\u00e9": 3492, "\u2581b\u00e9": 3493, "B\u00e9": 3494, "\u2581B\u00e9": 3495, "\u2581B\u00c9": 3496, "b\u00e8": 3497, "\u2581b\u00e8": 3498, "\u2581B\u00e8": 3499, "b\u1eb9": 3500, "\u2581b\u1eb9": 3501, "\u2581B\u1eb9": 3502, "bear": 3503, "\u2581bear": 3504, "\u2581Bear": 3505, "\u2581b\u00e9\u00e1r\u00ec": 3506, "\u2581bearing": 3507, "\u2581bears": 3508, "\u2581beast": 3509, "\u2581beat": 3510, "\u2581Beat": 3511, "\u2581beaten": 3512, "beats": 3513, "\u2581Beatty": 3514, "\u2581beautiful": 3515, "\u2581beauty": 3516, "\u2581Beauty": 3517, "\u2581b\u00e9b\u00e0": 3518, "\u2581b\u00e8b\u00e8": 3519, "\u2581b\u1eb9b\u1eb9": 3520, "\u2581became": 3521, "because": 3522, "\u2581because": 3523, "Because": 3524, "\u2581Because": 3525, "\u2581Beck": 3526, "become": 3527, "\u2581become": 3528, "Become": 3529, "\u2581Become": 3530, "\u2581becomes": 3531, "\u2581becoming": 3532, "bed": 3533, "\u2581bed": 3534, "\u2581Bedell": 3535, "bedience": 3536, "\u2581bedroom": 3537, "\u2581bee": 3538, "\u2581been": 3539, "b\u00e9\u00e8r\u00e8": 3540, "\u2581b\u00e9\u00e8r\u00e8": 3541, "\u2581B\u00e9\u00e8r\u00e8": 3542, "\u2581B\u00c9\u00c8R\u00c8": 3543, "\u2581b\u1eb9\u1eb9r\u1eb9b\u1eb9": 3544, "\u2581befall": 3545, "\u2581befit": 3546, "\u2581before": 3547, "Before": 3548, "\u2581Before": 3549, "\u2581beforehand": 3550, "\u2581began": 3551, "\u2581begged": 3552, "\u2581begging": 3553, "\u2581begin": 3554, "\u2581beginning": 3555, "\u2581Beginning": 3556, "\u2581begins": 3557, "\u2581begotten": 3558, "\u2581begun": 3559, "\u2581behalf": 3560, "\u2581behave": 3561, "\u2581behavior": 3562, "\u2581beheld": 3563, "\u2581behind": 3564, "\u2581Behind": 3565, "\u2581behold": 3566, "\u2581being": 3567, "\u2581Being": 3568, "bel": 3569, "\u2581Bel": 3570, "\u2581Belgium": 3571, "\u2581belief": 3572, "\u2581Belief": 3573, "\u2581beliefs": 3574, "believe": 3575, "\u2581believe": 3576, "\u2581Believe": 3577, "\u2581believed": 3578, "\u2581believer": 3579, "\u2581believers": 3580, "\u2581believing": 3581, "\u2581B\u1eb9li\u1e63\u00e1s\u00e1r\u00ec": 3582, "\u2581Bell": 3583, "\u2581Bello": 3584, "\u2581belong": 3585, "\u2581belonged": 3586, "\u2581belonging": 3587, "\u2581belongings": 3588, "\u2581belongs": 3589, "\u2581beloved": 3590, "Beloved": 3591, "\u2581below": 3592, "\u2581Ben": 3593, "\u2581bench": 3594, "\u2581beneath": 3595, "\u2581Benedict": 3596, "\u2581beneficial": 3597, "\u2581beneficiary": 3598, "\u2581benefit": 3599, "\u2581Benefit": 3600, "\u2581BENEFIT": 3601, "\u2581benefited": 3602, "\u2581benefits": 3603, "\u2581Bengal": 3604, "\u2581Benin": 3605, "\u2581Benjamin": 3606, "\u2581Bennett": 3607, "\u2581b\u1eb9nu": 3608, "\u2581Benue": 3609, "ber": 3610, "\u2581Ber": 3611, "bere": 3612, "\u2581bere": 3613, "\u2581b\u00e8r\u00e8": 3614, "b\u1eb9r\u1eb9": 3615, "\u2581b\u1eb9r\u1eb9": 3616, "\u2581bereaved": 3617, "berg": 3618, "\u2581Berg": 3619, "\u2581Berlin": 3620, "\u2581Bern": 3621, "\u2581Bernard": 3622, "\u2581B\u00e8r\u00f3\u00e0": 3623, "\u2581Beroea": 3624, "bert": 3625, "\u2581Bert": 3626, "\u2581besides": 3627, "\u2581Besides": 3628, "\u2581best": 3629, "\u2581Best": 3630, "\u2581bestow": 3631, "\u2581Bet": 3632, "\u2581Bethany": 3633, "\u2581Bethel": 3634, "\u2581Bethelites": 3635, "\u2581Bethlehem": 3636, "\u2581betray": 3637, "\u2581betrayed": 3638, "\u2581better": 3639, "\u2581Better": 3640, "\u2581between": 3641, "\u2581beverages": 3642, "\u2581Beware": 3643, "\u2581beyond": 3644, "\u2581Beyond": 3645, "\u2581Bezalel": 3646, "bi": 3647, "\u2581bi": 3648, "\u2581Bi": 3649, "BI": 3650, "b\u00ed": 3651, "\u2581b\u00ed": 3652, "B\u00ed": 3653, "\u2581B\u00ed": 3654, "\u2581B\u00cd": 3655, "b\u00ec": 3656, "\u2581b\u00ec": 3657, "B\u00cc": 3658, "bia": 3659, "\u2581Biafra": 3660, "\u2581b\u00edb\u00e1": 3661, "\u2581B\u00edb\u00e1": 3662, "\u2581b\u00edbanil": 3663, "\u2581b\u00edb\u00e1niw\u00ed": 3664, "\u2581b\u00edb\u00e9\u00e8r\u00e8": 3665, "\u2581Bibeli": 3666, "B\u00edb\u00e9l\u00ec": 3667, "\u2581B\u00edb\u00e9l\u00ec": 3668, "\u2581B\u00cdB\u00c9L\u00cc": 3669, "\u2581b\u00edb\u00ed": 3670, "\u2581Bible": 3671, "\u2581BIBLE": 3672, "\u2581Bibli": 3673, "\u2581biblical": 3674, "\u2581Biblical": 3675, "\u2581b\u00edb\u00f2": 3676, "\u2581b\u00edb\u00f3j\u00fa": 3677, "\u2581b\u00edbu": 3678, "\u2581b\u00edbur\u00fa": 3679, "\u2581bicycle": 3680, "\u2581big": 3681, "\u2581Big": 3682, "b\u00edgb\u00e0d\u00far\u00e0": 3683, "\u2581bigger": 3684, "\u2581biggest": 3685, "\u2581bii": 3686, "b\u00edi": 3687, "\u2581b\u00edi": 3688, "\u2581B\u00edi": 3689, "\u2581B\u00cdI": 3690, "b\u00ec\u00ed": 3691, "b\u00edid\u00e1n": 3692, "bik\u00edbi": 3693, "\u2581b\u00eck\u00edt\u00e0": 3694, "\u2581B\u00eck\u00edt\u00e0": 3695, "b\u00edl\u00e0": 3696, "\u2581bill": 3697, "\u2581Bill": 3698, "\u2581billion": 3699, "\u2581billions": 3700, "\u2581b\u00edm\u1ecd": 3701, "bin": 3702, "\u2581bind": 3703, "\u2581binding": 3704, "binrin": 3705, "b\u00ecnrin": 3706, "\u2581b\u00ed\u0144t\u00edn": 3707, "b\u00edn\u00fa": 3708, "\u2581b\u00edn\u00fa": 3709, "bio": 3710, "\u2581bio": 3711, "\u2581biological": 3712, "bird": 3713, "\u2581bird": 3714, "\u2581birdcatcher": 3715, "\u2581birds": 3716, "\u2581b\u00ecr\u00ed": 3717, "b\u00ecr\u00ec": 3718, "\u2581biribiri": 3719, "\u2581b\u00edr\u00edk\u00ec": 3720, "b\u00ecr\u00eck\u00ect\u00ec": 3721, "\u2581birth": 3722, "\u2581Birth": 3723, "\u2581birthday": 3724, "\u2581biscuits": 3725, "\u2581bishop": 3726, "bit": 3727, "\u2581bit": 3728, "\u2581B\u00edt\u00edn\u00ed\u00e0": 3729, "\u2581bitter": 3730, "\u2581bitterness": 3731, "b\u00ecy\u00e0nj\u00fa": 3732, "\u2581Bl": 3733, "\u2581Bla": 3734, "\u2581black": 3735, "\u2581Black": 3736, "\u2581blade": 3737, "\u2581blame": 3738, "\u2581blameless": 3739, "Blank": 3740, "\u2581blanket": 3741, "\u2581blasphemer": 3742, "\u2581blasphemy": 3743, "\u2581blaze": 3744, "ble": 3745, "\u2581bleak": 3746, "\u2581bleeding": 3747, "\u2581blend": 3748, "\u2581bless": 3749, "\u2581blessed": 3750, "Blessed": 3751, "\u2581blesses": 3752, "\u2581blessing": 3753, "\u2581Blessing": 3754, "\u2581blessings": 3755, "\u2581Blessings": 3756, "\u2581blind": 3757, "\u2581bliss": 3758, "\u2581Blo": 3759, "\u2581block": 3760, "blood": 3761, "\u2581blood": 3762, "\u2581Blood": 3763, "\u2581bloodguilt": 3764, "\u2581bloodshed": 3765, "\u2581bloom": 3766, "\u2581blossom": 3767, "\u2581blow": 3768, "\u2581blue": 3769, "\u2581Blue": 3770, "\u2581blunt": 3771, "\u2581blur": 3772, "\u2581Blur": 3773, "BM": 3774, "bo": 3775, "\u2581bo": 3776, "\u2581Bo": 3777, "BO": 3778, "b\u00f3": 3779, "\u2581b\u00f3": 3780, "B\u00f3": 3781, "\u2581B\u00f3": 3782, "\u2581B\u00d3": 3783, "b\u00f2": 3784, "\u2581b\u00f2": 3785, "\u2581B\u00f2": 3786, "b\u1ecd": 3787, "\u2581b\u1ecd": 3788, "\u2581B\u1ecd": 3789, "board": 3790, "\u2581board": 3791, "\u2581B\u00f3\u00e1s\u00ec": 3792, "\u2581boast": 3793, "\u2581boat": 3794, "\u2581Boaz": 3795, "\u2581Bob": 3796, "bod\u00e8": 3797, "\u2581bodi": 3798, "\u2581bodies": 3799, "body": 3800, "\u2581body": 3801, "\u2581Body": 3802, "BOG": 3803, "\u2581boil": 3804, "\u2581boj\u00fa": 3805, "\u2581b\u00f3j\u00fa": 3806, "\u2581B\u00f3j\u00fa": 3807, "\u2581boj\u00faboj\u00fa": 3808, "bojuto": 3809, "b\u00f3j\u00fat\u00f3": 3810, "b\u1ecdl\u00e1": 3811, "\u2581bold": 3812, "\u2581boldly": 3813, "\u2581boldness": 3814, "\u2581B\u00f2l\u00edf\u00ed\u00e0": 3815, "\u2581Bolivia": 3816, "\u2581bolster": 3817, "\u2581bomb": 3818, "\u2581Bombay": 3819, "bomi": 3820, "b\u1ecdmi": 3821, "bon": 3822, "\u2581bond": 3823, "\u2581bondage": 3824, "\u2581bonds": 3825, "\u2581bone": 3826, "\u2581bones": 3827, "\u2581boni": 3828, "bonobo": 3829, "\u2581b\u00f3o": 3830, "\u2581B\u00f3o": 3831, "\u2581b\u00f2\u00f3": 3832, "book": 3833, "\u2581book": 3834, "\u2581Book": 3835, "\u2581booklet": 3836, "\u2581bookmark": 3837, "Bookmark": 3838, "\u2581Bookmark": 3839, "bookmarks": 3840, "\u2581bookmarks": 3841, "\u2581Bookmarks": 3842, "books": 3843, "\u2581books": 3844, "\u2581boolu": 3845, "\u2581boost": 3846, "\u2581booth": 3847, "\u2581Booth": 3848, "\u2581b\u1ecdpo": 3849, "bor": 3850, "\u2581Bor": 3851, "\u2581border": 3852, "\u2581bore": 3853, "\u2581bori": 3854, "bor\u00ed": 3855, "\u2581bor\u00ed": 3856, "\u2581Bor\u00ed": 3857, "\u2581boring": 3858, "born": 3859, "\u2581born": 3860, "\u2581Born": 3861, "\u2581BORN": 3862, "\u2581borne": 3863, "\u2581Borno": 3864, "\u2581borrow": 3865, "\u2581Borrow": 3866, "\u2581Bosnia": 3867, "\u2581bosom": 3868, "\u2581Boston": 3869, "\u2581both": 3870, "\u2581Both": 3871, "\u2581Botileje": 3872, "\u2581Botswana": 3873, "\u2581bottle": 3874, "bottom": 3875, "\u2581bottom": 3876, "\u2581Bottom": 3877, "\u2581Bou": 3878, "\u2581bought": 3879, "bound": 3880, "\u2581bound": 3881, "\u2581boundaries": 3882, "\u2581bow": 3883, "\u2581Bowen": 3884, "\u2581box": 3885, "\u2581Box": 3886, "\u2581boxes": 3887, "\u2581boy": 3888, "b\u00f3y\u00e1": 3889, "\u2581b\u00f3y\u00e1": 3890, "B\u00f3y\u00e1": 3891, "\u2581B\u00f3y\u00e1": 3892, "\u2581boyfriend": 3893, "\u2581boys": 3894, "bra": 3895, "\u2581Bra": 3896, "\u2581Brad": 3897, "\u2581brain": 3898, "\u2581branch": 3899, "\u2581Branch": 3900, "\u2581branches": 3901, "\u2581brand": 3902, "\u2581Brasil": 3903, "\u2581brave": 3904, "\u2581brazen": 3905, "\u2581Brazil": 3906, "\u2581BRAZIL": 3907, "\u2581Brazilian": 3908, "\u2581Bre": 3909, "\u2581breach": 3910, "\u2581bread": 3911, "break": 3912, "\u2581break": 3913, "\u2581Break": 3914, "\u2581breakdown": 3915, "\u2581breakfast": 3916, "\u2581breaking": 3917, "\u2581breakup": 3918, "\u2581breast": 3919, "\u2581breath": 3920, "\u2581breed": 3921, "\u2581breeze": 3922, "\u2581Brethren": 3923, "bri": 3924, "\u2581Bri": 3925, "\u2581Brian": 3926, "\u2581bribe": 3927, "\u2581brick": 3928, "\u2581bride": 3929, "\u2581bridegroom": 3930, "\u2581bridge": 3931, "\u2581Bridge": 3932, "\u2581brief": 3933, "\u2581briefly": 3934, "\u2581briga": 3935, "\u2581bright": 3936, "\u2581brilliant": 3937, "bring": 3938, "\u2581bring": 3939, "\u2581Bring": 3940, "\u2581brings": 3941, "\u2581Bristol": 3942, "\u2581Britain": 3943, "\u2581Britani": 3944, "\u2581Britannica": 3945, "\u2581British": 3946, "bro": 3947, "\u2581Bro": 3948, "\u2581broad": 3949, "\u2581Broad": 3950, "\u2581broadcast": 3951, "\u2581brochure": 3952, "\u2581broke": 3953, "\u2581broken": 3954, "\u2581Broken": 3955, "\u2581brokenhearted": 3956, "\u2581Brook": 3957, "\u2581Brooklyn": 3958, "\u2581brother": 3959, "\u2581Brother": 3960, "\u2581brotherhood": 3961, "\u2581brothers": 3962, "\u2581Brough": 3963, "\u2581brought": 3964, "\u2581brown": 3965, "\u2581Brown": 3966, "\u2581browse": 3967, "\u2581Browse": 3968, "\u2581browser": 3969, "\u2581Browser": 3970, "\u2581browsing": 3971, "\u2581Bru": 3972, "\u2581Bruce": 3973, "\u2581bruise": 3974, "\u2581Bruno": 3975, "\u2581brush": 3976, "\u2581brutal": 3977, "bu": 3978, "\u2581bu": 3979, "\u2581Bu": 3980, "b\u00fa": 3981, "\u2581b\u00fa": 3982, "b\u00f9": 3983, "\u2581b\u00f9": 3984, "\u2581B\u00f9": 3985, "B\u00d9": 3986, "\u2581b\u00f9\u00e1y\u00e0": 3987, "\u2581bubbl": 3988, "\u2581b\u00fabur\u00fa": 3989, "\u2581B\u00fabur\u00fa": 3990, "\u2581bucket": 3991, "\u2581Bud": 3992, "\u2581B\u00fad\u00e0": 3993, "\u2581Buddhism": 3994, "\u2581Buddhist": 3995, "\u2581budget": 3996, "budo": 3997, "\u2581Buhari": 3998, "build": 3999, "\u2581build": 4000, "\u2581Build": 4001, "\u2581building": 4002, "\u2581Building": 4003, "\u2581buildings": 4004, "\u2581built": 4005, "\u2581b\u00f9k\u00e1t\u00e0": 4006, "b\u00f9k\u00f9": 4007, "bul": 4008, "\u2581bulb": 4009, "\u2581Bulgaria": 4010, "B\u00f9lg\u00e1r\u00ed\u00e0": 4011, "\u2581B\u00f9lg\u00e1r\u00ed\u00e0": 4012, "\u2581bull": 4013, "\u2581bullet": 4014, "\u2581Bulletin": 4015, "\u2581b\u00fal\u00fa\u00f9": 4016, "\u2581bump": 4017, "bun": 4018, "b\u00f9n": 4019, "b\u00f9ngb\u00f9n": 4020, "bur": 4021, "\u2581Bur": 4022, "\u2581b\u00far": 4023, "\u2581B\u00far": 4024, "\u2581b\u00fara": 4025, "\u2581burden": 4026, "\u2581burdensome": 4027, "burg": 4028, "\u2581burial": 4029, "\u2581buried": 4030, "\u2581Burkina": 4031, "burn": 4032, "\u2581burn": 4033, "\u2581burned": 4034, "\u2581burning": 4035, "\u2581burst": 4036, "bur\u00fa": 4037, "\u2581bur\u00fa": 4038, "\u2581Bur\u00fa": 4039, "\u2581bur\u00fak\u00fa": 4040, "\u2581Bur\u00fak\u00fa": 4041, "\u2581Burundi": 4042, "\u2581bury": 4043, "\u2581bus": 4044, "\u2581bush": 4045, "\u2581business": 4046, "\u2581Business": 4047, "\u2581businessman": 4048, "\u2581busy": 4049, "but": 4050, "\u2581but": 4051, "\u2581But": 4052, "\u2581button": 4053, "\u2581buttons": 4054, "\u2581buy": 4055, "\u2581buy\u00ec": 4056, "\u2581buying": 4057, "by": 4058, "\u2581by": 4059, "By": 4060, "\u2581By": 4061, "BY": 4062, "c": 4063, "\u2581c": 4064, "C": 4065, "\u2581C": 4066, "\u0107": 4067, "\u0108": 4068, "\u010d": 4069, "\u010c": 4070, "\u00e7": 4071, "\u00c7": 4072, "ca": 4073, "\u2581ca": 4074, "\u2581Ca": 4075, "\u2581CA": 4076, "\u2581Caesar": 4077, "\u2581Caesarea": 4078, "\u2581caffeine": 4079, "\u2581Caiaphas": 4080, "\u2581Cain": 4081, "\u2581cake": 4082, "cal": 4083, "\u2581Cal": 4084, "\u2581calamities": 4085, "\u2581calamitous": 4086, "\u2581calamity": 4087, "\u2581calculate": 4088, "\u2581Caleb": 4089, "\u2581calendar": 4090, "\u2581Calendar": 4091, "\u2581calf": 4092, "\u2581California": 4093, "\u2581call": 4094, "\u2581Call": 4095, "\u2581called": 4096, "\u2581calling": 4097, "\u2581calls": 4098, "\u2581calm": 4099, "\u2581Calvin": 4100, "\u2581Cam": 4101, "\u2581Cambodia": 4102, "\u2581Cambridge": 4103, "came": 4104, "\u2581came": 4105, "\u2581Came": 4106, "\u2581Cameron": 4107, "\u2581Cameroon": 4108, "\u2581Camille": 4109, "\u2581camp": 4110, "\u2581Camp": 4111, "\u2581campaign": 4112, "\u2581camps": 4113, "can": 4114, "\u2581can": 4115, "\u2581Can": 4116, "\u2581CAN": 4117, "\u2581Canaan": 4118, "\u2581Canaanite": 4119, "\u2581Canaanites": 4120, "\u2581Canada": 4121, "\u2581Canadian": 4122, "\u2581cancel": 4123, "\u2581cancer": 4124, "\u2581cannot": 4125, "\u2581canvas": 4126, "cap": 4127, "\u2581cap": 4128, "\u2581capable": 4129, "\u2581capacity": 4130, "\u2581Cape": 4131, "\u2581Capernaum": 4132, "\u2581capital": 4133, "\u2581Capito": 4134, "\u2581captain": 4135, "\u2581captive": 4136, "\u2581captivity": 4137, "\u2581capture": 4138, "\u2581captured": 4139, "car": 4140, "\u2581car": 4141, "\u2581Car": 4142, "\u2581caravan": 4143, "\u2581carbon": 4144, "\u2581card": 4145, "\u2581cardinal": 4146, "\u2581care": 4147, "\u2581Care": 4148, "\u2581cared": 4149, "\u2581career": 4150, "\u2581careful": 4151, "\u2581carefully": 4152, "\u2581caregiver": 4153, "\u2581cares": 4154, "\u2581Caribbean": 4155, "\u2581caring": 4156, "\u2581Carl": 4157, "\u2581Carlos": 4158, "\u2581Carmel": 4159, "\u2581Carmen": 4160, "\u2581Carol": 4161, "\u2581Carolina": 4162, "\u2581Caroline": 4163, "\u2581carpenter": 4164, "\u2581carried": 4165, "\u2581carries": 4166, "\u2581carry": 4167, "\u2581carrying": 4168, "\u2581carved": 4169, "\u2581case": 4170, "\u2581cases": 4171, "\u2581cash": 4172, "\u2581cast": 4173, "\u2581Cast": 4174, "\u2581Castro": 4175, "\u2581casual": 4176, "\u2581casualties": 4177, "\u2581cat": 4178, "\u2581Cat": 4179, "\u2581catastrophe": 4180, "\u2581catch": 4181, "\u2581categories": 4182, "\u2581category": 4183, "\u2581cathedral": 4184, "\u2581Catherine": 4185, "\u2581Catholic": 4186, "\u2581Catholicism": 4187, "\u2581Catholics": 4188, "\u2581cattle": 4189, "\u2581caught": 4190, "\u2581cause": 4191, "\u2581Cause": 4192, "\u2581caused": 4193, "\u2581causes": 4194, "\u2581causing": 4195, "\u2581caution": 4196, "\u2581cautious": 4197, "\u2581cave": 4198, "cc": 4199, "ccessories": 4200, "ccTLD": 4201, "\u2581CD": 4202, "ce": 4203, "\u2581Ce": 4204, "CE": 4205, "\u2581cease": 4206, "\u2581ceased": 4207, "ced": 4208, "\u2581Ced": 4209, "\u2581cedar": 4210, "\u2581cel": 4211, "\u2581Cel": 4212, "\u2581celebrate": 4213, "\u2581celebrated": 4214, "\u2581celebrating": 4215, "\u2581celebration": 4216, "\u2581cell": 4217, "\u2581cells": 4218, "\u2581cement": 4219, "\u2581census": 4220, "cent": 4221, "\u2581cent": 4222, "\u2581center": 4223, "\u2581Center": 4224, "\u2581centered": 4225, "\u2581central": 4226, "\u2581Central": 4227, "\u2581centre": 4228, "\u2581Centre": 4229, "\u2581centuries": 4230, "\u2581Centuries": 4231, "\u2581century": 4232, "\u2581Century": 4233, "ceptive": 4234, "cer": 4235, "\u2581ceremonies": 4236, "\u2581ceremony": 4237, "certain": 4238, "\u2581certain": 4239, "\u2581Certain": 4240, "\u2581certainly": 4241, "\u2581Certainly": 4242, "\u2581certainty": 4243, "\u2581certificate": 4244, "\u2581Certificate": 4245, "\u2581Ces": 4246, "cession": 4247, "ch": 4248, "\u2581ch": 4249, "\u2581Ch": 4250, "CH": 4251, "\u2581CH": 4252, "cha": 4253, "\u2581Cha": 4254, "\u2581Chad": 4255, "\u2581chain": 4256, "\u2581chair": 4257, "\u2581chairman": 4258, "\u2581Chaldea": 4259, "\u2581challenge": 4260, "\u2581Challenge": 4261, "\u2581challenged": 4262, "\u2581challenges": 4263, "\u2581challenging": 4264, "\u2581chamber": 4265, "\u2581champion": 4266, "chan": 4267, "\u2581Chan": 4268, "\u2581chance": 4269, "\u2581change": 4270, "\u2581Change": 4271, "\u2581CHANGE": 4272, "\u2581changed": 4273, "\u2581changes": 4274, "\u2581Changes": 4275, "\u2581changing": 4276, "\u2581Changing": 4277, "\u2581channel": 4278, "\u2581chaos": 4279, "\u2581chapter": 4280, "\u2581Chapter": 4281, "\u2581chapters": 4282, "\u2581Char": 4283, "\u2581character": 4284, "\u2581characteristic": 4285, "\u2581characteristics": 4286, "\u2581characterize": 4287, "\u2581characterized": 4288, "\u2581characters": 4289, "\u2581charge": 4290, "\u2581charged": 4291, "\u2581chariot": 4292, "\u2581Charit": 4293, "\u2581charitable": 4294, "\u2581Charles": 4295, "\u2581Charlotte": 4296, "\u2581charm": 4297, "\u2581chart": 4298, "\u2581Chart": 4299, "\u2581chase": 4300, "\u2581chaste": 4301, "\u2581chastise": 4302, "\u2581chastity": 4303, "\u2581chat": 4304, "che": 4305, "\u2581Che": 4306, "\u2581cheap": 4307, "\u2581cheat": 4308, "\u2581check": 4309, "\u2581Check": 4310, "ched": 4311, "\u2581cheek": 4312, "\u2581cheer": 4313, "\u2581cheerful": 4314, "\u2581cheese": 4315, "chem": 4316, "\u2581chemical": 4317, "cher": 4318, "\u2581Cher": 4319, "\u2581Cheri": 4320, "\u2581cherish": 4321, "\u2581cherished": 4322, "\u2581cherubs": 4323, "\u2581chest": 4324, "\u2581Chester": 4325, "\u2581chew": 4326, "chi": 4327, "\u2581Chi": 4328, "\u2581Chiapas": 4329, "\u2581Chicago": 4330, "\u2581chicken": 4331, "\u2581chief": 4332, "Chief": 4333, "\u2581Chief": 4334, "\u2581child": 4335, "\u2581Child": 4336, "\u2581childbirth": 4337, "\u2581childhood": 4338, "children": 4339, "\u2581children": 4340, "Children": 4341, "\u2581Children": 4342, "\u2581CHILDREN": 4343, "\u2581Chile": 4344, "chin": 4345, "\u2581China": 4346, "\u2581Chinese": 4347, "cho": 4348, "\u2581Cho": 4349, "\u2581choice": 4350, "\u2581Choice": 4351, "\u2581choices": 4352, "\u2581choke": 4353, "\u2581choose": 4354, "\u2581Choose": 4355, "\u2581choosing": 4356, "\u2581chores": 4357, "\u2581chose": 4358, "\u2581chosen": 4359, "\u2581Chris": 4360, "Christ": 4361, "\u2581Christ": 4362, "\u2581CHRIST": 4363, "\u2581Christendom": 4364, "Christian": 4365, "\u2581Christian": 4366, "\u2581CHRISTIAN": 4367, "\u2581Christianity": 4368, "\u2581Christians": 4369, "\u2581Christine": 4370, "\u2581Christlike": 4371, "\u2581Christmas": 4372, "\u2581Christoph": 4373, "\u2581Christopher": 4374, "\u2581Chron": 4375, "\u2581chronic": 4376, "\u2581Chronicles": 4377, "\u2581chronology": 4378, "chu": 4379, "\u2581Chu": 4380, "\u2581church": 4381, "\u2581Church": 4382, "\u2581churches": 4383, "\u2581churchgoers": 4384, "ci": 4385, "\u2581Ci": 4386, "cia": 4387, "cient": 4388, "\u2581cigarette": 4389, "\u2581Cindy": 4390, "cio": 4391, "\u2581circle": 4392, "\u2581Circle": 4393, "\u2581circuit": 4394, "\u2581circula": 4395, "\u2581circulation": 4396, "\u2581circumcised": 4397, "\u2581circumcision": 4398, "\u2581circumstance": 4399, "\u2581Circumstance": 4400, "\u2581circumstances": 4401, "\u2581cistern": 4402, "\u2581cit": 4403, "\u2581cited": 4404, "\u2581cities": 4405, "\u2581citizen": 4406, "\u2581citizens": 4407, "city": 4408, "\u2581city": 4409, "\u2581City": 4410, "\u2581civil": 4411, "\u2581Civil": 4412, "\u2581civilian": 4413, "\u2581civilization": 4414, "ck": 4415, "cke": 4416, "cker": 4417, "cket": 4418, "\u2581Cl": 4419, "cla": 4420, "\u2581Cla": 4421, "claim": 4422, "\u2581claim": 4423, "\u2581claimed": 4424, "\u2581claims": 4425, "\u2581Claire": 4426, "\u2581Clark": 4427, "\u2581clash": 4428, "\u2581class": 4429, "\u2581Class": 4430, "\u2581classes": 4431, "\u2581classmates": 4432, "\u2581Claude": 4433, "\u2581clay": 4434, "cle": 4435, "clean": 4436, "\u2581clean": 4437, "\u2581Clean": 4438, "\u2581cleaning": 4439, "\u2581cleanliness": 4440, "\u2581cleanness": 4441, "\u2581cleanse": 4442, "\u2581cleansed": 4443, "\u2581cleansing": 4444, "\u2581clear": 4445, "\u2581Clear": 4446, "\u2581clearly": 4447, "\u2581Clearly": 4448, "\u2581Clement": 4449, "\u2581clergy": 4450, "\u2581clergyman": 4451, "\u2581clergymen": 4452, "\u2581cleric": 4453, "\u2581Cleveland": 4454, "\u2581clever": 4455, "\u2581click": 4456, "\u2581Click": 4457, "\u2581clicked": 4458, "\u2581client": 4459, "\u2581cliff": 4460, "\u2581climate": 4461, "\u2581climax": 4462, "\u2581climb": 4463, "\u2581cling": 4464, "\u2581clinic": 4465, "\u2581Clinic": 4466, "\u2581clipboard": 4467, "clock": 4468, "\u2581clock": 4469, "Clock": 4470, "\u2581Clock": 4471, "close": 4472, "\u2581close": 4473, "\u2581Close": 4474, "\u2581closed": 4475, "\u2581closely": 4476, "\u2581closer": 4477, "\u2581closest": 4478, "\u2581closing": 4479, "\u2581cloth": 4480, "\u2581clothe": 4481, "Clothe": 4482, "\u2581clothes": 4483, "\u2581clothing": 4484, "\u2581cloud": 4485, "\u2581clouds": 4486, "\u2581Clovis": 4487, "\u2581clown": 4488, "\u2581club": 4489, "\u2581clue": 4490, "clusion": 4491, "clusive": 4492, "\u2581cluster": 4493, "\u2581cm": 4494, "\u2581CNN": 4495, "co": 4496, "\u2581co": 4497, "Co": 4498, "\u2581Co": 4499, "CO": 4500, "\u2581coal": 4501, "\u2581coast": 4502, "\u2581Coast": 4503, "\u2581coat": 4504, "\u2581cocaine": 4505, "\u2581coconut": 4506, "\u2581code": 4507, "\u2581codex": 4508, "\u2581Codex": 4509, "\u2581coffee": 4510, "\u2581coin": 4511, "\u2581coins": 4512, "col": 4513, "\u2581Col": 4514, "\u2581cold": 4515, "\u2581Coliseum": 4516, "\u2581collaborat": 4517, "\u2581collapse": 4518, "\u2581colleague": 4519, "\u2581collect": 4520, "\u2581collected": 4521, "\u2581collection": 4522, "\u2581collective": 4523, "\u2581college": 4524, "\u2581College": 4525, "\u2581Collins": 4526, "\u2581Colo": 4527, "\u2581Colombia": 4528, "\u2581colon": 4529, "\u2581color": 4530, "\u2581Colorado": 4531, "\u2581colorful": 4532, "\u2581Colossae": 4533, "\u2581Colossians": 4534, "\u2581colour": 4535, "\u2581colporteur": 4536, "\u2581Columbia": 4537, "\u2581Columbus": 4538, "\u2581column": 4539, "\u2581columns": 4540, "com": 4541, "\u2581Com": 4542, "\u2581comb": 4543, "\u2581combat": 4544, "\u2581combination": 4545, "\u2581combine": 4546, "\u2581combined": 4547, "come": 4548, "\u2581come": 4549, "Come": 4550, "\u2581Come": 4551, "\u2581comes": 4552, "\u2581comfort": 4553, "\u2581Comfort": 4554, "\u2581comfortable": 4555, "\u2581comforted": 4556, "\u2581comforting": 4557, "\u2581coming": 4558, "\u2581Comm": 4559, "\u2581command": 4560, "Command": 4561, "\u2581Command": 4562, "\u2581commanded": 4563, "\u2581commander": 4564, "Commander": 4565, "\u2581commandment": 4566, "\u2581commandments": 4567, "\u2581Commandments": 4568, "\u2581commands": 4569, "\u2581commemorat": 4570, "\u2581commemorate": 4571, "\u2581commend": 4572, "\u2581commendable": 4573, "\u2581commendation": 4574, "\u2581commended": 4575, "\u2581comment": 4576, "Comment": 4577, "\u2581Comment": 4578, "\u2581commented": 4579, "\u2581comments": 4580, "\u2581commerce": 4581, "\u2581commercial": 4582, "\u2581commission": 4583, "\u2581Commission": 4584, "\u2581commissioned": 4585, "\u2581commit": 4586, "\u2581commitment": 4587, "\u2581committ": 4588, "\u2581committed": 4589, "\u2581committee": 4590, "\u2581Committee": 4591, "\u2581common": 4592, "\u2581Common": 4593, "\u2581commonly": 4594, "\u2581commonplace": 4595, "\u2581Commonwealth": 4596, "\u2581commun": 4597, "\u2581Communi": 4598, "\u2581Communicat": 4599, "\u2581communicate": 4600, "\u2581communicating": 4601, "\u2581communication": 4602, "\u2581Communication": 4603, "\u2581communion": 4604, "\u2581Communist": 4605, "\u2581communities": 4606, "\u2581community": 4607, "\u2581Community": 4608, "\u2581commute": 4609, "\u2581Comp": 4610, "\u2581companies": 4611, "\u2581companion": 4612, "\u2581companions": 4613, "\u2581companionship": 4614, "\u2581company": 4615, "\u2581Company": 4616, "\u2581compar": 4617, "comparable": 4618, "\u2581compare": 4619, "\u2581Compare": 4620, "\u2581compared": 4621, "\u2581comparison": 4622, "\u2581compass": 4623, "\u2581compassion": 4624, "\u2581Compassion": 4625, "\u2581compassionate": 4626, "\u2581compatibility": 4627, "\u2581compatible": 4628, "\u2581compel": 4629, "\u2581compelled": 4630, "\u2581compelling": 4631, "\u2581compensate": 4632, "\u2581compet": 4633, "\u2581competent": 4634, "\u2581competition": 4635, "\u2581competitive": 4636, "\u2581compil": 4637, "\u2581complain": 4638, "\u2581complained": 4639, "\u2581complaint": 4640, "\u2581complement": 4641, "\u2581complet": 4642, "complete": 4643, "\u2581complete": 4644, "\u2581Complete": 4645, "\u2581completed": 4646, "\u2581completely": 4647, "\u2581completion": 4648, "\u2581complex": 4649, "\u2581complicated": 4650, "\u2581complied": 4651, "\u2581compliment": 4652, "\u2581Complutensian": 4653, "\u2581comply": 4654, "\u2581component": 4655, "\u2581composed": 4656, "\u2581composer": 4657, "\u2581composite": 4658, "\u2581composition": 4659, "\u2581compound": 4660, "\u2581comprehend": 4661, "comprehensible": 4662, "\u2581comprehension": 4663, "\u2581compromise": 4664, "\u2581compromising": 4665, "\u2581compulsion": 4666, "\u2581compulsory": 4667, "\u2581computer": 4668, "\u2581Computer": 4669, "con": 4670, "\u2581con": 4671, "\u2581Con": 4672, "\u2581CON": 4673, "\u2581conceal": 4674, "\u2581concealed": 4675, "\u2581conceive": 4676, "conceived": 4677, "\u2581concentrat": 4678, "\u2581concentrate": 4679, "\u2581concentration": 4680, "\u2581concept": 4681, "\u2581concern": 4682, "\u2581Concern": 4683, "\u2581concerned": 4684, "\u2581concerning": 4685, "\u2581concerns": 4686, "\u2581concert": 4687, "\u2581conclude": 4688, "\u2581concluded": 4689, "\u2581concludes": 4690, "\u2581concluding": 4691, "\u2581conclusion": 4692, "\u2581concrete": 4693, "\u2581concubine": 4694, "\u2581condemn": 4695, "\u2581condemnation": 4696, "\u2581condemned": 4697, "condition": 4698, "\u2581condition": 4699, "\u2581Condition": 4700, "\u2581conditions": 4701, "\u2581condone": 4702, "\u2581conduct": 4703, "\u2581Conduct": 4704, "\u2581conducted": 4705, "\u2581conducting": 4706, "conf": 4707, "\u2581conference": 4708, "\u2581Conference": 4709, "\u2581confess": 4710, "\u2581confessed": 4711, "\u2581confession": 4712, "\u2581confide": 4713, "\u2581confidence": 4714, "\u2581Confidence": 4715, "\u2581confident": 4716, "\u2581confidential": 4717, "\u2581confidently": 4718, "\u2581configur": 4719, "\u2581Configur": 4720, "\u2581configuration": 4721, "\u2581confined": 4722, "\u2581confinement": 4723, "\u2581confirm": 4724, "\u2581confirmation": 4725, "\u2581confirmed": 4726, "\u2581confiscat": 4727, "\u2581conflict": 4728, "\u2581Conflict": 4729, "\u2581conflicts": 4730, "\u2581conform": 4731, "\u2581confront": 4732, "\u2581confrontation": 4733, "\u2581confronted": 4734, "\u2581confused": 4735, "\u2581confusing": 4736, "\u2581confusion": 4737, "Congo": 4738, "\u2581Congo": 4739, "\u2581congregat": 4740, "congregation": 4741, "\u2581congregation": 4742, "\u2581Congregation": 4743, "\u2581congregations": 4744, "\u2581Congress": 4745, "\u2581connect": 4746, "\u2581Connect": 4747, "\u2581connected": 4748, "\u2581connection": 4749, "\u2581connections": 4750, "Connor": 4751, "\u2581conquer": 4752, "\u2581Conquer": 4753, "\u2581conquered": 4754, "\u2581conquest": 4755, "\u2581cons": 4756, "\u2581conscience": 4757, "\u2581Conscience": 4758, "\u2581conscientious": 4759, "\u2581conscious": 4760, "\u2581consent": 4761, "\u2581consequence": 4762, "\u2581consequences": 4763, "\u2581Consequently": 4764, "consider": 4765, "\u2581consider": 4766, "\u2581Consider": 4767, "\u2581considerable": 4768, "\u2581considerate": 4769, "\u2581consideration": 4770, "\u2581considered": 4771, "\u2581considering": 4772, "\u2581consist": 4773, "\u2581consisted": 4774, "\u2581consistent": 4775, "\u2581consistently": 4776, "\u2581consolation": 4777, "\u2581console": 4778, "\u2581consoling": 4779, "\u2581conspir": 4780, "\u2581Constan": 4781, "\u2581constant": 4782, "\u2581Constant": 4783, "\u2581Constantine": 4784, "\u2581constantly": 4785, "\u2581constellation": 4786, "\u2581constitute": 4787, "constitution": 4788, "\u2581Constitution": 4789, "\u2581construct": 4790, "\u2581constructed": 4791, "\u2581construction": 4792, "\u2581consult": 4793, "\u2581consume": 4794, "\u2581consumed": 4795, "\u2581consumer": 4796, "\u2581consuming": 4797, "\u2581consumption": 4798, "\u2581contact": 4799, "\u2581Contact": 4800, "\u2581contacted": 4801, "\u2581contagious": 4802, "\u2581contain": 4803, "\u2581contained": 4804, "\u2581container": 4805, "\u2581containing": 4806, "\u2581contains": 4807, "\u2581contaminat": 4808, "\u2581contaminated": 4809, "\u2581contemplate": 4810, "\u2581contemplating": 4811, "\u2581Contemporar": 4812, "\u2581contemporaries": 4813, "\u2581contemporary": 4814, "\u2581contempt": 4815, "\u2581contend": 4816, "\u2581content": 4817, "\u2581Content": 4818, "\u2581contention": 4819, "\u2581contentiousness": 4820, "\u2581contentment": 4821, "\u2581contents": 4822, "Contents": 4823, "\u2581Contents": 4824, "\u2581contest": 4825, "\u2581context": 4826, "\u2581continent": 4827, "\u2581continually": 4828, "continue": 4829, "\u2581continue": 4830, "Continue": 4831, "\u2581Continue": 4832, "\u2581continued": 4833, "\u2581continues": 4834, "\u2581continuing": 4835, "\u2581continuous": 4836, "\u2581contract": 4837, "\u2581contradict": 4838, "\u2581contrary": 4839, "\u2581contrast": 4840, "\u2581Contrast": 4841, "\u2581contribut": 4842, "\u2581contribute": 4843, "\u2581contributed": 4844, "\u2581contributes": 4845, "\u2581contribution": 4846, "\u2581contributions": 4847, "\u2581control": 4848, "\u2581Control": 4849, "\u2581controlled": 4850, "\u2581controlling": 4851, "\u2581controversial": 4852, "\u2581controversy": 4853, "\u2581convenience": 4854, "\u2581convenient": 4855, "\u2581convent": 4856, "\u2581convention": 4857, "\u2581Convention": 4858, "\u2581conventions": 4859, "\u2581conversation": 4860, "\u2581Conversation": 4861, "\u2581conversations": 4862, "\u2581converse": 4863, "\u2581Converse": 4864, "\u2581conversing": 4865, "\u2581conversion": 4866, "\u2581convert": 4867, "\u2581convey": 4868, "\u2581convict": 4869, "\u2581conviction": 4870, "\u2581convince": 4871, "\u2581convinced": 4872, "\u2581convincing": 4873, "\u2581cook": 4874, "\u2581Cook": 4875, "\u2581Cookie": 4876, "\u2581cooking": 4877, "\u2581cool": 4878, "\u2581cooperate": 4879, "\u2581cooperating": 4880, "\u2581cooperation": 4881, "\u2581cooperative": 4882, "\u2581coordinator": 4883, "\u2581Cop": 4884, "\u2581cope": 4885, "\u2581Cope": 4886, "\u2581Copernicus": 4887, "\u2581copied": 4888, "\u2581copies": 4889, "\u2581coping": 4890, "\u2581copper": 4891, "\u2581Coptic": 4892, "\u2581copy": 4893, "Copy": 4894, "\u2581Copy": 4895, "cor": 4896, "\u2581Cor": 4897, "\u2581COR": 4898, "\u2581Coralie": 4899, "\u2581cord": 4900, "\u2581core": 4901, "\u2581Corinth": 4902, "\u2581Corinthians": 4903, "\u2581corn": 4904, "\u2581Cornelius": 4905, "\u2581corner": 4906, "corporate": 4907, "\u2581corporation": 4908, "\u2581corpse": 4909, "correct": 4910, "\u2581correct": 4911, "\u2581corrected": 4912, "\u2581correction": 4913, "\u2581correctly": 4914, "\u2581correspond": 4915, "\u2581corrupt": 4916, "\u2581corrupted": 4917, "\u2581corruption": 4918, "\u2581Corruption": 4919, "\u2581corulers": 4920, "\u2581cosmetic": 4921, "\u2581cost": 4922, "\u2581Costa": 4923, "\u2581cotton": 4924, "\u2581Cou": 4925, "\u2581could": 4926, "\u2581Could": 4927, "\u2581couldn": 4928, "\u2581council": 4929, "\u2581Council": 4930, "\u2581counsel": 4931, "\u2581Counsel": 4932, "\u2581counseled": 4933, "\u2581counselor": 4934, "count": 4935, "\u2581count": 4936, "\u2581Count": 4937, "\u2581counted": 4938, "\u2581counter": 4939, "\u2581counteract": 4940, "\u2581counterfeit": 4941, "\u2581countless": 4942, "\u2581countries": 4943, "\u2581country": 4944, "\u2581COUNTRY": 4945, "\u2581countryside": 4946, "\u2581couple": 4947, "\u2581couples": 4948, "\u2581coupon": 4949, "\u2581courage": 4950, "\u2581Courage": 4951, "\u2581courageous": 4952, "\u2581Courageous": 4953, "\u2581courageously": 4954, "\u2581course": 4955, "court": 4956, "\u2581court": 4957, "\u2581Court": 4958, "\u2581courtesy": 4959, "\u2581Courtesy": 4960, "\u2581courtship": 4961, "\u2581courtyard": 4962, "\u2581cousin": 4963, "\u2581covenant": 4964, "cover": 4965, "\u2581cover": 4966, "\u2581COVER": 4967, "\u2581Coverdale": 4968, "\u2581covered": 4969, "\u2581covering": 4970, "\u2581covet": 4971, "\u2581covetousness": 4972, "COVID": 4973, "\u2581cow": 4974, "\u2581coworker": 4975, "\u2581crack": 4976, "craft": 4977, "\u2581craft": 4978, "\u2581Craig": 4979, "\u2581cramped": 4980, "\u2581crash": 4981, "\u2581crave": 4982, "\u2581craving": 4983, "\u2581crazy": 4984, "cre": 4985, "\u2581cream": 4986, "\u2581create": 4987, "\u2581Create": 4988, "\u2581created": 4989, "\u2581creating": 4990, "\u2581creation": 4991, "\u2581Creation": 4992, "\u2581creative": 4993, "\u2581Creator": 4994, "\u2581creators": 4995, "\u2581creature": 4996, "\u2581creatures": 4997, "\u2581credentials": 4998, "\u2581credit": 4999, "\u2581Credit": 5000, "creenshot": 5001, "\u2581crep": 5002, "\u2581Crete": 5003, "\u2581crew": 5004, "\u2581cried": 5005, "\u2581cries": 5006, "\u2581crime": 5007, "\u2581Crime": 5008, "crimin": 5009, "\u2581criminal": 5010, "\u2581criminals": 5011, "\u2581crippl": 5012, "\u2581crisis": 5013, "\u2581Crisis": 5014, "\u2581Crist": 5015, "\u2581critic": 5016, "critical": 5017, "\u2581critical": 5018, "\u2581criticism": 5019, "\u2581criticize": 5020, "\u2581criticized": 5021, "cro": 5022, "\u2581Cro": 5023, "\u2581Croatia": 5024, "\u2581crocodile": 5025, "\u2581crooked": 5026, "\u2581crop": 5027, "\u2581crops": 5028, "\u2581cross": 5029, "\u2581Cross": 5030, "\u2581crowd": 5031, "\u2581crowds": 5032, "\u2581crown": 5033, "\u2581crucial": 5034, "\u2581cruel": 5035, "\u2581cruelty": 5036, "\u2581crush": 5037, "\u2581crushed": 5038, "\u2581Cruz": 5039, "\u2581cry": 5040, "\u2581crying": 5041, "\u2581crystal": 5042, "ct": 5043, "ctic": 5044, "ction": 5045, "ctor": 5046, "cu": 5047, "\u2581Cu": 5048, "\u2581cubit": 5049, "cul": 5050, "cular": 5051, "\u2581cult": 5052, "\u2581Cultivat": 5053, "\u2581cultivate": 5054, "\u2581Cultivate": 5055, "\u2581cultivated": 5056, "\u2581cultivating": 5057, "\u2581cultural": 5058, "\u2581Cultural": 5059, "\u2581culture": 5060, "\u2581Culture": 5061, "\u2581cultures": 5062, "\u2581cuneiform": 5063, "\u2581cunning": 5064, "cup": 5065, "\u2581cup": 5066, "\u2581Cup": 5067, "\u2581cupbearer": 5068, "cur": 5069, "\u2581cur": 5070, "\u2581Cur": 5071, "\u2581cure": 5072, "\u2581cured": 5073, "\u2581curfew": 5074, "\u2581curiosity": 5075, "\u2581curious": 5076, "\u2581currency": 5077, "\u2581current": 5078, "\u2581Current": 5079, "\u2581currently": 5080, "\u2581curse": 5081, "\u2581curtain": 5082, "cus": 5083, "\u2581custody": 5084, "custom": 5085, "\u2581custom": 5086, "\u2581Custom": 5087, "\u2581customary": 5088, "\u2581customers": 5089, "\u2581customs": 5090, "cut": 5091, "\u2581cut": 5092, "\u2581Cut": 5093, "\u2581cutting": 5094, "cy": 5095, "\u2581Cycl": 5096, "\u2581cycle": 5097, "\u2581Cyprus": 5098, "\u2581Cyril": 5099, "Cyrillic": 5100, "\u2581Cyrillic": 5101, "\u2581Cyrus": 5102, "\u2581Czech": 5103, "\u2581Czechoslovakia": 5104, "d": 5105, "\u2581d": 5106, "D": 5107, "\u2581D": 5108, "\u0110": 5109, "\u1e0d": 5110, "\u00f0": 5111, "da": 5112, "\u2581da": 5113, "\u2581Da": 5114, "DA": 5115, "d\u00e1": 5116, "\u2581d\u00e1": 5117, "D\u00e1": 5118, "\u2581D\u00e1": 5119, "D\u00c1": 5120, "\u2581D\u00c1": 5121, "d\u00e0": 5122, "\u2581d\u00e0": 5123, "\u2581D\u00e0": 5124, "D\u00c0": 5125, "\u2581D\u00c0": 5126, "\u2581d\u00e1a": 5127, "\u2581D\u00e1a": 5128, "d\u00e0\u00e1": 5129, "\u2581d\u00e1\u00e0b\u00f2": 5130, "\u2581D\u00e1\u00e0b\u00f2": 5131, "\u2581D\u00e1\u00e0b\u00f2b": 5132, "\u2581d\u00e1ad\u00e1a": 5133, "\u2581D\u00e1ad\u00e1a": 5134, "\u2581D\u00c1AD\u00c1A": 5135, "d\u00e0\u00e0m\u00fa": 5136, "\u2581d\u00e0\u00e0m\u00fa": 5137, "\u2581d\u00e1b\u00e0\u00e1": 5138, "\u2581d\u00e0b\u00ed": 5139, "dab\u00f2": 5140, "\u2581d\u00e1b\u00f9\u00fa": 5141, "\u2581dad": 5142, "\u2581Dad": 5143, "\u2581d\u00e1d\u00ec": 5144, "\u2581D\u00e1d\u00ec": 5145, "d\u00e1d\u00far\u00f3": 5146, "\u2581Daemon": 5147, "D\u00e1f\u00edd\u00ec": 5148, "\u2581D\u00e1f\u00edd\u00ec": 5149, "d\u00e0gb\u00e0": 5150, "\u2581d\u00e0gb\u00e0": 5151, "\u2581D\u00e0gb\u00e0": 5152, "dagbasoke": 5153, "d\u00e1gb\u00e9re": 5154, "\u2581d\u00e1gunl\u00e1": 5155, "\u2581dahoro": 5156, "\u2581d\u00e1h\u00f9n": 5157, "\u2581D\u00e1h\u00f9n": 5158, "\u2581D\u00c1H\u00d9N": 5159, "\u2581daily": 5160, "\u2581Daily": 5161, "d\u00e1j\u00f3": 5162, "d\u00e1j\u00fa": 5163, "\u2581d\u00e1j\u00fa": 5164, "\u2581d\u00e1j\u00fad\u00e1j\u00fa": 5165, "D\u00e1j\u00fad\u00e1j\u00fa": 5166, "\u2581D\u00e1j\u00fad\u00e1j\u00fa": 5167, "\u2581d\u00e1ko": 5168, "\u2581d\u00e1k\u00fa": 5169, "d\u00e1l\u00e1re": 5170, "d\u00e1l\u00e8": 5171, "d\u00e0l\u00e8": 5172, "dam": 5173, "\u2581dam": 5174, "\u2581Dam": 5175, "\u2581damage": 5176, "\u2581damaged": 5177, "\u2581damaging": 5178, "\u2581Damascus": 5179, "\u2581Dam\u00e1s\u00edk\u00f9": 5180, "\u2581d\u00e1m\u00f2": 5181, "\u2581Dan": 5182, "\u2581d\u00e1n": 5183, "\u2581d\u00e1n\u00e1": 5184, "\u2581dance": 5185, "\u2581dancing": 5186, "\u2581dandan": 5187, "\u2581Dandan": 5188, "\u2581d\u00e1\u0144g\u00e1j\u00ed\u00e1": 5189, "\u2581danger": 5190, "\u2581dangerous": 5191, "\u2581dangers": 5192, "\u2581d\u00e1ni": 5193, "\u2581d\u00e1n\u00ed": 5194, "d\u00e1n\u00ec": 5195, "\u2581D\u00e1n\u00ed\u00e9": 5196, "\u2581Daniel": 5197, "d\u00e0n\u00edy\u00e0n": 5198, "\u2581d\u00e1\u0144t": 5199, "\u2581d\u00e0n\u00f9": 5200, "danwo": 5201, "d\u00e1nw\u00f2": 5202, "\u2581d\u00e1p\u00e0\u00e1r\u00e1": 5203, "\u2581Daphne": 5204, "d\u00e0p\u00f2": 5205, "\u2581Dar": 5206, "\u2581dara": 5207, "\u2581Dara": 5208, "d\u00e1ra": 5209, "\u2581d\u00e1ra": 5210, "\u2581D\u00e1ra": 5211, "\u2581d\u00e1rad\u00e1ra": 5212, "dar\u00e0n": 5213, "\u2581darandaran": 5214, "darap\u1ecd": 5215, "\u2581darap\u1ecd": 5216, "\u2581dare": 5217, "dari": 5218, "\u2581dar\u00ed": 5219, "\u2581Dar\u00ed": 5220, "\u2581d\u00e1r\u00ed": 5221, "\u2581D\u00e1r\u00ed": 5222, "\u2581D\u00e1r\u00ed\u00fas\u00ec": 5223, "\u2581dark": 5224, "\u2581darkness": 5225, "\u2581d\u00e0r\u00fa": 5226, "\u2581dar\u00fagb\u00f3": 5227, "\u2581d\u00e1r\u00fak\u1ecd": 5228, "\u2581Darwin": 5229, "\u2581d\u00e0\u1e63\u00e0": 5230, "\u2581dash": 5231, "dasile": 5232, "\u2581data": 5233, "\u2581Data": 5234, "\u2581Database": 5235, "date": 5236, "\u2581date": 5237, "\u2581Date": 5238, "\u2581dated": 5239, "\u2581dating": 5240, "\u2581daughter": 5241, "\u2581daughters": 5242, "\u2581daunting": 5243, "\u2581Dave": 5244, "\u2581David": 5245, "\u2581Davis": 5246, "\u2581d\u00e0w\u00e1t\u00ec": 5247, "\u2581dawn": 5248, "\u2581d\u00e1w\u00f3": 5249, "day": 5250, "\u2581day": 5251, "\u2581Day": 5252, "\u2581d\u00e1y\u00e9": 5253, "\u2581days": 5254, "dden": 5255, "dding": 5256, "ddle": 5257, "de": 5258, "\u2581de": 5259, "\u2581De": 5260, "DE": 5261, "\u2581DE": 5262, "d\u00e9": 5263, "\u2581d\u00e9": 5264, "\u2581D\u00e9": 5265, "D\u00c9": 5266, "d\u00e8": 5267, "\u2581d\u00e8": 5268, "\u2581D\u00e8": 5269, "d\u1eb9": 5270, "\u2581d\u1eb9": 5271, "\u2581D\u1eb9": 5272, "\u2581dead": 5273, "\u2581Dead": 5274, "\u2581deadly": 5275, "\u2581deaf": 5276, "\u2581deal": 5277, "\u2581dealing": 5278, "\u2581dealings": 5279, "\u2581dear": 5280, "death": 5281, "\u2581death": 5282, "\u2581Death": 5283, "\u2581debate": 5284, "\u2581d\u00e9b\u00e8": 5285, "\u2581d\u00e9bi": 5286, "\u2581debilitating": 5287, "\u2581D\u00e8b\u00f3r\u00e0": 5288, "\u2581Deborah": 5289, "\u2581debris": 5290, "\u2581debt": 5291, "\u2581Dec": 5292, "\u2581decade": 5293, "\u2581decades": 5294, "\u2581decay": 5295, "\u2581deceased": 5296, "\u2581deceit": 5297, "\u2581deceitful": 5298, "\u2581deceive": 5299, "\u2581deceived": 5300, "\u2581deceiving": 5301, "December": 5302, "\u2581December": 5303, "\u2581decent": 5304, "\u2581deception": 5305, "\u2581deceptive": 5306, "\u2581decide": 5307, "\u2581Decide": 5308, "\u2581decided": 5309, "\u2581deciding": 5310, "\u2581decision": 5311, "\u2581Decision": 5312, "\u2581decisions": 5313, "\u2581decisive": 5314, "Declar": 5315, "\u2581declaration": 5316, "\u2581Declaration": 5317, "\u2581declare": 5318, "\u2581declared": 5319, "\u2581declaring": 5320, "\u2581decline": 5321, "\u2581decorati": 5322, "\u2581decrease": 5323, "\u2581decree": 5324, "\u2581decreed": 5325, "ded": 5326, "d\u00e9d\u00e9": 5327, "\u2581dedicate": 5328, "\u2581dedicated": 5329, "\u2581dedication": 5330, "\u2581deed": 5331, "d\u00e9\u00e9d\u00e9": 5332, "\u2581d\u00e9\u00e9d\u00e9": 5333, "\u2581d\u00e9\u00e9d\u00e9\u00e9": 5334, "\u2581D\u00e9\u00e9d\u00e9\u00e9": 5335, "\u2581D\u00c9\u00c9D\u00c9\u00c9": 5336, "\u2581deeds": 5337, "deemed": 5338, "deep": 5339, "\u2581deep": 5340, "\u2581Deep": 5341, "\u2581deepen": 5342, "\u2581deeper": 5343, "\u2581deeply": 5344, "d\u00e9\u00e8t\u00ec": 5345, "\u2581d\u00e9\u00e8t\u00ec": 5346, "\u2581default": 5347, "Default": 5348, "\u2581defeat": 5349, "\u2581defeated": 5350, "\u2581defect": 5351, "\u2581defend": 5352, "\u2581defense": 5353, "\u2581defensive": 5354, "\u2581defilement": 5355, "\u2581defiling": 5356, "\u2581define": 5357, "\u2581defined": 5358, "\u2581definite": 5359, "\u2581definitely": 5360, "\u2581definition": 5361, "\u2581defraud": 5362, "\u2581defy": 5363, "\u2581degrade": 5364, "\u2581degrading": 5365, "\u2581degree": 5366, "dehyd": 5367, "\u2581deities": 5368, "\u2581d\u1eb9k\u00f9n": 5369, "del": 5370, "\u2581del": 5371, "\u2581Del": 5372, "\u2581delay": 5373, "\u2581d\u00e9l\u00e9": 5374, "d\u00e9l\u00e8": 5375, "\u2581d\u00e9l\u00e8": 5376, "\u2581delegate": 5377, "\u2581delegates": 5378, "\u2581delegation": 5379, "Delet": 5380, "\u2581Delet": 5381, "\u2581delete": 5382, "\u2581deleted": 5383, "\u2581deliberate": 5384, "\u2581deliberately": 5385, "\u2581delicate": 5386, "\u2581delicious": 5387, "\u2581delight": 5388, "\u2581delighted": 5389, "\u2581delightful": 5390, "\u2581deliver": 5391, "Deliver": 5392, "\u2581deliverance": 5393, "\u2581Deliverance": 5394, "\u2581delivered": 5395, "\u2581Delta": 5396, "\u2581deluge": 5397, "\u2581Deluge": 5398, "\u2581demand": 5399, "\u2581demanded": 5400, "\u2581demanding": 5401, "\u2581demands": 5402, "\u2581demean": 5403, "\u2581Democrati": 5404, "\u2581Democratic": 5405, "\u2581demon": 5406, "\u2581demons": 5407, "\u2581demonstrate": 5408, "\u2581demonstrated": 5409, "\u2581demonstrating": 5410, "\u2581demonstration": 5411, "den": 5412, "\u2581den": 5413, "\u2581Den": 5414, "\u2581d\u00e8n\u00e0": 5415, "\u2581d\u1eb9ngb\u1eb9r\u1eb9": 5416, "d\u1eb9ni": 5417, "\u2581denial": 5418, "\u2581denied": 5419, "\u2581Denmark": 5420, "\u2581Dennis": 5421, "\u2581denote": 5422, "\u2581dense": 5423, "dent": 5424, "\u2581d\u1eb9nu": 5425, "\u2581d\u00e9n\u00fa": 5426, "\u2581deny": 5427, "\u2581depart": 5428, "\u2581department": 5429, "\u2581Department": 5430, "\u2581departure": 5431, "\u2581depend": 5432, "\u2581Depend": 5433, "\u2581dependent": 5434, "\u2581depends": 5435, "\u2581depict": 5436, "\u2581depicted": 5437, "\u2581deported": 5438, "\u2581deposit": 5439, "\u2581deprecated": 5440, "\u2581depressed": 5441, "\u2581depression": 5442, "\u2581Depression": 5443, "\u2581deprived": 5444, "\u2581depth": 5445, "der": 5446, "\u2581Der": 5447, "\u2581derive": 5448, "\u2581derived": 5449, "\u2581d\u1eb9r\u00fa": 5450, "\u2581d\u1eb9r\u00f9n": 5451, "des": 5452, "Des": 5453, "\u2581descend": 5454, "\u2581descendant": 5455, "\u2581descendants": 5456, "\u2581descended": 5457, "\u2581descent": 5458, "\u2581Describ": 5459, "\u2581describe": 5460, "\u2581Describe": 5461, "\u2581described": 5462, "\u2581describes": 5463, "\u2581describing": 5464, "\u2581description": 5465, "\u2581desert": 5466, "\u2581Desert": 5467, "\u2581deserve": 5468, "\u2581deserved": 5469, "\u2581deserves": 5470, "\u2581deserving": 5471, "\u2581design": 5472, "\u2581DESIGN": 5473, "\u2581designated": 5474, "\u2581designed": 5475, "\u2581desirable": 5476, "\u2581desire": 5477, "\u2581desired": 5478, "\u2581desires": 5479, "\u2581desiring": 5480, "desktop": 5481, "\u2581desktop": 5482, "Desktop": 5483, "\u2581Desktop": 5484, "\u2581desolate": 5485, "\u2581desolation": 5486, "\u2581despair": 5487, "\u2581desperate": 5488, "\u2581desperately": 5489, "\u2581despise": 5490, "\u2581despised": 5491, "\u2581destination": 5492, "destined": 5493, "\u2581destiny": 5494, "\u2581destroy": 5495, "\u2581destroyed": 5496, "\u2581destruction": 5497, "\u2581destructive": 5498, "\u2581detail": 5499, "\u2581detailed": 5500, "\u2581details": 5501, "\u2581Details": 5502, "\u2581detect": 5503, "\u2581deteriorate": 5504, "\u2581determin": 5505, "\u2581determination": 5506, "\u2581determine": 5507, "\u2581Determine": 5508, "\u2581determined": 5509, "\u2581detestable": 5510, "\u2581Deut": 5511, "\u2581Deuteronomy": 5512, "\u2581devastated": 5513, "\u2581devastating": 5514, "\u2581devastation": 5515, "\u2581develop": 5516, "\u2581Develop": 5517, "\u2581developed": 5518, "\u2581developing": 5519, "\u2581development": 5520, "\u2581Development": 5521, "\u2581developments": 5522, "\u2581deviate": 5523, "\u2581device": 5524, "\u2581devices": 5525, "\u2581devil": 5526, "\u2581Devil": 5527, "\u2581devis": 5528, "\u2581devot": 5529, "\u2581devote": 5530, "\u2581devoted": 5531, "\u2581devotion": 5532, "\u2581devour": 5533, "\u2581devout": 5534, "\u2581dew": 5535, "d\u00e8y\u00ed": 5536, "dge": 5537, "dherence": 5538, "di": 5539, "\u2581di": 5540, "\u2581Di": 5541, "\u2581DI": 5542, "d\u00ed": 5543, "\u2581d\u00ed": 5544, "D\u00ed": 5545, "\u2581D\u00ed": 5546, "\u2581D\u00cd": 5547, "d\u00ec": 5548, "\u2581d\u00ec": 5549, "D\u00cc": 5550, "dia": 5551, "\u2581Dia": 5552, "\u2581diabetes": 5553, "\u2581diagnosed": 5554, "\u2581diagnosis": 5555, "\u2581Diagram": 5556, "\u2581dialect": 5557, "\u2581dialog": 5558, "\u2581dialogue": 5559, "\u2581diameter": 5560, "\u2581diamond": 5561, "\u2581Diane": 5562, "\u2581diarrhe": 5563, "\u2581d\u00edb": 5564, "\u2581d\u00ecb\u00e0j": 5565, "\u2581d\u00ecb\u00f2": 5566, "diboyan": 5567, "dic": 5568, "dicating": 5569, "\u2581Dick": 5570, "dict": 5571, "\u2581dictate": 5572, "\u2581dictionary": 5573, "\u2581Dictionary": 5574, "did": 5575, "\u2581did": 5576, "\u2581Did": 5577, "\u2581d\u00edda": 5578, "\u2581d\u00edd\u00e1": 5579, "\u2581D\u00edd\u00e1": 5580, "\u2581d\u00edd\u00e0": 5581, "\u2581d\u00edd\u00e1\u00e0b\u00f2": 5582, "\u2581d\u00edd\u00e1h\u00f9n": 5583, "\u2581d\u00ecd\u00e0kud\u00e0": 5584, "\u2581d\u00edd\u00e1ra": 5585, "\u2581Didarajulo": 5586, "\u2581D\u00edd\u00e1raj\u00f9l\u1ecd": 5587, "\u2581didasile": 5588, "\u2581d\u00ecde": 5589, "D\u00ecde": 5590, "\u2581D\u00ecde": 5591, "\u2581d\u00edd\u00e9": 5592, "\u2581d\u00eddi": 5593, "\u2581d\u00edd\u00ed": 5594, "\u2581d\u00edd\u00ec": 5595, "\u2581didiboya": 5596, "\u2581didn": 5597, "\u2581d\u00edd\u00f3": 5598, "\u2581d\u00edd\u00f9n": 5599, "\u2581d\u00edd\u00far\u00f3": 5600, "\u2581D\u00edd\u00far\u00f3": 5601, "die": 5602, "\u2581die": 5603, "\u2581Die": 5604, "d\u00ed\u00e8": 5605, "\u2581d\u00ed\u00e8": 5606, "\u2581D\u00ed\u00e8": 5607, "\u2581d\u00ed\u1eb9": 5608, "\u2581died": 5609, "\u2581dies": 5610, "\u2581diet": 5611, "\u2581differ": 5612, "\u2581difference": 5613, "\u2581Difference": 5614, "\u2581differences": 5615, "\u2581different": 5616, "\u2581Different": 5617, "\u2581differently": 5618, "\u2581difficult": 5619, "\u2581difficulties": 5620, "\u2581difficulty": 5621, "\u2581dig": 5622, "\u2581d\u00ecgb\u00e0": 5623, "\u2581digb\u00ed": 5624, "\u2581d\u00ecgb\u00f2lugi": 5625, "\u2581digest": 5626, "\u2581d\u00edg\u00ed": 5627, "\u2581d\u00ecg\u00edr": 5628, "\u2581dignified": 5629, "\u2581dignity": 5630, "\u2581Dignity": 5631, "d\u00ec\u00ed": 5632, "\u2581d\u00ec\u00edd\u00ec": 5633, "d\u00ed\u00ecs\u00ec": 5634, "d\u00edje": 5635, "\u2581d\u00edje": 5636, "\u2581d\u00edj\u00fa": 5637, "d\u00eckej\u00ec": 5638, "\u2581dilemma": 5639, "\u2581diligence": 5640, "\u2581diligent": 5641, "\u2581diligently": 5642, "\u2581dimension": 5643, "\u2581diminish": 5644, "din": 5645, "d\u00edn": 5646, "\u2581d\u00edn": 5647, "\u2581Dinah": 5648, "\u2581d\u00edn\u00e1r\u00ec": 5649, "dindi": 5650, "ding": 5651, "d\u00edn\u00edg\u00f2": 5652, "d\u00ednl\u1ecd": 5653, "dinlogbon": 5654, "d\u00ednl\u00f3g\u00fan": 5655, "\u2581dinner": 5656, "dio": 5657, "\u2581Diogenes": 5658, "\u2581D\u00ec\u00f3t\u00edr\u00e9f\u00e8": 5659, "\u2581dioxide": 5660, "\u2581diploma": 5661, "\u2581d\u00edp\u00f2": 5662, "\u2581Dir": 5663, "DIR": 5664, "\u2581d\u00edr\u00e1g\u00f3n\u00ec": 5665, "d\u00edr\u00e1k": 5666, "\u2581d\u00edr\u00e1k\u00edm\u00e0": 5667, "\u2581dire": 5668, "direct": 5669, "\u2581direct": 5670, "\u2581Direct": 5671, "\u2581directed": 5672, "\u2581directing": 5673, "\u2581direction": 5674, "\u2581directly": 5675, "\u2581director": 5676, "\u2581Director": 5677, "\u2581directory": 5678, "d\u00edr\u00ecn": 5679, "\u2581dirt": 5680, "dis": 5681, "\u2581dis": 5682, "Dis": 5683, "\u2581Dis": 5684, "\u2581disabilities": 5685, "\u2581disability": 5686, "\u2581disable": 5687, "\u2581Disable": 5688, "\u2581disabled": 5689, "\u2581disadvantage": 5690, "\u2581disagree": 5691, "\u2581disagreement": 5692, "\u2581disappear": 5693, "\u2581disappeared": 5694, "\u2581disappoint": 5695, "\u2581disappointed": 5696, "\u2581disappointment": 5697, "\u2581disapproval": 5698, "\u2581disapprove": 5699, "\u2581disaster": 5700, "\u2581Disaster": 5701, "\u2581disasters": 5702, "\u2581disastrous": 5703, "\u2581disbelief": 5704, "\u2581discern": 5705, "\u2581Discern": 5706, "\u2581discerned": 5707, "\u2581discerning": 5708, "\u2581discernment": 5709, "\u2581discharge": 5710, "\u2581disciple": 5711, "\u2581Disciple": 5712, "\u2581disciples": 5713, "\u2581discipline": 5714, "\u2581Discipline": 5715, "\u2581disciplining": 5716, "\u2581discomfort": 5717, "\u2581discourage": 5718, "\u2581discouraged": 5719, "\u2581discouragement": 5720, "\u2581discouraging": 5721, "\u2581discourse": 5722, "\u2581discover": 5723, "\u2581Discover": 5724, "\u2581discovered": 5725, "\u2581discovery": 5726, "\u2581discreet": 5727, "\u2581discretion": 5728, "\u2581discrimination": 5729, "\u2581discuss": 5730, "\u2581Discuss": 5731, "\u2581discusse": 5732, "\u2581discussed": 5733, "\u2581discussing": 5734, "\u2581discussion": 5735, "\u2581discussions": 5736, "\u2581disdain": 5737, "\u2581disease": 5738, "\u2581Disease": 5739, "\u2581diseases": 5740, "\u2581disfellowshipp": 5741, "\u2581disgrace": 5742, "\u2581disgust": 5743, "\u2581dish": 5744, "\u2581disheartened": 5745, "\u2581dishes": 5746, "\u2581dishonest": 5747, "\u2581dishonesty": 5748, "\u2581dishonor": 5749, "\u2581disillusioned": 5750, "\u2581disk": 5751, "\u2581dislike": 5752, "\u2581disloyal": 5753, "\u2581dismiss": 5754, "\u2581disobedience": 5755, "\u2581disobedient": 5756, "\u2581disobey": 5757, "\u2581disobeyed": 5758, "\u2581disorder": 5759, "\u2581disown": 5760, "\u2581dispatch": 5761, "\u2581dispens": 5762, "\u2581displaced": 5763, "\u2581display": 5764, "\u2581Display": 5765, "\u2581displayed": 5766, "\u2581displease": 5767, "\u2581displeasing": 5768, "\u2581displeasure": 5769, "\u2581disposal": 5770, "\u2581disposed": 5771, "\u2581disposition": 5772, "\u2581dispute": 5773, "disquiet": 5774, "\u2581disregard": 5775, "\u2581disrespect": 5776, "\u2581disrespectful": 5777, "\u2581disrupt": 5778, "\u2581dissatisfied": 5779, "\u2581dissolved": 5780, "\u2581distance": 5781, "\u2581distant": 5782, "\u2581distinct": 5783, "\u2581distinction": 5784, "\u2581distinctive": 5785, "\u2581distinguish": 5786, "\u2581distort": 5787, "\u2581distorted": 5788, "\u2581distract": 5789, "\u2581distracted": 5790, "\u2581distress": 5791, "\u2581distressed": 5792, "\u2581distressing": 5793, "\u2581Distribut": 5794, "\u2581distribute": 5795, "\u2581distributed": 5796, "\u2581distributing": 5797, "\u2581distribution": 5798, "\u2581district": 5799, "\u2581District": 5800, "\u2581distrust": 5801, "\u2581disturb": 5802, "\u2581disturbed": 5803, "\u2581disunity": 5804, "\u2581Diu": 5805, "\u2581Diutar\u00f3n\u00f3m\u00ec": 5806, "\u2581diverse": 5807, "\u2581diversity": 5808, "\u2581divert": 5809, "\u2581divide": 5810, "\u2581divided": 5811, "\u2581dividing": 5812, "\u2581divination": 5813, "\u2581divine": 5814, "\u2581Divine": 5815, "\u2581division": 5816, "\u2581divisive": 5817, "\u2581divorce": 5818, "\u2581Divorce": 5819, "\u2581divorced": 5820, "d\u00edw\u1ecd": 5821, "dle": 5822, "dly": 5823, "dministrative": 5824, "dmittedly": 5825, "\u2581DNA": 5826, "do": 5827, "\u2581do": 5828, "Do": 5829, "\u2581Do": 5830, "DO": 5831, "\u2581DO": 5832, "d\u00f3": 5833, "\u2581d\u00f3": 5834, "\u2581D\u00f3": 5835, "D\u00d3": 5836, "d\u00f2": 5837, "\u2581d\u00f2": 5838, "\u2581D\u00f2": 5839, "D\u00d2": 5840, "d\u1ecd": 5841, "\u2581d\u1ecd": 5842, "\u2581doctor": 5843, "\u2581doctors": 5844, "\u2581doctrinal": 5845, "\u2581doctrine": 5846, "\u2581doctrines": 5847, "\u2581document": 5848, "Document": 5849, "\u2581documents": 5850, "\u2581Documents": 5851, "\u2581d\u1ecdd\u1eb9": 5852, "dodo": 5853, "\u2581does": 5854, "\u2581Does": 5855, "\u2581doesn": 5856, "\u2581dog": 5857, "\u2581dogma": 5858, "d\u00f3g\u00fan": 5859, "\u2581doi": 5860, "\u2581doing": 5861, "\u2581Doing": 5862, "\u2581doj\u00fa": 5863, "\u2581d\u00f3k\u00edt\u00e0": 5864, "\u2581D\u00f3k\u00edt\u00e0": 5865, "\u2581d\u00f3ko": 5866, "dol": 5867, "\u2581dollars": 5868, "\u2581dol\u00f3w\u00f3": 5869, "dom": 5870, "\u2581domain": 5871, "\u2581domestic": 5872, "\u2581dominant": 5873, "\u2581dominate": 5874, "\u2581dominated": 5875, "\u2581domination": 5876, "\u2581Domingo": 5877, "\u2581Dominic": 5878, "\u2581Dominica": 5879, "\u2581d\u00f2m\u00ecnira": 5880, "\u2581d\u1ecdm\u1ecd": 5881, "don": 5882, "\u2581don": 5883, "Don": 5884, "\u2581Don": 5885, "\u2581Donald": 5886, "\u2581donation": 5887, "\u2581donations": 5888, "\u2581done": 5889, "\u2581d\u00f2n\u00ed": 5890, "\u2581donor": 5891, "d\u1ecd\u1ecdd\u00fan": 5892, "\u2581doomed": 5893, "\u2581door": 5894, "\u2581doors": 5895, "\u2581d\u00f3pin": 5896, "\u2581D\u00f3pin": 5897, "dor": 5898, "\u2581Dorcas": 5899, "\u2581dor\u00ed": 5900, "\u2581d\u00f3r\u00ed": 5901, "\u2581Doris": 5902, "\u2581Dorot": 5903, "\u2581Dorothy": 5904, "\u2581d\u00f2ru": 5905, "\u2581double": 5906, "\u2581doubt": 5907, "doubtedly": 5908, "\u2581doubtless": 5909, "\u2581doubts": 5910, "\u2581Doug": 5911, "\u2581Douglas": 5912, "down": 5913, "\u2581down": 5914, "\u2581Down": 5915, "\u2581DOWN": 5916, "\u2581downhearted": 5917, "\u2581download": 5918, "Download": 5919, "\u2581Download": 5920, "\u2581downloads": 5921, "\u2581downpour": 5922, "\u2581Dr": 5923, "dra": 5924, "\u2581draft": 5925, "\u2581drag": 5926, "\u2581Drag": 5927, "\u2581dragged": 5928, "\u2581dragon": 5929, "\u2581drain": 5930, "\u2581drama": 5931, "\u2581Drama": 5932, "\u2581dramatic": 5933, "\u2581dramatically": 5934, "\u2581drank": 5935, "\u2581drastic": 5936, "draw": 5937, "\u2581draw": 5938, "Draw": 5939, "\u2581Draw": 5940, "drawer": 5941, "\u2581drawer": 5942, "\u2581Drawer": 5943, "\u2581drawing": 5944, "\u2581drawn": 5945, "\u2581dread": 5946, "\u2581dream": 5947, "\u2581Dream": 5948, "\u2581dreams": 5949, "\u2581dress": 5950, "\u2581dressed": 5951, "drew": 5952, "\u2581dried": 5953, "\u2581drift": 5954, "\u2581drill": 5955, "\u2581drink": 5956, "\u2581Drink": 5957, "\u2581drinking": 5958, "\u2581drive": 5959, "\u2581driven": 5960, "\u2581driver": 5961, "\u2581driving": 5962, "dro": 5963, "\u2581drop": 5964, "\u2581dropped": 5965, "\u2581drought": 5966, "\u2581drove": 5967, "\u2581drown": 5968, "\u2581drug": 5969, "\u2581Drug": 5970, "\u2581drugs": 5971, "\u2581drunk": 5972, "\u2581drunkenness": 5973, "\u2581dry": 5974, "ds": 5975, "du": 5976, "\u2581du": 5977, "\u2581Du": 5978, "d\u00fa": 5979, "\u2581D\u00fa": 5980, "d\u00f9": 5981, "\u2581d\u00f9": 5982, "\u2581Dublin": 5983, "d\u00f9b\u00fal": 5984, "\u2581d\u00f9b\u00fal": 5985, "duction": 5986, "\u2581dudu": 5987, "\u2581d\u00fad\u00fa": 5988, "\u2581D\u00fad\u00fa": 5989, "\u2581due": 5990, "\u2581d\u00fak\u00ec\u00e1": 5991, "\u2581dull": 5992, "\u2581dump": 5993, "dun": 5994, "\u2581dun": 5995, "d\u00fan": 5996, "\u2581d\u00fan": 5997, "D\u00daN": 5998, "d\u00f9n": 5999, "\u2581d\u00f9n": 6000, "\u2581D\u00f9n": 6001, "\u2581d\u00fan\u00e0\u00e1d\u00far\u00e0": 6002, "dunadura": 6003, "\u2581d\u00fa\u0144b\u00fa": 6004, "dunj\u00fa": 6005, "\u2581dunj\u00fa": 6006, "\u2581dunni": 6007, "d\u00fanr\u00fan": 6008, "\u2581D\u00fap": 6009, "d\u00fap\u00e9": 6010, "\u2581d\u00fap\u00e9": 6011, "\u2581Duplessis": 6012, "\u2581Dur": 6013, "\u2581duration": 6014, "\u2581Durban": 6015, "\u2581during": 6016, "\u2581duro": 6017, "d\u00far\u00f3": 6018, "\u2581d\u00far\u00f3": 6019, "D\u00far\u00f3": 6020, "\u2581D\u00far\u00f3": 6021, "D\u00daR\u00d3": 6022, "d\u00far\u1ecd": 6023, "d\u00far\u00fa": 6024, "\u2581dust": 6025, "\u2581Dustin": 6026, "\u2581Dutch": 6027, "\u2581duties": 6028, "\u2581duty": 6029, "\u2581DVD": 6030, "\u2581dwell": 6031, "\u2581dwelling": 6032, "dy": 6033, "\u2581dye": 6034, "\u2581dying": 6035, "\u2581dynamic": 6036, "\u2581dynasty": 6037, "e": 6038, "\u2581e": 6039, "E": 6040, "\u2581E": 6041, "\u00e9": 6042, "\u2581\u00e9": 6043, "\u00c9": 6044, "\u2581\u00c9": 6045, "\u00e8": 6046, "\u2581\u00e8": 6047, "\u00c8": 6048, "\u2581\u00c8": 6049, "\u0115": 6050, "\u00ea": 6051, "\u1ebf": 6052, "\u1ec5": 6053, "\u00ca": 6054, "\u011b": 6055, "\u00eb": 6056, "\u1ebd": 6057, "\u0117": 6058, "\u0119": 6059, "\u0113": 6060, "\u1e17": 6061, "\u1eb9": 6062, "\u2581\u1eb9": 6063, "\u1eb8": 6064, "\u2581\u1eb8": 6065, "\u0259": 6066, "ea": 6067, "\u2581each": 6068, "\u2581Each": 6069, "EACH": 6070, "\u2581eager": 6071, "\u2581eagerly": 6072, "\u2581eagerness": 6073, "\u2581eagle": 6074, "ear": 6075, "\u2581ear": 6076, "\u2581Earl": 6077, "\u2581earlie": 6078, "\u2581earlier": 6079, "\u2581Earlier": 6080, "\u2581early": 6081, "\u2581Early": 6082, "\u2581earn": 6083, "\u2581earned": 6084, "\u2581earnest": 6085, "\u2581earnestly": 6086, "\u2581ears": 6087, "\u2581earth": 6088, "\u2581Earth": 6089, "\u2581earthly": 6090, "\u2581earthquake": 6091, "\u2581Earthquake": 6092, "\u2581earthquakes": 6093, "\u2581ease": 6094, "\u2581easier": 6095, "\u2581easily": 6096, "\u2581east": 6097, "\u2581East": 6098, "\u2581Easter": 6099, "eastern": 6100, "\u2581eastern": 6101, "\u2581Eastern": 6102, "\u2581easy": 6103, "\u2581eat": 6104, "\u2581Eat": 6105, "\u2581eaten": 6106, "\u2581eating": 6107, "\u2581Eb": 6108, "\u2581Ebe": 6109, "\u2581\u00c9b\u00e9": 6110, "\u2581ebi": 6111, "\u2581Ebi": 6112, "\u2581\u1eb9b\u00ed": 6113, "\u2581\u1eb9b\u1ecd": 6114, "\u2581\u1eb8b\u1ecd": 6115, "\u2581Ebu": 6116, "\u2581ebun": 6117, "\u2581Ebun": 6118, "\u2581\u00e8b\u00fat\u00e9": 6119, "ec": 6120, "EC": 6121, "\u2581Eccl": 6122, "\u2581Ecclesiastes": 6123, "\u2581ecclesiastic": 6124, "\u2581echo": 6125, "\u2581eclipse": 6126, "\u2581economic": 6127, "\u2581Economic": 6128, "\u2581Economist": 6129, "\u2581economy": 6130, "\u2581ecstasy": 6131, "ector": 6132, "\u2581Ecuador": 6133, "ecutive": 6134, "ed": 6135, "\u2581Ed": 6136, "ED": 6137, "\u2581\u00c9d": 6138, "\u2581Eddie": 6139, "ede": 6140, "\u2581ede": 6141, "Ede": 6142, "\u2581Ede": 6143, "\u00e8d\u00e8": 6144, "\u2581\u00e8d\u00e8": 6145, "\u00c8d\u00e8": 6146, "\u2581\u00c8d\u00e8": 6147, "\u2581\u00c8D\u00c8": 6148, "\u2581\u00e8d\u00e8k\u00f2y\u00e9d\u00e8": 6149, "\u2581\u00c8d\u00e8k\u00f2y\u00e9d\u00e8": 6150, "\u2581Eden": 6151, "\u2581Edgar": 6152, "\u2581edge": 6153, "\u2581Edge": 6154, "\u2581\u00e8d\u00ecd\u00ec": 6155, "\u2581edit": 6156, "Edit": 6157, "\u2581Edit": 6158, "\u2581Edith": 6159, "\u2581edition": 6160, "\u2581Edition": 6161, "\u2581editor": 6162, "\u2581Editor": 6163, "\u2581Edmund": 6164, "\u2581Edo": 6165, "\u2581\u00c9d\u00f3m\u00f9": 6166, "\u2581Eduard": 6167, "\u2581Eduardo": 6168, "\u2581educate": 6169, "\u2581educated": 6170, "\u2581educating": 6171, "\u2581education": 6172, "\u2581Education": 6173, "\u2581educational": 6174, "\u2581educator": 6175, "\u2581Edward": 6176, "\u2581Edwin": 6177, "ee": 6178, "\u00c8\u00e9": 6179, "\u2581\u00c8\u00e9": 6180, "\u2581\u00e8\u00e9b\u00ec": 6181, "\u2581\u00e8\u00e9b\u00fa": 6182, "\u2581\u00e9\u00e8d\u00ec": 6183, "\u2581\u00c9\u00e8d\u00ec": 6184, "\u2581\u00e8\u00e9d\u00fa": 6185, "\u00e9\u00e8\u00e9m\u00ed": 6186, "\u2581\u00e8\u00e9f\u00edn": 6187, "\u2581e\u00e9gb\u1ecdn": 6188, "\u2581eegun": 6189, "\u2581e\u00e9g\u00fan": 6190, "\u2581\u00e8\u00e9k\u00e1nn\u00e1": 6191, "\u2581e\u00e9k\u00fan": 6192, "\u2581\u00e8\u00e8l\u00f2": 6193, "\u2581\u00e8\u00e9m\u00ed": 6194, "\u2581\u00e8\u00e8r\u00e0": 6195, "\u2581\u00e8\u00e9r\u00ed": 6196, "\u2581e\u00e9r\u00fa": 6197, "\u2581e\u00e9\u1e63\u00fa": 6198, "\u00e9\u00e8t\u00ec": 6199, "\u2581\u00e8\u00e8y\u00e0n": 6200, "\u2581\u00c8\u00e8y\u00e0n": 6201, "\u2581\u00c8\u00c8Y\u00c0N": 6202, "\u2581\u00e8\u00e8y\u00e0nk\u00e9\u00e8y\u00e0n": 6203, "ef": 6204, "\u2581\u00c9f\u00e0": 6205, "\u2581\u00c9f\u00e9": 6206, "\u2581\u00c9F\u00c9": 6207, "eferring": 6208, "\u2581\u00c9f\u00e9s\u00f9": 6209, "effect": 6210, "\u2581effect": 6211, "\u2581Effect": 6212, "\u2581effective": 6213, "\u2581effectively": 6214, "\u2581effectiveness": 6215, "\u2581effects": 6216, "\u2581efficient": 6217, "\u2581effort": 6218, "\u2581Effort": 6219, "\u2581efforts": 6220, "\u2581\u1eb9fol\u00fa\u1e63": 6221, "\u2581\u00c9f\u00far\u00e1\u00edm\u00f9": 6222, "eg": 6223, "\u2581\u1eb9gb\u00e0\u00e1": 6224, "\u2581\u1eb9gb\u00e0aj\u00ec": 6225, "\u2581egbe": 6226, "\u2581Egbe": 6227, "\u2581\u1eb9gb\u00e9": 6228, "\u2581\u1eb9gb\u00e8": 6229, "\u2581\u1eb9gb\u1eb9": 6230, "\u2581\u1eb8gb\u1eb9": 6231, "\u2581\u1eb9gb\u1eb9\u1eb9gb": 6232, "\u2581\u1eb8gb\u1eb9\u1eb9gb": 6233, "\u2581egbegberun": 6234, "\u2581egb\u00e8j\u00ecl": 6235, "\u2581egb\u00f2": 6236, "\u2581egb\u00f2gi": 6237, "\u2581egb\u00f2ogi": 6238, "\u00e8gb\u1ecdr\u00e0n": 6239, "\u2581egg": 6240, "\u2581eggs": 6241, "\u2581Egipti": 6242, "\u2581egotism": 6243, "\u2581\u00e8g\u00fan": 6244, "\u2581egungun": 6245, "\u2581egunr\u00edn": 6246, "\u2581Egypt": 6247, "\u2581Egyptian": 6248, "\u2581Egyptians": 6249, "eh": 6250, "\u2581\u1eb9h\u00e0nn\u00e0": 6251, "ehaviour": 6252, "\u2581Ehud": 6253, "\u2581\u00c9h\u00fad\u00f9": 6254, "ei": 6255, "\u2581eight": 6256, "\u2581Eight": 6257, "\u2581eighth": 6258, "\u2581Einstein": 6259, "\u2581either": 6260, "\u2581\u1eb9ja": 6261, "\u2581\u1eb8ja": 6262, "\u2581\u00e8j\u00eck\u00e1": 6263, "\u2581\u1eb9j\u00f3": 6264, "\u2581ej\u00f2": 6265, "ek": 6266, "\u2581EK": 6267, "\u2581eka": 6268, "\u2581\u00e8k\u00e9": 6269, "\u2581\u00c8k\u00e9": 6270, "\u2581\u00e8kej\u00ec": 6271, "\u2581\u00c8kej\u00ec": 6272, "\u2581\u00e8k\u00edn\u00ed": 6273, "\u2581\u00c8k\u00edn\u00ed": 6274, "Ekiti": 6275, "\u2581Ekiti": 6276, "\u00c8k\u00ect\u00ec": 6277, "\u2581\u00c8k\u00ect\u00ec": 6278, "eko": 6279, "\u2581eko": 6280, "\u2581Eko": 6281, "\u2581\u00c8k\u00f3": 6282, "\u2581eku": 6283, "\u2581Ekuador": 6284, "\u2581\u1eb9k\u00fan": 6285, "\u2581\u1eb9k\u00f9n": 6286, "\u2581ekuru": 6287, "el": 6288, "\u2581El": 6289, "EL": 6290, "\u2581elaborate": 6291, "\u2581Elaine": 6292, "\u2581elder": 6293, "\u2581elderly": 6294, "\u2581Elderly": 6295, "\u2581elders": 6296, "\u2581Elders": 6297, "\u2581eldest": 6298, "ele": 6299, "\u2581ele": 6300, "\u2581Ele": 6301, "\u2581el\u00e9": 6302, "\u2581El\u00e9": 6303, "\u2581\u1eb9l\u00e9": 6304, "\u2581\u1eb8l\u00e9": 6305, "\u1eb8L\u00c9": 6306, "\u2581\u1eb9l\u1eb9": 6307, "\u2581elect": 6308, "\u2581election": 6309, "\u2581electric": 6310, "\u2581electricity": 6311, "\u2581electronic": 6312, "\u2581el\u00e9d": 6313, "\u2581El\u00e9d": 6314, "\u2581el\u00e9\u00e8\u00e9r\u00ed": 6315, "\u2581\u1eb8l\u1eb9gb": 6316, "\u2581\u1eb9l\u1eb9gb\u00e9": 6317, "\u2581elektro": 6318, "\u2581element": 6319, "\u2581elements": 6320, "El\u00e9n\u00ecn\u00ed": 6321, "\u2581elephant": 6322, "\u2581el\u00e9r\u00e9": 6323, "\u2581el\u00e9ruku": 6324, "elese": 6325, "\u2581el\u00e9so": 6326, "\u2581elevate": 6327, "\u2581elevated": 6328, "\u2581el\u00e9wu": 6329, "\u2581el\u00e9y\u00ec\u00ed": 6330, "\u2581Eli": 6331, "\u2581\u00c8l\u00ed": 6332, "\u2581\u00c9l\u00ec": 6333, "elia": 6334, "\u2581Elias": 6335, "\u2581elicit": 6336, "\u2581\u00c9l\u00ed\u00e9s\u00e9r\u00ec": 6337, "\u2581Eliezer": 6338, "\u2581\u00c9l\u00edf\u00e1s\u00ec": 6339, "\u2581Elihu": 6340, "\u2581\u00c9l\u00edh\u00f9": 6341, "\u2581\u00c8l\u00edj\u00e0": 6342, "\u2581Elijah": 6343, "\u2581\u1eb8lik\u00e9n\u00e0": 6344, "\u2581eliminate": 6345, "\u2581eliminated": 6346, "eliminating": 6347, "\u2581Eliphaz": 6348, "\u2581\u00c8l\u00ed\u1e63\u00e0": 6349, "\u2581Elisha": 6350, "\u2581elite": 6351, "\u2581Elizabeth": 6352, "\u2581Elkanah": 6353, "ell": 6354, "ella": 6355, "\u2581Ella": 6356, "elle": 6357, "\u2581Ellen": 6358, "elli": 6359, "ello": 6360, "\u2581\u00e8l\u00f2": 6361, "\u2581\u1eb9l\u00f2m\u00ed\u00ec": 6362, "\u2581\u1eb8l\u00f2m\u00ed\u00ec": 6363, "\u2581\u1eb9l\u00f2m\u00edr\u00e0n": 6364, "\u2581\u1eb8l\u00f2m\u00edr\u00e0n": 6365, "\u2581eloquent": 6366, "els": 6367, "\u2581else": 6368, "\u2581elsewhere": 6369, "em": 6370, "\u2581Em": 6371, "\u0259m": 6372, "ema": 6373, "\u2581email": 6374, "\u2581embalm": 6375, "\u2581embark": 6376, "\u2581embarrass": 6377, "\u2581embarrassed": 6378, "\u2581embarrassment": 6379, "ember": 6380, "\u2581emblems": 6381, "\u2581embrace": 6382, "\u2581embraced": 6383, "\u2581embracing": 6384, "\u2581embryo": 6385, "\u2581emerge": 6386, "\u2581emergency": 6387, "emi": 6388, "\u2581Emi": 6389, "\u2581\u00e8mi": 6390, "\u00c8mi": 6391, "\u2581\u00c8mi": 6392, "\u2581Emil": 6393, "\u2581Emily": 6394, "\u2581Emlyn": 6395, "\u2581Emmanuel": 6396, "\u2581emotion": 6397, "\u2581emotional": 6398, "\u2581Emotional": 6399, "\u2581emotionally": 6400, "\u2581emotions": 6401, "\u2581empathetic": 6402, "\u2581empathy": 6403, "\u2581emperor": 6404, "Emperor": 6405, "\u2581Emperor": 6406, "\u2581emphasis": 6407, "\u2581emphasize": 6408, "\u2581emphasized": 6409, "\u2581empire": 6410, "\u2581Empire": 6411, "\u2581employ": 6412, "\u2581Employ": 6413, "\u2581employed": 6414, "\u2581employee": 6415, "\u2581employees": 6416, "\u2581employer": 6417, "\u2581employment": 6418, "\u2581empower": 6419, "\u2581empowered": 6420, "empt": 6421, "\u2581emptied": 6422, "\u2581emptiness": 6423, "\u2581empty": 6424, "\u2581Empty": 6425, "en": 6426, "\u2581en": 6427, "\u2581En": 6428, "EN": 6429, "ena": 6430, "\u2581enabl": 6431, "\u2581enable": 6432, "\u2581Enable": 6433, "\u2581enabled": 6434, "\u2581enables": 6435, "enberg": 6436, "enburg": 6437, "\u2581encamp": 6438, "ence": 6439, "ENCE": 6440, "\u2581enclos": 6441, "\u2581encoding": 6442, "Encoding": 6443, "\u2581Encoding": 6444, "\u2581encompass": 6445, "\u2581encounter": 6446, "\u2581encountered": 6447, "\u2581encourage": 6448, "\u2581Encourage": 6449, "\u2581encouraged": 6450, "\u2581encouragement": 6451, "\u2581encourages": 6452, "\u2581encouraging": 6453, "\u2581encroach": 6454, "ency": 6455, "\u2581Encyclop\u00e6dia": 6456, "\u2581encyclopedia": 6457, "\u2581Encyclopedia": 6458, "end": 6459, "\u2581end": 6460, "\u2581End": 6461, "\u2581END": 6462, "\u2581endanger": 6463, "\u2581endeavor": 6464, "\u2581ended": 6465, "\u2581endless": 6466, "\u2581endorse": 6467, "\u2581endowed": 6468, "\u2581ends": 6469, "\u2581endurance": 6470, "\u2581Endurance": 6471, "\u2581endure": 6472, "\u2581endured": 6473, "\u2581enduring": 6474, "ene": 6475, "\u2581enemies": 6476, "\u2581enemy": 6477, "\u2581energy": 6478, "\u2581enforce": 6479, "\u2581Eng": 6480, "\u2581engage": 6481, "\u2581engaged": 6482, "\u2581engaging": 6483, "engeance": 6484, "\u2581engender": 6485, "\u2581engine": 6486, "\u2581engineer": 6487, "\u2581Engineer": 6488, "\u2581England": 6489, "\u2581English": 6490, "\u2581engrossed": 6491, "\u2581engulf": 6492, "\u2581enhance": 6493, "eni": 6494, "\u2581eni": 6495, "\u1eb9ni": 6496, "\u2581\u1eb9ni": 6497, "\u1eb8ni": 6498, "\u2581\u1eb8ni": 6499, "\u2581\u1eb8NI": 6500, "\u2581\u1eb9n\u00ed": 6501, "\u2581\u1eb9n\u00ec": 6502, "\u1eb8n\u00ec": 6503, "\u2581\u1eb8n\u00ec": 6504, "enia": 6505, "\u2581\u1eb9nik\u00e9": 6506, "\u2581\u1eb9nik\u1eb9": 6507, "\u2581eniyan": 6508, "\u2581Eniyan": 6509, "\u00e8n\u00ecy\u00e0n": 6510, "\u2581\u00e8n\u00ecy\u00e0n": 6511, "\u00c8n\u00ecy\u00e0n": 6512, "\u2581\u00c8n\u00ecy\u00e0n": 6513, "\u2581enjoy": 6514, "\u2581Enjoy": 6515, "\u2581enjoyable": 6516, "\u2581enjoyed": 6517, "\u2581enjoying": 6518, "\u2581enjoyment": 6519, "enko": 6520, "\u2581enlarge": 6521, "\u2581enlighten": 6522, "\u2581enlightenment": 6523, "\u2581enmity": 6524, "enne": 6525, "eno": 6526, "\u2581Enoch": 6527, "\u2581enormous": 6528, "\u2581enough": 6529, "\u2581enrich": 6530, "\u2581enroll": 6531, "\u2581enrolled": 6532, "ens": 6533, "ense": 6534, "\u2581enslaved": 6535, "\u2581enslavement": 6536, "\u2581ensnare": 6537, "\u2581ensued": 6538, "\u2581ensure": 6539, "ent": 6540, "\u2581entail": 6541, "\u2581entangle": 6542, "\u2581enter": 6543, "\u2581Enter": 6544, "\u2581entered": 6545, "\u2581entering": 6546, "\u2581enterpris": 6547, "\u2581entertain": 6548, "\u2581entertainment": 6549, "\u2581Entertainment": 6550, "\u2581enthroned": 6551, "\u2581enthusiasm": 6552, "\u2581enthusiastic": 6553, "enthusiastically": 6554, "\u2581entice": 6555, "\u2581enticed": 6556, "\u2581entire": 6557, "\u2581entirely": 6558, "\u2581entitled": 6559, "\u2581entity": 6560, "ENTLY": 6561, "entom": 6562, "\u2581Entr": 6563, "\u2581entrance": 6564, "\u2581entreat": 6565, "\u2581entrenched": 6566, "\u2581entries": 6567, "\u2581entrust": 6568, "\u2581entrusted": 6569, "\u2581entry": 6570, "\u2581\u1eb9nu": 6571, "\u2581\u1eb8nu": 6572, "\u2581\u1eb9nubod\u00e8": 6573, "\u2581Enugu": 6574, "enuine": 6575, "\u2581envious": 6576, "\u2581environment": 6577, "\u2581Environment": 6578, "\u2581environmental": 6579, "\u2581envision": 6580, "\u2581envoy": 6581, "\u2581envy": 6582, "enz": 6583, "\u2581Epaf\u00edr\u00e1s\u00ec": 6584, "\u2581\u1eb8paf\u00edr\u00f3d\u00edt\u00f9": 6585, "\u2581Epaphras": 6586, "\u2581Eph": 6587, "\u2581Ephesian": 6588, "\u2581Ephesians": 6589, "\u2581Ephesus": 6590, "\u2581Ephraim": 6591, "\u2581Epi": 6592, "\u2581epidemic": 6593, "\u2581Epiphany": 6594, "\u2581episode": 6595, "\u2581Episte": 6596, "\u2581epo": 6597, "\u2581Epo": 6598, "\u00e8po": 6599, "ept": 6600, "equal": 6601, "\u2581equal": 6602, "\u2581equally": 6603, "\u2581equator": 6604, "\u2581equip": 6605, "\u2581equipment": 6606, "\u2581equipped": 6607, "\u2581equivalent": 6608, "er": 6609, "\u2581Er": 6610, "ER": 6611, "era": 6612, "\u2581era": 6613, "\u2581eradicate": 6614, "\u2581\u1eb9ran": 6615, "\u2581\u1eb9ranko": 6616, "\u2581\u1eb8ranko": 6617, "\u00e8r\u00e0nw\u00f3": 6618, "\u2581erase": 6619, "\u2581Erasmus": 6620, "ere": 6621, "\u2581ere": 6622, "\u2581\u00e8re": 6623, "\u2581\u00c8re": 6624, "\u2581er\u00e9": 6625, "\u2581Er\u00e9": 6626, "\u2581\u00e8r\u00e8": 6627, "\u2581\u00c8r\u00e8": 6628, "\u2581erect": 6629, "\u2581erekusu": 6630, "\u2581Erekusu": 6631, "\u2581er\u00e9k\u00f9\u1e63\u00f9": 6632, "\u2581Er\u00e9k\u00f9\u1e63\u00f9": 6633, "\u00e8r\u00e8s\u00e9": 6634, "eri": 6635, "erial": 6636, "\u2581Eric": 6637, "erie": 6638, "\u2581Erik": 6639, "\u2581Erika": 6640, "\u2581erin": 6641, "ERN": 6642, "\u2581Ernest": 6643, "\u2581Ernst": 6644, "ero": 6645, "\u2581ero": 6646, "\u2581\u00e8r\u00f2": 6647, "\u2581\u00c8r\u00f2": 6648, "\u2581erode": 6649, "\u2581\u00e8r\u00f2j\u00e0": 6650, "\u2581\u00e8r\u00f2ker\u00f2": 6651, "\u2581\u00e8r\u00f2k\u00e9r\u00f2": 6652, "\u2581\u00e8r\u00f2\u01f9gb\u00e0": 6653, "\u2581err": 6654, "\u2581erroneous": 6655, "\u2581error": 6656, "\u2581Error": 6657, "\u2581errors": 6658, "ers": 6659, "ERS": 6660, "ersonal": 6661, "ert": 6662, "\u1eb9r\u00fa": 6663, "\u2581\u1eb9r\u00fa": 6664, "\u2581\u1eb8r\u00fa": 6665, "\u2581\u1eb9r\u00f9": 6666, "\u2581eruku": 6667, "\u2581er\u00f9p\u00e8": 6668, "\u2581erupt": 6669, "ery": 6670, "es": 6671, "\u2581Es": 6672, "ES": 6673, "\u2581Esau": 6674, "ESC": 6675, "\u2581escalate": 6676, "\u2581escape": 6677, "\u2581escaped": 6678, "\u2581escaping": 6679, "\u2581escort": 6680, "ese": 6681, "\u2581\u1eb9s\u00e8": 6682, "\u2581\u1eb8s\u00e8": 6683, "\u2581\u1eb9s\u1eb9": 6684, "\u2581\u1eb8s\u1eb9": 6685, "\u2581\u00e8s\u00ec": 6686, "\u2581\u00c9\u1e63\u00ed\u00e0": 6687, "\u2581esin": 6688, "\u2581\u1eb9\u1e63in": 6689, "\u2581\u1eb8\u1e63in": 6690, "\u2581e\u1e63in\u1e63in": 6691, "\u2581eso": 6692, "\u00e8so": 6693, "\u2581\u00e8so": 6694, "\u2581especially": 6695, "espite": 6696, "ess": 6697, "\u2581essay": 6698, "\u2581essence": 6699, "\u2581essential": 6700, "\u2581Essential": 6701, "est": 6702, "\u2581Est": 6703, "EST": 6704, "\u2581establish": 6705, "\u2581established": 6706, "\u2581establishment": 6707, "\u2581estate": 6708, "\u2581esteem": 6709, "\u2581Esther": 6710, "estial": 6711, "\u2581estimate": 6712, "\u2581estimated": 6713, "\u2581Estonia": 6714, "\u2581\u00e8\u1e63\u00f9": 6715, "\u2581\u00c8\u1e63\u00f9": 6716, "\u2581es\u00f9s\u00fa": 6717, "et": 6718, "ET": 6719, "etach": 6720, "etc": 6721, "\u2581\u00e8te": 6722, "\u2581\u00c8te": 6723, "\u2581\u00e8t\u00e8": 6724, "\u2581eteet\u00ed": 6725, "\u2581\u00e8tek\u00e9te": 6726, "\u2581eternal": 6727, "\u2581Eternal": 6728, "\u2581eternity": 6729, "\u2581ethic": 6730, "\u2581Ethiopia": 6731, "\u2581Ethiopian": 6732, "\u2581ethnic": 6733, "\u2581et\u00ed": 6734, "\u2581et\u00edkun": 6735, "\u2581Et\u00edkun": 6736, "\u2581Eti\u00f3p\u00ed\u00e0": 6737, "\u2581eto": 6738, "\u00e8t\u00f2": 6739, "\u2581\u00e8t\u00f2": 6740, "\u2581\u00c8t\u00f2": 6741, "ett": 6742, "ette": 6743, "etti": 6744, "\u2581\u00e8t\u00f9t\u00f9": 6745, "\u2581\u00c8t\u00f9t\u00f9": 6746, "etween": 6747, "\u2581Eu": 6748, "\u2581Eunice": 6749, "\u2581eunuch": 6750, "\u2581Euphrates": 6751, "Eureka": 6752, "\u2581Europe": 6753, "\u2581European": 6754, "\u2581Eusebius": 6755, "ev": 6756, "eva": 6757, "\u2581Eva": 6758, "\u2581evaluate": 6759, "\u2581evangelizer": 6760, "\u2581evangelizers": 6761, "\u2581evangelizing": 6762, "\u2581Evans": 6763, "\u2581Eve": 6764, "eved": 6765, "evels": 6766, "\u2581Evelyn": 6767, "even": 6768, "\u2581even": 6769, "Even": 6770, "\u2581Even": 6771, "\u2581evening": 6772, "\u2581Evening": 6773, "\u2581event": 6774, "\u2581events": 6775, "\u2581eventually": 6776, "\u2581Eventually": 6777, "ever": 6778, "\u2581ever": 6779, "\u2581Ever": 6780, "everal": 6781, "everlasting": 6782, "\u2581everlasting": 6783, "\u2581Everlasting": 6784, "every": 6785, "\u2581every": 6786, "Every": 6787, "\u2581Every": 6788, "\u2581EVERY": 6789, "\u2581everybody": 6790, "\u2581everyday": 6791, "\u2581everyone": 6792, "Everyone": 6793, "\u2581Everyone": 6794, "\u2581everything": 6795, "Everything": 6796, "\u2581Everything": 6797, "\u2581everywhere": 6798, "\u2581evidence": 6799, "\u2581Evidence": 6800, "\u2581evident": 6801, "\u2581evidently": 6802, "\u2581Evidently": 6803, "\u2581evil": 6804, "\u2581Evil": 6805, "\u2581evildoer": 6806, "evitably": 6807, "\u2581evolution": 6808, "\u2581Evolution": 6809, "ew": 6810, "\u2581\u1eb9w\u00e0": 6811, "\u2581\u1eb8w\u00e0": 6812, "\u2581\u00e8we": 6813, "\u2581\u00c8we": 6814, "\u2581ew\u00e9": 6815, "\u2581ew\u00e9b": 6816, "\u2581ew\u00e9ko": 6817, "\u2581ew\u00e8l\u00e8": 6818, "\u2581ew\u00ec": 6819, "\u00e8w\u00f2": 6820, "\u2581ewu": 6821, "\u2581Ewu": 6822, "\u2581ew\u00fa": 6823, "\u2581ew\u00far\u00e9": 6824, "ex": 6825, "\u2581ex": 6826, "\u2581Ex": 6827, "\u2581EX": 6828, "\u2581exact": 6829, "\u2581exactly": 6830, "\u2581exaggerat": 6831, "\u2581exalt": 6832, "\u2581exalted": 6833, "\u2581Examin": 6834, "\u2581examination": 6835, "\u2581examine": 6836, "\u2581examined": 6837, "\u2581examining": 6838, "\u2581example": 6839, "\u2581Example": 6840, "\u2581examples": 6841, "\u2581excavat": 6842, "\u2581exceed": 6843, "\u2581excel": 6844, "\u2581excell": 6845, "\u2581excellent": 6846, "\u2581except": 6847, "\u2581exception": 6848, "\u2581exceptional": 6849, "\u2581excess": 6850, "\u2581excessive": 6851, "\u2581exchange": 6852, "\u2581excited": 6853, "\u2581excitement": 6854, "\u2581exciting": 6855, "\u2581exclaim": 6856, "\u2581exclaimed": 6857, "\u2581exclude": 6858, "\u2581exclusive": 6859, "\u2581excuse": 6860, "Exec": 6861, "\u2581execut": 6862, "\u2581execute": 6863, "\u2581executed": 6864, "\u2581execution": 6865, "\u2581executive": 6866, "\u2581Exemplar": 6867, "\u2581exemplary": 6868, "\u2581exemption": 6869, "\u2581exercise": 6870, "\u2581Exercise": 6871, "\u2581exercised": 6872, "\u2581exercising": 6873, "\u2581exert": 6874, "\u2581exhausted": 6875, "\u2581exhibit": 6876, "\u2581exhibition": 6877, "\u2581exhort": 6878, "\u2581exhortation": 6879, "\u2581exhorted": 6880, "\u2581exile": 6881, "\u2581exiled": 6882, "\u2581exist": 6883, "\u2581existed": 6884, "\u2581existence": 6885, "\u2581existing": 6886, "\u2581exists": 6887, "\u2581exit": 6888, "\u2581Exodus": 6889, "\u2581Exp": 6890, "\u2581expand": 6891, "\u2581Expand": 6892, "expanded": 6893, "\u2581expanded": 6894, "\u2581expanse": 6895, "\u2581expansion": 6896, "\u2581expect": 6897, "\u2581expectation": 6898, "Expectation": 6899, "\u2581expectations": 6900, "\u2581expected": 6901, "\u2581expects": 6902, "\u2581expedition": 6903, "\u2581expel": 6904, "\u2581expelled": 6905, "\u2581expend": 6906, "\u2581expense": 6907, "\u2581expenses": 6908, "\u2581expensive": 6909, "\u2581experience": 6910, "\u2581Experience": 6911, "\u2581experienced": 6912, "\u2581experiences": 6913, "\u2581experiencing": 6914, "\u2581experiment": 6915, "\u2581expert": 6916, "\u2581experts": 6917, "\u2581Experts": 6918, "\u2581expir": 6919, "\u2581Expires": 6920, "\u2581explain": 6921, "\u2581Explain": 6922, "\u2581explained": 6923, "\u2581explaining": 6924, "\u2581explains": 6925, "\u2581explanation": 6926, "\u2581explicit": 6927, "\u2581explode": 6928, "\u2581exploit": 6929, "\u2581exploitation": 6930, "\u2581explore": 6931, "\u2581explosion": 6932, "\u2581explosive": 6933, "Export": 6934, "\u2581Export": 6935, "\u2581expos": 6936, "\u2581expose": 6937, "\u2581exposed": 6938, "\u2581Expositor": 6939, "\u2581exposure": 6940, "\u2581express": 6941, "\u2581Express": 6942, "\u2581expresse": 6943, "\u2581expressed": 6944, "\u2581expression": 6945, "\u2581expressions": 6946, "\u2581exquisite": 6947, "\u2581extend": 6948, "\u2581extended": 6949, "\u2581extending": 6950, "\u2581extension": 6951, "\u2581extensive": 6952, "\u2581extent": 6953, "\u2581exterminate": 6954, "\u2581external": 6955, "\u2581extinct": 6956, "\u2581extinguish": 6957, "\u2581extort": 6958, "\u2581extra": 6959, "\u2581extract": 6960, "\u2581extraordinary": 6961, "\u2581extreme": 6962, "\u2581extremity": 6963, "\u2581exult": 6964, "ey": 6965, "\u2581eya": 6966, "\u00e8y\u00e0n": 6967, "\u00c8Y\u00c0N": 6968, "eye": 6969, "\u2581eye": 6970, "\u2581\u1eb9y\u1eb9": 6971, "\u2581\u1eb8y\u1eb9": 6972, "\u2581eyes": 6973, "\u2581eyewitness": 6974, "\u2581eyewitnesses": 6975, "\u2581eyi": 6976, "\u2581Eyi": 6977, "\u00e8y\u00ed": 6978, "\u2581\u00e8y\u00ed": 6979, "\u00c8y\u00ed": 6980, "\u2581\u00c8y\u00ed": 6981, "\u2581\u00c8Y\u00cd": 6982, "\u2581\u00e8y\u00edin\u00ec": 6983, "\u2581\u00e8y\u00edk": 6984, "\u2581\u00e8y\u00edk\u00e9y\u00ec\u00ed": 6985, "\u2581\u00c8y\u00edk\u00e9y\u00ec\u00ed": 6986, "\u2581\u1eb9yin": 6987, "\u2581ey\u00edn": 6988, "\u2581\u1eb9yinj\u00fa": 6989, "\u2581\u1eb9y\u1ecd": 6990, "ez": 6991, "\u2581Ezek": 6992, "\u2581Ezekiel": 6993, "\u2581Ezra": 6994, "f": 6995, "\u2581f": 6996, "F": 6997, "\u2581F": 6998, "fa": 6999, "\u2581fa": 7000, "\u2581Fa": 7001, "f\u00e1": 7002, "\u2581f\u00e1": 7003, "\u2581F\u00e1": 7004, "f\u00e0": 7005, "\u2581f\u00e0": 7006, "\u2581F\u00e0": 7007, "\u2581f\u00e0\u00e1": 7008, "\u2581f\u00e1\u00e0b\u00e0d\u00e0": 7009, "\u2581f\u00e0\u00e1j\u00ec": 7010, "f\u00e0\u00e0n\u00ed": 7011, "\u2581fabric": 7012, "\u2581Fac": 7013, "\u2581face": 7014, "\u2581Face": 7015, "\u2581faced": 7016, "\u2581faces": 7017, "\u2581faci": 7018, "\u2581facilitate": 7019, "\u2581facilities": 7020, "\u2581facility": 7021, "\u2581facing": 7022, "\u2581fact": 7023, "\u2581Fact": 7024, "\u2581factor": 7025, "\u2581factors": 7026, "\u2581factory": 7027, "\u2581Factory": 7028, "\u2581facts": 7029, "\u2581faculties": 7030, "\u2581f\u00e0d\u00e1k\u00e0": 7031, "\u2581fade": 7032, "\u2581f\u00e1f\u00e1": 7033, "fagb\u00e1ra": 7034, "\u2581fagi": 7035, "\u2581Fahrenheit": 7036, "\u2581fail": 7037, "\u2581failed": 7038, "\u2581Failed": 7039, "f\u00e1\u00ecl\u00ec": 7040, "\u2581f\u00e1\u00ecl\u00ec": 7041, "F\u00e1\u00ecl\u00ec": 7042, "\u2581F\u00e1\u00ecl\u00ec": 7043, "\u2581F\u00c1\u00ccL\u00cc": 7044, "\u2581failing": 7045, "\u2581failure": 7046, "\u2581Failure": 7047, "\u2581faint": 7048, "\u2581fair": 7049, "faith": 7050, "\u2581faith": 7051, "Faith": 7052, "\u2581Faith": 7053, "\u2581FAITH": 7054, "faithful": 7055, "\u2581faithful": 7056, "\u2581Faithful": 7057, "\u2581faithfully": 7058, "\u2581faithfulness": 7059, "\u2581fak\u00edki": 7060, "\u2581f\u00e0l\u00e0l\u00e0": 7061, "fall": 7062, "\u2581fall": 7063, "\u2581fallen": 7064, "\u2581falling": 7065, "\u2581falls": 7066, "false": 7067, "\u2581false": 7068, "\u2581False": 7069, "\u2581falsehood": 7070, "\u2581falsely": 7071, "\u2581fame": 7072, "\u2581familiar": 7073, "\u2581families": 7074, "\u2581Families": 7075, "\u2581family": 7076, "\u2581Family": 7077, "\u2581FAMILY": 7078, "\u2581famine": 7079, "\u2581famous": 7080, "\u2581fan": 7081, "\u2581fanatic": 7082, "\u2581fani": 7083, "\u2581fantasies": 7084, "\u2581fantasy": 7085, "far": 7086, "\u2581far": 7087, "\u2581Far": 7088, "fara": 7089, "\u2581fara": 7090, "\u2581Fara": 7091, "farah\u00e0n": 7092, "\u2581farah\u00e0n": 7093, "\u2581Faranse": 7094, "Farans\u00e9": 7095, "\u2581Farans\u00e9": 7096, "\u2581F\u00e1r\u00e1\u00f2": 7097, "farapit\u00fa": 7098, "faraw\u00e9": 7099, "\u2581f\u00e1r\u00e1y\u00e9": 7100, "\u2581fare": 7101, "\u2581f\u00e1r\u00edg\u00e1": 7102, "\u2581Faris\u00ed": 7103, "\u2581farm": 7104, "\u2581farmer": 7105, "\u2581farmers": 7106, "Farsi": 7107, "\u2581fascinat": 7108, "\u2581fascinating": 7109, "\u2581fashion": 7110, "\u2581fashioned": 7111, "\u2581F\u00e1sit\u00ec": 7112, "\u2581Faso": 7113, "\u2581fast": 7114, "\u2581fat": 7115, "\u2581fatal": 7116, "\u2581fate": 7117, "\u2581father": 7118, "Father": 7119, "\u2581Father": 7120, "\u2581fathers": 7121, "\u2581fatigue": 7122, "fault": 7123, "\u2581fault": 7124, "\u2581faultless": 7125, "\u2581favor": 7126, "\u2581favorable": 7127, "\u2581favorably": 7128, "\u2581favored": 7129, "\u2581favorite": 7130, "\u2581favoritism": 7131, "\u2581favour": 7132, "f\u00e0w\u00f2": 7133, "\u2581F\u00e1w\u1ecd": 7134, "\u2581f\u00e1w\u1ecdn": 7135, "\u2581f\u00e0y\u00e0": 7136, "\u2581f\u00e1y\u00e9": 7137, "f\u00e0y\u00e8": 7138, "\u2581F\u00e0y\u00e8": 7139, "fe": 7140, "\u2581fe": 7141, "\u2581Fe": 7142, "f\u00e9": 7143, "\u2581f\u00e9": 7144, "\u2581F\u00e9": 7145, "F\u00c9": 7146, "f\u00e8": 7147, "\u2581f\u00e8": 7148, "f\u1eb9": 7149, "\u2581f\u1eb9": 7150, "\u2581F\u1eb9": 7151, "\u2581FEA": 7152, "\u2581fear": 7153, "\u2581Fear": 7154, "\u2581feared": 7155, "\u2581fearful": 7156, "\u2581fearing": 7157, "\u2581fearlessly": 7158, "\u2581fears": 7159, "\u2581feast": 7160, "\u2581feat": 7161, "\u2581feathers": 7162, "\u2581feature": 7163, "\u2581featured": 7164, "\u2581features": 7165, "Feb": 7166, "February": 7167, "\u2581February": 7168, "\u2581fed": 7169, "\u2581Feder": 7170, "\u2581federa": 7171, "\u2581Federal": 7172, "\u2581Federico": 7173, "\u2581fee": 7174, "\u2581feed": 7175, "\u2581feeding": 7176, "\u2581feel": 7177, "\u2581Feel": 7178, "\u2581feeling": 7179, "\u2581feelings": 7180, "\u2581feels": 7181, "\u2581feet": 7182, "\u2581Felix": 7183, "\u2581fell": 7184, "fellow": 7185, "\u2581fellow": 7186, "\u2581Fellow": 7187, "\u2581fellowman": 7188, "\u2581fellowship": 7189, "felt": 7190, "\u2581felt": 7191, "\u2581female": 7192, "femi": 7193, "\u2581feminin": 7194, "\u2581f\u1eb9nu": 7195, "fer": 7196, "\u2581Fer": 7197, "\u2581Ferdinand": 7198, "\u2581f\u00e9r\u00e9": 7199, "\u2581f\u00e8r\u00e8s\u00e9": 7200, "\u2581Fern\u00e1ndez": 7201, "\u2581Fernando": 7202, "\u2581f\u00e8r\u00f2": 7203, "f\u00e8r\u00f2w\u00e9r\u00f2": 7204, "\u2581fertile": 7205, "\u2581fertility": 7206, "fertiliz": 7207, "\u2581fervent": 7208, "\u2581fervently": 7209, "\u2581f\u1eb9s": 7210, "f\u1eb9s\u1eb9": 7211, "\u2581f\u1eb9s\u1eb9": 7212, "\u2581f\u00e8s\u00ec": 7213, "\u2581festival": 7214, "\u2581Festival": 7215, "\u2581festivals": 7216, "\u2581festivities": 7217, "\u2581Festus": 7218, "\u2581fetch": 7219, "fet\u00ed": 7220, "\u2581fever": 7221, "\u2581few": 7222, "\u2581Few": 7223, "\u2581fewer": 7224, "\u2581feyinti": 7225, "ff": 7226, "fi": 7227, "\u2581fi": 7228, "Fi": 7229, "\u2581Fi": 7230, "\u2581FI": 7231, "f\u00ed": 7232, "\u2581f\u00ed": 7233, "\u2581F\u00ed": 7234, "f\u00ec": 7235, "\u2581f\u00ec": 7236, "f\u00ed\u00e0": 7237, "\u2581fiber": 7238, "fib\u00f3": 7239, "\u2581fiction": 7240, "\u2581f\u00ecd\u00ed": 7241, "\u2581F\u00ecd\u00ed": 7242, "f\u00ecd\u00edm\u00fal": 7243, "\u2581f\u00edd\u00ed\u00f2": 7244, "\u2581F\u00edd\u00ed\u00f2": 7245, "field": 7246, "\u2581field": 7247, "\u2581Field": 7248, "\u2581fields": 7249, "\u2581fierce": 7250, "\u2581fiery": 7251, "\u2581f\u00edf": 7252, "F\u00edf": 7253, "\u2581F\u00edf": 7254, "\u2581f\u00ecf": 7255, "\u2581f\u00edfa": 7256, "\u2581f\u00edf\u00e0": 7257, "\u2581f\u00edfani": 7258, "\u2581f\u00edfara": 7259, "\u2581F\u00edfara": 7260, "\u2581f\u00edfarasin": 7261, "\u2581f\u00edf\u00e8": 7262, "\u2581f\u00edf\u1eb9": 7263, "\u2581f\u00edfet\u00ed": 7264, "f\u00edfi": 7265, "\u2581f\u00edfi": 7266, "\u2581F\u00edfi": 7267, "\u2581f\u00edf\u00edn": 7268, "f\u00ecfo": 7269, "\u2581f\u00edf\u00f2": 7270, "\u2581f\u00edf\u1ecd": 7271, "\u2581f\u00edfoj\u00fa": 7272, "\u2581f\u00edf\u1ecdk\u00e0ns": 7273, "\u2581fifth": 7274, "\u2581Fifth": 7275, "\u2581f\u00edf\u00fan": 7276, "\u2581F\u00edf\u00fan": 7277, "\u2581f\u00edf\u00fanni": 7278, "\u2581f\u00edf\u00fanr\u00fagb\u00ecn": 7279, "\u2581fig": 7280, "f\u00ecgb\u00e0": 7281, "\u2581f\u00ecgb\u00e0": 7282, "\u2581fight": 7283, "\u2581Fight": 7284, "\u2581fighting": 7285, "\u2581figurative": 7286, "\u2581figuratively": 7287, "\u2581figure": 7288, "\u2581figures": 7289, "fihan": 7290, "fih\u00e0n": 7291, "\u2581fih\u00e0n": 7292, "\u2581f\u00ed\u00ecf\u00ed\u00ec": 7293, "f\u00ed\u00eck\u00ec": 7294, "\u2581fiimu": 7295, "\u2581f\u00ed\u00ecm\u00f9": 7296, "\u2581F\u00ed\u00ecm\u00f9": 7297, "f\u00ed\u00ecs\u00ec": 7298, "\u2581Fiji": 7299, "\u2581F\u00edj\u00ec": 7300, "\u2581Filad\u00e9": 7301, "file": 7302, "\u2581file": 7303, "File": 7304, "\u2581File": 7305, "FILE": 7306, "\u2581F\u00edl\u00e9m\u00f3n\u00ec": 7307, "\u2581filename": 7308, "\u2581files": 7309, "\u2581F\u00edl\u00ed": 7310, "\u2581Filip": 7311, "\u2581F\u00edl\u00edp\u00ec": 7312, "\u2581Fil\u00eds\u00ed\u00e0": 7313, "\u2581Fil\u00eds\u00edn\u00ec": 7314, "\u2581fill": 7315, "\u2581Fill": 7316, "filled": 7317, "\u2581filled": 7318, "\u2581filling": 7319, "\u2581film": 7320, "\u2581Film": 7321, "\u2581filmu": 7322, "\u2581filth": 7323, "fin": 7324, "FIN": 7325, "f\u00edn": 7326, "\u2581f\u00edn": 7327, "f\u00ecn": 7328, "\u2581final": 7329, "\u2581finally": 7330, "\u2581Finally": 7331, "\u2581finance": 7332, "\u2581financial": 7333, "\u2581financially": 7334, "\u2581find": 7335, "Find": 7336, "\u2581Find": 7337, "f\u00ed\u0144d\u00e0": 7338, "\u2581finding": 7339, "\u2581finds": 7340, "fine": 7341, "\u2581fine": 7342, "\u2581Fine": 7343, "\u2581f\u00ednf\u00edn": 7344, "\u2581finger": 7345, "\u2581Fingerprint": 7346, "\u2581F\u00edn\u00edh\u00e1s\u00ec": 7347, "\u2581finish": 7348, "\u2581finished": 7349, "finitely": 7350, "f\u00ecnk\u00ecn": 7351, "\u2581Finland": 7352, "f\u00edn\u0144d\u00e0": 7353, "f\u00ednn\u00edf\u00ednn\u00ed": 7354, "\u2581f\u00ednn\u00edf\u00ednn\u00ed": 7355, "\u2581f\u00ednn\u00fa": 7356, "f\u00ednn\u00faf\u00edn": 7357, "\u2581f\u00ednn\u00faf\u00edn": 7358, "\u2581f\u00ednra": 7359, "\u2581fin\u00fa": 7360, "\u2581f\u00edof\u00edo": 7361, "\u2581fip\u00e1": 7362, "fipam\u1ecd": 7363, "fire": 7364, "\u2581fire": 7365, "\u2581Fire": 7366, "\u2581f\u00ecr\u00ed\u00ecj\u00ec": 7367, "firm": 7368, "\u2581firm": 7369, "\u2581Firm": 7370, "\u2581firmly": 7371, "\u2581first": 7372, "\u2581First": 7373, "\u2581firstborn": 7374, "\u2581firstfruits": 7375, "\u2581firsthand": 7376, "\u2581Fischer": 7377, "\u2581fish": 7378, "\u2581Fish": 7379, "\u2581fisherman": 7380, "\u2581fishermen": 7381, "\u2581fishing": 7382, "\u2581f\u00eds\u00ed\u00ecs\u00ec": 7383, "\u2581Fisiksi": 7384, "\u2581fit": 7385, "\u2581fitafita": 7386, "\u2581f\u00edt\u00e1m\u00ec": 7387, "\u2581f\u00ect\u00edl\u00e0": 7388, "\u2581f\u00ect\u00edn\u00e0": 7389, "\u2581fitting": 7390, "\u2581five": 7391, "\u2581Five": 7392, "\u2581f\u00ecw\u00e0": 7393, "\u2581fix": 7394, "\u2581fixed": 7395, "\u2581f\u00ecy\u00e0": 7396, "f\u00ecy\u00e0j\u1eb9": 7397, "\u2581fiy\u00e8": 7398, "fiy\u00e8s\u00ed": 7399, "\u2581flag": 7400, "flam": 7401, "\u2581flame": 7402, "\u2581flash": 7403, "\u2581flat": 7404, "\u2581Flavi": 7405, "\u2581flavor": 7406, "\u2581fled": 7407, "flee": 7408, "\u2581flee": 7409, "\u2581flesh": 7410, "\u2581fleshly": 7411, "\u2581flew": 7412, "\u2581flexibility": 7413, "\u2581flexible": 7414, "\u2581flight": 7415, "\u2581flirt": 7416, "\u2581Flo": 7417, "\u2581float": 7418, "\u2581Float": 7419, "\u2581flock": 7420, "\u2581flood": 7421, "\u2581Flood": 7422, "\u2581floodwaters": 7423, "\u2581floor": 7424, "\u2581Flore": 7425, "\u2581Florence": 7426, "\u2581Florida": 7427, "\u2581flour": 7428, "\u2581flourish": 7429, "\u2581flow": 7430, "\u2581flowers": 7431, "\u2581flu": 7432, "\u2581fly": 7433, "\u2581flying": 7434, "fo": 7435, "\u2581fo": 7436, "\u2581Fo": 7437, "f\u00f3": 7438, "\u2581f\u00f3": 7439, "\u2581F\u00f3": 7440, "f\u00f2": 7441, "\u2581f\u00f2": 7442, "\u2581F\u00f2": 7443, "f\u1ecd": 7444, "\u2581f\u1ecd": 7445, "\u2581F\u1ecd": 7446, "\u2581focus": 7447, "\u2581Focus": 7448, "\u2581focuse": 7449, "\u2581focused": 7450, "\u2581focusing": 7451, "\u2581f\u00f3d\u00e0": 7452, "\u2581foe": 7453, "f\u00f2fin": 7454, "\u2581foh\u00f9n": 7455, "\u2581foj\u00fa": 7456, "\u2581FOJ\u00da": 7457, "foj\u00far\u00ed": 7458, "f\u1ecdk\u00e0ns\u00ecn": 7459, "fold": 7460, "\u2581fold": 7461, "\u2581folder": 7462, "\u2581Folder": 7463, "\u2581folk": 7464, "\u2581follow": 7465, "\u2581Follow": 7466, "\u2581followed": 7467, "\u2581follower": 7468, "\u2581followers": 7469, "\u2581following": 7470, "\u2581Following": 7471, "f\u1ecdn": 7472, "\u2581fond": 7473, "\u2581f\u1ecdnf\u1ecdn": 7474, "fon\u00edfoj\u00ec": 7475, "\u2581F\u00f2n\u00ed\u1e63\u00ed\u00e0": 7476, "\u2581font": 7477, "\u2581Font": 7478, "food": 7479, "\u2581food": 7480, "\u2581Food": 7481, "\u2581fool": 7482, "\u2581foolish": 7483, "\u2581foolishness": 7484, "\u2581f\u00f3\u00f2n\u00f9": 7485, "f\u00f2\u00f2r\u00f3": 7486, "\u2581f\u00f2\u00f2r\u00f3": 7487, "foot": 7488, "\u2581foot": 7489, "\u2581footnote": 7490, "\u2581Footnote": 7491, "\u2581footsteps": 7492, "f\u00f2pin": 7493, "for": 7494, "\u2581for": 7495, "For": 7496, "\u2581For": 7497, "\u2581FOR": 7498, "\u2581forbade": 7499, "\u2581forbid": 7500, "\u2581forbidden": 7501, "\u2581force": 7502, "\u2581Force": 7503, "\u2581forced": 7504, "\u2581forces": 7505, "ford": 7506, "\u2581Ford": 7507, "\u2581forefather": 7508, "\u2581forefathers": 7509, "\u2581foregleam": 7510, "\u2581foregoing": 7511, "\u2581forehead": 7512, "\u2581foreign": 7513, "\u2581Foreign": 7514, "\u2581foreigners": 7515, "\u2581foremost": 7516, "\u2581foreordain": 7517, "\u2581foreshadow": 7518, "\u2581forest": 7519, "\u2581foretell": 7520, "\u2581foretold": 7521, "forever": 7522, "\u2581forever": 7523, "\u2581Forever": 7524, "\u2581forfeit": 7525, "\u2581forget": 7526, "\u2581forgive": 7527, "\u2581forgiven": 7528, "\u2581forgiveness": 7529, "\u2581Forgiveness": 7530, "\u2581forgiving": 7531, "\u2581forgot": 7532, "\u2581forgotten": 7533, "\u2581for\u00ed": 7534, "form": 7535, "\u2581form": 7536, "\u2581formal": 7537, "format": 7538, "\u2581format": 7539, "\u2581formation": 7540, "\u2581formed": 7541, "\u2581former": 7542, "\u2581formerly": 7543, "\u2581formidable": 7544, "\u2581forms": 7545, "\u2581formula": 7546, "\u2581fornication": 7547, "f\u00f3r\u00f3": 7548, "f\u00f2r\u00f3r\u00f3": 7549, "\u2581forsake": 7550, "\u2581forth": 7551, "\u2581fortified": 7552, "\u2581fortify": 7553, "\u2581fortunate": 7554, "\u2581Fortunately": 7555, "\u2581fortune": 7556, "\u2581for\u00fak\u1ecd": 7557, "\u2581forward": 7558, "\u2581foster": 7559, "\u2581fought": 7560, "\u2581f\u00f3un": 7561, "found": 7562, "\u2581found": 7563, "\u2581Found": 7564, "\u2581foundation": 7565, "\u2581Foundation": 7566, "\u2581founded": 7567, "\u2581fountain": 7568, "\u2581four": 7569, "\u2581Four": 7570, "\u2581fourth": 7571, "\u2581f\u1ecdw\u1ecd": 7572, "fow\u00f3pam": 7573, "\u2581f\u00f2y\u00e0": 7574, "f\u00f2ye": 7575, "\u2581fraction": 7576, "\u2581fragile": 7577, "\u2581fragment": 7578, "\u2581fragrance": 7579, "\u2581frail": 7580, "\u2581frame": 7581, "\u2581Frame": 7582, "fran": 7583, "\u2581Franc": 7584, "\u2581France": 7585, "\u2581Francis": 7586, "\u2581Francisco": 7587, "\u2581Franco": 7588, "\u2581Fran\u00e7ois": 7589, "\u2581frank": 7590, "\u2581Frank": 7591, "\u2581Frankfurt": 7592, "\u2581Franklin": 7593, "\u2581Fransi": 7594, "\u2581Fr\u00e1ns\u00ec": 7595, "\u2581frantic": 7596, "\u2581Franz": 7597, "\u2581fraud": 7598, "fre": 7599, "\u2581Fred": 7600, "\u2581Frederick": 7601, "free": 7602, "\u2581free": 7603, "Free": 7604, "\u2581Free": 7605, "\u2581freed": 7606, "\u2581freedom": 7607, "\u2581Freedom": 7608, "\u2581freely": 7609, "French": 7610, "\u2581French": 7611, "\u2581frequency": 7612, "\u2581frequent": 7613, "\u2581Frequent": 7614, "\u2581frequently": 7615, "\u2581fresh": 7616, "fri": 7617, "\u2581Fri": 7618, "\u2581Friday": 7619, "frie": 7620, "\u2581Fried": 7621, "friend": 7622, "\u2581friend": 7623, "\u2581Friend": 7624, "\u2581friendly": 7625, "\u2581friends": 7626, "\u2581Friends": 7627, "\u2581friendship": 7628, "\u2581Friendship": 7629, "\u2581friendships": 7630, "\u2581frighten": 7631, "\u2581frightened": 7632, "\u2581fro": 7633, "from": 7634, "\u2581from": 7635, "From": 7636, "\u2581From": 7637, "front": 7638, "\u2581front": 7639, "\u2581fruit": 7640, "\u2581Fruit": 7641, "\u2581fruitage": 7642, "\u2581fruitful": 7643, "\u2581fruits": 7644, "\u2581frustrated": 7645, "\u2581frustrating": 7646, "\u2581frustration": 7647, "ft": 7648, "ftermath": 7649, "ftn": 7650, "fu": 7651, "\u2581fu": 7652, "\u2581Fu": 7653, "f\u00fa": 7654, "\u2581f\u00fa": 7655, "f\u00f9": 7656, "\u2581fuel": 7657, "\u2581f\u00f9f\u00f9": 7658, "\u2581fugitive": 7659, "\u2581F\u00faj\u00ec": 7660, "ful": 7661, "\u2581fulfill": 7662, "\u2581Fulfill": 7663, "\u2581fulfilled": 7664, "\u2581fulfilling": 7665, "\u2581fulfillment": 7666, "\u2581full": 7667, "Full": 7668, "\u2581Full": 7669, "fully": 7670, "\u2581fully": 7671, "fulness": 7672, "fun": 7673, "\u2581fun": 7674, "\u2581Fun": 7675, "f\u00fan": 7676, "\u2581f\u00fan": 7677, "F\u00fan": 7678, "\u2581F\u00fan": 7679, "\u2581F\u00daN": 7680, "\u2581function": 7681, "\u2581Fund": 7682, "\u2581fundamental": 7683, "\u2581funds": 7684, "\u2581funeral": 7685, "\u2581funfun": 7686, "f\u00fanni": 7687, "\u2581f\u00fanni": 7688, "\u2581F\u00fanni": 7689, "\u2581f\u00fanra": 7690, "f\u00fanr\u00fagb\u00ecn": 7691, "\u2581f\u00fanr\u00fagb\u00ecn": 7692, "\u2581fur": 7693, "\u2581fura": 7694, "\u2581Furansi": 7695, "\u2581furious": 7696, "\u2581furnace": 7697, "\u2581furnish": 7698, "\u2581furniture": 7699, "\u2581further": 7700, "\u2581Further": 7701, "furuf\u00fa": 7702, "f\u00fat\u00e0": 7703, "\u2581futile": 7704, "\u2581futility": 7705, "\u2581future": 7706, "\u2581Future": 7707, "f\u00fa\u00f9f\u00f9": 7708, "f\u00f9\u00fa\u00f9f\u00f9": 7709, "g": 7710, "\u2581g": 7711, "G": 7712, "\u2581G": 7713, "\u01f5": 7714, "\u011f": 7715, "\u01e7": 7716, "\u0121": 7717, "ga": 7718, "\u2581ga": 7719, "\u2581Ga": 7720, "GA": 7721, "g\u00e1": 7722, "G\u00c1": 7723, "g\u00e0": 7724, "\u2581G\u00e0": 7725, "g\u00e0\u00e1": 7726, "g\u00e0\u00e1l": 7727, "\u2581gaara": 7728, "\u2581g\u00e0\u00e0r\u00e0g\u00e0": 7729, "\u2581g\u00e1\u00e0s\u00ec": 7730, "\u2581g\u00e0ba": 7731, "\u2581Gabon": 7732, "\u2581Gabriel": 7733, "\u2581gadab\u00fa": 7734, "\u2581g\u00e0d\u00e0gb\u00e0": 7735, "\u2581G\u00e1d\u00ec": 7736, "\u2581g\u00e1d\u00edg\u00e1d\u00ed": 7737, "\u2581g\u00e1g\u00e1": 7738, "g\u00e0g\u00e0": 7739, "\u2581g\u00e0g\u00e0": 7740, "\u2581g\u00e0g\u00e0r\u00e0": 7741, "gagun": 7742, "g\u00e1gun": 7743, "\u2581Gail": 7744, "\u2581gain": 7745, "\u2581gained": 7746, "\u2581gaining": 7747, "\u2581Gaius": 7748, "gal": 7749, "\u2581Gal": 7750, "\u2581G\u00e1l": 7751, "\u2581G\u00c1L": 7752, "\u2581Galatia": 7753, "\u2581G\u00e1l\u00e1t\u00ed\u00e0": 7754, "\u2581Galatians": 7755, "\u2581galaxies": 7756, "\u2581Galeon": 7757, "\u2581Galilee": 7758, "\u2581Galileo": 7759, "\u2581G\u00e1l\u00edl\u00ec": 7760, "\u2581galley": 7761, "\u2581gallons": 7762, "\u2581Gallus": 7763, "\u2581Gama": 7764, "\u2581Gamaliel": 7765, "\u2581gamble": 7766, "\u2581gambling": 7767, "\u2581Gambling": 7768, "\u2581game": 7769, "\u2581games": 7770, "\u2581Games": 7771, "gan": 7772, "\u2581gan": 7773, "Gan": 7774, "\u2581Gan": 7775, "\u2581g\u00e1n": 7776, "g\u00e0n": 7777, "\u2581G\u00e1n\u00e0": 7778, "\u2581gang": 7779, "\u2581Ganga": 7780, "\u2581g\u00e0\u01f9g\u00e0": 7781, "gangan": 7782, "\u2581gangan": 7783, "\u2581ganr\u00ednganr\u00edn": 7784, "\u2581gap": 7785, "gar": 7786, "\u2581Gar": 7787, "gara": 7788, "\u2581garbage": 7789, "\u2581garden": 7790, "\u2581Garden": 7791, "gari": 7792, "\u2581garlic": 7793, "\u2581garment": 7794, "\u2581garments": 7795, "\u2581Gary": 7796, "\u2581gas": 7797, "gas\u00ed": 7798, "gate": 7799, "\u2581gate": 7800, "\u2581gather": 7801, "\u2581gathered": 7802, "\u2581gathering": 7803, "\u2581gatherings": 7804, "\u2581G\u00e1t\u00ec": 7805, "g\u00e1t\u00f3r\u00ec": 7806, "gave": 7807, "\u2581gave": 7808, "\u2581gaze": 7809, "gb": 7810, "GB": 7811, "gba": 7812, "\u2581gba": 7813, "\u2581Gba": 7814, "\u2581GBA": 7815, "gb\u00e1": 7816, "\u2581gb\u00e1": 7817, "\u2581Gb\u00e1": 7818, "GB\u00c1": 7819, "gb\u00e0": 7820, "\u2581gb\u00e0": 7821, "Gb\u00e0": 7822, "\u2581Gb\u00e0": 7823, "GB\u00c0": 7824, "\u2581GB\u00c0": 7825, "gb\u00e0\u00e1": 7826, "\u2581gb\u00e1\u00e0": 7827, "\u2581gb\u00e1\u00e0t\u00fa\u00f9": 7828, "gb\u00e1b\u1ecd": 7829, "gb\u00e1d\u00f9n": 7830, "\u2581gb\u00e1d\u00f9n": 7831, "\u2581gb\u00e0d\u00far\u00e0": 7832, "\u2581Gb\u00e0d\u00far\u00e0": 7833, "\u2581gb\u00e0fiy\u00e8s\u00ed": 7834, "\u2581Gbagb\u00e1": 7835, "\u2581gb\u00e1gb\u00e1\u00e1gb\u00e1": 7836, "\u2581gb\u00e0gb\u00e0kugb\u00e0": 7837, "\u2581gb\u00e0gb\u00e9": 7838, "\u2581Gb\u00e0gb\u00e9": 7839, "gb\u00e0gb\u00f3": 7840, "\u2581gb\u00e0gede": 7841, "\u2581Gb\u00e0gede": 7842, "\u2581gbagidi": 7843, "\u2581gb\u00e1gungb\u00e0gun": 7844, "\u2581gb\u00e0jar\u00e8": 7845, "gbajo": 7846, "\u2581gb\u00e0j\u1ecdba": 7847, "\u2581gb\u00e1j\u00fa": 7848, "\u2581gbaj\u00fagbaj\u00e0": 7849, "\u2581gbaj\u00fam": 7850, "\u2581Gbaj\u00fam": 7851, "\u2581gbajumo": 7852, "\u2581gbaj\u00fam\u00f2": 7853, "gbakeji": 7854, "gb\u00e1kej\u00ec": 7855, "gb\u00e0kigb\u00e0": 7856, "\u2581gb\u00e1ko": 7857, "\u2581gbalaja": 7858, "\u2581gbalasa": 7859, "gb\u00e0lej\u00f2": 7860, "\u2581gb\u00e0lej\u00f2": 7861, "\u2581gb\u00e1m\u00fa\u1e63\u00e9": 7862, "\u2581gban\u00e1": 7863, "\u2581gbangba": 7864, "gb\u00e0\u01f9gb\u00e0": 7865, "\u2581gb\u00e0\u01f9gb\u00e0": 7866, "\u2581gbani": 7867, "gbanin\u00edm": 7868, "\u2581gbank\u1ecdgb\u00ec": 7869, "\u2581gb\u00e1r": 7870, "gbara": 7871, "gb\u00e1ra": 7872, "\u2581gb\u00e1ra": 7873, "gb\u00e0r\u00e1": 7874, "\u2581gb\u00e0r\u00e0": 7875, "gb\u00e1r\u00e0w\u00e9": 7876, "gb\u00e0r\u00f2y\u00ecn": 7877, "gbat\u1eb9nir\u00f2": 7878, "gbati": 7879, "\u2581gb\u00e0\u00f9": 7880, "\u2581gbaw\u00e1j\u00fa": 7881, "\u2581gbayawu": 7882, "\u2581gb\u00e1y\u00e9": 7883, "\u2581gbay\u00ec": 7884, "gbe": 7885, "\u2581gbe": 7886, "Gbe": 7887, "gb\u00e9": 7888, "\u2581gb\u00e9": 7889, "Gb\u00e9": 7890, "\u2581Gb\u00e9": 7891, "GB\u00c9": 7892, "gb\u00e8": 7893, "\u2581gb\u00e8": 7894, "\u2581Gb\u00e8": 7895, "GB\u00c8": 7896, "gb\u1eb9": 7897, "\u2581gb\u1eb9": 7898, "\u2581gb\u00e9d\u00e8gb\u00e9": 7899, "gbedem\u00e9j\u00ec": 7900, "\u2581gb\u1eb9d\u1eb9muk\u1eb9": 7901, "\u2581gb\u00e8\u00e8r\u00e0n": 7902, "gb\u00e8\u00e9s": 7903, "gb\u00e8gb\u00e8": 7904, "gb\u00e8j\u00e0": 7905, "\u2581gb\u00e8j\u00e0": 7906, "gb\u00e8je": 7907, "\u2581Gbekal\u1eb9": 7908, "gb\u00e9kal\u1eb9": 7909, "\u2581gb\u00e9k\u00fat\u00e0": 7910, "\u2581gb\u00e9ni": 7911, "\u2581gb\u1eb9nu": 7912, "\u2581gb\u00e9ra": 7913, "gb\u00e9raga": 7914, "\u2581gb\u00e9re": 7915, "\u2581gb\u00e9regb\u00e8re": 7916, "gberiko": 7917, "gberingberin": 7918, "\u2581gb\u00e8r\u00f2": 7919, "\u2581gb\u00e8r\u00fa": 7920, "\u2581gb\u00e8s\u00e8": 7921, "gb\u00e8s\u00ec": 7922, "gb\u00e9w\u1ecdl\u00e9": 7923, "\u2581gb\u00e9y\u00e0w\u00f3": 7924, "gb\u00e9y\u1eb9": 7925, "gbi": 7926, "\u2581gb\u00ec": 7927, "\u2581gb\u00edgb": 7928, "\u2581Gb\u00edgb": 7929, "\u2581gbigba": 7930, "\u2581gb\u00edgba": 7931, "\u2581Gb\u00edgba": 7932, "\u2581gb\u00edgb\u00e1": 7933, "\u2581gb\u00edgb\u00e0": 7934, "\u2581Gb\u00edgb\u00e0": 7935, "\u2581gb\u00edgb\u00e1d\u00f9n": 7936, "\u2581gb\u00edgb\u00e0d\u00far\u00e0": 7937, "\u2581gb\u00edgb\u00e1m\u00fa\u1e63\u00e9": 7938, "\u2581gbigbe": 7939, "gb\u00edgb\u00e9": 7940, "\u2581gb\u00edgb\u00e9": 7941, "Gb\u00edgb\u00e9": 7942, "\u2581Gb\u00edgb\u00e9": 7943, "\u2581gb\u00edgb\u00e8": 7944, "\u2581gb\u00edgb\u1eb9": 7945, "\u2581gb\u00edgbi": 7946, "\u2581gb\u00edgb\u00f3": 7947, "\u2581gb\u00edgb\u00f3n\u00e1": 7948, "\u2581gb\u00edgb\u00f2\u00f2r\u00f2": 7949, "\u2581gbil\u00e8": 7950, "\u2581gb\u00ecm\u00f2": 7951, "gb\u00ecm\u1ecd": 7952, "gbin": 7953, "\u2581gbin": 7954, "gb\u00ecn": 7955, "\u2581gb\u00ecn": 7956, "\u2581gbin\u00e1": 7957, "\u2581gbingbin": 7958, "\u2581GB\u00ccY\u00c0NJ": 7959, "gb\u00ecy\u00e0nj\u00fa": 7960, "\u2581gb\u00ecy\u00e0nj\u00fa": 7961, "gb\u00edy\u00e8": 7962, "gbo": 7963, "\u2581gbo": 7964, "\u2581Gbo": 7965, "GBO": 7966, "gb\u00f3": 7967, "\u2581gb\u00f3": 7968, "\u2581Gb\u00f3": 7969, "GB\u00d3": 7970, "gb\u00f2": 7971, "\u2581gb\u00f2": 7972, "\u2581Gb\u00f2": 7973, "gb\u1ecd": 7974, "\u2581gb\u1ecd": 7975, "\u2581gb\u00f2de": 7976, "\u2581gb\u00f2d\u00ec": 7977, "\u2581gb\u1ecdd\u1ecd": 7978, "gbogbo": 7979, "\u2581gbogbo": 7980, "Gbogbo": 7981, "\u2581Gbogbo": 7982, "\u2581GBOGBO": 7983, "\u2581gbogbogb\u00f2": 7984, "\u2581gb\u00f3gun": 7985, "\u2581gboh\u00f9ngboh\u00f9n": 7986, "gb\u00f3h\u00f9ns\u00e1f": 7987, "\u2581gb\u1ecdin": 7988, "\u2581gb\u00f3j\u00fa": 7989, "\u2581gb\u00f3l\u00f3h\u00f9n": 7990, "\u2581Gb\u00f3l\u00f3h\u00f9n": 7991, "\u2581gb\u00f2m\u00ecnira": 7992, "gb\u1ecdn": 7993, "\u2581gb\u1ecdn": 7994, "\u2581gb\u00f3n\u00e1": 7995, "gb\u00f2\u01f9gb\u00f2": 7996, "\u2581gb\u00f2\u01f9gb\u00f2": 7997, "\u2581gb\u1ecdnm\u1ecdgb\u1ecdnm\u1ecd": 7998, "\u2581gb\u00f2\u00f2": 7999, "gb\u1ecd\u1ecdgba": 8000, "\u2581gb\u00f2\u00f3g\u00ec": 8001, "\u2581gb\u00f3\u00f2g\u00f9n": 8002, "gb\u00f2\u00f2r\u00f2": 8003, "\u2581gb\u00f2\u00f2r\u00f2": 8004, "gb\u1ecd\u1ecdr\u1ecd": 8005, "\u2581gb\u1ecd\u1ecdr\u1ecd": 8006, "GBOR": 8007, "\u2581gb\u00f3r\u00edy\u00ecn": 8008, "gboro": 8009, "gb\u1ecdr\u1ecd": 8010, "gb\u00f3\u1e63\u00e1\u1e63\u00e1": 8011, "\u2581gbow\u00f3": 8012, "gboy\u00e8": 8013, "\u2581gboy\u00fan": 8014, "gbun": 8015, "\u2581gb\u00fan": 8016, "\u2581gb\u00f9ngb\u00f9n": 8017, "\u2581gb\u00fangb\u00f9ngb\u00fan": 8018, "\u2581gb\u00far": 8019, "\u2581gbuu": 8020, "\u2581gbuuru": 8021, "\u2581GConf": 8022, "ge": 8023, "\u2581Ge": 8024, "\u2581GE": 8025, "g\u00e9": 8026, "\u2581g\u00e9": 8027, "G\u00e9": 8028, "\u2581G\u00e9": 8029, "G\u00c9": 8030, "\u2581G\u00c9": 8031, "g\u00e8": 8032, "\u2581g\u00e8": 8033, "G\u00e8": 8034, "\u2581G\u00e8": 8035, "g\u1eb9": 8036, "\u2581g\u1eb9": 8037, "\u2581G\u1eb9": 8038, "\u2581G\u00e9b\u00far": 8039, "ged": 8040, "\u2581gedegbe": 8041, "\u2581g\u00e9d\u00e9gb\u00e9": 8042, "\u2581g\u1eb9d\u00fa": 8043, "\u2581g\u00e9\u00e8m\u00f9": 8044, "\u2581geere": 8045, "\u2581Geesi": 8046, "\u2581gege": 8047, "\u2581Gege": 8048, "\u2581gegebi": 8049, "\u2581gegere": 8050, "\u2581G\u00e9h\u00e1s\u00ec": 8051, "\u2581Gehazi": 8052, "\u2581Gehenna": 8053, "gel": 8054, "\u2581g\u1eb9l\u1eb9t\u1eb9": 8055, "\u2581gem": 8056, "\u2581Gemar\u00e1y\u00e0": 8057, "gen": 8058, "\u2581Gen": 8059, "\u2581g\u00e9\u0144d\u00e9": 8060, "\u2581gender": 8061, "\u2581Gene": 8062, "\u2581genealogical": 8063, "\u2581general": 8064, "\u2581General": 8065, "\u2581generate": 8066, "\u2581generation": 8067, "\u2581generations": 8068, "Generic": 8069, "\u2581generosity": 8070, "\u2581generous": 8071, "\u2581generously": 8072, "\u2581Genesis": 8073, "\u2581genetic": 8074, "\u2581Geneva": 8075, "\u2581genocide": 8076, "gent": 8077, "\u2581Gentile": 8078, "\u2581Gentiles": 8079, "\u2581gentle": 8080, "\u2581gently": 8081, "\u2581genuine": 8082, "\u2581Geoffrey": 8083, "\u2581geographic": 8084, "\u2581Geographic": 8085, "\u2581Geography": 8086, "\u2581George": 8087, "\u2581Georgia": 8088, "ger": 8089, "\u2581Ger": 8090, "\u2581Gerald": 8091, "\u2581German": 8092, "\u2581Germany": 8093, "\u2581Gertrud": 8094, "ges": 8095, "\u2581G\u00e9s\u00e9r\u00ec": 8096, "\u2581g\u1eb9\u1e63in": 8097, "\u2581Gestapo": 8098, "\u2581gesture": 8099, "get": 8100, "\u2581get": 8101, "Get": 8102, "\u2581Get": 8103, "\u2581Gethsemane": 8104, "\u2581G\u1eb9tis\u00e9m\u00e1n\u00ec": 8105, "\u2581gets": 8106, "\u2581Gett": 8107, "\u2581getting": 8108, "gg": 8109, "gh": 8110, "\u2581Ghana": 8111, "gi": 8112, "\u2581Gi": 8113, "g\u00ed": 8114, "\u2581G\u00ed": 8115, "g\u00ec": 8116, "\u2581giant": 8117, "\u2581G\u00edb\u00e9\u00f3n\u00ec": 8118, "\u2581G\u00edb\u00ed\u00f3n\u00ec": 8119, "\u2581Gideon": 8120, "gidi": 8121, "\u2581gidi": 8122, "\u2581Gidi": 8123, "g\u00edd\u00ed": 8124, "\u2581g\u00edd\u00edgb\u00f2": 8125, "\u2581gidigidi": 8126, "\u2581G\u00edd\u00ed\u00f3n\u00ec": 8127, "g\u00edd\u00f2": 8128, "gie": 8129, "\u2581gift": 8130, "\u2581Gift": 8131, "gifts": 8132, "\u2581gifts": 8133, "\u2581g\u00edg": 8134, "\u2581giga": 8135, "\u2581g\u00edga": 8136, "\u2581G\u00edga": 8137, "\u2581g\u00edg\u00fan": 8138, "\u2581g\u00edg\u00f9n": 8139, "\u2581Gil": 8140, "\u2581g\u00edl\u00e1\u00e0s\u00ec": 8141, "\u2581Gilbert": 8142, "\u2581Gilead": 8143, "\u2581G\u00edl\u00ed\u00e1d\u00ec": 8144, "\u2581G\u00edl\u00edg\u00e1l\u00ec": 8145, "\u2581g\u00edl\u00f3\u00f2b\u00f9": 8146, "gin": 8147, "ging": 8148, "ginj\u00f9": 8149, "gio": 8150, "g\u00edpt\u00ec": 8151, "\u2581g\u00edr\u00e1": 8152, "\u2581G\u00edr\u00e1": 8153, "g\u00edr\u00e1\u00e0m\u00f9": 8154, "\u2581girama": 8155, "\u2581g\u00edr\u00e1m\u00e0": 8156, "\u2581giramaf\u00f3\u00f2n\u00f9": 8157, "\u2581gird": 8158, "giri": 8159, "\u2581g\u00edr\u00ed": 8160, "g\u00ecr\u00ec": 8161, "\u2581g\u00ecr\u00ec": 8162, "\u2581g\u00edr\u00edg\u00edr\u00ed": 8163, "\u2581G\u00cdR\u00cd\u00cc": 8164, "\u2581G\u00edr\u00ed\u00eck\u00ec": 8165, "\u2581G\u00edr\u00ed\u00ecs\u00ec": 8166, "G\u00edr\u00edk\u00ec": 8167, "\u2581g\u00ecr\u00ecw\u00f2": 8168, "\u2581girl": 8169, "\u2581Girl": 8170, "\u2581girlfriend": 8171, "\u2581girls": 8172, "gist": 8173, "\u2581g\u00ect\u00e1": 8174, "\u2581Giuseppe": 8175, "give": 8176, "\u2581give": 8177, "Give": 8178, "\u2581Give": 8179, "\u2581given": 8180, "\u2581giver": 8181, "\u2581Giver": 8182, "\u2581gives": 8183, "giving": 8184, "\u2581giving": 8185, "\u2581Giving": 8186, "gl": 8187, "GL": 8188, "\u2581glaci": 8189, "\u2581glad": 8190, "\u2581gladly": 8191, "\u2581glance": 8192, "\u2581glass": 8193, "gle": 8194, "\u2581glean": 8195, "gli": 8196, "\u2581glimpse": 8197, "\u2581global": 8198, "\u2581Global": 8199, "\u2581globe": 8200, "\u2581Globe": 8201, "\u2581gloom": 8202, "\u2581Gloria": 8203, "\u2581glorifie": 8204, "\u2581glorified": 8205, "\u2581glorify": 8206, "\u2581glorious": 8207, "\u2581glory": 8208, "\u2581Glory": 8209, "glow": 8210, "\u2581Gl\u00fcck": 8211, "\u2581glutton": 8212, "gna": 8213, "gno": 8214, "gnome": 8215, "GNOME": 8216, "\u2581GNOME": 8217, "\u2581GNU": 8218, "go": 8219, "\u2581go": 8220, "Go": 8221, "\u2581Go": 8222, "GO": 8223, "g\u00f3": 8224, "\u2581G\u00f3": 8225, "g\u00f2": 8226, "g\u1ecd": 8227, "\u2581goal": 8228, "\u2581goals": 8229, "\u2581Goals": 8230, "\u2581goat": 8231, "\u2581goats": 8232, "\u2581g\u1ecdb\u1ecdi": 8233, "\u2581god": 8234, "God": 8235, "\u2581God": 8236, "\u2581GOD": 8237, "\u2581goddess": 8238, "\u2581gods": 8239, "\u2581goes": 8240, "\u2581Gog": 8241, "\u2581g\u00f3g\u00f3": 8242, "\u2581gog\u00f2": 8243, "\u2581gogoro": 8244, "\u2581going": 8245, "g\u00f3je": 8246, "\u2581g\u00f2j\u00e9": 8247, "g\u00f3j\u00ec": 8248, "\u2581g\u00f2k\u00e8": 8249, "\u2581G\u00f2l\u00e1y\u00e1t\u00ec": 8250, "\u2581gold": 8251, "\u2581Gold": 8252, "\u2581golden": 8253, "\u2581Golden": 8254, "\u2581Goliath": 8255, "\u2581G\u00f3m\u00e9r\u00ec": 8256, "\u2581Gomina": 8257, "\u2581g\u00f3m\u00ecn\u00e0": 8258, "\u2581G\u00f3m\u00ecn\u00e0": 8259, "\u2581G\u00f2m\u00f3r\u00e0": 8260, "\u2581Gomorrah": 8261, "gon": 8262, "\u2581gone": 8263, "\u2581g\u00f3\u0144g\u00f3": 8264, "\u2581Gonz\u00e1lez": 8265, "good": 8266, "\u2581good": 8267, "\u2581Good": 8268, "\u2581goodness": 8269, "google": 8270, "\u2581Google": 8271, "\u2581g\u00f3\u00f2l\u00f9": 8272, "\u2581Gor": 8273, "\u2581Gordon": 8274, "\u2581gospel": 8275, "\u2581Gospel": 8276, "\u2581Gospels": 8277, "\u2581gossip": 8278, "\u2581got": 8279, "\u2581govern": 8280, "\u2581Govern": 8281, "\u2581governed": 8282, "\u2581governing": 8283, "\u2581government": 8284, "\u2581Government": 8285, "\u2581governments": 8286, "\u2581governor": 8287, "\u2581Governor": 8288, "gr": 8289, "gra": 8290, "\u2581Gra": 8291, "\u2581grace": 8292, "\u2581Grace": 8293, "\u2581gracious": 8294, "grad": 8295, "\u2581grade": 8296, "\u2581gradual": 8297, "\u2581gradually": 8298, "\u2581Gradually": 8299, "\u2581Graduat": 8300, "\u2581graduate": 8301, "\u2581graduated": 8302, "\u2581graduates": 8303, "\u2581graduating": 8304, "\u2581graduation": 8305, "\u2581Graham": 8306, "\u2581grain": 8307, "gram": 8308, "\u2581grammar": 8309, "\u2581Grammy": 8310, "\u2581grand": 8311, "\u2581Grand": 8312, "\u2581grandchildren": 8313, "\u2581grandfather": 8314, "\u2581grandmother": 8315, "\u2581Grandpa": 8316, "\u2581grandparents": 8317, "\u2581grandson": 8318, "\u2581grant": 8319, "\u2581Grant": 8320, "\u2581granted": 8321, "\u2581Granted": 8322, "\u2581grape": 8323, "graph": 8324, "\u2581Graph": 8325, "\u2581graphic": 8326, "\u2581Graphics": 8327, "\u2581grasp": 8328, "\u2581grass": 8329, "\u2581grateful": 8330, "\u2581Grateful": 8331, "\u2581gratification": 8332, "\u2581gratitude": 8333, "\u2581grave": 8334, "\u2581gravity": 8335, "\u2581gray": 8336, "gre": 8337, "\u2581Gre": 8338, "\u2581greas": 8339, "great": 8340, "\u2581great": 8341, "\u2581Great": 8342, "\u2581greater": 8343, "\u2581Greater": 8344, "\u2581greatest": 8345, "\u2581greatly": 8346, "\u2581greatness": 8347, "\u2581Greece": 8348, "\u2581greed": 8349, "\u2581greedy": 8350, "Greek": 8351, "\u2581Greek": 8352, "\u2581green": 8353, "\u2581Green": 8354, "\u2581greet": 8355, "\u2581greeted": 8356, "\u2581greeting": 8357, "\u2581Gregory": 8358, "\u2581grew": 8359, "\u2581Grew": 8360, "\u2581gri": 8361, "\u2581Gri": 8362, "gricultural": 8363, "\u2581grief": 8364, "\u2581grieve": 8365, "\u2581grieving": 8366, "\u2581grievous": 8367, "\u2581Grigory": 8368, "\u2581Griisi": 8369, "\u2581Gr\u00ed\u00ecs\u00ec": 8370, "\u2581grip": 8371, "gro": 8372, "\u2581Gro": 8373, "\u2581groom": 8374, "\u2581grooming": 8375, "\u2581gross": 8376, "\u2581ground": 8377, "\u2581Ground": 8378, "\u2581group": 8379, "\u2581Group": 8380, "\u2581groups": 8381, "\u2581grow": 8382, "\u2581Grow": 8383, "\u2581growing": 8384, "\u2581grown": 8385, "\u2581grows": 8386, "\u2581growth": 8387, "\u2581grudge": 8388, "grudgingly": 8389, "gt": 8390, "gu": 8391, "\u2581gu": 8392, "\u2581Gu": 8393, "GU": 8394, "g\u00fa": 8395, "G\u00da": 8396, "g\u00f9": 8397, "\u2581guarantee": 8398, "guard": 8399, "\u2581guard": 8400, "\u2581Guard": 8401, "\u2581Guardian": 8402, "\u2581Guatemala": 8403, "\u2581g\u00f9d\u00f9": 8404, "\u2581gudugudu": 8405, "gue": 8406, "\u2581guess": 8407, "\u2581guest": 8408, "\u2581guests": 8409, "gui": 8410, "\u2581guidance": 8411, "\u2581Guidance": 8412, "\u2581guide": 8413, "\u2581Guide": 8414, "\u2581guided": 8415, "\u2581guidelines": 8416, "\u2581guiding": 8417, "\u2581guilt": 8418, "\u2581guilty": 8419, "\u2581Guinea": 8420, "Gujarati": 8421, "\u2581Gulf": 8422, "\u2581gum": 8423, "gun": 8424, "\u2581gun": 8425, "GUN": 8426, "g\u00fan": 8427, "\u2581g\u00fan": 8428, "g\u00f9n": 8429, "\u2581g\u00f9n": 8430, "Gurmukhi": 8431, "\u2581Gustav": 8432, "\u2581gusu": 8433, "\u2581G\u00fas\u00f9": 8434, "\u2581guusu": 8435, "\u2581Guusu": 8436, "\u2581g\u00fa\u00fas\u00f9": 8437, "\u2581G\u00fa\u00fas\u00f9": 8438, "\u2581Guyana": 8439, "\u2581Gwen": 8440, "gy": 8441, "h": 8442, "H": 8443, "\u2581H": 8444, "\u1e25": 8445, "\u1e24": 8446, "ha": 8447, "\u2581ha": 8448, "\u2581Ha": 8449, "h\u00e1": 8450, "\u2581h\u00e1": 8451, "\u2581H\u00e1": 8452, "h\u00e0": 8453, "\u2581h\u00e1\u00e0p\u00f9": 8454, "\u2581Habakkuk": 8455, "\u2581H\u00e1b\u00e1k\u00fak\u00f9": 8456, "\u2581habit": 8457, "\u2581habits": 8458, "had": 8459, "\u2581had": 8460, "\u2581Had": 8461, "\u2581H\u00e1g\u00e1\u00ec": 8462, "\u2581Hagar": 8463, "\u2581H\u00e1g\u00e1r\u00ec": 8464, "\u2581Haggai": 8465, "hai": 8466, "\u2581hail": 8467, "\u2581hair": 8468, "\u2581Haiti": 8469, "hal": 8470, "\u2581half": 8471, "\u2581hall": 8472, "\u2581Hall": 8473, "\u2581Halls": 8474, "\u2581halt": 8475, "ham": 8476, "\u2581Ham": 8477, "\u2581Haman": 8478, "\u2581H\u00e1m\u00e1n\u00ec": 8479, "\u2581Hamburg": 8480, "\u2581Hamilton": 8481, "h\u00e1m\u00f3": 8482, "han": 8483, "\u2581han": 8484, "\u2581Han": 8485, "\u2581h\u00e1n": 8486, "h\u00e0n": 8487, "\u2581h\u00e0n": 8488, "\u2581H\u00e0n": 8489, "\u2581H\u00c0N": 8490, "\u2581H\u00e1n\u00e0": 8491, "\u2581hand": 8492, "\u2581Hand": 8493, "\u2581handed": 8494, "\u2581handle": 8495, "\u2581handled": 8496, "\u2581handling": 8497, "\u2581hands": 8498, "\u2581hang": 8499, "\u2581h\u00e0nh\u00e0n": 8500, "\u2581Hannah": 8501, "\u2581Hans": 8502, "\u2581HAPP": 8503, "\u2581happen": 8504, "\u2581Happen": 8505, "\u2581happened": 8506, "\u2581happening": 8507, "\u2581happens": 8508, "\u2581happier": 8509, "\u2581happily": 8510, "\u2581Happily": 8511, "\u2581happiness": 8512, "\u2581Happiness": 8513, "\u2581happy": 8514, "Happy": 8515, "\u2581Happy": 8516, "har": 8517, "\u2581Har": 8518, "\u2581h\u00e1ra": 8519, "\u2581Haran": 8520, "\u2581H\u00e1r\u00e1n\u00ec": 8521, "\u2581harass": 8522, "\u2581harassment": 8523, "\u2581harbor": 8524, "hard": 8525, "\u2581hard": 8526, "\u2581Hard": 8527, "\u2581hardened": 8528, "\u2581harder": 8529, "\u2581Hardly": 8530, "\u2581hardship": 8531, "\u2581hardships": 8532, "\u2581hardworking": 8533, "haritable": 8534, "\u2581harlot": 8535, "\u2581harm": 8536, "\u2581harmful": 8537, "\u2581harmless": 8538, "\u2581harmonious": 8539, "\u2581harmonize": 8540, "\u2581harmony": 8541, "\u2581Harold": 8542, "\u2581harp": 8543, "\u2581Harper": 8544, "\u2581Harris": 8545, "\u2581Harrison": 8546, "\u2581Harry": 8547, "\u2581harsh": 8548, "\u2581Harvard": 8549, "\u2581harvest": 8550, "\u2581Harvest": 8551, "\u2581has": 8552, "\u2581Has": 8553, "\u2581Hasmonaean": 8554, "\u2581hastily": 8555, "\u2581hat": 8556, "HAT": 8557, "\u2581hate": 8558, "\u2581Hate": 8559, "\u2581hated": 8560, "\u2581hates": 8561, "\u2581hatred": 8562, "hau": 8563, "\u2581haughtiness": 8564, "\u2581haughty": 8565, "\u2581Hausa": 8566, "\u2581Hav": 8567, "have": 8568, "\u2581have": 8569, "Have": 8570, "\u2581Have": 8571, "\u2581HAVE": 8572, "having": 8573, "\u2581having": 8574, "\u2581havoc": 8575, "\u2581Hawaii": 8576, "\u2581Hay": 8577, "\u2581h\u00e1y\u00e0": 8578, "\u2581hazard": 8579, "\u2581hazardous": 8580, "he": 8581, "\u2581he": 8582, "He": 8583, "\u2581He": 8584, "\u2581HE": 8585, "h\u00e9": 8586, "\u2581h\u00e9": 8587, "\u2581H\u00e9": 8588, "h\u00e8": 8589, "head": 8590, "\u2581head": 8591, "\u2581Head": 8592, "\u2581headache": 8593, "\u2581headed": 8594, "\u2581header": 8595, "\u2581headline": 8596, "\u2581headquarters": 8597, "\u2581heads": 8598, "\u2581headship": 8599, "\u2581heal": 8600, "\u2581healed": 8601, "\u2581healing": 8602, "\u2581health": 8603, "\u2581Health": 8604, "\u2581healthful": 8605, "\u2581healthy": 8606, "hear": 8607, "\u2581hear": 8608, "\u2581Hear": 8609, "\u2581heard": 8610, "Hearer": 8611, "\u2581hearing": 8612, "\u2581hears": 8613, "\u2581heart": 8614, "\u2581Heart": 8615, "\u2581heartache": 8616, "hearted": 8617, "\u2581heartfelt": 8618, "\u2581hearts": 8619, "\u2581heartwarming": 8620, "\u2581heat": 8621, "\u2581Heather": 8622, "heaven": 8623, "\u2581heaven": 8624, "\u2581Heaven": 8625, "\u2581heavenly": 8626, "\u2581heavens": 8627, "\u2581heavily": 8628, "\u2581heavy": 8629, "\u2581Heb": 8630, "\u2581H\u00e9b": 8631, "\u2581H\u00c9B": 8632, "\u2581H\u00e9b\u00e9r\u00f9": 8633, "\u2581H\u00c9B\u00c9R\u00d9": 8634, "\u2581Hebrew": 8635, "\u2581HEBREW": 8636, "\u2581Hebrews": 8637, "\u2581H\u00e9b\u00far\u00f3n\u00ec": 8638, "\u2581H\u00e9d\u00ed\u00ecs\u00ec": 8639, "\u2581heed": 8640, "\u2581height": 8641, "\u2581heightened": 8642, "\u2581Heights": 8643, "heim": 8644, "\u2581Heinrich": 8645, "\u2581heirs": 8646, "hel": 8647, "\u2581Hel": 8648, "\u2581held": 8649, "\u2581Helen": 8650, "hell": 8651, "\u2581hell": 8652, "\u2581Helleni": 8653, "\u2581hellfire": 8654, "\u2581helmet": 8655, "help": 8656, "\u2581help": 8657, "Help": 8658, "\u2581Help": 8659,
[...]
